#version: 0.2 - Trained by `huggingface/tokenizers`
Ġ Ġ
ĠĠ ĠĠ
ĠĠ Ġ
o r
a t
o n
> <
s e
i n
e r
ĠĠĠĠ ĠĠĠ
m e
m p
a r
or t
d e
i mp
r o
a l
imp ort
_ _
e n
, <
a me
a n
Ġ =
n ame
r e
) <
s t
i on
: <
Ġ p
f ro
i t
fro m
Ġ import
a s
l e
l o
i d
u t
č Ċ
" "
i c
ĠĠĠĠ ĠĠĠĠĠĠĠ
) :<
l s
Ġ t
l y
at or
Ġ d
al id
g s
an g
alid ator
lo t
f i
lot ly
at ion
Ġ "
e d
j ang
a se
jang o
" ,
a p
c o
m o
de f
g e
e l
c l
en t
ar gs
as s
u r
se l
sel f
h e
k w
Ġ '
b ase
kw args
" <
cl ass
Ġd jango
i s
y p
Ġ re
V alidator
Ġ s
c t
o p
ap p
u e
) ,<
Ġ *
p lotly
c on
ar ent
i g
i ls
( <
yp e
( "
Ġ in
a c
e x
ut ils
u p
f or
mo de
a d
= "
t r
Ġ def
Ġ __
in g
Ġ .
el d
e s
"" "<
t ype
. <
in it
Ġ m
t er
g i
Ġ* *
Ġ self
ge t
' ,
a b
l ic
ed it
u n
fi g
v er
Ġ [
F i
Ġ T
Ġp arent
v alidator
Ġ _
validator s
Ġp lotly
base validators
> #
se r
se t
an d
u l
Ġt he
Ġ n
mode ls
t ur
a ge
] <
Ġ c
tur n
Ġ b
Ġ o
n t
t h
Ġ A
v i
Ġ S
e ct
Ġre turn
C on
Ġ name
in t
Fi eld
i b
h t
at e
m a
ic t
( '
p op
__ (<
w s
lic ation
u m
( )<
app lication
ac k
Ġ for
' <
c h
or e
i st
= '
al l
0 0
Ġ as
Ġ a
s ion
Ġ get
ul t
c e
ig r
igr ation
ex t
i l
Ġ C
) .
at h
d u
Con fig
p y
i f
fi le
m in
me nt
l or
i z
t o
Ġs up
" ),<
Ġ )<
on e
a y
st r
Ġ #
j ect
ab le
" ,<
p o
en d
t e
Ġ M
Ġ w
a ult
Ġ D
e t
re s
Ġsup er
du le
p t
it e
h o
d b
at a
N G
vi e
). __
for m
p arent
Ġ 2
Ġ con
( _
mo dule
Ġ from
Ġ N
) )<
' ,<
G I
Ġ de
Ġ edit
Ġ is
Ġ L
Ġ[ <
r c
q ue
Ġ f
co m
d jango
tr ib
h is
/ /
ver sion
Ġ v
p p
Ġ -
Ġ P
> __
> """<
ro ject
r ue
d ict
r int
er s
: //
r or
S GI
co lor
a ut
in gs
Ġt o
fi eld
Ġ (
Ġ 1
Ġ l
o t
` `
" )<
c k
t p
__ (
igration s
' )<
pp Config
c ore
con trib
d o
y s
se s
Ġ r
v e
Ġ file
Ġ R
Ġ ex
- -
0 1
i al
ws gi
mode l
set t
b o
Ġ B
s p
ht tp
S E
Ġ on
sett ings
~ ~
Ġ module
o l
st er
Ġ co
ic k
Ġ se
que st
i me
Ġ F
as gi
t ext
age s
"" "
Ġp ath
i p
ad min
ce pt
ig ht
in e
l at
Ġ models
o s
. /
at ter
a in
u b
Ġ h
I NG
http s
E r
. _
u ser
L E
Ġo f
Ġ st
s s
gi ster
Ġo s
l a
o ur
lo g
e st
o de
q u
Ġ I
al ue
p ar
ĠĠĠĠ ĠĠĠĠ
d i
Er ror
ct ion
vie ws
Ġ """<
c al
Ġd ict
iz e
F or
def ault
Ġ ):<
d er
o m
a m
c s
i m
Ġ <
he ck
ur l
Ġ ]<
p re
Ġ if
ma il
en se
Ġ O
rc Validator
ata base
Ġs ys
r on
Ġ G
p ut
Ġ 0
Ġ and
lo ad
Ġm igrations
n s
Ġt his
u s
Ġ op
0 2
Ġcon fig
te st
o k
i es
an s
Ġdef ault
T rue
l en
Ġp rint
de p
vi ron
ho w
s c
er ation
r ay
W SGI
r ight
5 0
Ġ str
a x
b ar
i ve
p roject
ial iz
aut h
Ġse e
en viron
ĠR e
Ġ {
Ġv ar
l ab
v el
ar e
re quest
p ath
u se
n c
and l
O R
le vel
um b
m and
/ <
vie w
Ġ 3
Ġ +
t a
Ġ U
ig n
at ic
o ut
all able
u re
app s
ar t
T T
th on
k e
E R
Ġ y
at ed
Ġin t
Ġ ``
Ġ """
lo y
r i
cept ion
A d
e c
A ppConfig
O D
Ġ or
# #
h ar
Ġp ass
p ro
umb er
Ġ= =
it h
ĠN O
( )
e w
ode l
Ġ[ "
ĠA ppConfig
er e
Ġvar i
Ġ' .
l i
A NG
ĠT rue
p rint
Ġ views
al se
e at
p atter
color bar
J ANG
JANG O
Ġvari able
o lor
aut o
co de
Ġde p
re gister
Ġc allable
form ation
Ġm ore
me ss
Ġ'. ./
' ),<
set default
l ter
set up
Ġp roject
r app
Ġ e
M odel
mp l
ac he
M OD
1 01
D JANGO
Ġin formation
po ses
Ġ E
do cs
S er
s ite
dep loy
Q A
u res
p ort
on t
deploy ment
ack end
`` .<
t ime
U LE
eration s
patter ns
ĠNO QA
MOD ULE
ING S
TT INGS
SE TTINGS
ma x
O N
" :
Ġex poses
i o
Ġp y
eat ures
= =
-- --
q l
n um
m ar
B ase
Ġname d
I t
django project
A ut
a g
Ġ model
how to
m s
> ]<
Ġn ot
Ġb y
ma in
el se
Ġ. _
Ġ H
__ ,
ur ls
andl er
url patterns
Ġ g
Ġ" __
l ay
E N
en er
_ /
cal c
Ġ ),<
ang e
Ġc heck
~~ ~~
g th
t s
Ġ- >
Ġ'../ _
or y
ac e
c es
ver bo
verbo se
Ġ un
ar ray
Ġ field
mpl ate
en de
olor Validator
len gth
Ġn o
i re
f o
ar n
di r
Ġ verbose
ĠN one
ializ er
1 2
( ):<
Ġt est
ad d
Ġt yp
Ġre lat
Ġv alue
in ter
v ed
g r
n e
D E
Ġ use
* -
4 0
I T
Ġ- *-
er ror
n et
m igrations
o Field
op y
z y
as k
d le
opy right
I n
p er
I C
l ine
E S
Ġtyp ing
l ib
w or
our ce
k er
it le
rapp er
n one
__ ,<
har Field
ĠT his
lic ense
at ch
m ap
in d
com mand
fi x
er y
Aut oField
ap i
Ġ ("
Ġ WSGI
ende nc
s on
Ser ializer
t ick
Ġ admin
Ad min
a i
at tr
. """<
p ack
endenc ies
o le
Ġ* <
M igration
ĠM igration
f ont
Ġop erations
Ġdep endencies
( ))<
V i
ack b
a ct
un ction
ĠB ase
u de
" ]<
tr ain
f g
ĠS e
Ġ settings
d ing
ackb one
de x
C H
ut e
po int
Ġ ('
> @
b ject
d ate
b ackend
> )<
ic ense
d ata
he ad
Ġp ro
t ent
le s
o ls
u g
Ġ `
Ġp ip
in put
st e
Ġt h
Ġrelat ive
tr ans
N umber
A T
Ġb ackbone
w are
ect ion
pt ion
con fig
Vi ew
Ġb e
p n
} <
Ġt ype
tr y
Ġ setup
re ate
op en
mess ages
Ġm in
Ġ' ./
x ception
] )<
is p
c fg
Ġ i
v alue
Ġ (<
ro up
__ ",<
in fo
' )
d ist
P I
ar y
st an
S tr
F eatures
R e
Ġt r
ul l
par se
id dle
ER R
ĠD atabase
it er
m l
ĠA SGI
Ġ2 02
ERR OR
ar g
Number Validator
form at
Ġ an
E C
Ġw h
A G
co co
S T
t itle
ĠĠĠĠ ĠĠĠĠĠĠĠĠĠĠĠ
file s
id th
lab el
form s
mp le
ut ure
app end
k en
ser t
= [
t y
iddle ware
arn ing
Ġm ax
v is
la zy
e g
Str ing
s ize
backend s
Ġp re
e mail
ign al
C olorValidator
i x
] ,
auth or
Ġ 4
' :
sc atter
s h
train ed
n n
n y
C harField
Ġl ist
ĠD jango
as h
ĠF alse
B ig
Ġ ser
00 0
l ist
u il
Big AutoField
qu ery
= (
f pn
l l
Ġp ack
J S
L T
ar d
Y P
JS ON
ĠC opyright
D e
mar ker
N one
op t
Ġ |
ire ct
B U
n o
it y
ces s
Ġ ut
Ġin ter
ta ils
D atabase
i de
Ġ log
j son
as ses
s rcValidator
ĠP y
O p
Ġd o
) ,
ĠL icense
u mp
Q L
or g
f r
l ation
r un
I D
Ġn um
s ql
S D
Ġ W
u st
to ols
EC K
l an
or ch
CH ECK
Ġ app
A U
For m
p lot
ut ion
n al
/ ',
v al
Ġ x
trans lation
A L
q a
- .
ES S
Ġ class
Ġw ith
c heck
Ġb o
Ġno qa
YP E
Ġ V
up load
Ġ_ <
Ġy our
c ation
ch ed
Ġget text
3 2
a f
A SGI
Ġsup port
EN SE
mo ved
Ġ %
Ġde tails
s y
un c
IC ENSE
S rcValidator
Ġ_ ("
vis ion
Ġ @
Ġ Ð
ke y
t ro
ĠG ener
R es
] ,<
Ġ 7
d isp
ite m
or m
H andler
># <
F AU
FAU LT
g is
F alse
ĠS ignal
rc nn
l it
st atic
ĠL ICENSE
v id
T he
Ġt ime
un d
B o
Ġ https
cl ude
u ment
CHECK ING
ĠT YPE
un t
get attr
ĠS t
s ched
m m
Ġuse d
f ace
L S
Ġ[ ]<
ne ls
field s
Ġth at
i ly
en v
om mand
cl asses
Ġd ist
que ue
T ext
to ken
ch an
Ð ¾
Ġ version
S t
Ġm ain
---- ----
Ġ license
at ase
Ġh ere
e mplate
ĠSe e
S QL
i ent
ht ml
Ġ ab
Ġo ut
i fi
sched u
Ġco ding
Ð °
f uture
se d
wor k
A lter
I N
P o
m is
Ġ it
Ġun der
lay out
ump y
## ##
o u
Ġ. -.
Ġ` -
py right
o d
2 0
h andler
c or
colorbar s
T est
Ġr un
l le
te mplate
Ġut f
re ad
c he
ole an
Ġ ro
ic e
8 0
BU G
Ġst atic
Ð µ
Ġr ange
== ==
Ġ :
ize Validator
end er
Q ue
ĠU ser
li ent
r ray
o me
Alter Field
Ġin it
con f
ializ ers
P ro
mm lab
n er
po st
con tent
Ġ Fi
Ġ" ._
et a
lo w
Ġas sert
Ġp o
fi lter
am ily
U N
s Validator
Ġ202 2
str ing
r ib
ax is
Ġl en
Ġ are
Ġpy thon
bo x
Ġ-*- <
Ġd ate
A R
W rapper
I nt
Ġ me
y le
Ġre gister
L o
. __
ĠĠĠĠĠĠĠĠ ĠĠĠĠĠĠĠĠ
in dex
imp le
ĠA ny
w h
ur r
s um
s ol
mess age
U ser
Ġ upload
m y
p on
ption al
w idth
C ommand
Ġ[ '
error s
5 12
ex cept
Ġ base
w n
chan nels
y SQL
ap ter
Ġf unction
Ġ view
ction s
Ġvalue s
f f
6 4
' s
" )
ho ver
ĠL ist
Ġ. .
b in
ind ers
Ġn umpy
Ġre quest
Ġn p
li ed
T his
Ġ else
Ġ{ <
Que ue
s ue
L ist
ĠGener ated
Ġc h
Ġs c
n d
o bject
Ġco lle
ĠB SD
g roup
A S
F O
du ct
er t
opt im
Ġ >
String Validator
Ġsupport s
Ġp ar
r a
C lient
AG E
Ġs ub
q d
lan k
p yp
] )
r st
fr ame
ac le
a ke
s ub
ri pt
res net
' ]<
sol ute
or der
1 6
P re
~~~~ ~~~~
N A
st all
g er
Ġr ai
id get
1 0
Ð ¸
M L
en ce
cl ient
ĠO ptional
ut h
y nc
sp ection
r f
Ġre s
v o
Ġ args
la st
import ers
or s
s it
P y
Ġdist utils
ro spection
f la
Ġ load
en s
p age
p g
Ġr ender
ĠO r
urr ent
DE FAULT
ic io
s o
le ase
a de
2 5
R L
Ġ al
ex ception
u sp
w rapper
ĠM ySQL
sp ec
E mail
e p
ion s
end or
vid er
DE BUG
co l
f qd
fqd n
Ġrai se
icio us
pre cation
usp icious
v endor
al ter
Model Admin
d atase
d it
v ent
M E
g ing
Ġl a
Ġ[" ._
IT ext
u al
Ñ Ĥ
re e
t orch
ĠI n
c it
or age
gr am
Bo olean
v alid
th od
and as
W arning
p l
c ap
imp lied
co unt
a gs
edit s
tro l
M P
E xception
ate g
Ġab solute
up date
mp ort
T ick
ic h
P D
uil d
log in
Ġ add
Ġin clude
. "<
2 02
Ġfield s
value s
( ).
co mp
Ġop t
s ource
color Validator
Ġ command
ĠP ro
m ask
ar ch
Ġ K
ĠT ick
JSON Field
ust om
ut il
di re
pre fix
rib ution
Ġ mo
' :<
C ase
p ache
sp lit
f unction
Ġd irect
ur ation
ult i
ad er
s l
E n
( __
fla gs
ste m
o b
up le
co pyright
Ġ lo
Ġ' __
s rc
U T
Ġ user
I ON
f er
and om
frame work
ho me
T ime
sion s
ac h
Ġp andas
Ġd ata
Ġ Con
el lo
pack age
Ġ id
che ma
pon se
Ġs ql
Ġ" <
po ch
Ġ el
ub lic
l d
an ag
a ve
e b
s g
Ġh as
pack ages
1 8
Ġdep th
Ġh ash
Ġbo ol
lat es
n p
i le
x t
ĠS PD
ĠSPD X
Ġn umber
Ġ2 00
Ġcolle ctions
ment s
cal e
( *
fi rst
D ata
Ġ2 01
static files
Ġdate time
N ame
[ '
mp lates
Ġm sg
mport Error
s ole
Ġd i
sue s
) )
Op eration
sy co
syco pg
E O
Ġpack age
ĠT o
Ð¾ Ð
ic ation
Ġre st
ä ¸
Ġy ou
f inders
2 8
uspicious Operation
ĠT ext
C C
t in
Ġ arg
ĠC olorValidator
ĠG EO
ion al
v en
00 01
ick le
Ġex cept
Ñ Ģ
ĠDatabase Features
f unc
Ġfor m
an t
Fi le
st yle
. .
S et
our ces
ĠOr acle
A rray
par ser
e y
ĠP o
Ġcheck point
ĠĠĠĠ Ġ
Ġon ly
ĠD E
() ,
s up
ĠRe moved
Ġ j
inter nal
Test Case
" ]
E dit
mp ty
wor d
Pre trained
Ġre ad
Ġ 5
ĠI mportError
ith ub
Ġs o
T ype
2 7
ib le
ĠA PI
stan ts
Ġop en
Ġre qu
disp atch
L O
b ack
GI S
CC ESS
Ġde code
Ġ+ =
py thon
iz er
S ite
il l
Ġwh ere
ck et
V E
Edit or
f lat
set s
to col
ĠPy thon
S p
b ug
d ay
Ġstr ing
Ġco de
le te
Ġ array
Ġin put
Ġ at
AT E
Ġtr y
m on
f eatures
dire ct
4 01
U CCESS
ĠT he
N ING
Ġp ublic
Ġ{ "
datase ts
M iddleware
Ġo bject
ĠM eta
po l
40 4
m iddleware
ri ption
chema Editor
g ithub
ic ode
z ip
Boolean Validator
de nt
Database Features
00 1
ro ut
Ġ le
Ġn ull
N O
Ġsc ript
af e
" :<
u x
Ġs p
a k
de t
andl ers
ul d
ic es
A N
res s
Ġ en
cs rf
D I
ĠRe turn
Ġsetup tools
Ġc an
ĠO p
lo at
S e
n ot
ĠL o
ache Con
es s
g ine
Ġcon n
stan ce
sh ort
E num
__ ':<
1 00
h andlers
o ver
Ġ all
LE VE
ed irect
Ġ \
6 9
' t
ok en
Ġdirect ory
w ine
ap sed
V ER
y stem
st ages
Ġt emplate
ESS AGE
(' ',
M ESSAGE
Command Error
ĠRemoved CommandError
ent r
f t
ch or
cor ator
t tp
sc ription
request s
c re
Ġimport lib
') ))<
r ap
il i
C opyright
at es
p i
Ġre lease
LEVE LS
init ial
Ġn orm
po sit
im age
Ġcon text
ĠA pache
1 50
C IText
Ġinter face
) ),<
ser ved
Ġ /
cap es
Ġpy test
ate Time
run time
Ġp art
schedu le
Ġro ot
Ġst age
Py thon
b y
ude nt
Ġ gi
ses sion
per mis
Ġsql parse
Ñ ģ
T o
Ġ Y
Ġs ource
disp lay
o und
R E
t es
in k
Ġdo es
Ġ1 0
me thod
an ce
Ġc har
te mplates
qu ence
ys capes
e ar
f a
P ar
Ġa uth
user name
content s
eg g
c ut
imple ment
res ources
cit yscapes
an age
gr ad
ateTime Field
ĠC reate
ge o
it z
ec ut
Ġout put
t ain
ne th
a mple
Ġb dist
Ġ`- '
bo ok
schedu les
st art
Ser ver
eg er
R un
ser ializers
Ġ u
Ġgi ven
Ad apter
ert ifi
n ew
Ġb lank
Ġ implement
} ),<
) ))<
ĠD e
Ġinter nal
' ]
o in
Ġ }<
( [
Ġpack ages
m b
# !
S izeValidator
ĠS izeValidator
S ub
u d
trib ut
dep th
mo ve
pro cess
sup port
Ġw e
l r
hover label
w ith
p r
de lete
Ġdefault s
w in
short cut
in der
le g
i res
i a
us r
anag er
ang es
anage ment
m d
ome try
Ġ item
r ange
ms g
__ ":<
lic y
v es
E MP
Ġ message
Ð ½
wh ere
2 2
Ġw as
as ync
Ġor ig
s ys
U ID
c n
Ġn e
A PI
al s
Ġw or
Ġt orch
k g
en gine
lo ck
c ar
er sion
__ <
ĠT ype
Ġt e
mar k
ateg ory
#! /
AR NING
Ġ Error
. %
shortcut s
Ġe mail
pyp i
to ur
Ġ ac
st ore
Ġel apsed
Ġp r
s Config
ĠRe gister
K ey
er ated
ach ed
Fi les
0 7
Ġ[ ],
vi de
Ġser ializers
Enum erated
Enumerated Validator
in al
E x
Ġg ener
ar get
EN T
con text
ix in
m age
d s
ĠSt atic
c ache
Ġstatic files
I L
ho st
7 69
Ġl ine
EMP L
ĠS ite
re d
-------- --------
mar y
* *
ho uld
EMPL ATE
Ġdi vision
do o
Ġla zy
A ny
h ist
40 3
Ð »
O r
ĠU RL
Ġcon tent
p tr
module s
ive Server
ap e
type s
B ackend
pre trained
ifi er
iveServer TestCase
==== ====
ĠN ot
S uspiciousOperation
Ġ X
JSON Serializer
p ip
ic al
th er
Po inter
Pointer Base
Ġ query
con tour
Int eger
f amily
Ġn ew
st orage
Ġpro tocol
ĠOp en
View Set
Ġt op
rout er
ste p
h r
l ass
a mp
ste ad
j oin
es sion
> ]
in stance
C I
s u
precation Warning
int s
ĠC acheCon
S ION
o dule
s ing
Ġp kg
pre ter
ĠR es
"] ),<
[ "
ur i
K E
a st
Ġ iter
Ġst ack
c ument
Ġ json
T O
W idget
Ġg roup
Ġres ult
Ġ one
st op
ta il
Ġlicense d
Ġc reate
ight s
NA ME
exception s
OR S
Ġ k
leg end
Ġe mpty
ĠU n
ĠH ttp
Ġrequ ires
par ate
setup tools
Ġre moved
Ġhash er
sum mary
c reate
mple ment
Ġin dex
n el
Op erations
Ġin stall
Array Validator
on ly
per ty
d atabase
o gram
C la
Ġt er
" ],<
point s
inter preter
Cla use
I mplement
g res
g ener
ri e
Ġf ull
[ :
t le
#### ####
Data ArrayValidator
De precationWarning
1 1
Ġ session
' '
g ments
Email Field
hist ogram
w w
ĠDatabase Wrapper
Database Wrapper
test s
S chemaEditor
Int rospection
GIS SchemaEditor
app ing
4 9
r ite
Ġb ut
p ages
res ult
) "<
> }<
en c
tro ll
Ġ Config
p et
on g
ç ļ
n ext
ĠA ll
Res N
Ġ set
pro duct
trib ute
çļ Ħ
i r
Ġ classes
Ġcon sole
A LE
t op
KE Y
ĠI N
M ixin
Ġcon tain
Ġde bug
un dle
s ide
e ls
mple te
Ġform at
ad apter
at ial
qu al
ul ar
de scription
e poch
if y
ĠT est
Aut h
0 4
fi gs
S UCCESS
t xt
Ġto day
sql ite
i e
C ache
Ġ url
con n
Ġf ound
Ġimplement ation
Ġter ms
b log
ĠD ist
__ .
C re
00 02
ickle Serializer
Ġconn ection
and le
/ ",
Ġf uture
ĠE mail
ĠM ulti
Ġ implied
dir s
Ġcheck s
posit ory
Ġun icode
uil tin
Ġrelat ed
as c
in es
ac ity
Ġread y
I dent
ĠV ersion
dist utils
# <
Res ponse
format stop
pro perty
Ġ errors
ĠG e
C o
L icense
ed Error
Lo g
ĠF or
user s
str act
c lo
use d
amily Validator
Q u
s how
Ġm ay
len ame
vo id
Ident ifier
Ad d
Ġwh en
object s
permis sion
con stants
th ing
Ġfunction s
Ġs ix
SE R
Ġst art
py test
v ice
ĠN ame
) .<
ĠDE FAULT
1 3
con figs
re am
ĠC A
B N
car pet
co der
de tail
lo b
Ġt ext
Ġde corator
Ġh el
in stall
ate ment
lo cal
ĠNot Implement
l iter
t ask
y ear
In valid
le ct
ol ution
Ġb uild
De code
ation s
Ġex ception
C lass
Ġ urlpatterns
Ġ Queue
run ner
ecut able
ĠNotImplement edError
um an
T ags
c er
Ġ filter
ĠA UT
Run ner
Ġse arch
Ġarg parse
Ġ key
ame ter
is ible
Ġc urrent
pre p
ĠAUT H
ob j
ĠUn ion
ĠA rray
Ġpo licy
de n
ext end
liter als
Decode Error
post gres
p k
in do
Ġa ux
Ġname prep
en neth
yp o
U n
Ġ| -
ĠRe itz
ML DecodeError
27 28
Ġ 6
V I
pol ar
check s
Ġd b
ili ary
v ing
Ġpar ser
b ot
Ġd on
t he
Ġ J
is sues
Ġ202 1
', '
ext en
IT E
Ġb undle
Ġf inder
ĠAUTH ORS
> _
or ig
opt ions
Ġaux iliary
f e
re direct
1 5
le d
troll er
par am
flat pages
> """
ic s
Ġvar y
Ġlog ging
A x
ex it
ĠP art
Ġco mplete
Pro vider
Ġnum s
B SD
ĠD O
ĠR edirect
ai x
T EMPLATE
b lank
o ok
g zip
r ans
ĠStatic Files
de l
Ġfor ms
T AG
s afe
ro p
ex tr
ĠPo st
fa ster
Ġ1 9
lat form
L iveServerTestCase
an y
ĠL ar
s ign
Ġex p
ĠG D
Ġis sues
ag ment
nd ication
i se
Ġo b
Any Validator
Ġ lic
fr agment
uman ize
] ]
el l
ĠA d
TAG S
i as
as sert
SE xception
sc he
ĠGEO S
ĠGEO SException
0 8
5 00
H e
c r
is h
File Copyright
Ġlic ens
FileCopyright Text
w idget
Ġadd it
P P
e val
um my
bo ol
fi lename
U RL
( ).__
do c
i v
1 7
torch vision
asc ade
t ed
Ġre pository
Er ic
UN D
ĠLar son
i que
ur s
Ġd ual
Ġco mp
do main
Ġpre trained
en e
ire d
Ġr ights
7 49
Ġ 9
ĠM IT
s cale
ib r
Ġbe en
02 4
Ġtr ans
Database Client
pre c
ï ¼
Ġco pyright
VER SION
Ġ 8
ĠT h
Ġo ld
ĠO doo
rapp ed
B B
bo ard
Ġlicens ing
b uild
ind ices
l ask
Ġscript s
p ass
Re quest
" ])<
D jango
ur face
FO UND
map box
sl ash
Base d
ab out
able s
ypo ints
c urrent
Ġle arning
at us
(" -
py torch
environ ment
Based Runner
D o
ic le
Ġopt ions
Ġaddit ional
å ı
) :
f un
h ello
ra w
s ave
Ġt arget
optim izer
co un
Ġre served
mis c
str ain
isp atch
r up
Ġ us
ver se
out put
ro ot
c ls
z en
us h
ign ore
ol ver
r g
ar r
entr ypoints
ĠS p
ug in
pyp a
749 8
sche ma
Ġw ill
Ġm on
d a
w e
' ).
Ġst yle
Ġch ange
ĠS olution
Ġs ide
idth Validator
ff ect
ĠSe quence
Ġso cket
a il
ch ard
arn ings
lan chard
Ġchar det
w eb
fro zen
alid ation
F ont
Ġpro vide
a ction
m strain
able d
D ateTimeField
Ġm ake
is sing
Ġsub process
ol d
test ing
Ð ¼
an k
Ġd ay
Ġ[ ],<
g l
ect ed
epoch s
r ich
ar k
å Ī
text font
Ġobject s
Ġo ther
com mon
0 6
un ce
Qu ery
ser ver
im g
0 3
Ġm ust
u ct
w er
C h
l t
] :<
w rite
Ġ frozen
Ġpo st
d y
tribut ors
ĠCacheCon trol
load s
no w
T oken
act or
r ame
In ter
Y ou
Ġrelease d
de ep
__ )<
stan t
ĠĠĠĠĠĠĠĠĠĠĠĠĠĠĠĠ ĠĠĠĠĠ
S ession
at ive
Ġc ase
c ascade
Ġ level
ist s
ens or
iz es
ResN e
Ġfile s
p latform
Ð ²
as y
gr id
no unce
c at
c ertifi
> >
c le
ĠD o
Ġan y
Ġpre fix
atase t
ĠConfig uration
Ġs h
Ġ1 6
Form er
A pp
de d
ĠPy PI
3 7
gi str
f ault
in stead
an nounce
ĠP ath
IN FO
) (
E P
ro w
t wine
Ġt wine
tick formatstop
ffect s
Former ly
2 4
Ġ first
æ ķ
se e
[ -
ĠC ustom
s m
it s
Ġ2 0
Ġse n
rapp ers
R O
x y
Ġs u
sp ace
A F
ap h
le t
Ġm issing
um n
ĠHttp Response
Ġget attr
n umber
an chor
2 1
ss rcValidator
an et
Ġd atabase
Ġgroup s
re a
Ġt m
Ġe ffects
r andom
vi a
Ġcon tributors
ĠRe quest
gr aph
g color
co ding
Ġis instance
Type s
AN D
Ð º
Ġwor k
E T
ĠS er
" ):<
en ses
00 00
ĠC allable
Ġ2 5
Ġsp ec
sett ing
Ġr andom
olor srcValidator
St ack
arg v
25 5
En ter
X t
ional ly
' ))<
command s
a v
g ed
num s
Ġob j
Ñ ĥ
Ġmon th
ter n
m ys
low ed
P ickleSerializer
c md
Ġ" %
ac es
res next
Lo ader
ResNe Xt
a mpl
lic enses
Add Field
Ġc re
M ENT
Ġb ackend
E poch
d at
widget s
o w
out er
act ory
L ine
Ġm anagement
Ġa ut
Epoch BasedRunner
Ġ api
ĠNO T
T emplate
re turn
site map
{ }
d f
log ging
TT P
LO W
Ġt itle
m at
ameter s
for e
ĠE xception
. ,
ab c
1 4
o us
re en
all back
Sp atial
Ġauth ors
ĠFi lter
202 2
e vent
me n
st ream
Ġo ver
ang le
Spatial Features
A n
e qual
Ġ color
Ñ ı
ĠP Y
ax es
sh ape
V ar
Ġp er
net v
width Validator
æķ °
e e
DI R
Par ser
format Validator
ĠF ont
Ġby tes
host name
I LS
w ay
er o
ĠT ags
P Y
re move
to do
he ight
ĠA uth
pro du
1 024
dist ribution
t ure
open source
') ),<
M odule
r t
C ol
b lock
sit es
C A
r id
Ġ{ }),<
c cess
st ack
ri x
D ist
Ġbe fore
ĠC l
ly g
Ġ client
Ġ home
ĠT emplate
Ġ2 3
rap s
I d
st d
UT ILS
sitemap s
g mail
ĠD is
> /',
ST UTILS
lyg on
K T
it test
ar m
! =
" ))<
prec ated
id Validator
M ess
ĠC om
re qu
ES T
ĠPro duct
ampl er
ĠT O
dir name
pl ace
pass word
1 9
p ad
Ġp d
N et
lay er
by tes
o g
ĠM apping
0 5
R outer
KT Adapter
p h
iz ation
lab els
ta gs
T e
U S
F unc
Ġs hould
4 00
ĠW ARNING
AL LOW
exten sion
U UID
ab el
ST OR
ho ok
io d
hr netv
Ġ' <
4 8
ec ute
pro file
Ġ via
Ġp as
af fe
U R
Ġ ""
Site map
ent er
it ion
Log ger
deep lab
Ġm ak
ĠN o
c affe
m atch
Ġhas attr
2 01
tern ary
bin ary
if ic
sc ene
ĠU UID
n ull
u me
Ġ ,
25 6
i ver
u k
ĠDE BUG
STOR AGE
ac count
urs or
deeplab v
ge st
ĠI mage
Text Validator
ĠText Validator
AF E
F R
Ġd is
R edirect
u id
he at
ĠE n
Sp lit
Ġpas sed
al lowed
A D
202 0
ĠC harField
ĠD ateTimeField
im er
function al
sl ug
A B
con trol
geo json
Ġtest s
T uple
U p
Ġex ecutable
2 6
I M
ct o
log ged
im al
f loat
p sycopg
ĠO R
W ARNING
in clude
arg ument
f fix
t al
Model Serializer
Ġus ing
ĠFi les
ĠK M
Ġexp ected
= {
Ġ ERROR
ĠC o
g ion
ĠM iddleware
rea Field
Z ip
Ġc ertifi
ite map
res ponse
Email Backend
it ies
ĠLicense d
extr as
ĠL ine
ateg or
Ġopt im
flat page
Ġch anges
ĠLo ader
Ġhel p
D ns
op le
(' <
Ġwh ich
un k
Ġas ync
do wn
Ġsen ding
L ite
os name
redirect s
. ",<
2 00
es sions
no wn
(* *
b dist
ystem Loader
ĠIN FO
I mage
N C
Ġf eatures
ĠGe ometry
I Z
Z Sitemap
t able
get fqdn
ĠC ached
ĠP sycopg
ĠWSGI Handler
=[ <
LS itemap
ĠStaticFiles Handler
de c
en code
tr ue
ĠS afe
ages Config
entr y
Ġconnection s
ĠMulti Po
] ))<
i eld
ĠS UCCESS
Ġf inders
12 8
Ġ200 9
Split ter
K M
Ġs um
Ġn on
sub ject
void s
Ġmak ing
i ke
y ndication
ĠS uspiciousOperation
ĠP EP
ĠBase JSONSerializer
AG MENT
String Field
Text Field
ĠSp at
ĠDis allowed
FR AGMENT
Zip Middleware
Dns Name
ĠCached DnsName
ĠDisallowed ModelAdmin
l ink
Ġh ave
ĠSt udent
ĠText Field
ĠUUID Field
C PointerBase
S AFE
l c
o f
de v
al ly
int Field
ĠC PointerBase
point sValidator
ignal s
AS Y
ĠMySQL Operations
ĠMySQL Introspection
ĠMySQL GISSchemaEditor
ance Field
ia Lite
ALE xception
ĠGD ALException
lygon Field
ĠSpat iaLite
Fi lter
.. .
> ~~~~~~~~
Ġp sycopg
cit ext
c ustom
Ġf loat
ĠC IText
ĠH TTP
IC harField
so cket
ĠEmail Field
acity Validator
Ġw raps
Ġex tr
heat map
f cn
w ard
fun nel
d Tuple
ro ss
te m
Ġreturn s
ĠE x
Ġ ge
H over
or d
Ġ" ))<
ĠH over
sql parse
atement Splitter
Ñ Į
Ġdist ribution
comp at
Ġmo ves
b box
g n
å ħ
ĠDatabase Client
ĠA voids
Ġm y
Ġc ache
C reate
H I
a ma
Ġcontent s
ç Ķ
Ax is
op erations
log ger
ĠI nc
Ġen code
â Ģ
Ġp un
con v
rg ument
os s
Ġdatabase s
3 6
load er
al ign
ho ut
order color
ĠTo do
Ġ end
Ġ !=
se nt
ser ies
ĠFi le
ĠType Var
" {
r ad
w ist
Ġwh ile
arm up
g colorValidator
y code
at er
ĠASGI Handler
ĠSafe String
Ġpun ycode
S ITE
t tribute
Ġimport ed
ĠT oken
ĠS QL
ĠIn ter
cument ation
n orm
} )<
ite ms
Ġlo cation
wh ile
indo ws
stant i
A l
Ġ error
imp l
ĠS et
it hout
int rospection
TO MLDecodeError
f ol
Ġf un
om l
patter n
8 4
Ġ JSONField
ial ize
Ġser ver
ĠGener ator
'' '<
Ġ" _
Ġa f
LE S
gistr y
t ree
init ion
Ġw rapped
rup ted
UN SAFE
ASY NC
ä »
Ġconfig uration
AL L
Ġin stanti
ick n
ï¼ Į
L ay
Ġre sp
ĠI nt
Ġun ique
uiltin JSONField
Ġin te
ad Request
s hould
ur tle
Ġit s
Ġwith in
cto ols
Ġ" .
wist ed
ĠCl asses
) ]<
() ),<
Ġop s
Ġ{ '
AT CH
Res ource
m anagement
re st
000 5
lo ss
if ication
~~~~ ~~
Ġinstanti ated
O M
m anager
16 0
"" ,
Integer Field
le ft
tr ie
line ar
ĠĠĠĠĠĠĠĠ ĠĠĠĠĠĠĠĠĠĠĠ
Ġ3 0
se lect
Ġp l
", "
tr ic
and ard
Ġbo olean
Ġload s
(' .
Ġ Z
ĠS chemaEditor
__( ).<
Ġint rospection
IN E
uk k
ĠSchemaEditor Class
tick font
s ix
che my
f ind
de corator
fer red
} ,<
Ġcontain ing
v ar
Ġa ction
Ġex ists
A SE
su ffix
ut f
In dex
ww w
g ree
U P
p u
ok up
Ġw ay
ĠLo g
( (
è ¿
Ġ201 5
) ):<
ver t
Ġne ed
F I
a ug
de bug
Ġl ibr
Ġ202 0
block s
NO T
i rc
ed o
ta ct
Ġpy gments
as rcValidator
ish ed
F rame
Ġ mode
code c
Ġ queue
mp loy
Ð ´
Or der
coun ts
Ġ1 00
000 4
D ataset
c ial
le y
fi ll
mo ves
ĠT uple
am b
read th
y m
id den
il ity
cle ar
ser ve
ĠE xt
Ġpro cess
D IT
a u
d raw
edo cs
a it
Ġ. __
Ġtr ain
Ġrequest s
readth edocs
A rgument
P RE
Ġre fer
Ġm at
Ġco unt
act ive
ĠDist ribution
ä ½
ĠS how
" ],
S how
b uil
item name
Ġhash lib
Par se
Ġorig inal
le ction
are a
ĠThe me
M ML
or ator
in ux
izes rcValidator
MML ab
c an
ert ific
un used
ĠF ore
direct ory
c ur
t z
Ġw ithout
Ġse con
c ategory
m er
tick s
ST Y
ople th
ĠĠĠĠ ĠĠ
Ġco ver
ĠTh ere
ap s
chor opleth
D eta
Ġd f
el per
ST AT
isible Validator
STY LES
Ġdef inition
Ġm anag
Ġw arnings
LE D
ĠW indows
Po st
cale Validator
' .
Ġis sue
ĠE DIT
3 0
D ec
Ġ Eric
Ġw armup
Ġse parate
ĠPro vider
C N
F amilyValidator
d is
", )<
ĠF amilyValidator
unk nown
~~~~~~ <
Ġp ickle
ex p
ĠS ub
ag ing
ty le
Ġ ignore
> :
c el
ertific ate
Ñ ĭ
en ame
Ġ{ }
way s
H ello
R A
d ic
ĠM odule
IL D
Ġc s
ers on
ag ma
Ġchar act
C heck
r iter
re lat
Ġl r
Ġstr ide
Ġpr agma
ĠArray Field
Ġ< =
ire vision
Ġcre ated
decorator s
s k
P ath
st atus
Ġc ore
ĠM S
not ations
gree ment
- '
W N
par t
l ines
ch o
Ġl ong
ax pointsValidator
date time
Ġ201 3
CI I
Un icode
ĠB ook
Ġ200 8
D ict
ĉ ĉ
ĠT rans
ĠBase PickleSerializer
Sub query
D ate
I f
V alue
Ġ q
en abled
config uration
22 9
A pache
Ġ http
ĠA ns
F ore
ex ecute
ĠDe fault
Ġgener ated
( "<
AS CII
37 0
Ġ âĢ
le et
Ġac cess
ĠOpen MMLab
A NA
e mpty
igr ate
ĠV alue
ĠOracle Operations
ĠOracle Introspection
ĠOracle GISSchemaEditor
Ġquery set
>~~~~~~~~ ~~~~~~<
Ġ application
ĠC ommand
ag ed
fer ence
N ot
re ak
Ġw arning
Ġmanag ed
re g
Ġt k
ili se
T H
de que
an el
sum er
c ake
Ġp os
ĠT HI
Ġcolle ct
` .
h er
r and
he x
ce iver
text Validator
ign Key
Ġut ilise
get Logger
AT ION
ID NA
ĠK enneth
ĠTo Unicode
ĠTo ASCII
. |
A PP
K enneth
ĠL inux
permis sions
- .<
` -'
w o
in f
re itz
Ġ. -.<
um ans
Ġ1 2
ĠH umans
Ġ` -.
ken neth
Ġ| (
Ġ| .|
Ġ`- .<
Ġ`- '<
Ġ`- `.
cer ts
He ad
hook s
kenneth reitz
Ġ`-`. `-'
M e
N D
g o
Ġ" --
sp ect
ĠRequest s
Ġcolor ama
Ġextr a
Ġseparate ly
b gcolor
it o
Ġh andle
res h
re tin
fi ed
Ġc ertificate
to m
Ġst ill
legend group
E L
ĠL if
fix ture
Ġpre ferred
Ġpack aging
> ',
Ġd er
con sole
ĠS tyle
ĠâĢ Ķ
S h
Ñ ĩ
Ġ_ ):<
pack aged
Ġan notations
o Queue
Ġ" )<
ed is
datase t
( "",
se arch
an ts
ge x
ub e
Argument Parser
O K
q size
ar ker
Ġde precation
ER S
Ġlog in
sm ith
retin anet
ĠLif oQueue
P roject
S F
con troller
ĠB ack
ol ume
Ġse nd
pr ice
Ġfun ctools
Ġ ans
er ic
ĠM ess
T U
o ck
ĠA ttribute
du mp
Ġ1 4
text srcValidator
atter n
St orage
Ġ.. .
NO WN
b le
è ¡
de precation
bo und
======== ========
alidation Error
" .
3 4
K NOWN
s urface
W in
ation Form
Ġo wn
pon ent
Ġla st
ĠIn valid
Ġwe ight
ĠAd min
st udent
OR T
T r
at io
me t
log out
leet code
IT Y
clo se
Ġresp on
Ġrefer enc
res ource
BU ILD
i ved
å Ń
sc ript
M anager
O bject
Ġf la
umb ers
N V
UN KNOWN
ÑĢ Ð°
VI R
Ġt urtle
Ġe asy
---------------- ----------------
G roup
ĠT rie
ĠI T
ans i
Ġ3 6
order colorValidator
S S
T rie
ĠM odel
Ġh ello
Ġser ialize
Ġte mp
lo op
g en
ĠA greement
Ġr ad
Ġy ield
Ġsub modules
L oss
M ATCH
color scale
at ure
Ġf lask
Ġ z
ro und
ath an
on athan
Ġun ittest
Ġreferenc ing
at ing
ic on
Ġpre served
ĠÐ ¿
low er
Fore ignKey
G e
x axis
Ġb box
ĠA r
ĠD ata
scatter gl
ĠK ey
ispatch er
in ary
ĠC ursor
cs v
Ġint ent
vo c
æ ĸ
Cre ationForm
d an
ve lo
ip e
Ġadd ress
cl i
di fied
wor ld
eg end
ÑĤ Ðµ
initial ise
e ed
i To
re q
re t
n ode
u ff
fi li
Ġre init
Ġde init
ĠO n
ans ito
art ley
ĠH artley
Ġdo wn
ĠJ onathan
impl ify
ĠAns iTo
ansito win
ĠAnsiTo Win
b l
Ġ2 2
mb ed
G D
a vi
Ġst andard
di vid
p as
ect or
Con text
Ġmodule s
ĠAttribute Error
t on
æ ĺ
function s
Ġel if
cre ated
O US
f in
Ġ 40
Ġre trie
Ġstr ings
ta g
Ġal ways
Ġarg ument
Ġsu ch
çĶ ¨
w rappers
mode Validator
PRE VI
Ġrespon se
] ):<
n ers
up tools
VIR TU
l ate
r ank
ang u
ALE NV
MATCH ES
Ġintent ionally
PREVI OUS
VIRTU ALENV
Ġd type
Ġv isible
Ġby te
Ð¾Ð ²
\ \
amily srcValidator
i k
ĠD an
Ġ> =
Integer Validator
Ġ ],<
re f
ĠU T
ĠTHI S
æ ľ
en coding
as ic
to ol
Ġj ust
######## ########
Deta il
fili ates
Ġd p
AS CA
d type
9 6
O ST
T rans
tur tle
sp aces
Ġme thod
Sub package
Ġinte ger
] [
in en
tribut or
Ġaf filiates
ASCA DE
Ġ 80
__ ).
ĠM ain
ĠP SF
Ġpath lib
ĠI f
anchor Validator
S M
d ig
Ġlo ss
C ustom
O T
Ð ·
ad ata
ĠSet uptools
E X
ang ed
Ġth an
dec ay
M ake
ic kw
Ġs implify
Ġ1 000
`` <
Ġuser s
. '<
uct ure
Ġ height
ult ip
check point
Ġch an
ĠCon tributor
Ġrequ ired
Ġsub packages
Ġin stead
ai led
Ġat tribute
ĠInter face
- %
m it
de tails
he el
Ġf unc
cor ners
Ġal so
Axis Types
clear AxisTypes
pas cal
' \
u ation
ab stract
divid ual
C ASCADE
} ")<
å Ĳ
Ġde scription
A MP
me sh
Ġm ulti
Ġder ived
p ay
op acity
ex ponent
mploy ee
Ġretrie ving
b lanchard
f ull
s imple
ĠB lanchard
ugin s
G et
t il
=' ',
`` ,
Ġdeprecation s
ĠSetuptools DeprecationWarning
O ut
l st
å ĩ
or n
4 80
X X
ar ies
Ġ" ,
A C
D type
or ies
tr ies
Ġw eb
AL LED
Se quence
T ML
b stract
ST ALLED
Ð½ Ð¸
Ġ entry
ĠA B
% (
ro ck
ch at
ĠV alidationError
m igrate
w arning
pro xy
v olume
w ait
Ġs ystem
ver ses
Ġb reak
Ġsp lit
s ort
EN D
p sp
color src
Model Form
s in
Ġt ags
Ġs ame
Ġex ec
to day
Ġme ant
rap h
Co mp
ĠAuth or
p e
ct iv
ĠCacheControl Adapter
è ¯
Ġname spaces
Ġv al
Ġ1 5
lat er
tick labels
pad Validator
Ġ image
il er
ment um
par ator
param s
Ġcharact ers
C acheCon
S GD
ion rock
Ġp ort
group s
Se e
ĠCacheCon troller
lob al
Ġcache control
CacheCon trol
c v
u le
å ¯
ang ular
su ccess
se g
th ous
ack age
YP Y
C O
y axis
ĠA pp
000 8
ĠIn dex
parate thous
clo ud
paratethous and
M ulti
f low
x es
se ction
me ta
le ment
lo ws
ĠS ession
Ġbyte array
å ®
h ash
ch anged
ĠL INE
ns ure
Ġde precated
quest ion
En coder
ALL Y
ser ializer
ĠM AN
load ing
AS H
sign up
it ers
ig ns
im ary
Re ader
rib ut
Ġne ck
Ġ9 6
M eta
st amp
mo d
ss rc
pn g
P age
a ctions
i an
r anges
Ġpo int
p th
ende d
inal ly
T IM
Ġc al
query set
psp net
P os
w arn
Ġ setting
Ġs m
Ġb ump
res olver
ho ws
ĠR andom
im it
IL ITY
mys ql
ĠMAN U
H ttp
s un
Ġ Query
ĠL ET
com ment
Ġth ings
ĠTO MLDecodeError
Ġsecon ds
ĠUT ILITY
ĠMANU ALLY
> ",
h idden
v ok
Ġ up
ĠT e
ĠT anel
ĠB log
di gest
ĠH ukk
so cial
ĠTanel i
ĠHukk inen
0 9
P N
b e
ĠT oml
str s
ĠD ummy
=[ '
Ġchan nels
ĠF lat
Ġp attern
Ġal ias
gener ic
graph y
legendgroup title
ç »
Ġst orage
postgres ql
Mess age
Ġtk inter
edis Cache
Ġ Ñģ
Ġm ys
ä¸ ª
STAT IC
M ap
dep ende
ĠH TML
Ġpar se
cre t
Ġte mplates
Ġprovide d
tree map
C olorsrcValidator
M atch
g pu
h andle
ĠC olorsrcValidator
Ġw idth
max points
T IC
Ġd ispatch
con sumer
par e
EC T
202 1
Ġen um
b ad
Ġcon stants
eat ure
ide Validator
pi ed
> /
L ib
R UN
Ġ hooks
Ġt able
Ġa void
Ex ample
: .
S ampler
ĠD I
pl us
u i
er ies
Ġre ceiver
ĠT r
Ġex clude
Ġco pied
Ġu ses
N S
ĠC lient
Ġ1 1
' ])<
str ide
Ġf ind
Re turn
000 9
Col lection
g ame
å ¼
le ep
ic icle
class method
is os
ac y
Ġbase d
indo w
isos urface
Ġ ap
ĠC ategory
ĠF ace
ms ra
ä¸ Ģ
win do
relat ed
E D
json b
Ġmo mentum
ĠM e
ĠType Error
('. ')<
D ummy
T h
h store
th an
Ġco l
Ġ{ }<
ĠCon tent
select ed
Ġp ur
ĠA l
Ġv alid
Lay ers
amb da
Ġargument s
ĠM YPY
ri ver
a o
se ed
ig h
Ġc v
andl ing
Ð¾Ð »
Ġhel per
C olor
ist r
pro vid
TIC AL
us age
ĠĠĠĠĠĠĠĠĠĠĠĠĠĠĠĠ ĠĠĠĠĠĠĠĠ
back port
ĠRes ource
Ġany thing
std lib
ai r
ĠM ark
ĠW KTAdapter
ĠGe o
Layers Widget
I AL
o auth
es sValidator
head ers
Auth or
] .
o o
o te
plot lib
Ġexception s
ĠDefault Router
o ff
s ample
Ġt ake
Ġ3 20
Base SpatialFeatures
ace back
ĠBase SpatialFeatures
Ġh andling
Ġtyp er
scatter geo
amp les
EST AMP
RUN NING
5 9
D ispatcher
S L
z one
Ġin dic
Ġw ants
Ġapp lied
content types
red is
V S
Ġ messages
Ġto ken
dispatch er
Ġauth or
G ener
b ur
f inder
ho to
ke ys
pro ble
scatter polar
File Cache
result s
ĠSer ies
APP S
angu age
TIM ESTAMP
M apping
[ [
en ch
dump s
ĠC ol
form er
im ages
Ġlibr aries
b ordercolor
on ical
al chemy
ĠReturn s
R o
Ġis n
Ġro ut
min Validator
=[ "
sy stem
conn ect
ail able
itemname Validator
ĠFace book
C UR
P R
x ml
ial s
am s
dire ction
M any
c ase
f actory
Ġv alidation
qu eries
par ameters
Ġpar ameters
ĠTrans action
F lat
Ġ1 8
Ġ3 84
In fo
wh ich
D AT
per iod
fol io
us ic
li de
2 3
n umpy
t ection
ent ication
bar polar
LO OK
ĠAr gs
depende nt
viron ment
Module s
inf os
windo w
bur st
LOOK UP
G EN
s al
Ġp ages
cl ip
valid ation
U SER
ed Dict
ĠA ND
ĠC urrent
array draw
vis ible
scatter smith
Ġser ve
DI STUTILS
mat rix
ĠDI STUTILS
Y Y
le gram
De coder
Pro duct
ĠFi rst
25 4
Boolean Field
posit ion
Ġgener al
al ias
ĠC ache
ome tries
Ġcs rf
Q T
l ight
st atement
Ġco py
text src
template Validator
Ġmo dified
start ed
Ġ19 2
hex digest
ses sions
Lo okup
ĠPro file
Or ig
Ax es
ibr ary
, '
n am
Ð ¿
se n
er ed
lo m
Ġ' '
ĠS tr
Ġstr ucture
In put
Ġload ing
ĠOr der
pol ls
VER TICAL
ä º
Ġs ignals
ex ecutable
ĠR ange
St atic
Ġ5 17
buil t
sun burst
Ġ env
Ġ filename
ut ton
Ġre verse
Ġm ap
ĠC I
end s
ĠO ut
ĠO SM
Ġdirect ories
Ġac ross
irevision Validator
W rappers
d al
f ailed
de code
Ġregister ed
~~~~~~~~ ~~~~~~~~
ĠOpen LayersWidget
Dec orator
R ename
c auto
t arget
hover formatValidator
" }),<
. ")<
M ySQL
m ory
Ġre produ
con version
Ġme ans
sup er
enc y
mys ite
ĠInt ended
F loat
Ġw ell
ĠL ab
Ġst ep
la mb
pro vider
In dividual
Pro tocol
Ġdi r
] +
Ġ append
or ds
Ġin dependent
Ġc rop
bo l
sp lom
iter able
scatter carpet
001 1
Ġexec ution
c ached
Ā Ā
re gex
Ġ" *
Ġb uiltin
') ,
filter s
comp ile
the me
( {
] ])
g ress
~ <
is m
op ts
ad o
In vok
BB BB
' ):<
Ġ hostname
Ġc fg
ma ke
ĠI ANA
ickn essValidator
t ube
py x
' .<
g ot
Ġdep loy
trans actions
R ENT
s lide
__ .__
tr ics
scatter ternary
Ġimplement ed
Image Field
IZ ERS
ribut ed
onical ize
A reaField
d cn
t ty
Ġ adapter
Ġ environment
De f
no te
Ġsm all
Ġpur poses
Ġthe y
Re verse
Que st
ant ic
** **
del ta
M A
Ġm ath
ĠT ime
Ġa v
cor d
stream tube
ĠExt end
fin ished
B it
U se
Ġ zip
Ġs ort
Ġn ode
ĠF lask
Admin istr
ĠCustom User
A ctiv
Ġ sets
Con stants
sp atial
SE P
Ġg zip
Ġge ometry
CUR RENT
m an
n a
', )<
ĠH elper
co lle
Ġw rapper
ag in
R AND
con e
Ġm igration
Ġo doo
ĠC h
ĠF unc
ĠE nsure
Ġno thing
chan ism
gener ator
" >
9 9
d contour
fo und
arg l
scatter pol
Ġrest art
proble ms
scatterpol argl
C ON
to tal
## #
ĠSite map
ĠCom mon
Ġrad io
ĠOn ly
I LT
str ip
ĠP ages
Ġcheck ing
ĠÐ ²
Ġme chanism
SER IAL
sign ing
ĠDo cumentation
return s
produ cer
C ode
t yp
el if
te mp
pre sent
files ystem
BU ILT
ra ster
Ge ometry
I tem
f actor
Ġ Q
el p
ĠT EMPLATE
admin docs
ĠÐ ¸
Do cs
Ġmys ite
spatial ite
RAND OM
BUILT IN
" ).
P ick
ge ometries
Ġin spect
Base DatabaseFeatures
ĠSe parator
split ter
Name dTuple
Ġiter ables
ĠIN STALLED
Cre ates
ĠKM ZSitemap
ĠKM LSitemap
D NS
N ow
S essions
Ġname space
Ġas sets
Ġa ix
Re move
optim ize
Middleware Mixin
ĠEmail Backend
safe string
ĠOR M
ĠMiddleware Mixin
Ġap art
lamb da
SERIAL IZERS
P er
k ml
Ġ arr
re place
Ġt ree
Ġc irc
ĠS essions
form sets
Base EmailBackend
ĠBase DatabaseFeatures
ĠBase EmailBackend
sy ndication
Pro file
Ġopt ionally
ĠRes olver
ĠStaticFiles Config
Quest ion
3 5
C VS
K EN
z ily
ã ģ
Ġ ar
ĠS uspicious
ĠM aps
fix er
fix up
Ġser ving
Res ult
Ġla zily
Ġquery string
Ġover lay
ĠNo Reverse
Ġaccess ing
Ġcollect static
æĺ ¯
ĠNoReverse Match
c ing
h umanize
Ġt amp
ge os
con form
=" {}
Ġf ol
Ġco uple
Pre pare
Exception s
ĠCon sole
product s
ĠLog in
Parse Error
Invok es
> '''<
G ZipMiddleware
P agesConfig
S yndication
T oField
g dal
h one
s a
w rapped
Ġ qu
Ġ GIS
Ġ JSONSerializer
Ġs lows
for ward
ĠS yndication
parent ly
ĠL iveServerTestCase
ĠP ickleSerializer
ĠG ZipMiddleware
WSGI Handler
Ġe vent
Ġpy dispatch
sub queries
Py Dispatcher
Site Middleware
middleware token
csrf middlewaretoken
Files ystemLoader
ĠStatic LiveServerTestCase
ĠSite Admin
ĠSite Map
Ġcontent types
ĠMulti Line
ĠGD AL
He avi
Ġtrans parently
Session Key
Template Command
ĠTemplate Command
ĠFiles ystemLoader
Ġoptim izer
ĠGeometry Collection
ĠDisallowedModelAdmin Lookup
ĠDisallowedModelAdmin ToField
bound field
ĠInvalid SessionKey
ĠAdmin Docs
ĠDummy DatabaseFeatures
ĠFlat PagesConfig
Ġdispatch ing
ĠContent Types
Ġindic ates
ĠCurrent SiteMiddleware
Orig inally
Administr ative
Ġgzip s
ĠSessions Config
ĠSuspicious Session
Ġtamp ered
Prepare Protocol
ĠGIS Config
ĠSyndication Config
ĠSiteMap sConfig
Heavi ly
ĠAdminDocs Config
H umanize
W KTAdapter
i python
w arnings
} ,
re p
ĠA PP
ĠA reaField
ĠH umanize
ĠBase Geometry
ĠSt ack
SQL ite
Test s
ĠMySQL DatabaseWrapper
ĠPo intField
ĠPo lygonField
ĠDist anceField
ĠRedirect Admin
ĠRedirect sConfig
ĠGEOS Base
Dist anceField
Redirect s
ĠLine StringField
ĠGeometry Field
ĠMultiPo intField
ĠMultiPo lygonField
KM ZSitemap
KM LSitemap
ĠSpatiaLite Client
ĠSpatiaLite Adapter
ĠRandom UUID
ĠTransaction Now
ĠOSM Widget
MySQL DatabaseWrapper
ĠMultiLine StringField
ĠGDAL Base
ĠGeometryCollection Field
ĠHumanize Config
ĠBaseGeometry Widget
c c
m ac
ĠT ask
ĠS ign
angle Validator
C ICharField
ĠC ICharField
group ing
CIText Field
CI EmailField
save points
ĠCIText Field
ĠCI EmailField
"> ',<
="{} ">',<
s an
ĠD JANGO
et y
Ġ201 9
Name Validator
database s
ĠName Validator
Ġdecorator s
o uld
Ġm anager
ft ware
Ġgroup ing
; <
a w
lo cation
ĠL ink
ĠR anges
Ġh ist
åŃ Ĺ
ĠKey board
H ook
ĠA n
Base Serializer
ĠBase Serializer
ĠÐ ´
ĠSt atementSplitter
St atementSplitter
ĠFilter Stack
Filter Stack
ĠSQL ParseError
ĠRange Serializer
l int
id s
Ġm atch
ĠA c
Ġw ould
sy m
templates rcValidator
til ities
S o
Ġl ike
Ġbase name
velo p
t uple
Ġ- -
i ed
ver ter
str ict
inter section
c allback
r ai
ser vice
Ġor der
() ))<
Ġsc reen
Ġ200 6
C om
æ Ī
ĠS imple
ĠM y
ĠCom ment
Ġreprodu cing
Ġ' \
ĠĠĠĠĠĠĠĠ ĠĠ
Base DatabaseClient
ĠBase DatabaseClient
Op acityValidator
ĠOp acityValidator
c all
Ġc ached
ch ar
ĠName dTuple
SL ASH
N Bit
scatter mapbox
000 3
ASGI Handler
Ġcontext lib
ResN et
] ),<
w ater
Ġs rc
Ġn n
ub l
af ety
exten sions
Ġmat plotlib
me tric
Ġf l
Ġl ambda
Ġ'' '<
4 5
N U
O ptional
yp to
app Config
tr aceback
max Validator
Ġpro tection
': '
cmd line
( ),<
ac counts
un safe
ĠM o
Ġl st
Ġ3 2
Ġpro duct
A g
de mo
af ter
vo te
F PN
o ther
p c
Ġ //
Ġdebug ging
Ġdis ables
met adata
Remove Field
E vent
on es
Ġs afety
tick val
val sValidator
val ssrcValidator
Ġte am
ĠRes ponse
B uiltinJSONField
X Validator
y les
if f
ĠB uiltinJSONField
ĠB adRequest
ĠI D
pre tty
ĠX Validator
Ġoptim ization
Ġpos ition
Activ ator
B gcolorValidator
B adRequest
\ .
i us
æ ī
ic er
un ique
len Validator
ME DI
prefix Validator
ecut or
={ '
Ġ 512
Ġre ct
am l
Ġpass word
add Handler
De fault
Ġsh im
Ġexclude d
B lock
å ¤
Ġ com
Ġ 50
Ġp ick
min us
add ress
vide o
Ch ange
ategor ical
suffix Validator
å¯ ¹
F actory
ac cess
po ly
ĠI tem
Ġinter rupted
Ġ7 2
Def ines
6 0
S ync
Ġs y
ĠN orm
tick Validator
mis sion
geo graphy
context manager
("- "
rup t
abled Validator
Inter rupted
gcolor srcValidator
ickw idthValidator
ĠSession Interrupted
H R
Y Validator
s n
en sion
Ġp ush
Ġre direction
Ġn icer
ĠS ITE
post s
ĠY Validator
ĠCommon Middleware
ĠAPP END
__ ()<
inter val
contour carpet
den ied
ĠAB C
pyx l
) """<
* ",
as rc
ing le
ns ity
Ġpre vent
T imer
f all
s ignals
str uct
ere f
ĠPy gments
Inter rupt
D CN
E qual
W idthValidator
å °
st yles
Ġs k
() )
ĠW idthValidator
S I
V ersion
a z
Ġb log
). """<
ĠÐ º
Ġsql alchemy
san key
: `
ro s
Ġre gion
cat s
or acle
an not
ĠB gcolorValidator
ĠU tilities
Bo x
Ñģ ÑĤ
RA Y
exponent Validator
ĠKeyboard Interrupt
ç ¬
Ġa wait
ĠM at
Ġof f
fo o
Ð° ÑĤ
è¡ Į
M in
de nsity
ut o
Con v
Con n
context lib
MEDI A
s w
t ensor
Ġ ~~~~~~~~~~~~~~~~
in side
co ords
py gments
ĠI d
tick sValidator
typ ing
Ġd cn
ver y
ser v
di m
Ġaut o
I O
L en
N ull
m idValidator
v t
or ical
re vision
Ġt imer
po s
auto Validator
Ġab c
pi e
verses caleValidator
o U
API View
nam ic
6 7
N ode
n x
p s
s izes
s leep
re c
ÑĢ Ðµ
Mess ages
Te ster
ticklabels Validator
Ð ¹
ĠS c
Ġex ample
A pi
E AD
P ush
g it
ro om
co py
Ġf allback
group Validator
To ols
Font Validator
ĠFont Validator
Ġ &
Ġ Ñ
Ġs ome
Ġto tal
Ġl abel
List View
Ġwor d
ĠCol umn
Ġcirc ular
( -
1 000
Ġ :<
ĠRe gion
In line
Ġdo cumentation
Form at
axis Validator
heatmap gl
paratethousand sValidator
agin ation
D B
L e
cl ature
her it
ã Ģ
el apsed
Ġ\ <
Ġ~~~~~~~~~~~~~~~~ ~<
B y
T ensor
w t
ĠH ome
Ġlog ger
sy nc
env s
Null Handler
3 8
S izesrcValidator
t t
le arn
ĠS izesrcValidator
et asrcValidator
data Validator
ix el
dat asrcValidator
men clature
sizes rc
9 0
9 04
W eb
i pp
ar io
ron t
Ġ> >>
Ð¾Ð ´
rt icle
water fall
Ġdef orm
ma ster
url conf
AT H
Bo dy
ĠCo mp
ĠFile Cache
è ®
on ent
str ument
ĠR edisCache
ĠPy test
V isibleValidator
at s
st al
ic ator
ct est
up port
Ġf ast
Ġ1 3
Ġg o
Ġno menclature
ĠV isibleValidator
ĠUser CreationForm
down load
... )<
ä ¹
å Ĭ
re moved
Ð¾ ÑĢ
Ġrect angular
C har
M arker
S c
con tact
view sets
tick mode
so ft
we ight
Ð² Ðµ
tool k
å Ľ
Ġf ont
( %(
5 5
b atch
n ing
z er
mo t
(' /
Ġser ializer
word s
Or acle
ĠNorm ally
ĠPytest Tester
c enter
s core
mo unt
Ġ' )]<
Ġ( ...)<
Ġe val
Ġpy lint
ĠÐ ½
assert Equal
Ġhist orical
h int
Ġ ]))<
al le
Ġs ign
Aut o
det ection
n on
st ate
om atic
sub package
det ect
Ġen coding
Change Form
density mapbox
st and
lo ud
Ġn umbers
nt ax
project s
Ð¸ Ñģ
eval uation
igns rcValidator
M axpointsValidator
Ġ age
ro ute
cl ick
ĠM axpointsValidator
AR RAY
Ġ16 0
Detail View
a axis
b axis
or es
re lease
el ery
out side
() "<
Base Model
ĠW eb
sub query
ĠArray Subquery
ĠSub query
egend rank
abstract method
ĠStr ing
egendrank Validator
f p
m id
Ġt ask
ĠC olor
iz ed
ĠE num
": ")<
Ġpr imary
Ġ"" <
Ġfla ke
3 00
o h
er r
conn ection
> {
~ "]<
se cret
lo gs
ver age
ib ility
Ġ"__ "<
ĠOracle DatabaseWrapper
Ġopen pyxl
ickn ess
Ġ". *",
choropleth mapbox
Ġ"* ~"]<
Oracle DatabaseWrapper
C ategory
I P
T ask
o v
Ð ±
å º
Ġ ad
ĠS h
Ġ img
mb er
Ġpr ice
compat ible
cur ity
2 9
B ot
P ackage
P ATH
} )
Ġ head
in sert
Ġp lt
Ġ' )<
Ġin stance
sp ath
Ġi dent
C T
{ '
yp er
Fi x
Ġall auth
ath er
Ġto do
a use
å Ĩ
é ĩ
se nd
rout ers
task s
l ue
ic orn
ul er
ĠI Python
length srcValidator
Ġcontain s
AB ASE
ordercolor srcValidator
' ],<
Ġgener ate
è ¾
vi ol
ĠC re
par cats
ind icator
") ]<
ĠAd d
Ġaut omatic
t ings
AB C
b asic
d antic
o lo
Re ad
Ġstack level
parate Body
ench mark
sen der
parateBody FileCache
par coords
ne ws
provid ers
Rename Field
me an
Ġ" \
ab solute
if t
u ob
trans form
User s
stal led
e ded
p atch
Ġm d
line colorValidator
Ġfilter s
social account
C RE
F ound
Ġid x
TO KEN
ĠMess age
! ")<
" ),
se curity
ar se
it ch
Ġd ump
ss l
isp lay
G rid
ĠD ict
Ġ1 7
pl t
27 01
web site
B ordercolorValidator
d r
d river
f ul
r pn
ic ro
Ġm ask
un ittest
ĠB ordercolorValidator
Ġro i
norm al
Ġautomatic ally
: %
> /",
O f
b u
ĠL en
Ġl ib
Token Validator
ĠToken Validator
O n
c a
l er
Ġ utils
ĠP roject
order widthValidator
åħ ¥
ĠMess agesConfig
me mory
min al
Op en
Ð» Ñı
P L
Ã ©
id er
ur al
base d
Ġpo ints
* .
b r
re port
Ġm m
Ġpro gram
static method
ĠData Frame
M y
p en
r atio
Ġst atus
qu are
comp any
requ ired
infos rcValidator
g or
i py
k t
resh ape
c i
Ġ )
Ġ" +
Ġb ot
SER VER
viol in
c art
d p
up er
(' _
ĠB o
Ġ[' ./
Ġurl lib
Sync BN
toolk its
uob i
- <
C E
Ġm ultip
ab spath
Ġa ct
02 2701
Ġ[" .
Ġbo ok
32 0
book s
bot tom
og le
e mp
r ender
Ġ mpl
re al
ul ator
Ġc ustom
ĠA xes
du ce
et s
ĠUser sConfig
velop ment
3 1
O ne
P l
do ut
mple x
API Resource
Ġ... ]<
E nd
F amilysrcValidator
G N
g a
ã Ĥ
as on
co s
Ġs ize
th read
ĠA bstract
ĠM in
ĠF amilysrcValidator
ĠĠĠĠĠĠĠĠ ĠĠĠĠĠ
fa st
family src
ä¸Ģ ä¸ª
/ '
Q U
c ent
ĠĠĠĠ čĊ
se c
ic les
co st
un ch
can onicalize
Ġav ailable
N o
e m
Ġ kwargs
in herit
re ct
Ġn et
no me
M o
l ip
s har
ã ĥ
un ter
ĠT wisted
Ġc ur
Ġex ist
St udent
urr ency
pl ugins
annot ation
p a
Ġ' ))<
ri v
Ġg lobal
ä¸ Ń
ĠRemoved In
d ated
g c
j ob
å ľ
ut or
el ine
Ġl ang
Ġdir name
ĠRemovedIn Django
5 13
n est
ĠA pi
ÑĢ Ð¾Ð
rai ses
g ap
h elp
ro ll
Ġs ave
able APIResource
Ġst ages
Ġst udent
ĠUser Admin
[' ]
ä¸ º
Ġtrans late
FI LE
colorscale Validator
4 6
T YPE
ex ample
es c
Ġg raph
RO OT
en able
Ġpy dantic
ĠÐ Ł
Ġne eded
sk ip
P OST
Ġc r
Ġ7 69
Ġ5 13
Ð» Ð°
std in
Value Validator
c ard
} /
å Ģ
at ibility
Ġp age
Con verter
version s
Ġy ear
Col umn
+ =
O ption
c ud
ri ent
io u
lay ers
ĠBase Model
L I
S imple
ro t
Ġm ark
to dict
ĠP ret
ot str
ĠG H
label step
ĠV ER
funnel area
) /
T R
l imit
ire ment
ä½ ¿
Ġcal c
otstr ap
W S
s ampler
Ġ æ
ment ation
ĠN umber
bo dy
Ġh uobi
Up date
m ath
Ġ fi
__ __
Ġversion s
201 9
, "
b b
g le
ex ists
ch a
Ġ1 28
our se
ĠRe gistry
CH E
legend Validator
Dist ribution
æĸ ĩ
$ ',
3 9
b it
d d
(" /
Ġ- =
ĠU se
Model ViewSet
Ġab out
Ġmo d
Ġ25 6
Page View
detect ron
B ar
c ategor
le x
co me
ent ic
Ġ[ ("
ĠR un
Ġlo cal
irc le
rient ation
' {
d ash
ar i
st ock
Ġr ight
di o
Not Found
! <
D i
F F
O L
g re
y thon
Ġ ho
mo o
ĠS ec
ĠM arker
Ġtest ing
Al chemy
bl ack
A c
p hoto
ro me
Ġs al
tr ack
attr s
hover format
men u
Ġpl ugins
dig its
gor ith
ä½¿ çĶ¨
I oU
p ickle
r l
up lic
edit or
Ġf rame
ĠĠĠĠĠĠĠĠ čĊ
ID I
ä¸ į
Ġu uid
egend groupValidator
} "<
on nx
ol ve
Bo to
ifi ers
AR T
ens ure
ĠTO ML
I ter
T oml
W indow
c ity
r ate
Ġ common
th ickness
ĠA uto
ho ice
line widthValidator
qd m
Ġal low
comp iler
ĠExt ension
hows caleValidator
. *
3 3
9 7
D ig
m ut
} ')<
Ñ ħ
å į
Ġw idget
sp arse
Re qu
read line
ph one
AC K
DAT ABASE
A bstract
_ =
a h
s cal
t i
Ġd ig
un icorn
Ġc ar
po licy
User Admin
Ġ19 96
Ġsort ed
ĠPret end
u uid
co ver
Ġl il
Ð» ÑĮ
Ġ6 0
requ ires
Date Field
w d
Ġt f
out line
Parse Float
tom li
H OST
æ İ
æ Ĺ
lo s
Ġt t
Ġt wo
po wer
Ġr atio
ĠR o
MOD EL
Ð¸ ÑĤÐµ
Sub plot
P RO
S um
½ æķ°
re gistry
st ick
Ġre move
Ġlen gth
Ġ201 8
03 3
. ./
4 3
j pg
p erson
t ing
Ġm er
Ġw t
åĩ º
åĩ ½æķ°
ĠBlog Config
M ask
a j
å Į
in s
Fi ll
è¡ ¨
riv ate
b ackbone
name s
cl ar
local host
Ġlibr ary
ĠValue Validator
ç¬ ¦
ĠMat rix
G H
S C
t wo
me trics
ro i
Ġs l
do cument
Bo ok
Ġ14 4
colle ct
è¾ ĵ
a ker
it ys
le ss
IC E
Ġro w
Ġac count
Context Block
pay ment
Ġwt forms
N orm
S ideValidator
g round
ass word
ĠS ideValidator
ch ange
et ing
Ġg lob
ug h
Ġab stract
En vironment
O C
n b
Ġ Question
ro py
Ġd j
ht oken
ĠD AT
aut htoken
sp ort
OD O
port folio
Ġident ifiers
D S
D et
] ]<
f ront
k es
id x
ho t
Ġ1 024
ve al
Ġdo c
ĠW or
Set tings
contour s
sm all
rientation Validator
5 8
d j
x x
é Ĺ
Ġin to
Ġc or
vi es
ol l
main loop
Ġle ft
ubl ished
L ink
it ive
(" \
Ġstr ipe
'' '
( ?
b al
e mployee
start s
i ment
re pr
le ments
Ġs how
Ġs imple
=' ').
bo ls
Ġdo cument
minus Validator
A M
f time
f req
v a
Ġre present
ex port
ĠA rticle
ĠG roup
sc rib
che s
å® ļ
HR FPN
) +
k it
o st
ed ia
com men
Ġut il
ĠW e
]) ))<
buil der
ĠVER SION
) -
c rop
æ ³
se quence
in a
Ġs sl
ĠTest Case
Ġmethod s
dig it
å¯¹ è
= ""
p vt
Ġt uple
co ur
ass ign
Ġ1 0000
ain er
art icle
orator ies
ĠLab oratories
æĪ Ĳ
con vert
ex e
input s
col umn
Ð² Ð°
T able
b utton
± ¡
ac eref
Ġc ategory
str ings
template itemname
ĠFi ll
Ġ.. .<
ï¼ ļ
coun ter
Template itemnameValidator
ĠTemplate itemnameValidator
ĠSQL Alchemy
ãĢ Ĥ
å¯¹è ±¡
" }<
L abel
S ize
d types
h i
k a
o se
z e
ter minal
ore Config
ĠL e
ĠCon n
Ġnet work
W OR
t en
} :
up per
De lete
link s
Ġfont Tools
oh lc
gle Validator
r it
t cha
w riter
er ate
__ ))<
time zone
config ure
Ġtype s
ff set
Ġuser name
Ġcomp iler
gistr ation
bl ue
' ^
l vis
æ ł
Ġ Ñĩ
re veal
ĠD ate
li ance
Ġtr ack
Ġdata classes
Ġwor ld
icro soft
B atch
p lay
as ite
ce it
format s
Ex p
>> >>
Ġrout ers
Ġfol low
c andle
é Ģ
Ġs core
tr ip
Ġc ls
ma g
Ġfor ward
di a
Ġso ftware
Ġresult s
gener ated
æľ ī
Ġfast api
P ORT
R Y
T itle
h a
Ġre commen
ht c
du ction
ĠB ot
ĠY YY
Ex tr
Ġasync io
Lay er
mac ros
ĠYYY Y
: ",
U irevisionValidator
c d
e lement
i i
n umbers
u irevision
ame tr
Ġre c
ct ive
Ġf req
Ġl ink
ĠU irevisionValidator
Add ress
An gleValidator
ä» ¶
/' },<
A r
Q t
W riter
` .<
e asy
t ab
v as
y aml
__ '<
Ġp layer
Ġt ag
Ġw heel
et ch
Ġv info
di ag
im um
Ġstr ict
ĠE vent
Ġ4 40
MP ORT
[: -
prec ate
Order edDict
Ġrecommen ded
A t
m usic
s q
Ġ $
se con
ar s
bo otstrap
Ġst ore
ĠG et
ec ause
Ġno me
åĪ Ĺ
ĠNo te
mer ge
>{ <
åľ ¨
' ],
: -
W or
f n
Ġ ext
an n
Ġ" /
art icles
ĠFi x
leg acy
App lication
row ser
ĠTe am
: "))<
I ANA
æ į
at t
ro m
Ġin compatible
ĠS o
Ġde l
ĠR ights
pre train
ne ck
Ġinter val
Ġcomp atibility
Create Model
ukk i
mer ce
ĀĀ ĀĀ
d one
m i
Ñ Ĩ
å ½
Ġ ke
de vice
str ftime
Ġw in
ys is
om b
ĠRe served
dent ials
Ġtrans form
Ð²Ðµ Ð´
Ġdump s
ametr ize
g au
Ġ es
Ġs ite
Ġdef ine
po se
Ġcon trol
ĠP er
ĠU p
Ġth read
ATE D
ixin s
Order ed
rand int
candle stick
X Converter
m ore
Ġ arch
me d
Ġe mbed
IN T
Ð¾Ð» ÑĮ
starts with
5 4
Y ukki
c ircle
Ġ items
__ (_
Ġ' %
ex ec
Ġo ur
Ġ# ##
TT XConverter
Ġg re
data class
Ġrun time
Ġres ources
ĠToml Ordered
5 1
6 6
d rop
kw ard
ac kward
ul ate
il d
ĠL abel
time stamp
AU TH
ĠÐ ¾
ĠUser ChangeForm
Ġge vent
ĠAc count
B log
w kt
Ã º
ĠT ag
Ġc all
ĠL ibrary
Ġg unicorn
([ "
ĠTemplate View
ĠSign up
Com ment
Ag g
cud a
G r
m iddle
Ġ host
mp y
ed u
(" .
Ġw ant
=[ ]<
Ðµ ÑĤ
ĠEn vironment
Axis Error
fol der
ä» ¥
Ro I
4 2
A ll
W h
t c
ç ±
an sport
Ġd ataset
ur ity
Ġ' '<
ick s
time Error
act iv
head er
Ġth ere
Ðµ Ð½
ateg y
åĢ ¼
f it
g lob
t d
³ ÑĢÐ°
in st
ver ify
ip es
Ġe ach
Vi de
mis sions
CN N
. ')<
: \
? ?
F unction
R ender
ç Ľ
st uff
ĠC heck
not es
Ð» Ð¸
uper net
/ %
C an
I s
b ind
e ws
j a
j wt
op s
ue ss
ad a
ĠI s
ĠĠĠĠĠĠĠĠ ĠĠĠĠĠĠ
ĠG rid
ade d
################ ################
Ð½Ð¸ Ðµ
Gener ator
ĠLogin ViewSet
/ {
/ '<
Ġimport s
ac itys
ĠS parse
ĠP ackage
par ametrize
auto colorscale
Ġadmin s
read y
ach er
cr ud
Ð¼ Ð°
event s
ends with
alle l
3 84
G ET
M ode
m ulti
r m
Ġ }
Ġ um
ar a
ĠT itle
ol ls
ide nt
sing le
cle an
G B
b n
å Ŀ
an al
ter s
Ġto ol
ial is
sp eed
ĠI MPORT
Ġpy game
Backend QT
sym bol
Option s
M ax
e q
n ms
ĠC ourse
ĠI t
ron g
ire ments
Ġinit ial
Pro cess
templates rc
scale Validator
ĠTh icknessValidator
df lt
Ġdf lt
script s
Th icknessValidator
åŃĹ ç¬¦
ĠAn chor
Subplot idValidator
ĠIMPORT ATION
J ECT
r ule
s v
Ġ update
de let
ion ary
ĠT ODO
pt im
ĠP erson
SE T
In stall
Ġpro vider
St art
)) ),<
æĸ ¹
s co
s ome
å »
å ¾
Ġ apps
se q
Ġt ensor
Ġt wisted
co ok
te legram
add ing
ker nels
ĠValue Error
off set
A P
w heel
Ġ 64
__ ":
po ol
ĠR EAD
ĠF orm
Ġno w
Ex ecutor
Log in
åı ¯
ĠEx p
strument or
ĠCre ated
Dig ite
Vide o
ialis able
. ',<
A TT
S y
er ator
(" ~
ab s
Ġb ecause
Po licy
Ġme mo
Ġus age
Token Config
Ġdf s
ç± »
g reen
r ary
u ator
Ġre direct
Ġa io
py i
Ġ2 1
list a
student s
sa ved
Pl ugin
R S
_ .
f l
f eature
l der
o od
y namic
æ Ŀ
cl u
Ġre place
Ġn ext
(' *.
file obj
ÑĢ Ð¸
ord ers
find all
XX XX
CO L
delet ion
å» º
r u
it es
lo c
Ġt a
mo vie
Ġa g
do ctest
ime n
Ser ies
ag ent
IDI A
, -
/ __
b lob
ä ¼
ç ½
st dout
he et
um ns
ĠN V
ĠB e
im show
OR M
point cloud
000 6
St ream
fla g
Tick valsValidator
Tick valssrcValidator
ĠTick valsValidator
ĠTick valssrcValidator
ĠCon tact
åı ĸ
201 7
dec imal
tickval s
tickval ssrc
) }
y olo
æ ŀ
mo b
Ġcon vert
pack ed
idth srcValidator
St ate
vo ice
Ñĩ Ðµ
mbed ding
Ð¾Ð² Ð°
ĠREAD ME
ĠNV IDIA
: ',
L ibrary
O P
b s
c ast
r am
Ñ Ħ
yp t
un try
Ġc lo
ĠC lass
ans wer
sc m
tent ion
Ġpre serve
rg b
8 8
> '''
M IN
T ickwidthValidator
a T
c nt
c ursor
d tick
t ickw
Ġ JSON
or p
ĠT ickwidthValidator
Ġb ack
sh op
") ),<
202 20
En abledValidator
Ġlo op
troll ers
ĠEn abledValidator
={ <
late st
lue print
Ð²ÐµÐ´ Ð¸ÑĤÐµ
tickw idth
N um
R ec
w ise
Ã ¡
Ġ Field
SE CRE
umb a
Ġ3 4
pro j
Ġe poch
tick color
tick len
tick format
Ġdo cs
af f
Ġpo wer
Tick colorValidator
Tick formatValidator
Tick lenValidator
ĠTick colorValidator
ĠTick formatValidator
ĠTick lenValidator
Me thod
Ġmer ge
Ġabstract method
SECRE T
n l
al og
Ġre vision
Ġs har
tr act
li ke
tick suffix
pyp lot
Tick suffixValidator
ĠTick suffixValidator
gener ate
({ "
4 4
P r
b order
r b
w ar
å ¹
al o
re verse
ĠC OR
ay er
com merce
__( *
Ġch at
Ġsc ipy
cr ypto
Ġdis able
7 7
p ec
x el
Ð Ĵ
Ġ ct
in ed
mp t
an im
id ing
Ġm ail
Ġm ixins
ĠS ystem
Ġde c
ĠĠĠĠĠĠĠĠ Ġ
tick text
tick prefix
tick textsrc
Ġme tric
Tick textValidator
Tick textsrcValidator
Tick prefixValidator
ĠTick textValidator
ĠTick textsrcValidator
ĠTick prefixValidator
tin ue
sw itch
labelstep Validator
L ike
a int
g ui
m q
¨ ¡
Ġ he
en ces
re verses
ĠF ast
pl ugin
Run Python
Ðº Ð°
Ġaf ter
è¿ Ľ
Dec imal
A A
D tickValidator
N ticksValidator
d ot
l on
o c
ç İ
de precate
Ġd if
con stant
(" %
and ing
nt icks
ĠD tickValidator
ĠN ticksValidator
Ġser vice
100 00
To Many
Ġcontain ed
åĪ Ľ
Ġ"" ]),<
cho ol
å¼ ı
entic ated
Ġfollow ing
ĠSignup ViewSet
5 6
: ")<
s rid
t mp
z axis
Ġ View
Ġ },<
ch art
ist ory
ĠRe versescaleValidator
ER N
ker nel
tick angle
head s
Re versescaleValidator
chan nel
AS S
Tick angleValidator
ĠTick angleValidator
To do
ä½ ľ
dis able
cel ery
Many ToMany
ĠÐ´ Ð»Ñı
Ġact ual
utor ial
cour se
reverses cale
åĪĽ å»º
> =
A WS
i er
l anguage
ro cess
an ual
ap y
un et
all auth
Ġex ecute
di ms
sc ores
auth entication
Ġview sets
Ġpar am
)) ))<
show ticklabels
lect ed
åĪ °
Ġsen der
ĠShow ticklabelsValidator
Show ticklabelsValidator
**** ****
ManyToMany Field
U D
l ar
m ult
Ġ ip
el come
Ġre gistry
Ġm id
ĠT k
ay ment
OD E
lib rary
Ġbo dy
Po ol
ir d
Un ion
================ ================
) #
O ptim
Z Validator
h elper
l ong
m ultip
r ename
se paratethousand
Ġre ason
up y
to ml
ĠSe paratethousandsValidator
Tick font
ĠTick font
Se paratethousandsValidator
pr imary
ĠZ Validator
var s
Ġsecon d
EX T
Ġsy mpy
clar ative
separatethousand s
! !
P OR
_ (
b um
b enchmark
d t
d jang
l in
Ġ io
as n
le ad
Ġb et
ĠM icrosoft
Ġse cret
Ġg reen
act er
Ġ% (
ra int
Ð½ Ð°
relat ive
Ġenum erate
Ġrout er
æĸĩ ä»¶
Iter BasedRunner
ĠRo om
Extr actor
upy ter
B gcolorsrcValidator
F rom
M etasrcValidator
P H
p layer
al t
ĠM etasrcValidator
ĠB gcolorsrcValidator
pre d
ĠH ello
opt ic
sched uler
cap tcha
Tick sValidator
ĠTick sValidator
ĠMeta Validator
lt k
ĠCustom dataValidator
ĠCustom datasrcValidator
dat asrc
IZ E
custom data
custom datasrc
bgcolor src
met asrc
Custom dataValidator
Custom datasrcValidator
pay load
Meta Validator
hone Number
æİ ¥
raint ree
B uild
P assword
T I
b on
f resh
m t
m as
p al
p ep
w ik
Ġ fix
Ġ Ñĥ
er c
lic it
un it
Ġc elery
ore st
Ġr and
Cre ated
bbox es
-------------------------------- --------------------------------
ĠÑĩ Ð¸Ñģ
ĠCOR POR
ĠCORPOR ATION
A ccess
B Box
P U
W ith
d iff
p ix
p andas
Ġ' ,
ĠR est
ĠB ar
OR E
En v
Data Frame
Ġ201 0
Ð½ Ñĭ
ong o
ĠDist ributed
dash board
C L
G R
I mportError
L L
U idValidator
_ <
ä ¿
in ference
in spect
ar ange
args pec
Ġs n
ĠU idValidator
Alter Model
ĠĠĠĠĠĠĠĠĠĠĠĠĠĠĠĠ ĠĠĠĠĠĠĠĠĠĠĠĠĠĠĠĠ
]) [
tribut es
legend only
provid ing
æĹ ¶
æ³ ķ
orest framework
E nt
P lease
e u
u ate
| \.
Ġ Ã©
on s
co mplex
min exponent
ĠD ec
ho lder
Ġcon tinue
ĠP ar
color axis
ial axis
am er
Tick formatstop
ĠTick formatstop
Ġj oin
LO C
extr actor
ĠDo cument
ĠĠĠĠĠĠĠĠĠĠĠĠĠĠĠĠĠĠĠĠĠĠĠĠ Ġ
Min exponentValidator
ĠMin exponentValidator
Gr ant
ara co
ç½ ®
djang orestframework
) *
4 7
? )
a ster
e k
l u
en coder
Ġ' _
Ġn Ãº
ĠC ar
Ġex it
ub le
sc reen
In strumentor
åı Ĥ
rad ialaxis
orn ado
mot ive
rocess ing
) ),
S upport
r an
w b
ç ®
Ġ é
al igns
it al
id ssrc
ac ao
Ġc md
db ot
ĠR el
nd array
)) )))<
Ġwork ers
Id sValidator
Id ssrcValidator
Al ignsrcValidator
Trans former
ĠAl ignsrcValidator
Conn ection
ĠId sValidator
ĠId ssrcValidator
normal ize
aligns rc
L egendrankValidator
T ag
W e
t ables
u ch
Ġp print
Ġd il
yp ass
ĠC oreConfig
ĠL egendrankValidator
ĠB lueprint
Text font
ĠText font
legend rank
Resource Reader
è¿ Ļ
part ment
ĠResource Reader
> \
S chema
Ð ³
Ġ ~
Ġ extend
al th
ad ing
ab els
un i
ol ine
rap y
dy namic
rad ius
Ġcol umn
Per mission
Ġsign ing
limit ed
! ')<
" /
E val
S eg
b rowser
name length
yp roject
Ġb u
ĠC loud
array s
000 7
ĠÐ ¼
ä¸ ²
Ġen gine
22 4
we en
ord in
Ġcs v
Ġfla g
Ġport folio
ĠApi Config
imen sion
8 5
8 9
R edisCache
X PR
g ym
p an
æ ¨¡
Ġ est
re strict
un selected
ma k
Ġse nt
Ġg ame
list dir
ME XPR
Code c
8 00
D P
E M
R CNN
T op
b uiltin
f cos
o ser
ç §
ç ´
Ġs ources
Ġn x
Ġb ias
Con f
ĠL O
ĠE asy
": "
Ġlog ic
Lo cation
pl aces
rout es
ir s
bot s
("- ",
uff er
angular axis
Ġmm cv
gau ge
Optim izer
( .*
B ordercolorsrcValidator
Ġ cl
Ġ )),<
name space
it or
as ing
Ġt ri
Ġin stalled
Ġb atch
Ġb ypass
ho ld
ĠB ordercolorsrcValidator
net work
Name lengthsrcValidator
Ġ\ \
ĠName lengthsrcValidator
Ġtrain ing
cho ice
bordercolor src
ĠAnchor ed
namelength src
' re
w rong
Ð Ł
al f
Ġd isplay
ap es
Ġs ure
Ġc nt
ĠA ctive
00 4
min or
Ġ2 7
color s
Ġ0 9
St atus
En gine
ĠInt eger
ceit a
7 5
> ..
A Y
C OM
I mport
] ])<
n umba
p ublic
w rap
z z
Ġ que
Ġ ])<
ro y
Ġp e
ĠS T
ĠSe parateBodyFileCache
User CreationForm
Se parateBodyFileCache
pytest mark
ĠSer ver
Template View
ph a
Te legram
cho ices
Ġar ound
On ly
ĠWor ld
N ote
w al
w ner
Ñ İ
Ġ ensure
Ġd rop
is dir
con str
ma j
Ġf p
dist s
Ġnum ero
ĠY ou
Ch at
Ġper missions
Ġta ken
8 2
H ome
d ummy
s hows
or ation
ro ws
Ġp lease
Ġw ide
ial og
Ġor d
Ġcheck ov
endenc y
Ġconn ect
STAT US
Ġ{} '.
categor ies
lected pointsValidator
A ttribute
C lip
H TTP
O ffset
c max
g lobal
i ves
p ing
de precated
ic ial
ase s
ĠC ategorical
Ġrun ning
DI S
Ð» Ðµ
={ "
rep points
ĠAc counts
Default s
ixel Sampler
End point
Ð»ÑĮ ÑĤ
( ['
8 000
> -
S l
U L
d ice
g in
p lan
t k
u dio
æ Ķ
ĠA li
ĠP l
bo ut
bo to
Ġco st
Ġh andler
ĠRe view
ĠE mployee
12 0
Ġpre sent
Ġx ml
Ġme t
comp are
Ġdata class
row dbot
ĠSer vice
custom er
åĲ į
ĠSign Up
DCN v
revision id
ĠSec ret
rowdbot ics
B orderwidthValidator
C minValidator
C maxValidator
R M
S H
S ingle
c min
g an
} .
de script
Ġp latform
ig ure
ĠS ize
ĠC minValidator
ĠC maxValidator
ĠB orderwidthValidator
Ġe ven
Ġe lements
12 34
ai ro
Ġpre dict
Ġ4 80
fr action
Ð» Ð¾
Do wn
av ailable
Te am
Ð´ Ð°
Trans form
ĠOrder edDict
shar es
ÑĢÐ¾Ð ³ÑĢÐ°
NotFound Error
åŃĹç¬¦ ä¸²
border width
pix els
maj or
ÑĢÐ¾Ð³ÑĢÐ° Ð¼
P agination
b logs
is fileobj
Ġc ap
th is
Ġw rite
Ġde lete
com ments
12 7
det ector
ow Validator
Index er
velo per
åº ı
B utton
C S
C ar
m n
n an
p ub
æ Ń
me mber
__ ),
en u
re view
app le
Ġin fo
ĠS ource
ĠC r
ĠC elery
Ġse p
In stance
Ġme ta
hover infos
Ġlo cale
Ð¾Ð ±
mon th
RE G
ĠDe velopment
[: :-
hello app
)( \\
Ðº Ð¸
Hover infosrcValidator
ĠHover infosrcValidator
åĨ ħ
hoverinfos rc
" [-
C midValidator
C autoValidator
D ice
D esc
F C
a ur
a mount
c mid
h u
u it
u ction
} \
at ient
it ed
tr i
ĠC midValidator
ĠC autoValidator
Ġ2 4
ĠP olls
pre dict
12 3
PI O
ĠÐ ·
ĠSt art
)) )),<
Se arch
'] .
coun try
åħ ĥ
Ġans wer
Ġfol der
inside textfont
sq rt
r ag
ĥ ½
en et
st ats
mo ment
he s
Ġw indow
SE S
ss ign
qu ant
dep ends
LO G
To ol
mploy e
Ð· Ñĥ
Comp onent
struct or
sync bn
ĠÐ½ Ð°
omb re
8 6
a a
s im
s win
Ġ fig
Ġ cli
ut es
end ar
Ġv is
ĠF I
() :
Re ference
Ġpre v
sh ip
Ġtime delta
read lines
dit ion
mb ers
Ġwork s
Ġ50 3
æį ®
æŀ ľ
ĠAccounts Config
ĠPolls Config
" \
T S
z ero
al e
Ġd at
ed i
Ġs ingle
ex pr
um ath
ch ase
Ġa ws
ĠC orp
end point
res nest
aut if
bo olean
Ġe very
Ġun packed
ĠBase Command
hover template
comp liance
Ġcan onicalize
Hover templateValidator
ĠHover templateValidator
Ge o
]+ ")<
Ag ent
Ġsk ip
Ġsk learn
_. ]+")<
ĠFast API
ĠEasy Install
Telegram Object
"[- _.]+")<
) ]
< <
L ong
S IZE
T wisted
b an
m ero
p ic
æ Į
Ġ assign
re gistration
ut c
Ġre port
un icode
ĠS ym
Ġl imit
Ġh r
Ġst ub
ĠI ma
ĠĠĠĠĠĠĠĠ ĠĠĠĠĠĠĠĠĠĠĠĠĠĠĠ
LO B
Ġper iod
Frame work
ubl ish
Requ ired
Render er
Ġdec imal
åıĤ æķ°
(.* ?)
ĠCorp oration
5 7
L ICENSE
U M
ç ¨
Ġ validators
__ '
def orm
Ġ' ''
get env
Base Command
trans forms
Ð¾ ÑĤ
#### ##
method s
Ġformat s
17 1
Do cument
åĪ ¶
('/ ')<
Ġmet adata
" [']
8 32
L U
X anchorValidator
c axis
d m
g ers
t ion
x anchor
å ¸
è ½
on al
ar is
Ġdef ined
ect o
Ġ# #
ĠN um
Ġto ols
Ġ{ !
Ġe lement
ĠH istory
Ġno te
hover text
ra de
ript s
rf c
sl ider
ob ile
Ġ201 7
ĠX anchorValidator
enc net
fe ed
web socket
Line ar
Ġper mission
Hover textValidator
ĠHover textValidator
Auto colorscaleValidator
['] ",
Ac count
ĠAuto colorscaleValidator
outline color
ãĢĤ <
ÐĴ Ð²ÐµÐ´Ð¸ÑĤÐµ
AlterModel Options
(.*?) [']",
"['] (.*?)[']",
. )<
> `
C ategorical
E xt
F T
R I
T ECT
b undle
k ip
è ¦
in ja
Ġthe m
ma ker
Ġf n
ĠF igure
Ġh igh
Ġst or
ĠG o
Ser vice
Ġbo to
ĠUser Serializer
Ġsql ite
ph p
PR EC
ipp et
secon d
ÑĨ Ð¸
åĿ Ĺ
Ġaio gram
Ġbet ween
amer a
REG EX
$ <
5 3
R ES
Ġ ÑĤ
re duce
mo te
ent ity
Ġre pr
ĠC ode
ĠG PL
li er
Ġme n
Ġpar ameter
Ġ200 2
ĠDe ep
Ġcre ating
CA CHE
Ġstride s
Pos itive
stand ing
moo th
è¾ĵ åĩº
Ġnetwork x
Ġarch ive
ç¨ ĭ
) [
B ASE
C hoice
Y anchorValidator
c y
q t
y anchor
} )(\\
Ġ fixer
or ient
Ġs ym
ac c
iz eref
end a
qu ar
Ġg rad
Ġg uess
fo od
per iment
stan ces
sh ift
Ġlist a
uil der
Text srcValidator
Ġme an
hover templatesrc
ä¸ Ĭ
28 01
ĠText srcValidator
100 000
ĠY anchorValidator
grad ient
Hover templatesrcValidator
ĠHover templatesrcValidator
ĠShow Validator
Show Validator
ref resh
Out put
Out linecolorValidator
Color scaleValidator
ĠOut linecolorValidator
colle ction
serv ices
non local
front end
A rea
P E
T ab
d ates
l ack
s amples
u sion
v f
z a
at ar
re cord
co in
Ġ' +
yp ad
Ġs cal
Ġc ity
to ck
Ġl ines
ss ian
02 2801
---- --
ĠPy Trie
group by
ä¸ ĭ
Ġle t
Ñģ Ñģ
([ [
Ġpl ace
dis cover
Ġcharact er
ĠQ t
åĽ ¾
éĩ ı
ĠDAT rie
D is
i mag
o cr
Ġ čĊ
Ġ keys
de st
ro gram
co d
co gn
Ġre p
Ġin side
ac cept
ex cel
up dated
es so
py dev
Ġst ate
ĠĠĠĠĠĠĠĠ ĠĠĠĠ
ri k
ĠE ND
per cent
lib s
ched uler
filter warnings
fer ent
cre ation
ĠDe precated
TO P
Co st
show legend
UR I
ĠShow legendValidator
Show legendValidator
Ġq s
Ġdil ations
: :
M IT
P O
V AL
¦ Ĥ
å Ĵ
å ¦Ĥ
ç ī
Ġ Qu
ed ge
ver s
all en
Ġf actory
Ġse g
path s
## ",
DE PREC
Ġ200 5
ĠLo cation
tain er
Ġwor ds
pip eline
ĠOpen API
Ġ25 5
dat alo
Create View
align ment
seg ment
Len Validator
ĠHome PageView
ĠLen Validator
sec ure
Ġstudent s
bal ls
Sl ug
ÑĢÐ¾Ð³ÑĢÐ°Ð¼ Ð¼Ð°
P ack
Y our
d anet
l ing
m un
} }
é Ļ
mo j
mo vies
Ġn ltk
Ġb ackward
Ġ- ----------------------------------------------------------------
ĠG ame
Ġ0 8
art ist
Ġun it
trans former
Ġan im
mple ted
Ġpar ams
Ð¼ Ð¸
Group By
Ġvalid ate
ĠLab s
ĠMo vie
ĠÑ Ħ
Ġmultip rocessing
scrib e
descript ors
6 8
L egendgroupValidator
c ross
f s
v ices
y ield
Ð Ŀ
è §
ic o
ge ometry
el f
Ġc le
ate way
ĠL egendgroupValidator
Ġf actor
Ġst ock
ON E
line Validator
ĠÐ ķ
IN STALLED
Ðµ ÑĢ
pl ural
Ġopen bb
ĠLo cal
mark et
asc ii
åı ĺ
Ġpost s
cc net
ps anet
rec ipes
gc net
gorith m
gorith ms
Ġframe work
ĠIma ging
< =
> [
S howscaleValidator
X padValidator
Y padValidator
t or
t wisted
x pad
Ġ moved
Ġp agination
ĠT ensor
Ġb inary
ĠS howscaleValidator
ĠM ax
Ġ< /
AL I
Pro xy
hover textsrc
Ġel t
ĠY padValidator
ĠX padValidator
cat able
Hover textsrcValidator
ĠHover textsrcValidator
çĶ Ł
Gener ic
Marker Validator
outside textfont
ython ize
ĠMarker Validator
Ġke ep
ĠUp date
shows cale
2 50
> )
? ')<
O b
b a
e er
i ecut
t f
Ñ Ī
å ·
Ġ enter
en k
Ġp erson
ur a
Ġre distribution
Ġthe se
il enet
ĠM edia
ĠL und
ĠP re
ĠF red
ĠGener ic
Ġlo okup
Ġ19 97
ĠAd ded
var i
Ġ... ,<
Ð½Ð¸ Ñı
meta class
### ",<
black list
Ġdig its
DEPREC ATED
iecut ter
ĠLund h
ĠFred rik
" ^
* (
A ssign
M usic
S ource
S ym
T ree
V T
c um
s lic
ç ¤
de veloper
Ġb asic
com mit
Ġ0 7
Ġy aml
calc ulator
gr ade
dist ance
], [
PD ATE
Ġcommand s
ĠDe f
fun ctools
let on
19 2
FI X
Sh ell
ĠÐŁ ÑĢÐ¾Ð³ÑĢÐ°Ð¼Ð¼Ð°
diag onal
sco pe
Sy ntax
è¦ ģ
orient ation
imag inary
allen ge
) ).
; "<
= <
B ACK
B uilder
H EAD
T A
T ION
b ank
m igration
ĠC art
Ġf alse
Ġf eature
ĠP lease
Ġst em
ĠO B
Ġ0 6
ĠSe arch
Ġpro file
Ġro ll
ĠUser Profile
Ġal ready
install ation
we ather
Ġcal led
period Validator
light ing
Di vider
="" )<
Ġthread ing
Ġtensor flow
honeNumber Provider
aris on
vf net
Slug Field
O H
S ec
T E
b us
f ree
f inal
o ve
s quare
Ġp lot
id ade
Ġre t
Ġre duce
Ġs amples
ex er
and o
Ġn dim
Ġcon trollers
Ġut ility
The se
mis sing
parser s
ĠAPI Router
cre en
todo s
Float Field
Ġoff icial
Char m
ĠPer iod
ĠDec imal
åĴ Į
U LT
g reg
p ixel
s heet
Ġ imp
me dia
ro po
Ġt ar
ed irs
mo ck
Ġs leep
app ly
ex amples
ĠM on
ĠD i
res olve
Ġf inal
Ġ- <
ĠP IL
atter ing
der r
font s
sh apes
Ġsub ject
Class ifier
ĠNOT ICE
æķ° æį®
Ġ{} ".
part ial
Rename Model
ropo ut
= -
C airo
P ASS
f b
i os
n om
s d
t ils
y b
å ±
Ġ im
Ġ html
al c
en um
re ceiver
Ġt ornado
Ġd im
Ġb enchmark
ĠA bout
res hold
Ġf av
ĠP age
Ġst op
Ġ0 5
order ing
Ð¾Ð ¼
Ex it
Co unt
reg net
mod ification
Ġup dated
æī Ģ
å° Ĩ
GH T
RoI Extractor
ç¤ º
O rientationValidator
P C
_ %
b er
c urrency
d imension
h and
p rivate
è İ
an nel
re set
Ġp hone
Ġs chema
ul ation
Ġb lock
ch ain
ĠN ew
qu i
ĠO rientationValidator
rapp e
ĠE nd
Ġbe h
Ġser ies
ĠDe precationWarning
Ð½ Ð¾
Auth enticated
grid Validator
Ġsh util
Ġcore api
Lib Error
super class
GN ORE
moo thing
scal ed
Ġtt Lib
Ġwide n
9 5
N E
S parse
T RA
U SE
f act
f etch
p ri
t ic
ro le
Ġp ublished
co mplete
Ġin fer
for ce
ad os
Ġn a
Ġa mount
te ams
ĠM ode
Ġw arn
Ġpy rogram
dir ty
sh ell
by te
extr a
Ġprovide s
ĠDo es
ow ner
ĠLog ger
fill color
Ġmat rix
BBBB BBBB
power tools
WOR D
ĠnÃº mero
èİ ·
H ASH
M Y
h as
j o
n ch
x Validator
y Validator
Ġ headers
al low
__ )
ac ci
ad get
(' \
res pon
pro tocol
Base Fix
Ġbo xes
AR E
Ġopt ion
Ġj ob
cre asing
Ġu i
ĠX OR
... ")<
äº İ
Le vel
zer os
éĹ ´
acitys rcValidator
ĠAli ases
mploye es
b p
e to
m r
r is
s Index
Ġ gs
Ġ how
Ġs ampler
vi ous
int e
ho ices
version eer
pro gram
ĠH e
Ġrai sed
ular Inline
cat alog
Ġsu ccess
NU M
ä¹ ī
ABC Meta
mak edirs
Ġtar balls
regnet x
) ])<
, )<
> "
M M
M at
O UT
O LO
a ws
f c
l ive
r ing
} '<
Ð ¶
Ġ mp
Ġ comment
an a
Ġin d
ad or
Ġname s
module path
ĠN ews
ot or
ĠI O
Ġop erator
opt ion
Ġlo ck
requ irements
og en
amb ig
åŃ ĺ
sort ed
Ġval or
seg mentation
ĠTime stamp
ĠCh at
release s
Ġcr ypto
Ġwidget s
}: {
æĿ ¥
Ent ropy
ĠÐ· Ð°
ĠOB JECT
B e
S u
] =
c b
d uplic
Ġ urls
le arning
Ġt mp
ent ropy
(" .")<
ab ility
Ġc at
vi i
min u
Ġcon sum
est ed
ĠU PDATE
opt ional
Ġinstall ation
gres sion
av g
Ġaut ogen
simple jwt
ĠÑģ ÑĤ
super user
ĠAbstract User
Abstract User
aur ant
: :<
B ear
D irect
H idden
T EST
U B
m atic
m antic
p d
p ublished
Ġ 00
in strument
in stalled
ar row
__ "<
Ġp ut
as ure
Ġt ho
Ġ' *
ter nal
port s
io ds
ĠPy Charm
comp onent
Run timeError
hist ory
ir th
ĠTh read
Ġwork ing
ross Entropy
cel ls
Conn ect
åĬ ł
nest ed
anal ysis
TI ME
1 64
A s
E lement
F la
S al
l ator
æ ¯
de sc
ed In
Ġ' -
is ion
Ġ[ [
ĠR EST
ĠB y
di vider
num ero
ind ings
Ġpro xy
ST R
Ġtime zone
Po int
bin s
util ities
Ġdoes n
Ġpr ices
Ġurl conf
den ce
Ġcomp ute
åĪ Ĩ
Ġsh ape
trie ve
go to
SS SS
Ġweb site
Ð¾Ð» Ñı
note book
ĠAdd ress
../ _
nch ron
B IN
h in
p kg
on Validator
se es
st aff
Ġp al
Con tent
po t
url resolver
len mode
add r
AR D
En try
ĠTo ol
Ġat tributes
ee ch
Out linewidthValidator
å¯ ¼
ç» Ħ
oauth lib
ĠOut linewidthValidator
serv ation
Len modeValidator
ĠLen modeValidator
outline width
bon acci
Ġstor ages
sees aw
P ublic
R el
h igh
n unique
ç ł
Ġ err
Ġp atch
el ines
lic t
Ġc k
Ġb ar
Ġa x
ĠM ock
Ġde clarative
Ġf oo
ĠI mport
ĠI GNORE
Vi a
Ġdo ctest
ĠW h
ĠÐ Ĵ
xt ure
Ch art
ĠStudent Serializer
part ner
Ġfla gs
generator s
Ġorder ing
Ġsy ntax
ipp ing
åĽ ŀ
Det ection
Ġrepresent s
å®ļ ä¹ī
mob ilenet
BBox Head
/ "<
V er
a is
d ar
i um
j araco
m IoU
r d
è Ģ
fi l
fi rm
ac ed
ex ist
Ġc allback
Ġb raintree
ĠB E
open id
Ġare a
cap ture
comp ute
Ġdi ag
URL Field
we et
rt ual
Ġge om
ĠAuthor ization
ĠMo dified
HR Net
ĠABC Meta
Ġshar ed
hin x
' }<
4 1
< /
L Y
M ain
M ark
a io
c ator
e le
e ma
h ub
y cle
} ".
ac er
tr ansport
ĠS um
form atter
dep endency
arg in
axis lines
sub process
ĠOpen Id
[: ,
ä½ į
Deta ils
å¼ Ģ
ç¬ ¬
åı¯ ä»¥
Positive IntegerField
A ction
A rticle
D ER
I ST
M anual
R ange
b ert
s age
t qdm
u int
å ŀ
æ ı
è ĥ½
é Ķ
é Ŀ
al ie
el low
ur n
Ġre set
Ġ* =
con tin
for security
ul ated
Ġc urr
form ance
Ġdict ionary
ĠG raph
Ġg en
eg vii
ĠÐ ļ
umpy Version
Ð¾Ð ³
cre dentials
tain s
Ġper iods
ĠSub plot
Sh ape
DAT A
MA IL
ĠConn ection
Delete Model
åĪĹ è¡¨
ĀĀĀĀ ĀĀĀĀ
Ð¾Ð»ÑĮ Ð·
ĠLO AD
ocr net
ALI AS
PASS WORD
èİ· åıĸ
A nd
C ascade
S creen
X OR
i min
r ating
u el
Ġ low
it ude
Ġin dividual
Ġb ro
th r
db m
ĠN ode
Ġde mo
ĠL anguage
ot Base
Ġse ed
qu ote
Ġ< <
True Type
Ġ{ {
Ġy ap
Base TTXConverter
ĠBase TTXConverter
no op
Lo op
Ġch art
Ġdirect ly
.. .,
mon go
Ġurl resolver
used forsecurity
cr ypt
Ch ap
go ogle
Tr ack
ĠOn Conf
ĠApp lication
å® ŀ
ĠToml Encoder
ĠToml Decoder
sal e
Ð¿ Ð¸Ñģ
}/ "<
Toml Encoder
Toml Decoder
è¾ĵ åħ¥
ĠTomlOrdered Encoder
ĠTomlOrdered Decoder
Can vas
Ġgreen let
ç´ ł
Clip board
Ġscal es
datalo ader
ĠOnConf lict
( ("
7 9
B LOB
F L
M O
O UR
c u
l p
m c
s ity
Ð Ĳ
å ī
at tribute
er oline
Ġ" -
yp y
Ġre g
es h
int eger
ot es
Ġst d
ĠO bject
Ġvari ous
ker as
") [
Ġmo ck
Sp ec
over write
Ġiter able
Template Activator
Ġpl ugin
ĠString Field
gap Validator
Fill Validator
ĠFill Validator
Wh at
Decimal Field
LOC ATION
pan optic
Team Yukki
Via TemplateActivator
' ])
6 5
> "<
C rossEntropy
P h
P air
c ed
n ce
s ur
z mq
è ĩ
Ġ environ
in ject
al pha
__ =
an ime
Ġp k
Ġcon f
ĠL ayer
ĠB lock
Ġco unter
Ġstr uct
ON T
ag ram
Re gister
RE GI
RO M
IZ ER
link ed
ĠTodo Serializer
FI G
Ġmat ches
ĠModule s
Ro om
ĠÐ½ Ðµ
OC K
ç® Ĺ
autif ul
ĠFigure Canvas
$ ",
, ##",
2 000
> |
B ack
C K
F UN
W ord
W heel
a e
g t
p ed
p end
ä ¾
ut er
ator s
ed Inline
ent s
ent ial
Ġs a
ct or
ĠS tock
00 10
iz ard
Ġ( (
Ġst ream
Ġ0 4
ĠRe c
pro d
port er
train er
dist ributed
eg acy
Ġpar asite
ĠIn put
Ġinput s
Ġiter tools
Net work
ĠInter val
select or
rand n
node s
pe m
ç» ĵ
rep ly
åĨ Ļ
QU E
Ġtag name
ä¼ ļ
wik i
Ð·Ñĥ Ð»ÑĮÑĤ
ĠNum Py
Ext ension
Sec urity
Ġbeh avi
> /<
C ore
c p
e ven
p atient
Ġ Video
in ner
Ġs ay
Ġs ample
gi st
ĠT op
Con sumer
ma gen
(' %
ist ic
po ll
ĠD ataset
Ġl on
ĠRe qu
() [
Ġpy asn
EN V
open mmlab
vis ual
ĠW rite
Ġmo st
ach ment
Ġsp ace
Ġsu ite
ĠNOT E
Net V
Ġq t
NBit Int
67 8
bu f
ĠSec urity
mut able
Ñħ Ð¾Ð´
åĮ ĸ
Ġct x
dot env
Ð·ÑĥÐ»ÑĮÑĤ Ð°ÑĤ
/ (?
E NG
H ost
O ver
S ystem
T urtle
c wd
e h
k nown
p ress
u ous
Ã ³
__ ',
Ġp ay
Ġp rivate
con cat
ype s
es cap
(' ./
ĠD ynamic
ĠRe gex
mar gin
inter face
ĠV is
ifi ed
axis artist
File Field
Ġsp eed
Ġpkg util
Check s
sk ill
åĲ İ
Ġav g
____ ____
ATT ERN
è¿Ľ è¡Į
ĠRest Framework
L exer
N N
N ew
` <
b est
c ell
c amera
m ix
r pc
v it
al ized
le ts
fi dence
Ġ' {
Ġs co
Ġn b
Ġb it
Ġo sp
ĠA ug
(' -
ĠM egvii
Ġis file
lat forms
ĠO Auth
EN SION
Ġwh at
Ġbo und
Ð¾ ÑģÑĤ
work space
Ġfunction al
fa v
Ġauth entication
Un restrict
ĠPost Admin
ĠAuth TokenConfig
Ġextr act
Sh ort
Ġoff sets
ĠÑ Ĩ
Batch Norm
ĠGo ogle
edIn gress
çł ģ
ĠRestFramework Config
Unrestrict edIngress
A nal
C R
P T
a gi
c net
d nl
j ti
m ul
m Dice
w raps
z h
§ è¡Į
å ĳ
å Ļ
al ing
re cor
id o
ap cnet
Ġs quare
Ġ2 04
ĠN aT
Ġf eat
Ġl abels
ĠI ter
di v
lab s
auto discover
') )))<
token izer
Lo cal
width src
valid ate
Ġspec ial
exp ected
Tr ain
ĠModel Form
position srcValidator
sym bols
æī §è¡Į
Open Id
Ġbook s
gap sValidator
track er
Window Indexer
Requ irement
æ¨¡ åĿĹ
dm net
Shell Activator
Ġfav or
åŀ ĭ
åĻ ¨
/ ')<
G raph
H elp
S ort
f d
r p
v env
ç Ń
it ter
Ġre sol
(" ./
tr a
ĠS y
iz za
Ġth en
') ]<
Str ategy
Re pository
sql alchemy
Ġtime stamp
Lo cator
ĠPo int
Ġac counts
Ġpr ime
ĠJ son
Inter val
Ġcase s
ĠTO KEN
ĠCo unter
ĠMain Config
MA X
ĠRel ation
segment or
Ġind ices
dar win
- ####
B OT
E nsure
F lask
G en
I Python
U rl
\ <
] *
m g
o wn
å §
ç Ĳ
è °
st ar
ap er
con t
Ġa xes
il ar
ĠC O
one y
ĠM ask
ho use
ĠP ATTERN
Ġh and
Ġ'../ ../_
author ization
AL CHE
vo xel
Ġal t
Ġal lowed
ME TH
ÑĤ ÑĮ
Ð¾Ð ½
over l
Auth TokenConfig
Ðº Ñĥ
0000 0000
Logger Hook
Ġrad ius
æľ ¬
cloud inary
äº Ĩ
gress or
ĠID s
ĠÐŁ Ð¾Ð»Ñı
Ð»Ð° ÑģÑģ
GB Axes
æĸ¹ æ³ķ
Ġreplace ment
yolo x
esso a
ĠMedia Storage
qui val
Ġtho se
ALCHE MY
METH OD
ĠÐŁÐ¾Ð»Ñı Ðº
9 8
> *
E MAIL
G ame
P en
S ign
W idthsrcValidator
e mbedding
z auto
µ ĭ
å İ
Ġ able
Ġ question
Ġ' ':<
Ġs in
ing leton
get her
un ts
ser ving
ĠS upport
ay stack
po ss
Ġcon v
ĠN et
Ġde t
Ġf act
Ġ( ("
Ġl anguage
Ġr ich
qu it
Ġ3 00
ri o
ĠW idthsrcValidator
AR CH
ĠĠĠĠĠĠĠĠĠĠĠĠĠĠĠĠ Ġ
Type Validator
Ġoutput s
ud ge
ĠType Validator
local time
Token izer
ĠAuth entication
Pos ition
rai se
NU MEXPR
Ð°ÑĤ ÑĮ
ãĢ ģ
sec dev
cook iecutter
Ġdif ferent
ĠÑĩÐ¸Ñģ Ð»Ð¾
TECT ORS
Ġck editor
Ġ204 8
! "<
: ])<
C rowdbotics
L ab
P UT
R ate
e ck
i ro
m k
å ¿
Ġ colorbar
ł Ðµ
er ature
lo okup
Ġt qdm
mo st
is anet
=' ')<
ses s
Ġr aw
Ġco untry
ĠF unction
pro files
Ġfield sets
Ġpro per
Ġ4 2
Ġdist ributed
token s
Ġro le
ĠList ableAPIResource
Ġpar a
back ground
process or
su ite
TO COL
ank Provider
ĠEx ecutor
Ġinte gers
ĠModule sConfig
Ġweb driver
Ġqu ote
So up
Ġproduct s
å¤ §
ĠRun timeError
PRO TOCOL
Ġcor rect
aio http
Ð¾Ð»ÑĮÐ· Ð¾Ð²Ð°
autiful Soup
å§ ĭ
: ]<
= "",
> ):<
E mbed
L a
M otor
O Auth
b ench
k ze
p us
q r
Ã Ń
æ Ģ
Ġ sel
Ġ ()<
re gion
re ceita
Ġ' ',
ig en
ĠS w
ĠD esc
Ġcon tact
ĠF eature
la unch
OR IZ
Ġi r
Ġbo x
Ð° Ð½
ff ff
vent ory
the ta
Inter face
ĠCustom er
let ter
rad ient
ĉĉ ĉĉ
Ġdown load
({ '
Result s
å° ı
tensor rt
åĮ ħ
Ġutil ities
clu ster
ĠPl ugin
æĮ ĩ
ENG INE
è° ĥ
kze ug
* ',
A tt
B O
D A
E mployee
L R
L anguage
T SI
X srcValidator
g h
r strip
v ector
x src
y ellow
é ĥ
at o
me di
Ġp adding
Ġ" {
Ġre duction
ĠA s
=' '),<
Ġw riter
et ree
field sets
Ġl i
ys rc
ĠR oll
In it
tick labelstep
Re gressor
list s
check out
cor s
Ġrun ner
lle d
") :
Tick labelstepValidator
ĠTick labelstepValidator
Ġte le
ĠX srcValidator
av atar
ategor ia
HI GH
cur acy
CON ST
So cket
pc g
CT ION
help ers
Ġrepresent ation
EXT ENSION
ordin ates
Optimizer Hook
izeref Validator
Assign er
æīĢ æľī
' })<
) ?
6 40
D R
c ri
m any
s ignal
y ecto
å ¥
Ġ verify
in p
gi o
Ġc ut
ib ly
ch allenge
ĠC H
Ġv o
Ġto ml
Ġst dout
ss d
qu iz
ĠE X
Ġpro b
Ġan other
ched ule
und s
spec ial
day s
ia o
Widget s
Do uble
ĠEx ample
36 2
ASE TS
bound s
Tr ainer
Ġbbox es
Ġqu ant
ĠÑ į
ĠComp any
Ġdig it
ĠConn ect
At tention
å¦Ĥ æŀľ
TION S
8 7
M obile
P VT
S ome
c ip
h alf
p es
â ķ
è ·
me m
ge vent
Ġs q
Ġm iddleware
set item
Ġb in
Ġw ait
res ize
Ġcon t
ĠP os
ĠF eed
ip s
gr ation
Ġ4 00
Ġser vices
De precated
Ġut c
Ġro ws
wh ai
") ],<
ft max
EMP ixelSampler
async io
extr act
åı ·
26 00
('. ',
Index View
è¿ Ķ
oo st
ĠÐ² Ñĭ
char s
Ġmod ify
tab lename
lar ge
motive Provider
Ġlet ter
cum count
CrossEntropy Loss
O wner
S te
b reak
o i
p ush
t utorial
x period
} "
Ñ ī
è ´
Ġ click
se p
base name
Ġre f
Ġs low
ĠA rgument
ict ure
te ster
ĠN U
ĠP ublic
ve a
Ġse quence
qu ential
dep endencies
Base Permission
Ġnamed tuple
Ġg t
fo vea
ind rome
trans action
Re view
list ing
update menu
ĠPro xy
enc ies
Ġsh ort
Ġspec ification
è¯ Ń
NU LL
ĠÐº Ð»Ð°ÑģÑģ
dr ive
real axis
ART Y
Ġes p
ĠBe autifulSoup
Ġclo se
Ġest im
åıĺ éĩı
å¯¼ åħ¥
P erson
S U
W elcome
h ere
i ra
n ombre
r y
u lo
w armup
æ ĭ
Ġ video
or med
en ium
re load
st it
Ġd iff
mo s
mo id
ig moid
ac ert
=" /
Ġn d
Ġn eg
th reshold
str uction
Ġde vice
default s
am ma
ĠG PIO
Ġ0 3
ri end
code cs
ĠE dit
sert ion
ĠSt ate
St ore
read er
UN I
cre ment
pr ime
win s
conn ector
requ ency
ification s
Ġ100 000
å¼ ķ
los ses
Mask s
SC R
activ ate
slic es
Ġyap f
Ġbehavi or
ĠRequ irement
EXTENSION S
$ $
) //
F eature
Y A
f alse
l ang
p air
Ġ ent
Ġ vi
in stances
de velopment
Ġd river
Ġs cale
con dition
ex tern
ver ted
ĠM ake
Ġde v
ĠL ambda
Ġto o
ĠR ole
() ]<
port un
Ġg rid
ĠW indow
Ðµ ÑĢÐµ
ĠĠĠĠĠĠĠĠĠĠĠĠĠĠĠĠ ĠĠ
Ġopt ional
Ġrequ irement
rout ing
Se lect
RE AD
Par allel
ĠDe ferred
IL L
hr ase
ĠSp ec
201 8
Up load
ĠLine ar
oss ible
exp at
Date time
char acter
Read Only
pen up
rot ation
stock s
æł ĩ
å½ ĵ
Ġclo sed
Ġepoch s
çİ ¯
ĠDi vider
åī į
ĠDeferred Error
B indings
D O
E mbedding
F E
U I
Y srcValidator
[ ...
c pu
d uration
f aces
p ur
p ace
v g
æ ģ
ç º
é ¡
ĵ į
import s
re lation
ic ient
co ls
Ġ' /
ing roup
Ġa m
Ġa verage
il ls
ĠC hoice
str aint
res sion
ĠN umpyVersion
ĠP r
ĠP latforms
Ġl ar
ve ls
ĠR ule
mail sender
Ġ{ })<
out ube
pro b
() '<
') ],
), )
Ġbo th
Ġab s
Ġit self
Ġro om
AR Y
wh at
ĠPro tocol
Ġ'__ '<
Ð¾Ð º
"] .
Ġso ma
DI M
Ñģ Ð¿
To One
ĠY srcValidator
ĠIN T
Auth entication
15 5
]] :<
Col lect
ĠStudent Admin
ik es
æľ Ģ
Len gth
rec ipe
br an
One ToOne
pa a
Ġhe ap
erc ise
Down load
åħĥ ç´ł
è½ ¬
Ġcrypto graphy
Fla g
UNI QUE
5 01
B u
H elper
N aT
f name
m ing
p df
s low
t w
~ ']<
Ġ ass
Ġ })<
Ġ images
de s
st at
ls j
cl ub
Ġre cord
up on
un o
py game
ĠM an
ck editor
ĠB inary
ip eline
os x
sc apy
out standing
Ġ'. *',
auto gui
MOD E
ne g
eg in
face book
Ġme trics
my app
202 10
ĠY ield
ĠDe vice
ical ly
gener ics
Ġsession maker
cr m
Ð¼ ÐµÐ½
av a
An chor
Ġ{} )
ble m
ĠCustomUser CreationForm
ĠÐ¸ Ð½
Default Router
Ġgo od
ĠString IO
Ġmultip le
ä¸Ń çļĦ
Ġglob als
WOR DS
Tab ularInline
Ġ'* ~']<
poss ibly
SCR IP
OneToOne Field
" .<
( ('
+ )/
M S
P ickle
R DP
S P
T Z
T z
d c
d ns
g f
k s
r s
Ð ĺ
in voice
ro ugh
Ġp h
ut ation
", )}
ĠS chema
Con tact
str ucture
ĠM enu
ĠD ispatcher
ĠN a
Ġis Path
bo th
Ġst ar
qu ir
ĠI S
par allel
im read
ializ ation
ri os
li kes
ĠE mpty
ai sed
=[ ('
ĠPy Qt
ĠGener ate
Ðµ Ð¼
ĠĠĠĠĠĠĠĠĠĠĠĠĠĠĠĠ ĠĠĠĠĠĠĠĠĠĠĠĠĠĠĠĠĠĠĠĠĠĠĠĠ
Ġload er
ÑĢ Ð¾Ð²
Ġj ina
Ġat t
inal g
Ġset Up
Co unter
orig in
Al ign
è¿ Ĳ
tz win
EL D
è¯ ķ
ĠToml Error
shar ed
Fill colorValidator
ĠFill colorValidator
Ġthere of
COM PI
###### ",<
Ġmen u
STR ING
contin uation
outstanding token
G F
J ob
L ive
_ ,
n ail
p ublish
s ay
u an
in o
me try
lo or
Ġ" )
con tract
init e
Ġm any
Ġb ig
Ġb uil
ĠS n
django Project
ĠP hoto
ot ation
__( **
ĠR E
ĠR ich
text template
ĠG reg
ns upport
02 2600
umb nail
ĠU SER
() ],<
Number Pagination
ST RY
list Validator
Ġx p
af t
Ġsupport ed
Text area
Text templateValidator
layout style
Ġsc rapy
sub plot
cap y
Ġinclude s
sl iding
ĠText templateValidator
Ġread only
ĠY OLO
clo sed
ĠDefault s
Th read
Ġcol umns
Fix er
secon ds
Desc ription
FC BBoxHead
ĠGPL v
lack list
imaginary axis
ilar ity
quival ent
",)} ),)
" +
# ",<
( {}
b ul
f ed
f li
h op
er os
Ġp iv
lo catable
Ġd raw
co ll
ser ials
Ġn one
ĠS EC
(' '))<
Ġfor ce
ĠB box
ĠB asic
LE CT
Ġg c
ĠBase Config
-------- -<
Ġab ove
Ġsub set
ach ine
tes IO
Ġne ws
mark s
top ic
ĠJ ob
au ssian
mer note
ĉĉ ĉ
ĠAl ign
decode d
ãģ ®
room s
Format Warning
Ġhead er
ĠBo olean
ĠNumber Format
Ġsl ug
bols rcValidator
Wor ld
anal y
Ġrand int
å¸ ¸
quar es
Ġcle an
çĶŁ æĪĲ
éĿ ¢
ĠRegex Object
Ġfunctional ity
çĲ Ĩ
HIGH EST
è¿Ķ åĽŀ
æģ ¯
Tz FormatWarning
COMPI LED
nsupport ed
. ),
1 80
= ",
D isplay
V alidationError
W indows
] :
b uffer
c pp
n py
o sp
æ ¬
Ġ 01
at i
in ess
me mo
en cod
st age
ad v
Ġ[ ]
ĠS TOP
ĠC alc
bo ost
ĠB ad
ĠB ASE
os a
cal ls
pro to
Ġproject s
ĠE mp
Form atter
token ize
od d
ff icient
col umns
'] ['
process ing
Ġob tain
Ch annel
>~~~~~~~~ ~~~~~~~~
Ġ". ".
Value Error
angu ages
å¼ Ĥ
Ġtoken s
Ġbuiltin s
Ġgo es
ä¹ ĭ
åĬ ¨
éĩ Į
Ġho urs
collect or
clean up
pep s
rag o
METHOD S
/ '),<
5 2
C all
D el
F eed
G AN
I S
P ort
P arent
P art
P ress
X hoverformatValidator
Y hoverformatValidator
f w
j our
l inalg
n ess
t ies
t ars
x hoverformat
y hoverformat
Ġ articles
Ĩ æĺ
Ĳ âķ
se ns
de coder
al bum
re cv
Ġd uplic
Ġ" (
Ġs olve
con d
con verter
tr aceref
ver sed
Fi rst
Ġb ad
ĠS capy
end ing
ĠM A
ĠD ep
ĠF ROM
Ġ0 2
Ġy olo
ON S
ag greg
Ġg rade
inter active
ĠSe lectedpointsValidator
CH ES
Ġsub module
ĠPro cess
Se lectedpointsValidator
ĠY hoverformatValidator
mb ic
Ġgener ic
IL I
ĠX hoverformatValidator
Ġjson ify
eval uator
Ġ8 5
Tr aceref
SS L
ĠIndex Error
ĠTr aceref
selected points
Color Bar
sym metric
metric Validator
ĠColor Bar
Ġgraph ene
scal ar
Ġdoc string
asite Axes
ÑĦ Ð¾ÑĢ
Textfont Validator
ĠTextfont Validator
Geo Admin
çī ĩ
minu ssrcValidator
Direct ory
èĩ ª
ONT AL
ORIZ ONTAL
RDP ARTY
) }<
. "
> ================
C ap
G RA
P hoto
R andom
W rite
] ),
e mbed
f pg
l m
l if
ª Ĩæĺ
Ġ ls
ľ Ģ
er nel
name d
st derr
Ġd one
he alth
Ġdjango Project
up s
gi es
Ġc ythonize
Ġb us
ĠA rt
Ġcon cat
ck er
ĠB uit
LE RY
cal endar
sc net
per formance
Re lease
val or
ĠSt ives
ĠĠĠĠĠĠĠĠĠĠĠĠĠĠĠĠ ĠĠĠĠĠĠ
Ð¾Ð ¹
Ġnorm al
[: ]<
åı ĳ
ĠSer gio
ĠProduct Serializer
ategor ies
ĠSQL ite
ä» £
ĠLog out
åŃ Ĳ
Ġtemp dir
air seq
Ġsal e
åį ķ
ORM AT
çİ °
ĠBar rios
Ġfactor ial
enk ins
REGI STRY
ĠFigureCanvas QT
è°ĥ çĶ¨
ªĨæĺ Ĭ
ĠBuit rago
B ert
C B
C D
C loud
F ace
G O
P ATCH
P attern
R owValidator
S ORT
V alid
f old
j s
r ink
t series
t wins
{ <
} .<
me s
ro ad
en g
Ġp ys
Ġt di
is r
Ġs w
app er
con structor
(" --
ex change
Ġm yproject
Ġthe ir
Ġc ard
Ġc loud
th ere
ch rome
ĠC ython
ĠM ater
Ġw rit
Ġr ate
ĠR owValidator
ĠRe move
Ġg u
Ġinter preter
SQL ALCHEMY
Ð° Ð²
IN ST
ĠĠĠĠĠĠĠĠĠĠĠĠĠĠĠĠ ĠĠĠĠ
ĠList View
Name space
ir ror
Ġ9 0
argument s
ĠModel ViewSet
tool z
Comp any
Ġauto motive
ĠColumn Validator
è® ¡
Column Validator
ĠRun ner
Ġsl iding
Wor k
glob als
COL OR
ĠHello appConfig
Access or
quant ity
ĠFI LE
Ð¾Ð³ Ð¾
łÐµ Ð·ÑĥÐ»ÑĮÑĤÐ°ÑĤ
ĠRoll ing
SCRIP T
Ĳâķ Ĳâķ
A ME
D es
D to
I E
L C
L egacy
N PY
P rint
S N
S har
b ise
e f
h or
h az
p ly
p ag
r ent
t ax
æ ±
é ¢
é ľĢ
Ġ ><
re cogn
as sets
fi sh
fi ler
is sue
Ġin valid
up dat
Ġo dd
Con trol
=' \\
ĠC ODE
ment ario
res p
com bin
ĠP rint
Ġex c
LE TE
ĠI P
ĠG PU
us u
Ad am
ith er
== <
array src
IC T
line width
Re g
ash board
ĠV ari
Ġ% %
ĠÐ ±
mm cls
wh ite
ff er
Time stamp
RE D
ĠURL s
step s
ast ro
Ġdb m
Ġbackend s
place holder
Ġ"" )<
ĠDistribution NotFound
Ġhello app
Ġz ero
æľ º
Per iod
è® ¤
è® ¾
åĬ ¡
real path
job s
edu ca
Ġé ªĨæĺĬ
éĥ ¨
ĠÐºÐ»Ð°ÑģÑģ Ð°
Ġpiv ot
/ $',
A E
H igh
M ath
V AR
b rand
c sp
m yproject
o om
s ame
w ithout
» ĺ
at ural
in fer
re l
id ual
ic ip
ic net
he ther
Ġ' '.
ct ime
con s
(" __
ac ion
ex clude
># #
># ################################
Ġ# ####
Ġse u
ime ter
ĠF rame
ĠF aker
() ).
ag ger
Re set
ĠV o
Ð° Ð¹
Po wer
rib e
Ġpar sed
Ġinclude d
Ġmo vie
ĠCon text
Ð¾Ð ¶
cache s
Or ReadOnly
Ġbut ton
ypo int
åĪ Ļ
AND ARD
vert ise
PRE FIX
åĲ Į
case s
ĠTime delta
So ftware
ĠSimple TestCase
Event s
ĠSc ene
Ġtask s
err y
basic Config
bu cket
skip if
Ġcor respon
bal ance
éĢ ļ
Yukki Music
lon gest
Ġsn ippet
uni form
Ġbu cket
escap ed
Ġproper ly
Embed ded
bran ch
YukkiMusic Bot
( ""
. ,<
C art
J enkins
L M
P ayment
R ule
S V
T yper
U E
V ICE
] {
b egin
d l
i ven
p x
s i
v ot
v ol
or ity
se parator
ar do
it ect
ls x
Ġt ables
(" _
Ġc ast
Ġo k
if ar
ĠM ail
Ġde tail
Ġl ater
ot al
ĠF la
ĠO ffset
ĠRe ad
fr a
sy ntax
Text Input
Po se
Ġro und
ĠUser ViewSet
Ġsc apy
Ð¸ ÐºÐ¸
pl aced
)) [
Ġnull able
======== ====
Ġdis cord
åħ ³
ĠSet tings
~~~~~~ ~<
34 5
Group by
gen re
è¯ ·
ĠCustomUser ChangeForm
å° ±
Sc ript
Ġcalc ulator
entic ate
ari os
DATABASE S
Method s
Seg mentation
Ġrep eat
éĻ ¤
ĠMode ls
ĠSubplot Divider
ĠÐ¸Ð½ ÑĦÐ¾ÑĢ
»ĺ è®¤
( \\
) ;<
4 000
D ATE
E mpty
I F
M IDI
O F
P ER
S olver
U sage
X axisValidator
Y axisValidator
e lements
p in
s mooth
x p
x ff
æ ĵį
Ġ ]
at Validator
al ways
re pository
st andard
lo se
lo aded
Ġs cor
Ġs afe
ex c
tr ade
type Validator
Ġm k
Ġm ade
Ġm ypy
ab oost
and id
ĠS pi
Ġa ctiv
min max
po sed
po six
te ch
te am
ĠD isplay
et te
et ag
Ġf e
ĠP assword
ĠB M
ĠF oo
Ġh aystack
par ameter
pro gress
time s
ĠH ook
EN ER
array Validator
array srcValidator
ire ction
act ice
AT ORS
PI S
Re port
ash Validator
De vice
BU FF
Op s
Ð¾ Ðµ
nd iter
pg serials
Ġlo aded
home page
ĠOracle DatabaseFeatures
ĠY axisValidator
mark down
ĠX axisValidator
Ġk ar
Ġexp licit
av ig
mat plotlib
Var i
ĠTHI RDPARTY
æĸ °
Ġmys ql
USER S
99 99
CON FIG
rep eat
æī ĵ
å¤ ļ
ĠSc ripts
Sc attering
yper iod
CE LERY
mplex ity
urrency Provider
Ġcar l
less on
xx xx
æł ¼
inst aboost
war ns
ERN AL
******** ********
Ġtri angle
ĠCr ypto
secure transport
Ob tain
HEAD ER
moothing Validator
pend own
Mobile NetV
Ġesp net
haz mat
escaped chars
" })<
> }
A IN
C ODE
D est
D ialog
P atch
T arget
] ==
g al
k u
p agination
u do
Ð Ķ
æ Ĭ
Ġ attr
in et
al ance
as ctime
ly ph
Ġd t
Ġd ot
Ġd moj
he app
Ġre al
op acitys
ad astro
gi f
get cwd
un pack
fig ure
ĠA sync
=' (\\
il la
py arrow
Ġw rap
ĠD B
ĠD ense
ĠD eta
Ġ2 24
Ġf rappe
ĠP layer
Ġto uch
__( __
ĠB ackend
Ġh mac
im mutable
ĠO N
ĠRe mote
De form
AU TO
atase ts
work flow
ĠUser Config
sol ver
Py T
Ġid le
.. ..
LO NG
ĠY our
Ġu ma
Ġgener ates
Class ification
urs ive
ampl ing
sk learn
Sh im
ĠModel Serializer
ĠTr ain
sal ary
Ġstep s
Sc ene
}) ',
Mo vie
ites pace
ran ch
ĠActive Link
ĠST ANDARD
æĶ ¹
Ġax is
Ġsel enium
sertion Error
ĠLambda Context
' m
= ('
B ad
D F
F OR
F ail
L IM
P ACK
P honeNumberProvider
a ux
d ge
e commerce
f used
i magen
r ams
s ho
t re
y nam
} '
or a
or ange
in valid
er kzeug
ame nt
Ġp ub
Ġp lay
Ġp ossible
id ers
Ġ" #
yp ted
Ġre cor
con tainer
Ġin dent
Ġ[ -
th ree
ĠA ss
ĠS ent
ĠL td
ĠP agesConfig
Ġex port
Ġco ls
ick name
Ġse ction
For ward
Ġvariable s
Ġe mployee
line color
tick et
Re gistry
-------- ----
fla kes
ens ors
ÑĤ Ð°
Ġj upyter
Ġj edi
Ġle ap
ĠCreate ableAPIResource
pr ices
Ð¼ Ð°ÑĤ
grid color
grid width
ĠDo wn
Ġsh ell
Stack edInline
Ġ"% #
dat rie
æķ° ç»Ħ
requ encies
iver sity
AB LE
è¿ ĩ
pe ople
Com mon
NBit Long
Ġoff set
ĠHome Config
Sc ripts
Di vision
ceit as
å¹ ¶
Support sIndex
builtin s
ĠAbout PageView
Ġconsum ing
çŃ ī
ĠPos ition
[... ]<
bise netv
' }
6 749
: '
? |\.
A V
C le
C ourse
D ay
H ow
H az
L ast
M on
M ix
S w
b ro
d il
d rf
f ut
f our
h ort
s chool
w atch
y our
å Ł
Ġ extension
in creasing
mp labs
an ner
Ġt ick
co es
ge ode
is s
op erator
ig ger
Ġm anual
ter min
ab e
ver son
Ġb ank
=' __
py Error
py asn
et c
et ina
pt p
Ġde s
ĠP ort
:// {
la v
ĠG ENER
project ion
ta ir
Ġe mp
Model Factory
son g
Ġpro d
Ġth ree
Re fresh
iter al
Ð¾ Ñģ
Pro gram
Lo ad
ra form
Ġrai ses
ÑĤ Ð¾ÑĢ
pl ain
tin y
Ġle ading
fa q
'] :<
Ġac cept
ast ype
Ġcomp are
ResNe St
ALLOW ED
Ġrad ix
CON T
sn mplabs
pos als
ĠÐ¾ ÑĤ
1234 5
FUN CTION
ĠNU MEXPR
ĠINT ERNAL
Ġheap q
æ¬ ¡
geode tic
verson ator
( ",
7 0
A I
C al
F UL
L abels
M B
a id
c ategorical
g b
i ence
t n
x S
è ī
Ġ â
de partment
__ :
an e
re views
st or
Ġp ayment
ang er
Ġ' {}
up b
tr ace
Ġm usic
get item
un changed
ser ialisable
Ġc ross
Ġo wner
Con troller
du cer
end ian
ĠD a
ĠD irect
Ġf in
Ġf inally
Ġl ay
ve y
ial ect
am ing
Ġop eration
ializ ed
ta ke
ER E
Ġor ient
pro posals
Ser ialisable
Ġtr a
ĠV er
IN ET
Data Required
Ġ5 00
ak ov
Ġpart y
Ñģ Ðº
Par asiteAxes
Co der
raw ler
xy z
ĠSer ialisable
ĠAns wer
Me tric
Me mory
ĠÐ¿ Ð°
ĠTr ack
[[ [[
Ġar upb
location s
access or
poly akov
åº Ķ
Ġho ur
configure d
ĠÐ¾ Ð±
ç±» åŀĭ
Pr ice
ĠSignUp View
Ð¾Ð± Ð°Ð²
ÑĨÐ¸ Ð¸
component s
Ġqt py
ĠVis ual
ĠMask ed
Ġnd array
YA DIS
>~~~~~~~~~~~~~~~~ ~~~~~~~<
Ġyolo x
ĠMater ials
ardo us
æĵį ä½ľ
BUFF ER
Obtain Pair
Haz ardous
9 0000
? ")<
A bs
F ORMAT
I G
L INE
M ULT
P layer
P ixelSampler
R ole
S ample
Y es
b ig
c urr
p ers
p ick
q q
t ile
t imer
y ou
Ġ QA
ħ į
ĵ Ð»Ð°
se mantic
me ter
ar ily
al gorithms
st ro
Ġp a
Ġd ummy
Ġ" '
Ġs on
Ġin lines
Ġm i
Ġb eta
ĠA g
ĠS ingle
(' __
py w
res ume
Ġde sc
ĠR ad
Ġex amples
ĠB utton
SE LECT
Ġco uld
Ġse lect
ip edia
Ġ3 27
ces sed
add ons
Ġpip eline
AT ES
try K
open ssl
Ġpre vious
ĠW riter
Ðµ Ð»
Ġpo ol
wh l
AS SES
Ġal gorithms
202 00
Ġdepth s
Ġrequ irements
LEVE L
posit ions
process ors
Cre ator
Ġcomp ile
03 82
Ġspec ific
Dist ributed
ĠTodo Config
au dio
can cel
Group UnrestrictedIngress
Custom er
ĠTe legram
Ġeval uate
oh n
cud nn
Simple TestCase
TR AN
mut ations
Application Client
æį ¢
clu ding
mob ile
Ġdif ference
æŃ £
dest roy
Ð¼Ð¸ Ð½Ð°
sd k
jour nal
xS tryK
" },<
' (-
( ',
- ##
5 000
9 1
B in
C ard
D D
E mp
I de
M od
M aker
M enu
N T
P ay
S core
Z srcValidator
h y
k p
k ill
t x
t ures
t ts
x type
y type
z src
} ')
Ð ®
Ħ ĸ
de clarative
re ference
id i
co mpleted
Ġre placed
Ġs ignal
ue st
ac ing
mode bar
ad ded
tr l
tr ust
ser ial
Ġc ursor
Ġo t
ate club
=' /
ĠC ard
res nel
pt ime
ĠL a
Ġ- --
text templatesrc
Ġst able
par ty
test utils
path bar
level name
Ġ3 1
ĠU tils
Ġvari ant
Ġpro j
Ġtr aces
ĠÐ °
ĠÐ ĵÐ»Ð°
Text templatesrcValidator
ĠUser s
arch ive
ĠText templatesrcValidator
display ed
RE EN
Key Bindings
Ġaddit ion
Ġcomp any
ĠZ srcValidator
dis count
Tr ansport
Ð½Ð¸ ÐºÑĥ
ĠTr ainer
period alignment
light position
CON F
So cial
ÑĢÐµ Ð¼Ð¸Ð½Ð°
ĠColor scaleValidator
Ð± Ð½Ð¸ÐºÑĥ
End Validator
}/ {
ĠWor k
Start Validator
Login View
ÑĩÐµ Ð±Ð½Ð¸ÐºÑĥ
å¹ ´
ĠSystem Exit
ĠÑĥ ÑĩÐµÐ±Ð½Ð¸ÐºÑĥ
ä¿ ®
ĠActive Session
ĠStart Validator
ĠÐķ ÑĢÐµÐ¼Ð¸Ð½Ð°
vari able
OH EMPixelSampler
yb rid
ĠEnd Validator
asure ment
BIN ARY
gist ic
ĠÐŁÐ¾Ð»ÑıÐº Ð¾Ð²Ð°
)? $',
ĠSQLite DatabaseFeatures
ĠÐ¸Ð½ÑĦÐ¾ÑĢ Ð¼Ð°ÑĤ
andid ate
Ġâ Ħĸ
ĠÐĵÐ»Ð° Ð²Ð°
periodalignment Validator
ĠÐ¸Ð½ÑĦÐ¾ÑĢÐ¼Ð°ÑĤ Ð¸ÐºÐ¸
. ",
7 8
C M
G ER
H E
S K
S OCK
X ML
b ill
c f
c map
f eat
g m
h ide
k o
u ck
w ind
w ild
{ "
¢ «
Ð ¡
è ¢«
or b
in i
ro lled
re served
ic als
Ġd ic
co very
Ġre d
Ġre po
con st
ex periment
Ġm ult
file path
iz ers
te acher
Ġco ok
ĠI mp
() ])<
max imum
Ġg ui
Ġg lyph
Ġuse ful
tick er
>@ _
Ġpro perty
Ġpro duction
trans late
Ġbe ing
Ġmax imum
Ġpre pare
ix path
De pth
Ġdo main
ĠGener al
ĠSt andard
Ġrun s
Ġrun shell
ĠFi xture
Ð¸ Ð¼
so up
Ð¾Ð ·
mon itor
cre te
11 11
assert Is
201 5
ĠImage Grid
rest aurant
Ġpos ixpath
ĠMe thod
PR I
äº Į
MA P
ĠMat t
Ġsome thing
wt f
å½ ¢
Is Authenticated
ĠDocument Array
ĠÐ¼ Ð¾Ð´
vers ation
nom ial
Mat rix
rtual env
Cascade RCNN
ĠRec ipe
µĭ è¯ķ
Ġkar ateclub
Dest roy
opacitys rc
( ...
) ")<
A CC
C Y
C r
C OD
F uture
G lobal
H O
R edis
T C
T otal
a verage
d ings
f ect
l ite
t it
v in
é »ĺè®¤
Ġ kernel
Ġ è¾ĵåĩº
Ĺ Ð°
at z
se lection
al one
Ġp en
as set
ut down
Ġd a
he ap
is k
is o
yp edDict
ct ree
con trollers
ter raform
get Table
ab i
lic k
ĠT SI
Ġn ested
th at
ĠA nd
ch il
ist ics
Ġget argspec
ĠC ORS
ĠM OD
res a
Ġde ep
Ġf ree
ĠP in
Ġl at
ĠB it
Ġco unts
Ġh i
Ġst at
ĠG radient
us ing
ĠRe port
ANG E
Ġe quivalent
work ers
80 80
Pro vide
UN T
Ġpar sing
Pre dict
Ġdi vis
)) )
ak es
ĠLo ad
ENT RY
ĠOpen ID
ĠOpen Type
product o
show grid
Un it
orig inal
Ġ8 00
row se
æķ ´
distribution s
rid ge
ĠCl ip
ĠShow gridValidator
Show gridValidator
Tr ip
AMP LE
Get ter
è¯ »
ĠTe ch
ç» ĺ
ĠLab els
velop ers
By te
tt Lib
ipp ets
Grid colorValidator
Grid widthValidator
Ġfi b
("/ ")<
HOST S
Ġtt Font
Ġgre ater
çĽ ®
çĽ ¸
ĠGrid colorValidator
ĠGrid widthValidator
Ð½Ñĭ Ð¹
ĠSignUp Form
Ġpredict or
Ġnote book
å· ¥
Bear er
fav or
Ġnone bot
éľĢ è¦ģ
è®¾ ç½®
ĠActiveLink Manager
ĠGENER ATED
èī ²
Ġot Font
getTable Class
' },<
- >
- {
7 2
= __
A ctive
B M
C hoices
F ailed
M an
S O
b irth
d ers
f ri
j ust
l anding
p id
t up
t weet
u z
u dit
w ave
Ġ fill
in v
in set
an ies
st ations
st udio
Ġp i
lo ok
Ġre v
Ġre main
Ġre gex
Ġs an
(" {
Ġin ner
ab et
Ġ[ ('
tur a
ĠC ON
ĠC ity
ĠC ARE
str ategy
po w
end points
Ġv at
ĠB U
ĠB atch
ĠB ert
sp an
LE NG
Ġst atement
Ġ+ <
Ġ== ================================
per ties
Admin Site
label font
eg a
author s
Op acitysrcValidator
ĠW rap
af ka
Ġ7 0
ĠĠĠĠĠĠĠĠĠĠĠĠĠĠĠĠ ĠĠĠĠĠĠĠĠĠĠĠĠĠĠĠĠĠĠĠĠĠ
Pre fix
Ð¸ ÑĩÐµ
Ġal tair
UT C
Sp ace
dent ial
ĠOp acitysrcValidator
To o
Ġtorch meta
Key board
Log out
lob pcg
]] ]]
BB B
rg lob
let ters
Ġover load
ĠProduct sConfig
au ction
au ctions
Not es
Ñĩ Ð¸
be low
ĠOut put
ĠFlask Form
ĠCustomUser Admin
ĠLogin View
ĠLink sConfig
SI DE
soft max
åº ¦
cent age
Ġcalc ulate
ĠUse ful
ĠFix ed
Mode ls
cook ie
OP TIONS
ordin ate
Single RoIExtractor
<< <<
pydev d
ĠDef inition
Ġsin ce
Flag listValidator
neg ative
INST ALL
posix path
ĠCARE FUL
- =
. ###
C ell
M is
N ews
S im
S cor
U tils
W T
a wn
g u
h g
k i
s lot
y es
z on
æ Ł
ç ©
ç ¼
ç Ĥ
é Ľ
or io
at ility
in el
in line
__ "]<
ame l
an h
ut y
ic lass
Ġt utorial
Ġre ce
Ġs olution
Ġ__ _
ĠT ree
Ġb s
ib li
ĠC rowdbotics
Ġw izard
ĠL ike
Ġf eed
Ġf etch
ĠP hone
ĠP honeNumberProvider
Ġ( -
Ġex ecut
di visible
am on
ER Y
() [:
Ġpy expat
fix ed
Ġwh itespace
ĠÐ łÐµÐ·ÑĥÐ»ÑĮÑĤÐ°ÑĤ
ĠSt oreConfig
Ġdist ance
Ġinit ialize
Ġsub class
ÑĤ Ð¾
ĠPro mpt
Ġid ade
Ġj araco
initial ize
Log Info
ï¼ Ī
ï¼ ī
Do main
ĠSp ace
Ġday s
Ð² Ð¾Ð´
av ra
Dist ance
Te mp
201 6
ĠEn try
student api
uff ers
AC E
wait Key
Comp atibility
seg former
å® ¹
ĠAl bum
Conn ector
render er
Update View
Wor ker
ĠSo ftware
INT ER
(". ").
å¾ ª
ä¼ ł
ç§ °
------ -<
ĠÐĴ ÑħÐ¾Ð´
æı Ĳ
ä¾ ĭ
Ġsco ped
Ð¾Ð»ÑĮÐ·Ð¾Ð²Ð° ÑĤÐµ
è· ¯
å¼Ĥ å¸¸
GRA M
ĠDeta il
Refresh View
ObtainPair View
ä¿® æĶ¹
çĤ ¹
) ==
9 2
: "
> (
B L
F requency
G PIO
L P
L AY
P ass
P AR
R out
S Y
W H
] ],
b at
c us
j upyter
o ugh
p aper
s quares
t g
x lsx
z oo
é ħį
Ġ ed
Ġ extensions
Ġ ÑĢÐµ
de scribe
Ġ= '
re ed
ur ize
Ġ' )
is digit
Ġre dis
op eration
ex pi
', {'
ĠT qdm
th umbnail
Con fidence
ib o
Ġa greement
if est
iz ont
ho ur
li very
Ġno se
gr ama
wor ker
Ġpro vid
Ġtr uth
Ġwh y
=[ (
ĠV AT
ĠSt orage
box es
Ġ> >
Ġres ource
comp ress
comp arison
ĠTo Do
not a
fa il
Par ams
car s
Ex ist
pytest tester
He ader
åı ª
graph ic
14 4
ä» İ
TH ON
uff le
inen o
Custom User
Ġport s
Ġfind At
Ġtoken ize
man ual
present s
ĠÐ¸ Ð·
Web App
contact s
report lab
Ġact ive
ÑĢÐ¾Ð º
éĹ ®
att achment
çĽ ´
Rec ord
lin space
wik ipedia
ĠInteger Field
mn ist
åĨħ å®¹
LU E
Ġsym bol
ĠQu iz
ĠPre fix
ĠUserProfile Info
Ġlon ger
Ġresol ve
ĠJson Response
ĠAuthentication Config
æĮĩ å®ļ
cri min
LENG TH
å¾ª çİ¯
B ER
B ankProvider
E l
G RO
H yper
I ns
K ernel
M anagement
N ormed
O LS
P M
c adastro
d on
e art
e ep
v icorn
w a
ç «
è µ
Ġ attrs
Ġ ä½¿çĶ¨
ķ ¿
on axisValidator
ort ran
al k
an te
Ġp air
"" ",<
ap is
ent y
ur ing
ct x
ab l
un ion
ĠA ut
um m
00 12
ĠC at
to s
Ġ2 6
Ġde aling
pp lication
color way
Ġ1 50
ĠR GBAxes
os al
qu ot
us dt
ĠRe captcha
ta cto
Ġpy lav
EN UM
Ġun known
train ing
Ġpro to
trans formation
Ġan chor
': ')<
ĠW erkzeug
Bo unds
Ð° Ð·
Lo ck
User Profile
") )
Ġch r
last ic
ens ity
so und
ÑĢ Ñĥ
ÑĢ Ñĭ
LO AD
Ġle ss
Ġle ast
Ġsp iders
range selector
Co ok
cr iter
Ġcomp onent
we ights
deep en
æķ° åŃĹ
åħ ¨
Create APIView
sent ence
ĠFile NotFoundError
exp and
Ġpos itive
Me trics
Group Sampler
Ġtemp eart
ĠÐ¿ ÑĢ
ĠMark et
off Validator
Ġsign ature
ickness modeValidator
ful ly
Of Bounds
ĠLen gth
.* `
Norm al
Ġ### ",<
ĠSparse Array
pal ette
Ġsym bols
moj i
Track er
Ġpay load
Flask Form
Results View
ĠTqdm DeprecationWarning
Normed Conv
Ġtempeart ure
OfBounds Datetime
( ...,
= {}
> ')<
D OM
D uplic
F P
G REEN
R ich
R edu
_ ):<
b ine
c m
d ropout
h al
h ib
h ero
i or
i el
m ages
p ect
t un
w at
y e
Ġ imshow
re et
st agram
ic ular
Ġt w
Ġt urn
Ġd uration
Ġd atasets
base s
yp al
Ġre q
Ġre ader
Ġs im
ct rl
Ġin ference
ex ecutor
Ġm igrate
and a
Ġb uffer
vi sed
ĠS u
Con straint
ict or
(' --
pop ulated
=' _
if ference
NG O
Ġcon stant
Ġcon struct
ĠP ick
ĠF used
ĠG en
Ġop portun
auth enticated
ĠU nsupported
TT ype
Ġe m
Ġg ateway
ces ses
itle ts
Ġpro mpt
') ()<
Re trieve
ST ART
no x
Ðµ Ð½Ð¸Ðµ
index er
imple ments
ĠAny thing
AS K
frame s
Pre m
Ġmo b
not ification
======== ==<
ĠNot es
Ġk now
ĠName d
Token Grant
Ġcre ation
mat ches
DIR ECT
ĠProduct ViewSet
Up loading
IM AGE
ĠCo untry
Filter Set
åħ ¸
fol low
ä» »
UP ER
vert ex
ock s
sin ce
ĠClient e
ĠĠĠĠĠĠĠĠĠĠĠĠĠĠĠĠĠĠĠĠĠĠĠĠ ĠĠ
({ !
ĠComment Form
Ð¹ ÑĤÐµ
Ġgo ogle
QU ERY
photo s
ĠExtension Array
aj ax
ĠQuestion Admin
éĹ Ń
ĠLe ad
activ ation
ĠIs Authenticated
Ġtool kit
Process or
Ġshar ing
multip le
ĠÑĩÐ¸Ñģ Ð»Ð°
predict ion
Ġplace holder
åĽ¾ çīĩ
å± Ģ
Ġjob lib
ĠBy tesIO
eh icle
recor ds
({} ,
itect ure
ĠDa vid
DOM AIN
+ +
/ ',<
4 02
9 4
> ")<
B inary
C allable
D river
S ent
S cal
S ta
T wo
V O
a ils
b el
c ythonize
g ray
h v
j hu
o cal
t u
} @
æ Ħ
é ķ¿
on en
se ctions
in cip
al y
import ors
an cial
an ced
Ġ= ",
Ġp op
Ġp ri
lo pen
Ġt rue
Ġb r
ĠA FF
ĠS al
ĠS olver
Con vert
Con tainer
ĠC R
Ġcon trib
pp er
pp rint
ĠP ere
ĠR edis
ĠR ating
ĠRe f
ĠU rl
ec ess
() )):<
Model Mixin
port al
ĠH ero
Ġg cd
per imeter
') [
Ġlist dir
Ġdo ing
ĠW ang
IN K
cor rect
Ġsub plot
Ġres net
dit ional
ĠCon tributors
sup press
Se cond
100 0000
ĠJ ose
ĠPost Form
Ð¼ ÐµÑĤ
ĠProduct Admin
Te acher
Ġsum mary
ÑĮ ÑĤÐµ
Ġz mq
Ġchan nel
Ġcirc le
Result Set
cc xt
On Prem
Ġmm det
Ġsal ary
Det ector
æ³ ¨
Batch Sampler
ĠAccount Config
å¾ Ĺ
Pr ime
Top ic
ĠService Maker
fb v
èĢ ħ
ĠTop ic
Anal ysis
ĠCO CO
stit ution
ĠMan osal
ĠGreg orio
ILI ATES
ĠVari able
Ġmanual ly
ç»ĺ åĪ¶
importors kip
ĠAFF ILIATES
ĠPere z
ĠManosal va
) %
/ _
? <
A ug
A ST
B asic
C ity
D ynamic
D ICT
E B
H i
H ard
I GHT
M AND
M ultip
N on
P K
P lan
T k
Z eroline
a ware
d conv
f ake
f lip
h ift
i ans
m u
n pt
s at
u c
v m
z i
Ġ hex
Ġ ViaTemplateActivator
in y
me ters
de tr
an na
lo ved
ic ao
Ġ" ).
ent o
ent ities
ur lopen
app ro
ig ma
(" [
Ġin vo
ex ecut
up dates
init ions
Ġm anage
un s
=' ./
Ġa st
il ities
te ms
Ġl ayer
ve mber
Ġse matic
os ine
Ġh ard
Ġh andlers
Ġh idden
ĠO ne
sc re
har d
() ))
code s
Ġe le
Ser ializers
fo cus
Ġtest ed
DE X
Ġpro gress
mm segmentation
ome n
") #
Ġsc rap
order ed
so ma
spec ific
comp anies
ĠPro gress
mask s
Ġmo ve
Ġdi v
Type Error
cre dit
pi kes
start up
ĠDe partment
ud y
Ġne ver
vide os
Implement ation
Ġkey word
Ġkey board
sign in
ï¼ ģ
arr y
Ġpost gres
Ġsh op
14 46
ĠEn ter
ĠEn gine
36 0
Ġinte gration
ĠZ eroline
è¿ ŀ
aps hot
exp ired
34 4
ponent ial
ik i
DAT ASETS
Pick ler
ĠLink Serializer
45 6
pc pvt
zer oline
dr en
ãĤ Ĵ
Ġmark s
categor icals
Ġlocal s
PRO JECT
è¡¨ ç¤º
ĠDAT ABASE
blue print
Ġgre et
ĠSparse Dtype
XXXX XXXX
mas ah
uni q
Eval uator
wal let
Ġ'+ '
ĠDef ine
å¼Ģ å§ĭ
ĀĀĀĀĀĀĀĀ ĀĀĀĀĀĀĀĀ
linked ModelSerializer
ĠÑĨ Ð¸
gh m
TZ Dtype
è®¡ ç®Ĺ
Ġ%% <
Fail ure
Cle ar
loved a
# -
( \
+ '
. '
. "),<
3 32
D raw
G o
I mp
J son
P al
R ad
[ ...,
b re
b erry
c is
g ender
h am
j i
m icro
m AP
p le
s ampling
v cr
y am
} ")
or is
ar sh
ro bot
al most
__ "
re captcha
re lu
Ġp s
Ġt d
Ġs ur
Ġs hows
(" +
for war
es son
get path
Ġc c
vi z
end ance
et up
Ġ2 000
Ġde cor
ĠL ast
Ġv an
Ġl xml
do cker
Ġr a
ĠR FC
Ġex periment
sp eech
Ġco ur
Ġse c
Ġh int
default Axes
im ize
ĠO K
ĠG ithub
ĠRe fresh
Ġor m
ĠE ASY
Ġpy autogui
ag enda
Ġg r
DE LETE
In gre
IC ES
String Dtype
Ġlog out
ĠÐ Ķ
unt il
UN IT
Ġcolle ction
mask ed
Ġlo s
Ġ201 6
Ġcan not
ĠLo okup
Ġpart s
ĠRes Net
enc r
Ġimplementation s
show line
Ġtext wrap
ĠAd vertise
assert True
coun tries
we ek
write V
ĠToken RefreshView
ĠShow lineValidator
Show lineValidator
dis cord
Me mber
ipe Object
fin ancial
ĠTe mp
ĠBlog Post
ĠÑģ Ð¿Ð¸Ñģ
zone info
bol ts
({ <
ãģ Ĥ
Ġmatch ing
poly nomial
ĠHome View
Pl ace
thread s
pa ste
track ing
ident ity
ĠExp anding
relative delta
ä¿ ¡
ä¿ Ŀ
ital ize
åºı åĪĹ
86 28
kip Test
Ġ----------------------------------------------------------------- -<
Host Axes
Ġmk dir
aux trans
etina Head
ĠBU ILD
Ġprovid ing
Ġpostgres ql
defaultAxes Class
" }
' "<
) **
6 00
A LT
B uffers
C l
C AL
D b
F p
F ast
J ohn
M Q
O S
W D
] -
e aster
g atz
l and
p w
r rule
y a
y ml
Ð ŀ
Ġ ver
Ġ educa
al g
al ib
__ :<
re aded
st u
st on
Ġp ad
Ġp lan
Ġp hoto
ic ios
ls o
Ġt z
Ġ" {}
ent ele
Ġre tain
ex emp
ter ator
un do
Ġn ombre
Ġc ats
Ġc hoices
ĠS ong
ch unk
Ġa ug
min utes
str on
ĠM atch
ĠM obile
et ary
Ġ2 50
Ġcon s
Ġde dic
ĠL EX
Ġv ega
ĠP RO
ve c
Ġex ternal
bo ld
user profile
ĠI oU
sc rapy
out s
Ġe ither
MODULE S
num er
Ġg it
Ġun a
Ġpro pri
ste ms
ST D
sh ipping
LT K
no se
IN Y
IN DEX
Ġ: :
Ġsc ene
FO L
16 8
Ð¸ Ð»ÑĮÑĤ
first App
ä¸ ī
File Reader
Array terator
pol ate
Se q
Ñģ Ñı
Ġu vicorn
new man
Ex porter
ĠRes ult
ular izer
Cre dentials
ĠPost sConfig
hello world
iver sal
ĠCo unt
ĠEx ponential
åħ ¶
can vas
part ition
Ġaccess ible
go od
Ġhello world
ĠÐ¿ ÑĢÐ¸
ik a
ĠCategory Admin
æĪ ·
NBit Base
SI GN
Web site
mot or
Ġcur dir
gre et
scrib er
sco pes
Ġreason s
æĹ¶ éĹ´
BACK END
ĠÑģÑĤ ÑĢÐ¾Ðº
pot ify
CR UD
ĠSupport sIndex
å¿ ħ
Ġduplic ated
avig ation
ĠAss ume
stro gatz
izont al
wat ts
}@ {
entele metry
Ġdedic ated
, **
/ ")<
7 4
9 3
: ]
= %
= ',
> '
A b
C ris
C trl
O B
P ipeline
S m
S elf
c ms
d ialog
e a
e cho
f requencies
g y
g aps
l is
m anag
n ative
t ip
on ic
in ventory
ar es
ar pack
re v
st a
as ics
def matrix
ge om
el ist
ent est
base lines
Ġs chool
Ġin p
Ġdef matrix
Ġm achine
Ġ[ (
Fi xture
ĠS E
ĠS ort
ĠS UPER
ce an
ĠC an
ĠC ategoria
et f
Ġis ort
Ġco in
Ġco mplexity
ĠF ood
text positions
di ent
pre m
Ġ3 1446
Ġe qual
ĠE val
io c
Ġpy torch
Ġnot a
Ġun iv
Ġun til
DE TECTORS
IT H
fix tures
Ġpro blem
Ġpro grama
') )
Re LU
Re gression
Ġpre populated
ash ion
ash Activator
Ġtime it
Text positionsrcValidator
Text LoggerHook
conf test
Pro perty
ĠĠĠĠĠĠĠĠĠĠĠĠĠĠĠĠ ĠĠĠĠĠĠĠĠĠĠĠ
index ers
User ChangeForm
ĠList ing
]) )
ĠIn it
Tick s
ĠText positionsrcValidator
"] ["
ak i
Ġu func
'] ]<
ĠX ML
Ġfull api
top ics
Ġformat argspec
clo s
ish Activator
åı £
Ġsu ffix
Line colorValidator
Line widthValidator
Ġhome page
std c
labels Validator
ĠLine colorValidator
ĠLine widthValidator
FI LES
Ġlr u
gen api
ĠData Required
full api
ĠTe acher
ĠFlat Buffers
proble m
matrix lib
äº º
na mo
ĠCh art
call ibrary
å¤ Ħ
ĠSc attering
Auto motiveProvider
ĠWeb appConfig
Open Stack
ĠAbstract Instrumentor
person al
rit ic
gau ssian
ATT RS
From Ticks
Password Input
ĠCloud inary
constr aint
Offset WindowIndexer
Ġ## ",<
ambig uate
duplic ating
instrument ation
ĠMock Connection
ema ils
éĶ ®
ç»ĵ æŀľ
Ste p
ingroup Validator
æ± Ĥ
updat er
usu ario
Ġcorrespon d
Ġdot env
Ġrecor der
Forward WindowIndexer
Ġlay ers
Ide ally
Ġopportun ities
Ġpropri etary
textpositions rc
6 2
7 3
: {
A ns
A sync
B LUE
D ot
G ithub
G adget
G aussian
L on
M F
M ail
R est
S cheduler
X T
] }
b ackward
d x
e mployees
g uess
j ax
l aps
m ic
m oney
n g
w x
Ã ª
å ĥ
æ Ľ
at om
in ation
de it
al let
Ġp in
le ted
", ",
Ġ' :
Ġ' ')<
Ġs chedule
Ġin sert
lic e
edit ed
ĠT urtle
ul a
Ġb logs
ĠA bs
Ġreturn ed
(' ='
ist ant
ho od
Ġde st
dict ionary
ĠR O
ĠF ind
par k
om ation
pre vious
mail ing
ĠU sed
pro p
ANG U
auto gen
max depth
Ġpy flakes
Ġtr ip
ml n
no ise
mm detection
Ġit erations
Ġme dia
Ġch ain
ĠIn line
comp ose
Ġpart ial
Ġpart icular
mb le
Ġte m
Ġgener ics
pip e
Ġstart s
15 2
ĠPost Serializer
AF PN
Ġcre dentials
ĠPY SIDE
ph abet
>~~~~~~~~ ~~
Lay out
ĠFore ignKey
Ġlast name
Ġz ones
ĠKey Error
åĲ Ī
ĠÑģ Ð»
ĠMe tric
Gener alized
note books
Ġqu iz
åŃĹ åħ¸
strict ed
Ġcom ments
åĬ Ł
Ġad ap
ĠSh im
ĠSh ape
ipy nb
Mo ving
rot ated
mut ation
Ar ch
å½ ķ
omb er
?? ?
Ġag ent
agent s
ĠPar ser
Ġpe ople
wal ker
Ġvis it
Ð½Ð¾ Ðµ
ĠIO Loop
Ġconsum ers
Ã³ n
ĠDesc ription
pur chase
çº ¿
Ġlar gest
Ġcloud inary
separator s
Ġexplicit ly
Vari able
ynam ics
fri ends
GRO UP
FOL DER
ĠExponential Moving
" ']<
( """<
/ ?
4 26
8 3
> ----------------
B box
H ash
R aised
T P
b f
c ss
c nn
d ra
e th
f lask
h h
n as
p ies
p ics
p hrase
s reg
u y
w elcome
Ð ĹÐ°
å ģ
é ģ
at tention
me mbers
de lay
al gorithm
en fold
it ions
lo omber
Ġt el
Ġd in
Ġd ns
ang ka
base line
class ification
Ġre size
Ġin crement
tr ial
tr acer
ing er
es capes
Ġm uch
ser ialize
set Level
Ġn or
Ġo mn
ĠS SSSS
(' {}
ĠC ore
ĠC ook
Ġ# <
Ġw ho
Ġcon figs
Ġf lat
Ġ1 344
ĠR udge
bo le
sp ike
quest ions
ĠF ake
text o
Ġh or
For ms
ĠG it
Ġint el
ri de
Ġe cho
ĠE lement
Ġg h
Ġg round
tick ets
ĠBase Settings
ĠSe g
Ġpip elines
Ġth rough
trans fer
run ning
ID TH
ĠÐ µ
Ġtime s
St age
Ġro t
ice Syntax
Time delta
Ġhash ed
.. .<
001 3
Ġgi ve
Par ameter
Ġtop ics
ast ic
Ġindex es
Ġdebug ger
SER VICE
local s
Ġ6 55
Ġcomp arison
Ġ9 9
Ġ8 0000
web app
gl ish
Ġfirst App
Ġ"% ##
19 90
ĠNo vember
... ')<
Ġextr as
Ġdistribution s
ĠTodo Admin
impl Marker
FI ELD
ä½ ł
Ġ{} ):
Ġtemp erature
ĠÐ¿ ÐµÑĢÐµ
EX IST
åĲ ĳ
Page NumberPagination
Ġup grade
off sets
factor ial
char ge
}) '.
Fix ed
pen size
utor ials
Ġmod ifications
Toml Error
åį °
pvt v
Ġrec bole
Qt Widgets
Ġstrict ly
RoI Pool
ĠCheck s
Ġag ain
doctest compare
ĠSym bol
RES ULT
ĠUpdate ableAPIResource
ambig uous
nchron ized
Over laps
Ġquant ity
>================ ====
Ġscor es
Ġ'{} ({},
Ġ327 68
idi ap
SK IP
Scor ing
ç© º
æĦ ı
è¿ŀ æİ¥
forwar ded
clos ure
ĠExponentialMoving Window
) [:-
- ")<
. '''<
6 0000
A ux
B Validator
C V
C allback
E W
F ull
H ub
J OR
M issing
P e
R Validator
S OL
S izerefValidator
U FO
V TT
W R
W ARE
b ic
b all
c ff
e very
h ell
j k
k ar
o doo
p m
p adding
r ain
s ac
s izeref
x iv
Ġ Vi
ar xiv
re as
re ducer
le mbic
lo v
ut able
Ġt i
Ġt ab
Ġ' [
class ifier
con firm
ab ove
lic ies
ĠT able
Ġ_ ('
Ġc y
Ġc ategories
Ġb g
ĠA lembic
ĠS izerefValidator
ch r
ch ild
ĠM ongo
Ġw x
Ġf r
Ġf ail
com mun
Ġ( ",",
Ġ1 01
do m
ĠR Validator
ĠR outer
ĠR amon
Ġex act
ĠB Y
ĠB Validator
sp hinx
ol t
ss ue
par asite
im b
nc cl
ĠTrue Type
Ġe commerce
Ġg ym
Ġg lue
ne ed
ne igh
font Tools
point Pen
AT OR
Ġmin utes
PI PE
Ġan n
size mode
Ġpre d
Ġnum eric
ĠW ink
ĠÐ ³ÑĢÐ°
unt u
mm y
St and
od is
Ġ: "))<
ĠUser Factory
Pro gress
wh y
Ġla unch
cap s
Ġadd s
ĠCon trol
ĠPo licy
ĠDE TECTORS
"] :<
Ġ5 000
flat ten
ĠThe se
Ġle vels
AN T
Ġen able
short ener
Ġauth enticate
book ing
ĠDe lete
Ġwe ather
Ġgener ator
çļĦ æĺ¯
Co g
ĠJ upyter
Ġother wise
Token Generator
graph s
Line Validator
Ġaut odis
UR ITY
ĠLine Validator
âĢ Ŀ
ĠZ h
Head ers
Sh ift
ĠAdmin Site
depende nce
ote ca
connect gaps
ĠFirst appConfig
Ġorder ed
ĠMy User
ront end
ä¹ Ł
toolk it
err no
connection s
éĩ į
Delete View
Ġrec ipe
Ġtransform ers
è¿Ľ ç¨ĭ
lead s
CL ASSES
Eval Hook
plan ner
}. {
Dice Loss
PO INT
cb v
Connect gapsValidator
addr info
Ġchart s
overl aps
ĠConnect gapsValidator
Ġsq rt
ĠSEC URITY
fw f
æīĵ åį°
wild card
ĠImp licit
slot s
ibli oteca
çĽ´ æİ¥
Redu cer
ä¿¡ æģ¯
åĥ ı
ĠWink el
! ")
' +
8 22
: /
> ])<
A v
A CCESS
H TML
R F
R ay
R ST
U RE
V is
] (
] >
b ay
b rowse
d ark
f usion
f inite
k top
m apping
m allow
p io
p anel
t l
t ics
w ho
w rit
y acc
y outube
å ¢
æ ¶
Ġ lower
Ġ è¿Ļ
on y
er red
__ ("
Ġp olls
fi re
ase r
co ordinates
he st
Ġdjango bench
is ode
for med
ing Validator
un its
Ġ_ ,
and y
Ġn ms
Ġc urrency
Ġc ycle
ĠA p
ĠA LL
to y
to gether
po inter
ĠM D
ĠM ay
ho urs
Ġde que
que e
Ġf ailed
Ġl ight
ot onic
ĠR ender
LE ASE
Ġst derr
qu otes
di ameter
sc an
() )))<
mpl ain
ag tail
Ġg m
ts hift
ende nce
fo x
map s
Ġpro hib
Ġbo ard
Ġro b
ĠUser Info
ĠUser Agent
ra k
ript or
Ġrender er
ld s
Sp eed
AN N
mb ient
ĠHttp Request
Ġset attr
ĠTest Client
Cre ating
lect ual
fe a
Ġexp ress
He ight
Ġlicens ors
Ġcomp oser
Django ModelFactory
Ch rome
mat mul
ĠProduct s
Ġdis closure
Ð´ Ðµ
Ñĭ Ðµ
ÑĢÐ° Ð¼ÐµÑĤ
SS H
ĠÐ¿ Ð¾
ĠÐ¿ Ð¾Ð»ÑĮÐ·Ð¾Ð²Ð°ÑĤÐµ
Encoder Decoder
ĠQuery Set
ĠMe trics
Ġreprodu ction
MA JOR
ĠÐ¸ ÑģÐ¿
aw berry
æĪ ĸ
ĠSimple Router
poly s
Ġcr ud
rot tle
æĹ ¥
Mask Scoring
ĠLe arn
ĠLe arning
Ġthere to
inst allable
Ġtool z
sv g
æĸ¹ å¼ı
fl ush
oc us
ç´ ¢
utc now
Ġcle ar
>[ <
ĠPeriod Index
Sal ary
éĶ Ļ
Ġ"{ {
aggreg ator
ĠArt icles
Ġgu ar
recogn ition
combin ed
Ġ##### #",<
PyT ables
Ġtra itlets
ĠÐ¿Ð° ÑĢÐ°Ð¼ÐµÑĤ
è¯» åıĸ
ĠTech no
ç¼ ĸ
Ġexecut ed
crimin ator
ocal Loss
Ġinvo cation
Ġcour se
exemp t
stron aut
Cris pyError
>~~~~~~~~~~ <
Ġintel lectual
Ġprohib ited
* "
. ")
6 09
= ="
> %
I VE
N ET
O SM
P anel
S ide
S quare
S mooth
Z ER
_ |
b io
c acert
d am
d ave
d abe
f loor
g g
g fl
i form
l ap
m apper
n i
n ickname
o y
o ci
t m
t st
t ls
w r
Ġ ÑĢÐ°
se x
er minal
me ga
de creasing
ro pp
re pos
Ġp yp
Ġp ing
Ġp ixel
Ġp loomber
as se
lo ur
ut ed
Ġt st
ly a
Ġ" :"))<
co la
ge ar
is ation
Ġre load
Ġs cheduler
ex per
ex act
ex ternal
=" __
Ġm is
get tz
edit able
un e
un iao
ĠT ab
># :
Ġc acert
Ġo auth
Ġo cc
ĠA ctor
ĠS te
ĠS ample
Con structor
ib anna
ack s
ĠC annot
ĠC LI
te le
ĠM usic
ĠD rink
com ing
ĠP attern
ĠP LY
Ġ( )
ĠF ol
ĠF loat
lat zi
atter ns
Ġh ig
Ġst ats
am is
ĠG r
Ġstr ips
request ed
Ġ""" \<
li k
Base Settings
Ġg ot
inter polate
ai ly
act JSON
ug gest
BU T
ĠW ord
lan e
upload er
ient Model
IN CRE
Ġ: ",
Pro yecto
Ġdate Format
Ġme mory
User View
User Warning
Ġ[' -
fla ke
ÑĤ Ñĭ
fer ences
Ġso up
LO AT
Ġat temp
Se lection
posit ories
ud get
depth wise
Ð½ Ðº
store front
gener al
Ġunicode data
local zone
den se
led ge
sche mas
Ġcomp at
Ġcomp liance
Ġtrans lation
åĪ ł
06 0000
ged Item
An imal
Ġper form
todo list
36 6
Al low
tz local
sk ills
Comp actJSON
ĠApp le
å® Į
ĠMe mbers
Ġcopy ing
æĪ ĳ
az ley
Api View
Tensor board
alle st
report s
ĠBo ard
inherit ance
Ġcr m
Ġyear s
categor ia
IoU Assigner
Ġke pt
tc p
ĠBe azley
20220 7
Seg ment
åĲį ç§°
Desc riptor
ç¨ĭ åºı
TOP IC
è§ £
inte gr
Train ing
Ġneg ative
ĠSpec ial
ĠVo xel
px d
è¯· è¾ĵåħ¥
ĠQA pplication
ante ed
åħ¨ å±Ģ
Ġguar anteed
dabe az
! ",
" ])
: ')<
> ---------<
C alc
F in
F ood
G PL
H ORIZONTAL
M ar
P in
P ECT
R GB
S a
S olution
S tyle
S AMPLE
U SD
c ifar
h ave
h ape
i Ã³n
l xml
m or
n ed
n essValidator
s moothing
u o
y ol
y zer
¿ éĹ®
æ ¸
é ļ
Ġ entr
Ġ angle
Ġ fixture
Ġ èİ·åıĸ
Ġ implements
or grid
>< /
in ha
in fra
ro tt
__ ('
__ _/
__ )))<
en o
Ġ= [
re main
re ason
Ġp il
id itys
"" ")<
Ġd rf
Ġd ispatcher
Ġ" ./
ap Validator
Ġre fresh
Ġs ol
op fli
Ġm l
Fi lename
and er
Ġn ecess
Ġb irth
ĠA nal
ĠC ascade
ment groupValidator
to od
ĠM anager
Ġw hether
ĠD el
ĠD iff
Ġ2 8
ĠN e
ĠL iteral
Ġf name
color sValidator
Ġl and
bo w
est ate
ĠI lya
par ation
im ator
50 4
use Validator
OD U
pro fit
pro perties
code base
ĠE ting
ag raph
inter p
ask et
CH O
ug uel
title font
size min
De p
Ġ% }
Ġ7 68
IN D
Ġunder stand
Ġbase string
ff t
Ġch ild
so ftware
ÑĤ Ð¸
Data Loader
)) #
style Validator
Ġrequ ire
Sp ike
Ġat tention
Ġle x
AN CE
ular Validator
ĠTest F
sign ed
sign ature
17 0
see k
sm art
mat r
AD MIN
ffix Validator
Hover formatValidator
ĠHover formatValidator
Al gorithm
ĠZ ero
au cer
Not ification
Not Exist
æĺ ¾
Trans action
sal es
ĠCh annel
Code Grant
ĠMy appConfig
å¯¹ åºĶ
Le ft
è® ¿éĹ®
ĠWeb site
IP LE
Package Support
pen color
ãĥ ¼
LI ST
æİ Ĵ
eting of
ugh nessValidator
Size modeValidator
Size minValidator
ĠDate time
Layer Validator
Ġrec ipes
MIN OR
Build Path
ç® ¡
Ġbu f
restrict ions
ĠPl ace
ĠSize modeValidator
ĠSize minValidator
SES SION
------ <
Ġperson al
TRA IN
ĠIO Error
Su ccess
duplic ates
æ¯ ı
ĠAuthorization CodeGrant
Mark up
ĠOpenId Auth
ä½į ç½®
']) ]<
ĠLayer Validator
Ġlon gest
OpenId Auth
Ġdet ect
Ġdet ector
Download able
Ġbuil ding
ĠRich Text
ĠUSER NAME
osa ic
ĠSpi ke
imagen et
trust region
resnel Validator
displayed Validator
ĠActiveSession ViewSet
(... )
look for
Hyper linkedModelSerializer
ĠPick ler
onen umber
>==================== =<
ĠÐ³ÑĢÐ° ÑĦ
mbient Validator
OSM GeoAdmin
INCRE MENT
Tensorboard LoggerHook
ĠEting of
PackageSupport BuildPath
* <
+ )
/ ",<
1 101
C P
C osine
G L
G NU
H ERE
M ike
O per
P ad
P ON
P ART
P adding
P AFPN
S A
S n
S cale
S AC
T ODO
V al
V ehicle
Y ES
Y ear
] ")<
b d
d op
e igen
f v
g unicorn
h ing
h ref
j pu
k ta
m anage
n ume
n ltk
o int
p wd
p icture
t ensors
u ses
} '.
Ñ Ĭ
æ ĥ
Ġ kw
Ġ ï¼ļ
en ant
an other
an optic
Ġ= >
Ġp wd
it erations
as i
ation al
ur y
is ol
ig o
ad rad
ing re
get text
Ġc ert
(' [
(' ')<
ce pth
min der
iz art
ay s
str ptime
ĠD raw
Ġde velopment
Ġv e
ĠP R
Ġl it
ĠB BBBBBBBB
Ġon line
ol atility
ĠF L
ĠF uture
admin s
ine ma
ĠI dent
pre process
ĠO ption
sc rap
Ġstr ategy
ĠRe g
Ġ'. '
EN CE
EN COD
Ġtyp ically
DE V
pack et
Ġth ird
sh are
val i
upload s
Res olver
chan t
cor pus
UN SIGN
Ġme alie
List APIView
Ð¸ ÑĤ
cap italize
Tick et
Ġsp atial
Ñģ Ðµ
Ġtorch vision
su do
Qu ant
cr it
Ð² Ð¾
Ð² Ð²ÐµÐ´Ð¸ÑĤÐµ
Ġ16 384
Ñĥ Ð½Ðº
CA CHES
Ġhelp ers
Ġend point
ĠToken ObtainPairView
tz file
tz str
tz range
tz ical
tz offset
tz utc
ĠBook s
æĸ Ń
Trans ientModel
Ġweb browser
ç» Ł
stride s
ĠĠĠĠĠĠĠĠĠĠĠĠĠĠĠĠĠĠĠĠĠĠĠĠ ĠĠĠĠĠĠ
å¤ į
Ġcom bin
Ð°ÑĤ Ð°
ä¹ Ī
Char acter
ĠSh op
Ġtodo list
Ġlib fut
ĠBo x
åľ °
LI KE
Ġfi bonacci
../ ../
Ġdj ongo
cour ses
activ ity
bind ings
Ġaio http
20220 3
UD A
================================ ============
PH ONE
Ġlimit ed
>` _
}} ",<
Generic ViewSet
NE W
Ġmp math
nchron ize
ĠTool kit
åİ Ł
La unch
medi ate
Ġtele bot
è¿Ĳ è¡Į
tzwin local
ä»£ çłģ
pag ation
>################################# ################################
éĢļ è¿ĩ
ĠModels Namespace
Ð¾Ð±Ð°Ð² ÑĮÑĤÐµ
MULT IPLE
Keyboard Markup
reed y
execut ors
ĠAdvertise ment
ĠSUPER USER
åĪł éĻ¤
cepth ook
UNSIGN ED
Ġlibfut urize
. {
/ #
1 02
8 1
B E
D one
D iff
E dge
F A
G E
N eck
R ating
R GBAxes
U sed
V o
V ID
` ,
b g
c ribe
c rawler
g op
h at
h df
k ing
l ata
l anguages
o id
s ms
t axes
z illa
å ķ
æ ·
Ġ ^
Ġ hook
Ġ ÑĤÐµ
Ġ entity
Ġ etc
Ĥ ¨
al ive
__ ='
en ario
Ġp ackb
le v
lo gies
Ġd ynamic
mo mentum
cl ib
Ġs che
(" {}
ad am
Ġdef erred
ing Area
Ġm ag
Ġm ai
', )
un configure
ĠT w
Ġn inja
Ġc enter
ĠA ccess
ĠS ome
ĠS ingleton
Ġget env
il ine
ĠC har
if ferent
to l
str ipe
ĠM od
ĠM igrate
ĠM ultip
Ġw ang
et adata
pt s
ĠN LTK
Ġedit able
Ġis Directory
ĠP ants
ĠP ayment
Ġl int
sp awn
Ġco mpleted
ss h
log y
cal led
ĠO per
Ġdefault dict
Ġstr s
ĠRe p
ĠU SE
ĠE lastic
== =<
ĠH igh
Ġun agi
DE CI
IC ATION
Ġpro filer
trans pose
sh a
nn Policy
De ep
org an
SD Head
Res idual
Ġ: ]<
Ġinit ialization
AR etinaHead
Int el
Ġsub classes
Ġlo b
ĠCon v
ĠCon stants
Ġ201 4
Ġdi vide
Ġso cial
Ġopen id
mon ic
mon key
ak y
Se ed
over lay
cre w
Ġpart ition
win Transformer
Ð½ Ñı
Ġac c
ĠRegister View
TO OLS
Ġk v
Co untry
ITE D
eval uate
iv y
Do es
åı ¥
Ġmon key
ank s
03 060000
number Of
An ne
201 2
ĠSafe Text
çĶ ±
part ments
ĠModel Admin
çĶ¨ äºİ
ĠAuthor ity
Ġcal ls
vok e
Th rottle
Ġcopy reg
]+ )/
Ġ"* "
ĠCh ange
sw ap
oU Loss
Api Config
Ġad ded
ĠAxes Divider
ĠAxes Locator
OL D
Ac cept
ĠAuto motiveProvider
phone metadata
Ġdoc array
Ġstore front
SET UP
some thing
å¾ Ħ
green let
ypt Context
88 88
Ġct ypes
AA A
Ġgreen lets
Ð½Ñĭ Ðµ
Ġsent ence
ĠAnchored Size
Transform Box
ĠCr yptContext
sim ilarity
ĠSym bolsrcValidator
ĠDeprecated TzFormatWarning
ĠGeneric ForeignKey
Sym bolsrcValidator
Rel ation
exist ent
å®ŀ çİ°
MO NGO
Security GroupUnrestrictedIngress
åĳ ½
symbols rc
-#### ",<
æĢ §
challenge s
ĠEX PECT
Deprecated TzFormatWarning
Ġestim ate
$$ $$
Ġatt ached
ĠBbox Connector
Des ktop
icip ants
OF ILL
ĠCrypto graphic
LIM ITED
tit ulo
ridge crew
Ġ================================== ============================================
Logout View
Rout es
ä»» åĬ¡
yam db
arsh mallow
Ingre se
Ans wer
Ġomn izart
Ġ655 36
SOL VER
quee ze
ZER OFILL
rott ling
ç®¡ çĲĨ
ĠRichText Uploading
ĠEXPECT ED
' d
' }),<
) [:
> ==========<
A ge
A ware
A mount
A verage
B S
B lacklist
F ol
H ist
I mg
I mages
R PC
S PE
S ingleton
T V
T OR
T orch
W IDTH
Z hoverformatValidator
_ ")
b and
b et
c stor
d nt
d nd
d ialect
m ale
n ils
n ight
r ls
s il
t utorials
u v
u lso
v s
z min
z hoverformat
Ð ļ
æ µ
é ĥ½
Ġ keras
at trib
in place
er m
er net
me imin
ar ia
de sk
Ġ= "
re id
re po
re ceitas
Ġp et
Ġp atterns
lo od
Ġt x
lot hes
co verage
cl are
base dir
Ġre m
Ġs ac
ac quir
set ter
Ġc atch
Ġc hoice
Ġb les
Ġb asics
Con tains
ĠC all
ĠC ors
Config uration
ĠM osaic
form ular
Ġde clar
Ġde scribe
ĠL ay
Ġf ed
Ġf ace
Ġf hand
Ġv olume
ĠP et
ĠP lay
ĠP essoa
__( ):<
do g
Ġr u
ĠF inal
di vision
om an
im iter
ok e
bar Axes
() #
101 7
Base User
array minus
array minu
inter faces
act ers
ĠBase Permission
ĠBase PixelSampler
Number Format
value minus
') [-
Re gistration
Ġtr ail
ST RE
De mo
Test ing
sum mernote
sol ve
ff ee
usp end
ĠIn stance
ĠPro gram
ĠK it
first name
)) ]<
ä¸ ¤
Array srcValidator
Array minusValidator
Array minussrcValidator
ĠPo ol
Ġpr ic
07 00
hr s
KE T
ĠArray Validator
ĠArray srcValidator
ĠArray minusValidator
ĠArray minussrcValidator
Ġob serve
let te
df s
Ġper m
ĠProduct o
UUID Field
ĠEn coder
dev ices
conv s
ĠZ hoverformatValidator
mer os
Value minusValidator
Ġq r
ĠValue minusValidator
SF ORM
åĲ «
Comp ute
Ġup dates
ĠMe imin
GEN ER
factor ies
ĠComp oser
mot ion
ĠWeb App
ĠWeb Socket
ĠAxes Grid
dd l
IoU Loss
(? :
AM B
54 32
BackendQT Agg
BackendQT Cairo
Ġback ground
Ġhe alth
ĠnÃº meros
We ight
æĶ ¾
Ġmeta class
autif ulso
ĠSym metricValidator
enk o
Sym metricValidator
æ¯ į
alie Model
CK V
________ ________
cors headers
é¡ »
Ġbuil t
adv ance
traceref minus
Traceref Validator
Traceref minusValidator
ĠTraceref Validator
ĠTraceref minusValidator
Cap ture
Shar ed
ĠFla ke
Ġactiv ation
ĠDense Pose
Ġidle lib
Division Error
Ġcross wind
ÑģÐº Ð¾Ð³Ð¾
pers ist
ĠAg ent
BL ACK
ĠGen re
Ġhard ware
ĠArticles Config
Ġwang meimin
Ġbles sed
arrayminu ssrc
autifulso up
) ",
> `.<
C or
F actor
H ex
L imit
L INK
M esh
S ites
V ES
W ords
] |
] })<
_ {
b ridgecrew
c lock
d as
d ue
e se
e ver
e mb
f mt
k y
l w
l ush
m x
m al
r at
r dtypes
s igmoid
t ar
t im
u ada
er ia
mp math
de livery
__ '])<
re ward
re versed
re uniao
st ab
co upon
mo us
cl ark
ent h
Ġ' ('
ct ypes
con struct
ex cepthook
Ġm ime
Ġm oney
get value
un ding
ĠT wo
Ġn aming
Ġb lue
Ġb ban
th ird
th ough
ĠA R
ĠA ctiv
ĠS im
ĠS ites
ch dir
all close
ĠC li
po licies
Ġw ere
ĠD eb
ĠN ils
Ġis fileobj
ĠP h
ĠP oll
Ġto ctree
Ġl p
Ġr ating
bo ur
ĠB OT
ĠB ankProvider
sp latzi
log o
par ated
im gs
02 25
art s
ke pt
io splatzi
Base Defaults
ĠBase Defaults
Re al
nn otation
De bug
Ġinter act
ĠW heel
Ð° Ðº
#### ###",<
Ġbase line
sub user
client e
Ġal pha
Ġal though
vent s
PD F
Time out
Name d
File Handler
ĠPo wer
"] [
Ġtry ing
001 5
Se quential
To Do
RE DIS
'] ))<
'] },<
ud a
async gen
mark up
07 12
Mixin s
ĠTest Pickle
ĠTest Dot
ie ce
blog post
ĠMulti Index
Co mplete
ĠArray Like
fe home
Ñĥ Ñİ
mat scalar
ĠCom ments
requ ire
place ment
iver y
ĠEn v
200 5
Filter Backend
åħ ¬
Ġmy Math
tz info
Me an
Project s
ĠInvalid Token
ÑĢÐ° Ð½
è¯ ¥
è¯ ¯
CO S
sal ario
Product s
Ġ"* .
So ftmax
Ġlike ly
æī ¾
sn ippets
Ġgo al
ĠSh ort
yper clip
éĩ Ĭ
bu y
On line
card s
TR Y
39 8
Ġtt k
Ġtwo Sum
ĠDAT ASETS
Ġsimple json
ĠWe iss
Ð²Ð° Ð½Ð¸Ðµ
Ð²Ð° Ð½Ð¸Ñı
Ġlink s
att endance
ĠTag gedItem
(". ")[
Install er
ĠForm atter
Ã¡ rio
proj eto
Ġmail ing
Ġfix ed
Top ical
ç§ į
([' __
([' ']
Ġxml rpc
tri angle
Tool bar
ban ner
edge s
Ġ----------------------------------------------------------------- -------<
Sym bol
slic e
Ġenviron ments
ĠInterval Index
visual izer
Ð¾ÑģÑĤ Ð¸
ĠSy nchronized
ĠTOKEN IZER
Sign Up
Ġvo ice
ĠArgument Parser
å½ĵ åīį
encod able
ĠTimedelta Index
ĠON LY
Bad Version
------------ -<
termin istic
Ġpa ypal
('__ '))<
20200 504
æķ´ æķ°
å·¥ ä½ľ
éĽ Ĩ
Cook ie
ĠMarket Client
Multip le
Ġexperiment al
å¿ħ é¡»
ANGU AGE
Generalized Attention
Headers AppConfig
æ¶ Ī
Ġcert ain
Does NotExist
SPE ED
STRE AM
+ (
2 0000
C ritic
D RO
G OR
H alf
I I
I tems
L ar
O ffer
S uper
S winTransformer
T ur
V FE
c ens
c amp
d uty
j ar
j ac
k al
l ac
m ang
n u
s rs
w ers
è ¨
Ġ !
Ġ åĪĽå»º
or um
at ype
at tributes
on click
imp licit
st are
Ġimport ing
Ġ" ##
ap der
co g
def ined
Ġre l
Ġre lation
con sum
con tains
(" ^
ac curacy
ex am
for k
># ----------------------------------------------------------------
ul ative
Ġn r
age m
Ġb ug
ĠA t
ĠA symmetric
ma ils
(' /<
du lo
str ate
po ts
ĠM argin
ĠD to
ĠN AME
GI TH
ĠL esson
Ġf it
Ġf ake
Ġf ood
Ġf airseq
__( )
ĠR ES
Ġex posed
bo b
ĠB uild
Ġse en
Ġse parator
Ġh a
Ġst uff
log ic
di ents
ĠO ffer
ĠG iven
02 22
pro g
Base Provider
lib ra
ĠBase Provider
CH AR
open pyxl
Ġi py
Re presents
ml ink
Ġpre cis
), (
Form Field
ched u
vid ia
ument o
ĠSt ream
Ð° ÑĢ
Ðµ ÑĢÐ¸
16 000
uth y
vo x
so ck
ME TA
ĠPro yecto
Ġmo vies
Ġ200 7
Ġ201 1
Name s
ä¸ İ
ä¸ Ķ
Ġ5 2
csrf token
Ġconn ected
Ġ/ _/
Sub mit
pr actice
join ed
ĠName Error
Un ique
Ġtrans forms
Ñĥ Ð»Ñı
Ġaut of
abc def
Mess agesConfig
Ġ"" ",<
âĢ Ļ
UP LE
aug ment
ĠBook mark
Ñĩ Ð°
close st
çĶ¨ æĪ·
ĠTr uthy
Ġrout es
PR ODU
ĠMo vies
67 89
Ġad ad
dr ink
br ain
Ġmm seg
Ð¾Ð»ÑĮ Ð·Ñĥ
Agg reg
æĿ Ł
ĠContact Form
2017 1017
ram id
oc Ãª
Ð½Ñĭ Ñħ
UL ATORS
æĶ ¶
Ġpredict ion
æŃ ¥
Ġassign er
è½ ½
RI GHT
ÑĨÐ¸ Ñı
esso as
éĻ ħ
ĠÑĦ Ð¸Ð»ÑĮÑĤ
bus iness
å± ŀ
enum s
USE D
Su ite
ipping Address
ç»ĵ æĿŁ
recor der
æĢ ģ
å¥ ½
ĠÑį Ð»Ðµ
Some thing
Ðĺ ÑģÐ¿
è¿Ĳ ç®Ĺ
heapp op
CONT ENT
ĠMasked Bert
quot ed
credit s
Ġps util
namo db
EXIST S
Ġfr ase
ĠTechno logies
Smooth L
isol ation
Anne aling
GITH UB
Ġautof lush
) ],
+ "
6 13
C at
C EP
C urrencyProvider
D ispatch
D xValidator
D yValidator
D ashValidator
G CN
M AL
M ONS
M Gadget
P A
P G
R AN
S moothingValidator
T Validator
T UPLE
U ST
V olume
X Y
X period
X periodValidator
d st
e co
f lows
f inally
f lex
h rf
j it
k an
k ind
l g
p lates
t ect
u str
u ss
è ĭ
Ġ ec
Ġ 404
Ġ geo
on gs
me l
ar op
re doc
as r
as of
Ġt akes
co pe
cl us
cl io
ur an
Ġ' --
is ing
Ġs olver
Ġin stances
Ġ__ __
Ġm x
get ter
ĠT Validator
Ġthe me
Ġc ors
Ġb ind
Ġb rowser
th icknessValidator
ĠA utor
ĠS ET
ĠS moothingValidator
(' :
(' ^
(' \\
Ġget addrinfo
ce ived
ĠC urrencyProvider
ath arop
py lint
min imize
to list
Ġ# ###",<
ĠD xValidator
ĠD yValidator
ĠD ashValidator
Ġde compile
Ġde velopers
Ġf oi
ĠP arent
ĠP ack
ĠP atch
Ġr pn
Ġco ins
Ġof rak
our ite
ĠĠĠĠĠĠĠĠ ĠĠĠĠčĊ
am il
ĠO ver
Ġconfig parser
Ġ{ %
ke yp
ri ate
pro mpt
ĠH ORIZONTAL
Ġun ion
IT ER
In sert
ai se
Ġbe low
value ssrc
AG ONS
Ġlist s
Ġinter faces
ĠPy Installer
fr u
fr ase
Ġapp ly
Ġapp rop
The ta
Ġtime out
ĠSt atus
ou los
Ġme sh
Ġ.. ..
AS SDHead
Ġ> .<
Ġsub mit
16 332
NA M
Ð¸ ÑĤÑĮ
ML P
Ġal tura
cit ies
ĠK e
Ġso on
Type Router
mon otonic
ĠThe ta
DI ST
Ġ\ /
cre ator
cre ase
pi vot
grad s
Ġu id
ĠDe form
([ (
([ <
range break
ĠRegister Form
ĠNot Support
ĠX period
ĠX periodValidator
amp ing
######## ##
ĠTest s
ĠDist ribut
ĠGe ometries
ĠCA CHES
Ġ6 40
ush ell
we ets
ĠRequest Parser
graph ql
Ðº Ð»
event loop
ĠProduct Config
Ġ"" .
ĠCo co
Ġpl us
fill pattern
category array
category arraysrc
Post s
Post List
Value sValidator
Value ssrcValidator
ĠValue sValidator
ĠValue ssrcValidator
go clio
EL LOW
æĺ İ
tool bar
XX X
cloud formation
ribut ors
Ġcal endar
hows pikes
Http Response
ç» ´
ĠCategory arrayValidator
ĠCategory arraysrcValidator
windo ws
ĠGeo ModelAdmin
Ro ot
USER NAME
ĠOSM GeoAdmin
super vised
]+ )
ĠQ U
æĺ¯ ä¸Ģä¸ª
ĠStack edInline
ius val
Ġcom mun
Conv AWS
Conv FCBBoxHead
Ġauto use
ĠSc ript
Api Exception
Ġdeform able
stand off
300 426
Category arrayValidator
Category arraysrcValidator
Ð± Ð¾ÑĤ
Open LayersWidget
My App
ĠBo otstrap
ãĤ ĭ
fast fcn
åĢ Ļ
ĠVER TICAL
Ġæ Į
OL VES
gre eting
Dig it
åį Ī
Det ecto
ĠWe ather
play ground
ĠTeam Yukki
Ġdel ta
Ġinterval s
mi les
ĠUp load
Ġgre entest
multip rocessing
æĹ¶ åĢĻ
è¿Ļ ä¸ª
Optimizer Constructor
wal k
Ġcap ture
Tool kit
ĠFI ELD
Geo ModelAdmin
Ġbackward s
fs af
Ġblock s
Hidden Input
formatter s
ç¬¬ ä¸Ģä¸ª
å®ŀ éĻħ
FUN C
mix er
agi Transform
Ġfeat map
lookup s
Att achment
Ġent re
ĠProtocol TypeRouter
20210 9
bul let
ĠBad Word
Press Event
Ġwrit ten
irror Validator
ĲâķĲâķ ĲâķĲâķ
åħ³ éĹŃ
Ġsafe ly
PIS ARetinaHead
PIS ASSDHead
Deform RoIPool
ament o
åŁ º
12345 678
gm res
ĠÐ¼Ð¾Ð´ ÑĥÐ»Ñı
colorway Validator
criter ion
incip al
Ġcc xt
Ġdecor ate
numer ify
Ġadap tor
Ġautodis cover
ĠRender er
ĠTab ularInline
uggest ed
SAMPLE RS
yol act
PON SE
ĠIdent ity
reedy Bear
DECI MAL
Ġ============================================================================== <
ĠCors HeadersAppConfig
ĠLay out
Ġpric etag
ĠSites Config
ĠCli Runner
PRODU CT
ĠÑįÐ»Ðµ Ð¼ÐµÐ½
Ġcors headers
atharop oulos
Ġapprop riate
16332 3
ĠDistribut or
howspikes Validator
300426 37
Detecto RS
DeformRoIPool Pack
- \
/ ><
2 345
7 6
A lex
A udio
C lose
D r
D ateTime
F lip
G ui
J O
L i
L AN
N a
N EP
P i
Q X
Q IN
R ed
R isk
S end
S aki
T INY
V ec
W M
] }<
] }')<
_ ]]
a im
a ints
c dir
d uto
f ts
k m
m ate
m box
p eg
r as
s ources
t el
t ex
v at
v ai
v info
v string
x or
z ure
} }<
² ¡
ç ³
Ġ ue
Ġ icon
Ġ very
Ġ å°Ĩ
ĠĠ čĊ
on to
on line
se ct
er at
me nd
__ )),
Ġ= ',
as is
le kt
lo meters
id a
Ġt ibanna
Ġd rag
Ġre versed
es ome
Ġm ul
un ded
ĠT T
># ##
and b
ul as
Ġc ho
Ġc ape
Ġc riter
Ġb el
th ers
ĠA ction
(' '.
pop ulate
ist ema
ĠC ap
ĠC OM
). _
ay uan
str ong
ĠN vidia
Ġf ac
Ġf low
Ġf ails
com mend
Ġ- --------------------------------
ĠP ad
color map
Ġl anding
ck pt
do uble
Ġr ank
Ġr tol
ve st
ĠR aised
model ing
sp ans
Ġon ce
ol a
Ġco erc
Ġse ns
user content
url lib
50 9
nc nn
out ine
Ġ[" #
Ġe th
Ġe qu
Ġg ender
Ġg uns
DE S
per f
Ġ` ~
') )"<
format ting
Ġpre process
Ġpre mi
sh ading
check ov
ĠV AL
ĠÐ ³
key words
read only
Pro j
Ġme mbers
") .<
List Node
sub sequence
last name
so lov
Ġal gorithm
cap sys
ĠPro files
ant es
Sp am
bug fix
Ġcode s
github usercontent
001 4
Ġle ad
entr ies
ĠCreate View
car ro
ĠConfig Parser
ie ve
Log ging
Ġkey words
ĠJ ul
exit onclick
rop e
Ġexp ired
ĠTh readed
Ð¼ Ñı
Ðº ÑģÑĤ
Ġcolor sys
ĠPY QT
produ ction
Dist ributors
19 6
dev version
Ñĭ Ð¹
ĠModule NotFoundError
gen eration
ret ch
åĲ ¦
full argspec
Ð½Ð¸ ÑĨ
chat s
Ġsm art
Ġup per
ĠTr aceback
ĠCh rome
99 9
ĠQ IN
Ġevent s
åŃĹ æ¯į
Com ments
NBit Single
NBit Short
NBit Double
NBit Byte
NBit Half
å¤ ĸ
struct ures
ĠÐº Ð¾Ð½
pie ce
ĠSc rolled
Le arning
herit ance
Ð± Ð»Ð¸
åº ĵ
Ġtodo s
transform ers
bu zz
QU I
Ġmark et
iment o
éĢ Ĵ
ĠNote book
Ġext obj
All Windows
Ġ} }
å¹ ³
Attribute Error
Ġevery thing
ban ana
ĠDeep Saki
Ġgrad ient
ÑģÑģ Ð¸
Dis ambiguate
cogn izer
ĠÑĦ ÑĥÐ½Ðº
ĠPage NumberPagination
ĠÐ·Ð° Ð´Ð°
As sertionError
Ġdoctest s
transport s
Shape Like
NBitInt C
NBitInt P
Ġsco pe
ĠIter able
mk dir
ĠAs sertionError
ĠCH ANGE
Ġvi rtualenv
Ġlar ge
tw itter
MODE LS
Ġph ones
analy tics
proto cols
Ġnormal ize
é¢ ĺ
Adam W
Reset TokenGenerator
inet ics
ĠDown load
NBitLong Long
NBitLong Double
destroy AllWindows
Ġproj eto
bill ing
Ġcook iecutter
assertIs Instance
chil dren
Predict or
tup les
ĠCON FIG
ĠTree Node
è·¯ å¾Ħ
ĠDetail View
PK CS
("+ ")[
ony mous
æĺ¾ ç¤º
(...) `.<
Ġmai or
ĠRep eat
Blacklist Config
ĠDeb ug
Ġprecis ions
chedu led
clus ive
Ġcoerc ed
! '<
) }")<
, (
B I
C lo
C opy
C md
C ategoria
C ULATORS
D ING
D amping
E st
F S
F low
F LOAT
H istory
L D
P oll
S ur
S tock
U s
U tilities
V OC
X range
Z ero
Z MQ
b or
b eat
b asket
c w
c ron
e led
e moji
f ty
g old
g ateway
k polyakov
m ad
m ixins
n k
p izza
u a
u ctions
v qa
z max
å ĵ
ç ķ
or ry
in spection
de posit
__ ",
an notations
re act
ic ult
Ġ" $
co gs
co mentario
mo dified
he els
Ġre places
op e
(" :
(" *.
Ġin cluding
tr end
Ġm an
Ġm apping
Ġm anim
Ġm alib
ab a
un ct
ĠT rade
Ġn dbm
Ġc andidate
ĠA P
ĠA S
ma cos
ĠC allback
ĠC lose
min i
Ġ# ######",<
ĠD et
ĠD ynamics
res olution
Ġcon sumer
ĠN ull
Ġde gree
Ġf g
Ġv it
ĠP ipeline
:// /
Ġl aser
sp b
ĠF PN
Ġpath s
Ġh yper
la h
our ses
ĠI mplement
ĠO S
ĠG lobal
Ġop er
test e
len et
ĠRe ply
Ġint ro
Ad ds
## "]<
() ),
Ġ[" -
Ġ[" __
Ġe g
Ġe mployees
ĠE nt
time out
ĠH ex
ĠH ash
Ġg ithub
net Provider
ai ses
Ġmin es
PI P
Ġtr igger
eg roup
Ġpre paration
Ġ4 8
Ġ| <
Ġinter p
ĠPy Tool
fr uit
run test
check er
ĠV alid
key board
Ðµ Ð»Ð¾
sum s
ĠList Node
List ableAPIResource
Ġch unk
sub modules
page website
Ġal tern
Ġabsolute ly
ĠPro perty
Ġmo l
En Ph
ĠCon tains
direct or
ress or
ĠOp erations
Ġnorm ally
'] ),
Ġwe ights
lr u
Ġte legram
su me
Ġk polyakov
######## ######
Ġset B
Ġcurrent ly
filename s
doc string
urs os
domain s
Ġtrans action
Do ctest
fun cs
we e
Ġside s
Ġspec ified
Ñı Ð²
Ġper mutations
ĠAuth Middleware
uk an
ĠEn Ph
encode d
ĠToken Backend
Ġpl ug
Ġneed s
Ġrefer ence
ä½ ĵ
ĠTrans former
Sh op
ĠUT C
tool config
abstract property
Ġport al
CO CO
Message Reader
ĠTr ip
ĠMe mber
Ġindic ate
Gener ate
ĠOut standing
ado ws
### )
typ er
ĠÐ´ Ð¾
ĠSc rapy
Web Socket
ĠComp ute
Ð²Ðµ ÑĢ
alle ts
è¾ ¾
ĠBo ol
ĠBo ston
ĠAbstract Distribution
No ise
em anet
gc d
bit coin
!< /
Abstract Distribution
åĩ½æķ° çļĦ
document s
Wh ere
Max IoUAssigner
ĠCourse Serializer
ier arch
mult iclass
Ð³ Ð¸
Eval uation
åĨħ éĥ¨
æĮ ī
ĠÑĦ Ð°Ð¹
ÐĿ Ð°Ð·
Tree Node
BACK B
ais ing
Spec ial
__= ='__
ĠÐ½Ðµ Ð¾Ð±
Ġstream lit
Anal yzer
ĠIter ator
Gen re
mg adget
ĠÐŁÐ¾Ð»ÑıÐº Ð¾Ð²
ĠNet work
Ð¾Ð»ÑĮÐ·Ð¾Ð²Ð° Ð½Ð¸Ðµ
both ify
Ġstar lette
ĠSn ack
fli x
osa urs
PREFIX ES
ĠHook implMarker
heapp ush
ĠÐ¾Ð± ÑĬ
ĠLa zy
Trip let
Ð¸ÑĩÐµ ÑģÐºÐ¾Ð³Ð¾
éħį ç½®
expi res
ç« ¯
ĠCR UD
#- *-
Pal indrome
ĠÑģÐ¿Ð¸Ñģ Ð¾Ðº
CAL CULATORS
iversal Key
Sm all
manag ers
atom ic
Ġdin osaurs
ĠCook ie
ĠÐ¸ÑģÐ¿ Ð¾Ð»ÑĮÐ·Ñĥ
CHO ICES
ĠÐ³ÑĢÐ°ÑĦ Ð¸ÑĩÐµÑģÐºÐ¾Ð³Ð¾
Ġlit tle
ÐĺÑģÐ¿ Ð¾Ð»ÑĮÐ·Ð¾Ð²Ð°Ð½Ð¸Ðµ
Toolkit SSH
Ġdrag ons
ĠOutstanding Token
2 34
5 80
5 37
A rt
B rand
C urrent
E AR
F ortran
G ood
G radient
G iven
L Validator
L ight
L onValidator
L atValidator
M T
M anage
N e
O ff
O UNT
P SS
R ew
S ql
S chool
Z minValidator
Z maxValidator
Z midValidator
Z autoValidator
] *(
b ers
b ias
b tc
d n
d app
f fi
h it
j an
l te
m ile
p lease
r al
t b
x m
x pr
x bins
y i
y bins
z mid
z oom
Ð ¢
Ð ľ
æ ²¡
ç ¡
ç ľ
è Ī
é Ĥ
or al
or ary
er lock
ar ter
ar monic
__ ']<
__ ))[
an cy
re gression
re positories
Ġp g
lo an
id key
ic ia
ls q
ent ly
he m
base string
is fied
yp ter
Ġre du
Ġre view
Ġs ing
Ġs parse
app lic
(" /",
for um
ad line
Ġdef initions
Ġ. /
Ġm ans
get ables
ab ly
ĠT ypedDict
ĠT iny
ul ates
ĠS C
ĠS ESS
ma int
ch i
Ġas k
Ġas ym
ĠC ALL
py autogui
if e
file browser
ment arios
ĠD ateTime
GI N
ĠL R
ĠL Validator
ĠL imit
ĠL onValidator
ĠL atValidator
Ġf mt
Ġf riend
ĠP e
ĠP vt
ĠP arse
color ssrc
contrib ute
ys ics
Ġfile path
ĠR K
ĠR ob
ĠB in
sp l
ĠF low
ĠF rappe
os ite
Ġst ick
om Test
om argin
ĠG u
ĠG NU
ĠG tk
ĠG PT
Ġconfig ure
ĠRe gression
Ġ3 9
Ġy et
auto use
auto contour
Ġe ps
ON ES
io loop
ĠH elp
inter est
gr ant
IT LE
CH A
AT S
Ġi NaT
Re stricted
ml p
Ġ4 5
Ġinter active
Ġnum eros
val s
Ð° Ð»Ð¸
Ġ: ',
ĠFi bonacci
Ġpo or
sol ution
bin sy
List ing
Ġsc an
FO O
ra vel
sub mit
Py Test
ens hot
ade na
cap tion
ĠK afka
Ġlo c
Ġlo ok
Data Type
Set s
Ġread ing
ill ar
Ġsp aces
ak o
cre ts
RE SET
implement ation
ĠDe mo
range mode
Ex port
ĠURL Router
Ġk nown
11 1
ĠTest Categorical
Ġmay be
ĠPost ViewSet
Ġob s
sche me
Ġus u
web dapp
åĪ ĩ
06 00
Query Set
ative Risk
logging Tools
AD DR
200 7
Ġmy app
rad ians
ĠZ minValidator
ĠZ maxValidator
ĠZ midValidator
ĠZ autoValidator
Path s
ĠBook Admin
go al
ĠAttribute Getter
è¯ į
Return s
Author ization
ĠOut OfBoundsDatetime
location ssrc
ĠAn imal
Com mun
ĠComment Admin
ĠResponse Stream
Ġrect angle
IO U
IO Loop
Le ad
ÑĢÐ¾Ð ¹
LI GHT
Ġæ µĭè¯ķ
Ac counts
æĹ ł
Ġlength Of
SC Net
Label Validator
ĠSo ftmax
ĠLabel Validator
Wh en
pal avra
ĠRest aurant
lu ster
Location sValidator
Location ssrcValidator
constr uction
Offset Validator
ĠAli as
Ġvis ited
Ġassign ment
Choice Field
ĠLocation sValidator
ĠLocation ssrcValidator
catable Axes
fil ls
Shape Validator
Ġbro ken
FL AG
OUR CE
sur vey
Back ground
ĠÑĨ ÐµÐ»Ð¾
Help ers
ARCH AR
ĠDesc ribe
ĠÐ²Ñĭ Ð²Ð¾Ð´
è¯Ń åı¥
condition ed
ĠPr ice
ĠCalc ulator
ĠLogout View
("" )<
ĠOffset Validator
repeat er
Deform Conv
FOR CE
PACK AGE
Mix ture
Ġ--- <
çĽ® å½ķ
Rich TextField
Ġmob ile
Scal er
masah at
Go ogle
Ġhint ing
ĠLookup Error
writeV int
ĠShape Validator
ĠÐ¿Ð¾Ð»ÑĮÐ·Ð¾Ð²Ð°ÑĤÐµ Ð»Ñı
éĶĻ è¯¯
Cosine Annealing
hing en
æĥ ħ
202203 08
Ġlob pcg
ĠMosaic ML
lw geom
ĠAsymmetric Padding
pots dam
Ġipy kernel
å±ŀ æĢ§
fru its
vai hingen
ç³ »
ĠThreaded Resolver
Ġaltern ative
ÐĿÐ°Ð· Ð²Ð°Ð½Ð¸Ðµ
ĠSESS ION
Ġasym metric
omTest Result
ativeRisk Result
ĠÑĨÐµÐ»Ð¾ Ðµ
" [
( """
. ',
2 32
3 38
8 96
: ],
> ))<
> """)<
B us
C ho
C li
C FF
C lick
D iusval
E ven
E asy
F aker
F usion
H T
N ORM
O O
R ATE
T om
T EXT
a mo
b c
c am
d umm
e ffect
i po
m icrosoft
n us
n ormed
p ens
s ig
æ µĭè¯ķ
ç Ļ
è £
Ġ ws
Ġ clip
Ġ article
Ġ å¦Ĥæŀľ
er g
mp ose
ar c
re trieve
Ġp ts
it yscapes
as pp
le e
Ġ" ??
el ve
Ġs uspend
op portun
ue s
Ġin line
Ġin place
ad y
tr ast
Ġm ac
Ġm ight
Ġm ongo
ter m
ab ac
ab ilities
un tries
Ġ[ %(
Ġc p
Ġc art
ĠA ES
ĠS H
ĠS cal
ĠS quare
ĠS chool
00 2
Ġa umento
ce ed
ĠC opy
te fa
ĠM ath
et ter
res sed
Ġis CFF
ĠL at
Ġf c
Ġf h
Ġf aker
Ġf loor
com m
ĠP O
ĠP ass
ĠP izza
Ġ1 20
Ġl atter
do es
Ġr ename
ĠR out
ĠB rand
ol ar
Ġco ordinates
Ġco ordinate
ain bow
qu ad
im ate
im write
ĠG Lib
Ġprint s
Ġ3 5
art ists
ĠE d
ĠH ybrid
fo Lib
In Line
act ual
ols ite
Ġpip e
AT A
open stack
Ġi v
') ;"<
iter ator
ST RO
ST EM
mple tion
sh uffle
list e
De partment
no st
ĠV e
sy mpy
Ð° ÑģÑģÐ¸
Pro mpt
Ġpo w
") ))<
") ;<
vo ices
Ġal e
Ġal uno
pl ore
(). _
UT E
Ġ200 4
first project
Data Module
Data Parallel
Ġform atter
Ġle arn
Ġsp hinx
To gether
start ing
Run ning
Ġu foLib
'] [
.% (
Ġac curacy
pip elines
######## ",<
Ġset A
çļĦ åĢ¼
top s
isible DeprecationWarning
pk l
the blog
Ġexp and
Ġexp ect
PP ORT
iv p
Ġsh erlock
Ġ"% .###
Ġaut os
PY THON
Ġ"" :<
IM G
ĠTodo View
Order Item
Ġtrain er
Argument s
ĠTrans form
met ic
Ġtemp file
ĠÐ¿ Ñĥ
tag g
ik it
simple filter
Ġweb socket
END POINT
CO MP
ĠIndex View
ĠTe le
Message Box
ĠMe mory
Ġpur chase
ĠProfile Admin
Ð¿ Ð¾ÑĢ
bol tops
colle ctions
ãģ Ļ
Ġhist ory
char acters
Default Table
ĠNorm al
sn ippet
Web Engine
ipp ed
Ð± Ñĥ
Ġhead line
ãĤ ¹
Ġsal ario
åĩº çİ°
hot el
)+ '
æĪĲ åĬŁ
ĠConn ector
æł ·
CreateModel Mixin
ru les
ÑĩÐµ Ð½Ð¸Ðµ
multip lier
raintree Error
BBox Coder
Attribute Solver
å¸ ĥ
åĽ¾ åĥı
cod ers
PO S
VAL ID
Ġseg mentation
å· ²
TA X
Ġblock chain
Ġlock ed
ĠTool Help
__= ="__
overl ap
Ġli uy
stit ute
verted Residual
Bu zz
èĩª åĬ¨
lif LibError
ĠGPU s
å°± æĺ¯
ĠSent iment
åŁ Ł
ĠPort folio
ĠTrack er
favor ite
INTER VAL
Duplic ate
VO LT
Imp uter
ä¿Ŀ åŃĺ
shipping address
Stage Detector
UFO LibError
fea Lib
Ġhig her
ingre dients
åķ Ĭ
Ġtrail er
0225 01
iosplatzi app
Ġmol graph
adows ocks
bers hop
dumm ies
ĠToolHelp Base
Ġliuy ang
! \
) >
) (__
1 40
2 16
6 07
: ])
; __
> '<
A bout
C ES
D K
D LE
D ense
D rop
D ropout
E A
F AR
F oo
K it
L AB
M OT
M aster
P iece
R C
R ob
S ection
T LS
T ypedDict
U ES
V ENT
Y ELLOW
[ (
] [:-
a ign
b id
b iblioteca
c ate
c book
f h
f ine
f hand
g uest
h b
i q
i am
i vo
j ack
k inetics
m ixin
n r
o x
s f
s he
t ility
v c
v l
w izard
y as
} ',
¤ æĸŃ
ç Ĭ
Ġ ig
Ġ sess
at ches
ar ial
de clare
al i
al Test
al ert
le ave
lo pe
id le
id ered
Ġt xt
Ġd u
Ġd id
Ġd ados
Ġd uring
ur istic
Ġ' \\
is alpha
app y
Ġ* ,
(" *
Ġin c
Ġm ix
gi um
ab y
ver ification
ĠT rio
ul um
Ġc m
Ġc ss
Ġc pu
Ġc arry
Ġb abel
ĠA SN
ect ors
ma zon
(' /',
00 5
00 25
ĠC L
ĠC S
ment ion
po d
ĠM M
ĠM ap
ĠM ix
Ġw elcome
ĠN avigation
ĠL egacy
ĠL LC
ot a
ĠR EP
Ġex ercise
ĠB ranch
Ġon es
Ġh uman
Ġos lo
ĠO H
ĠG ood
Ġop erate
02 5
Ġstr awberry
bar bershop
ĠRe al
ĠRe ference
ri ving
() }
() }<
() ;"<
Ġdep end
ĠH andler
ĠH EAD
urls hort
ts libs
verbo sity
inter net
ĠBase Fix
ĠSe matic
data frame
trans lator
Ġtr aceback
AG ES
AG ENT
sh utdown
Big IntegerField
Ġser ial
run s
SD K
ĠÐ ¡
St ats
Ġout file
Ġro bot
Pro pagation
post ed
Ġme m
ĠĠĠĠĠĠĠĠĠĠĠĠĠĠĠĠ ĠĠĠĠĠĠĠĠĠĠĠĠĠĠĠĠĠĠĠ
ert ex
Ġadd r
Ġadd ing
sl ack
ach ing
Ġsql model
Ġsp acy
Ġsp eech
ĠLo catableAxes
book store
Ġwe ek
Ġwor ker
car es
mark ets
Ġline ar
Ġk on
Co mpleted
lect ron
Ġob d
Ġtrans formation
prec ision
board s
Request Parser
åĪ ¤æĸŃ
ĠDo main
xy gen
Ġsu a
{} ".
Ñı Ð´
lygon Masks
Ġ"" ,
ĠEn able
custom ers
gn u
âĢ ľ
vert ical
Ġprocess ing
Ġmat r
cur sion
exp ense
ĠSub scription
ĠSub mit
ĠBook sConfig
Value s
inf ura
Ġ12 3
Manager QT
Object Type
ÑĢÐ° Ð½Ð¸ÑĨ
VIR ON
Ġ36 0
ĠAr row
fin ish
ref ine
Trans lation
Ð½Ð¸ Ð¹
chat bot
hash ing
Th ere
sen ger
Activ ation
Per missions
ĠMy Exp
å° ĳ
ĠÐº Ð¾Ð´
ÑģÑĤ Ð¸
My Exp
ãĥ Ī
Ġlocal time
IoU Head
ä¸į æĺ¯
ä¸į èĥ½
scrib ers
å¾ ħ
Ġag enda
imen sions
war es
tmp dir
Pool Executor
Access Restricted
diff usion
GR ule
Ent re
We ather
Ġsent ences
tk inter
SH IM
CS V
FT WARE
ĠFigure ManagerQT
FIX ES
bank Error
__) ;"<
ris k
Ġpal indrome
èĢ Į
sur f
__= %
åİ Ĩ
å¥ Ĺ
å¯¼åħ¥ æ¨¡åĿĹ
Select or
READ ME
Bu cket
ĠNa TType
embed dings
Reg ularizer
gif y
SO FTWARE
Sim ilarity
Ġ') '
ĠToDo List
bic ycle
Sa as
Ġentr ypoint
Ġcombin ations
SETUP TOOLS
AMB DA
æ¶Ī æģ¯
jac ent
abcdef g
ĠProfiles Config
ĠAuthMiddleware Stack
æ²¡ æľī
çĬ ¶
ĠNavigation Toolbar
! ')
" '
- ###
. ##",
/ (
: ].
= ='
> .
B ATCH
B GR
C F
C urrency
C luster
D C
D T
F l
I ME
L av
M anag
M ongo
N AS
P ri
Q ual
S k
S ignal
T XT
U til
W AY
Y period
Y periodValidator
Y styleValidator
Z a
Z oom
] ["
b t
b eta
b ingroupValidator
b untu
b udget
d h
f m
g able
h s
h ip
k r
l ineno
m ace
n z
n os
q mr
u di
u los
v inte
| __
} `
Ġ rc
Ġ ill
Ġ iou
Ġ åľ¨
Ġ ç±»
Ġ cluster
Ġ angka
on axis
on prem
se udo
me lt
me eting
ar ding
al phabet
import ance
__ ))
en ate
st dio
st udy
Ġp df
Ġp ublish
le vels
Ġd ash
Ġd ropout
Ġd ashboard
co uple
ge ek
el astic
cl ic
cl aim
ur chase
he it
is file
Ġs it
(" *",
ex ercise
ad ad
ad ers
es o
un g
un os
un nel
ĠT imer
set Formatter
Ġc ell
Ġc ros
Ġb io
Ġb indings
vi l
ĠS in
ĠS har
ĠS elf
=' %(
ext Validator
ĠC ircle
py tables
ay es
str uctions
Ġ# ###
po in
ĠM ag
ĠM ace
ĠM LP
Ġw atch
ĠD at
ĠD on
ĠD ialog
ho ts
NG SORT
Ġcon troller
Ġcon verter
ĠN AS
GI NG
Ġde ad
Ġv ictor
ĠP open
ĠP LEASE
Ġl reshape
Ġr pc
ĠR PC
Ġex ecutor
Ġex pose
wsgi app
ĠB est
ĠB Box
ĠB alance
sp ring
ol iditys
ip her
lat ex
our s
ĠO VER
test case
ok ex
sc ipy
ĠRe trieve
Ġ{ :.
lab extension
ĠU P
ke ypoints
Ġint s
pro c
() ")<
Ġ'. '.
time delta
num eric
ĠH ot
ĠH ard
EN VIRON
calc ulate
12 2
DE EP
DE TECT
map Masks
fix es
ĠSe lect
head ing
Ġmax Pro
Ġ4 9
sh im
query inst
JSON Array
JSON Dtype
JSON Codec
ĠPy Lav
ĠV S
Bo ard
mm seg
IN ES
template tags
low Validator
Ġme lt
nd tr
nd tri
group er
group gapValidator
group titlefont
sub s
spec Marker
ĠIn compatible
ĠIn Process
ĠTick et
Ġmo tor
Ġmo mmy
split ext
En code
ob by
ob tain
UT F
Time series
[' /
ill ing
mon ize
over view
ĠY period
ĠY periodValidator
RE T
book instance
range Validator
Ð½ Ð¾Ð¹
ĠOpen SSL
enc ia
ir is
clo ude
Ġmay or
Ġstart ed
liter al
Ġkey ring
obj s
ĠTh icknessmodeValidator
åı Ĭ
rg amma
web driver
Token Endpoint
Ð² Ð¸
Ġfirst name
RO W
Ñĥ Ð¼
MENT S
{} '.
todo app
CA P
19 26
Te ams
Ġ"" ,<
null able
ĠEn coding
ĠCo mentario
>~~~~~~~~ ~~~~~~~~~~~~~~~~
ĠHTTP Exception
ĠEx ec
Create Form
sent iment
suffix es
è¿ °
Ġ{} ,
lines Validator
Dict ionary
ĠTrans lator
Ġq cut
APP ING
Ġder iv
console app
atio Validator
Ġz opfli
ĠÐ¿ Ð¾Ð»
Ġdown grade
Ġfunc iÃ³n
è¯ ´
Th icknessmodeValidator
ĠĠĠĠĠĠĠĠĠĠĠĠĠĠĠĠĠĠĠĠĠĠĠĠ ĠĠĠĠĠ
ĠSeries GroupBy
clip onaxis
sen ce
ĠRange modeValidator
Ġfilename s
ĠLogin Form
Tests Mixin
Ġfl ush
learn er
åĽ ł
ĠÐ½ ÐµÑĤ
click Validator
Task Cascade
CRE ATE
Ġ17 0
ĠDataFrame GroupBy
QU EST
pa id
roll ing
rot mk
TR I
Ġfi re
thickness mode
Subplot Validator
Mask ed
ĠArticle Admin
ĠGroup er
ĠGroup By
ï¼ļ <
play list
mag ic
ĠBot T
Ġrec ursive
tab uada
Ġdel imiter
pose Validator
Ġgre eting
ĠAccount Client
Mode Validator
ĠCourse Filter
sv n
RS cheduler
yolo v
ĠJSON Array
ĠJSON Dtype
20220 80
Decimal Array
Decimal Dtype
unit Validator
CL U
ĠPar ameter
apes rcValidator
Clip onaxisValidator
ĠCategorical Dtype
Ġxml rp
Instance Masks
Ġvis ual
ĠÑĤ ÑĢÐµ
lier colorValidator
quar ed
shift Validator
VAL UE
çī Ī
ĠPeriod Dtype
ĠDecimal Array
ĠDecimal Dtype
Sparse Array
ĠMode Validator
ĠÑģÑĤ ÑĢÐ°Ð½Ð¸ÑĨ
Sal es
Rel ated
high light
ĠWh at
Ver ify
Range modeValidator
ĠGraph QL
ĠSubplot Validator
mongo db
cu vinte
lp Policy
ĠInterval Dtype
escap e
cont ato
00000000 00000000
Rate Throttle
sess ment
Ġcorrect ly
åĮħ åĲ«
æīĢæľī çļĦ
éĿ¢ çļĦ
ati vo
encod ers
Call Error
ĠMA X
Legacy Test
icip ant
ĠVo ice
IF Y
smooth Validator
æł¼ å¼ı
}' ")<
ĠDirect or
ĠVer ify
HE IGHT
ĠClip onaxisValidator
auction listing
Mis sion
ï¼ī <
tg calls
Confidence Interval
ĠCat alog
.*` ",<
TokenGrant Dispatcher
Rad ius
Credentials Grant
ĠÑģÑĤÑĢÐ¾Ðº Ñĥ
å¤Ħ çĲĨ
Ġincrement al
ĠElement al
ĠImplicit Grant
å¢ ĥ
ĠUserInfo Endpoint
ĠDatetime TZDtype
dop roject
nume xpr
gop acityValidator
Ġsche mas
Ġmime type
ĠSynchronized BatchNorm
>#---------------------------------------------------------------- -------------<
ĠMargin Client
Aggreg ator
ustr ative
ĠSET UP
ĠCOM MAND
ĠRepeat Dataset
Ġredu ctions
maint ainer
STRO NGSORT
Ġill ustrative
Ġcros stab
oliditys rcValidator
DEEP SORT
ĠmaxPro fit
Ġxmlrp clib
! "
( .
+ <
2 40
2 25
3 000
? \
A p
B D
B uiltin
B lack
B ranch
C ur
C over
C OST
D M
D GRAM
F ROM
G RAY
H W
I X
L V
M SC
P icture
S q
Y EAR
e zer
f bb
m ypy
p ull
q s
t v
u gify
v icios
x b
x s
x im
z sc
} ",
± è´
Ġ er
Ġ lot
Ġ ))<
Ġ ??
Ŀ å§ĭ
in struction
me etup
de terministic
ro l
al ic
an o
an imal
re mote
Ġp hrase
Ġp ika
lo ps
id os
Ġt ear
Ġd ct
fi r
ap ache
mo ving
Ġ' =',
yp ar
op er
=" \
tr aw
Ġm iddle
get ters
Fi zz
ĠA D
ĠA do
ĠA CT
ĠA nnotation
ĠS P
ĠS V
ĠS ING
ĠS kipTest
ate st
um mary
ch arm
ist ico
=' \
Ġa ctions
il ib
ĠC PP
ĠC barAxes
Config Settings
lor er
str ar
ĠM E
ĠM O
ĠM ar
Ġw on
ĠD R
Ġ2 9
Ġcon dition
ĠN atural
Ġis BadVersion
Ġis Palindrome
ĠL i
ĠL on
ĠL ib
Ġf fi
Ġv s
Ġv ow
ĠP a
ĠP ORT
rue ba
Ġ( %
Ġl um
ot ing
ck o
SE C
SE D
Ġse parated
ĠF A
ĠF P
Ġh am
qu ences
am i
am r
im arily
ense mble
ĠG aussian
ok u
sc roll
path lib
view er
ec es
pro cesses
() "
() ):<
ew ee
li ver
Ġe u
Ġe ar
Ġe igen
Ġpy mongo
ag er
ĠH an
Ġg pu
Vi ews
ackb ones
ĠBase Endpoint
ĠSe quential
data classes
ware house
Ġbe gin
Ġbe autifulsoup
Re gex
ST M
mple ados
Ġlist e
ĠPy Side
Ġdo uble
sql plus
ĠW ILL
Ġx range
translation s
ĠV OC
32 0000
ĠSt ar
lle gal
Ðµ Ð½Ð¸Ñı
ĠUser name
ĠUser Register
Ġme ns
ĠĠĠĠĠĠĠĠĠĠĠĠĠĠĠĠ ĠĠĠĠĠĠĠĠĠĠĠĠĠĠĠ
Ġ[' \
") ):<
ĠList Array
ĠList Dtype
List Array
List Dtype
sub class
sub scription
vo cal
Ġal ong
dit ions
Ġlo gs
18 8
Ġ201 2
tin uous
ey e
ĠDE V
ĠAPI View
001 7
over flow
Ñģ Ð»Ð¸
([ ])
ia om
API Exception
Ġpr imarily
Ex ec
Ex cel
su ch
sing leton
ĠRes ConfigSettings
ir t
Ġcontain er
Ġdebug py
sign out
Ġexp ression
cr ypted
Django Project
ĠSp hinx
ark net
åĪ Ŀå§ĭ
ĠDo c
EP T
Ðº Ð¾
Ñĥ Ñĩ
{} .
ph onenumber
... ")
custom s
ĠEx cel
Ġencode d
Al bum
ĠLog ic
Ð´ Ñĥ
exp lo
dic ate
Ġlong itude
reg ular
ĠAr ch
çĶ¨ æĿ¥
angu lo
Ġbyte string
ik ed
æľ ª
mesh grid
cv t
be ach
ç» Ļ
ĠMe an
Product o
Ð¿ Ð¾Ð»
äº ĭ
BBBB B
agin ator
ĠCommon Config
ãģ «
Ġsy nchronize
SI G
serv ations
67 3
CRE EN
emp lo
Mo ve
POST GR
Update Destroy
gre dient
Ġsal es
ti po
Sum mary
è¡¨ è¾¾
Book s
="" ,<
ĠLe vel
Ġcall ing
inst agram
ĠIs Owner
rm tree
ident ifier
Start ing
åı¯ åıĺ
clu sion
loc ator
OP TIM
oc ab
Ġbet ter
CL ASS
LOC AL
ĠÐ¼ Ð°ÑģÑģÐ¸
Ġtri o
SH ORT
1234 56
month ly
ship s
feed back
ĠDeep Speed
Ġlet ters
Pack et
ÐĿ Ðµ
ÐµÑĢ Ð²
Ob j
fetch all
Ġgen eration
Ġbro wn
ĠRec ipes
prod uto
ÑħÐ¾Ð´ Ð¸Ð¼
('./ _
mix ture
La zy
ĠÑį ÑĤ
Ġestim ators
å¼ķ åı·
çİ¯ å¢ĥ
ĠEmpty ResultSet
ĠSn ippet
Empty ResultSet
ÐĶ Ð°ÑĤÐ°
dil ations
Program ming
Distributed Sampler
Pay load
uz zy
Ġfeed back
ĠÑĢÐµ Ð·ÑĥÐ»ÑĮÑĤÐ°ÑĤ
Ins ira
ĠNamed Agg
DIRECT ION
sat isfied
ĠÑĨÐ¸ ÑĦ
Ġsec ure
ĠRefresh TokenGrant
encr ypt
alg os
Ġplan et
nose classes
Ġ': '.
Bbox Overlaps
RESULT S
ĠMongo Client
writ elines
ç´¢ å¼ķ
*" ="
ropp ed
åħ¨å±Ģ åıĺéĩı
ĠCascade RCNN
oint ment
ĠFuture Warning
vali acao
>`_ """<
lev ant
ä¸¤ ä¸ª
consum ers
strate gies
0222 00
keyp atch
å®ŀéĻħ ä¸Ĭ
ĠVAL UES
cw du
NORM AL
Ġautos ummary
ĠSubmit Field
DETECT ION
POSTGR ES
è¡¨è¾¾ å¼ı
) ;
, \<
, ##"]<
- [
6 3
6 58
= ("
> ).
A f
B IT
B ackbone
C LO
C PP
C EL
D ir
D irection
E E
E qu
G G
G S
G rad
L AST
M u
M UN
M ock
O w
P S
P AGE
R ot
R EST
S ound
T ITLE
V QA
W idth
W RI
W hether
_ :
b az
b raintree
c are
c ython
d nn
d ups
e ach
e aker
f ort
f path
f sl
f ashion
g ht
g uild
g adget
j ug
k b
m ass
n Name
p ledge
q td
s or
t as
u rope
v an
w all
w ear
w av
y z
» åĬł
æ °
ç ¾
ç Ł
è ¶
é ¥
é Ĵ
é ĺ
Ġ his
Ġ !!
Ġ å®ļä¹ī
į åİĨ
in ing
in voke
de dent
ro les
ro wn
import lib
Ġp w
Ġp add
Ġp oll
Ġp essoa
it ure
as pect
le ap
le ast
ut os
ic ulo
Ġt g
Ġt up
Ġd r
Ġd os
Ġd ups
fi b
fi bonacci
co ordinate
el ib
ur able
Ġ' #
class ic
op entelemetry
con versation
con tacto
ac qu
up stream
Ġm Ã©
Ġm aster
ver sal
Fi re
Ġn umba
th rottling
vi ses
ĠS q
ĠS ql
ĠS AFE
ĠC le
ĠC ShellActivator
ĠC UDA
if ts
min s
iz a
po lation
Ġw rong
ĠD b
ĠD r
ĠD rop
ĠD ashboard
pt imal
ho o
Ġcon st
Ġcon current
GI oULoss
Ġde vices
ĠL E
ĠL ight
Ġf unk
ĠP ub
ĠP ris
ings Config
Ġex cluding
01 4
bo arding
ĠB ashActivator
SE ARCH
Ġco ll
ĠF av
ĠF ishActivator
ĠF rontend
ip ient
LE FT
par dir
der eco
pre pare
ĠO P
ok i
Ġvar ed
are fa
TT EN
ec ast
har ati
pro f
pro tection
() ["
register ed
101 98
Base PixelSampler
ag g
Ġg over
Ġun wrapped
fo cu
40 82
In dic
per m
ĠBase Assigner
config obj
Ġi de
Str ipeObject
Re vision
Re vises
Ġan al
sh uff
list en
Ġ| /
asses s
fr ak
ĠW rit
Ġbo ost
ĠV ote
ĠV olatility
ĠÐ »
ĠÐ ŀ
key word
20 613
read ers
Ðµ ÑĢÐ°
Ġ: ,
ĠUser List
ome d
Ġdate fmt
message box
") })<
sub net
Ð¸ Ð½
ÑĤ ÑĢÐ¸
Ġmo t
ob servation
Ġlo gistic
ĠCon stant
np z
Ġdi visible
ĠText Input
File Name
ĠPo ly
27 0
Sp ider
mon g
Ġle ia
not ify
posit ive
schedule d
Ġchar s
Ġorig in
Ġpr actice
ĠX XXXX
pip file
######## #",<
11 3
çļĦ æĹ¶åĢĻ
asc imento
Log ic
output s
dy namodb
App le
24 00
Ġfirst project
RO I
ĠException s
ĠFilter Set
ee k
ph ones
US H
201 3
201 4082
gest ion
down loader
Ġnon existent
custom user
Ġfun boost
ĠGenerator Config
ASE T
ĠSub stitution
part icipants
Ġq td
TH READ
rand s
OK IE
Tr aceback
Tr acer
Ġ36 00
ĠData Loader
ĠUT F
ĠMain Window
Ð· Ð°
AC S
å¯ Ĩ
ĠApp ender
vok ed
ĠMe asurement
ĠCol umns
ĠStr ipeObject
Invok e
CON TRI
æĺ¯ åĲ¦
ĠTask sConfig
ĠMy Profile
Ġcom merce
Ġcom bine
ÑģÑĤ ÑĢÐ¾Ð¹
tensor flow
ĠÑ Ī
ĠComp onent
weight ed
non negative
dr aft
LI F
Subplot Host
Mask IoUHead
Ġsl ack
hot mail
button s
Ar row
ĠEvent o
Ġthread s
RoI Head
æŀ Ħ
shop ping
crypto currency
Instrumentor Wrapper
Chat Consumer
æŃ ¤
åħĥ ç»Ħ
LOG GER
Ġdat os
Categorical Dtype
ĠÑĤ Ð¾
Ġrep ly
Ġstock s
HEAD S
bus car
Ġjob s
inte gration
ĠHe ight
åŃĺ åľ¨
ĠChat Config
UB LE
Ġpal avra
ĠWh en
Ver sions
ĠSum mary
ĠSum mernote
æı Ĵ
Ġsa ved
visual ize
Gen eration
å¤§ å°ı
medi um
Ġbin aries
ĠFeed back
è½¬ æį¢
+)/ $',
+)/ $",
ĠRE QUI
ĠYOLO X
ĠBoolean Widget
("_ ")]<
DATE TIME
LIM IT
Ġ"%# ,##",
Ġ"%# .###
fut ures
Abs SecurityGroupUnrestrictedIngress
TRAN SFORM
-## ",<
ĠLa unch
ĠÐ¼Ð¾Ð´ Ðµ
ACC OUNT
CY AN
Ġremain ing
ä¼ł éĢĴ
WH ITE
Ġpair s
ĀĀĀĀĀĀĀĀĀĀĀĀĀĀĀĀ ĀĀĀĀĀĀĀĀĀĀĀĀĀĀĀĀ
ĠÑģÐ» Ð¾Ð²
ÐĹÐ° Ð´Ð°
Ġ"%## ,##",
Aux Trans
Ġgm time
ĠÐ¿Ð°ÑĢÐ°Ð¼ÐµÑĤ ÑĢ
ocalLoss Cost
erminal Writer
Ġoauth lib
BUT ING
Ġml flow
ĠAnal ysis
organ isation
ĠPh ili
ĠPower ShellActivator
Lar gest
Ġrelation ship
Unique Together
NAM ES
########## ",<
onto Tur
Ġ["# ,##",
ĠTrade Client
Ġ["- ",
BACKB ONES
ĠÐ½ÐµÐ¾Ð± ÑħÐ¾Ð´Ð¸Ð¼
applic able
ç³» ç»Ł
è£ ħ
trast ive
Ġ"%.### ,##",
ĠOH EMPixelSampler
poin trend
ĠOVER WRI
traw code
ĠAdo be
Ġlum igo
åĪĿå§ĭ åĮĸ
fsl ineno
ĠPris ma
Ġgover ned
focu ses
20613 53
2014082 2061353
CONTRI BUTING
Ġ"%#.### ,##"]<
ĠOVERWRI TTEN
" %
" ><
' ll
( \.
* '<
. """,<
1 404
4 21
: \\
= _
> ================================
A nn
B l
B ank
B lue
C LI
E ll
F e
G FL
H or
H ere
I A
I ES
I ds
J ar
J oin
M ay
M etadata
N umbers
N ested
P lot
P lay
R EC
R ank
R ow
R aises
S caleValidator
S kipTest
S CREEN
T F
T AD
T ASK
U nsupported
W ater
[ ^
` :
b ra
c ube
c inema
d ur
d ifference
g d
g as
g ather
i j
i ang
i ments
i NaT
j ump
j peg
l ider
m ort
n ama
n Length
o frak
p layers
q i
r ror
s r
s imp
u h
v r
v ited
w ide
w omen
x is
y ms
z A
z o
å ¡
æ ¡
æ Ĳ
Ġ ).
on d
in c
in dent
in strumentor
me dic
me alie
de cor
__ }
re duction
st ates
st ars
ion di
lo ut
lo cale
lo callibrary
ut ing
ic ate
Ġt b
Ġd irection
gs w
Ġ" [
Ġ" ))
co ord
co pies
mo co
el imin
is su
is aid
yp ro
Ġs hr
ue vo
ig il
Ġin struction
up Config
ad i
tr ident
Ġm as
Ġm arker
Ġm gear
ab ento
ĠT IG
ser act
Ġn op
Ġn atural
Ġn ickname
Ġc f
Ġb crypt
th en
ĠA WS
ĠA udit
ĠS caleValidator
ict ures
(' ''
pop ulates
ch anges
ist er
il ing
ĠC ourses
du str
to zero
ĠM esh
Ġw b
Ġw iki
Ġw agtail
db ye
Ġis subclass
ĠL oss
Ġf our
com bine
Ġv lan
pp e
ĠP ut
ĠP lot
ĠP anda
dict s
ers ist
Ġr p
ve ga
ĠR uss
bo ot
ĠB l
ĠB order
ĠB ound
ĠB iondi
SE rror
ol ved
lat itude
ain s
ub ble
Ġst ores
Ġst aff
log level
ĠI ssue
pre v
pre load
ĠO db
Ġop entelemetry
02 2400
ok cancel
ĠRe gistration
ĠU sage
ec ord
Ġpass lib
pro mos
ith metic
ew m
Ġ[" _
li e
num eros
Base Indexer
ĠH ous
Ġg reate
add ition
add record
DE D
DE TR
40 96
net loc
per mutation
fix ers
Admin Config
ĠBase Indexer
Ġmin version
Str ucture
Re gion
Ġan aly
ST AGE
title s
mple ado
ĠDjango FilterBackend
Ġser ials
list ener
De let
no thing
Database Tests
ĠV igil
Ġ% .
Res olution
work book
Alter UniqueTogether
IN F
od cast
cor ding
Ġstatic method
Ðµ ÑģÑĤ
ĠFi re
Ġpo lygon
.__ {
User Agent
hover on
List CreateAPIView
ra j
Ġsub stitution
client s
rf unc
Ġload mat
ĠOr ders
ÑĤ Ð¾Ð²
ĠIn fo
Boolean Array
202 101
comp uter
arch s
arch itecture
sl ip
Ġlo ve
Ġlo callibrary
Ġ200 1
Ġarg v
ĠDE TR
Ġcode cs
Se m
Ġtemplate tags
cre dential
ĠY a
ĠY OUR
Par ameters
Sub string
Sub Factory
support ed
Ġwe ibo
with in
range ment
ĠURL Pattern
>] \
Ġjson schema
Ġk ivy
Ġter minal
çļĦ æķ°æį®
Co co
year s
lect ure
ĠPost ListView
Ġ8 8
current value
åı °
): #
wer kzeug
Ġsu ff
Ġcolor s
ph il
Te le
Ġ"" ")<
AB LED
include d
ĠCo ord
Hover onValidator
ĠHover onValidator
rad ar
ĠInt Index
vert ices
Frame Accessor
exp anding
ĠSub user
Ġ12 345
deprecation s
Object Identifier
Group er
ĠÐ¿ ÐµÑĢÐ²
ĠKey PressEvent
velo pe
tag ged
ref lection
EX CEP
Out OfBoundsDatetime
AC T
ĠIndex ers
mod ify
09 09
ĠTr y
igh ter
Color sValidator
Color ssrcValidator
ĠĠĠĠĠĠĠĠĠĠĠĠĠĠĠĠĠĠĠĠĠĠĠĠ ĠĠĠĠ
backport s
off er
ĠCol lection
ĠCol umm
Ġrout ing
Lookup Error
man ifest
na ive
ĠÐ² ÑģÐµ
ĠQ X
ĠTask Form
ĠSign ature
ĠKeyboard Button
ĠÐ´ Ð°Ð½
Ġ-- >
Ġcom mit
video chat
Ġauto generated
vt k
ÑĢÐµ Ð´
By tesIO
batch norm
non ce
stand up
ĠColor sValidator
ĠColor ssrcValidator
Ġad v
29 5
Ġident ifier
ĠDict Config
Ġmultip ly
cost s
rect angle
rot ate
Iter able
Abstract Instrumentor
Ġcar s
stick er
aj e
aj or
åĮ º
sport s
va e
å¯¹è±¡ çļĦ
terminal writer
writer ow
'^ $',
éĢ ģ
ha e
vas z
music a
ĠSo cial
ĠTag Admin
bind ing
ĠIs Admin
ĠSparse Accessor
ĠSparse FrameAccessor
cook ies
Video Capture
Ġag g
Series GroupBy
)} __.
DataFrame GroupBy
ĠDistributed Sampler
Ġdil ation
æ¨¡ å¼ı
Ġcl ause
Ġ27 673
COM MAND
ĠST AT
pub lication
Ð¾Ð± ÑĢÐ°
hes is
Ġdat abento
>` _<
Ġstor ed
Dis criminator
è§ Ĩ
cum ulative
Sparse Dtype
ĠHe alth
NUM BER
Be verage
instrument ations
BIN DING
exist ing
ĠOpenId Connect
éĿ ŀ
urn iture
Ġbro ker
ĠBlock Index
åĨĻ åħ¥
ĠSecurity GroupUnrestrictedIngress
Short Error
Interval Dtype
Ġcont ador
ĠProxy Type
Datetime TZDtype
structure d
ĠNa N
ĠRich TextField
Del ta
there um
ĠRolling Groupby
Period Dtype
High light
cons ult
ĠScene Validator
Ġbucket s
Ġfe apder
æĬ ¥
Scene Validator
sho es
çŃī å¾ħ
Ġorient s
[[[[ [[[[
Mod ulated
inv ite
Too ShortError
]]]] ]]]]
ĠFixed ForwardWindowIndexer
WT F
Ġed ad
abl apps
Ġless on
Duplic ates
Sta irs
bel t
ĠSal es
ĠVariable OffsetWindowIndexer
encr ypted
ĠExpanding Groupby
STD IN
updater ecord
Arch ive
Variable OffsetWindowIndexer
Ġrot ation
Fixed ForwardWindowIndexer
Vis ual
æ¸ ¸
ĠDel ivery
ĠZero DivisionError
ĠFL AG
ĠOption s
Named Agg
lac ian
Ġha ving
vox els
(': ')[-
202109 13
2345 678
Na TType
ĠPyTool Config
############## <
ityscapes Dataset
opportun ity
Ġkon id
cvt Color
dnn py
ĠCUDA Extension
Indic ator
ĠPhili ppe
ĠTIG ERS
ĠHous ley
Ġgreate st
ĠColumm DataType
" **
( ","
) \
) ])
) }')<
. \
. ')
/ .
/ *.
2 100
4 0000
6 37
7 46
: ]:<
: %(
B H
B R
B Y
B ashActivator
C ESS
C ShellActivator
C nnPolicy
F D
F ind
F ishActivator
F COS
G PU
G ateway
I R
I SS
J ava
L r
L Head
N umpyVersion
O kta
P ub
P open
P honeNumber
P atient
P ublish
Q S
R PM
S R
S ender
S ong
S urface
S heet
X R
Y OLO
Y OUR
] ).
a ves
a wait
b ib
b right
b unch
b tn
c ert
c irc
d aily
e os
f an
f lower
g gle
h ance
i les
k k
k nox
l id
l im
l ins
m j
m il
m irror
n optic
p up
p il
p one
p isode
q ty
r end
r ater
t ml
x k
y an
} -[
Ð ¤
å Ĥ¨
ç ħ
Ġ il
Ġ ~~~~~~~~
Ġ urlopen
ı è¿°
se cut
in formation
in ning
in crement
me ns
me asurement
ar izer
de crypt
ro ker
en heit
re h
re m
ut ter
ic ias
ls a
Ġt or
Ġt re
ly x
Ġd oll
Ġd imension
Ġ" !
Ġ" ################
co mplain
ass istant
Ġ' ',<
Ġ' %(
Ġ' "']<
is upper
Ġre actor
Ġs ync
Ġs igma
Ġs istema
app able
con sume
ig ible
ac andy
ad m
tr acao
Ġdef ines
Ġm a
Ġm argin
Ġm arshmallow
', )}<
Ġ[ ])<
ul se
ul ls
Ġn t
Ġc el
Ġc ube
Ġo lder
nt il
th project
th ia
ĠA ux
ĠS TR
ĠS ocks
Con cat
Con firm
int ro
ch imp
ist ers
=' -
all ax
Ġa udio
Ġget ter
du ino
Config ure
py decimal
min ute
min imum
iz ing
to o
to string
to ctree
ĠM ako
ĠD ns
res ses
res idual
Ġcon version
Ġcon fidence
ĠN S
ĠL AMBDA
Ġf ocus
ĠP lan
ĠP RE
ĠP anel
ĠP honeNumber
ĠP anoptic
ot p
Ġr m
ve h
ĠB lacklist
SE CON
Ġon nx
Ġon mt
os h
Ġst reet
di an
02 00
test cases
Ġstr ip
use doctest
nc r
OR DER
out lier
ke ep
ri er
Ġdep endency
Ġe as
ĠE dge
Ġpy tz
Ġpy tracking
ĠH o
ĠH or
ĠH ist
Ġg amma
ener gy
DE TA
In ada
per mutations
lib ro
api key
ude my
CH ED
Ġpro files
Ġth ink
Ġth rows
View set
Ġbe come
Ġmin imum
iter ative
arg max
query sets
fpn head
ĠW ith
ĠW allet
ĠW OLVES
Form View
val uation
check points
ĠV al
vision er
lit tle
ĠSt at
ĠSt and
mm det
Ð¾ ÑĩÐ¸
Ġout er
Po ints
cor relation
ĠUser Form
post pone
wh it
sol vers
User Form
Ġch anged
sub array
16 21
10 8
vendor ed
torch script
ich ter
uration Validator
ach ers
ach ieve
first app
Set Del
ĠDE MONS
Ġj wt
"] ))<
Ġ/ =
new year
([ ]))<
tour s
ĠRegister ViewSet
vide d
Ð» Ð¾Ð¶
Or ders
ĠNot Found
Ġresult ado
Ġk i
ir ag
top k
side s
ĠTest P
ĠDist ance
Ident ity
rop a
500 5
PP ED
Do c
Ġtarget s
ĠSequence Like
web hook
Ġmake element
Query Result
03 8
ĠHttpResponse Redirect
Ġspec ify
{} \
ĠTags Config
19 18
Ġmak es
201 1
IM MUN
float ing
ĠCo st
ĠCo up
Ġoptim ize
of acandy
çĶ »
sent ences
ĠInt el
(( (
ym ce
Dec ay
ĠBook ing
round s
åĲ ¯
til ing
pe ated
è¯ ģ
CO UNT
ĠApp Seed
mod name
hidden imports
ç» ı
ĠMe eting
Ro ws
ĠOrder Item
äº §
dal le
theme s
MA IN
ĠLink s
ĠAn ge
Ġ'\ "']<
access log
ĠItem Form
sn Provider
ĠÐº Ð¾ÑĤ
foo bar
Ġeval uator
Ġident ity
ĠCre ator
Ġbot tom
ãĥ «
2019 0909
gre y
gre es
scal er
Ġmer lins
)+ "
ĠWe ight
digit al
assign er
WOR K
trip let
ĠGet SetDel
ĠNote Serializer
ĠSo ft
66 6
ĠÐ¾ Ð¿
Wh ite
åĿ Ģ
ÐºÐ° ÑĨÐ¸Ð¸
ä½ľ çĶ¨
Ġparam wise
Ð½Ð° Ñı
alt or
erc icio
ĠĠĠĠĠĠĠĠĠĠĠĠĠĠĠĠĠĠĠĠĠĠĠĠĠĠĠĠĠĠĠĠ Ġ
eu ro
eu ropa
è¿Ļ éĩĮ
ĠLO G
Ġtri angular
zz buzz
Ġpe ewee
ĠÐ· Ð½Ð°
Ġdat alo
deform able
Ġmen or
vers arial
ĠIO U
åŃĺ åĤ¨
duplic ate
Ġtmp dir
Ġ'- '<
Ġdoctest compare
ç¬¬ äºĮ
>| <
ĠStock ViewSet
ĠVideo Chat
Ġ'{ %
Ġresol ver
Sign ature
ĠPlugin Manager
BO X
iao x
pes o
SU PPORT
è½¬ åĮĸ
stat istics
ĠNa oki
quir y
ÑĢÐ¾Ð² ÐµÑĢ
coll ate
ä¹ĭ éĹ´
ĠLogout ViewSet
rink s
chrome driver
tax ation
updat able
Power ShellActivator
Scattering Transformer
xxxx xxxx
ĠBackend Mixin
ĠTrain ing
Sw agger
dil ation
song ofacandy
MB OL
aid u
curr y
Social Auth
const s
Ġmult iclass
å½¢ å¼ı
Ġdivis or
<<<< <<<<
æŁ ¥
Ġrece ive
è·¯ çĶ±
enty markets
Sent inel
imb ing
Progress Bar
æĪĸ èĢħ
mega Conf
ĠActor Critic
Ġattemp ts
Calc ulator
>################################################################# ##############<
Vo xel
æ· »åĬł
ĠRichTextUploading Field
acquir er
formular io
GENER ATORS
Cookie Jar
GOR ITH
drink s
ĠMaskedBert For
ushell Activator
ĠæĮ ī
Alex ander
ĠEnt ity
PIP EL
ÑıÐ² Ð»Ðµ
éĤ £
338 9
Ġale mbic
CLU DES
ĠDR AGONS
jug ate
ĠSq L
ĠSequenceLike Mixin
IMMUN E
Ġmerlins ar
ĠGetSetDel Mixin
$ {
' ',
) ',
) '<
, ):<
/ "
/ >`_<
1 10
7 45
: '))<
A W
A y
B ili
B ench
B RIGHT
C enter
D en
D types
D iv
D ifference
F ree
F light
F riend
G UI
H OL
K e
M ult
N Ãº
O l
R ent
R ect
R ECT
R oll
S SES
U i
V ector
W Model
W atch
[ <
\ (\
\ ___/
_ '<
a ol
a hr
b ird
b ackbones
c andidate
d ifferent
f cs
g lot
g ma
g pus
h air
h sv
i mo
l ings
m f
n ical
p po
p itch
p edia
p unct
q n
r er
r ar
r ates
r icao
s pot
s aucer
u ai
x e
y net
} %
¸ ¡
¹ éħį
º «
Ã ¨
ç ¥
è Ĭ
è º«
é ¾
é ¸¡
Ġ ic
Ġ (_
Ġ Er
Ġ ãĥ
Ġ è¿ĶåĽŀ
ı æľº
at ss
at tle
at iv
in coming
in voices
er clip
de clar
de leted
al num
al ah
al tura
__ )):<
en ome
an ic
an sion
an ces
an nels
re try
st ub
ion ario
Ġp m
Ġp or
Ġp layers
Ġt s
Ġt shift
Ġd uty
Ġd rinks
Ġ" ?
el ic
el gium
ur er
is co
is pyError
is alnum
Ġre gistration
Ġre captcha
Ġre ceita
Ġre mote
Ġs s
Ġs igmoid
(" #
ac i
for ecast
ad ow
tr uth
Ġ__ /
Ġm app
gi v
', ]<
ab la
ab orn
ab bit
un ies
un ix
ver ts
Ġ[ ['
Ġc ores
Ġb l
Ġb est
Ġb alance
ĠA M
ĠA lter
ĠA verage
ĠS end
ĠS ources
ĠS GD
ĠS kip
ĠS inger
int like
ma y
(' #
=' %
00 3
Ġget s
il le
ĠC la
ĠC SV
to t
ĠM aster
ĠM utation
Ġw ild
ĠD ig
et icao
ho mas
parent s
Ġde n
Ġde lt
Ġde leted
Ġedit or
ĠL ikes
Ġf ew
Ġv ector
Ġv ocÃª
Ġ- ----
ĠP IP
ĠP ontoTur
Ġ( __
Ġl in
Ġr l
ĠR ot
ĠR aise
Ġex change
ĠB BBBB
ĠB BBB
sp rite
ĠF ound
ĠF rom
ip c
ip se
ip er
ip config
ub ic
Ġh app
ĠI r
par agraph
om me
am ification
ĠO ther
ĠO ptimal
ok ta
sc or
ĠRe search
Ġvar s
lab eled
Ġe j
Ġpy tables
Ġnot as
EN ABLED
fo cal
12 5
DE F
In formation
ĠSe q
CH OR
ste am
') ])<
ST ATE
=[ ],<
=[ ])[
vis itor
list ings
=( (
Ġ| _|
no va
Ġapp ear
Ġ% }<
ĠSt op
Text Parser
Text Choices
Text FileReader
Ġit eration
cor outine
Ðµ Ð¹
ĠUser Model
ĠUser ModelSerializer
ome tric
User name
my list
my var
my Math
Ġ[' _
AS N
ra z
pyp erclip
10 4
10 6
Ġrender ers
ade m
Ġal lows
ep ic
MP L
MP LE
ĠPro tection
ĠPro duto
18 4
18 5
18 295
)) :
28 4
ĠText Parser
ĠText FileReader
ven ience
.. ")<
Ġj ump
Ġj udge
Ġ5 5
cket fft
mon o
Ġsp ider
ak ed
ft en
session maker
To Sort
ĠY A
ĠY ear
Ġu gettext
Ġu funcs
win types
Ð½ Ð¾Ð³Ð¾
22 22
ĠError s
Ex ecute
Ġk ind
Ġindex ers
Ġter m
Ġset ter
çļĦ å¯¹è±¡
adapter s
ĠTest Split
ĠTest Series
ĠTest Sparse
ĠTest Insert
ĠTest Where
conn ected
blog app
13 456
Ġ6 6
Ġ6 00
ĠPost List
assert False
assert Raises
URL CONF
ĠTh ird
åı į
save fig
ĠSp lit
Ð¼ Ðµ
åĪ «
Inter nal
row d
Ġsu ma
dat er
{} )
abc d
ee per
ĠCl unies
ĠDis cord
19 01
Ġpd x
ĠEx it
ĠEx am
ĠTodo List
ater ing
ĠToken Generator
FI EL
amb ient
sk y
Me alieModel
Ġz o
tag git
Ð¾Ð² Ð¾ÑģÑĤÐ¸
ref lekt
EX EC
simple Action
Comp arison
CO OKIE
sun set
ĠTr acer
ĠCategory ViewSet
ä¸Ģ è¡Į
ä¸Ģ èĪ
Ġindic ator
Ġtoken izer
Gener al
Product Admin
Orig inal
ĠCI FAR
super power
Ġav atar
agin a
present ation
ãģ §
Ġar en
rep lay
pc d
ĠID iceSyntax
æī ĭ
å¤ ©
å¤ ±è´
sn r
Ġsk ipped
ĠHome page
38 607
tt k
åĽ ´
Ġad alah
Ġcontains Duplicate
ĠProject sConfig
PL AY
My file
('_ ')]<
Ġmultip lication
shar d
ãĥ ³
Simple Router
Ġmark down
Ġæ ı
2019 101
2019 12
Ġframe s
ä¸į åĲĮ
person a
åĮ ¹éħį
Ġsl ugify
ĠBot Command
Extr action
Ġ$ {
Ġembed ding
Ġembed dings
66 00
ackward s
ÐµÑĤ ÑģÑı
Function s
ĠForm Helpers
feature d
Stream Handler
Rec ipe
Rec ursive
aff ic
chart s
lar gest
LOC K
Ð³ Ð¾
EM Sampler
ç§ »
Import ing
Home View
Ġord ers
ĠCr ispyError
uit ar
tri ang
Categorical Filter
RES H
RES PONSE
acc ident
dest ination
cod ings
è§ Ħ
OH EMSampler
]= ='
Ġcat alog
Content Type
mobilenet v
Ġgen re
Ġstd lib
ä¾ Ľ
ĠDynamic Error
Short ener
zh ix
ĠSy ntax
ĠSw agger
checkout sdk
cip her
DO UBLE
vg g
Collect or
æľĢ å¤§
Ġass oci
ĠGreg ory
analy zer
180 51
ĠDep th
CB V
hor izontal
ĠFrame work
vol t
å¤ļ ä¸ª
PyT orch
å¹¶ ä¸Ķ
AV A
Ġprod uto
Cal endar
ĠVer ification
ĠÐ¾Ð± ÑĢÐ°
pick ing
Ð¡ ÑĤ
experiment al
Provide s
æŁ Ĳ
SY STEM
El apsed
èµ Ħ
Ġcomponent s
ĠÐ¿ÑĢ Ð¾
Sent ence
())) [:
Ġele m
ĠLast Edit
Ġgr ab
ĠÐĶ Ð¾Ð±Ð°Ð²ÑĮÑĤÐµ
Gaussian Mixture
152 13456
ĠExponentialMovingWindow Groupby
Ġrob ust
MaskScoring RCNN
MaskScoring RoIHead
integr ate
Ġnecess arily
åľ° åĿĢ
lata m
ĠOper ators
ĠHigh light
Ġqr code
ĠActiv ation
Ġpaypal checkoutsdk
å·¥ä½ľ è¡¨
UST OM
ĠÐ¸ÑģÐ¿Ð¾Ð»ÑĮÐ·Ñĥ Ð¹ÑĤÐµ
does nt
åķĬ åķĬ
216 14
abcdefg hi
ĠGraphQL View
ĠCatalog Config
ĠAD MIN
ilib ili
Ġbrown ie
ĠRecipes Config
ĠÑįÑĤ Ð¾ÑĤ
shuff lenet
ĠWrit ten
THREAD S
1404 2
Ġshr l
çħ §
ĠTestP tp
HOL DER
NÃº mero
Ol Ã¡
\(\ )
gma ial
ĠTestSeries Dtypes
ĠTestSparse Accessor
ä¸ĢèĪ ¬
superpower lee
å¤±è´ ¥
ĠFormHelpers Exception
+ {
1 001
8 0000
> })<
? :
A sn
A mbientValidator
B LE
B art
B arn
C fg
D L
E mployees
F our
F resnelValidator
G it
G MENT
H SD
H ero
I ssue
L y
L RScheduler
M as
M ust
M utation
M apper
O ften
P LS
S OR
S SD
T cp
W EB
] ',
a base
a stronaut
b ag
b ai
b crypt
c en
c atch
c ription
c lothes
d k
e fficient
e monize
f y
f one
f env
f ence
f ences
f uel
f resnel
h all
j ava
k orb
l ash
l inux
l Ph
m w
n ut
n ap
q rst
r j
r ic
s id
s use
t ap
t ld
t asrcValidator
t bl
u ro
u mo
u key
w as
w xyz
w esome
x ies
y label
z ing
æ ¢
è Ħ
è Į
è µĭ
Ġ eat
Ġ çļĦ
Ġ qual
Ġ queries
Ġ ado
Ġ edge
ĥ åĽ´
in clusion
me et
me the
ar Interface
al de
st ers
Ġp ure
Ġp gen
Ġp cost
Ġp izza
Ġimport ant
as array
le af
lo cs
Ġt ur
Ġt ck
Ġt ax
Ġd st
ed Model
ap tcha
co ins
ur andom
yp her
Ġre ly
Ġs uggested
ct ype
con da
(" ="
mode s
ad ir
=" +
=" {
type src
Ġm ass
ĠT arget
ĠT USH
ser ves
and reas
Ġn lp
Ġc ent
Ġc ms
Ġb ill
Ġo c
ĠA tt
ĠA mbientValidator
vi rtual
ĠS Y
ĠS ch
ĠS can
ĠS SS
ĠS SL
ĠS ale
ĠS OCK
ate ver
pop left
ch ang
Ġa ware
Ġa voids
Ġget fullargspec
ce eded
ĠC al
ĠC ur
ĠC ell
ĠC urrency
min imal
iz ations
to self
str ation
ject ed
po lygon
te ast
ĠM is
ĠM ET
ĠM lpPolicy
Ġw r
ĠD river
ho sp
Ġcon verted
Ġcon ditions
ĠN on
Ġde al
Ġde precate
Ġis Valid
Ġf env
his ker
ĠP LS
color srcValidator
aut omation
Ġl arg
do ctor
Ġr ather
Ġr aising
ĠB and
ĠB unch
ĠB oris
sp in
sp line
sp alde
Ġse q
Ġse ver
ĠF rp
ĠF ocus
ĠF resnelValidator
text angle
ip ment
Ġh y
Ġh ab
Ġh alf
Ġh ierarch
Ġst and
est imator
ĠI M
default filters
ĠO f
ĠO de
ĠO ptim
ĠG AN
ĠG UI
us oid
Ġstr ftime
Ġstr ptime
Ġ3 7
ĠU RI
TT S
## )
auto bin
auto grad
ĠE T
ĠE NV
ĠE fficient
deploy er
max displayed
Ġnot es
ĠH uman
DE VICE
IT est
ask okcancel
In f
lib aba
Ġ(' -
try django
value sValidator
') ]
Ġan o
size Validator
Ġpack et
no vo
ide sValidator
json Validator
json util
ĠPy Torch
ID iceSyntax
ĠW omen
AL GORITH
sy nt
sy stems
unt ain
Text angleValidator
St andard
od y
read me
Ġro ugh
Wrapper Dataset
urr ences
pon g
Ġ[' __
Ġview er
bin ance
bin xValidator
bin yValidator
Ġch allenge
ra ction
Ġsub tract
Ġsub scribers
16 0000
spec ular
ep isode
ĠIn voice
ĠIn finite
MP Y
202 01
comp os
ĠK orb
ION AL
ĠCon ference
ĠCon jugate
ĠText AreaField
ĠText angleValidator
Ġarg read
func Validator
Set ting
Ġso ft
Type srcValidator
ĠAPI Exception
back up
Editor Widget
Ġ{" ^
AN TAX
Ġcan vas
depth Validator
ĠType srcValidator
Ġac cording
Ex ists
contour Validator
contour sValidator
ĠUn iversity
rie f
[: :
pet Validator
Qu ick
Ġstart ing
local interfaces
ations Per
ypo graphy
the w
ĠJ i
]] ):<
He alth
raw l
da emonize
Ð¼ ÐµÑĢ
ark et
06 7
06 11
write Int
now ball
Inter netProvider
Session Local
Ð² ÑĤÐ¾ÑĢ
App Settings
Ġcre ates
event o
event ful
axes labelsValidator
shape Validator
æķ° éĩı
Module Attribute
stack overflow
Ġclient s
labels src
201 0
ĠCo mplexity
Ġsum s
ĠStudent List
compat ibility
åħ ·
Create ableAPIResource
ĠInc re
align Validator
ĠSQL ALCHEMY
ĠInter section
Al ready
ä» ¬
ä» ĸ
Ġway s
draw io
Ġcover age
ĠTrans lation
TH RESH
her its
Me mbers
Sh ippingAddress
bound sValidator
Ġeasy fl
ĠModel State
ĠKey Bindings
ĠOn line
divid ers
dig o
pay slip
AC L
wait ing
Ġexec file
cloud pickle
ranges lider
be verage
ĠÑģ Ð¾
ĠContent Type
ĠAl uno
Color listValidator
ĠMark down
off ice
Ro cket
Ro ughnessValidator
DAT ASET
cached Renderer
ĠCh ain
ĠÐ² Ð¾Ð·
ĠQ ing
Ġevent loop
cc ident
Ġhist ogram
Min orgrid
sw av
ĠComp utes
Ð²Ðµ ÑĤ
åĽ ½
Ġfont color
mot ors
Ġeval uation
ĠSh uai
news hape
Ġmm deploy
ratio Validator
Pl us
ĠMin orgrid
fast api
pa int
46 2
dd d
Ġho lds
onnx runtime
97 5
ĠRo ughnessValidator
aj a
dj oser
AM S
export ers
éĢ ī
device type
Ð¾Ð»ÑĮ ÐºÐ¾
ĠEnvironment Context
Function Warning
Max displayedValidator
Process ing
offset group
Ġback port
20220 6
Rec aptcha
aint ainer
ĠRoom Serializer
ĠRoom View
From Start
ĠÑĥ Ð¿Ð¾ÑĢ
diff use
ĠRel ativeRiskResult
uni verse
ĠCloud Event
ĠCloud Pickler
rows izeValidator
Offset groupValidator
Down loader
aa aa
LOB PC
ÑĨÐ¸ Ñİ
Ġscal ing
alignment group
Pack er
ling Order
ĠMax displayedValidator
ĠPre conditioned
Count Validator
ĠNew Type
TRA CK
pri or
jo z
jo co
Ġsuccess fully
ambig uator
bins xValidator
ĠMock ed
Ġdiag rams
åı¯ä»¥ ä½¿çĶ¨
Spec ularValidator
Ġsay Hello
poll ing
Ġnb convert
åĳ ĺ
Position Validator
background Validator
ĠSw ish
theta Validator
ĠCompany View
å¼ķ çĶ¨
ĠSpec ularValidator
rough ness
Align Validator
Align mentgroupValidator
otation Validator
ĠSEC RET
ĠAlign Validator
ĠAlign mentgroupValidator
çĶŁæĪĲ åĻ¨
sens ors
åıĳ çĶŁ
åıĳ éĢģ
ĠFigureCanvasQT Agg
Ġsw ap
combin ations
usu arios
Reg Net
Power up
vertise ments
ĠOffset groupValidator
**************** ****************
ĠPosition Validator
'} ))<
Mon itor
Memory Clipboard
ĠSingle RoIExtractor
TRAN S
rtualenv Builtin
ACC EPT
ĠAnd reas
Ġstat istics
ĠClip board
BM I
Ġ___ /<
æıĲ ä¾Ľ
ĠRecaptcha Field
tun er
Ġpri ority
ĠSolver s
ditional KeyBindings
æ³¨ éĩĬ
appro x
Ġshop ping
Ġlos ses
pw m
ĠCount Validator
lis son
Hash er
kar ma
commun ity
neigh bour
Stand offValidator
ĠZh ang
Ġè¿Ļ éĩĮ
ĠÑĢÐ° Ð·
ĠFloat Model
amis Report
éļ Ķ
ĠDiff useValidator
å¯¹åºĶ çļĦ
Diff useValidator
Ġmag ic
aky ReLU
]+)/ $",
ĠTwo Config
ToDo List
yperclip Clipboard
Ð°ÑĢ Ð¾Ð»ÑĮ
amil a
ĠDeform Conv
ĠNotSupport edError
ĠQU ANTAX
erat ura
colormap Validator
shading Validator
Ð±Ð»Ð¸ ÐºÐ°ÑĨÐ¸Ð¸
Clo sed
macos x
egroup Validator
wee py
Ġplug gable
Ð³Ð¸ ÑģÑĤ
ĠÐ¾Ð±ÑĬ ÑıÐ²Ð»Ðµ
ç¡ ®
idkey Validator
ĠBin omTestResult
omargin Validator
Ð°Ð»Ð¸ Ð·
binsy Validator
Ġusu ario
Commun icator
Cli o
ĠPass port
Ġiv y
ĠPortfolio Config
Ġig ual
ÑıÐ´ Ð¾ÑĩÐ¸
Entre z
çĬ¶ æĢģ
Ġdead lock
CAP ES
ĠÑĤÑĢÐµ Ð±Ñĥ
ĠSING H
UpdateDestroy APIView
ĠÑĢÐµÐ·ÑĥÐ»ÑĮÑĤÐ°ÑĤ Ð¾Ð²
Ġanal ysis
ĠComponent s
ĠSummary Writer
Ell ipse
dur acao
elimin ation
issu ing
Delet ing
EXCEP TIONS
WTF DeprecationWarning
("," .
Ġ~~~~~~~~ ~~~~~~<
secut ive
inning Wheel
DETA ILS
CHED ULE
ĠStand offValidator
ĠCoup lingOrder
Decay OptimizerConstructor
giv ens
ipconfig er
FIEL DS
HSD Result
ukey HSDResult
èĮ ĥåĽ´
methe us
ĠTUSH AR
ationsPer Second
ĠÑĥÐ¿Ð¾ÑĢ ÑıÐ´Ð¾ÑĩÐ¸
LOBPC G
ĠQUANTAX IS
ĠÐ¾Ð±ÑĬÑıÐ²Ð»Ðµ Ð½Ð¸Ð¹
ĠÑĥÐ¿Ð¾ÑĢÑıÐ´Ð¾ÑĩÐ¸ Ð²Ð°Ð½Ð¸Ñı
) },<
+ ")
. '.
/ $",
3 96
7 1
7 21
: #
: ]))<
> .<
A re
B RO
B uffer
C QA
C map
C riter
D V
D a
D ONE
D ashboard
E VENT
F eb
F used
G EO
I MPORT
K ER
L ANGUAGE
M ater
M edia
M APPING
N b
N ome
N IST
O ther
O rientation
R u
R ing
S ay
S ais
T G
T W
T i
T ri
T ube
V AE
V ARCHAR
W E
\ '
] /
] '<
] [-
a ire
b ut
b ash
c allable
c df
d umb
d ados
e ff
e ak
f ar
f tp
g un
g ence
g vt
g amma
h aystack
i M
i gs
j unction
j inja
j udge
l as
m int
m ust
n v
n at
p b
p essoas
q w
r ics
r ents
s vt
u ge
u ated
u fact
v h
y en
z es
â ĳ
æ ®
ç Ī
Ġ ly
Ġ åĬł
at u
at os
on tour
on boarding
se m
se mble
in er
er tefa
me asure
ar q
de ts
de partments
de adline
ro mo
ro ber
al ty
al go
an j
an gs
st orm
ion e
id ity
ut ers
ic ulos
Ġt u
Ġd alle
ap ro
ap ython
sel l
he tic
Ġ' ).
Ġdjango cms
is son
Ġs at
Ġs imp
Ġs urface
Ġs aucer
con ta
Ġin set
Ġin spection
ac ancy
for ma
ad ne
tr if
tr ire
tr ito
Ġ. <
init y
Ġm ut
Ġm utable
ter ms
gi ve
get current
un register
ĠT ix
ĠT LS
ĠT EST
ĠT RAN
set Position
ul us
ul ations
Ġc a
Ġc e
Ġc u
Ġb ul
Ġb order
Ġb old
nt uple
ĠA CCESS
ĠA lex
ĠA tracao
ore m
=' ',<
all reduce
Ġa udit
ĠC N
ĠC or
ĠC ash
ĠC ertificate
ath ers
du ced
py flakes
po de
po tent
te en
te ira
ĠM ac
Ġ2 47
Ġcon tract
ĠN inja
Ġde mon
Ġde livery
Ġde coders
Ġis h
ĠL S
Ġv cr
Ġ- ----------------
ĠP ay
aut or
Ġto gether
Ġr gb
ve ys
Ġex pi
01 00
ĠB anner
ĠB ody
Ġon delete
Ġco lo
Ġco mplex
ĠF actor
ĠF light
ip ro
ine cr
ub an
Ġh er
Ġh alTest
Ġh dnnpy
LE R
Ġst w
log its
di ap
pre fetch
pre dicate
ĠO megaConf
ok art
sc enario
auth enticate
ĠRe altor
are house
view set
ĠU buntu
ĠU ntil
pro cessed
() ]
() ['
Ser ial
Ġpy thia
mar ca
ĠH ere
ĠH ow
ĠH yper
Ġg uild
Ġun iform
fo ot
12 1
40 6
CH ATS
point ment
ug ue
Ġth rown
Ġi magen
') ),
Re porter
format ted
AG ER
Ġmax Sub
no un
org ue
run tests
ĠW H
ĠV Packer
ĠSt ore
St at
-------- --
ient e
Ġout standing
Ð° Ð´
IN IT
Po w
Ġunder line
Ġro ute
UN et
AR N
User Manager
ĠList a
bin hood
optim izers
Client e
Ġsub scriber
pyp ro
Py charm
Py CQA
ĠIn gredient
ĠIn setPosition
pl ate
ich a
ĠK ernel
En Python
Time Field
Ð¾Ð ¿
ĠText Area
Ġso ftmax
Ġopen ed
Ġtry django
dent e
Ġen codings
ĠOp eration
Se u
VER IFY
150 95
Ñģ Ð»
RE QUEST
Run SQL
ĠDe precate
API Router
Ġac cessed
** (
ĠNot ification
ĠX XXXXXXXX
ast ian
ĠUn der
çļĦ åŃĹç¬¦ä¸²
ie dente
Ġtext o
Class Check
Un iversity
Un structured
ĠPart y
ĠPost s
ĠAd a
sche mes
strain ed
Ġmon keypatch
we ibo
server s
server less
Inter est
ĠDo g
Ġsh utdown
Ġsu it
anchor ed
Ðº Ð¾Ð¼
ĠSer ializer
Ġ25 4
Ġper formance
block ing
requ ent
ph ysics
hook impl
Ġ, '
ĠImage Comparison
ĠEn dereco
IM AG
Image Sets
ĠEx tract
ĠEx ternal
ama zon
ä» ½
tric ontour
('. ./
draw ing
ä½ Ļ
ĠSub ject
Check Type
Me m
Tr y
Ġz oo
Ġz eep
Ð¾Ð² ÐºÐ°
æľ į
Sequence Classification
è¯ Ŀ
mod al
ĠRandom Class
=[' [
ä¸ª æķ°
ĠCategory Serializer
Ġvalid ated
ĠCurrent ly
äº Ľ
ĠÐ² ÑĤÐ¾ÑĢ
ãģ Ł
Ġqu it
ĠID LE
Ġcom ma
az ure
ÑģÑĤ Ð²Ð¾
Ð°ÑĤ Ð¾ÑĢ
Conv WS
sw appable
Le akyReLU
Bot Command
åĨ į
bu ck
Open ID
Ġprogram s
uper head
pa fpn
Ġcr ash
Ġæ ¨¡
CHE MA
lex ers
rl wrap
Ġcar ro
aj m
ground Config
kit ti
æł ¹
Exp ired
trip lot
trip color
Ar duino
music ian
Ġwin try
ĠCheck Type
clean ed
offset box
pool ing
green lets
ru it
ĠClass ification
Num ClassCheck
nl p
è¿Ľ åĪ¶
Ġactual ly
diff s
Env Map
Ġsn ippets
Ġsn apshot
ĠRel ated
Ġbu y
network s
ĠAnchored Text
ĠAnchored Offset
ĠAnchored Draw
ĠAnchored Aux
ĠAnchored Zoom
ĠAnchored Ellipse
COM MIT
Ġpe mb
constr aints
Ġconnect ors
Attribute Getter
ĠReview Admin
åĲį åŃĹ
gan ization
CS RF
åĨħ åŃĺ
tri interpolate
Ġevery where
cy an
ĠQt Widgets
PO SE
Ġseg undo
ÐĿ Ð¾Ð²Ð¾ÑģÑĤÐ¸
tor rent
free ze
æķ°æį® åºĵ
MM Detection
æ¯ Ķ
contin uous
Ġreg ular
Ġstd in
èĩ ´
cp f
Over view
ffff ffff
medi an
ĠAs sessment
ĠÑį Ðº
ĠEdit or
ĠRole s
pur ple
Ġass ume
ÐµÐ¼ ÑĭÐµ
ĠBbox Patch
ĠBbox Overlaps
ĠBasic AppConfig
ĠAlign ment
Cap tion
Ġwrit es
Segmentation Class
sho ae
Mon th
operator s
hide turtle
iso Fortran
Ġfree ze
ĠReport Lab
Man ifest
èµ ·
UserProfile Info
Ġturn ed
Driver Manager
å¾Ĺ åĪ°
ĠProgress Bar
ï¼ģ ï¼ģ
writeV Int
çº¿ ç¨ĭ
NET S
remain ing
Ġnecess ary
æİĴ åºı
Ġdetect ron
ĠDraw ingArea
crit ic
ĠElastic search
ĠAnchoredSize Bar
ĠAnchoredSize Locator
ĠBboxConnector Patch
Aware Sampler
TOR CH
ĠPlay groundConfig
uda EnPython
è¨ Ģ
ĠBuild Extension
Est imator
ZMQ Stream
çľ ĭ
ĠRob er
åĪĩ çīĩ
ĠÐ¿Ñĥ Ð±Ð»Ð¸ÐºÐ°ÑĨÐ¸Ð¸
cloude vents
è¯´ æĺİ
Ġtear Down
ĠAnnotation Bbox
ĠCPP Tests
Ow l
ĠmÃ© dia
ĠÐ¼Ð¾Ð´Ðµ Ð»Ð¸
å¡ «
ĠYa M
ĠÐ´Ð°Ð½ Ð½ÑĭÑħ
consult ing
637 9
eos usdt
ĠAux TransformBox
Ġdatalo ader
è½¬åĮĸ ä¸º
Ay udaEnPython
punct uation
ĠLikes Config
Ġzo omed
triang ulation
Ġassoci ated
Ð¡ÑĤ Ð°ÑĤÑĮ
èĦ ļ
Ġoc cur
hosp ital
ALGORITH M
ĠÑĤÑĢÐµÐ±Ñĥ ÐµÐ¼ÑĭÐµ
trif inder
trire fine
trito ols
potent ial
inecr aft
ĠmaxSub Array
ĠImageComparison Failure
NumClassCheck Hook
ĠAnchoredOffset box
ĠAnchoredDraw ingArea
ĠAnchoredAux TransformBox
ĠAnchoredZoom Locator
isoFortran EnvMap
" ',
' [
- ]+
- ###",<
- ######",<
2 20
4 40
8 1000
> ``
B X
B reak
B alance
B harati
C LE
C OR
C lock
C ENT
C ifar
C KET
C isco
F N
F ake
F ront
G W
G re
G ATE
G reen
H S
H ot
H ola
I SE
J W
J WT
K A
M ace
M AT
N ext
N ECT
O G
P YPY
P hone
P ixel
P rivate
P hi
S hot
S cope
S OURCE
T M
U rls
W rap
X L
X GI
Z lib
] }")<
c as
c ision
c fehome
d w
d Model
e id
f sm
f riend
g ate
g pt
g ol
g ens
g pio
h ab
h ms
h anced
i pt
i est
i ron
i ency
j as
j et
k ad
k ai
l vl
m app
m ime
n dim
n inja
n atural
o ho
p de
p ink
r ict
r ush
s now
s Cfg
t di
t ypography
x f
x ri
x label
y o
} $
} _
² çº¿
¼ æİ¥
æ º
Ġ ign
Ġ art
Ġ arm
Ġ ä¸ĭ
Ġ vertex
ķ ãĤ
ľ èī²
Ń ä»£
or k
at al
at an
on Ray
se cs
se quential
in ct
in vest
er man
ar ator
ar ah
de ck
de grees
ro b
ro id
import er
en ed
en sit
re w
re fer
st ata
st ones
st retch
Ġp ape
Ġp ast
Ġp eso
le aky
ic ion
ic ont
Ġt ail
Ġd ates
Ġ" :
Ġ" |
Ġ" )))<
ap t
co ol
co lour
co mentarios
mo e
mo bject
def ine
ur ang
he art
Ġs il
Ġs ho
Ġs ns
ct e
op ent
con tain
Ġin file
Ġin ject
Ġin sp
Ġin voice
ad r
Ġm gadget
gi ven
get cwdu
un der
un ner
and ir
Ġn ice
Ġc ash
Ġc ategorical
Ġc ause
Ġc wd
Ġc fehome
Ġb lacklist
ĠA N
ĠA udio
ĠA valiacao
ĠS core
ĠS cale
ĠS uper
ĠS HO
ĠS park
ĠS DK
Ġname sp
Field s
ib ir
um idity
Ġfor get
all ery
00 20
00 18
Ġas ci
ce le
ce il
il ai
il dren
ĠC oin
py func
ment or
ay ud
str path
str action
end ers
ĠM er
ĠM ed
ĠM ult
ĠM issing
ho la
db g
Ġ2 80
Ġ2 45
Ġcon str
ĠN N
Ġde scrib
Ġde couple
ĠL exer
ĠL IST
Ġf requencies
com b
Ġv ote
ĠP WM
ĠP allets
Ġl inha
do or
Ġr isk
ĠR ent
ĠR aw
bo lic
ĠB S
ĠB logs
sp as
SE Loss
ol ts
Ġco s
Ġse lection
Ġse mantic
Ġse aborn
ĠF e
ine se
lat ed
lat able
Ġh it
Ġh ref
user agents
Ġst ata
ss j
ĠI SC
di us
im als
pre serves
ĠO SError
ĠG L
ĠG ateway
sc anner
bar t
ĠRe ceita
Ġ3 3
ĠU sing
Ġy e
Ġint ended
## -####
() .<
() ;<
print ing
ĠE urope
io us
---- -<
Base Codec
ag ain
ag rams
Ġg pio
Ġg ues
EN ET
~~~~ <
IT CH
ĠBase Codec
ĠBase Transport
head line
Ġpro fit
trans cribe
open images
Re trie
Ġtr ace
Ġtr unc
Ġtr ade
Ġtr ansport
Ġan t
eg round
eg mentor
Ġpre m
Ġ4 50
list ar
list box
JSON Renderer
Ġinter section
Ġdo g
ĠW ard
ĠW ait
ĠW HERE
AU DI
Ġx max
ĠV I
ĠV ar
sy mlink
ĠGener alized
Bo und
Ð° ÑĤÐµ
Ð° Ð¿
20 48
20 678
cor p
che x
==== ===<
Ġ: ")<
Pro blem
Lo w
User ViewSet
Command s
Ġview set
") ])<
Ġsc atter
Ġsc andir
ra coes
Client Error
sub module
sub tract
rf universe
ĠOr ig
ME TAD
ual ly
ĠIn stall
ĠIn stalled
ĠIn stitute
ĠK eep
ĠTick er
util ity
Ġlo catable
Ġid s
Ġnumber Of
ments Config
ĠText area
ĠText Codec
File Path
.. ')<
internal s
back ing
back space
Ġat exit
Ñģ Ð¸
Ñģ ÐºÐ¸
ĠY outube
Par am
implement ing
ĠDe let
([ ])<
ud yb
tribut ed
pr ic
pr incipal
mark ers
Ġnew line
ĠRes Company
Ġk it
[: ])<
11 5
çļĦ åħĥç´ł
ir it
ĠIN IT
ĠTest Timedelta
Ġurl parse
pk ix
extr action
ĠPost DetailView
Ġcomp uted
Ġ8 77
åı Į
fun ct
ĠSp eech
Ð¼ Ñĥ
deep fashion
Ġsh ip
row count
æķ Ī
sm tp
graph ics
0000 00
Ġ25 2
Ġ25 3
mys ock
ampl ers
Ġcre ator
dat os
PY ING
produ ces
Te mplates
UR ATION
match er
Ġdis count
Ġdis covery
ĠCo upon
ĠEx clusive
Create Serializer
conv olve
ĠSQL Model
fol lower
ä» ¤
Ġinte gr
Ġinte iro
('. '):<
Index Ops
è¿ Ńä»£
ä½ Ĩ
ertific ates
aps hots
exp s
exp ect
Date Array
Date Dtype
reg ularizer
Ġtk Font
Ġtk Color
Ġtk Common
Ġtk MessageBox
her oku
Me mo
Me ter
tom Up
Sh are
ĠIT S
Ð¾Ð² Ð°ÑĤÑĮ
æľ Ī
lst m
Ġport ions
Ġsm allest
>/ ',<
Ġpur pose
xml file
sal t
äº ¤
ĠÐ¸ Ð¼Ñı
35 658
Ġar bit
Ġfol lowed
ĠLink ed
ĠÐ´ Ð¸
ĠÐ´ Ð¾Ð±Ð°Ð²
ĠÐ´ Ð¾Ð±Ð°Ð²ÑĮÑĤÐµ
ĠSimple Dialog
char lie
Ġcom b
å° ¾
rec ent
ÑĢÐµ Ñģ
Api ViewSet
ĠComp at
ĠComp uter
è® º
Ð²Ðµ ÑģÑĤÐ¸
Ġfont s
click ed
>{ {
Ġgenerate Accept
ĠCre dit
ĠCre ating
TOKEN IZER
ĠMessage Type
ural Network
br ush
Ġexist ing
Simple XML
Update APIView
æĸĩ æľ¬
åį ģ
åį ı
Abstract Model
Ð»ÑĮ Ð½Ð¾
æİ §
Ġlength s
43 155
43 188
Mask Head
aj ar
ins ider
less Registry
Link s
ĠGroup Sampler
="" <
Ġnetwork s
ten ants
ĠDate Array
ĠDate Dtype
Exp ected
Qt Gui
ĠSo cket
Comment View
ä»¥ åıĬ
Ġ} }<
åĿ Ĳ
sv cb
ATT R
ATT RI
Ġag greg
ĠContact Config
voice chat
ĠClass AwareSampler
orp his
Ġback track
ĠTk constants
ĠTk dnd
ĠDistributed GroupSampler
Ent ity
ĠPar ams
)* (
Ġportfolio file
ç§ Ĵ
Ġcl one
ÐŁ Ð°ÑĢÐ¾Ð»ÑĮ
ĠServer lessRegistry
Only Cell
UL D
descript or
Ġpredict ed
åŃĹç¬¦ä¸² çļĦ
Ġcap tion
Ġmeta grad
pic lient
feed s
cy cle
------ -
percent age
datalo aders
ba id
ÑĪ Ð¸
å· ®
Source Code
TRA CE
pri ority
ring Error
ĠNews Config
ĠThread PoolExecutor
ĠWh ere
Main Window
Ð¿Ð¸Ñģ Ð°
OUR CES
gist ers
visual ization
cont ador
ĠFunction s
ffff ff
ĠCH ART
mem map
ĠÐ²Ñĭ Ð¿Ð¾Ð»
pair s
Ġent ier
Upload Model
DO WN
FE AT
é¡ µ
ĠBinary Zlib
Ġclean up
sens or
sens itive
ĠDep loy
Ġ85 500
lif e
airseq Dataset
åįķ è¯į
Ġpys nowball
>################################# ################
dl ina
ĠSent inel
Last Edit
bro ker
Ġaccept ed
(", ")<
Distributed GroupSampler
-## -##",<
Emp resa
hy dra
ĠStandard Error
Ð¾Ð· Ð´Ð°
monitor ing
pow ers
Prefix Rule
gu ide
fail ure
Kernel Manager
sentence piece
follow ers
incip le
Convert App
ĠRef Space
scre va
Ġscrap ed
Ġsur name
Cl asses
Lon gest
Arch itecture
jk l
padding Validator
fire base
ANN EL
tls abase
exper iments
ĠSte p
lik ed
USD T
Ġ=[ <
ĠTestF req
matr iz
1101 8
RPC Server
TV C
bet ween
Ġxmlrpc server
fork server
èĭ ±
Attachment View
>### <
Ġcho ose
ĠScrolled Text
Damping Component
fty One
icult ure
btc usdt
Ġsing ly
ĠSC Net
ĠLimit ed
Background Picture
Cho oser
Ġcp f
ĠMemory Storage
Rob ot
ĠCL ASSES
AGENT A
lectron ic
Ġconverter s
ENVIRON MENT
ĠVoice Chat
Cover age
xim ity
SIG NING
ocab Parallel
Af ter
[^ @
trident net
Sem Lock
ĠSubuser Client
ĠSTR ING
ĠDns python
ä½ľçĶ¨ åŁŁ
Ġcores chema
adem ia
201912 02
Ġrough ly
ĠMocked Response
Nb ConvertApp
Ġsaucer man
Pycharm Projects
IMAG ENET
æľį åĬ¡
Arduino Rocket
èĦļ æľ¬
icont ains
ĠSHO ULD
Ġnamesp aced
ayud apython
METAD ATA
ĠDelet ableAPIResource
udyb ud
ĠTestTimedelta IndexOps
Ġ877 50
ĠExclusive Union
ĠtkColor Chooser
ĠtkCommon Dialog
ĠgenerateAccept Header
SimpleXML RPCServer
svcb base
ĠBinaryZlib File
! !")<
( %
) ],<
, [
3 49
5 32
9 09
? ",
A ct
B order
C ine
C amp
C rop
C sv
D y
D on
D an
E K
F u
F ONT
G reedyBear
H ide
H TC
I OM
M D
M argin
M irrorValidator
M aintainer
O INT
Q P
R aw
S up
S chedule
S howspikesValidator
T K
T re
T ER
T rade
T alk
U V
V A
V iz
W IN
W ITH
X periodalignmentValidator
Z one
Z ONE
_ ,<
_ )<
_ ())<
a ver
b ed
b ors
c gi
c idade
d ad
e ad
e qu
e kt
f on
f light
g ent
h p
h an
h avi
h ido
i Config
k atharopoulos
l gmres
m mpose
n or
n uevo
o ise
o cean
p Django
p rix
p essoa
s ot
s df
t wist
t anh
u at
v ault
v ada
v ino
w en
x i
} {
ç Ħ
é ª
Ġ rcnn
Ġ ä¸Ĭ
ľ ç´¢
or ia
at srcValidator
at ual
on ce
se ase
se meter
in icio
in verted
de sp
de compile
de velop
al arm
__ _
en a
en gth
ame se
Ġp anel
Ġp tls
it ional
lo gistic
id na
ls mr
ls qr
Ġt im
Ġt weet
Ġd l
Ġd y
Ġd ue
ang o
fi o
fi p
fi rd
Ġ" ..
", '
co lo
co ast
mo mmy
ur u
Ġre gistr
Ġs r
Ġs ong
app ointment
con ds
con fidence
Ġin herit
Ġin stagram
ac ron
ad ob
tr as
tr igger
tr acing
ing Config
Ġm il
edit em
ĠT ex
ĠT ri
ĠT utorial
ĠT weet
and box
ul li
Ġn th
Ġc ame
Ġb p
Ġb its
Ġb mi
Ġb ubble
vi m
ĠS R
ĠS S
ĠS ync
ĠS creen
ĠS chedule
ĠS kill
ĠS howspikesValidator
Con stant
int o
(' *
application s
ist as
=' '<
all ticks
00 16
Ġget Logger
igr ated
py bo
min res
to ggle
te in
ĠM L
ĠM P
ĠM ore
ĠM anagement
ĠM ao
ĠM irrorValidator
Ġw heels
ĠD ice
ĠD irection
db o
form set
Ġ2 46
Ġcon firm
(_ ("
ĠN i
Ġde veloper
ĠL ANGUAGE
ĠL iked
Ġf s
Ġf lows
Ġv env
pp l
pp ing
ĠP A
ĠP ty
ĠP ickle
ĠP ress
ĠP YPY
ĠP urchase
Ġ( {
Ġ( ('
Ġl is
Ġl ives
Ġl angs
ĠR ate
Ġex ceed
ĠB O
ĠB us
ĠB ecause
sp ikes
SE NT
Ġse curity
ub untu
Ġh ero
ss ql
qu a
qu ick
ĠI ns
ĠI nd
ĠI diap
pre co
mail box
ĠO DE
ĠO kta
ĠG reedyBear
test app
test client
sc ape
ĠRe ader
ĠRe servation
ĠU su
ure Path
ke ypoint
OD Y
## #<
pro va
ĠNO NE
ANG ED
auto commit
Ġe mit
Ġe fficient
Ġe mails
ĠE mployees
io f
io Select
Base Dataset
ag rad
ĠH R
Ġg ray
calc ulation
ange los
Ġun pack
Ġun install
Ġun real
Ġno cover
gr test
DE P
In d
In ference
In stalled
IC K
IC lient
ĠBase Response
ĠBase Dataset
CH ANNEL
CH ANGED
Ġpro cesses
Ġth umbnail
open api
open vino
') ):<
Re ceiver
eg gs
Ġ4 1
': ['
no ulli
Ġut ls
Ġinter ger
Ġlog its
ĠPy T
ĠW atch
ĠW ater
Ġapp ro
val ia
ĠV ault
ĠV olt
ĠV ertex
32 000
Ġ% =
Bo unded
St op
-------- ------<
Ġab ort
Ġout side
Ð° ÑĪ
IN FIXES
od der
20 5
cor r
Test Runner
che ese
Ġ: -
ĠUser View
ĠUser Dict
post al
Ġ[' *
Ġbase s
List Field
Ġch alic
group gap
]) **
sub string
sub domain
order item
Pre tty
client es
vo w
ĠOr m
col hido
ĠIn ventory
cap e
ĠK E
ĠK atharopoulos
ile d
ĠPo se
ĠDE LETE
Ġread me
Sp ikes
Ġle ave
Ġsp in
Ġen crypt
Ġen crypted
ĠLo c
over ride
cre st
tes seract
ĠDe v
'] ]
Sub ject
Ġne igh
mark eting
Ex cept
** *
ĠURL Conf
======== ===<
ĠNot Be
ĠX periodalignmentValidator
ther net
Ġtop ic
su c
Ġk a
ĠUn agiTransform
49 609
ĠDist OptimizerHook
Co mplex
Ġstart up
13 44
ĠNotImplement ed
Un known
Un agiTransform
ĠPost Config
ĠPost Detail
ĠAd am
17 038
Ġcomp ress
fun k
Ġmon itor
ail ability
Token ObtainPairView
ative Method
Ġsen ha
Ġrandom stuff
PY TZ
Col lator
Ġhome PageView
48 5
ĠEx change
Ġmy list
36 8
ï¼Į <
Ġ". ./
Ġpl ain
Ġpl aces
Ġpl aced
amb ah
Ġtrain ed
Ġcount down
Post Form
dis k
exp ire
Ñĭ Ñħ
Ġhttp x
Head s
go v
ĠBack ground
Ġans wers
eric a
bound aries
åŃ ¦
Object Mixin
Ġz eros
ĠÐ¿ ÑĢÐ°
ĠÐ¿ Ð¾Ð´
ĠÐ¿ ÑĢÐ¾Ð³ÑĢÐ°Ð¼
ĠAr my
ref s
orn ing
Comp liance
Ġval e
ĠApp User
ĠSession Local
ç» §
ĠTr ansport
ĠClient es
game s
ĠAl low
Ð¾Ð» Ð°
IAL S
off line
CUR SOR
ĠOrder Serializer
Ġdeploy er
Def ine
hone ynet
sa as
Ġqu adrad
ĠTask Serializer
ĠAn ime
velop es
ĠMy Model
ĠMy Executor
MEDI UM
å¤ ´
Ġsy mlink
sn ake
sn apshot
ĠÐº Ð¾ÑĢ
Min er
tensor board
serv icios
67 6
Node s
By tes
ĠHome Page
ront ab
Ð¾ÑĢ Ð¼Ð°
ĠÐ½ Ð¾Ð²
ĠWeb socket
On R
br ity
emp resa
gc rotmk
Ġgraph s
Ġmark up
Ġcalc ule
2019 1101
ti enda
Book ing
less ons
Ġdj webdapp
ĠWor ker
58 5
58 7
assign ment
counter ed
ĠÑĩ ÑĤÐ¾
sq rfunc
att n
ĠPer missions
edu cation
glob s
Can cel
Can onical
ĠPerson a
åı¯ èĥ½
ĠBe verage
Num ero
77 462
lon axis
ä½ľ ä¸º
mult il
multip ly
multip lication
lin er
Connection Error
æ¨¡ åŀĭ
Ġcl imb
Ġcl asse
ĠInteger Range
Ġpe apy
ĠST ART
ĠYou Tube
shows pikes
Offset Pagination
Ġcap tcha
predict or
quant ize
Ext end
Ġenter ed
vari ant
å± Ĥ
Ġim c
Ġim mediate
Ġbenchmark ing
respon ce
program s
OUT PUT
otor Client
]= ="
Ġurls hort
TIME OUT
nchron ous
Content s
æı ıè¿°
Ġyap env
å®ŀ ä¾ĭ
esh op
Ġmock er
REGI STR
ae iou
pend ing
Ġmost re
Ġhand les
>* @
ĉĉĉĉ ĉĉĉĉ
Ġvo xel
xperiod alignment
è´ Ŀ
è¯Ń è¨Ģ
æĭ ¼æİ¥
Ġnd iter
relation ship
ÑĢÐ¾Ð² ÐºÐ°
bul b
bul k
osp ital
Feed back
Port AccessRestricted
Part ner
ĠMA KE
èĩª å®ļä¹ī
åŃĲ è¿Ľç¨ĭ
GO OD
Valid Dummy
Ġcard s
Print ObjectMixin
æľº åĪ¶
ĠContext Var
Ġbutton s
Ġcorrespon ding
("" .
vol atility
ĠFla g
ĠSpi kes
ĠPassword ResetTokenGenerator
Ġaccept s
CONT EXT
Cal led
Labels Validator
Labels srcValidator
gb m
Ġfin ished
Ġmi les
æŃ£ åľ¨
Bin arizer
Ð¸Ð¼ Ð²
crete Model
HO ME
lick r
ĠMOD EL
Ġdivis ors
ĠLabels Validator
ĠLabels srcValidator
Ġsan it
expi ry
Sta mp
æ³¨ æĦı
Zeroline Validator
Zeroline colorValidator
Zeroline widthValidator
ĠZeroline Validator
ĠZeroline colorValidator
ĠZeroline widthValidator
zeroline color
zeroline width
Place holder
ya hoo
ĠMatch er
Ġcons idered
ĠInit ialize
æĽ ²çº¿
åĬŁ èĥ½
åģ ļ
éģ įåİĨ
Ġflat ten
spike color
spike thickness
ĠGit Hub
ĠSeg mentation
ĠÐµ ÑģÐ»Ð¸
ĠÐ¿ÐµÑĢÐµ Ð¼ÐµÐ½
ĠSymbol Validator
confirm ation
Av ailable
Height Validator
Ġpyp lot
Ġocc urs
ĠCLI ENT
ĠFol low
Allow Any
å®Į æĪĲ
Spike colorValidator
Spike thicknessValidator
ãĥ¼ ãĤ
ĠSpike colorValidator
ĠSpike thicknessValidator
Oper ator
Pad Validator
lata xis
åĳ½ åĲį
Fol der
attrib ution
desk top
Ġru les
Ġperm ute
Symbol Validator
Ġgeo hash
ç»´ æķ°ç»Ħ
ç¬¬ä¸Ģä¸ª åıĤæķ°
Ġcriter ion
ĠPad Validator
ĠAP IClient
Rew ard
Ġstick er
Ġrename d
tagg editem
pod cast
ĠHandler View
GRule PortAccessRestricted
ĠShar ed
Masked LM
ĠUserRegister Form
ÑĥÑĩ Ð°Ð¹
ĠIsOwner OrReadOnly
OPTIM IZER
é¥ °
ĠHeight Validator
ĠREQUI RED
dustr ial
Coco Dataset
ĠOpenIdConnect Auth
Modulated DeformRoIPoolPack
æ¸¸ æłĩ
Publish er
ĠPRE FIX
whit elist
ĠAnge los
éĤ£ ä¹Ī
745 49609
declar ation
shufflenet v
Barn on
ĠCur so
ĠJi ayuan
neighbour hood
IMPORT ED
Sais ir
iM erica
rober ta
Ġaudit oria
ĠYaM Db
GATE WAY
Ġä¸ĭ åįĪ
Ġasci i
ĠOrig inal
Ġarbit rary
åĿĲ æłĩ
powers hell
IOM otorClient
fird n
adob e
valia coes
Bounded IoULoss
Ġchalic elib
ĠNotBe Barnon
17038 77462
74549609 2
" ...")
' %
' *
) ###
) $',
* ]
1 16
5 18
6 29
> """,<
? ",<
A mp
A ss
A ccident
B er
B LOG
B TC
C y
C AR
C rie
C ities
C ALL
C SS
C ircle
C PU
D ump
D ICE
E m
F ON
F IN
F ee
G ive
G uess
H AND
H ybrid
I nc
I mpl
K W
K i
L ec
M K
M ed
M icrosoft
M ORE
M achine
M AGENTA
N d
O wn
O WN
O cean
P or
P OL
P anoptic
R atio
S ale
S vg
S snProvider
S CHEDULE
T Y
T ok
T ERS
U ER
U FUNC
V N
V ITE
V isibleDeprecationWarning
` {
a cl
a os
c data
d riving
f th
f und
f leet
f lops
g ins
g uitar
h id
h ai
h ints
h uman
h yper
h ybrid
k in
l ies
m init
m im
m grid
m vt
n m
n ft
n Enter
n dbm
o ct
o grid
p v
p iz
p list
q web
r k
r type
r um
s dist
t ornado
u ke
v ictor
w i
w ell
z os
z lib
{ {
£ Ģ
¦ ĸ
« ĺ
· è´Ŀ
Ð łÐµÐ·ÑĥÐ»ÑĮÑĤÐ°ÑĤ
æ »
æ Ĥ¨
é ©
Ġ ort
Ġ ,<
Ġ et
Ġ ),
Ġ 69
Ġ åĴĮ
or i
or ge
at able
se ason
se mi
se crets
in stan
er as
me tal
mp ot
ar range
ort oise
ro sal
al ice
al uguel
en queue
ame n
an c
re ls
re ce
re writer
re servation
Ġp our
le ge
Ġt p
Ġt v
Ġt ush
ang a
ed BatchSampler
", )}<
ap on
def s
cl asse
he matic
kw ds
is olve
Ġre views
Ġre play
Ġs i
Ġs ingleton
Ġs cheduled
op qrst
Ġ* "
con tr
(" ----------------
(" ../
ac ular
ex ion
for me
tr on
tr ading
Ġ. ./
es cola
Ġm u
Ġm ile
Ġm ao
Ġm icro
Ġself drive
get Routes
ab ys
un ity
Ġ[ {"
Fi ve
ĠT INY
ser ialized
Ġn ap
Ġn om
Ġc gi
Ġc ron
Ġc amp
Ġb all
Ġb ise
Ġb rand
Ġb ench
Ġb lah
ĠA ssign
ĠS m
ĠS ection
ĠS ide
ĠS heet
Con struct
int p
int ensity
ack ie
ch amb
ist a
Ġa ffect
ĠC K
ĠC lo
ĠC amp
ĠC ars
ĠC ategories
ĠC nnPolicy
py toolconfig
if rame
ay a
te mber
ĠM anage
ĠD ialect
ĠD DLE
res olved
ho c
Ġ2 49
Ġ2 48
Ġcon junction
GI T
GI NT
Ġde lay
ĠL ec
Ġv als
ĠP op
ĠP ri
ĠP ATH
Ġ1 80
Ġl inter
tp ack
Ġr v
ve iculos
ĠR ound
01 0
bo y
ĠB er
ĠB abel
ĠB olt
ĠB ayes
sp ider
Ġco der
Ġco mple
Ġse x
ĠF on
ĠF in
ĠF ull
ĠF IND
ĠF ernet
cept ive
Ġh ence
user info
LE EW
Ġst orm
log ical
ĠI tems
di ac
di vide
di sease
Error s
om aly
pre mi
pre loaded
ĠO b
ĠO ff
Ġsys info
load ers
us hes
02 2100
Ġconfig obj
Ġconfig Logger
ĠRe vision
nc at
OR CH
art z
() -
Ġ'. .
li u
li ao
code d
MOD IF
ĠE l
ĠE NUM
Ġpy toolconfig
Ġpy rfuniverse
Base Creator
It s
ag ue
ĠH ol
ĠH ours
Ġun iversity
length s
Ġno inspection
12 4
add option
gr iculture
ne ural
IT IC
In List
In voice
ES CAPES
api Config
ĠBase Creator
trans ition
config Logger
PI N
Re cognizer
Ġtr ick
Ġan not
vis ors
sh elve
list ed
YP ES
De velopment
ide s
Ġlog o
Ġnum er
ust ers
ECK S
Ġx b
ĠV iz
ENSE POSE
tro s
Res ize
Ġdist ribut
-------- <
SQL Alchemy
Ġab spath
IN PUT
od a
Test Data
ĠUser String
Pro files
post a
Int ensity
Ġme s
Ġme mber
my blog
Ġfunction ing
ff tpack
List a
Ġpar es
ra v
Ġsub package
~~~~~~~~ ~~~~<
10 9
Ð¸ ÑĪ
Py Tool
ens ive
Ġal ive
Ġal phabet
ep s
vent ion
ME TRY
ree k
ĠIn sert
ĠIn spect
ĠIn vertedResidual
pl ainer
En coding
UT ER
Time Delta
ĠCon firm
(* (
ÑĢ Ð¾Ñģ
Ġform al
ant Type
Ġj s
Ġj inja
Ġ5 4
Ġ5 8
Ġso lo
ill er
ill ion
Ġle af
Ġle ak
Ġle fts
ak t
Ġen abled
DI A
Se mantic
not icias
ĠLo op
ĠLo wer
short t
Ġnorm alized
Ġgi ves
ĠY orum
RE F
RE WR
Ġchar ge
Ġchar set
fa hr
book app
'] =
#! "
lr aspp
pr act
Ð½ Ðµ
cn x
Ġne ural
lock ed
07 721
Ð» Ñİ
Ġjson lines
Ġk nox
ĠUn it
ĠUn iversalKey
ir an
KEY S
ĠIN VITE
04 00
ie more
SER T
lob by
Ġbuild s
Ġfilter set
Un iform
Un iversalKey
Ġ6 7
15 9
Ġob servation
URL s
iv os
Ġcomp uter
Ġtrans lator
prec io
pass wd
Request Handler
ail mail
Token BlacklistConfig
21 9
Ġ25 1
Ñĥ Ð¿
ow l
Ġaut ors
PY VAL
ĠAuth ors
Module DeprecationWarning
Dist OptimizerHook
Dist EvalHook
Id Field
UR N
Up sample
cto x
ĠStudent ViewSet
dev d
sent inel
ĠFile Response
ĠFile Dialog
ĠToken BlacklistConfig
ĠInter net
Ġ". ",
Ġneed le
aug mentation
au gs
mer lin
mer chant
'. '+
Ġhttp lib
Ġ12 80
Ġreferenc ed
Ġjust in
Trans lator
Ġfunc ao
Ġval ores
seg m
å® ¢
imit ive
ĠBlog ListView
ĠBlog DetailView
ĠFlat Page
ĠÑģ Ðµ
ĠÑģ Ð¾Ð·Ð´Ð°
ĠMe etup
ĠMe alieModel
ĠContent TooShortError
istr y
Orig in
Ġdir s
Def inition
Quest ions
ĠTime out
ĠTime FromTicks
temp erature
35 85
san a
ĠAn iemore
Ġfl ash
Ġfl wr
Ġproduct Except
Ġ// =
Event Target
sn ack
sn apshots
Le arn
ä¹ ĺ
Char Filter
ĠWeb Application
ĠColor bar
Fix Xrange
åĨ µ
ĠCre ationForm
driver s
Ġlib s
PL ACE
pen Color
ci ses
cos ine
thread ing
ĠAbstract BaseUser
QU ANT
sec fpn
ÑĢÐ¾Ð ±
LI S
Ġfi zzbuzz
2019 02
dd pg
ĠRun time
Di ag
Alchemy Base
black matrix
Iter ator
Iter ation
33 06
Ġcar dbo
Ġtf lite
PRO TECT
PRO VID
Ġaccount ant
Ġdj oser
DS N
kit ap
="" ):<
ĠDate FromTicks
Ġtrack er
play lists
éĢ Ģ
Extr act
Ġrec acher
ĠFix Xrange
att ack
neck s
Ġembed ded
Ġ### -####",<
middle wares
crud project
eq n
Ġtensor board
ĠExp ense
ç½ ĳ
ĠContact Admin
ĠJSON Response
20220 8
Rec ords
ÐºÐ° Ð·
dot a
Todo APIView
mult iline
ĠHello World
æİ¥ æĶ¶
Password ResetTokenGenerator
pal indrome
With Import
AlterModel Table
ĠCar ro
ç® Ģ
Ð³ Ð°
restrict ion
Engine Strategy
Import s
public ada
ĠServer Error
mn opqrst
æŃ ¢
ĠÐ½Ð° ÑģÑĤÑĢÐ¾Ð¹
Ġprev Min
Ġdat atype
expr s
Ġevery one
Framework s
Ġnote books
ĠÑĤ Ð°
ĠÑĤ Ð°Ðº
Ġrepr s
cy toolz
Ġsym metric
ĠQu ick
éĻ Ĳ
ÐĿ Ð°
è§ Ĵ
ĠMax imum
ĠGeneric Client
"^ (?
BACK SLASH
mock ed
ĠMon itor
ĠAbout View
Ð¾Ð¼ ÐµÑĢ
fact ors
ĠTimestamp FromTicks
ĠÐ·Ð° Ð³
Fla gs
Ġerr no
ĠMock EngineStrategy
ĠImport s
hub ert
ĠConnection Events
ĠConnection Tcp
sur veys
linked in
fav icon
fd v
tra vel
Ġtimestamp s
own ers
å¿ Ĺ
qr code
ÃŃ a
DA O
éĥ ĳ
Init ial
Init ialize
ĠCH AT
Ġvo cal
æĭ ·è´Ŀ
[... ]
prob ably
tw itch
dns log
ĠSchema EventTarget
publish er
ä¹ĭ åĲİ
ä¹ĭ åīį
recv from
converter s
road map
9999 9999
æīĵ å¼Ģ
Scattering Entry
AUTO COMMIT
LONG LONG
tre as
ĠDown loading
Sw ish
Ġtick et
ĠPort al
Memory Storage
Ġ327 67
Mod al
CM D
é»ĺè®¤ åĢ¼
ĠMOD ULE
landing pagewebsite
Ġsan ic
Too Hard
ĠPrompt ToolkitSSH
LAY OUT
SY MBOL
144 29
Kernel Client
ĠRGBAxes Base
Cook ies
expand user
ĠSu ite
éĹŃ åĮħ
éķ¿ åº¦
Ġpop ulate
Non UploadModel
scre enshot
ĠEngine er
bre ast
ji ayuan
åºıåĪĹ åĮĸ
ä¸ī ä¸ª
Ġsuffix es
Ġblogs ley
ĠRO OT
ĠInline KeyboardMarkup
Ġtel net
Ġhor se
å¢ ŀ
fox mail
ç¼ĸ åĨĻ
lane ous
Ġ%} .',<
Sn ack
Val or
ĠBBBBBBBBB BBBBBBBB
scrap e
ENCOD ING
NEW DATE
NEW DECIMAL
RGBAxes Base
ĠTw itter
ĠMigrate Command
ICATION S
$$$$ $$$$
ĠRichTextUploading FormField
BS MessageReader
dialect s
Ġbasics r
Ġru amel
ĠKit ap
ĠPool Events
ĠEncoder Decoder
persist ence
ĠWheel Distribution
Timeout Error
DRO P
DRO PPED
mang a
ÐµÑĢÐ¸ Ð°Ð»Ð¸Ð·
sock s
è¿Ĳç®Ĺ ç¬¦
ongs hu
Root S
ĲâķĲâķĲâķĲâķ ĲâķĲâķĲâķĲâķ
Ġfac ility
Ġlanding pagewebsite
ĠÑĦÐ°Ð¹ Ð»
Ð¢ Ðµ
Ġ39 07721
ĠlengthOf LIS
æĥħ åĨµ
Prompt ToolkitSSH
Ġsherlock liao
Ġmatr iz
Fl ushes
ĠMag ic
BD SDK
ĠACT IVE
Ġvow els
Ġham crest
iaom ing
ĠÑĨÐ¸ÑĦ ÑĢ
ĠCle an
assess ment
ĠÑģÐ»Ð¾Ð² Ð¾
Rank Warning
medic ine
moco v
ĠAudit Dto
Ð¾Ð±ÑĢÐ° Ð¶
ISS UER
Configure d
PIPEL INES
Ke ys
elic ulas
Ġdelt as
è§Ħ åĪĻ
abcdefghi jkl
èµĭ åĢ¼
ypher text
Ġhierarch y
untain Car
ddd cb
396 75
GEO METRY
æ® µ
pode ezer
Ġish ga
VERIFY ING
Ġæ¨¡ åĿĹ
JW K
ĠBS MessageReader
AUDI ENCE
ĠInstalled Distribution
æİ§ åĪ¶
orphis m
baid u
ĠLiked Item
ppl nn
Complex Warning
REGISTR ATION
rosal ind
Ġmao jiayuan
abys isters
ackie Control
ĠDialect Events
ĠDDLE vents
LEEW AY
MODIF ICATIONS
Ġdistribut ing
REWR ITER
PYVAL S
ĠproductExcept Self
Ġcardbo ard
mnopqrst uv
TooHard Error
ÐµÑĢÐ¸Ð°Ð»Ð¸Ð· Ð°ÑĤÐ¾ÑĢ
abcdefghijkl mnopqrstuv
! /
" --
" (?
% %
' })
) ',<
) })<
) },
, ))<
/ ([
3 01
; ",
= '<
> ',<
> ****
A udit
A mazon
B raintreeError
B elgium
C ls
C UDA
C ipher
D im
D ND
E s
E le
E lastic
F etch
F WD
F ashion
G lifLibError
G LIF
H F
H K
H EL
H armonic
I r
I GN
J ump
K eep
L u
L anguages
L esson
L ICATION
M g
M ER
M IC
M AR
M igrate
M ASK
N X
N ODE
O pp
O dd
O FF
O OLS
P F
P W
P op
P ing
P latform
Q I
Q R
R ESS
R ound
R PN
S ys
S ell
S igmoid
S CHEMA
S podeezer
T utorial
T CHA
V Metrics
W ild
[ ]
] \
] }'<
b i
b sl
b src
b idden
b ilibili
c io
c entr
d ct
d set
d ress
d gl
d lc
d ko
d within
e ing
e ffects
f lock
g z
g pl
g allery
h d
h ed
h po
h mt
i ap
i vid
j b
k ak
k lass
k afka
l ding
l Lib
m v
m sp
m gr
n ar
n ablapps
o que
o ols
p q
p or
p ast
p ictures
q p
r ation
r src
r shift
s b
s ir
s hot
s potify
s quared
t an
u f
u ar
u ster
u om
v he
w c
w an
w id
w ns
w heels
x d
y eb
z as
z ones
} -{
Ð §
å Ķ
ç ²
è ģ
Ġ ],
Ġ hoverlabel
Ġ })
Ġ ä¸į
Ġ åĪĨ
Ģ ä¹Ī
or l
or che
se mb
er arch
me ans
al an
al ls
al hes
al uno
import ant
__ ':
en om
en im
en sions
en roll
an ho
re gistr
re search
re presentation
Ġp db
it acion
from hex
le on
le tes
id f
id ly
"" )<
Ġt en
Ġt ink
Ġd c
Ġd ag
Ġd ice
ang les
ed y
ap roject
co w
co ffee
co olsite
mo vi
mo use
mo dulo
cl ist
cl one
cl ide
ent a
ur are
sel enium
he e
he iro
kw ise
Ġ' /'
class ify
is y
Ġre moves
Ġre veal
Ġre lu
Ġre cursion
Ġre ceptive
Ġs ig
Ġs ms
Ġs ob
Ġs sn
Ġs queeze
op bd
app tz
ig ence
(" !
Ġin strument
Ġin crease
Ġdef ining
ing Name
Ġm t
Ġm utation
ter ance
get root
get All
un link
ĠT ax
ĠT HE
ĠT arefa
Ġn ear
Ġn ama
Ġc Pickle
Ġb lueprint
nt e
th umb
ĠA ir
vi ation
Con sole
ib ilities
um bo
=' ')
il t
il io
il men
ĠC ase
ĠC hr
ĠC FF
py mysql
py shell
min d
min ha
to tur
str awberry
po ster
po duct
te or
te enth
ĠM IN
ĠM etadata
ĠD y
db api
ata forma
Ġcon fi
Ġcon structor
Ġfrom XML
ĠN ested
Ġde no
Ġde dent
Ġde leg
ĠL OC
rc Params
Ġf d
Ġf o
Ġf lex
Ġf uel
Ġf requency
Ġv ot
Ġv endor
Ġv gg
ĠP OP
ĠP atient
ĠP odcast
Ġto XML
Ġl ing
Ġl ive
Ġl unch
Ġl ikes
Ġl cm
ot ed
ot ential
ot lLib
do ct
do ck
Ġr ay
Ġr am
Ġr nk
ĠR Pi
ĠR ainbow
ĠR apptz
bo m
ĠB io
ĠB raintreeError
ĠB olts
sp r
Ġco ol
Ġco mplain
Ġco olsite
Ġse crets
ĠF our
log gers
qu ari
ĠI I
par ts
der iv
url join
url encode
pre ds
ĠG ET
ĠG lifLibError
put e
us d
02 23
ans w
ializ able
ĠRe cord
Ġ{ :
ta ine
ĠU I
ĠU FO
ĠU Net
ĠU rls
ĠU tility
TT ERS
TT OOLS
ER LINE
Ġy t
ri ma
Ġ'. .'<
Ġ'. .'
Ġdep ending
rapp ing
Ġe quival
ĠE mbed
max i
Ġpy zmq
Ġpy tgcalls
Base string
ag o
ag r
ĠH ub
ĠH armonic
Ġg l
Ġg rpc
_/ \
ts b
ts v
Ġun link
gr and
ne e
DE LAY
In finite
lib r
ker x
ind romo
font tools
ĠBase BBoxCoder
ĠBase UserManager
ĠSe p
CH ANGE
Ġpro tect
Ġ` {
View er
}< /
Ġmin ib
Ġi a
') },<
Str uct
vis it
eg ative
Ġpre tty
sh util
Ġser ialization
JSON Encoder
Ġ| \
Ġut ime
Ġinter ested
Ġinter sect
Ġlog uru
ĠPy lint
Form ation
Ġx or
Ġclass ification
af dko
ĠÐ Ŀ
Ġ7 5
ĠSt d
token ization
token izers
Ġmain ly
Ġout ro
Ð° ÐµÑĤ
Po ly
20 8
20 9
read ing
read able
==== ==
Pro b
Pro f
Pro duction
filter ed
UN PACK
Int Enum
Ġme eting
index es
index table
User bot
pon totur
List Item
Ġsc enario
AS SET
optim ization
Ġpar agraph
Pre processor
Ġrender ing
DEBUG GING
ich r
ĠPro blem
ĠK nown
prefix ed
En tr
ob s
ĠCon cat
ĠCon vert
ĠCon verter
ĠCon straint
ĠCon tinuous
Ġdi gest
ä¸ »
Set up
Set uptools
ĠPo lygonMasks
Ġ5 6
27 8
Sp rite
Ġcode author
Ġle ct
det ected
Ġen coder
Ġen glish
ĠLo gistic
ates Group
fa ker
'] }
'] ].
oin crement
API ViewSet
Ġte ch
Ex change
ĠRes net
ĠUn ix
ĠUn ique
11 9
49 6
Ġdebug msg
side Bear
ĠTest ing
ĠTest Models
Cre dential
ĠGe cko
SER V
task Name
Ġ6 08
VI EW
ĠJ ava
fe male
ell ite
Ġcomp il
Ġtrans ition
Ġtrans former
Ġtrans bank
ĠTh u
Do g
fun ding
Ð¼ Ñĭ
ank r
Ch ain
Ch annels
write cdata
Inter section
Ð² ÑĢÐ°
Ġany way
RO T
ET H
Ġobj eto
dat as
Ġaut oincrement
Ġper cent
block chain
ĠDis ambiguator
ĠProduct Image
UR A
UR ES
ĠImage Field
Ġdis ambiguate
ĠEn countered
Ġhelp ful
lc d
lc m
dev net
ĠHTTP S
ĠHTTP Error
ĠHTTP Status
Hover label
ĠHover label
36 5
ĠFile Storage
ä» Ģä¹Ī
INE D
var Lib
NOT ION
can cer
cur so
Ġmanag ers
Post Detail
dis covery
cel laneous
Hello Message
sk irt
part itions
ĠBook Form
ĠTrans bankError
ĠDefault Table
ĠâĢ ľ
ATION S
APP LICATION
go o
go ing
Storage Mixins
Ġ... ]
ÑĢÐ° ÑĨÐ¸Ð¸
Ġflask site
ĠÐ¿ Ð¾ÑĢ
ĠÐ¿ Ð¾Ð»Ñı
ĠData Stream
bl end
Ġretrie ve
Detail APIView
pay roll
åĩ Ĩ
Ġup loaded
ç» ĥ
bad ge
Lib Location
ĠMe mo
Th ree
ĠAl ready
Ð¾Ð» Ð¸ÑĩÐµ
ĠOrder Admin
ĠOrder ViewSet
Ġmap reduce
~~~~~~~~~~~~~~~~ <
ĠTime Stamp
Ġnode s
Administr ator
found ation
ĠÐ² Ð²Ð¾Ð´
ãģ Į
ãģ ĵ
Ġar c
Ġqu otes
rep lic
cc urrences
ĠÐ´ Ð²Ð°
45 5
aml Handler
sn acks
interval s
Ġprevent s
Box Layout
Conn ected
sw agger
IO Error
rec ht
tt Font
tt Collection
Web socket
Ġsign up
ĠWeb Config
ĠSh ippingAddress
éĩ ĩ
ĠCre ates
patch ed
dr um
dr ag
render ing
Mo zilla
Ġcur Max
Student List
riv acy
gc id
Ġæ ³
Ġsal Ã¡rio
ä¸į ä¼ļ
ä¸į åŃĺåľ¨
phone tic
Ġdig ital
Ġcar teira
Ð»ÑĮ Ð½Ð¾Ðµ
los ure
PRO CESS
Ġremove Duplicates
nb extension
Ġcor rupted
Link Exception
)+ '.'+
Ġ10000 00
ï¼ļ {
hi erarch
Exp ression
Exp lorer
éĢ ł
Layer Norm
Ar r
Ar gs
ĠFix Basestring
Ġes colhido
66 66
ĠÐ¾ Ð´
(". ")
header Tag
åĿ ĩ
AP TCHA
ĠField Error
Method Field
AA AA
deprecate Function
ä½ľ æĪĲ
åĪĽå»º ä¸Ģä¸ª
mult id
æĸĩä»¶ çļĦ
Ġsn ake
complex ity
ĠDec ision
ĠPar ameters
ĠPar allel
Ġbu gs
ĠCloud Formation
ĠEasy Dict
ÐŁ ÑĢÐ¸
ÐŁ ÑĢÐ¾Ð²ÐµÑĢ
Button s
hu a
predict ions
åħĥ æł¼
sim ulation
LOB AL
Document s
Account ing
Ġboto core
cy clic
ĠQt WebEngine
å¦Ĥ ä¸ĭ
Ġseg ment
market place
ĠSearch Form
Sec ret
bus ca
Ġplot s
ĠEnd points
fetch one
jo int
mr p
Ġoperator s
ĠChat Consumer
Ġtho ugh
As sert
Mark et
MO VE
Back space
patient s
ĠVis it
çŃ ¾
Ġresol ution
Ġprime iro
Tokenizer Fast
ĠFeature LibLocation
launch pad
Att ack
Ġprob ability
Ġprob ably
Ġquant ize
Ġbin ance
Ġcont ato
ĠFeed ing
Ñī Ð¸
ĠNU MPY
Ġestim ator
Person al
SU F
YA ML
Collect ing
Bu y
Ġass igns
Ġph onenumber
ĠRE DIRECT
ĠYOLO V
ĠJob Application
ãģ® ãĥ
Call Failed
Port al
Parent hesis
album s
ĠDep ends
aggreg ate
fpg m
Ġbus iness
åįķ åħĥæł¼
CB DT
road cast
Ġsw itch
Work flow
brand s
SV D
itect ures
fra structure
xff fa
xff fb
xff fc
xff fd
Ġscor ing
Ġactiv ate
tech nical
CONFIG URATION
inet une
Ġpub lication
watch er
etina Net
stor ages
pers ian
ĠSingle StageDetector
ĠRad ius
ÐµÐ» Ð°ÑĤÑĮ
tts x
ĠÐ° Ð´
ĠWork flow
å¹´ é¾
SOCK S
Cr ypto
ĠOpenType LibError
tup ple
Temp erature
æıĲ ç¤º
ĠStorage Mixins
compress or
abl ad
Metrics Name
ĠUnsupported UFO
ĠUnsupported GLIF
Ġbr ush
ĠRedis DB
appro ved
uns queeze
ï¼ģ ")<
Ġsur vey
Ġra iz
ĠLookup Debug
ĠTemp erature
Ġcons ist
Ġexternal s
prem iosplatziapp
ĠEval Hook
ĠSSSSS SSSS
ä½ł å¥½
VTT Talk
sphinx contrib
bay es
dark net
ĠUserAgent Mixin
ANN ER
ĠÐ¿Ð°ÑĢÐ°Ð¼ÐµÑĤ ÑĢÑĭ
ç¼ĸ çłģ
Ġmis sion
ĠFol der
ĠGr antType
Ġcompat ible
æĪĳ ä»¬
Segment or
mor x
Ġ=[ ]<
æİĴ åĪĹ
Ġve lo
numberOf VMetrics
numberOf MetricsName
8888 8888
acquir ers
formular ios
Ġface book
advance Name
bridgecrew io
Multiple Choice
ĠOffer Admin
ĠKe vin
ĠCoco Dataset
ĠTT Collection
ĠTT LibError
commend ation
Ġpremi er
Sur ge
åĵ ģ
ĠReply KeyboardMarkup
yi in
Bus iness
ĠRout es
ãģĻ ãĤĭ
she ep
urlshort ener
Manag ers
ĠHot el
ÑĥÐ¼ Ð¼Ð°
scroll bar
Ġear lier
çŁ ¥
acqu ire
ĠLE FT
ĠFav ourite
ĠFrontend Config
æıĴ åħ¥
TRANSFORM S
REC APTCHA
vasz Loss
Ġil ens
='- '),<
veh icle
ncr ypted
achieve ment
åĲ¯ åĬ¨
ĠÐºÐ¾ÑĤ Ð¾ÑĢ
ä¹ĭéĹ´ çļĦ
\___/ _/
ĠAverage Meter
accident s
zhix iang
volt Lib
Ġrobust ly
Ġtur ns
Ġdeprecate Function
ITest Case
Mem Cache
ĠÐ²ÑĤÐ¾ÑĢ Ð¾Ðµ
æº Ĳ
opent ype
Ġgues sed
Ġprem iosplatziapp
FilePath Field
Ġaggreg ate
çĦ ¶
Ġä¸Ĭ åįĪ
ĠPty Process
ĠVolt LibError
ĠKE Y
FON TTOOLS
instan cer
Ġnap ari
Ġbise ct
ĠBolt Ops
ĠFon taine
ITIC AL
Ġleaf map
abcdefghijklmnopqrstuv wxyz
Fashion Dataset
bsl n
hmt x
msp x
vhe a
Ġtink off
clide an
urare ceita
umbo tron
ilmen au
ĠBolts Ops
quari um
0223 00
ĠUFO LibError
sideBear ingName
ĠDisambiguator PrefixRule
å¹´é¾ Ħ
ĠUnsupportedUFO Format
ĠUnsupportedGLIF Format
ĠLookupDebug Info
! )<
! ',
$ "<
' %(
) '
+ ")<
+ "\
, *
, ###
- (
/ )<
/ |__
3 50
6 32
7 00
; ')<
= \
> ''
? ',
@ ","
A Validator
A srcValidator
A lt
A uction
A vg
B srcValidator
B logs
B rowse
B ridge
B roker
B attle
B LOCK
C AT
C RM
C amera
C ycle
C ategories
D at
D EN
D ENT
D ie
D Range
D HT
E ither
F ed
F gcolorValidator
F gcolorsrcValidator
F inite
F unnel
F gopacityValidator
G A
G CP
H L
H int
H ol
H ud
H ATCH
H params
I con
I so
I Head
I magen
I llegal
J K
J an
K I
K HTML
L et
L AC
L sa
M sg
M edi
M VT
N L
N R
N ONE
N avigation
N ativeMethod
O db
O VER
P AD
P essoa
R IC
R srcValidator
R BM
S W
S ING
S pre
S ensor
S quar
S USE
S orry
S oliditysrcValidator
T yp
T ES
T enant
U pper
U tility
V endor
V alidation
V ocÃª
W ho
X ME
X EL
Y CON
Y periodalignmentValidator
Z styleValidator
Z smoothValidator
] ",
] ')<
] [:
a ven
b its
b ike
b dd
b recht
c x
c rc
c ery
c xt
c rowd
c kwise
d ro
d ag
d tickValidator
e preload
e igs
f ac
f score
g cn
g tk
g Chart
h ame
h ack
h av
h ajm
i ate
i verse
i loc
i amese
j w
k nn
k nx
l h
l inder
l wt
l unch
l ighter
m ation
n O
n ine
n ik
n apValidator
n ascimento
n abla
o ws
o openid
p ac
p illar
r nn
r just
s uggested
t ix
t ell
u ly
u ffixValidator
v ado
w heat
x c
x FF
x entropy
x iaox
y u
y style
z smooth
z opfli
| (?
} ).
} ']
µ Į
å µĮ
æ Ļ
ç ª
ç ĭ
è ĸ
é ¦ĸ
é «ĺ
Ġ ä¸º
Ġ ???
Ġ éĢļè¿ĩ
Ġ verbosity
Į è¯ģ
ĠĠĠ čĊ
or ed
or arily
at racoes
se amis
in ops
in secure
er C
er typeValidator
mp ts
ar ian
ar atioValidator
ort unity
de sign
de gree
de part
ro per
al a
al ar
al am
al ker
__ [
en ster
an on
an tos
re ferences
st ors
st air
st reet
Ġp q
Ġp rix
Ġp icture
Ġp olar
it finder
Ġimport ee
as hes
lo st
lo it
id ad
ut ures
ic i
Ġt ell
Ġt lds
Ġd up
Ġd gl
Ġd imensions
ang um
Ġ" `
ed ie
ap se
ap ex
ap sValidator
ap less
ap lacian
mo v
mo on
mo ke
def initions
cl amp
cl usters
sel ler
Ġ' $
is ition
Ġre mo
Ġre ally
Ġre dbot
Ġre gisters
Ġs f
Ġs st
Ġs itemap
Ġs lide
Ġs heet
Ġs lice
Ġs orl
ct r
op list
plotly js
ex a
up grade
es a
init ializer
Ġm s
Ġm ssql
get Messages
get pid
', "
ab ab
un a
un ar
un uran
un detected
fig an
ver ified
Fi bonacci
Fi lPh
ĠT Application
ĠT enant
ĠT ukeyHSDResult
># !/
Ġn args
Ġn umb
tur istic
Ġc name
Ġc and
Ġb b
Ġb colors
Ġb oris
Ġb abysisters
Ġo mega
Ġo thers
th n
th ings
th ank
ĠA L
ĠA Validator
ĠA srcValidator
ĠA rg
ĠA zure
vi er
vi al
ĠS ta
ĠS af
ĠS cor
ĠS urface
ĠS oliditysrcValidator
int ent
Field Error
ws rcValidator
Ġfor um
Ġfor eground
ch apter
ch collector
ist i
ist co
Ġa k
Ġa mr
Ġa mong
Ġa wesome
Ġget fslineno
ce p
ce ptr
ce dence
il ang
ĠC Test
ĠC ASCADE
ĠC DP
ĠC RM
ĠC amera
ĠC SP
ĠC trl
py zmq
iz ar
iz ingValidator
to ms
to uch
to doproject
str error
str unner
po sValidator
end o
ĠM PI
ĠM OH
ĠD iv
ĠD ispatch
ĠD ark
ĠD uplic
res sions
res ized
res umo
ite ch
db name
Ġcon ta
Ġcon straint
Ġcon strained
ĠN ext
ĠN ow
Ġde sk
Ġde partment
ĠL ive
ĠL AM
Ġf ab
Ġf used
Ġf aces
version predicate
Ġv ed
Ġv olatility
ĠP at
ĠP DF
color ing
aut os
Ġto doproject
Ġ( \
Ġl la
Ġl anguages
Ġl iteral
tp age
do ll
do lar
ys rcValidator
ys ql
ses rcValidator
Ġr ule
Ġr ng
ĠR and
ĠR srcValidator
ĠR WModel
Ġex e
Ġex pr
bo lt
bo eing
ĠB A
ĠB en
ĠB srcValidator
ĠB ill
ĠB oost
ĠB etter
sp conv
sp acing
SE ED
Ġco ord
Ġco lour
ĠF ail
ĠF gcolorValidator
ĠF gcolorsrcValidator
ĠF riend
ĠF unnel
ĠF gopacityValidator
ĠF atal
text anchorValidator
ip ulation
os app
ain ing
ub ernet
Ġh ack
ss im
log it
qu er
qu id
ĠI so
ĠI mg
par allax
cal ories
For SequenceClassification
om y
om ated
am ic
im med
pre tab
pre processor
02 7
ans rcValidator
ans Container
sc rolled
ĠRe present
ĠRe presents
Ġ{ (
ĠU N
art in
Ġy ellow
ri el
ec ream
har well
Ġ'. .',
code star
Ġe ffect
ĠE M
ĠE du
ĠE cho
ĠE mploye
ĠE pisode
mar gins
Base InstanceMasks
Base LegacyTest
ĠH tml
Ġg old
Ġg rams
Ġun less
Ġno vo
ne y
ne ar
IT IONAL
net s
net box
In ventory
In vertedResidual
In vited
per ceptr
ind rom
Ġ(" __
Ġ(" ???
son Validator
pack Exception
ole Validator
ĠBase InstanceMasks
ĠBase LegacyTest
fg color
fg opacity
fg colorsrc
ĠSe amisReport
CH ead
head Validator
Ġpro c
Ġpro duce
Ġth row
trans bank
trans lated
open weather
open suse
value Validator
info Validator
PI Fu
PI XEL
Re ceived
ull Validator
arg apValidator
Ġan ime
Ġwh ite
label Validator
label modeValidator
Ġmax Area
Ġmax Depth
vis its
size modeValidator
Ġpre ds
ix els
Ġ4 3
Ġ4 4
': "
': ('
sh ifts
ash srcValidator
Ġser vicios
BU CKET
ide textanchorValidator
ĠPy Test
Ġdo cker
run slow
ID ICT
ĠW ed
ĠW elcome
Ġclass ifier
check view
Ġbo ols
Ġbo unding
ĠV an
ĠV ector
ĠV ehicle
ĠV isibleDeprecationWarning
ĠÐ ¤
ĠÐ ĹÐ°
IN V
Po lygonMasks
Ġit finder
#### ###
che sValidator
Ðµ Ð»ÑĮ
ĠUser SocialAuth
Pro c
Pro ver
Pro visioner
filter set
ĠĠĠĠĠĠĠĠĠĠĠĠĠĠĠĠ čĊ
sol iditys
") ")<
ĠList Todo
ĠList CreateAPIView
Ġrequest ed
List ModelMixin
Ġch ildren
ra h
Ġsub parsers
pyp roject
]) #
]) ):<
]) ]<
frame Validator
sub name
sub scriber
NA CL
Ð¸ Ðº
Ð¸ Ð¿
Ð¸ ÑĢÐ¾Ð²ÐºÐ°
Ġres nest
Py Py
ade s
ĠIn struction
Boolean Filter
count Validator
ich i
202 202
comp eticao
sl c
En im
En hanced
Ġlo an
Ġlo cs
ĠCon figs
ĠCon versation
Ġid a
eb i
eb ay
eb log
sg d
ĠTo Tensor
CC Executor
ÑĢ Ð¾
Ġread s
Ġ5 9
ĠAPI s
dispatch ers
LO SS
Ġdecode d
ill ars
Editor Uploading
Ġcode star
Ġle d
ak ing
det ach
Ġen ough
Ġrelease s
ĠY periodalignmentValidator
Ġinternal ly
([ -
pr j
pr inter
Ð½ Ð¾Ð¶
Ð½ ÑĥÑİ
sys info
Ġte strunner
ĠRegister APIView
07 518
Ex ercise
======== <
join path
CI oULoss
Ġjson able
Ġk th
Ġk irit
######## ####
pet stagram
ong apsValidator
top left
side Validator
figs ize
ĠDist EvalHook
Co upon
ĠFor get
clo ckwise
Qu iz
show exponent
13 5
Ġtext ual
task Info
Un available
ĠJ WT
15 00
ĠLar ge
Ġexp ansion
ĠAd just
cr ypter
ish list
PP ER
Ġcomp ressor
ibr ation
Ġtrans latable
hello Message
strain Validator
ĠSp ansContainer
we edie
Ġsocket server
web browser
Query View
server Command
Ch anged
Session Authentication
cat er
Ġsh ipping
EP S
ĠCustom Backend
RO P
space frame
ĠRequest Validator
ĠRequest TokenEndpoint
Ðº Ðµ
Ðº ÑĤ
av ailability
{} :
ĠException Info
event sValidator
Ġover ride
An ime
An agram
Ġper f
Ġper centage
æķ° åĪĹ
DIR S
ĠCl in
ĠCl ing
ĠCl uster
19 8
og ue
Ġ"" ).
201 80
heat ertypeValidator
ĠEn quiry
AB LHead
IM A
ffix srcValidator
={ ('
={ }<
subject s
dev search
... ",
ĠEx ecute
ĠEx periment
Ġge ek
Ġge trawcode
oss ip
Ġend s
ĠInter active
Al ert
Ġserver s
ĠInt e
ĠZ smoothValidator
ĠLog ging
vert ising
debug ging
NOT ICE
fill mode
Ġrefer ences
ĠShow exponentValidator
Show exponentValidator
exp enses
Check pointer
sk in
ĠTrans poseValidator
rand range
tom ic
EL L
Sh ip
Sh adowsocks
Sh apesrcValidator
Ñĩ Ð¸Ñģ
Storage Base
bound ary
bound ssrcValidator
Ġweight ed
Object s
Object ive
Group BatchSampler
Ġtemp orary
icon s
ĠData Parallel
voc ab
ĠOn ce
ton ext
rank ing
ref Validator
æľ Ł
Trans bankError
Trans poseValidator
SM TP
Custom Backend
Out liercolorValidator
Multi Widget
å® ¶
Ġdeprecated ModuleAttribute
ian Defaults
ian GaussianMixture
ĠClient CredentialsGrant
ä¸Ģ æ¬¡
ĠAl uguel
Color ize
ĠResource Endpoint
ĠResource Owner
air ings
Author OrReadOnly
VS egmentor
Ġ'' }<
Static Files
ĠOut liercolorValidator
Ġsmall er
Ġmath lib
Bit mapMasks
Use Case
Ġsort ing
ĠFlask WTFDeprecationWarning
temp t
Per form
ãģ Ĺ
Ġar ithmetic
Result View
ĠLogin Config
Ġqu ick
Hook implMarker
Hook specMarker
Hook CallError
ĠComment Serializer
call ers
ResNet V
45 4
æī ¿
Change Order
Ġblog app
annot ate
Ġoff ice
revision Validator
copy tree
DB Config
By Frequency
tt m
Web Channel
Web Kit
ä¹ ł
Ð¾ÑĢ ÑĤÐ¸
55 55
stand offValidator
ĠSh apesrcValidator
viol a
uob ipro
Ġmask s
ca cola
Ġprogram ming
My NamedTuple
cart s
render ers
Ġcustom er
Ġcustom ized
ãĤ ¯
ĠAbstract Set
No DatabaseTests
shar ing
Ġcr ypter
LI B
ĠPret ty
Ġæ Ĺ
Ġæ ł
math jax
Ġmod name
gre entest
Ġho ld
Ġho lding
Ac curacy
Ġsal t
pickle util
Ġcommon mark
Ñħ Ð¾Ð²ÐºÐ°
åį ł
person as
Fill modeValidator
Ġcor pus
Ġsimple tk
Ġrepresent ing
æĪĲ åĳĺ
ĠFill modeValidator
hi figan
ten ido
}: **
upper case
ha Message
ii i
Ar pack
tab ular
At tr
ann ed
att ach
Ð²ÐµÐ´ ÐµÐ½
ĠUp sample
INT E
exec ution
Ġ### -##-##",<
drop down
42 15
acitys caleValidator
ĠPackage NotFoundError
ident ification
Max imum
rule Validator
sv ds
Sy nt
ç±» çļĦ
Plugin Base
Plugin Manager
Plugin ValidationError
æĿ ¡
ru its
loc ate
Ġta ichi
ĠBe lowValidator
State StorageBase
cnt l
Num Py
ÐĴ Ñĭ
switch port
åĪĽå»º è¿ŀæİ¥
åĪĽå»º æ¸¸æłĩ
Ġip ypar
Pool ing
alt Parser
ĠHello Config
æİ¥ åŃĹ
Password CredentialsGrant
BBox L
ĠDec orator
Ð³ Ð¾ÑĢ
public ado
Only Endpoint
Home PageView
plan et
Ġxml todict
Single StageDetector
Ġpredict ions
ĠSource Validator
Ġfig ures
ĠFI RST
ĠFI XME
æĮ ģ
Linear Regressor
ĠGo Clio
RES NETS
lier widthValidator
ĠDeep Lab
ĠDeep FashionDataset
ä¸ĭ çļĦ
Dis crete
ĠÑĦ Ð¾ÑĢÐ¼Ð°
Generic RoIExtractor
Ġkeep dim
tf qmr
ĠGeneric RoIExtractor
Source Validator
shapes rc
Ġim mutable
enum erate
ĠEnd point
respon ses
MM Segmentation
æĿ¥ çļĦ
Be lowValidator
Su ffixValidator
ĠÑģÑĤ Ð°Ð½
arrow Validator
ĠAddress ViewSet
exist ence
[...]
