#version: 0.2 - Trained by `huggingface/tokenizers`
Ġ Ġ
i n
; <
> <
ĠĠ ĠĠ
d e
Ġ <
ĠĠ Ġ
s t
e n
o n
a t
> #
e r
l u
r e
Ġ< <
/ /
in t
) ;<
o r
Ġ "
{ <
in c
lu de
inc lude
u t
Ġ c
a m
c e
Ġ m
: :
en d
Ġ =
} <
č Ċ
e s
a r
r i
Ġ i
de f
l e
( )
Ġ n
c t
s e
ĠĠĠĠ ĠĠĠ
c o
a n
in g
Ġ {<
Ġ t
a l
p a
i f
end l
i c
i d
" <
i on
st d
Ġ *
Ġ v
Ġ f
p p
in e
i t
pa ce
Ġ endl
am es
ames pace
r a
Ġ s
u r
at ri
Ġ p
atri x
o id
def ine
Ġ b
Ġ re
> }<
s s
Ġ a
h e
l a
l o
e ct
r o
) <
at e
- -
> }
co ut
Ġ std
Ġ 0
e t
st r
( );<
i g
u b
u n
Ġc o
ur n
Ġ int
> {<
t urn
l ic
m p
on st
en t
Ġ 1
m a
u s
Ġ o
e x
M atrix
u m
Ġ (
Ġ A
> //
Ġ }<
d o
v oid
Ġn amespace
Ġm a
E R
i z
* *
Ġ //
Ġ S
i s
ect or
Ġre turn
end if
o l
+ +
Ġ g
Ġi s
h pp
Ġ C
iz e
la ss
us ing
Ġ on
I N
Ġt he
e l
: <
y p
ub lic
Ġma in
e d
Ġ E
t r
c k
_ _
ĠĠĠĠ ĠĠĠĠ
i le
t er
c lass
c h
n amespace
str ing
ra g
Ġc onst
i o
v er
ig en
rag ma
p ragma
Ġ M
i l
. .
Ġ 2
Ġ P
Ġ T
Ġco ut
i m
// //
Ġ d
Ġon ce
Ġ w
E N
u l
Ġ {
ar g
re am
Ġ in
o p
t e
at ion
-- --
Ġf or
Ġv oid
0 0
A L
O N
: "
ĠĠĠĠ ĠĠĠĠĠĠĠ
s p
Ġo f
Ġ :
Ġ -
() <
i st
I n
am e
Ġ l
Ġ &
v e
3 2
lo at
.. /
C o
on t
ex t
>} ;<
c onst
h t
Ġ >
/ <
L E
Ġ G
Ġ N
S T
de r
R E
st ream
Matrix X
n def
b o
if ndef
, <
Ġi f
a d
g e
. <
e g
Ġc h
< <
yp e
Ġ D
i r
er e
o w
Ġ j
A R
p ublic
m ent
A T
P L
p re
/ *
a s
e c
at a
io stream
Ġm atrix
** **
e f
Ġp ublic
an d
Ġb y
al l
ate d
o t
Ġ" ../
v ector
) {<
Ġ F
u int
ut o
Ġ 4
O R
se t
Ġ _
en er
Ġch ar
H ere
D E
S t
Ġ +
do m
= =
s ize
an dom
ra y
a lu
or t
( "
Ġn um
Ġ h
I M
I L
p ut
mp l
Ġ L
el se
Ġ 3
V ector
f or
Ġ Q
ĉ ĉ
t ion
Ġ st
Ġ R
a se
b le
Ġ e
Ġ* /<
] ;<
Ġ x
a ck
} ;<
ct ion
g et
s on
h is
i al
a p
o de
R andom
Ġ @
P P
Ġ B
Ġ I
Ġt o
if def
l i
Ġ __
- >
e w
//// ////
o g
u ct
ss ion
y n
E igen
j ect
Ġ U
f loat
pp er
it s
A N
ĠĠĠĠ Ġ
u e
pre ssion
ul t
Ġ ar
a g
I T
lu s
Ġf ile
re turn
e m
ĠE igen
ener ated
Ġc in
A P
---- ----
p er
at ic
o s
str uct
at or
lu sp
lusp lus
A C
u al
Ġ '
ub le
ig n
() .
Ġa uto
do uble
F I
o d
Ġ arg
an s
t h
er n
E x
ter n
U L
an g
1 0
Ġ= =
s h
Ġ r
Ġ Matrix
co mp
ra pper
o m
M E
la y
u p
// /
Ġ W
" ;<
Ġ K
do w
o ol
S E
c pp
Ġ y
alu e
o lu
un t
Ġg et
re d
e st
Ġs ize
n um
ER N
l m
Ġ H
Ġ /*
m m
" ,
) ,
ri de
lic ation
1 6
Ġ k
pp lication
Ġ> >
t p
in dow
C T
p ar
r int
Q U
c on
T he
on g
S tr
Ġ MatrixX
> >
t ype
ir t
en s
bo ol
b ject
p tr
ex tern
_ <
Ġo ver
o int
w rapper
irt ual
A B
id get
M O
a a
it or
it y
ht tp
I ON
m at
Ġ de
it h
olu tion
p yp
pyp lusplus
Ġf loat
n t
2 0
b er
Ġv ector
IM PL
<< "
im e
ĠK ERN
o f
>// <
AL I
P ro
: //
un ction
6 4
i se
s er
R O
ut e
p ro
co l
E X
Ġb ool
a ble
v ent
f o
" );<
r or
v i
ro w
Ġover ride
) .
**** ****
k ern
) ;
w ise
FI ER
Str ing
b ack
i str
p ri
ar d
g in
h ile
ist er
i ve
QU ALI
QUALI FIER
ar t
it ion
re f
Ġ O
E D
o se
lu gin
I C
e le
Ġ{ }<
I G
T O
S H
t a
ce p
Ġ- >
Ġ !
an n
un s
) );<
B U
Ġre s
ens or
[ ]
++ )<
p y
ĠĠĠĠ ĠĠ
Ġb e
v ate
d ata
Ġ V
b its
T ype
a der
L ist
Co re
define d
H PP
i mpl
Ġg enerated
d d
li b
en se
Ġo ut
am ic
Ex pression
yn amic
l l
a ge
E n
is itor
++ .
std c
Ġg lm
G L
f f
an sp
lo ck
T E
re ate
o ur
es s
A r
t y
Ġ Vector
Ġp ro
q u
Ġar ray
j son
istr y
a in
Ġ 5
C O
u re
ansp ose
in d
p h
Ġl ong
W idget
u se
>} ;
U N
ul l
un d
> (
1 2
I D
ch ar
ign ed
AB LE
s c
Ġj son
mpl ate
m atrix
Ġ ans
D I
P E
u le
Ġma x
en g
Ġ uint
IG EN
us h
al se
MO DE
//////// ////////
++ )
Ġ1 0
alu es
at h
o o
Ġ else
ar y
Ġw hile
A D
a c
Ġm at
o ut
: \
u d
Ġre g
a ult
t op
tr anspose
F A
ã ģ
ĠĠĠĠĠĠĠĠ ĠĠĠĠĠĠĠ
b u
ig ht
B ase
ĠS olution
f a
ĠC V
lay er
ĠT his
S C
A pplication
h w
Ġt r
eg in
le ment
Ġ defined
n er
Ġ set
N ode
re g
D ynamic
ĠE IGEN
or m
t o
uns igned
Ġ he
y st
Ġ se
f ile
Ġ ex
de x
IL D
num s
W indow
Ġ };<
Ġ X
ce ss
Ġco mp
i v
ent s
BU ILD
Ġ ,
r c
in l
Ġd ata
S S
yst em
Ġt h
Ġnum s
Ġarg c
-------- --------
C E
k e
h m
ro ot
V ER
re e
Ġv alue
Ġst atic
S ize
O bject
Ġ string
L O
std io
FA IL
Ġ< =
i b
t on
ate ment
te mplate
an t
mm on
n n
Ġ def
() );<
C H
Y PE
or y
== ==
at ch
pri vate
Ġ and
St ream
lo hm
comp ute
lohm ann
ef f
> *
t t
Ġ' \
SH O
/ **
U P
Ġ" \
D N
B o
d i
UL D
SHO ULD
ar r
Ġt his
f ig
h o
Ġf alse
Ġ http
re s
ma p
Ġin put
ST R
// <
rint f
in k
E vent
X f
() ,
Ġs um
e mp
st atic
a b
ver se
IT Y
od ule
DN N
Ġ double
a st
() ;
Ġarg v
Ġn ot
a ct
++ ){<
ĠE x
() {<
Ġ %
er o
IN G
> &
C V
EX T
/** <
cep t
a uto
lo g
OR T
E G
U T
i ew
ĠĠĠĠĠĠĠĠ ĠĠĠĠĠĠĠĠ
ri g
Ġv irtual
D e
for m
u i
++ ;<
C L
MatrixX f
Ġh as
w w
te st
r t
ro m
00 00
. /
s um
s ol
or k
A M
p ec
Ġ& &
Bo x
c in
Ġnum ber
ĉ ĠĠĠ
LE M
i p
l y
re ad
Ġdef ault
Ġ \
R e
n o
en der
TE ST
f ont
AP I
n d
n ame
C ON
Ġ* /
Ġ+ =
p ush
st ri
Ġout put
v el
co m
d nn
v al
Ġc lass
Y S
c l
stri ct
g r
AL AR
ĠMatrixX f
r ror
Ġ }
eg dnn
C on
MatrixX d
type def
v irtual
Ġ"../ ../
ut il
Ġc all
ve c
er s
Ġre strict
AN T
ra ph
t i
ar am
our ce
Ġco re
Ġn o
Ġ In
' ;<
I B
Ġ /
rig ht
N ame
on al
Ġ" ./
ial og
de nt
Ġg en
V iew
P ORT
Ġ ~
EN ABLE
ont ext
Ġ 7
P AR
en u
1 1
D ata
T ER
g er
Ġ" ;<
per ty
R ow
Z ero
ut ton
E T
q ue
er ror
Ġn ew
lo w
ĠP y
vi ce
C or
U E
he ck
AC E
UL L
m s
Ġ J
Ġp ort
il l
O n
Ġ 6
aa aa
Ġar r
Cor ner
t yp
S L
u x
Ġtr ue
S c
ir st
] );<
arg s
Ġ |
Ġ include
Ġa re
am p
ĠMatrixX d
a re
e y
m n
RE G
O L
an ce
A ME
i mp
Ar ray
W Stream
t ter
Ġ> &
f t
O f
en ame
Ġ pa
D L
R eg
ff er
lo c
os ition
c p
g en
p d
( <
yn c
ma x
L o
T o
in fo
T ext
co de
__ <
v alues
Ġi t
Ġ! =
Ġport s
Ġco unt
re ss
Ġd t
Ġ str
ma ge
Ġb u
and le
P lugin
S ION
c b
lu tter
ri b
op en
co mmon
fa ce
) )
C ol
an ag
ĠP ro
< =
F unction
] [
gr am
ĠG et
/* <
ta il
N ow
T est
m b
ad d
C h
arg v
a f
Ġ #
Ġ un
Ġ ++
Ġn ull
ĠC re
ĠEx pression
O B
Ġc l
a y
ĠS t
ĠG L
b ase
en um
re ct
Ġ" <<
F or
] ,
anag er
M A
ar ray
r ame
er ial
is ion
m o
******** ********
ag onal
Ġ end
co re
ele m
W I
ar k
> ()
Ġ es
con d
W IN
Ġreg ister
p en
ã Ĥ
er t
D ef
b egin
Ġd p
Ġbe en
V AL
un its
ER AT
Ġf oo
ĠC o
ess age
P IN
GL SL
_ ;<
Co mp
pre c
Ġt est
>// /
ar i
par se
REG I
U G
sol ve
eng th
N O
op t
t his
Ġc on
igen values
2 5
Ġ 8
ter ator
A V
F ile
a k
VAL UE
N EXT
t ing
Ġc b
ri p
ro up
ĠM EG
ĠMEG DNN
p lugin
arg c
D ense
u st
Ġ unsigned
D ialog
Ġ le
G et
M anager
M enu
or g
ĠS YS
Ġ 9
Ġres ult
R ef
ma in
elem wise
U n
Ġm in
IN T
In fo
++ .<
i x
lu mn
AP S
par ent
Ġ an
m e
AT ION
ĠCre ated
E LEM
00 0
ĠG enerated
V isitor
Ġof f
CT YPE
E CT
P layer
l ine
Ġ q
ut ho
utho red
s ync
EN ERAT
l d
M ap
Ġn ame
Y ER
it ial
ur r
K E
S et
a ch
ex p
impl s
S ON
w ork
il d
AR ITY
PL UG
WI SE
ELEM WISE
4 4
L IN
em ory
cep tion
prec ision
D U
Ġ al
PLUG IN
C K
S P
Ġ| |
T R
Ġ* <
ĠA r
S h
Ġc reate
cp lusplus
i ro
co unt
ENERAT ED
P oint
arg et
! <
B utton
set Zero
R es
Ġ row
Ġnull ptr
F OR
o u
)< <
is p
per ator
VER SION
c cept
(" %
ri te
size of
u pp
D O
w ith
Ġp ri
ef t
g ed
lo b
M ode
te m
REGI STR
ol ver
in put
bo tt
bott om
ĠG ENERATED
B u
Ġ RE
Ġ2 0
s rc
ers ion
L eft
m er
I dent
Ġ u
ĠR eg
upp ort
M M
M P
n ew
Ġn lohmann
Ġd i
//////////////// ////////////////
reg istry
a ss
.. .
REGISTR ANT
y s
if ic
A S
ĠP RO
St atement
Pro perty
Ġc ont
Ġp rint
R ight
lu r
Ġw ith
St ate
Ġhe ader
Ġex p
i de
on e
ti e
mer ged
L IB
o re
o und
std int
for mat
t ect
il ter
ĠAr ray
' ,
Ġ struct
ce s
Ġf rom
> @
n lohmann
at ive
all back
>* /<
m in
p rintf
y mb
Ġ do
Ġt ype
ymb ol
U R
c reate
Ġl l
v alue
ĠReg ister
n ext
s m
s w
N um
N AME
q rt
as k
all s
orm al
H el
en e
Ġs olution
EN T
bu g
o v
p oint
ro ll
ĠS C
Ġw ill
Ġv isitor
up d
==== ====
A G
Ġ using
Ġf irst
a pplication
ra ck
Ġco lumn
EN D
J ECT
R T
col wise
I d
b s
c v
in ition
lo ad
Ġth at
A dd
O P
il es
) :"
w indow
Ġm y
Ġv alues
ex ec
S Y
b j
x y
on ent
l ist
Ġm egdnn
c f
o st
Ġp re
W R
In dex
Co de
a pp
g lm
o use
K UP
ĠA P
or d
k top
Ġa dd
ign ment
C ont
ic i
P ath
Ġp rintf
> /*
E rror
in it
ra w
eff ici
Ġ );<
r y
Ġs ub
ow er
Ġy ou
ww w
b lock
f lutter
int er
la g
> ::
Ġv ec
W KUP
Ġon es
typ ename
M y
AN D
w o
Ġ Z
ch ur
pro ble
V alue
e p
ĠJ SON
ific ation
ĠD o
( (
E S
I tem
Ġf unction
Ġo perator
Ġhttp s
a i
y a
Ġs pec
PAR AM
er ator
DU LE
A KE
con fig
Ġg ener
O T
c c
or ld
ct or
ser t
af x
Ġ ed
Ġe lement
SC ALAR
S O
st ance
1 3
C PP
P ack
a red
es h
se d
Ġ> =
und le
ĠSC ALAR
I terator
S pec
e vent
Ġt ri
Ġ{ };<
li ent
D AT
F rame
L og
le ft
sh ow
Ġcl ang
p e
Ġs yn
lic it
tect ed
" ),
5 12
t es
de red
l er
y er
on ents
lob al
D K
Ġb egin
Q Widget
Ġs h
E M
L ay
t or
de tail
I mpl
Ġco l
ta x
UN T
25 6
ting s
i que
j oint
t k
Ġi l
"< <
lo se
un c
Of A
parse Matrix
S ER
Ġt emp
Ġb undle
ol der
Ġy our
N ULL
T ime
d im
di agonal
Reg istry
' s
ing le
Ġ1 00
font info
ux g
= "
] ]
l at
Ġ at
Ġa s
ro s
PL IC
as h
Ġreg istry
A SS
p os
Ġ or
In ter
f er
ic s
ize d
In t
mm and
T YPE
ri ver
ĠN ya
Ġe ach
AC K
ĠNya an
F F
p ath
in ary
Ġv im
RE AD
ĠH WStream
Ident ity
Ġsyn tax
P RO
_ (
Ġ å
or dered
[] )<
isp lay
DI O
Right Corner
E L
M a
M odule
O S
OB JECT
Left Corner
PLIC ATION
s o
v m
---------------- ----------------
g raph
le te
an ge
Ġp art
Ġco de
l ong
ut h
le x
ic k
do xy
unt ime
doxy gen
P tr
æ ķ
Ġo bject
ĠE rror
AC T
Ġed it
A n
E lement
T h
W AKE
Ġi d
Ġi os
rib ut
WAKE UP
m egdnn
o c
do c
a ve
Ġco effici
ĠP WR
i as
IM PORT
Def inition
ss ignment
ĠĠĠĠĠĠĠĠ ĠĠ
M ain
w hile
y am
z z
Ġnumber s
1 00
G ame
t il
la b
un def
ile d
Ġe igenvalues
kern el
Ġcomp onents
H e
R ender
c y
c ast
e e
Ġl ib
X d
Ġv al
ĉĉ ĉ
DAT A
F ilter
S ensor
n ing
er ver
ar ch
class es
urr ent
B O
[ "
Ġ upd
la ce
im um
I mage
>} //
T H
] )
DE CL
ĠI m
ab el
g enerated
Ġ root
9 9
> ().
c ontext
f unction
p i
ma ke
ĠN C
1 5
Ġ ?
ĠI D
t s
or iz
ra ct
] =
ä ¸
ĠGL M
oriz ont
F LO
H WStream
L in
Q Application
b y
eng l
ud io
orizont al
S DL
u ce
ut ex
ic al
et work
Mode l
op engl
ĠQ String
ag es
Plugin Registry
A RE
k r
AR CH
ari able
l ength
u zz
ï ¼
Ġc nt
se e
an f
Ġa pp
LIN E
t og
bo j
ME M
:: ~
Ġt ime
H andle
o ve
t ime
Ġ* *
Vector Xf
amp le
pd ate
( &
C ontext
F UN
p ort
iz ation
OR D
P ar
V is
j or
Ġco py
8 6
C pp
S olver
w ard
Ġ log
RE F
ap i
Ġk ey
ĠVector Xf
Con fig
! =
Ġs c
lic ense
all y
ot al
U DIO
] ;
k ht
// /<
Ġs ort
un ter
nd im
util s
yam ov
kht yamov
a v
ĠA n
ĠĠĠĠĠĠĠĠ Ġ
g es
IL ITY
Ġpro cess
rip tion
Num ber
dim s
O K
P aram
pa ct
ation s
In it
MatrixX i
typ es
G ET
H orizontal
N S
am er
if i
ĠC O
par am
Ġpri vate
upport ed
< /
U C
d p
Ġre verse
ON T
DI S
pd f
æķ °
" >
A pp
c lose
s qrt
Ġ1 6
ex ception
Ġ@ }<
of t
En ter
Ġse ction
GLSL ang
b l
Ġh ref
Ġ@ {<
Ġdefault p
add tog
Ġspec ification
GLSLang Spec
addtog roup
p op
ĠN ULL
Ġr andom
( __
ul ar
form ation
Row s
Ġ Y
Ġ )<
Ġp aram
ĠS et
and ler
out put
res ult
lat form
> /**<
G R
I P
L S
se cond
Ġw e
EN SE
ĠQ Application
D i
T ree
U I
k no
Ġ ...
en ce
ĠM O
Ġst art
ĠB ase
Ġexp licit
C lass
K ey
Ġ z
st er
er y
Ġp tr
Ġin it
pri te
ud ge
S co
l es
r yp
tr y
im er
IM E
EX PORT
sm all
amer a
kno b
m id
Ġ* =
Ġ( "
Ġ10 1
On es
imp ort
P C
S ystem
U M
U til
b ind
g ine
h older
m l
Ġs ource
ST UDIO
Ġsize of
pro tected
ĠAP STUDIO
( -
T e
i es
p s
t ri
un ique
eg er
AP PLICATION
http s
FLO AT
DIS ABLE
( _
C C
C heck
S pace
a ce
ĉ ĠĠĠĠĠĠĠ
Ġf ont
Co mmon
col s
G DNN
M Y
r ary
ME GDNN
a uthored
al s
et h
Ġ( !
ĠA uthored
ĠM at
ĠU i
Col s
My Application
E d
g ame
m atic
s ub
ri c
AT E
SP ACE
pact o
1 4
B ar
M SC
s pace
in al
at ure
Ġin dex
ĠO pen
IC ENSE
" )<
X i
å Ĭ
ist ribut
row s
rack knob
ĠM ap
li der
S e
s g
s ktop
t ra
() )
he ad
FI G
th read
> ;<
L abel
P iv
ĠS ystem
M IN
Ġc la
Ġpro ject
m d
n ect
Ġ [
re ak
Co mmand
inl ine
tor ch
j udge
m ark
p ch
ĠC ont
ĠW idget
vi ew
En gine
CO MM
Ġpa ge
Ġbu ild
MA X
exp r
ACT OR
2 4
A f
F act
R ule
g b
n ormal
Ġ IN
Ġ- <
ĠD e
CO DE
open cv
+ =
A ccept
G raph
W ORD
Ġ= \
Ġs chur
In put
ap e
use d
Ġse cond
Col or
B IT
F ont
I O
W rapper
g or
g ui
t he
v isitor
{ {
Ġt ext
id th
ig h
ĠW indow
ĠIm pacto
H iro
P ER
S ymbol
å Ī
Ġ )
on d
re size
Ġreturn s
Ġh iro
ann el
bu ffer
Ġgener ate
uth or
a le
() )<
la st
-- ){<
ĠS T
Ġin formation
comp osition
comp iled
om e
> =
H E
M essage
V I
V ersion
b ri
Ġm id
Ġre p
et ry
ex pression
ol d
Co eff
1 9
Q u
T ensor
Ġ lu
Ġb lur
CON FIG
ĠSt atement
N T
S I
Ġ define
Ġ --
ex cept
ĠA ccept
ĠD ec
ãģ ®
eth od
A ction
L L
O p
] ==
Ġ 32
Ġs w
ĠC PP
En try
Hel lo
Z E
Ġauto matic
Ġrow s
S B
l in
in sert
co s
he l
di rect
proble ms
A d
L ink
O ST
Ġ right
ĠL o
AB ILITY
d uct
e igenvalues
f c
t ensor
pa vel
Ġp oint
Ġa khtyamov
Eigen Solver
sol ver
Ġakhtyamov pavel
A l
o bject
v k
Ġc heck
Ġw h
ĠF L
ĠF ile
ĠL ist
ĠU n
TEST ABILITY
REF ACTOR
REFACTOR ING
n ode
er vice
Ġm od
ch w
sh ared
nt ity
NAME SPACE
E YER
H andler
S ub
m od
t x
pa ge
ver s
op erator
Ġno except
) )<
3 3
E B
L e
r un
} ,
in y
Ġp ar
ĠE yer
bo ost
ĠF lutter
Ġcomp ute
O G
o us
Ġs erial
ĠR ow
Pro cess
) :
m v
et a
iz er
mo ve
C A
Ġ en
re sh
Ġa pplication
ĠM ain
Ġde lete
emp ty
Vis it
M B
f alse
r untime
pa c
ĠA dd
il er
te mp
ON N
(" ");<
De bug
G ener
L ib
S p
m odule
ing D
as ic
and ard
ĠI l
ĠU se
roll er
Ġcol s
) ,<
> {
I R
L ine
M at
Ġ us
in dex
at t
Ġf ind
Ġin i
For mat
UR CE
P AT
R ect
n c
st art
Ġ" ]
ar ning
MatrixX cf
Ġh ere
[] ,
ac he
normal ized
bri ef
S um
Ġt arget
Ġ1 0000
MO DULE
B y
D ec
U D
U DE
y le
Ġn e
ĠS parseMatrix
In itial
CL UDE
ĠPRO G
close Box
O r
P y
Co unt
ĠW IN
ith ub
ke y
åĬ Ľ
. "
T ask
l ang
ut ure
ic ros
un k
ith m
row wise
Row Vector
Pack et
Ġautomatic ally
F IN
t ext
v c
ĠT O
In stance
ĠO n
sc anf
reg ister
p ow
Ġ license
an k
pa ck
Lin Space
LinSpace d
] )<
g ate
s ystem
re p
-- ;<
et ric
ens ion
Ar g
bu f
SO URCE
h om
i ble
l en
} }<
le d
le vel
if y
Window s
imp le
ĠPROG MEM
h a
j p
on o
pa ges
Ġs rc
Ġ1 2
im ation
bo ard
ang ular
rib ute
5 0
f s
g ener
m emory
ç ļ
Ġm p
Ġ= "
Ġn ode
al loc
im d
ĠF unction
FI LE
UL T
ab s
ass ert
Ġheader s
icros oft
çļ Ħ
M esh
N ON
O ut
U pper
h normalized
o ck
o og
Ġ ro
Ġ error
at us
co eff
std afx
Ġ( (
Ġl ink
ad joint
og ene
con v
qu are
top LeftCorner
UT TER
Ġ\ <
bottom RightCorner
ĠFL UTTER
hom ogene
homogene ous
M emory
Q String
c ont
Ġp er
Ġl ang
ow n
ĠI RT
ĠW EB
ition al
Ġhe ad
De vice
oog le
* )
1 8
c ur
d l
w e
de cl
ver ti
ĠN ode
mat h
Ġinclude s
Comp onent
DO W
g test
Ġl en
ĠL ICENSE
inter face
B EG
al ar
Ġf uture
et er
Ġin line
Ġfloat ing
BU G
Reg ister
Ġbu ffer
open Horizontal
AV E
Ġupd ated
BEG IN
L U
M L
o k
t ree
Ġp ush
un ordered
ĠS ize
el f
IT EM
ser ver
oo k
font s
ĠPRO B
sw er
lin ux
ĠWEB PP
D es
G N
======== ========
Lay out
rackknob r
C I
T RO
V ert
g ithub
-- )<
ĠĠĠĠĠĠĠĠ ĠĠĠĠĠĠĠĠĠĠĠ
ĠQ W
CT ION
AD ER
Ġhe ight
OL S
Plugin s
**************** ****************
Ed it
ĠPROB LEM
T T
U pdate
b in
b lur
e val
f irst
n ull
q ual
ic ense
Text ure
Ġserial ize
Ġlang u
F E
] .
c std
f ind
Ġp lugin
ĠE X
__ )<
AC ED
om etry
vi der
max Coeff
Ġprocess ing
L Y
c ul
se g
Ġt otal
sc ription
Inter face
lab el
holder Q
verti ble
0 1
T ra
c wise
c cess
h andle
w are
in o
it map
is c
ĠT est
AL L
ans form
Ġde composition
pro to
ain er
matrix T
oo st
ud a
A tt
M atch
w idget
Ġ qu
Ġ uxg
Ġi terator
ĠC om
ĠM C
PL ACED
all font
sh are
Ġgen allfont
gen pages
ĠRE PLACED
uxg genpages
Th read
ĠCont ents
Ġbuild root
Le vel
Ġlangu ages
2 2
T r
j uce
s ys
er r
Ġb reak
ĠS c
ĠS tr
ĠĠĠĠĠĠĠĠ ĠĠĠĠ
ĠM odule
sp ec
Ġst ate
of f
Bu ffer
0 3
0 9
F O
Q t
R un
c le
n chw
p layer
lo ur
ĠC D
EN CV
Ġr un
Ġex pression
Ġit s
Function s
ĠRegister Plugins
Te am
C onst
C lient
F IL
G E
S DK
d ing
le ase
Ġf ast
Ġf inal
lic ate
ma ster
ĠA CE
ĠC h
Ġobject s
ĠMO DULE
gor ithm
" )
F G
W ith
c d
t arget
å ħ
Ġ ONN
de d
le ct
la re
et code
IN CLUDE
ĠQ Widget
ap ed
ode l
ĠU SB
ern al
py bind
reg istr
Ġ/ =
aaaa aa
ĠPro perty
Ġcolumn s
He ader
ĠMain Window
A PP
f uzz
h s
Ġc ase
le etcode
et urn
Ġin verse
uns upported
Un it
1 7
G roup
U S
g l
p r
r r
de sktop
lo op
ingle ton
Ġcoeffici ent
Entry Point
E ntity
I V
Q ue
m an
at es
Ġs olver
ĠP aram
ĠB aaaa
ele ment
eng ine
ark ingD
AG E
Lay er
COMM AND
ĠList Node
aaaaaa arkingD
ĠBaaaa aaaaaaarkingD
ĠBaaaaaaaaaaarkingD og
* >
> ,
A YER
G EN
g i
l it
Ġ é
de n
am pa
Ġv ersion
DE P
Ġst andard
ern el
Sc roll
Cont roller
c i
m y
Ġ ent
in es
ce d
Ġi c
Ġt wo
Ġf ound
Ġp os
Ġstd afx
ĠT ele
ON LY
main window
istribut ion
ĠDec lare
Ġsw ap
Ġplugin s
- <
> );<
b pa
c ro
um ent
Ġd st
ĠD ense
Ġmat A
loc al
Ġcoeffici ents
ĠWindow s
SI ZE
Ġ"] ^
coeff Ref
seg ment
ĠTele gram
1 0000
D ele
P ri
m i
u mp
Ġ last
st ract
al es
Ġa p
ate g
ch r
ĠM Y
ĠF ONT
RO OT
GL OB
Ma x
ryp to
ĠRow Vector
H Y
M od
U B
i mage
x x
Ġf unc
Ġs u
IN V
Ġl ine
RE SOURCE
ĠR e
ĠO ut
En v
fa st
Ġdi rect
proble m
ifi er
PC FG
ĠCD PCFG
Ġic alls
F X
S IM
V M
l ink
m it
w ord
or age
ic h
std bool
ur ation
is ual
ĠC on
ble m
num ber
ĠCO UNT
GLOB AL
A ctor
D raw
P ass
] +
a udio
d is
Ġ .
Ġ ;
Ġ ui
IN LINE
ĠD ynamic
St ride
tion s
ĠB lock
Re act
window s
by tes
5 5
N ot
T yp
V er
g lib
h ash
k en
Ġi mp
Ġt op
Ġf l
lic k
ĠE n
Ġch ang
ĠR ender
ĠVector s
lement ation
ãĤ ĭ
sw ap
Af ter
ĠFONT DATA
Ġt er
atri ces
ER R
ĠC reate
Ġ{ "
ĠB O
art ial
Ġpro duct
Base Iterator
Re ad
amp les
2 1
A ssignment
P er
a ke
h p
l im
m t
ĩ º
Ġv fuzz
Ġs quare
Ġre ad
op r
UT IL
plugin s
ĠRegister s
ĠTO DO
registr ant
8 0
S parseMatrix
v ed
al gorithm
la ble
Ġconst expr
ver t
il ename
Co lour
ĠD es
ser ial
ĠV ec
FOR M
= (
N o
P Y
T his
o bj
v en
Ġ* )
it le
Ġp ath
Ġe qu
ĠU sed
th er
//////////////////////////////// ////////////////////////////////
ĠONN C
D A
I X
s ort
å ı
in verse
le t
() (
Ġs ol
Ġa bs
et s
ĠL ink
top RightCorner
CON TRO
WIN DOW
Ġsub ject
iny lang
resh aped
D X
P R
S erver
Ġ low
le an
pa ir
Ġp y
Ġp osition
Ġco s
Ġint eger
Pro vider
ĠV isual
ull Piv
PAR SER
Sh ader
Res ult
bottom LeftCorner
Ad joint
elf Adjoint
ĠStr ing
INCLUDE D
) /
P O
W N
s ign
w h
Ġ []
ro l
Ġco ales
ch ip
ve lo
RE S
ĠL og
ĠVector Xi
AD D
ãĤ Ĵ
att ribute
Ġcoales ced
) (
B lock
E yer
G lobal
N orm
d le
e ometry
f allback
re a
ri d
le ep
IN ST
ĠP layer
ĠT he
Ġin itial
ĠW orld
qu i
iv en
act er
que st
**************** <
Hel per
SY MB
FUN CTION
decl spec
I S
S YS
e mplate
u ino
Ġ" <
Ġ1 5
Ġ1 000
is h
Ġl m
CO RE
ĠSYS ROOT
OK ED
nect ion
ĠMC API
# #
: (
T imer
c nt
Ġ :<
Ġ enum
re al
Ġma y
el l
el if
ĠT ensor
Ġby te
ĠR un
AN N
Lo ck
ari ant
DECL ARE
FIL TER
CONTRO L
" :
E W
R UNT
S SE
U SE
c s
f iles
i a
m essage
o b
Ġ ãģ
it e
Ġb ut
Ġ1 1
ĠS h
ĠF or
ĠL IB
ang le
For ward
000 1
Ġq r
lag s
Arg s
Ġter ms
hp x
RUNT IME
C R
C S
E ST
M ouse
V ec
l f
l an
m on
t able
Ġ all
ĠD ef
ef ore
CO MP
CE SS
Sc ene
Ġan y
DEP END
chr ono
' )
3 0
S ec
T ri
f d
i ce
w ri
Ġ" ,
Ġm sg
it erator
ro und
Ġw rite
Ġ{ }
bo x
ĠMatrixX i
ĠO bject
IC ON
Con d
graph ics
hel per
GN UC
Vert ical
INV OKED
F l
P T
P RE
g ress
t wo
w rite
Ġ ext
Ġ load
re ction
re verse
Ġb ase
he d
Ġon nc
ĠM icrosoft
ĠP A
ĠD i
DE BUG
ĠR eturn
AP ACK
able d
tt en
ĠĠĠĠĠĠĠĠĠĠĠĠĠĠĠĠ ĠĠĠĠ
que ue
Ġun ordered
Add ress
READ ONLY
SYMB OLS
X Xf
b e
i el
k s
m utex
r ender
Ġ ::
// {{
ĠS prite
IN K
EN CI
ĠU bpa
Ex ception
ME D
ĠH E
", &
Ġth row
ĠCo mp
Ġdi ag
angular View
DEPEND ENCI
DEPENDENCI ES
F S
_ .
g tk
st ack
or lib
Ġp latform
Ġd isplay
ist ance
Co m
ĠN um
ĠN ext
sc orlib
rip t
Ġcont ain
SY MED
ouse holderQ
Des c
rr g
ateg y
B asic
P rint
å Ń
è ¿
or der
al ag
Ġs ave
ur face
Ġo s
St yle
AC Y
Test s
>() :"
AV X
bottom Rows
Ġtri OfA
left Cols
fer ence
ĠAn swer
Link Definition
Al loc
rep licate
Fl PluginRegistry
iel d
alag ard
( !
A rea
C amera
I RE
U i
i ss
st atement
on se
co der
Ġv ariable
Ġf iles
Ġs y
ma jor
ER T
ĠT h
ul es
qu ent
Ġfunction s
Util s
vers ion
Dele gate
" ));<
* ,
0 2
4 5
M AC
P osition
c stdint
f r
g le
v is
ĉ ĠĠ
Ġ IMPORT
in s
de scription
Ġm scorlib
Ġn on
Ġt ra
Ġf c
Ġs ingle
Ġ1 9
ĠP LS
Ġl ength
Ġ4 0001
og onal
ĠVector Xd
util ity
Log ger
Ġ100 1
Ma jor
velo per
" ;
B e
S erial
b ias
c atch
å ¤
Ġa ss
Ġa ssignment
Ġo p
ĠE YER
ĠQ t
Ġmax imum
Ġex ec
STR ING
ust om
Code c
Render er
FUN C
Par ser
Fact ory
& )
C allback
D WORD
L OR
U p
c ir
c heck
k an
r up
s in
{ "
¢ ĺ
Ġ ;<
lu a
int ernal
Ġm essage
ĠS ub
ol low
ĠM atrices
Ġd istribution
ĠF U
AN G
dow n
Pro gram
SH R
atch er
Set tings
Ġupd ate
ï¼ ļ
Ġlog ger
3 5
A Y
I con
J son
c al
en ch
co py
co pe
it ch
Ġb oost
ĠĠĠĠĠĠĠĠ ĠĠĠĠĠ
pro cess
Ġcon fig
Bu ild
Main Window
Dec l
> ();<
C all
P a
a x
d ir
Ġ inc
Ġ am
Ġ use
in rt
re en
Ġs ervice
Ġp i
Ġp layer
LE G
ĠG ame
ĠG CC
tern al
Event Args
Ġsol ve
' <
( '
/ ****************<
A uto
A nd
I s
W e
b pp
f p
n v
å Ģ
ç Ľ
on es
ter min
ĠN o
ĠD river
Ġj ust
ĠR es
ann er
12 8
ĠIn it
Ġpa ck
MA IN
Ġå ħ
CA SE
Ġdirect ory
1 000
A bs
S lider
d a
e igen
f ix
n orm
p u
ã ĥ
in fer
at er
int eger
def ault
Ġt yp
if f
Ġs s
Ġs ide
ur l
Ġb efore
Ġo ther
Ġ( *
ĠĠĠĠĠĠĠĠ ĠĠĠĠĠĠ
Ġw ork
Ġin f
Ġl ist
AT SHR
par ser
Ġpro gram
LO C
Pack age
Ġsh ort
lick ed
ĠHE ATSHR
ĠHEATSHR INK
A ll
F loat
H AN
I mp
N ew
O pen
U ser
c lient
s imd
ä »
Ġma p
ĠC lu
im g
Ġin vertible
ĠL L
QU IRE
col or
Ġ10 2
Ġcont ents
Ġcopy right
man ip
artial Player
" ]
" ,<
0 8
7 4
: "<
F L
H ouseholderQ
M in
N UM
P lay
a it
b it
c lude
er iv
Ġc an
Ġn ext
Ġn orm
Ġs in
Ġs upport
Matrix Functions
ĠS e
IN TER
tr ue
Ġw idth
ON G
ĠD E
ĠL icense
GL M
12 13
LO G
ms g
Ch ar
Ch annel
Ġmin imum
Par ent
files ystem
! !
( *
D isplay
G B
H AS
L ength
S V
S elfAdjoint
U RE
] <<"
n on
o lo
o stream
{ };<
st ate
at om
Ġc or
Ġc urrent
ar m
Ġp op
Ġco m
Ġon e
io manip
il der
Ġw arning
AL OG
AT CH
Ġh ess
ĠU pdate
ĠMatrixX cf
ĠĠĠĠĠĠĠĠĠĠĠĠĠĠĠĠ Ġ
ly On
work space
Di agonal
ĠDense Index
Ġequ ation
rup t
ench mark
SelfAdjoint EigenSolver
Ġhess OfA
lyOn The
A s
U ME
] <
c urr
n ow
p th
r andom
v ar
å Ĳ
in f
Ġc ur
ent er
Ġg ame
ĠC H
ed Property
Ġin sert
Ġby tes
Ġh andle
ĠI P
ĠI t
ĠI DI
Str ategy
no st
Ġtest ing
Property Base
mark er
ĠDe veloper
alagard PropertyBase
F rom
M utex
N ative
T ool
T able
T arget
W orld
b float
d ialog
e ature
f n
Ġ used
Ġm em
Ġf ollow
ĠE vent
ĠP rint
ul kan
Co unter
ĠI s
ĠU I
struct or
ll vm
mo ck
ĠRE QUIRE
by te
eriv ed
D o
O D
p rint
u ff
Ġv m
Ġs z
Ġre ference
il ity
Ġ2 4
ĠT ype
op tion
ht ml
ĠG oogle
ĠD ata
set up
St ack
Ġtr y
CL ASS
Ġhas h
An imation
B inary
G ui
O bj
S parse
a z
c urrent
c ache
u id
Ġ æ
Ġ stream
re q
or ch
() -
Ġs lo
IN FO
RE SS
ge mv
ir on
ĉĉ ĉĉ
ĠR UN
AN CE
Ex t
fo o
ff ect
val id
To ken
Ġelement s
pos itor
ĠModule EntryPoint
ERR OR
ĠClu b
* /
A K
A ST
G UI
H AVE
N v
c lock
le ar
Ġs erver
Ġs bl
Ġint o
ĠA M
Base Element
Ġle ft
ASS UME
Mat erial
Ġne ed
NON NULL
ĩº åĬĽ
iron ment
C reate
H ash
M AP
P I
P UT
b i
h ide
m em
r l
è ¯
Ġ ra
Ġm x
al ias
Ġp Object
__ )
Ġd river
bo ut
St atus
vi de
Ġun der
Res ource
BO OL
Sco pe
Ġpar ent
ĠBO OST
ĠDeveloper s
) ->
2 8
9 4
> -
A t
B ow
M AR
P os
P ower
V al
_ );<
g ic
m ul
Ġ extern
in ue
in stance
ra in
Ġs ome
Ġp ower
im es
set tings
MO CK
<<" *
uns Sco
DI ALOG
alls Bow
so le
ick ets
ĠOpen CV
HE ADER
PAT H
positor y
unsSco red
allsBow led
2 6
D ate
E IGEN
L ight
M on
R C
R o
S ort
S urface
a w
n ot
p ed
s z
or ter
Ġt emplate
Ġs ensor
Ġp lease
mp ty
Ġ1 3
Ġ2 5
ĠT r
St d
ID GET
add ress
LIN K
ai lable
SIM D
wri tten
Build ing
termin ant
* >(
D DK
J SON
L u
c ase
f unc
g it
g no
g mock
s lider
¥ åĬĽ
Ġ INT
st ampa
Ġt able
im al
vector s
ĠL ib
Ġr ender
IG H
Re al
ĠArray XXf
tri angularView
Gener ic
Ġchang es
ĠNum ber
Ġåħ ¥åĬĽ
DDK Ver
; ++
I AL
I LE
b um
h ive
m ult
s k
w n
y os
y sc
ç »
Ġm ove
Ġi dent
le ction
() ).
pa re
Ġf lag
ine d
ĠA l
ch ive
ĠM A
ST M
AR Y
PL AYER
ĠF EX
up o
mm etric
code c
OP ENCV
ĠStatement List
Typ es
ĠDes ktop
atom ic
Ġslo ts
yos upo
0 5
C P
D ER
P ort
R ad
c name
f ullPiv
g round
h as
m ethod
s ensor
in itial
re ment
Ġc atch
Ġm ess
Ġm gb
co a
Ġs ign
ig it
iz able
__ ((
te le
Ġe vent
Ġ' ;
ĠW e
20 20
top Rows
ho st
ING S
Re ader
right Cols
TH READ
Ġsc anf
Ġ(" %
cul ant
cwise Abs
proto col
Que ue
INST ANCE
cir culant
) );
B I
D own
K it
Q W
V O
e ar
f lag
u do
en cy
Ġv is
Ġa c
Ġon ly
ans l
comp lex
log ger
0000 7
ĠPro gram
upd ate
kernel s
wh at
ĠLL VM
* /<
A I
E CK
F R
J OR
M T
a ut
d uino
f rame
r am
s bl
} };<
er ase
or ial
le vk
Ġn etwork
Ġt orch
it em
ĠM y
op y
LE D
Ġst ack
Ġst atement
SE T
SH ARE
no alias
MA JOR
Def ault
Ġwe bpp
BIT S
Format ting
Or der
openHorizontal hide
Att ack
Ġsy mmetric
nost ic
openHorizontalhide Box
C atch
F uzz
R ec
b d
b lob
m esh
w d
Ġ IL
de vice
lu ding
or ary
Ġ" (
se lf
mp t
ma c
EN S
ul d
ST ANT
AR D
ĠL APACK
Ġover written
Ġde tail
CON V
DL L
Ġbu g
-------------------------------- --------------------------------
cstd lib
Assignment List
DA FX
Ġdiag nostic
' t
T emp
b g
b ar
d ate
k y
m int
æ ľ
en v
re sp
() {
Ġf act
Ġf old
Ġa f
he ight
>// !
Ġg lobal
ĠC onst
IN D
IN Y
ĠP L
ĠP ack
ĠT ext
ST AT
ard ware
CH ECK
imp lementation
ĠSet tings
istribut ed
MIN OR
Ġwh ich
Header s
WN D
RES ULT
Cond itional
> **
F ACE
I t
L ANG
M ove
N et
O nn
O perator
S prite
_ ,
u ction
ç Ķ
ĉ Ġ
ĉ ĠĠĠĠĠĠ
Ġ lo
st m
al ind
Ġb lock
he at
Ġint er
ĠA uthor
Ġma ke
ĠS cope
ĠC ol
ĠT o
ĠG B
(" \
li p
ag ing
AP H
Ġpro tected
ant s
TR Y
ide o
tx t
Out put
null ptr
opr s
çĽ ®
Ġtyp ename
Onn x
0 4
A ct
E Q
F T
M gr
O W
P art
b utton
e lab
f rom
p lay
t otal
x vk
Ġ ^
de bug
Ġc pp
Ġs p
lo y
mp ort
ĠS DL
ed itor
ĠP artialPlayer
te ger
Ġfor mat
ST EM
ot ify
li mport
olu te
fa ctor
rom e
af e
Ġsh ow
Ġcol or
Ġus er
fr ont
ĠEYER LIB
option al
Nv Onnx
MAR K
Catch ment
NvOnnx Parser
" ))
, -
D is
P ush
Q Object
S ervice
U ID
Y TE
m eg
r oid
s i
u ard
w er
} );<
è ¾
Ġ ç
an ity
Ġb it
ĠS ee
ĠT EST
const expr
ĠN S
ir d
/* !<
IM P
ME TH
red uce
Ġk ernel
Pro gress
ser vice
pri me
Ar duino
Comp lex
Ġal ter
Ġ20 20
Ġadd itional
Cont ainer
Value List
Tree Node
Ġpoint s
Env ironment
ĠRun ner
ĠReturn s
ĠIMPORT ANT
gic p
B ack
G eometry
M ac
Z Rule
d ll
h ys
i an
m ut
t im
ä ½
Ġm odule
ct l
it er
Ġs ystem
Ġb ind
Ġb inary
Ġre move
lo ader
Ġco unter
ĠA pp
ST ER
as bin
ĠF a
DE FIN
IT E
Ġde c
Pro ject
res sed
emp lace
EXT EN
Ġun it
Dialog Headers
Bu ilder
Lin ux
tra its
ĠTensor Layout
BI AS
ĠPack et
METH OD
M sg
P age
V ariable
W rite
a co
a uthor
Ġc v
Ġb ar
ent ity
ĠA R
ĠS E
is f
ĠE nd
ver y
Ġw indow
ul Expression
Ġl i
pre comp
ĠL O
lay out
Ġde sktop
ber g
vi or
Ar chive
iv Expression
ho use
PAR AME
Lo op
Lo ader
ĠPro cess
AND LE
Ġparam s
GR APH
Af x
CODE GEN
ĠLo ss
ha vior
mi ssion
stract Expression
ysc alls
VO ID
Ġaf ter
alind rome
loy ee
PARAME TER
E qual
P ress
Q R
S imple
b inary
c all
n g
} )
æ İ
se udo
an el
al ph
>// #
ĠP ri
ĠT R
ĠG tk
RE AM
ĠD LL
PL S
OR Y
IT H
os io
Ġ"../../ ../
GR AD
Qu ery
Ġ10000 00007
cstd def
Be havior
LEG AL
nv infer
tele gram
2 00
B itmap
H olo
N E
P MP
S chur
S ingleton
c uda
g tx
h igh
m odel
t desktop
Ġ 64
en berg
er Stride
ic ial
Ġf rame
Ġa v
is Unit
ĠP a
Ġd is
ST D
ot h
set Random
St art
St orage
ĠH e
<<" \
ĠO P
ess enberg
Ġmat B
CE PT
REGI STER
Ġoff icial
Sh ape
app lyOnThe
gener ic
Building Holo
fullPiv Lu
Ġmess aging
telegram desktop
isUnit ary
) +
* (
2 7
3 6
3 7
D Y
F unc
L I
L ast
L ook
O UT
R ARY
T ab
T rack
V ar
c la
c stdio
e ks
s d
er ative
Ġc uda
Ġi mage
Ġs qrt
Ġp q
Ġre l
Ġa d
ĠS DK
In st
ĠG raph
ge eks
AR GET
Ġh ive
Ġh ave
Ġe igen
ĠI f
ERN AL
[] )
Ġ} );<
Row Major
NO DE
Ġcont inue
BO OST
second s
Te mplate
By te
openHorizontal Box
IV E
LOR A
HAN A
Ġcor resp
ENS OR
Ġcorresp ond
& &
C urrent
K EN
M AN
O F
P S
P op
P TR
r and
v a
å º
Ġ up
Ġ" );<
le m
std lib
Ġf ib
Ġs imd
ro x
-- -<
us ion
ĠC heck
Ġw inrt
Ġ4 2
Ġ_ ("
== =
ĠR F
Ex port
Ex pr
pro ject
Ġhe l
base d
exp licit
Ġll vm
diagonal ization
expression s
ĠLIB IL
Com bo
aco bi
* );<
8 8
; }<
B ro
C D
C G
S ign
S yscalls
a ction
c allback
o ver
o unt
z il
æ ³
Ġ" )
Ġc p
it k
Ġb utton
Ġre size
Ġre qui
un i
ĠA V
ĠS P
im gui
Ġ& )
bo ai
uint ptr
Ġchar acter
ĠQ Dialog
th ree
ĠW ork
ib ility
LEM ENT
ĠPro file
WIN NT
Ġpre v
ĠAP PLICATION
init e
TYPE S
COMM ON
Initial ize
Const BaseIterator
Ġé ¢ĺ
Ġinf rt
ĠConst BaseIterator
Operator Type
zil la
Ġé¢ĺ çĽ®
B YTE
D im
M PL
O ver
S IG
S ource
S ample
h an
s ource
Ġ /**<
in Box
on line
lu ster
Ġ" -
Ġt inylang
Ġt imes
pa d
Ġre sp
ro y
ub e
mp loyee
Ġo pen
ĠS H
ch ain
Ġin st
LE AN
as n
Ġh igh
Ġar m
od y
ho uld
Ġcall back
ĠIn ter
TR ACY
Ident ifier
Ġtri diagonal
Ġro t
lim its
Imp orter
è¾ ĵ
ĠOP ENCV
! "
& );<
9 0
9 5
F orm
L ower
M ethod
V ENT
Y ES
a iz
b rain
h al
h and
j sp
n etwork
s ymbol
v ariable
ã Ģ
Ġ label
at ile
or s
Ġc al
Ġm odel
Ġt mp
Ġf a
ĠA pow
>// ////////////////////////////////////////////////////////////////
ol atile
ĠC HE
rag ment
ĠP ar
ĠT ree
ĠT INY
Ġ> (
IM ENT
Ġst o
em o
ĠH AVE
SC AL
Ġse arch
LO CK
ĠĠĠĠĠĠĠĠĠĠĠĠĠĠĠĠ ĠĠĠĠĠĠĠĠĠĠĠĠĠĠĠĠ
VERSION ED
Ġu pper
LIB RARY
function al
ä¸ ª
App rox
PER IMENT
]== '
hel lo
Py API
gener ator
Scroll Bar
10000 9
Ġ19 00
meg brain
online judge
aiz u
PERIMENT AL
A SE
D up
I ts
M an
R untime
S core
V AR
c m
c string
e ed
f ree
i um
m ode
n own
v v
v tk
Ġc rypto
Ġm emory
ri ter
() :"
Ġs anity
Ġre t
ect ion
ĠS ensor
is hed
ol y
Ġg o
Ġg em
IN TE
ĠE E
ĠP ublic
Ġ{ {"
ĠN ET
ad cast
Ġde st
EX PERIMENTAL
Ġset Text
Player s
]] ++;<
mid dle
ĠST DAFX
dl limport
mit ive
Desc ription
ĠLib rary
6 6
7 8
D P
D ONT
F eature
H O
H P
P ACK
R ange
W E
a ive
w orld
ri ve
Ġn ormal
an y
Ġf allback
Ġs low
Ġp o
Ġ1 4
Ġo ai
el ine
il t
sp rite
ĠN O
AR N
up Menu
olu me
Pro blem
row ser
ac y
Ġtr mv
di us
res ource
Ġoff set
exp ort
Ġ20 22
MM atch
Property Definition
Ġapp end
ifi ed
Graph ics
Ġblur x
Or th
DEFIN E
mission s
3 9
< >
D et
F ast
O ff
S PE
S qrt
S izable
W in
] >
a uth
a cos
j o
k er
w string
å ¯
æ Ŀ
ar ound
Ġf s
Ġs amples
Ġp ow
Ġ2 3
ĠP oint
ĠF ont
ort h
ĠB inary
ĠU INT
AC H
Ġr d
Ġr hs
comp iler
TO KEN
sc rib
Ġex ception
Ġth read
ip s
TEST S
com es
INT ERNAL
Ġal so
OP EN
Ġå ĩºåĬĽ
oc us
Lib rary
FIN AL
Tr ansform
Que st
element s
ĠCon fig
ĠEn ter
åŃ Ĺ
Rad io
çĶ ¨
HP X
6 2
F ound
I RT
L icense
R A
d river
g lobal
p ool
p onse
u it
w et
æ ±
Ġ ["
Ġc asbin
Ġn ow
se c
ing s
std def
Ġs o
he el
et ad
tr ansform
op tr
Ġ- *
Ġh d
ĠL OG
Ġe qual
Ġde terminant
List Node
Ġth in
Ch ange
ĠCre ates
KE Y
exec ut
PRO TO
sub str
Ġrep lace
mod int
rid ge
PRE COMP
Std Afx
aut optr
Push Button
CEPT ION
" _
C luster
E ffect
F lags
H WND
K ind
L ICENSE
S ync
W idth
Y P
] !=
f mt
r ange
s rrg
Ġ ãģ®
ri ved
co unter
Ġv ar
it ies
ra i
Ġs hould
he ma
ent t
ent ation
Ġo bj
ĠS ymbol
Ġg iven
ĠC ode
IN IT
ver ter
ĠP osition
Ġw ord
sp t
AR G
as set
ap on
Ġar ch
th row
pro perty
ive c
Ar c
ãģ Ļ
Ġle t
Ġdi agonal
AG ER
99 99
Piv HouseholderQ
gb a
åĪ Ĺ
================ ================
isc ard
ĠCom m
ĠParam List
ĠOut put
ĠOut erStride
Ġabs olute
sign als
Pa ir
ĠTINY LANG
( ...
6 0
A ccess
B E
C ache
I l
M I
N ormal
Q Dialog
S UB
U s
W ARN
c licked
f ilename
l ta
s chur
at ing
Ġc es
al le
Ġs rrg
Ġp m
Ġp Widget
la p
lo ud
ma cro
ĠA uto
is Zero
is Identity
is Ones
is Diagonal
is Approx
is Orth
Ġg es
io us
ĠM essage
Ġw ish
ation al
AL LOC
bo und
ĠF ILE
St atic
Ġh c
for ward
ĠR ef
Ġe iv
Ġe mpty
ĠI mage
comp onent
>> &
ens ity
Ġ5 0
matrix H
ner Stride
Row VectorXf
Ch ain
FOR CE
ĠArray Xf
Ġdo c
Ġadd r
ï¼ Į
Cpp Generic
Ġ... "
Ġschur OfA
VI EW
ĠLo ad
adjoint View
tree Wrapper
ĠProperty Definition
Ġsu per
Ġlow er
ANN EL
Sec ond
Tri diagonalization
è¿ Ľ
ĠMA X
self adjointView
Project ive
EXTEN SION
ĠGtk Application
ĠSDK DDKVer
ĠWork around
ĠCHE CK
etad ata
isOrth ogonal
Ġeiv als
3 1
3 4
6 8
A x
B ody
C opy
D B
F ree
F irst
M ask
V olume
] *
] ){<
b b
b t
b stract
d c
d ry
s se
s amples
v ariant
é Ģ
Ġ orth
en code
on ac
at ern
Ġf ilename
us er
Ġ( &
Ġ( __
ĠA SS
Ġin fo
ĠG lobal
set w
ĠU Int
IT ION
Ex ec
EX CEPTION
ĠV ersion
FA ULT
ãģ «
Ġset up
cl ang
imp erative
Lo ss
Lo ad
ãĤ Į
ix ed
"<< "
Ġor ig
Init G
ĠBase Element
Ġz ero
Ġ[ [
PER F
pac a
cle ar
ĠCh unk
åħ ¥
ĠParam ValueList
React Package
serial ize
lan e
Ġass ert
Ġwork space
Ro ot
IGH T
onac ci
atern ion
ĠASS ERT
' )<
( {
C al
F ind
I ma
M icrosoft
N G
N ull
P lace
S D
T I
T S
T FE
V E
V IC
Y Z
d b
d mat
g om
h i
j ac
l ess
n od
p osition
in vertible
er ic
Ġ= <
Ġn aive
Ġv iew
Ġf un
Ġs a
Ġs m
ur s
Ġp b
Ġre pository
-- )
ĠA khtyamov
ĠS erver
io me
ĠT ime
arg est
Ġ- =
In verse
ext ension
ĠN OT
ĠD erived
Ġ3 0
Vector Xd
ĠB u
th on
Ex p
sh ape
ĠK ey
par ator
Str uct
ta ch
UN K
ĠIn itial
Sc alar
ert ex
Sh ared
ep i
He ight
EYER AV
ĠQW DIALOG
UTIL S
FORM AT
ADD RESS
å¤ §
Mon itor
ĠTr anspose
Linux Syscalls
æİ ¥
Ġav ailable
ĠPa vel
Ġorth ogonal
nod iscard
> )
A udio
B L
C mpt
L en
L ONG
M ath
N etwork
R L
S u
S ele
[ [
c ryp
d x
f ilter
i e
l p
s low
t c
w in
æ ĸ
æ ŀ
at tern
re quent
Ġ" /
() :
se arch
he st
he ader
Ġco mb
ex ample
ĠA pplication
do t
ed i
ch er
ont gom
ge mm
ĠL abel
Ġarg s
ME AN
con f
sc alar
ãģ Ħ
Sc ript
Lo cal
rip tor
Dialog Size
Ġlib rary
Di rection
åĪ ¶
VI DE
ĠDec l
Op tions
Ġpar se
Sp lit
oogle Test
Call Expression
FR AME
---------------------------------------------------------------- --------
Ġsto red
InitG oogleTest
ontgom ery
, &
2 64
7 9
A A
B IND
C X
F U
G iven
J ob
K CPP
P re
P LE
U PP
V ariant
s qu
t l
t ag
å Ĩ
ç Ĥ
ĉ ĠĠĠĠ
ĉ ĠĠĠĠĠĠĠĠĠĠĠ
Ġ utils
in ished
on n
re move
ut s
ut down
he x
ig its
ĠC lient
ĠM enu
ĠM ove
ĠP AR
Ġw char
ul ation
ul let
ĠG LE
ĠD WORD
AT H
PL AT
ĠF iles
DE FAULT
ĠL P
ĠU til
ĠW rite
ĠH Y
Ġde vice
En abled
qu ence
CO DER
Ġse lect
Re quest
ĠIn clude
ak en
Ġpri me
point er
Cont rol
PRO CESS
Ġid x
Model Importer
Se parator
Process or
Gener ator
PAT CH
we ak
Ġminimum Size
GRAPH IC
Found ation
requent ly
" );
4 8
6 5
A bout
D C
D ir
H ANDLE
L AB
T IME
U CT
U rl
c a
c math
e am
e ad
f un
f wd
m es
p l
Ġ loop
de rived
Ġ" ";<
Ġc urr
Ġm ouse
es ky
() ){<
se lect
id x
he et
et ter
ig hest
ent al
ĠS ource
ĠS imple
ol esky
++ ;
ed ia
ĠM ax
const ants
pre s
ME SS
par ty
RO W
BU FF
res ent
ET H
Lo c
Ġbu f
Ġcl one
Ġal ias
TR A
Sh ow
An swer
Ġsc alar
Sp inBox
Line Edit
WINDOW S
Forward Impl
ĠTh read
Ġcom ment
ansl ation
Bro adcast
Ġresp onse
SCAL LS
' ;
' );<
2 9
F alagardPropertyBase
G x
I m
L IM
Q L
c py
c amera
d isplay
d iff
n an
n ames
o bs
v ulkan
w idth
w arning
| |
} ,<
ç ł
è ®
Ġ local
re t
or ity
ut f
Ġm enu
es aw
Ġi gno
ic le
Ġf d
um ents
ĠA N
Ġma cro
Ġ// ////////////////////////////////////////////////////////////////
ĠS ingleton
yp edProperty
ĠT ypedProperty
//// <
Ġd ynamic
Ġw ant
EN U
EN TRY
op s
te p
ĠN ame
ge st
<< (
ĠF alagardPropertyBase
get char
per f
sh lib
Ġr ange
pro d
En coder
ess ion
Ġans wer
Ġdef ines
CH AR
Sc reen
Ġle vel
Menu Item
Res ize
)<< "
Property LinkDefinition
Ġdo es
Int ensity
App Config
Ed itor
sub missions
Ġmid dle
Initial izer
ĠProperty LinkDefinition
IV ATE
ci an
Ġent t
React Native
Typ edProperty
Ġ[] (
ĠSh ow
ĠComp onent
Alloc ator
SHARE D
mac ros
reduce d
ĠLO SS
Pop upMenu
han a
ĠTree Node
INTE GR
PACK ET
WE AK
å¯ ¹
ĠComm and
PLAT FORM
çł ģ
& ,
. \
B ool
C UD
C ell
L AYER
O SCALLS
S ection
T ARGET
T ACH
W D
W ork
] -
] ++;<
a res
b f
n able
p ower
u ra
} ;
å į
on y
er ies
re la
Ġm ode
ri t
co ding
it ive
ra ft
Ġs ymbol
Ġa g
Ġa ct
la d
la s
str uction
ĠS p
IN LIN
ist ory
In teger
Ġ& _
Co lumn
ĠD raw
Ġst ampa
ĠU String
ign ore
ang ed
Ġy y
ĠV alue
En d
ess ages
CO UNT
Ġmax i
oo lean
Ġcomp il
LO ADER
ENABLE D
ance l
ĠPro ject
Test Main
Ġ20 19
Ġprint re
ĠRegister Tests
Ġgener al
Ġgener ator
SER IAL
Ġval id
Di rect
Qu ant
Ġen abled
text ure
statement s
ĠDE BUG
Channel Rule
IMP LEMENT
DY N
itk TestMain
ĠSP DX
Ġrot ate
Ġ-* -
YP TO
BUFF ER
rela cy
INLIN ED
0 6
2 3
D oc
F ield
G uard
M R
M S
T ip
T ick
T aken
Y es
a use
c rypto
g ing
k i
l t
l cname
n ative
s im
u ch
de s
Ġc ontext
Ġc amera
Ġm e
ct x
Ġt ag
pa ss
Ġv a
Ġs ample
Ġb ack
et ers
++ ++
el ta
Ġw orld
()< <
ir cle
Ġj ac
ĠL e
ĠI dent
SE TT
Ġget line
uns Given
Ġbe comes
Widget s
sc hema
Ġtr anspose
reg ex
CH ANNEL
ĠĠĠĠĠĠĠĠĠĠĠĠĠĠĠĠ ĠĠ
rig ger
De composition
AM L
CON STANT
Text Codec
ay s
Ġdo main
alls Play
SY STEM
ĠAP I
Ġor der
ï¼ Ī
ï¼ ī
api en
ĠAn gle
param s
UC NAME
Des ktop
Ġqu isp
Mod ules
Ġchang ed
Ġpy bind
ĠString To
render er
Val id
ickets Taken
STAT US
Ġrel ative
>////////////////////////////////////////////////////////////////// ////<
ilt in
Off set
Ġ////////////////////////////////////////////////////////////////// <
allsPlay ed
$ <
, "
4 2
7 2
> /*<
C am
D R
I F
I f
J acobi
M ult
M ENT
P latform
R ot
S ys
S UC
T itle
V ideo
c at
n et
p b
r n
r in
t ask
v ations
w x
de st
st atus
en c
Ġt ree
Ġf mt
Ġs igned
Ġre v
Ġco mmand
ĠA pac
ĠC ON
ĠE ntity
ĠM Match
ĠT FE
Ġd l
Ġd im
sp otify
Ġl p
RE E
and ies
ans fer
Ex it
Ġr and
ĠO p
List Widget
ph ome
PE CT
bu ild
to col
STR UCT
De lay
On ly
Function Map
Test FunctionMap
Ch olesky
ĠSt art
Ġcon structor
Un ique
isp atcher
Ġcont ent
min Coeff
Hel p
Ġadd ress
Ġsh ape
ASS ERT
Module EntryPoint
Game Type
ä¸ Ĭ
CODE C
Op tim
resh old
åı ĸ
DX SDK
PR IVATE
Ġ[] );<
setup Ui
Port Client
è¾ĵ åħ¥
ARG S
è¿Ľ åĪ¶
VIDE O
CUD A
ĠStringTo TestFunctionMap
ĠApac he
" (
" ).
' \
8 2
> [[
B ACK
B allsBowled
D river
R unsScored
S upport
T A
T ag
T wo
U Int
_ ("
b reak
b enchmark
c or
c ce
c assert
f it
h ack
h ardware
i vate
l g
p c
t ed
u g
u ri
v d
y y
st at
re x
ar z
ri tes
Ġi tem
co lumn
Ġt ensor
al k
id den
Ġf ree
Ġs b
Ġa x
ĠA ssignment
ĠA udio
ĠC olu
ĠP R
ĠT ri
ul er
ist s
In ternal
ĠG ener
ĠN V
(" /
IM AGE
ĠQ Object
ĠR andom
Ġe val
ĠB etter
ĠI O
Eigen values
Ġget Name
col PivHouseholderQ
iv ity
AM IC
ĠIn put
ĠIn nerStride
Lo st
ĠSt ride
25 5
Menu Separator
UI Kit
Ġrep o
chw arz
cur s
Ġline ar
ĠLog ger
Ġext ract
INTER FACE
Binary Stream
ickets Lost
Conditional Wrapper
ĠCol or
Ġsqrt A
MAN AGER
Doc ument
ĠColu mn
colPivHouseholderQ r
) *
, :
3 8
A pi
A uthor
D S
D ll
D erived
E num
F i
H essenberg
I o
N amespace
W t
W IDGET
^ (-
c luding
f stream
i ed
n e
s u
s ing
t ure
t inylang
z ied
Ġ queue
re es
re set
re ater
Ġm l
Ġm o
Ġm s
ri end
Ġi ss
co mmand
Ġf req
ra sh
Ġp seudo
lo t
>} }<
ex u
um b
ĠS Y
Ġg cd
ch all
io s
il li
ĠP PP
ĠT ra
Ġd istance
Ġin stance
te am
In tern
Ġ& );<
as ure
as Diagonal
Ġby rn
ĠF ullPiv
Ġh and
ial Functions
ĠI o
Eigen vectors
Ġr ank
om ial
ĠW in
ĠH AL
", "
MO D
mat B
Ġde scription
back end
TE CT
Ar r
12 3
matrix U
dex cept
On e
OL D
Array Xf
>() )
prec ated
sm ata
OP T
Path s
Spec ialFunctions
PRO G
Param eter
Se arch
Ġlu OfA
Ġen v
RowVector Xd
etric s
ĠFunction List
Vert ex
******************************** ********************************
Qt Core
Run nable
ĠDense Base
Ġcos A
ĠDi agonal
iss on
MAC OS
Ġtra cy
We apon
ĠNo te
eigen vectors
Ġsin A
SV D
LINK ING
Complex Schur
Ġunit ary
house holderQ
applyOnThe Left
Ġeigen vector
Over lay
Ġthin Q
Ax isf
ãĤĮ ãĤĭ
Ġalias ing
Ġigno red
Ġgeneral zied
DYN AMIC
ĠAngle Axisf
SUC CESS
ĠBetter Quant
,: )
Hessenberg Decomposition
ĠPPP tr
Ġbyrn exu
) [
4 0
> $
A ss
B rowser
C M
C U
C ard
C md
E VENT
F ULL
F ocus
M UL
O ri
P U
P h
P OS
S X
T EXT
U TO
V A
X YZ
Z Task
Z Behavior
a is
a ded
d f
k nown
l ing
m enu
o i
p ol
t imer
v g
v alu
æ į
é ¢ĺ
Ġ ----------------
Ġ ä»
st op
st yle
st dexcept
Ġm ethod
ar ing
ar ation
() >
() ,<
ct est
ic ro
Ġ* ,
Ġf ill
Ġs pace
Ġs upported
Ġs prite
Ġb oolean
Ġre mo
Ġint ernal
>// ------------------------------------------------------------------------
IN etwork
ĠM AT
ĠT emp
Ġd raw
Ġw t
AL SE
sp rites
Co coa
pre v
as es
as se
Ġst orage
Ġe ven
Ġe osio
ĠI R
og ger
sh ort
con nect
ard uino
ele ase
Ġmax Index
ãģ Ī
Ġex it
Ġcomp ile
Ġcomp onent
Ġinput s
UT F
ĠĠĠĠĠĠĠĠĠĠĠĠĠĠĠĠ ĠĠĠĠĠĠ
De pth
Con sole
ANT I
ger y
Sc anner
Ġpa d
Reg istr
Text Formatting
**************** ****
Ġcon d
File Name
Ġle g
ĠRE AD
Ġtype def
UR L
Cont ent
inter rupt
lex port
ĠID S
Vis ible
Param List
GET LINE
(_ ,
NON E
blur x
ĠRe ad
Colour U
quent ial
fix ed
Open GL
Char acter
ĠCH ud
QW DialogHeaders
Ġcorrespond ing
Sign ature
scrib ed
heel Event
LIM IT
INetwork Definition
) {
. ";<
4 6
8 7
8 9
B ASE
C RE
C lose
F D
F a
G enerated
T iny
U SB
\ \
g o
g roup
h d
m eta
n i
n Press
q l
x so
{ ,
ä º
å ®
å ĩº
æ ł
è ¡
Ġ util
Ġc md
Ġm ore
co ped
pa use
Ġb ig
Ġa ction
ect ed
ro d
ma ph
ex er
ĠA ction
ĠS IM
is rex
ĠC E
ck et
ch ine
ĠM ulExpression
.. .<
Ġ2 6
ĠD ialog
ĠD ivExpression
ĠF ind
ĠF orm
== '
get line
Ġk e
Ġde bug
String Ref
Ġpro blem
CO L
ph ere
ant i
Ġdef inition
eff ect
ip eline
Con nection
low er
add r
Ġ20 21
app end
Ġspec ific
pe ed
ĠY AML
Class ifier
{{ {,
VI S
Qu aternion
NT T
Ġwh en
ĠAdd Expression
ĠAdd ress
ĠEX IT
Ġqu ery
Ġimp lement
CR YPTO
Mouse Event
ĠSub stractExpression
non atomic
Power Of
ĠNumber Expression
(){ }<
Ġfold marker
Ġfold method
alph a
ReactPackage Provider
UPP ORT
INTEGR AL
ĠIdent Expression
Ġmo isrex
maph ore
" };<
) >
) ),
. "<
A g
C lock
D M
D ist
G LE
L exer
M em
N EW
O b
S ENSOR
T P
T ERN
T AG
U int
U INT
X ML
] <<
b a
b c
f re
h andler
i re
n b
r hs
s es
s leep
t mp
} }}<
Ð ¸
Ġ<< "
am x
Ġm g
Ġi con
an ch
ing Classifier
if orm
Ġv olatile
pp ed
ra d
Ġs l
Ġp Action
Ġo ld
ĠA nd
ĠC lear
el com
ĠM emory
ĠT ips
im est
ul ator
Co mb
ST O
RE CT
ad get
Ġch annel
AT EG
Ġh ighest
ĠQ Label
Ġst at
ĠR OW
Ġe lab
ĠU T
AP E
sh al
ĠW IDGET
ĠK ernel
est roy
ĠH ash
Ġde lta
ED IT
BU TT
ĠV ertex
List ener
Ġpro va
qu ery
Ġarray s
CO LOR
eng es
di ag
Ġcall ing
OL VER
DL IB
Ch anged
ari es
NO WN
ix el
Ġpri ces
AS IC
Ġexp onent
inter pre
Sco ped
Se quential
EYER LIB
ĠEyer AV
pack ed
FE AT
ĠEX PORT
Ġpos itive
Ġinitial ize
Ġlm gl
vis ible
Ġinc luding
Ġam ount
74 2
<<"* "<<"
Ġinter face
Ġcpp git
ĠPri smata
ĠRF K
Ġhel per
ĠInitial ize
Resize Event
ChannelRule Mgr
Optim ization
elcom e
ĠROW S
BUTT ON
6 9
= %
= '
> ());<
A F
B EN
B ASIC
F lex
I gno
N ABLE
O LED
P in
P alindrome
R U
S ide
W OR
[ ];<
d igit
p m
p q
p id
p latform
s upported
v t
w inrt
ä ¹
å ĩ
å ī
ç §
ç ¬
ç ®
ç ´
Ġ ()
or ig
Ġ" ["
Ġc lear
Ġre quest
ub l
ent ry
ĠC al
IN E
ĠM ust
im ated
im ental
Ġw as
op tions
ĠN ot
ĠL u
Ġe le
per imental
ĠH UD
ime des
ĠO B
Node s
iv is
EXT ERN
mn g
Def ines
Un ary
Ġq t
OT G
ick er
ĠID D
param eter
oft ware
Ġinit Program
ric s
Ġsw itch
ĠUn i
pac ity
err no
err ank
Scroll Area
dis able
sign al
INST ANTI
Ġplayer s
az y
94 02
æľ Ģ
iter ations
oth er
ĠHe ader
Ġprev ious
æ± Ĥ
Us age
EXTENSION S
hack errank
Io ctl
chall enges
>//------------------------------------------------------------------------ -<
5 8
A v
B ullet
G ER
L APACK
M ark
N ET
V irtual
W riter
] ];<
] >=
_ ->
a arch
f ib
g n
g ray
h en
h ook
i u
m ar
n ess
o x
o lean
r ank
s l
u pper
w ap
å ½
Ġ `
Ġ layer
ģ ¯
Ń Ķ
en able
at al
lu e
re l
ut es
ri s
() +
al igned
al paca
Ġs k
Ġp uts
he type
he ll
ect ive
Ġ1 7
ma sk
Ġo dd
ex perimental
iz ing
ĠS u
ĠS TR
ĠC C
ĠE NTT
ĠT H
ĠT itle
Ġd fs
Ġl mng
LE V
bo olean
ĠD ate
Ġj o
as on
as ync
ec ause
and roid
ĠF OR
ĠF AST
Ġ4 0
Ġh ost
ĠL AN
ĠQ T
ĠB y
ĠU ser
ue st
IT ER
Ġ' ;<
Ġarg ument
th ird
ĠH ouse
Ġde cl
DI OL
Ġset tings
Ġcomp iler
Ġth an
Bo und
ĠEx ternal
test ing
amp ler
ĠPro blem
elem etry
pen dent
ak ura
ECT OR
Ġal loc
Point XYZ
point s
>/* !
SER VER
ĠQString List
ĠAn imation
Link ed
mod ules
PAT TERN
cont ainer
Ġper f
ĠUSB CON
den se
Pri me
MAC H
uff ix
ĠFEX Core
Ġstatement s
Progress Bar
Combo Button
WARN INGS
VIC E
CX X
Ġcompil ation
Rot ation
enc il
255 19
illi seconds
Flex Lexer
Igno re
ç® Ĺ
DIOL IB
! !<
) %
/ .
/ =
5 00
6 3
> "
B ridge
D JSON
E OF
F C
F lag
G FX
G pu
I ter
I VER
I ATE
N I
O FF
P anel
Q MouseEvent
R ate
R AN
S k
T ur
a h
a u
a ver
b itmap
c ent
f lags
l s
m isc
o ai
p ose
s ame
t f
å Ľ
æ Į
è §
Ġ --------------------------------
er ature
Ġc re
am ed
Ġm int
Ġn v
ct ime
ing ly
Ġ* );<
Ġs imple
Ġb enchmark
ro p
ub a
ĠA d
++ <
Ġg roup
Ġis inf
Ġis nan
IN O
ch annel
ĠM B
ĠM o
ĠP C
Ġd igit
ul ses
Ġin l
Ġin order
Ġl cname
ĠN on
PL AY
ĠF ill
ĠL ay
for geeks
ĠQ u
ĠI tem
per ation
struct ure
th izer
Ġr t
Ġde mon
lib gba
GL Core
CO PY
Ġse ed
iv es
Ġth en
log ue
De ath
Con f
Ġpa ss
ãĤ Ĭ
UG M
File System
Ġle ast
Set ting
DU INO
RT TI
Ġsub diag
ared Norm
Ġtri angle
Inter rupt
æķ ´
Ġsc ale
Param s
NS String
ĠIN STANT
ock et
ĠSc anner
off set
Ġimp lementation
PO INT
Ġmay be
ĠDef ault
Desc riptor
copy right
Ext ension
Ġident ity
geeks forgeeks
Ġrequi res
ĠSensor ID
Ġgo es
ãģĻ ãĤĭ
lap sed
squ aredNorm
rit ical
SETT INGS
CONSTANT S
cce ed
Ġiss ue
INSTANTI ATION
ŃĶ ãģĪ
ĠINSTANT IATE
) ).
5 7
8 742
A SH
D ivExpression
E lem
E mployee
F in
F ace
L EN
M ulExpression
M ENU
N on
O DE
P ool
P HY
R UN
T one
W ait
c raft
d w
g os
l ight
l ision
m ing
p t
t le
u v
v iz
æ ģ¯
è Ģ
é Ķ
Ġ Ð
Ġ ++)
de que
at ar
Ġ" [
ut ator
Ġm i
Ġm ock
se q
co mm
Ġt ot
Ġt rack
al bum
Ġf r
Ġf riend
Ġp atch
Ġp lace
Ġp attern
Ġb ecause
he f
un it
Ġco st
lic y
ma i
iz es
ĠS L
ĠS O
ĠS erial
Ġg l
Ġg raph
ĠC OL
ĠP er
ĠT op
Ġd ist
Ġd xvk
ge ometry
ĠD P
AR T
AT IVE
St age
ort ion
Ġe very
ĠB iome
li boai
ĠU SE
its uba
sh r
est ore
num eric
Ġde scribed
Pro c
ser v
ain s
sc ene
Ġmax Pro
CH MARK
On ce
are st
Function List
ĠSt ream
mo zilla
WI FI
Set Key
Res ponse
Ident Expression
Add Expression
Code Graph
Error Code
PRO JECT
function s
]= {
Number Expression
Ġparam eter
ĠOpen AI
EYER PLAYER
Sub stractExpression
att le
pack ages
Ġlink ing
Ġper son
ĠQW DialogHeaders
Att ribut
FUNCTION S
ĠDef inition
åĢ ¤
Ext ent
*/ ,
Ġra dius
initial ize
Act ive
mut ation
ä½ ľ
Ġli boai
LI ST
Ġarch imedes
bt n
Ġorig in
ĠBu ffer
ĠUtil ity
Cam Sensor
MACOS X
Ġ---------------- ---<
ĠREAD ME
ĠMo zilla
Ġdemon ware
& ]
5 6
; "
B in
B LE
D istance
D REAM
D rive
D ispatcher
F iles
H ex
H EL
M C
P OP
P ASS
S W
S m
T Y
T IM
d log
e h
e ven
i ver
m anager
m alloc
m itsuba
n x
n ap
p ract
r en
s y
s afe
t itle
z ero
å °
å ĩºåĬĽ
æ ¡
é Ĺ
Ġ lock
Ġ ++;<
Ġ effect
ut able
Ġc ustom
Ġm d
Ġm on
ar on
ar ations
Ġt ex
Ġt ony
Ġs akura
Ġp in
Ġre curs
he me
ro ss
un cher
lic ates
** <
ĠS RC
ĠC ATCH
ver ify
ĠT CP
Ġd istributed
Ġin ner
ST AB
ĠD isplay
ir s
AR PMP
and box
ĠF oo
ĠF ast
ĠF rame
DE X
Ġx y
ĠB utton
AN H
IT ensor
lus h
em ove
Ġ' ,
od ium
comp lete
SE C
CT RL
con nection
ION S
RO M
ĠV ar
ac count
ĠX OR
Ġcomp at
CE GUI
Event s
CL I
AM PLE
Of Camera
loc ation
max i
Ġtest s
Ġcon v
Ġcon vert
Button s
Ġ20 13
', '
app ing
effici ent
ĠZ Rule
ĠZ Task
CPP RTTI
event s
]] <
yam l
Key board
Check ed
ĠWidget s
24 2
ĠIN CLUDE
ĠDe vice
ale ct
Ġen able
pac ing
ONN X
Line ar
board Id
QString List
DOW N
cul ate
Tra its
player s
Ġent ity
Max imum
link ed
PY BIND
Eyer Player
Ġlm editor
Ġass ign
Ġpack age
As set
åĲ Ī
è¯ Ŀ
HEADER S
Temp orary
ĠTEST S
=== //<
Ġ1900 242
Ġgem m
OPEN AI
Sele ct
cor rect
Ignore Scroll
pract ice
' ){<
5 1
> ):
C Y
C NT
C vt
D ot
D ark
D elta
E ven
G l
G AME
M eta
M ATCH
Q T
R eturn
R AY
S eg
S leep
S da
T W
T X
Z ip
b ed
c g
d r
d st
e b
e osio
f ps
f req
h ere
j ust
r aries
s igned
t Expression
u de
å Į
Ġ ><
Ġ endif
Ġ efficient
de code
en ces
re c
Ġ" :"
Ġm ust
ar p
() ==
() ->
ic OperatorType
Ġ* (
Ġ* >
Ġv i
Ġf ilter
Ġs end
Ġp ch
Ġp Sizable
Ġre f
Ġre set
ma il
um my
ĠS X
ĠC K
IN PUT
ĠM od
ĠM ouse
ĠM esh
ĠM EM
ĠM utex
ĠM GB
Ġ2 1
op er
Ġfor m
sp dlog
ĠG E
ĠG U
der r
RE LU
ĠF s
DE D
DE F
St ra
Ġh w
IL ogger
ĠQ TextCodec
ĠU LONG
IT S
os ite
UL ONG
sh a
ĠH EL
MO ID
Ġde n
Ġde pth
[] );<
ĠV iew
List Box
ff ine
ff ff
TE MPL
ãģ ª
bu iltin
Ġse g
LO AD
ab c
ab les
CON D
View Model
View port
OB S
ĠSt ack
Comp iler
File Path
line ptr
Ġal gos
ĠZ Behavior
dim ension
Game State
Cpp String
EXPORT S
ĠMat erial
Fact or
ĠDe bug
åĪ Ĩ
Message Window
Ġlu a
Ġcheck ed
vers al
CA ST
Ġne cess
TRO DREAM
ĠQW DialogSize
Const ant
SDK DDKVer
cro ss
ĠMY GETLINE
ĠDes c
Global Map
## ##
Serial PortClient
Token Kind
Ġrender er
Ġvis it
Ġvis ible
SHARE DLIB
Ġfact orial
ĠText ure
heat shr
Mac aron
Ġdis able
ĠGraph ics
ĠAV UTIL
ãĢ ģ
Ġgem v
PROTO COL
(... )
Copy able
ĠQWDIALOG SIZE
ĠPAR TE
å¯¹ è¯Ŀ
lad der
ĠMAT LAB
ĠSIM DJSON
ATEG Y
Ġexponent ial
LEV EL
Ġ-------------------------------- ---<
SetKey Env
æ¡ Ĩ
ĠTCP OPT
heatshr ink
å¯¹è¯Ŀ æ¡Ĩ
" ][
" ].
- (
8 5
< >(
B it
B its
B RO
C an
D D
E C
G U
H ake
H RESULT
K ERN
K ernel
M ar
Q Pa
R ed
R ound
S K
T ABLE
W nd
W ITH
] <=
c ustom
d ic
m ute
p seudo
p Hake
s a
t up
u vec
¥ æ
å ¹
å ĵ
å ľ
ç ¨
è ¨
Ġ ul
de sc
de terminant
on gest
re v
ut or
Ġc a
Ġc c
:: _
le gate
se ed
se ction
co st
an e
Ġt rigger
Ġv d
Ġf i
Ġf n
Ġf ragment
Ġs apien
Ġs pacing
Ġp resent
Ġa ccess
un used
do ctest
Ġma chine
ER SION
el y
ch or
ĠM ono
ĠP latform
ĠT imer
ĠT emplate
Ġw ait
Ġ{ '
Ġin valid
ext ra
ĠN T
ĠN ew
ST REAM
RE AL
bo t
ĠD ll
AT OR
== (
ĠR A
ĠB oost
ĠU N
ult ip
ang es
cpp git
Ġk er
CT L
con struct
bool alpha
Ġover write
Pro xy
Ġres izing
ĠV ERSION
ph a
sc ale
Ġmat mul
ãģ §
ãģ ¨
ãģ į
fa ct
Ġset Icon
Ġex ample
ant ed
STR ATEGY
(); //
ĠEx p
De pen
Ġ} ;
ĠIn teger
ET A
SL AM
Of M
Of V
DL ER
cp u
Ġit k
ĠCo re
Comp aring
Get Instance
Point er
AS K
ces sed
Ġll t
ĠSC P
AG ES
Id s
Add r
Ġadd ing
ep s
Ġspec ified
Inter pre
EL D
ĠID T
ä¸ Ģ
av ed
Ġ... );<
ĠST AT
ĠWIN API
ULT I
dl lexport
ĠCom mon
Qt Widgets
SDK Ver
Draw Context
Not Equal
wh ich
qui red
Ġcontain s
ield s
Ġinc rement
HAN DLER
FL AG
åĲ į
mult ip
lip board
Ġç ŃĶãģĪ
Back end
Ġli ke
ĠTR UE
æ³ ķ
Ġinst ead
HO OK
alle l
UNK NOWN
header s
çĤ ¹
Ġselect ed
Ġextract ed
Ġcond ition
åī ²
Ġele vations
ĠBy te
Ġnv infer
æķ´ æķ°
ĠMEM ORY
Ġnecess ary
Macaron lib
& >;<
* <
2 19
9 6
B egin
C ase
C licked
D estroy
E SP
F usion
F WD
G en
H ud
H ost
J ump
J edi
L T
L et
N D
Q ResizeEvent
R F
R el
S tep
S UPPORT
T V
T op
T ON
T Vec
T imest
V ulkan
b asic
c er
c mp
d raw
d istribution
f inished
g s
i CG
i Fi
j u
p lace
q w
r al
r ate
r uit
r anch
s sed
s ample
t ot
y r
± »
· åıĸ
ä ¿
è İ
é ķ
Ġ OR
Ġ IM
Ġ raw
Ġ ERROR
ħ į
ĭ æķ°
de v
er Test
re lease
Ġ" --
Ġ" ));<
ut er
ut ol
Ġc ache
Ġm f
Ġm an
ri tten
def s
def inite
an im
Ġt ask
al ized
ic ha
Ġf ps
ra dius
Ġs im
Ġp encil
Ġre c
ss l
Ġa sm
lo ok
str ong
Ġo wn
>// /<
Ġma jor
ĠS elfAdjoint
ĠC wise
IN DEX
el s
yp h
ĠE NUM
ĠE mployee
__ ,
ĠM ine
ĠM AKE
ĠP S
ĠP tr
ĠP ath
ĠT ear
00 1
In Place
Co mm
Co effici
ĠN UM
bo ur
ĠD xso
set State
DE L
St at
St op
ĠL azy
ĠQ MainWindow
ĠQ iu
Ġst ride
Ġe ig
Ġe mit
ĠU sing
Ġfile Path
ĠEigen Solver
ĠW hen
ĠH andle
ĠH essenberg
CT Bridge
QU EST
ptr diff
mat A
ith ms
ALI Z
ute Th
pri ces
ref lect
Ġ! !!
qu ency
qu ares
matrix Q
DI R
Ġmax Norm
Ġmax OfV
Ġuint ptr
ary Expr
compute Inverse
ĠEx ec
De coder
rt w
read y
ĠIn cluding
Array XXf
Ġpa ssed
Ġstr len
Ch unk
af ruit
Ġun i
Ġun ique
Def s
ĠCo der
Ġcon serv
Ġmin OfM
ld lt
CK ET
Statement List
Ġexp ected
Ġapp lyOnThe
Ġcopy Upper
ĠSet Up
ĠMO CK
holder Coeffici
ml ir
als a
ĠOpen GL
Piv LU
gor ithms
igh bour
Ġ-- "
Op tion
ĠLo ck
Ġwh ose
ĠUn aligned
Sub treeWrapper
operator Norm
operator Sqrt
Ġcompute U
Ġcompute Eigenvectors
Gener alized
Ġ10000 00
UD im
Ġne ighbour
RowVector Xi
rep o
angular Part
Ġro cm
coeff s
bin ation
ĠEX PECT
cwise Equal
cwise NotEqual
ĠCom bination
With Check
Ġ"]^ ["
Pri mitive
ĠRowVector Xi
Mod Int
ĠBO OL
artial PivLU
Read Only
Ġpy thon
Eyer Core
lan tern
Tri angularPart
Ġ", "
Cond ition
ĠDi rect
iss ing
Ġtra iler
ĠSub treeWrapper
Ġplayer ID
LEG ACY
Ġpack ed
FL ANN
HouseholderQ R
ĠPrint Statement
Do ing
ĠData Matrix
Ġ25 6
Real Schur
ç» ĵ
Ġsign al
ĠWe icha
ĠScope AssignmentList
Complex EigenSolver
hys ics
ĠFa de
house holderCoeffici
alph as
applyOnThe Right
Last Error
Ġcorrespond s
SIG MOID
VAR I
middle Rows
middle Cols
Ġpo isson
SPE CI
jo ined
lp Norm
GRAPHIC S
MESS AGE
Broadcast ing
sim de
Jacobi Rotation
ĠTri angularView
Ġlinear ly
ĠFullPiv LU
ĠWin SDKVer
ĠTemp orary
packed Matrix
WOR K
ç¬ ¦
ubl ish
Unary View
Ġjo ined
ĠHouse holder
èĢ ħ
éĶ ®
Ġmock a
ĠTop ic
ĠVar Decl
Seg ment
dimension al
iCG STAB
ju gate
èİ ·åıĸ
ħį åĪĹ
utol ink
ĠSelfAdjoint View
ĠCwise UnaryView
ĠTear Down
uteTh in
Ġconserv ative
ĠcopyUpper TriangularPart
ĠWeicha o
householderCoeffici ents
" },
4 3
7 5
= {
A UT
A sync
C F
C RT
C ritical
F oo
F ov
G T
G la
G IC
H int
H older
J U
M Q
M ol
M ontgomery
P AN
R elease
S QL
S ession
S phere
T ex
b vec
c ap
d at
d vec
e ve
f ull
f older
f usion
g t
n as
p cl
p anel
r on
r ins
t rack
t ract
£ çłģ
Ð °
æ Ī
Ġ ./
Ġ url
in ation
de lete
de nc
de lim
st b
re te
inc e
es e
ar ithm
Ġi p
an imation
Ġt imer
Ġv er
Ġp id
Ġb itmap
Ġre al
Ġre ader
lo s
Ġco mmon
us ic
Ġo bs
ĠS ys
ĠS ave
Ġis PowerOf
ĠC ond
ĠE SP
ĠM ock
op h
AL E
sp lit
In f
Ġl argest
ĠG PL
ĠN ull
RE EN
eg acy
Ġch ain
Ġch ange
ĠD istributed
DE TECT
ĠQ Color
li ce
per ti
ool s
nt t
Pro duct
fo map
back ward
ref ix
ta b
En able
DI V
DI AN
PE G
AD T
SC R
Node Data
FAIL URE
di ator
ho ge
0000 9
To String
ĠGL Core
Comp osite
ari ables
NO T
Ġcon nect
Ġ9 0
DU MM
Ġpri ority
Ġprint s
Add on
Int Ptr
FF ECT
FF FF
Ġlib raries
Ġ** )<
ĠCO RE
ĠY our
ĠY ou
IP v
Util ity
ĠEyer Player
eta il
Ġ12 3
alloc ate
cont rol
*) (
Register er
isc rete
target ver
Mod ification
vert ex
ĠPlayer ID
ĠFor mat
mon itor
vis ibility
åĢ ¼
ĠSe eta
curr ency
Do uble
ĠMA IN
codec hef
ansl ate
ĠLLVM Fuzz
Rec ord
device s
Ġdetail s
mint rin
MARK ER
ĠNS Object
Back ground
OUT PUT
Tab Frame
Track er
uni std
Radio Item
alle st
Ima ges
Ġsm all
Su ccess
Split ter
ĠLP VOID
Mult i
CU STO
ĠCHud Elem
shal a
interpre t
CLI ENT
Ġ1900242 10
Stra Fact
tup le
ĠRA DIOLIB
ĠçŃĶãģĪ ãĤĴ
ĠMine craft
Gla diator
Montgomery ModInt
denc ies
ĠGPL v
perti es
DUMM Y
" }};<
2 35
4 9
5 3
7 0
8 000
> \
> _
A bstract
B ig
B ER
B rain
B LOCK
C String
D uration
D etail
F EX
F ALSE
H ook
L C
L i
M X
M ING
M ach
M ov
M edia
M essages
O Y
P o
P ix
R AM
S im
S ORT
S ocket
U se
U bpa
V ID
V ECTOR
W ord
[ (
\ ":
b ine
c n
c r
c ar
d up
j s
m ontgomery
r sqrt
s alsa
v olatile
w itch
w elcome
x ml
å ¼
é Ĥ
é ĸ
Ġ $
Ġ ec
Ġ ros
ī ç
in ing
at ter
lu g
re quency
Ġc s
Ġm er
Ġm etadata
Ġm utator
() *
() /
ic ation
std out
Ġf ixed
Ġf requently
it ect
ra de
Ġp e
Ġp cl
Ġp ost
Ġp Parent
Ġp DC
Ġb d
Ġa cc
lo or
Ġ1 8
us bg
Ġo peration
ĠA ctor
Ġma c
ER E
ĠS ign
Ġis Palindrome
ĠC an
Ġon nx
ed u
ĠE lement
tr l
tr t
tr ans
ter m
ch o
ĠM S
ĠP ol
Ġd at
Ġw s
ON E
In clude
Ġl im
LE CT
ĠG eometry
ĠN etwork
ĠD X
ĠD is
ĠD xvk
pre ss
St andard
St icker
ĠQ PushButton
Ġst yle
Ġst uff
ĠR ec
ĠB iCGSTAB
AP T
th ers
ĠW t
Ġget Move
Ġget NvOnnxParser
20 21
ALI D
fo ur
IC K
Ġres ource
ĠV K
ãģ ĭ
ãģ ķ
ãģ Ł
Ġtr ansform
Ġset Checked
Ġcomp lex
arr y
De compiler
Ġ\ "
ĠIn dex
Ġare a
Text Edit
Col Major
Ġes phome
ãĤ ģ
Ġcon nection
Un real
ild ren
44 35
Ġcreate NvOnnxParser
Res et
Id x
Ġsub diagonal
SO bj
Ġsh ared
Ġas set
An gle
He ap
ee per
ĠIm Gui
15 9
ä¸ º
Cpp IntPtr
Check Item
Ġ[ &]
ĠCont ainer
åĪ ĩ
ĠST D
Ġlu nas
ĠEyer String
Debug ger
pack age
conv olution
TT P
Pri vate
mi rai
ĠMY SHAREDLIB
Ġsu cceed
ĠCon nection
Ġãģ §
45 6
Json Object
ĠRes ource
ĠRes ponse
Ġpack et
Ġinf requently
eature s
Status Bar
initial izer
Ġac comp
Ġ^ =
Press Event
Ġfib onacci
Sign al
SIG N
Ġfa il
pool ing
(... )<
Ima gery
Ġag ain
Direct ory
MR ML
Ġme ans
ĠLe vel
ï¼ī <
82 4435
Intern shala
One Input
PROG RESS
Browser Window
æį ®
Fa iled
Ob server
ĠAnd roid
BEN CHMARK
Attribut es
POP CNT
Ġ', ',
Ġcompat ibility
è¨ Ī
ĠTemplate Visitor
erTest OneInput
ĠLazy MontgomeryModInt
rtw types
SPECI AL
rins ic
ĠLLVMFuzz erTestOneInput
atter y
itect ure
ĠgetNvOnnxParser Version
Ġlunas vg
824435 3
) ));<
4 7
9 2
> +
> /**
B ST
B SD
C ALL
D ock
E rr
E uler
F ix
F USE
H w
H OST
J o
K ern
N one
P e
P AGE
P artialPlayer
P ulses
Q PushButton
Q ListWidget
R cpp
R UP
S ave
S UM
T C
T elemetry
T ANH
U SER
W API
X OR
Z Match
_ )<
` `
c ard
c err
e ph
f low
f ill
g ly
g tc
i i
k g
k u
s n
s yn
s izes
v gui
w ner
å Ŀ
æ Ľ
ç ±»
é ĥ
Ġ pp
Ġ down
de tect
de pth
de legate
st derr
er ate
or a
Ġ" *
ut ing
Ġc ancel
am al
Ġm esh
Ġm alloc
Ġm atrices
ar n
Ġi ter
() );
Ġn g
Ġn eg
co ver
ic on
id ar
std arg
Ġf ix
Ġf lags
ine ar
Ġp lus
la sh
Ġo b
Ġo k
ĠA S
Ġg gui
Ġg eometry
Ġg uit
Ġthe m
string s
io ctl
ĠM G
Ġ2 55
ĠT eam
im mintrin
Ġd w
ul ate
Ġin d
---- --
sp ective
Co der
LE E
ĠG CD
ĠN DEBUG
ĠD B
AT TACH
as is
ĠF S
ĠL in
Ġst ore
ĠR untime
get Instance
ap ter
ĠI mp
Ġto ken
ĠK ind
Ġy ear
ĠH el
ALI GN
art ist
ref er
ĠO ri
ĠO LED
ĠV ideo
lib s
CO UN
UN D
DI UM
Ġ10 24
Ġset Visible
Ġcomp lete
Ġth ere
AM D
IB ILITY
View er
Data base
Sc ale
loc ale
Test Environment
Ġcon version
Menu RadioItem
Menu CheckItem
Info Dialog
Ġal low
Sh a
Sh are
ĠRE L
LIB C
Add Global
My String
Th umb
TH ROW
FLO W
Ġsc ene
av a
ps b
game play
tra ce
ĠIN C
Symbol s
Ġ-- -
Ġwh at
Ġpar ser
cur ve
ĠSc ript
APP LE
Ġdirect ly
Pass word
Per son
serial izer
PO OL
Eyer AV
IS M
Ġãģ ¯
Ġext ension
Print Statement
process or
Ġconfig uration
INTER RUP
Ġcom pare
Ġmem ber
Scope AssignmentList
>- (
At tach
<<"* ";<
hys ical
Query Type
Var Decl
Ġup to
Expr Tree
Dup licate
Dup licates
any ing
ĠConfig ure
åŃĹ ç¬¦
execut able
Sync Client
Variant Map
Gx CTRL
shlib ext
shlib dir
MS G
asure ment
Ass ert
Ph ase
å® ļ
Ġke mai
VIS IBILITY
NEW LIB
æ±Ĥ ãĤģ
ĠDesc ription
å¹ ³
ç¨ ĭ
Po licy
Ġaccomp anying
eph yr
éĥ ¨
Ġguit ard
AddGlobal TestEnvironment
INTERRUP T
' ||
. %
7 3
7 6
> )<
@ @
A b
B lur
C a
C y
C AN
C LO
C ustom
D iff
F P
G ENERATED
G rid
G MOCK
H LE
M et
M icro
N C
P ose
P ost
P oly
Q Label
R ST
R ACT
S ust
S ee
S peed
T s
W H
W ER
W iFi
] );
b allsBowled
b allsPlayed
c am
d sp
d istance
d igits
e a
e valu
f lat
h ing
i co
j ni
m ary
q tt
r ong
r unsScored
r unsGiven
s stream
s Action
w s
w char
w icketsTaken
x ff
x Interface
y e
z mm
z lib
z Types
{ }<
¶ æ
º Ĳ
Ð ½
å ł
é ĵ
Ġ la
Ġ utf
Ĥ ãģ®
de c
de struct
on der
on ical
re et
re pository
Ġc g
es p
() !=
an Token
Ġt p
Ġv k
Ġv o
Ġs ame
Ġb q
Ġb in
Ġb its
Ġb asic
Ġb allsBowled
Ġb allsPlayed
Ġre port
ss ize
he ap
Ġint eg
ent ial
ĠA s
ĠA ct
ĠA PP
ĠS lider
ĠS leep
ĠS coped
ĠS oftware
ĠC lass
yp r
ĠE d
io SerialPortClient
ĠM in
ĠM ar
ĠM ask
ĠP re
Ġd ll
Ġw x
Ġw icketsTaken
op le
00 200
sp eed
Ġl y
Ġl mpl
stream ingClassifier
bo ok
ĠD ele
ĠF act
ĠF UB
DE CODER
DE TACH
IL ER
Vector s
for ce
ĠQ R
ĠR ad
ack ground
ĠI ll
ĠI gor
li de
li pper
Ġarg uments
Ġr unsScored
Ġr unsGiven
ĠW all
Ġget Id
ĠH ANDLE
Ġde lay
20 17
RO S
RO ID
fo und
ĠO UT
IC AL
Ġ! _
[] (
py thon
ph ys
und am
AD CAST
fa ust
Ġset Enabled
file Path
Size f
EXT RACT
sum Forward
PAR T
low p
ĠPy OS
To Conditional
open ssl
mb ler
ĠSt ate
ãĤ Ĥãģ®
ĠCo unter
ĠCo coa
Ġle tter
Ġresult s
Ġal bum
Point s
ass ignment
UR ect
Ġmy Addon
SY M
WR ITER
ord in
AND ROID
READ NONE
Ma ke
so cket
An im
Cpp Object
Ġsort ed
av x
Number s
ĠCO VID
ĠY Y
IP T
Ġ... )
Check er
Ġsecond s
Color s
ãģ® åĢ
Action Ab
Ġpoint f
ĠUn supported
vers ity
CA uto
Rect f
ĠTO STRING
ĠFunction CallExpression
Layout Container
Tra cy
ino is
ĠTest Main
ĠSc ene
FO MAP
GE MM
den cy
Ġent er
Pri ce
Ġsu ccess
Colour Rect
sort ed
## _<
Ġext ra
ĠReturn Statement
Ġop tions
Ġtyp es
All Players
08 00200
bit rary
SV C
Ġcor rect
Real ization
THREAD S
aut y
STAT IC
")) )<
ĠFa ust
Ġdec imal
Byte Array
ĠInter face
Ġfa iled
vtk F
Ġarch itecture
Struct ure
epi logue
ĠQWDIALOG HEADERS
scalar mult
tag s
party id
Loc ation
Im Gui
è® ¡
Intensity Filter
uri ty
ĠIo Error
POS IX
Ġremo ved
Registr ar
Ġleg acy
LIMIT ED
ç§ °
ivis or
ĠUni versity
ĠNon Copyable
ĠQu ery
HEL PER
TX T
ĠGE O
ĠGU IT
ĠHEL IX
TEMPL ATE
BRO ADCAST
åľ ¨
look up
ublish er
JU MP
ĠMAIN WINDOW
235 20
Pix map
package Builder
Ġãģ§ åī²
æ±ĤãĤģ ãĤĭ
Met al
Sust ain
evalu ator
åł ´
éĵ ¾
ĠIll inois
ĠCOVID SIM
ãģ®åĢ ĭæķ°
ActionAb ility
) :<
+ (
8 3
8 26
> __
B lu
B ind
C ryp
C lick
C ube
D SL
F low
F ill
F REE
G I
H H
I ZE
M AT
M YS
N e
N ext
S olo
S RC
S eries
S ampler
S uffix
T UP
T ASK
V alues
V Box
W P
W ah
W anted
\ "
\ <
] ))
b onn
d ynamic
d rive
e o
f am
g g
o ard
p n
s quare
s cope
s chwarz
t d
t ex
t om
v es
w ays
w icketsLost
y d
} }
¨ æ³
½ éĤ
å §
ç º
è ½
é ĩ
Ġ ();<
Ġ REG
ģ °
st ore
er ved
re ason
int ern
int Event
Ġc lock
am b
am t
ce f
Ġm ultip
ri ber
Ġn r
ct ype
se cs
an tern
Ġt ick
al ary
Ġv ia
Ġf printf
Ġf Delta
pp ing
ra p
Ġs hm
Ġs ingly
Ġp w
Ġp lane
Ġre m
Ġre ct
Ġa ux
lo v
ro t
ate Object
et ime
ig l
ub ble
un ion
mp ts
us y
Ġo ur
Ġo stream
ER EN
ĠS k
ĠS ec
ĠS core
ĠS chwarz
++ ,
++ ]
Ġg reater
ĠC lock
ĠC ustom
IN ode
ĠE OF
ĠM AR
Ġ2 2
Ġ2 9
Ġ2 00
ĠP av
ĠT ask
ĠT ARGET
Ġw rapper
Ġw icketsLost
Ġ{ {
In struction
ĠD ark
ĠF ilter
ĠL U
Ġe lem
ĠI mpl
li x
li ed
Ġar mv
ans wer
10 1
om in
Ġget char
ĠH WND
Ġk Debug
AB S
nt i
Pro tect
pro duct
ard ust
[] ={
Ġbe ing
ĠV M
ll t
GL uint
ph i
sc ript
sc riber
ãģ ¯
De code
CON ST
ĠIn ternal
Data Handler
Sc heme
Ġinclude d
OL Y
OL DER
Lo aded
ĠSt d
ĠSt ardust
MA KE
ĠCo unt
Menu Bar
Ref lection
line ar
DU CT
Ġal pha
Ġal ready
Ġwith out
Ġexp ort
sw itch
ov o
ĠZ ephyr
config uration
13 05
pe at
SER VICE
Ġat las
ick ness
ĠError Code
ee ded
ĠID X
Param eters
pop cnt
ĠMO D
Se quence
tra p
Command s
visitor s
Ġtext ure
bri d
ãģ® ç
ĠFile Check
Packet Ids
ok es
Ġtotal BallsBowled
Ġtotal RunsScored
proto buf
widget s
Run ner
man ual
Ġent ry
ĠRender er
Read Result
wri stb
ĠDi rection
è¿ Ķ
å¤ į
Ġassignment s
Call stack
ä» ¶
Ġsupport s
vide nd
ĠAl igned
CP U
ĠProgram ming
total BallsBowled
total RunsScored
ĠHe ap
åº ı
Ġsimd json
Ġrequi red
Ġé¢ĺçĽ® æĿ
Ġé¢ĺçĽ® åĲį
Ġé¢ĺçĽ® éĵ¾
ĠSH APE
Ġcal led
Score boardId
ĠNO DE
MMatch Rule
æĿ ¨æ³
Static Mesh
Ġorig inal
cryp t
æĸ ĩ
çĤ īç
MESS AGES
è¾ĵåħ¥ çļĦ
Ġax is
ãĤĮãĤĭ ãĤĤãģ®
Ġä» £çłģ
è¡ ¨
FEAT URE
æľĢ å¤§
Av atar
wap Chain
atal an
Tur bo
è§ £
ãĤĬ åĪĩ
ĠStream ReadResult
ä½ľ èĢħ
TIM ER
éĹ ®
andbox Layer
¥æ ºĲ
anim ateObject
ĠExec ute
ReadOnly BinaryStream
ĠMinecraft PacketIds
Detail s
MING W
ĠFaust Generated
TUP LE
½éĤ ¦
ĠMAR LIN
ĠPav lov
ĠkDebug Suffix
wristb and
Ġé¢ĺçĽ®æĿ ¥æºĲ
Ġé¢ĺçĽ®åĲį ç§°
Ġé¢ĺçĽ®éĵ¾ æİ¥
æĿ¨æ³ ½éĤ¦
çĤīç ģ°
Ġä»£çłģ ä½ľèĢħ
ãĤĬåĪĩ ãĤĮãĤĭãĤĤãģ®
. ");<
7 1
9 8
B AL
B ad
B AR
B iome
B attery
C art
C UR
C rypto
C loud
C ircle
D rag
D istributed
F ull
F OLDER
H OR
H INSTANCE
I OR
L ong
M ULTI
N M
N ames
N ATIVE
Q TT
R ON
R emo
S ur
S el
S ky
S heet
U RES
V D
W STR
W atcher
[ '
b at
b la
c ut
c make
d y
f e
f x
f inite
g on
g uid
g rad
g mail
h ud
h annel
i us
j un
m ol
m essages
n a
p o
r ust
s olution
s amp
t char
u y
u ess
v ow
x t
y load
{ -
¡ ¹
¢ æķ°
Ð ¾
Ñ Ģ
è ´
Ġ /**
Ġ rom
Ġ err
Ġ ladder
Ĭ ¶æ
re ly
int eg
Ġ" ;
include s
Ġc tx
Ġc arry
am ma
ce iver
ar se
le y
an ic
al ance
pa wn
ion ne
it ude
ra ction
Ġs core
Ġp oly
Ġb l
Ġb ound
Ġre pres
ss ible
Ġa udio
la ps
str len
ig id
Ġco pi
lic ated
ĠA sync
ĠA UTO
Ġ// /
ĠS im
ĠS ha
ĠS tep
is er
ĠC os
ĠC atch
ĠC amera
ĠC heat
ĠC PU
ĠE L
tr anslation
ĠĠĠĠĠĠĠĠ ĠĠĠĠĠĠĠĠĠĠĠĠĠĠĠ
ver age
ĠM sg
il y
ĠT OK
Ġd on
Ġd ir
Ġd ue
Ġd iff
EN V
te gr
te ms
Ġfor ward
32 0
ĠG LO
ĠN et
ĠN Windows
ST ATE
bo ot
ĠD ionne
ir ror
DE FORM
St a
St amp
Ġh i
Ġh data
ĠL ou
ĠL oc
Vector Xi
ĠQ ListWidget
ĉĉ ĠĠĠ
Ġst atus
ĠR L
ĠR and
ĠR ot
Ġto do
Ġto Float
10 24
sh ader
Ġget delim
lm gl
Ġk Num
par t
The me
mat ch
RO UP
ĠO r
TO OLS
ĠV isitor
Type Info
Type Template
sc reen
AD APT
bu i
SC hannel
Ġset Position
to k
ho us
Ġnot ice
act ive
ĠEx clude
Ġ% =
ip e
Ġ} ,
PAR SE
Of N
Ġpa ir
cb egin
Col lision
af ter
Ġun o
Comp ress
Ġcon currency
Un known
SP R
Bu y
ĠRE TRODREAM
Ġdi rection
Ġcont roller
inter val
ĠZ I
cc ur
SO DIUM
Spec ification
He ad
Render ing
Render Node
cy rand
BO DY
99 8244353
ä¸ Ń
Cpp Type
Horizontal Formatting
Horizontal TextFormatting
Class es
Class Template
ps z
åĬ ł
Ġ) "_
NT STATUS
Ġmod ules
Ġen code
Rect angle
Initial iser
pack et
Arg uments
FILE S
cont ains
we bpp
Component Iterator
proto cols
Att ribute
Ġrun ning
local ization
ateg ory
fast io
Colour UDim
Colour URect
No te
quest ion
ĠSh ape
Vertical Formatting
Vertical TextFormatting
PRE SS
åŃ ¦
ĠEYER PLAYER
var s
inf rt
current Frame
è¯ ķ
Ġra rely
ç» Ħ
QW DialogSize
Dis k
ĠApp Delegate
Ġdec rement
ĠProcess or
åº Ķ
Ġhel lo
Combo Box
ĠInter rupt
è¾ĵ åĩº
jo in
ĠPoint er
ĠBinary OperatorType
global s
Arc hetype
ĠMessage Window
urs ive
ie ve
æŀ Ħ
Gx IO
ĠAN IME
Ġdoes n
++++ ++++
DR IVER
GameType Mgr
column s
ĠSY STEM
**************************************************************** ****************<
Ori entation
ColourU Vector
ColourU Box
æł ĩ
Ġimplement ed
Dist ortion
Scoped Handle
RU LE
third party
SEC URE
Select ed
ĠMesh SyncClient
å¯¹è¯Ŀæ¡Ĩ è¾ĵåħ¥çļĦ
REAL SPACE
ĠDll Main
ä¿ ¡
CTBridge Delegate
èİ·åıĸ å¯¹è¯Ŀæ¡Ĩè¾ĵåħ¥çļĦ
oph us
Li bui
ĠGUIT ARD
Ġãģ§åī² ãĤĬåĪĩãĤĮãĤĭãĤĤãģ®
åł´ åĲĪ
Bind ings
ĠSHAPE DEFORM
Remo te
laps ible
ĠLou is
: /
A X
B AT
B ot
B ond
B oost
C AT
C trl
D ump
D rop
F ragment
G WIN
G UID
H F
H W
H and
I Z
J IT
K eeper
M etrics
P ol
P resent
Q Image
R PMP
R IGHT
S U
S CO
S ingle
T K
T OR
T inylang
U tf
W ifi
X clang
Y LE
] %
^ (
a e
c an
c hed
e auty
f b
f l
f ield
i dent
i ris
l argest
n u
n all
o log
p Address
s ack
t et
x s
z e
° ĥ
¶ Ī
¾ ç
Ð µ
æ Ķ
æ ¶Ī
è °ĥ
Ġ ãĤĴ
į æķ°
Ĺ å¹³
ŀ ĭ
in v
in st
in place
en cpp
Ġc rc
Ġc lean
Ġc ell
Ġc pu
Ġc atalan
Ġm et
es phome
Ġi r
def group
Ġv c
Ġf ull
Ġf uzz
Ġs impl
Ġs ingleton
Ġp c
Ġp ha
Ġp Match
Ġb attle
Ġre ach
he lix
la in
-- ;
Ġ0 0
un lock
Ġco ins
mp eg
Ġo mn
Ġo gg
ĠA tt
ĠA bstract
iz z
** )<
ĠS to
Ġg id
Ġg ui
Ġg cc
ĠC OLS
ĠC mpt
ĠC loud
ed Native
ĠM an
il on
ĠP art
ĠP BYTE
Ġd isp
Ġw ritten
---- -
sp an
Ġof s
In ning
Ġl hs
LE Q
ĠN ormal
RE D
bo w
bo se
ĠD O
Ġj udge
ĠF C
OR M
set fill
Ġh Wnd
ĉĉ ĉĉĉ
Ġst ep
ĠR x
ĠB E
ĠB ackground
Ġto k
yn omial
ĠU RL
ĠU FOMAP
AN Y
em l
em it
per son
od d
Ex ample
comp ressed
ĠW ITH
MO V
Ġde sc
RO LL
pro c
pro vider
pro gress
String s
ann ot
ense al
ll d
Ġpro to
ID AR
Ġmax C
ud c
ud y
FA ST
ãģ ¦
Base Quest
SC L
SC REEN
Ġse f
Ġth reshold
Object ive
LO OP
CH ud
di rection
ĠEx ception
AM X
AM ER
Re p
CON DA
com pact
PORT CLIENT
ĠJ ob
ft Strategy
To Expression
To Int
Ġstr ong
Function Info
Function CallExpression
ERAT E
Ġfoo z
Ġcon sole
work er
Sh utdown
Res erved
DO M
Ġ20 17
AS Y
WR ITE
Time out
Inter pol
oc used
Game Object
ĠID B
ä¸ ¤
MEM ORY
Ġtime out
Ġtime val
ORD ER
Vis ual
REF EREN
av ailable
Param ValueList
ĠCO MM
æķ° æį®
Action Buy
fc n
Ġpoint er
node s
Ġen c
MB itmap
Lib graphics
Format ter
lang data
gener ate
cont inue
Ġper mute
cur l
dl fcn
ok en
Tra ining
Tr ue
Tr ans
09 6
GE O
åħ ¶
ĠONN X
Ġé ħįåĪĹ
Ġé ¡¹
serial ization
PR INT
Result s
ĠLIB PS
CR C
ĠIMPORT ING
ĠRes et
LOC ALE
ĠSe arch
curr encpp
vide o
Rad ius
)); }<
æľ º
Ġinter val
mut ator
ĠAR PMP
ĠSE ETA
ĠSE CONDA
}) "_
ĠTR ACY
sd k
Ġrel ated
Ġnormal f
Fast Mutex
================================ ========
================================ ========================================
First Inning
ĠGlobal Map
Cal cul
filter s
æŀ Ĺå¹³
GRAPHIC LIB
TRA ITS
åį ģ
SERIAL PORTCLIENT
Ġsample Rate
ĠMMatch Rule
DXSDK VER
"( {"
Ġml ir
backend s
ais y
ç´ ł
Iter ations
OFF SET
Ġbenchmark Query
PASS WORD
CY GWIN
Cvt Impl
Return Statement
"][ "
QPa inter
ĠOR B
ALIZ ATION
utolink edNative
GIC P
CUSTO M
Ġmer ge
BSD F
æĽ ´
------ ===//<
ĠFact orial
ĠFUB eauty
CAuto Lock
ĠGEO GRAPHICLIB
yd ro
å§ ĭ
intern als
æĸĩ ä»¶
éĹ® é¢ĺ
uy ang
Tinylang Version
Ġé¡¹ æŀĹå¹³
FirstInning s
( /*
) -
* =
2 00009
3 86
< (
> /
A UDIO
A ffine
B AB
B reak
B Zip
C rc
C ross
D src
D pi
E fc
F undam
G A
H MODULE
H istory
H ydro
K S
L AS
M e
M id
M ag
M ele
M etadata
P A
P atch
Q MainWindow
S WI
S upported
W arning
] +=
a Lib
b ab
b az
c gi
d ist
d uration
e qual
f inal
f lush
f eatures
g uest
h h
h er
l ers
m g
p thread
p ng
p oly
s end
s oft
s dl
t ic
t ist
t tp
t bl
u lo
u ally
u uid
w ind
z Alloc
æ ¨
æ »
ç ¾
Ġ ()<
ħ ĭ
ī åŃĹ
de lta
en ded
re pp
re ssion
re quired
int rin
int rinsic
Ġc am
Ġc licked
Ġc riter
am s
ce ive
Ġm eg
Ġm ark
Ġm utex
Ġm ks
Ġm issing
Ġi o
Ġn et
Ġt ake
Ġt eam
if est
Ġ* ****
Ġf t
ine FunctionInfo
Ġs size
ur al
Ġp s
Ġp ragma
Ġp Group
Ġp Callstack
Ġb asis
Ġb oard
Ġre d
Ġre lease
Ġre interpret
Ġa arch
la cian
un ity
un ication
Ġco mm
Ġ1 80
ma cos
Ġo pr
Ġo thers
ex ist
Ġ( _
ĠA t
>// ===
Ġma sk
Ġ// !
Ġg ray
ĠC ar
ĠC ontext
ĠC urrent
IN S
ĠE VENT
ĠE NABLE
ĠM ore
ĠM RECT
ĠM DrawContext
ĠM KS
il ti
ĠP O
ĠP OW
ĠT e
im bot
Ġd d
Ġd type
Ġw in
EN E
AL LO
In sert
Ġl b
Co st
ĠG ET
ĠG UI
ĠN ative
ĠN api
ĠN Archive
ST DAFX
RE CTION
ad ing
Ġch unk
ĠD own
AT T
PL IT
as ics
ata ble
ef sw
and ing
and marker
ot ion
ĠF B
ĠF UR
ĠF UD
ĠL EN
ĠQ Image
get s
ĠB asic
ĠI S
AC CESS
ual ity
Ġr untime
ĠW ORD
ĠW ait
Ġk th
ens ure
Ġde pendent
Pro to
ser tion
ĠO F
IC ontext
IC ODE
Type ID
qu at
ure ku
Ġmax Depth
ight s
Ġset Font
iv al
Ġth unk
LO OK
di ces
Event Set
Ġnot hing
log ging
Ġ} ,<
Con n
Con verter
Data Type
Zero es
ĠJ son
DL T
Test Data
mb ly
Ch at
OB J
ĠGL CORE
For ces
Comp onents
File Reader
Ref ureku
Un lock
me an
Ġal ignment
SP I
Res olution
DO T
ENT T
SO LE
SO CKET
DAT E
=" ";<
PRO M
Ġpart ition
BO X
ä¸ ²
Ġz pl
Check Button
Command List
Qu ad
Op t
Al ignment
Gener ate
By tes
Device s
ML IR
Edit Time
ĠCh ar
US ING
lit e
Ġsu ch
ĠRe al
ich or
55 55
Not ification
Ġimp orter
pair s
sign ature
ĠLog icOperatorType
Helper Defines
COMP ILER
Ġ{} );<
Vertical ScrollBar
åŃ ĺ
Json Document
Ġconfig ure
ĠSe esaw
Tool Tip
Sort ed
Ġevent s
QW heelEvent
IND S
Part icle
factor ial
Ġuser data
QR Code
Last EditTime
ĠSH ARE
hal f
eed back
Fast SIMD
execut or
Access Ptr
MI SC
lap lacian
ĠRef lection
å¤§ åŃ¦
æĸ ¹
Local Value
Loc ale
Broadcast er
Unique ID
ä¸Ĭ æľº
Ġax es
Ori gin
sprites heet
Registr ation
è¡ Į
Mem ber
ox el
rel ational
PointXYZ I
Ġmi rai
Ġplace d
ĠmaxPro fit
å° ı
Dark Forces
åĮ ĸ
Ġul ong
Depen dency
eps ilon
Timest amp
DETECT OR
ĠCHudElem Base
FEX Core
456 78
ĠAS N
ĠHel lo
Ġallow ed
ĠOUT PUT
phys ical
826 6
å¤į è¯ķ
Ĭ¶æ ħĭ
tegr ation
ĠGLO BAL
ĠLoc al
ä¿¡ æģ¯
Ġmet atable
Ġfuzz er
Efc Dsrc
Mele e
repp ingD
ĠFUD emo
å¤§åŃ¦ å¤įè¯ķ
ä¸Ĭæľº é¢ĺ
å¤§åŃ¦å¤įè¯ķ ä¸Ĭæľºé¢ĺ
* \
, (
4 1
> :
A c
A UTO
B T
C LOCK
D T
D iv
D bg
E nt
F n
F ilename
F ixed
G M
G P
G o
G ithub
I I
I ReactPackageProvider
J S
J MP
L R
L ACK
M o
M etric
M ALLOC
N a
N an
O OG
P ressed
P lug
P ublisher
R s
R END
R GB
R emove
S aver
T un
T Body
U V
U FF
V ariables
W T
Y ou
_ )
b lue
b asics
c andies
d ig
g re
j it
j mp
j out
k a
k it
l tra
m illiseconds
n m
n pos
o om
p ost
p Parent
p wn
r f
r g
r m
r x
s ave
t te
t enseal
u u
u es
w y
w ait
{ }
± çłģ
Ð »
å ·
æ ¯
æ Ĺ
æ ĺ
é ģ
Ġ è
Ġ ut
Ġ erase
Ġ question
Ġ ensure
ī ¹
Ĵ Į
Ŀ å§ĭ
de pendent
st ride
st anding
at tr
er l
er os
er arch
re act
Ġ" %
Ġc andies
Ġm ov
end ing
ar ma
Ġn at
co ins
Ġt ms
Ġt itle
al gorithms
id Init
Ġ* _
Ġv l
Ġv s
Ġv tk
Ġf x
Ġf ace
it r
ra int
Ġs at
Ġs ense
Ġs pd
Ġs oft
Ġs leep
Ġs peed
Ġp ool
Ġp Mouse
Ġp MenuSeparator
Ġb et
Ġb usy
Ġa i
Ġa bout
Ġ0 8
et o
et ype
Ġco coa
us c
us age
Ġo wner
um e
Ġma pped
Ġ// <
ĠS m
ĠS ort
ĠS ty
is k
ol l
++ );<
Ġis Prime
ĠC RC
yp es
ed ge
ĠE mpty
tr ansfer
ch ach
io mes
ĠM X
ĠM QTT
ĠP ower
ĠT YPE
ĠT oken
im s
Ġd b
Ġd up
Ġw on
Ġw uyang
Ġin v
ation Mode
Ġl arg
Ġl ines
ont h
ĠG AME
ĠG UID
ĠG adget
ĠN one
ĠN GEN
AR DUINO
PL SChannel
as ource
as ci
ĠF R
ĠF String
ĠF rom
set Text
Ġh Module
ĠQ Style
Ġst op
Ġx s
ĠB ar
ĠB LE
ĠB ML
ĠB iomes
og raph
AN GE
per m
Ġ' )
FI ELD
th in
Ex tra
10 5
10 9
sh m
Ġr l
Ġr st
Ġr gb
comp onents
lm lib
ĠH RESULT
AB OUT
Ġde g
Ġde tect
Ġde serialize
Ġde precated
20 19
Pro perties
ser act
ser ved
pro g
pro p
pro gram
ĠO ver
TO bj
BU F
dd k
lib rary
GL Filter
ff t
Ġpro vide
qu ot
12 6
ID R
Ġmat erial
ãģ Į
ãģ ĵ
SC ANN
Ġse ver
ĠX MP
Ġth ird
Stream er
CL IP
0000 0
ly rics
com ment
Con nect
Con vert
Con version
Con structor
Ġ7 7
UE CS
Ġpa st
Ġpa use
open Vertical
)) )<
ĠPro tocol
ĠGet View
Ġun known
ĠExpression List
ĠGL Filter
ERAT OR
plugin x
Ġ9 6
Ġan ker
ENERAT E
Set up
Ġal paca
Ġfirst Name
Id le
app ender
Ġvec f
Frame work
NULL PTR
pos ix
PRO C
so ck
Th reshold
Game Draw
Render Window
]) %
ĠIm Vec
ĠID C
Par se
Par allel
Horizontal ScrollBar
exception s
result s
Di alect
PC WSTR
Util ities
DISABLE D
Fact orial
PER TY
ale tte
VI RON
Al bum
Sub ject
Sub Array
ĠAdd ing
ĠWIN VER
ank erl
fs Archive
Ġper form
we i
ok ie
Ġrun ner
APP ER
den s
Ġlast Name
xx xx
Not ice
PO WER
ell ing
Ġãģ ¨
ĠSh ader
ĠFor ces
Ġbase d
Serial ization
å¤ ī
ĠFU Avatar
ax es
Ġam x
ĠGame State
fix ture
ä» ĸ
bit set
Tool s
Stack View
Ġsign ature
---------------------------------------------------------------- ------===//<
Ġlo ss
Act ivity
Ġshow s
Ġbind ing
METHOD IMP
PARAMETER S
NE ED
Track ing
ĠPar se
ĠPar ent
ĠĠĠĠĠĠĠĠĠĠĠĠĠĠĠĠĠĠĠĠĠĠĠĠĠĠĠĠĠĠĠĠ ĠĠ
generator s
æ± īåŃĹ
WARN ING
Second s
dc n
urs or
squ ares
ĠMenu Button
Ġact ive
Ġvalid ate
ĠGener ator
asse mbler
ĠIR BAB
CRYPTO PP
FEAT URES
ä¹ ±çłģ
orig in
orig inal
sl am
ĠSu per
ĠFAST SIMD
Bound ary
au ss
ĠLay out
åĢ¤ ãĤĴ
eh icle
Ġmon itor
EyerPlayer Event
Ġden omin
KERN EL
cessed Size
Ġcondition s
éķ ľ
Stat s
vertex Shader
Mach ineFunctionInfo
Ġlim it
ĠDX GI
syn thizer
Ð½ Ð¸
PART ITION
è½ ¬
amb da
ãģ®ç Ĭ¶æħĭ
vow el
integ ral
Sta irs
Ġpha ke
ĠAtt ribute
ĠCOMM ON
æ¨ ¡
unication Manager
>//=== ----------------------------------------------------------------------===//<
ATT ACK
Ġthunk libs
oxel Engine
OOG LE
jout standing
wy joutstanding
Ġspd log
chach a
Ġwuyang jun
asci i
openVertical Box
Ġanker l
VIRON MENT
& &)
' ]
) };<
* >&
, ...
- =
0 7
1 99
2 80
8 00
9 1
: "<<
B F
B Kern
C ap
C AC
C CE
C MP
C lean
C heat
C ursor
E mpty
E very
F x
F ACTOR
G amal
G uess
H I
H und
H AV
H ardware
I ES
I OS
I ReactPackage
J OY
K FLOW
K INDS
L P
L V
L KFLOW
M i
M es
M ay
N A
N eg
N PC
N LL
O ta
P atcher
P refix
Q Point
Q Frame
Q TextCodec
Q JsonObject
R igid
S A
S ink
S AMPLE
T iles
U AL
U String
U CLASS
X Ptr
Z RULE
] ^
] ")<
` <
b r
b et
b ig
b eta
c md
c enter
c asbin
c ube
c loud
d ay
d tor
f w
f ec
f iler
f ragment
g d
g reg
g lad
i ke
j k
l Gamal
o reg
q t
q Statement
r anges
s q
s r
s ome
s apien
s alary
v vi
v ision
y es
¤ º
³ æ±īåŃĹ
â Ģ
å ŀĭ
å ĴĮ
ç Ĳ
Ġ ri
Ġ ess
Ġ -----
ī éĶ®
į åºĶ
st orage
on us
at io
lu cian
Ġ<< <
ut orial
Ġc and
Ġc ircle
Ġi mpl
Ġi gl
le tion
() ),
() ));<
Ġn tp
Ġn eeded
se f
se al
se quence
Ġt s
pa inter
if t
Ġv v
Ġv gui
Ġv ariant
Ġv ertex
Ġs odium
Ġp h
Ġp lay
Ġp nd
Ġp PopupMenu
Ġa uthor
he he
he ther
lo ss
ate ConditionalWrapper
un iform
ent ed
ma gery
Ġ( ((
ĠA D
ĠA X
ĠS S
ĠS lic
ĠS ingle
ol er
Ġg rid
ĠC R
ĠC AN
ĠC CL
ĠC allback
ĠC opy
IN C
yp oint
ck link
__ ))<
ĠM atcher
il ing
ĠP m
ĠP ush
ĠP atch
ĠT AG
im izer
im eline
Ġd y
Ġd ate
Ġd igits
Ġw rong
Ġw hether
EN CODER
arg ument
op Expression
sp i
sp arse
In fer
In Register
In verter
Ġl dl
Ġl ongest
LE T
bo y
bo dy
eg rees
Ġch r
Ġch ild
ĠD elta
ĠD iscrete
ir play
PL US
as i
as y
ĠF ree
ĠF ALSE
Ġh am
IM G
IL TER
ĠQ SpinBox
ĠR B
ĠR en
ĠR ect
ĠR NE
ĠR estore
ĠR emove
Ġe lapsed
get Parent
ĠI chor
ĠI magery
Ġto s
li a
li ve
ag ram
ag lia
IT C
IT OR
ans ion
th unk
ang les
sh ot
Ġr cl
om s
om etric
ME TER
ĠW AF
SE MA
ĠH igh
Ġk ee
CT STR
QU rl
QU ENTT
ens y
nt l
Pro tocol
ser ve
EX ASS
EX EC
fo c
pri ority
ED I
TO PT
ta in
ĠV idInit
Type Object
En cryp
CO P
Widget Look
UN SPE
UN NABLE
UN ICODE
12 7
matrix Function
DI RECTION
MODE L
Ġreg s
Ġreg ard
Application Delegate
lement ed
Ġset Length
Ġset Selected
to uch
Ġse par
Ġse esaw
iv ely
Ġth ese
LO QUENTT
CH OR
di vidend
Event Handler
ab b
act Package
ĠĠĠĠĠĠĠĠĠĠĠĠĠĠĠĠ ĠĠĠĠĠĠĠĠĠĠĠĠ
no te
ender Kit
Ġclass es
Con v
are a
pd ims
max Index
To M
ĠPro to
Function Storage
Ġun k
ĠGL uint
enum ber
mo oth
pen dencies
ãĤ ī
Def ined
AV CONFIG
Get Name
Un i
ix er
exp fn
TR UE
Point Normal
MP C
Statement Wrapper
Ġexp fn
OP R
WR APPER
init Object
Ġsub type
Item List
OT A
SO FT
Log Level
show AllPlayers
Ġsyn thizer
ash board
FF VERSION
READ ER
PRO DUCT
Ġå Ī
Ġå ĭ
Ma pper
Ġpart y
ACT IONS
Th ree
oc i
doc ument
Render Target
ning OfCamera
Cpp Array
Cpp Reflection
Ġkey s
App ly
Ġrandom bytes
GR L
Ġwe ird
tri angle
Common ScrollBar
Ed ge
game boy
Se maphore
ĠSystem Menu
Command Line
resize Event
HE AD
NT L
LL VM
cos lucian
direct ory
object s
Sp elling
Ġus bg
Py Object
Py TypeObject
ĠOn Update
Arg ument
jp eg
cont ract
we ets
Component Vector
Match er
ĠStr uct
cle an
Const Expression
FIL ERE
ĠCh annel
Ġtwo Sum
Dele te
Max Iterations
ĠRe actPackage
link er
ĠCon sole
number s
Not Imp
hash map
vert ical
Ġequ ival
ĠString Map
PO INTER
Ġãģ «
Ġãģ Į
ĠDef ines
ĠSprite Animation
ĠComp lex
ĠTh at
Ġnon ce
Ġsingle Number
cir cle
cal ib
Decl aration
åĢ įæķ°
Abs olute
da CodeGraph
Package Test
ĠIP COP
nost ics
Table View
Ġmem set
Ġfollow ing
Do main
Binary OperatorType
Ġstream ingClassifier
Nv Infer
instance type
mult i
initial ized
item s
Attack Range
Attack Melee
Rec y
Temp erature
INY ML
ĠPL SL
ĠTo String
Act ivate
Dis able
mut ations
Ġremove Duplicates
ĠFa iled
EXTEN DED
isf y
isf inite
Current Frame
Ġ") "
Ġarm strong
ĠPar ser
Ġpo ssible
Graphics View
Det ector
TOKEN KINDS
Radio Button
çĶ¨ æĪ
RA DE
ĠSymbol s
Pair s
BE HAV
SUB CASE
CppGeneric Class
CppGeneric Method
Exec ute
FORMAT TER
Sele ctor
ĠDecl aration
Job Handle
åĨ ³æ±īåŃĹ
About Dialog
cian o
WD F
ĠSp otify
SERIAL FORMATTER
IMPLEMENT ATION
iltin Type
dest roy
alk able
lot ta
123 45678
æį ¢
Tiny Engine
USB StackView
fre open
fre etype
ĠTips Menu
ĠLu a
ĠLu ciano
ĠOB S
mar coslucian
Ġlayer Idx
Linked List
ComboButton Item
amed Area
ĠAd afruit
Face Info
seq Expression
ĠFast Mutex
Events Monitor
DOWN LOADER
rec ord
GU ARD
åĵ įåºĶ
Interpre ter
ĠSTAT US
Fusion CamSensor
Rel ative
VARI ABLE
Critical Section
SQL ite
SCR IPT
Include s
ICK ER
SPECIAL FUNCTIONS
Fix ture
kg Color
ALIGN ED
COUN TER
Poly gon
ĠScoped Guard
ĠMar cos
Metal Kit
MYS QL
è§£ åĨ³æ±īåŃĹ
Note Key
SCO PE
TOR CH
nu ovo
æ¶Ī æģ¯
è°ĥ çĶ¨
Ġir q
Ġsimpl y
AMER A
Interpol ationMode
åħ¶ ä»ĸ
Dpi Helper
Ġcriter ion
ĠTe ensy
ĠFUR enderKit
reppingD lg
LACK S
erarch y
Ġsat isfy
ograph ic
SCANN ER
ĠIRBAB Y
CAC HE
FACTOR Y
IReactPackage Builder
Mes Box
NLL Loss
fragment Shader
oreg round
Ġpnd tri
ĠCCL CC
Ġldl t
thunk gen
Ġkee pdims
EXASS OLVER
UNSPE LL
LOQUENTT INYML
FILERE ADER
ĠReactPackage Provider
NotImp lemented
Ġequival ent
çĶ¨æĪ ·
BEHAV IOR
marcoslucian ops
è§£åĨ³æ±īåŃĹ ä¹±çłģ
åħ¶ä»ĸ è¿ĽåĪ¶
! \
! ");<
' };<
( :
) ){<
) *(
* ");<
. ,
. );<
2 18
5 4
8 4
< -
@ +
A uth
A ARCH
A nti
B A
B C
B R
B l
B an
B PL
B ias
B enchmark
C ar
C ur
C API
C ATCH
D CS
D lg
E le
F V
F un
F older
F MT
G iv
G TH
H i
H igh
H ASH
I FIER
I SO
J NI
L IGHT
L egacy
M IC
M GB
N V
P l
P at
P ow
P lus
P BYTE
P HO
P artialPivLU
P lain
P alette
Q Debug
R a
R et
R ational
R IVER
R isk
S F
S vd
S quares
S PLIT
T UR
T ax
U X
U v
U gly
W ARE
X X
X MP
X cd
Y our
Z PL
Z eros
] ));<
] ',
^ [
^ *\
_ ##
a con
b ble
b pm
b attle
c j
c end
c um
d ivisor
f i
f ence
f uture
g rid
g uard
g reater
h r
h ilti
i ent
i ans
i rect
i ces
i entation
k th
k tl
l n
n ic
p in
p ream
p Line
p buf
p alindrome
p lane
p anic
q r
r amp
r one
r ng
r viz
t ip
t ft
u h
u ang
u ki
v p
v as
w atch
w ifi
{ },
¢ ç´
¤ éķľ
¼ ãĥ
å ¾
å İ
æ µ
æ Ĭ
é Ļ
Ġ (),
Ġ engine
in View
in valid
de m
de al
st l
en ge
at ore
at tach
at las
er f
er fc
er bla
re ed
re strict
// ===
or ies
Ġ" #
Ġ" ."
Ġc at
Ġc lient
Ġc lose
ar c
ar bitrary
Ġi eml
() %
Ġn all
co very
co pt
Ġt c
Ġt f
Ġt urn
Ġt ower
al y
pa s
pa y
Ġ* ********************
Ġ* **<
Ġv ulkan
Ġf low
Ġf requency
Ġs ig
Ġs upp
Ġs rand
Ġs aved
Ġs quares
Ġs ince
Ġs secs
Ġp g
Ġp r
Ġp ressed
Ġb ox
Ġb ubble
la uncher
ro py
ro ug
et ch
un aryExpr
Ġo ct
ex e
Ġ( ;
Ġ( <
ĠA T
ĠA ll
ĠA bout
ER Y
iz ard
ĠS ine
ĠS ele
ĠS top
++ ];<
Ġg it
Ġg ive
Ġg tk
Ġg uard
Ġis finite
ĠC A
ĠC L
el on
ĠE M
ĠM ode
ĠM em
ĠM Widget
ĠM ac
ĠM ethod
ĠM ake
ĠP h
ĠP in
ĠP op
ĠP ass
ĠP ost
ĠP OS
ĠP artialPivLU
ĠT ile
ĠT EXT
ĠT IME
im ium
Ġd ay
Ġd ummy
Ġd aisy
Ġw i
Ġw idget
Ġin int
AL UE
sp rintf
ist ream
In c
Ġl ater
Ġ& ,
Co ord
LE AK
ĠN Arc
ĠN Compress
ST E
ST ART
Ġif ndef
ad j
ĠD on
ĠD NA
ĠD egrees
Ġj ump
AR RAY
AT TR
PL ATE
ĠF E
ĠF lotta
set Threshold
set MaxIterations
Ġnum erator
Ġh ook
ĠL PARAM
ĠL DLT
Ġ3 5
Ġ3 00
Vector Xcd
ĠQ ue
ĠQ VariantMap
ĠR T
ĠR ight
ĠR ep
Ġe v
Ġx erbla
ĠB UT
ĠB LAS
ĠB DCS
og gle
og ram
Eigen value
ĠU C
ĠU P
AN IM
ĠEigen Base
per mutation
ang ent
10 10
Ġr f
Ġr amp
comp ress
ĠW M
SE X
Ġy ields
est imated
lm ng
ĠH w
ĠH ouseholderQ
ĠH istory
Ġk ern
QU ERY
con jugate
con currencpp
20 22
of stream
pro b
pro j
pro xy
IC S
IC ALL
TO S
Ġ! !!<
ĠV ariable
ĠV oxelEngine
ĠV ALUE
List Item
lib av
lib rg
En c
En coding
ID TH
ac cess
Ġreg ression
transpose InPlace
ãģ £
bu st
SC ENE
Ġset F
Ġset Group
Node Type
Ġhe x
Ġcomp utes
Ġcomp licated
ton c
res olution
0000 0000
sum o
CON VER
vec f
Ġno ise
ĠIn t
Data Matrix
ĠJ acobi
ill map
Ġpa yload
face t
Ġ# %
Ġun initialized
enum s
For Name
mo us
mo use
cond ition
ãĤ ¹
Comp lete
Comp ressed
Comp uteThin
solve With
solve InPlace
Ġcon jugate
25 0
Un supported
Un even
Info Flags
Ġan ony
Set Value
TR AN
count ing
DO UB
Ġ20 18
Ġu f
Ġu id
Ġu fomap
ĠArray Base
ENT ITY
RT C
>/* !<
Error Factor
ep rint
Ġoperator Sqrt
Ġgener ic
Ġtri angular
Log inView
lat er
Inter val
PRO TECT
Module Manager
An s
An imated
Sensor Scanner
Image Loader
make Jacobi
make Giv
make Compressed
ä¸ ĭ
Ġapp lied
(& _
Ġlog arithm
Config uration
Horizontal Slider
Ġreverse String
ĠY s
ENSE AL
ĠBase Sensor
Class ic
tri angular
Check Label
14 159
tra de
ĠIN F
ĠIN PUT
Input Stream
VI SION
SI VE
Ġ32 0
Ġsw apping
Hello World
cos A
ĠLo Ra
operator Inverse
Le af
ĠRow VectorXf
UD P
Ġne arest
ĠSparseMatrix Base
unk nown
ĠOn Draw
rep lace
cont ent
we en
Tra ce
cwise Product
Ġqu ite
Ġqu asi
Tr ansfer
Ġrun Once
ĠCh ange
Unit X
Unit Y
Unit Z
gl fw
ĠParam eter
Ġfl Time
ĠEn try
ĠEn gine
Per Second
No Change
Ġequ ations
åı ·
let ed
Ġsol ves
ADD R
Ġlm tk
Timer Tool
ĠSh utdown
ĠDef ine
Sec ret
Vertical Slider
be comes
ĠComp uteThin
Ġplatform s
åŃ Ĳ
è¿ ŀ
ĠTh en
vis or
Serial Formatter
sin A
ĠSub tract
dir ent
And Det
ĠNo Change
eigen vector
eigen value
User s
simd json
ĠLL T
HouseholderQ r
!! !<
!! !"
non Zeros
Ġcom ma
inf ty
Counter Singleton
mem cpy
Resource Provider
28 18
Real Space
fullPiv HouseholderQr
rement s
__(( __
Rec ursive
ĠIL ike
ĠCol PivHouseholderQ
04 00
Ġsp an
ian o
ĠLO CK
ĠPri me
Ġad joint
åº ĵ
over ride
Ġ") \
Ġbutton s
Ġtimes pec
scrib e
Radio Label
9999 99
9999 999999
ĠOutput Stream
éĢ Ĵ
Cal c
Null aryExpr
Ġsm allest
ĠKey board
Shared Count
Ġcomb ines
ĠDecl arations
ĠGLE ffect
Ġmouse PressEvent
select Players
pres sed
Ġact ivate
Ġtranspose d
Ġdl limport
Ġdim ension
lg amma
yy yy
Ġtensor V
ĠAudio Device
su ite
ĠFullPiv HouseholderQR
Weapon s
householderQ r
POS ITION
Ġremo te
Ġleg al
CRE ATE
ĠUT F
åĩ ½
Av ailable
fib onacci
ĠUser Config
RAN DOM
Sk illmap
ĠLay er
Death Match
Interrupt Manager
Fin ally
LEN GTH
RUN N
nap sack
ĠFast SIMD
oper ations
ãģª ãģĦ
Red uce
pseudo Eigenvectors
pseudo Eigenvalue
Ġfragment s
Ġpresent ed
ãģ¨ ãģį
ä¸Ģ ä¸ª
Ġrec ord
ĠENUM ERATE
computeInverse WithCheck
computeInverse AndDet
ĠapplyOnThe Left
ĠapplyOnThe Right
Generalized EigenSolver
Generalized SelfAdjointEigenSolver
ç»ĵ çĤ¹
PAN EL
usic Share
ĠEyerPlayer Event
éĸ ¢æķ°
Ġ$ {
ãģķ ãĤĮãĤĭ
Reset Event
Ġfail test
è¨Ī ç®Ĺ
ĠImp lementation
Ca pacity
Ġbin omial
Ġinteg ers
ĠRad ians
ordin ate
Blu eprint
Ne arest
VBox Layout
brid ge
Crypto PP
po isson
Ġcopi es
ĠCos ine
psz Name
ä¸¤ ä¸ª
>/ ********************
QRCode Runnable
ĠSHARE D
Div ing
Ġlarg er
thin Q
Ġsever al
Ġdenomin atore
bet as
çĲ Ĩ
Ġess ential
onus Object
Ġrcl cpp
Ġregard ing
Ġsepar ate
ĠTeensy TimerTool
(: ,
Ban as
FV R
Pat rol
PHO TO
nic mp
pream ble
¢ç´ ¢
roug h
ĠNArc InfoFlags
Ġnumerator s
ĠBUT TON
ĠBDCS VD
ĠHouseholderQ R
ĠJacobi SVD
ComputeThin U
solveWith Guess
Ġanony mous
DOUB LE
makeGiv ens
operatorInverse Sqrt
ĠComputeThin V
ĠSubtract ing
ĠILike Banas
ĠColPivHouseholderQ R
pseudoEigenvalue Matrix
computeInverseAndDet WithCheck
usicShare Kind
( ;
( [
) &
) ?
) __
) :\
- '
3 00
7 7
7 00
9 7
9 11
= <
= */
> "<
> ):"
? <
A Z
A i
B D
B IGEN
B ill
B ROW
C re
C IDR
D F
D Shape
D igits
F inished
F ROM
G ate
G PU
H TTP
H olog
H ttp
H UNSPELL
I pAddress
J Mol
L D
L J
M ak
M ATH
M apping
M ListBox
M otion
N AK
O KUP
O LEAN
P H
P ipeline
P OLY
R B
R en
R viz
S end
S QU
S olution
S afe
S hell
S nap
S witch
T IN
T IT
T ake
T FT
U UID
V m
V Base
W ANT
W ide
W TP
X M
X Xi
Y s
[ ',
] "
] ]);<
a uncher
b ro
c re
c rc
d g
d type
d xvk
e el
e loc
e ins
f ul
f old
g row
g md
g oogle
g cd
h ar
h ang
h aped
h idden
i k
i or
j ump
l ion
l mpl
l hs
m k
m etry
n s
n ul
o ot
o ading
p atch
p onder
r ation
s core
s imple
s Sizable
s lice
t an
t ile
t utor
u ck
u dent
u fomap
w it
w heelEvent
w arn
z ma
z wei
} ",
å ¿
ç İ
ç ī¹
è ¦
è ĥ
Ġ ../
Ġ angle
Ł ¥
ĠĠĠĠ čĊ
de ra
de lay
de crypt
de png
st ac
st ers
st ead
en et
on ly
at ives
lu sters
re ader
re quest
Ġ" :
Ġ" {
inc t
Ġc f
Ġc y
ce ptr
ce ll
Ġm eta
Ġm sd
es ley
ri es
ri sc
Ġi A
Ġi Size
Ġi gmd
le g
Ġn s
Ġn an
Ġn ames
ct rl
co gn
an oi
an other
Ġt C
Ġt w
Ġt ic
al th
ic To
id ate
Ġ* >(
Ġ* ****************************************************************
Ġf f
Ġf io
Ġf loor
it tle
Ġs nd
Ġs ys
Ġs izable
Ġs eries
Ġs ieve
Ġp wn
Ġb ias
Ġre main
ss d
Ġa ctor
la ke
ro om
ro cm
ate Dialog
ub it
un o
ER IC
ĠS ER
ĠS Obj
ĠS ophus
ol ta
ĠC T
ĠC all
ĠC MP
ĠC OP
ĠC lose
ĠC ell
ĠC LI
ĠE num
ĠE LS
ĠE mit
ĠE lem
ĠE ye
ĠE AX
tr anslate
ch s
ch ow
string stream
io d
ĠM LIB
ĠM odel
il ar
Ġ2 50
ĠP ose
ĠP ipeline
ĠT d
ĠT wo
ĠT icTo
Ġd q
Ġd ai
Ġw arp
EN UM
Ġin string
Ġin dependent
sp in
Ġ: "<<
In formation
In nerStride
Ġl idar
Co oler
ĠG pu
ĠG rade
ĠG OOGLE
ST YLE
ST ICKER
RE QUEST
ge o
Ġch ip
ĠD em
ĠD ai
ir con
AR M
pre order
as ound
ot o
ĠF ormal
Ġ4 7
Ġ4 096
set Codec
set zero
DE x
St udy
ĠL ast
ĠL eft
ĠL egacy
ĠL IDAR
ĠQ ian
ĠR ed
ĠR elease
Ġe ith
Ġx or
get Name
ĠB IT
-> _
//////// ////
ĠU p
ĠU SER
IT CH
IT TER
IT ICAL
Ġ' %
Ġ' *
Ġ' ]',
ĠMatrix Power
om eth
om net
ĠW R
ĠW PARAM
ĠW arning
ĠW esley
ĠH and
ĠH ot
ĠH ud
ĠH ide
ĠH IGH
Ġk Config
Ġk Basic
con sole
mat erial
Ġde v
Ġde lim
nt ddk
20 13
Pro file
pro file
); };<
pri mitive
pri mes
ele vations
TO DO
SH I
SH APE
[] <
ĠV fsArchive
lib il
ff ml
Ġpro tocol
qu it
DI ST
Ġmax len
Ġmax Len
Ġ10 3
ac cept
Base Symbol
SC II
Ġhe he
yst ick
Ġse pLine
Window Renderer
Window Factory
Ġth rough
Ġstring s
LO OKUP
ant ic
Bo iler
ast le
act or
act ivate
ĠEx ample
ING CLASS
EXT RA
log ic
Ġdefault s
Re verse
Re port
Re pository
no op
CON SOLE
cl s
ĠIn sert
Data Base
ms a
ill is
Ġ6 00
Ġ| <
To uch
code d
Ġstr s
)) )
Function Type
ĠGet Current
Ch ild
ĠSt atus
ĠGL IntensityFilter
MA PP
array s
mo unt
Ġend s
Ġend point
Ġend OfCamera
begin ning
Ġdp i
Comp ile
ust um
Ġmin Price
Info Runnable
me asurement
ELEM ENT
KE E
Res haped
Res ponder
Bu cket
Ġu v
Ġcont ribut
Ġcont rol
min imum
Ġdo copt
Ġll f
roll ing
Add Param
cf g
app ly
Path Sum
My Windows
ĠZ PL
Ġed ge
Log icOperatorType
pe ople
tes seract
Ġbegin ningOfCamera
Impl Traits
FF mpeg
graph ml
An agram
He ater
Render Effect
]) )<
ä¸ į
FLO OR
tog raph
Handle Impl
Ġ** <
Ġkey word
Config File
!= (
Ġsc reen
ĠAn ime
ĠCO M
sqrt A
bl nd
UI ApplicationDelegate
Ġ... )<
Ġstart s
ĠBase Symbol
UM BLE
normal ize
ĠIN TER
CODE S
Graph Modification
ZE ffect
hel p
Ad v
Ad afruit
ĠLo op
fc ntl
tensor s
Ġwh ere
ĠUn used
ĠUn iform
mod ulo
ĠAdd Param
Ġus age
Ġtarget s
Py OS
Task s
gener al
alloc ator
FILE SYS
Out Stream
Out erStride
cont roller
itional Wrapper
openHorizontal Table
Edit Box
ALL BACK
ĠCom bo
ĠCom pare
Ġstate Broadcaster
åħ ¬
registr ar
Header List
mi ss
INV ALID
SIM PLE
Pass es
Ġimp licit
Ġimp erative
Read y
lim it
åı £
PR ISM
USE D
PRE LU
Com pare
ĠNum eric
Print er
Camera Actor
MAC ROS
ĠFU Item
process ors
Auto Size
Auto Lock
Auto Order
We b
çĽ ¸
Ġwork er
LOC ALIZATION
Min imal
Ġcurrent Frame
åĲ İ
Mutex Impl
ĠUI Window
ĠUI Responder
ĉĉĉĉ ĉĉ
Ġra di
Resource Manager
Power Series
Ġextern al
Date Time
ĠTr anslation
ysc all
ĠAl loc
ĠAl bum
codec ForName
tele metry
ĠWe i
wd f
Temp Expression
Net Id
Net Repository
button s
Ġsp lit
Catchment Realization
Ġç ¾
ä½ į
ĠApp Event
ĠApp ly
ĠAR DUINO
}) :\
Ġeigen Vectors
Byte S
Bro ker
Ġhigh light
Man ual
Man ia
Ġdest ination
Det ect
Quest Map
PROTO BUF
ĠAuto Size
CppGeneric Context
CppGeneric Inst
Ġsuper visor
NG X
urs ion
Exp Statement
264 0
AA AA
ĠGLE FFECT
ĠGLE WAPI
LAB EL
select ed
Ġyy FlexLexer
Tick s
pass word
()<< "
ĠAPI ENTRY
IF Y
ĠCON FIG
Ġlp Reserved
Eigenvalues Only
Card s
Ġwt n
anti ations
GLE W
ĠUT ILITY
Pin Manager
ĠCal c
å½ Ĵ
Ġdecl type
ĠQStringList Model
Tur bine
Ġrt Get
Ġfr ont
ErrorCode s
SW ITCH
sy m
ĠFrame work
cg al
just e
#### ####
Ġ{' [',
qw dialog
AUT HOR
ĠSys MesBox
ĠCond itionalWrapper
TabFrame Item
ĠçŃĶãģĪãĤĴ åĩºåĬĽ
ĠçŃĶãģĪãĤĴ æ±ĤãĤģãĤĭ
Media Player
ĠSign al
four th
Unreal cv
Debugger Present
Jo in
Telemetry Sensor
Ġpp l
Ġdown load
LEE P
ĠLin space
åŃĹç¬¦ ä¸²
CLO UD
assignment s
ĠQuery Type
Solo Gladiator
Ġmultip le
mpts View
script en
ĠStd Afx
FOLDER S
Ð¾ Ð
Ġrom ulator
ĠMsg Func
ĠTOK EN
ĠRot ate
ĠkNum M
TypeTemplate ClassTemplate
ĠCmpt AccessPtr
ãģ¦ ãģĦ
SWI SH
ç¾ ¤
Ġnet api
macos x
exist ing
sertion Sort
MLIR Context
Ac count
Publisher Variables
rf ks
Ġface book
Ġrgb f
å¤ī æĽ´
è½¬ æį¢
vision ing
ĠStruct ure
multi precision
è§£åĨ³æ±īåŃĹä¹±çłģ éĹ®é¢ĺ
BPL ib
TUR N
pas juste
ĠQue ue
éĢĴ å½Ĵ
åĩ½ æķ°
BIGEN DIAN
Bill board
Holog ram
NAK ED
TIT LE
eloc ity
èĥ ½
stac le
ceptr on
risc v
Ġigmd k
olta ge
ĠCOP Y
ĠEAX JMP
chow dsp
ĠTicTo c
ĠFormal PowerSeries
setCodec For
Ġeith er
ometh ing
omnet pp
ĠkBasic Version
ffml p
INGCLASS IFIER
openHorizontalTable Box
! ";<
' ."<
) .<
) ");<
, {
/ _
0 159
4 22
5 2
7 94
8 1
A AB
B AD
C LE
C andies
D RO
D emo
D xso
E GL
E lGamal
F N
F r
F ine
F String
F ONT
F OLD
G X
G it
G reppingDlg
H al
H as
H IGH
H idden
H ONE
H anoi
I SE
I tems
J PEG
L if
L ow
L ap
L ive
L ITER
M LIB
M isc
M DrawContext
M PEG
M qtt
M SVC
N ORM
O ES
P ublic
P SP
P UB
P VOID
P lot
P ixel
P hysics
Q Color
Q Font
Q Timer
Q LineEdit
Q ITC
R q
R EN
S IN
S ING
S andboxLayer
T orch
T ips
T utor
U CE
U dc
V K
V ALID
W EB
W ays
W arp
W alkable
X Y
Y PT
Z Actor
` .<
b I
b m
b ad
b rowser
b ranch
c rash
d q
d ue
d cc
e q
e ach
f lip
g ames
g Filter
g gui
g Utf
h y
h read
i B
j ector
l c
l w
m x
m oid
m Lib
m etadata
m etrics
m elon
n l
o ice
p eg
p frame
r d
r end
s f
s id
s ingle
s Group
t v
t re
t ool
t rig
t js
t utorial
u k
u la
w i
x a
x r
x or
y m
z ure
z pl
z hang
z ircon
} _
´ æİ¥
Ñ ı
å ¸
æ ī
è ·
Ġ el
Ġ çļĦ
Ġ utility
ĥ ç´ł
Ł èĥ½
in ity
ĠĠĠĠ ĉĠĠĠ
de t
de mo
de precated
st o
st x
en Context
on ic
on etime
on ometric
er tion
re m
re tri
Ġ" .
Ġ" _
Ġ" ");<
Ġ" !!
inc ess
Ġc ube
Ġc ases
Ġc pasjuste
am ount
Ġm sbl
Ġm qtt
end ar
es is
ri er
Ġi v
Ġi mode
Ġi deal
() {};<
ing Object
Ġt e
Ġt re
Ġt weets
al ity
al low
if fer
ic ular
id s
Ġv ld
Ġf re
Ġf ocused
it ed
ra c
Ġs f
Ġs q
Ġs er
Ġs ound
Ġs cc
ur tle
Ġp ut
Ġp ose
Ġp ts
Ġp itch
Ġp sz
Ġb m
Ġb ad
Ġb row
Ġa bc
lo mon
lo aded
Ġ0 00
et t
et pp
str s
str nicmp
un try
Ġco eff
Ġco cos
Ġo ccur
Ġ( *)(
do g
Ġma pper
ĠS U
ĠS um
ĠS AN
ĠS pec
ĠS ET
ĠS parse
ĠS ervice
ĠS phere
ĠS UPPORT
ol ve
ĠC ard
ĠC ONT
ĠC Entity
ĠC lipboard
IN F
ĠE C
ck Link
__ ("
Ġconst ants
io dic
ĠM Vector
ĠM ark
ĠM ETH
ĠP g
ĠP ort
ĠP AGE
ĠP alindrome
ĠP ATH
ĠT Vec
ĠT elemetry
ĠT ENSEAL
im pacto
Ġd h
Ġw id
Ġw og
Ġw ari
EN G
EN DIAN
ul se
arg in
AL LE
ist ogram
In str
In Event
In valid
In cluding
In tegration
Ġ& <
Ġ& =
const ant
ĠG x
ĠG ROUP
ĠN AME
RE L
RE Q
stream size
ĠD ist
ir k
AR GE
as m
as io
ec s
and s
all types
ĠF NM
ĠF ILTER
Ġ4 5
DE V
DE CK
Ġh int
Ġh Instance
Ġh idden
IM A
ĠL ine
ĠL ength
ĠL ower
ĠL inear
ĠQ Frame
ĠQ Icon
ĠR el
Ġe mp
Ġx x
ction ary
Random Number
ĠB ridge
ĠB SD
ĠI Splitter
Ġto uch
li er
og l
ĠU int
ĠU rl
ĠU CHAR
Ġar tist
ag nostics
Ġfile path
per spective
struct s
Ġ' +
th ing
ern et
UL AR
ang ora
ME T
ME SH
ME TRY
ĠK e
SE LECT
Ġy aw
Ġget A
Ġget Distance
Ġget Full
Ġget Metrics
red uction
est ure
est amp
ĠH MODULE
ĠH ardware
con structor
MO T
<<" -
ser ies
RO L
pro m
pro logue
pro cessedSize
EX P
EX PECT
vi val
pri ce
pri sm
TO P
SH A
Type CvtImpl
ansp ar
Ġpro gress
Ġpro fit
qu ant
ind ices
UN INIT
UN USED
12 62
12 68
ID D
AD S
Ġreg ex
Ġreg ular
bu ilder
Ġtr ansfer
reg ular
to String
Ġse en
file Name
Ġex ists
Window Conn
ĠX PRESS
SS p
ib onacci
CH O
CH ANGE
ab stract
ĠEx pr
UT OR
UT ILITY
De precated
form al
ip c
Re qui
Re play
CON N
com pare
com bine
ĠIn animateObject
Data Provider
ĠJ ump
ĠJ UCE
Ġ6 0
Sc r
Sc an
Sc anToken
REG ULAR
ft StraFact
Text Browser
code s
)) /
ĠGet Name
Ch ams
ĠGL boolean
Ġes p
PIN MANAGER
PIN READER
Comp letion
NO ISE
NO CHANGE
File Writer
Ġle vk
Get Current
Ref count
Un ion
Un load
INT RU
Ġan imation
ĠAr g
ĠAr chive
Sh ort
Res olver
Ġrow Count
Bu iltinType
ĠRE SOURCE
Ġ20 14
ass ign
ass oci
ys class
AS M
AS IN
AS IO
ĠPRO JECT
Ġexp r
UR FILTER
cv m
Path Provider
init With
Ġsub set
Ġsub seq
block s
Ġspec ial
OT H
cc urr
Ġtri m
Ġtri Mesh
show Team
Ġor ientation
so lomon
æķ Ī
Th an
IMPORT S
100 1
Game Process
ee k
Filter s
BO OT
BO ARD
ĠID R
LINE AR
Cpp Char
ward s
av y
pop count
IP HONE
Ġz lib
Ġinit With
Ġ(" \
bind ings
tri diagonalization
Check Box
ĠMat Quad
åĬ Łèĥ½
tra cy
ĠSystem Clock
ĠIN VALID
BIT MAP
Ġ) :
ĠST FT
CONFIG S
Ġ-- >
lin es
Ġmod ify
iny in
ĠRow s
temp orary
Debug Name
Packet Handler
pow c
pack ing
ha ir
FILE WRITER
Register Codec
Tra der
Tr anspose
ĠSc anToken
Team Gladiator
FIL EN
ĠCh en
åħ ĥç´ł
Entity ID
Ġé Ģ
ci e
10000 00007
ĠRe verse
GLOBAL S
]+ $
]+ [
ĠBlock s
React or
Not Loaded
ĠEn able
Per M
hp et
åı ĳ
let te
PO SE
RES OLVER
rea ded
Ġinitial Load
qui re
Helper s
CR ITICAL
CR YPT
Mouse Button
COMP ILE
Scene Object
Sec urity
Ġ{} ",
ĠObject ive
Com ment
Ġlength Of
Ġop ens
Ġexec ut
Ġexec ute
kan e
ĠSub system
ĠFU Sticker
Ġlogger Chain
Ġinc re
And roid
termin ate
ĠRes ize
Ġåħ ¨
1000 5
ãĥ ¼ãĥ
74 0
As se
As ioSerialPortClient
ĠEvent Type
è¯ »
Ġra d
Resource s
MOCK SENSOR
26 5
Mon ot
Ro le
Std String
lection s
Ġsign als
Ġac count
MT S
ĠPL SC
CHECK POINT
Service s
meg core
Arduino Json
ZRule BaseQuest
tim estamp
ĠAR M
Simple WindowConn
æİ ¢ç´¢
ĠPri mitive
PLS USBStackView
Func Enum
Ġresize Event
Dim ension
Ġresp ective
Ġrot ation
ãĢ Į
ãĢ į
Ġsearch BST
Ġgo od
Ġdest roy
Feature s
Ġthread s
OPEN MP
ĠConfig uration
Ġ-* -<
Ġãģ® åĢ¤ãĤĴ
Ġãģ® åĢįæķ°
Ġword s
Access TypeID
DB Filter
bb a
éĢ ļ
Exec utable
YZ ER
jac ency
BL UE
Su per
dx so
dx gi
79 3
FU Item
Pre v
UPP ER
åĨ į
onn x
ĠLP CTSTR
Generator BuildingHolo
TIME KEE
ĠThread LocalValue
)<<" \
Work er
åį Ĭ
ĠSp lit
IMPLEMENT ED
SETT ING
ï¼Ī =
Sys Allocator
cat en
ĠCON D
Ġdl lexport
ĠOp tions
Help Screen
yy FlexLexer
ĠPR ISM
ĠPR IMA
ĠGener ic
ĠGener ate
IMAGE LOADER
ĠIO CTL
Fi end
ne on
Ġä» ¥
Ġbig gest
Quaternion f
GLE WAPI
Comb at
interpre ter
pm r
]>= '
gn u
å½ ķ
Ġsk ip
ĠFAST NOISE
Ġdecl arations
Linked ListNode
RAN GE
åĽ ŀ
æĮ īéĶ®
ingly LinkedListNode
COPY ABLE
lapsed Timer
Ġfr ustum
EYERPLAYER EVENT
Bin der
Hex Fiend
åĩºåĬĽ ãģķãĤĮãĤĭ
Ġmon ey
Ġrecurs ive
Gl yph
Red uction
åĵ Ī
Ġca pacity
Depen dencies
multip ly
TV P
Ġman ually
ĠDirect X
GRAPHICS VIEW
Segment Tree
PAN E
Ð° Ð
Ġver bose
ĠNull Menu
ĠSeeta FaceInfo
Mov able
Word s
trans action
Hw ang
QListWidget Item
Ġ"* ";<
Ġneg ative
refer ence
EyerAV FFmpeg
INTERRUPT MANAGER
Blur Filter
ĠAs ioSerialPortClient
Ġly rics
ĠDele te
openssl conf
Decode Queue
è¿Ķ ãģĻ
Sur vival
Sky Box
na il
rust Controller
itude Controller
Ġrepres entation
ĠEL F
SPR ITE
Bot tom
Hand lers
Pol ynomial
tet gen
¾ç ¤º
Ġomn etpp
ĠSto re
Rep ly
GEO METRY
Hydro Feature
Me an
aLib Feature
æ» ¤éķľ
ceive Input
TestData Path
ka ust
Ġnat ural
Ġbet ween
ĠSty le
Ġãģ¨ åĩºåĬĽãģķãĤĮãĤĭ
199 37
Rigid Body
greg ate
foc us
Ġparty id
CppReflection Type
Domain Object
Cur ve
CATCH MENT
ĠUC NAME
ErrorFactor AD
stead y
Ġmsd f
leg acy
ĠElem wise
Cooler BuildingHolo
STICKER SOURCE
ĠRed uce
Ġhehe Hwang
Boiler BuildingHolo
Heater BuildingHolo
tograph y
ĠGLEWAPI ENTRY
Turbine BuildingHolo
LITER AL
Mqtt Client
trig onometric
onetime auth
ĠMETH OD
ĠTelemetry Sensor
Ġwog ha
ALLE L
ĠgetFull Name
Requi rements
INTRU SIVE
showTeam Players
NotLoaded Exception
SimpleWindowConn ector
TIMEKEE PER
yyFlexLexer Once
EyerAVFFmpeg Header
! "<
& (
& ;<
( #
( "<
) "<
) ...
) ((
. "<<
/ %
0 33
1 10
6 1
: %
: -
= -
? $
A IT
A utolinkedNative
A HEAD
B RE
B OR
B alls
B efore
C ef
C ED
C var
C afe
C lipboard
D v
D end
D iscrete
E V
E seqExpression
F W
F our
F ork
F inal
F requency
F eel
G PL
G ang
G ING
G rip
G adget
G uest
G rade
G auss
H M
H at
H AL
H ftStrategy
I DE
I BU
I Array
J it
J ava
K L
K IT
K th
L AND
L ARGE
M ock
M irror
N L
N EG
N aver
P al
Q File
Q ScrollArea
Q DateTime
R M
R IX
R Animation
R aw
R estore
R CTBridgeDelegate
S M
S lic
S ome
S quare
T G
T ut
T ile
T LE
T otal
T LS
T ENSOR
T ls
T hous
U Object
U pd
V OL
V SX
W pragma
W ped
W macro
W onder
X ml
Y O
Z Module
Z Brain
Z TASK
Z BEHAVIOR
a ffine
b ullet
c ing
c ary
c util
c ancel
c Svd
d k
d iv
d ab
d one
d ump
d onn
d Card
d Structure
d vars
f ma
f loor
f includes
g y
h c
h l
h it
h data
h cc
h ome
i ang
j ob
k napsack
l sum
l ca
m ys
o uld
p et
p lus
p ick
p ixel
q iang
r gb
r incess
s v
s Menu
s ession
s daCodeGraph
t un
t to
t rigger
t rees
u c
v okes
x shm
z er
z ip
z eta
{ };
} ),
¨ æ
¿ ÑĢ
Ñ ģ
æ ĥ
ç ³
é ĺ
Ġ â
Ġ čĊ
Ġ ){<
Ġ );
Ġ ãĤ
Ġ layout
Ġ ...<
Ġ locale
Ġ efsw
į ä½ľ
ĵ įä½ľ
ķ çļĦ
Ŀ ãģ
in om
in ner
de comp
st oi
en a
en coder
re ent
re defined
re ach
re curs
re peat
int types
or i
Ġ" __
Ġc k
Ġc r
Ġc ard
Ġc enter
Ġc ause
Ġc rash
am ard
Ġm n
Ġm pp
Ġm ol
Ġm etrics
Ġ= ========================================================================
es c
() ");
Ġn tt
se esaw
co il
co cos
Ġt b
Ġt i
Ġt iles
al t
al ib
pa dd
ic Catchment
id ing
Ġ* **
Ġv isual
Ġf in
Ġf ocus
it ype
Ġs i
Ġs urface
Ġs ql
ur bo
Ġp at
Ġp alindrome
Ġp anel
Ġp hi
Ġp Desktop
Ġp Brain
Ġp oll
Ġre fer
Ġre peat
Ġa void
Ġa bstract
Ġa FileName
la ze
lo pt
lo depng
ro i
>} }
Ġstd out
str ategy
str cpy
ig u
ig moid
un gi
ma chine
us b
ex it
ĠA L
ĠA rt
ĠA LL
ĠA DD
do it
** )
ĠS un
ĠS ection
ĠS andboxLayer
is m
++ ],
Ġg c
Ġg li
Ġg uid
Ġis oc
Ġis Anagram
ĠC Object
ĠC ircle
ĠC Coder
ed it
ed ges
ed Fill
ĠE cho
ĠE LOQUENTTINYML
ĠE lapsedTimer
ck it
ch ild
io de
ĠM E
ĠM a
ĠM ol
ĠM ath
ĠP M
ĠP ut
ĠP ow
ĠP os
ĠP IX
ĠT EXASSOLVER
im ized
Ġd x
Ġd ialog
Ġd one
Ġw heelEvent
Ġ{ -
arg ins
AL YZER
ist or
ist ent
In Stream
In animateObject
Ġl at
Ġl ar
Ġl cm
Ġl antern
Co in
ext ract
LE TE
ĠG P
ĠN LO
ST X
ST ACK
RE SET
RE TRODREAM
bo ve
ad ded
ad amard
eg lm
eg tt
ĠD emo
ĠD estroy
ĠD RIVER
ow ner
Ġj og
AR C
pre emp
as er
ĠF T
ĠF ull
ĠF WP
ĠF ibonacci
Ġ4 00
DE SC
DE VICE
St ore
St uff
(" &
(" ../
Ġh istory
IL L
ĠL ANT
ĠL ONG
Ġ3 32
ĠQ Menu
ĠQ Action
ĠQ ScrollArea
Ġst x
ĠR em
ĠR aw
ĠR CTBridgeDelegate
ĠR Classic
get TinylangVersion
ap t
ĠB G
ĠB U
ĠB ig
ĠB ST
ĠB ill
ĠB onusObject
ĠI W
ĠI DE
ĠI con
ĠI ES
Ġto h
Ġto ss
li as
li ces
Ġ__ _
ew els
ĠU FL
ĠU ltra
AN IME
AN AGER
ult i
per mute
Ġarg buf
ern ame
Ex e
10 7
sh utdown
Ġr c
Ġr am
Ġr vector
Ġr data
SE G
red it
lm tk
ĠH ack
ĠH INSTANCE
Ġ/* !<
mm intrin
QU E
QU AL
con io
irt y
irt ree
MO VE
ity Element
Ġde veloper
Ġde pendencies
******** **
); //
); }<
ĠO K
ĠO b
ĠO perator
IC LE
IC opy
ele port
TO OL
ta Strategy
Ġbe low
data base
ĠV irtual
ĠV okes
ĠV ImageLoader
List box
lib Un
GL IntensityFilter
ansp ond
TE val
ess eng
Ġpro d
qu ak
UN O
12 80
sc all
DI RECT
Ġmax To
Ġmax count
Ġmax Value
Ġmax SubArray
ath er
Ġmat ch
ãģ ¾
ãģ ĳ
lement s
Ġset B
Ġset Row
Ġset base
Ġset Geometry
Ġset Background
to N
to ss
to ken
Ġse c
Ġse e
Ġse maphore
Window Manager
Window Settings
ĠX ML
Ġcomp ressed
Ġdata base
CE INLINE
Size Grip
Object Handle
Object Namespace
==== =<
Bo ot
di alect
Event Join
(), '\
Ġsum Up
Ġsum OfN
ab ort
(); ++
UT ION
UT IME
ĠĠĠĠĠĠĠĠĠĠĠĠĠĠĠĠ ĠĠĠĠĠ
ĠĠĠĠĠĠĠĠĠĠĠĠĠĠĠĠ ĠĠĠĠĠĠĠĠĠĠĠĠĠĠĠ
ĠĠĠĠĠĠĠĠĠĠĠĠĠĠĠĠ ĠĠĠĠĠĠĠĠĠ
sum OfN
Re layout
push Button
Data Size
TER S
Ġnew Node
ĠJ NI
ĠJ OY
OL UTION
DL C
Reg ular
To Statement
Text View
Text Area
Ġstr tok
Ġbu ilder
Col lapsible
anag ram
ĠPro gress
<= (
Function View
Test C
Ġ# #
Ġcl s
Ġcl amp
ĠSt atic
ĠSt rip
ĠSt andard
ĠSt orage
ĠGL FRAME
For Loop
MA G
ert ical
Comp ute
Ġtest F
NO M
25 9
Ġle ak
Ġan im
me asure
ATION AL
Ġq vec
KE num
Button Box
Ġpri mitive
Ġpri mary
Bu f
mer ge
Ġu gly
Property Initialiser
LIB S
format s
Ġdo ctest
sm t
Ġcolumn Count
bs ite
cv t
Add Update
Ġmy Pow
SY N
SY NC
Ġpre pare
Error NotImplemented
My Types
ĠDo uble
13 3
Frame Widget
Log Message
dered String
Ġsh ader
Ġcol lapsible
]] =
Ġat t
Ġas n
Ġas io
Inter ior
FF T
PRO PERTY
Ġå į
so bj
vm k
vm esh
graph ic
Th rustController
Main Activity
Ġlib s
Ġval f
ĉĉĉ Ġ
Sensor Name
Lin es
Ġsc an
Ġsc ript
av ing
GET TERS
Ġreverse d
Ġreverse Number
output s
Sco tt
EXPORT ED
ml Element
tri mesh
CC NEW
sub mit
14 90
tra s
thread s
MIN MAX
ĠWidget Look
ĠIN IT
used ForLoop
Font s
åĪ °
åĪ Ŀå§ĭ
buffer Pos
ĠST REAM
Message Box
Qu ick
Ġlu t
ĠLo ader
duct or
Al low
ĠFile System
ĠUn initObject
node let
run ning
Ġpar sing
Ġdelete Node
ĠAdd Update
temp erature
Ġus es
By Id
Dec Block
FIN D
rep ly
çļĦ åĢ¼
Ġlink Type
Ġper cent
18 9
verti ces
ĠNode Type
Tra cer
isc ord
Tr anslation
ĠSc reen
Run ning
ĠCh rone
åħ Ń
ĠProperty Initialiser
gi ungi
DEP TH
ump y
Mod ify
ĠRe layout
fast call
55 6
Ġimp ort
Ġtop ic
ĠEn coding
ĠRender ing
ĠBO OLEAN
Per form
Per Team
Per mutation
Ġsquare Root
ĠDes erial
Provider s
rol led
ĠPlayer Ptr
Ġinitial ized
IS zAlloc
Lock ed
Lock Guard
Tri Mesh
ĠDi agnostics
Address InRegister
Basic Type
Ġsy scall
ĠTh ese
gle w
ĠPLS Dialog
ĠPLS DpiHelper
Ġop t
Callback Info
check Error
cal culate
copy able
We ight
çĽ ´æİ¥
ĠRes ult
Ġwork s
User Config
img proc
color s
NUM BER
Play ground
ĠDE VIC
LOG GING
]<<" \
atom ico
ĠCH ANNEL
ĠIP Mask
Ġvm k
Ġsz Name
Ġ24 0
Gui de
Hash Map
26 0
mult itype
ç» Ł
bd cSvd
Ġfact or
ĠPL AYER
Conditional Statement
>** <
Net Initializer
Ġblock s
ĠTo Int
play list
Ġuser id
front end
Catchment Ag
si eve
Ġwindow s
ĠTR A
PLS CommonScrollBar
NE SS
STD C
STD METHODIMP
Var Symbol
Ġad j
Ġad apter
Inst antiations
Ġeigen Values
åº ¦
ĠCheck sumForward
ĠRF KEnum
CG AL
over write
Ġcal culate
Ġsearch Matrix
ĠEE PROM
ĠNO MINMAX
PropertyDefinition Base
Det ach
ĠBinary Search
INTERNAL S
ĠLOG D
INIT I
åĪĹ æķ°
Pair CEGUI
ĠAuto matic
ĠFILE SYS
éĢ ł
CX MISC
Job Node
tl s
åĨ Ļ
TRA IN
SpinBox çļĦåĢ¼
ret to
ĠComponent System
rit icCatchment
Ġsymbol s
Ġtag s
Ġback prop
eters Encoder
Valid ator
Mult ip
Video Widget
ä¸Ĭ ä¸¤ä¸ª
BACK REF
alk ing
38 4
Namespace Fragment
ĠTra its
Arr Size
Ġenv ironment
CU DNN
connect ed
go od
äº Į
Ġutil ities
Quaternion d
Ag Hud
XML ResourceManager
ĠClear List
ĠTips System
Comb s
Ġstat sd
ĠUT IL
ĠNot ification
Mark er
ĠTH READ
ĠTitle Button
ĠFOR M
ĠFOR CEINLINE
Ġdecl aration
MACH INE
åĽ ¾
Ġcre ated
amed XMLResourceManager
structure s
Fin der
comm it
ĠSO URCE
ĠSO CKET
Bin opExpression
iver Combs
Ġrecurs ion
Meta Entry
oper ation
ffff ffff
ĠZBehavior State
ĠMaterial Instance
Ġlua open
å¯¹è¯Ŀæ¡Ĩ ä¸Ĭä¸¤ä¸ª
Can vas
QPa intEvent
]<= '
FLAG S
multip lication
Timest ep
Ġsim ulation
Ġsim ilar
ĠLock Guard
ĠSave Menu
ĠisPowerOf Two
control s
Ġsmall er
Abstract EventJoin
å¼ Ģ
Ġpe ak
Ġacc um
ĠActor UniqueID
ĠSign ature
ĠRec ord
Heap Obj
ĠMYSHAREDLIB SHARED
Euler Walkable
ora Dv
Ġdw Version
ĠOri gin
éĥ¨ åĪĨ
'|| *
Cy cle
ĠDele ted
Ġcorrect ly
Cryp t
ĠScore boardId
Ġ{{ (
ĠHeap Obj
Cart ographic
Drag Object
Sel Strategy
ĠAsync MqttClient
ĠCheat Loop
hous enumber
Specification Vector
æŀĦ éĢł
èİ·åıĸå¯¹è¯Ŀæ¡Ĩè¾ĵåħ¥çļĦ è¡Į
èİ·åıĸå¯¹è¯Ŀæ¡Ĩè¾ĵåħ¥çļĦ åĪĹæķ°
Ġãģ§åī²ãĤĬåĪĩãĤĮãĤĭãĤĤãģ® ãģ®åĢĭæķ°
Remote IO
can onical
fl ann
ĠMan ual
ĠException s
REFEREN CED
Fundam ental
Mid dle
tbl gen
Ġmissing Number
ĠBasic Type
LOOK AHEAD
ĠChar acter
ĠHello World
EfcDsrc Application
Ent ropy
æ¯ Ķ
æĺ ¾ç¤º
eto oth
PLSChannel LoginView
quot ed
Serialization Cluster
ĠFUAvatar SDK
ĠGenerator ID
Boundary Controller
ĠCOMMON SAMPLE
CCE CHO
Neg ateConditionalWrapper
XPtr Torch
Ġph one
ToM etersEncoder
ĠComplex ity
oreground Color
arc hetype
ĠAT TR
ĠsetF oregroundColor
facet Type
è¿ŀ æİ¥
Ren deredString
SQU ARE
bro adcast
lion et
nul lopt
DEx tras
ĠUSER PROG
Ġdelim iter
miss ing
Ġç¾ İ
ByteS lice
qwdialog headers
ç¾¤ ç»Ħ
å¤īæĽ´ ãģĻãĤĭ
è½¬æį¢ ä¸º
setCodecFor Locale
Plot Point
hy fd
jector y
zhang qiang
Ġte mpl
Instr VarSymbol
anspar ency
Scr atch
ccurr ences
Ġopens ans
DecodeQueue Base
Polynomial List
BRE AK
Dend riticCatchment
HM ANN
Wpragma s
Wped antic
Wonder Trader
cary on
donn a
xshm fence
inom io
Ġ========================================================================= =====<
Ġisoc ales
ĠCObject Vector
ĠPow C
ĠNLO HMANN
egtt ools
preemp table
ĠLANT ERN
ĠIES AMPLE
ĠUFL V
libUn usedForLoop
esseng er
quak eglm
ĠmaxTo Root
ĠsetRow Column
ĠsetBackground Color
ĠsumUp toN
ĠStrip e
Interior Catchment
1490 6
åĪĿå§ĭ å¯¹è¯Ŀæ¡Ĩä¸Ĭä¸¤ä¸ª
ĠSTREAM INGCLASSIFIER
ISzAlloc Ptr
ĠDEVIC ES
atomico bject
CatchmentAg gregate
Cartographic Realization
èİ·åıĸå¯¹è¯Ŀæ¡Ĩè¾ĵåħ¥çļĦè¡Į æķ°
libUnusedForLoop Var
åĪĿå§ĭå¯¹è¯Ŀæ¡Ĩä¸Ĭä¸¤ä¸ª SpinBoxçļĦåĢ¼
% */<
' ]=
' ]++;<
) ";<
) >;<
, *
, //
0 12
4 50
5 9
5 00009
6 28
; "<
= ((
> ("
> (),
A O
A AC
A ES
B Q
B V
B ang
B IG
B one
B EW
B order
B ATCH
B ranch
B cj
C ent
C AR
C nt
C ALI
C urr
C lim
C enter
C lear
C lip
C MI
C rash
C mptsView
D on
D art
D SP
D one
D igit
D ummy
E E
E ME
E ET
F req
F eedback
G D
G CC
G uid
G ROUP
H L
H istogram
I Vector
I Affine
K e
K ism
L im
L IT
L azy
M en
M Command
M DragObject
N AP
O V
P id
P ick
P hys
P odium
P ipe
Q Vector
Q Menu
Q Key
Q Action
Q Handler
Q Close
Q TextEdit
Q uality
Q VBoxLayout
Q ubit
R S
R and
R NG
S pac
S elf
S OLVER
S wapChain
S OLUTION
T Array
T REE
T rees
T oggle
U Scene
V Rect
V GA
W B
W h
W CHAR
W IDTH
Z LIB
Z GameType
Z ChannelRuleMgr
Z GameDraw
Z NetRepository
Z QuestMap
Z CMI
_ ;
_ {
a j
a Interpre
b il
b est
c lo
c lic
c li
c cf
c decl
c lable
c Block
c ases
c SensorScanner
d il
d iscord
e uler
f in
f ri
f il
f raction
f lake
g les
g pu
g adget
h ip
h orizontal
i lu
i pp
i ph
i Turbo
l la
l Obj
m gr
m ix
m vm
m fc
m etric
m icro
n f
n ar
n eg
n ish
o op
o ke
p Widget
p Match
p attern
q global
q MRML
r vector
r sum
r begin
r atio
s b
s at
s and
s Data
s ound
s coped
s hell
s uffix
t ar
t ower
u ef
w t
w si
x FFFF
y ear
y rics
y uki
z u
z y
z ion
¡ ãģ®çĬ¶æħĭ
¨ ãĥ
¯ ãĤ
» º
» æ³ķ
å ±
å ĳ
æ ı
æ ĵįä½ľ
ç ķ
é »
é ł
é ħįåĪĹ
ĉ ĠĠĠĠĠ
Ġ ON
Ġ ame
Ġ ray
Ġ ),
Ġ rig
Ġ org
Ġ elf
Ġ errno
Ħ ı
ı ¾
in int
in string
ĠĠĠĠ ĉĠĠĠĠĠĠĠ
de tach
st ing
st ime
at ial
er ter
re alloc
re serve
// ...<
Ġ" "
Ġ" ="
Ġ" ";
ut ate
ut ed
Ġc ast
Ġc mpts
Ġc annot
Ġc lusters
am age
am ily
Ġm ar
Ġm illiseconds
Ġm Pulses
Ġm irror
end ian
Ġi m
Ġi tr
Ġi mg
() };<
Ġn h
Ġn th
Ġn ative
se maphore
co ordinate
Ġt ile
if o
ic ide
Ġ* ;<
Ġv ideo
Ġv ariables
Ġf ine
Ġf inished
ra red
ra di
ra pped
ra pid
Ġs amp
Ġs obj
Ġp ick
Ġp hys
Ġp Listener
Ġp ubl
Ġp Stage
Ġp hysics
Ġb atch
Ġb ody
Ġre st
Ġa ge
Ġa utolink
Ġa verage
he types
la ws
lo quent
ect ral
ro uter
ate ver
Ġ0 4
un der
un real
Ġco lour
Ġint ern
ent wo
ent ence
Ġ1 50
us ive
us uu
ex ists
um ble
Ġ( -
ĠA g
ĠA ss
ĠA RE
ĠA pi
ĠA utolinkedNative
do s
do main
ER AL
ER IAL
Ġ// ..
ĠS I
ĠS W
ĠS pace
ĠS IG
ĠS ink
ĠS PC
ĠS ome
ĠS wap
is upper
Ġg ot
Ġg ain
Ġis FirstInnings
ĠC Y
ĠC l
ĠC y
ĠC ent
ĠC um
ĠC IR
ĠC Task
ĠC lean
ĠC Weapon
Ġon Draw
Ġthe y
ed ium
ĠE N
ter eo
ĠM id
ĠM eg
ĠM PL
ĠM IT
ĠM AC
ĠM ULTI
ĠM SVC
.. <
Ġ2 7
Ġ2 000
ĠP D
ĠP lay
ĠP GE
ĠP VOID
ĠP OLY
ĠT E
ĠT V
ĠT s
ĠT ool
ĠT otal
Ġd ic
Ġd iv
Ġd mac
EN C
EN VIRONMENT
Ġ{ {<
Ġin s
Ġin ject
Ġin Order
Ġin dices
Ġfor ce
AL G
ON CE
:" ;<
sp r
sp Object
In line
In Duration
In dices
Ġl on
32 5
LE FT
ĠG EN
ĠG iven
ĠG ENERATE
ĠN amespace
RE CO
RE TURN
RE MOVE
Ġch ildren
ĠD T
ĠD W
ĠD IS
ir ct
AR I
AR K
AT A
AT ED
PL oop
pre ter
pre view
pre pare
as ing
and Score
all enge
ĠF A
ĠF r
ĠF loat
ĠF tp
ĠF low
ĠF unc
uto re
Ġ4 8
Ġ4 9
OR B
set Maximum
Ġchar s
DE CODE
DE ATH
St g
(" ./
Ġh al
Ġh ardware
IM GUI
ĠL ow
ĠL ight
ĠL OT
ĠQ Font
ĠQ Thread
ĠQ Char
ĠQ Pixmap
Ġst l
Ġst ra
ĠR O
ĠR o
ĠR UMBLE
get ter
get Key
get Distance
son ic
ap io
PP C
ĠB ORDER
ĠB oom
ĠI Frame
Ġto String
Ġto lua
li ke
Ġar ma
em on
AP OL
per ations
os h
Ġ' ('
FI X
th ickness
Ġr sum
Ġr anges
Ġr pn
up sample
ĠW lan
Ġy et
Ġget X
Ġget Y
Ġget Size
Ġget TinylangVersion
red Score
ĠH as
ĠH TTP
ĠH uang
Ġ>> =
MO B
Ġde activate
nt ensor
of er
ALI ZE
Pro v
RO UND
pro perties
col lision
vi e
String Type
String Map
back ground
ive Hund
art Pointer
art aglia
ĠO ff
IC lass
ele ton
ele ms
SH EET
ta u
ĠV er
ĠV al
ĠV ARI
Core Minimal
stdc all
GL FW
ff f
ff ers
qu aternion
Ġ5 00
CO MB
UN RE
UN REFERENCED
sc c
sc an
sc roll
DI FF
Ġ10 5
ud p
Base Scope
fa b
fa il
Ġset Time
Dynamic s
Ġse m
ĠX uef
iv ation
Ġstring stream
CH IP
ab et
act ers
ĠEx t
De ep
De compiled
test s
read u
Re ason
no return
CON TEXT
YS Y
ti ces
Data Checker
Ġnew N
ms bl
On Run
Sc rip
Ġ| =
OL IC
Ġpa lette
max imum
ress or
Ġstr cpy
Ġbu ilt
rib utore
Col lections
][ "
ĠGet Client
ĠGet Mouse
Ch ildren
Ġun ion
ĠGL enum
base Style
enum erate
MA SK
ark ov
Comp uting
AV A
File Meta
ak usuu
ting Team
Get Module
Get Task
Get LastError
Menu Type
Menu Style
Un register
Ġmin i
INT R
Ġan chor
ach es
44 4
LIN UX
TR AC
Sh lObj
Ġcreate Strategy
ou ch
Ġpri mes
REGISTR Y
REGISTR ATION
new lib
AS SE
Ġcont ainer
State Object
min i
ĠRegister AutolinkedNative
sm an
sw izz
Num Ptr
AG MA
RT L
RT UAL
Add Source
OP ERATOR
Ġmy Vector
Ġpre load
app le
Path Delegate
Path Saver
>/* %
Error Type
Error Message
inter view
wo ofer
ĠZ ChannelRuleMgr
ĠZ ilu
ĠDo main
Pack ages
Log ic
Ġtemp orary
Time Keeper
READ Y
Ġå Ģ
Ġå Ĭ
Module Packages
-------------------------------- ----------------
Ġpart icular
ACT IVE
Game Mode
Game Framework
Ġlib c
Sensor Factory
arch ive
Image Manager
Image InfoDialog
TH EME
ĠIm Font
99 4
Ġapp ro
Ġapp ly
MEM BER
FUN CS
Solver Cholesky
REF COUNT
av g
ĠAn imated
NS Array
amer ate
ONT END
App Delegate
Ġstart Time
ĠBase Scope
PC STR
tri m
Ġ(! (
game Instance
sub scriber
Se eta
Command Base
ĠCont roller
24 02
+= (
Font Loader
IO CTL
igh ter
Symbol Var
ale d
ĠST ATE
VI RTUAL
Ġ-- -<
Op code
]== ')
insert Spac
Ad min
Al ways
Ġcheck Requirements
Ġwh atever
ĠFL AG
ĠList box
Sub scriber
vers ing
run ing
run ner
ĠEyer SharedCount
Ġdelete Strategy
Debug Overlay
Sp an
Sp otify
ingD istance
>{ }<
Ġfind Min
Ġfind Duplicate
Dec imal
Or g
Count down
ĠOn Run
pack ets
system s
Out Duration
Memory Manager
Ġper mutation
we b
we bsite
Register With
Ġheight s
Texture Target
Tra pframe
Att itudeController
03 0
Qt Plugin
Const ants
Const raint
ĠMODULE S
Unit ig
Group s
US AGE
gl sl
Entity Registerer
Ġpos ix
local player
10000 0
ĠRe pres
Pass Manager
Pass Registry
ĠDynamic JsonDocument
Not ify
ĠRender Window
Ġread ing
Ġpath s
PR AGMA
wh en
velo p
ãĤĴ è¿ĶãģĻ
Block Linear
ĠWorld Object
Ġenum Strategy
Ġenum erate
files ys
hed ule
DEBUG GER
ĠComp ute
Ġcontain ing
Alloc ate
iss ues
Ġfiles ystem
fr ames
description s
Logger Chain
Be acon
ĠQt Nodes
Factory Registration
check er
35 89
Json Conversion
copy left
Pa inter
Ġam t
And S
Slider Widget
Imp ort
User Defined
Min i
Min imum
Ġsin phi
ĠSe quence
ĠDE F
ĠDE FIN
LOG GER
Parent h
Ġwarning s
now flake
Ġcur ve
Tool Button
Tool Bar
ĠEvent Dispatcher
az ard
*/ )<
Pos ix
ĠTr ansform
ĠLib retto
Ġmove Zeroes
Ġident ifier
05 00
has er
ĠWe b
Ġvis or
frame work
ram mar
Default EntityRegisterer
Order ing
ĠIL UT
æľ ī
height s
Ġglobal s
Move ment
çĶ »æ³ķ
debug ger
Catchment Area
Service Manager
IMP LE
Geometry Buffer
Mac ro
Mac ros
ZRule Quest
ZRule Training
ZRule Survival
Ġcv flann
high gui
Shape Mesh
Track s
Var s
ĠGraph Modification
ĠCheck sum
Ġhel p
action s
Ġrequi re
ĠSP IClass
Source Builder
Ġcal c
Ġcal lable
ä¸ª æķ°
Runtime ID
riter ia
Ġgo dot
MMatch GameTypeMgr
MMatch DBFilter
RA DIOLIB
sec ut
ĠLOG GER
]!= '
rai Event
Arc hetypes
Static Patcher
è¿Ľ ç¨ĭ
DB G
Exec uter
Find LineEdit
Place holder
Ġview er
Ġfun zion
extension s
ĠBu ild
edi ate
ĠUtil s
PROCESS OR
65 4
Loc ator
Im PlotPoint
Ġag giungi
Direct X
BUFFER ED
MS A
pass es
wx id
Ġcommand s
ĠNV SDK
ĠRandom Number
ĠInput Stream
Intern als
ĠHAL F
OPT IONS
ling Team
vg entwo
LIMIT S
CRE T
äº º
Ġdebug ger
Ġdefinition s
lower bed
Dist inct
]<< ",
anch or
Ġchannel s
Scoped Guard
ĠEyerAV Rational
åĩ Ĩ
ĠCal led
ivis ors
æľĢ å°ı
NET WORK
ĠTitle Menu
Sk in
channel s
ĠPC Sensor
FileSystem Watcher
Extension s
Fin ish
Ġtrack er
ĠPer son
HEL P
Sm all
Sm artPointer
ĠDevice PathDelegate
Ġpackage Providers
GAME TYPE
Sda CodeGraph
dr s
ĠFs SimpleWindowConnector
Ġhw nd
Ġden s
ĠView er
Ġvisit ed
ĠGraphics Element
GU IContext
Kernel s
Kernel Registry
Mar lin
Ġfi bo
ĠNT API
ĠNT STATUS
Proxy Style
HOOK S
éķ ¿
Ġmajor ityElement
ĠDxso Code
DEL AY
ĠFade InDuration
ĠFade OutDuration
VARI ANT
CRT DBG
ron ics
Sim ulation
Use less
car ma
å¼ ı
Ġpe ople
ĠMS ID
ĠPol inomio
Ġcomplex ity
Signal Tracker
Ġagain st
ĠLevel Data
è¨Ī çĶ»æ³ķ
åĿ ĩ
åĿ Ĺ
icon v
Ġob tain
ĠOri ented
hysical Binder
ExprTree Sda
ç¨ĭ åºı
WH EN
ĠAs set
ĠEd it
Ġletter s
Anim Widget
è®¡ ç®Ĺ
fam iTurbo
çº ¿
Ġpw sz
rot ate
è¿Ķ åĽŀ
Cart ridge
bat tingTeam
bat sman
Ġbl ender
Ġbound s
Archetype Registerer
Ðµ Ð½Ð¸
Ġclean Up
ĠAbstract Symbol
Ġdisp atch
bow ler
bow lingTeam
ĠJob Handle
REFEREN CE
curl build
åįģ è¿ĽåĪ¶
Mag num
Patch es
Ġmeg core
Ġteam A
Ġteam B
Ġ***** <
Ġcomm it
ĠFB Library
ĠReal Space
Go od
Na N
REND ER
arma dil
Ġowner EntityID
æ¨¡ åĿĹ
Ġcand idate
EDI ALOG
ashboard UI
Ġåĭ ķçļĦ
Recy clable
12345678 9
JNI Env
Pl anner
aly zer
Ġ********************* */<
ĠPOS ITION
Ġdummy func
Ġdaisy sp
Ġhook s
Ġrf k
libav util
ãģ£ ãģŁ
14159 265
RUNN ER
>/******************** **<
BROW SE
wit ter
dera ble
ĠDem irk
Study FrameWidget
Ġthrough out
Child Window
Ġimplicit ly
Ġradi x
ãģ¦ãģĦ ãĤĭ
ĠCOPY RIGHT
Fr ames
Hal f
Ġ"!! !
iffer ent
Ġfre open
ĠSAN ITY
ĠSparse BlockLinear
ckLink Device
UTOR IAL
CONN ECT
associ ative
FILEN O
ĠlengthOf L
Ġexecut ion
Asse mbly
Monot onic
ĠOptions Menu
tetgen io
focus InEvent
HAL F
NEG ATE
Thous andScore
Ŀãģ ¡ãģ®çĬ¶æħĭ
decomp ose
recurs ive
aser Sensor
QUE UE
TestC ases
åħŃ è¿ĽåĪ¶
NamespaceFragment Registerer
Ġaccum ulate
Clim b
Don ateDialog
Kism et
LIT TLE
QKey Event
QClose Event
aInterpre ti
nish ant
sand y
yuki coder
Ġphys x
Ġpubl ished
ĠAutolinkedNative Modules
ĠCIR CT
ĠonDraw Begin
ĠMeg core
RECO GN
iveHund redScore
ĠXuef eng
Scrip ting
ĠGetClient Rect
ĠRegisterAutolinkedNative ModulePackages
swizz le
AddSource MenuStyle
insertSpac er
RegisterWith Registrar
famiTurbo Cartridge
armadil lo
ĠåĭķçļĦ è¨ĪçĶ»æ³ķ
14159265 3589
ĠDemirk api
ĠSparseBlockLinear SolverCholesky
" \
" ),<
( %
( []
) \
* ;<
* >::
, __
- =(
/ (
0 123
6 7
6 64
7 20
8 32
9 3
9 80
9 05
: "<<"
; \<
= ");<
> %
> ;
> ");<
> ``
A E
A IN
A ir
A sc
A FX
A abb
A Comment
B M
B and
B ML
B OLD
B reach
C AL
C uda
C ATEG
C tab
C Sha
C Generate
C AMERA
C astle
C taStrategy
C riteria
D H
D b
D ream
D sp
D PL
D ARK
F alse
F alagard
F eed
F REQ
G EL
G CD
G tExpression
G REEN
G ENERATE
H yp
H EX
H ide
H ome
H old
H ARD
H ighest
H SIGMOID
H ftStraFact
H azard
I ER
I END
I so
I FRAME
I Sequential
K View
K ENS
K MOD
K bI
L ang
L UT
L hs
L IGH
L argest
L tExpression
L PCWSTR
L auncher
L zma
L AComment
M H
M s
M is
M Font
M Debug
M ount
M illiseconds
M ixer
N pp
N ST
N av
N GEN
N amedArea
O SH
O OK
O ps
O peration
O thers
O gre
P G
P un
P ed
P EN
P GEN
P NG
P ane
Q Node
Q WORD
Q Icon
Q Slider
Q SpinBox
Q Scoped
Q VariantMap
Q Pixmap
R x
R am
R OR
R AND
R ank
R CTBridge
R TOS
S id
S ol
S pre
S IL
S yn
S ud
S LO
S ound
S ock
S amples
S DA
S andbox
S ND
S LEEP
S tereo
T F
T l
T re
T ess
T rip
T IP
T Lock
T INGS
T LI
T TOOLS
U TE
U SC
U AGE
U FUNCTION
U World
U FusionCamSensor
V x
V st
V irt
V ehicle
W MM
W ater
W ARD
W ire
W rapped
X EW
X render
X TP
X LOCALE
X WMM
Z SkyBox
] ");<
] ],
] --;<
a V
a ec
a bout
b z
b mp
b ast
b alance
c ule
c Impl
c lip
c afe
c lipper
d m
d s
d var
e en
e ared
f tp
f eedback
g a
g io
g ain
g dx
g amal
h ot
h iro
h uv
h adamard
j av
k socket
k Mean
l j
l cs
l idar
m ce
m ble
m xx
m sec
m onth
n T
n am
n op
n one
n Enter
n amed
n Rs
n umpy
o q
p g
p k
p Window
p Frame
p md
p Font
p Bitmap
q cvm
r pl
s ink
s upport
s fc
s vc
s ingleton
s urface
s udo
s apio
t n
t en
t ux
t cp
t ools
t witter
u f
u ator
u char
u gi
u cer
u aLibFeature
v h
v fs
w heel
w ire
w ssd
x cb
y our
y ond
¬ ¡
² ł
· »
» ãĥ
½ ®
ä ¼
ä ¾
å ĭ
å »º
æ ¸
æ Ģ
æ Ń
æ ¬¡
ç ©
ç Ļ
é ļ
é Ŀ
é Ł
Ġ hpp
Ġ ERR
Ġ ------------------------------------------------------------------------
Ġ location
Ġ æķ´æķ°
ĸ éŁ
Ĺ ãģŁ
de o
de ep
de cklink
Ġ< >
st or
st ra
on ed
at asource
er ence
Ġ" ^[
inc h
inc rement
ut ime
Ġc ap
ce l
Ġm r
Ġm v
Ġm ce
Ġm any
Ġm edia
Ġm imium
Ġ= >
Ġ= ================
es et
es ome
es ian
ar a
ar ages
ar mv
ar ca
Ġi pq
le cule
() =
() [
() ");<
Ġn alu
ct r
ct ag
ct uator
se m
se ctor
se lection
co okie
co tto
an ization
ing h
ing est
Ġt ar
Ġt ab
Ġt ft
Ġt cp
Ġt ell
Ġt witch
Ġt xt
al ign
al ys
al ignment
if stream
if fc
endl y
ic d
Ġ* ********
Ġ* >::
Ġv vi
Ġf ields
Ġf amily
Ġf lowerbed
it a
it al
ra bble
Ġs parse
Ġs pi
Ġs ock
Ġs afe
Ġs coped
Ġs pawn
Ġp et
Ġp res
Ġp ipeline
Ġp Keyboard
Ġp refix
Ġp ugi
Ġb urn
Ġb ir
Ġb ill
Ġb ordered
Ġb ank
Ġb fs
Ġre tri
Ġre shape
Ġa sync
Ġa bove
la v
la zy
lo x
lo re
ro k
ro Dream
Ġstd in
et cher
ub s
Ġco ef
Ġint rinsic
lic ator
mp i
ent ing
ent als
Ġ1 10
Ġ1 20
ma dd
us r
Ġo l
Ġo ps
Ġ( ++
ĠA ST
ĠA BO
ĠA ccess
ĠA TA
ĠA ula
Ġma s
Ġma gic
ER FC
ĠS te
ĠS eg
ĠS ock
ĠS UB
ĠS ky
ĠS anity
ĠS eries
ĠS ampler
ĠS pawn
ĠS dCard
is PowerOf
ol or
++ ]=
Ġg ames
Ġg oogle
Ġg lt
Ġis prime
ĠC Time
ĠC lang
ĠC enter
ĠC Encoder
ĠC Exit
ĠC TAG
ĠC Decoder
ĠC Make
ĠC AMERA
Ġon ed
Ġon Change
IN ER
IN PA
Ġthe me
el im
ed Modules
ĠE GT
ĠE FVR
ch ange
ch unk
ch ildren
ver b
ĠM IN
ĠM ov
ĠM EL
ĠM edia
ĠM ENU
ĠM TP
ĠM Listener
ĠM ultip
ĠM utate
Ġ2 8
ĠP H
ĠP Y
ĠP IT
ĠP ASS
ĠP ACK
ĠP ixel
ĠP hysics
ĠT rack
ĠT Second
ĠT imeline
ĠT artaglia
ĠT arkov
Ġd ig
Ġd uration
Ġd ivisor
EN SY
EN CHMARK
ul ations
Ġin dent
Ġin sertionSort
AL ECT
ON SE
sp lat
ist ic
In v
In tr
In Frame
In vert
Ġl ess
Ġl sum
32 12
ont ainer
ext ure
ht ree
LE BEN
LE GRAPHICS
ĠG l
ĠG roup
ĠG IF
ĠG tExpression
ĠG RADE
ĠG XWMM
ĠN ST
ĠN eg
ĠN ALL
ĠN HW
ĠN amedArea
ST L
ST OR
ST IME
ST ORY
RE V
RE SP
RE SER
bo b
bo e
ad ane
ad jacency
Ġch at
<< -
ĠD U
ĠD SP
ĠD SO
ĠD AI
ĠD cBlock
Ġj it
Ġj vm
AR ATION
AT ANH
PL SL
pre fix
ĠF F
ĠF M
ĠF AT
ĠF uzz
ĠF alagard
ĠF ocus
ĠF Unrealcv
OR ITH
OR RADE
set Window
set Geometry
ener gy
DE M
DE FS
Ġ+ <
== ;<
(" .
(" [
(" ~
Ġh r
Ġh v
Ġh are
Ġh old
Ġh pet
IM odule
IM ARY
ĠL AC
ĠL ANG
ĠL UID
ĠL tExpression
ĠL antern
ĠL yrics
Ġ3 1
Ġ3 3
Ġ3 4
Ġ3 8
for te
ĠQ Event
ĠQ Point
ĠQ Tree
ĠQ MY
ĠQ my
ĠQ Slider
ĠQ TS
ĉĉ Ġ
ĉĉ ĠĠ
ĠR ange
ĠR GB
Ġe at
Ġe ast
get Y
get c
get al
get Value
get Token
get her
get Pun
ĠB ool
ĠB IG
ĠB ind
ĠB YTE
ĠB rowser
ĠB ENCHMARK
ĠI H
ĠI ReactPackageProvider
ĠI TK
ĠI GM
ĠI Subject
ĠI CHOR
ĠI Cvar
Ġto g
og rad
ĠU pper
ĠU UID
ĠU dc
ue Box
Ġar c
Ġar ound
IT ERATOR
lus ion
Ġfile Name
return s
AP ON
AC ube
AC OSH
Ġ' -
FI ID
th reshold
Ex ists
Ex change
UL ANG
sh im
sh ake
Ġr s
Ġr u
Ġr v
Ġr tc
comp ile
om er
om ic
ME A
ME TAG
ĠW CHAR
ĠW GLEW
ĠW WB
SE I
SE L
SE M
SE LEMENT
Ġget ter
ERN ODE
lm editor
ĠH F
ĠH i
ĠH AR
ĠH DN
ĠH AS
ĠH LS
ĠH idden
ĠH ScrollArea
ĠH LEGRAPHICS
Ġk Camera
Ġk pid
Ġk lox
CT ask
QU ACK
QU AZ
con cept
con vert
extern al
Ġover lay
AB I
AB ASE
Ġde al
Ġde coded
Pro be
64 0
pro fit
col major
fo b
String A
ard Variable
art in
art ic
art esian
ĠO H
ĠO S
ĠO V
ĠO W
ĠO ES
ĠO FF
ĠO gre
ĠO tau
IC E
ele ctor
TO KENS
SH AKE
[] [
Ġbe yond
data Err
ĠV I
ĠV X
ĠV ScrollArea
ĠV ECTOR
ĠV IMAGELOADER
ĠV ertical
ader s
lib c
lib LAComment
Ġout b
ll ar
En g
TE MP
TE ENSY
ess Type
Ġpro p
Ġpro perty
Ġpro cessed
qu ences
CO M
CO S
CO HASH
ph oto
12 1
ID ENTITY
DI SC
DI ALECT
Ġmax Sum
Ġmax Chunk
Ġmax Balls
Ġ10 4
oo ch
Ġreg comp
Ġreg exec
top ic
ãģ ¤
Base Manager
Base Exception
fa irplay
SC K
Ġtr ans
Ġtr anslate
Ġset Orientation
Ġset Interval
Ġset HeaderList
reg s
reg ardVariable
to Rotation
Ġse q
Ġse lection
Ġex ist
Ġcomp iled
Ġth ickness
Size Param
LO DEP
Stream ing
ho c
ho pping
STR CMP
STR HEX
Event Type
Event LinkDefinition
Xf ix
emp loyee
ab y
ast er
act ivity
ĠEx ist
ING IFY
log o
log Event
EG TTOOLS
ĠĠĠĠĠĠĠĠĠĠĠĠĠĠĠĠ ĠĠĠĠĠĠĠĠ
ĠĠĠĠĠĠĠĠĠĠĠĠĠĠĠĠ ĠĠĠĠĠĠĠĠĠĠ
ĠĠĠĠĠĠĠĠĠĠĠĠĠĠĠĠ ĠĠĠĠĠĠĠĠĠĠĠĠĠĠĠĠĠĠĠĠ
rig lav
De v
De ckLinkDevice
CL IModule
Ġhas PathSum
rt m
rt bl
0000 00
ly ing
CON VERSION
CON CEPT
CON TA
cl one
Ġ} }<
Con vers
Ġcall s
Ġno op
Ġno te
ĠIn fo
ĠIn stance
ĠIn valid
Name Expression
Ġgen re
View Controller
PAR TY
PAR ALLEL
11 11
Data Exchange
ĠPy AST
ĠJ ls
On Draw
Sc iss
mn i
imp lements
Ġpa intEvent
DL G
Reg ion
gen Type
max Num
code cs
Plugin EventHandler
Col lide
ĠGet Time
ĠGet User
ĠGet Sample
Test Utilities
Test Instantiations
Ġun its
Ġun lock
Ġun load
ĠSt reet
ĠGL XEW
For ce
core ir
cond var
ãĤ ¢
Def ense
>/// @
NO W
NO SUB
opt imizer
Ġcon f
Ġ8 0
Get Proc
Get Registrar
Get Curr
Manager Dialog
Un k
Ġmin Stack
Ġmin utes
Ġmin Cost
INT TYPES
Ġan other
ĠGenerated Cluster
CTYPE S
Ġq MRML
Ġq uality
Set Style
exp ect
exp ected
exp lore
44 3
DU MP
Ġal gorithm
Ġal ways
PLUGIN STREAM
TR ACE
TR ACT
ĠAr gs
ĠAr bitrary
Point Cloud
FOR UNNABLE
isp atch
DO C
DO DEM
Ġpri ce
Ġpri mo
Bu zz
Ġu char
Ġu uid
ĠReg ion
MM U
Ġdi am
Ġdi vide
AS URE
AS SET
ĠPRO CESS
Property Dim
Property Proxy
Ġheader List
ound Tag
min Price
Ġdo Some
upd ating
RT ypes
Add Statement
OP I
OP CODE
cf lag
Ġpre order
WR AP
Index Changed
Code s
Cont raction
Ġsub se
block ed
My Fixture
ĠZ Effect
ĠZ GameDraw
Value Ref
ĠDo es
ya w
Ġgener ation
Ġed ges
stance Controller
DAT ABASE
Frame Draw
Log Callback
pe ated
Ġsh a
Ġsh utdown
EM ANAGER
Lay ers
SER T
SER VIC
Ġtemp erature
]] ==
Ġas k
Int f
FF E
path s
EL IX
OS MODULE
Ġpart Id
Ptr Array
ĠError Critical
An gles
An alys
doc s
Game Module
He uri
Image Codec
]) +
DECL ARATION
ĠNC BKern
Ġ? ?
by ak
SDL name
SDL NetInitializer
ARCH IVE
Ġapp Delegate
MEM BLOCK
ization Error
REF LECT
Ġkey board
Ġkey pad
!= '\
Ġsort Colors
av es
Init Log
NS Data
dp wssd
Ġreverse Str
DIS COHASH
æķ° åĨį
ĠY ULANG
ĠSet Tip
Ġstart ing
ĠBase Object
ĠBase Processor
Class Factory
Key s
Ġz mm
ps graph
ps roi
ĠUi Component
sub type
sub process
sub trees
ric mp
ĠOpen CL
Se ma
Se qStatement
tra versal
Label Statement
Command Interface
ĠCont ent
gb ias
CODE CS
Input Event
Input Broker
BIT STREAM
Font Manager
ĠWindow Renderer
ĠWindow Factory
last Name
ĠST ILL
VI Z
old or
SI ERR
ĠDec imal
Ad apter
Ad hoc
Al gorithm
Ġmod ified
EYER BUFFER
Sub Tree
Sub space
33 33
Process Handle
pac itor
ĠAdd Statement
ĠAdd Attribut
Debug StringA
Sp ect
IR D
Ġus ers
Dec GraphModification
Initial ization
ĠPROG RESS
Or Expression
Task Name
FIN ITE
ĠOn e
level s
Ġ12 8
50 1
alloc a
ĠFunction Type
ĠFunction Storage
çļĦ ç
Mesh Sync
NON BLOCK
Ġro b
Ġro uter
Ġro oms
cont ents
cont ribut
Device Context
Device Gpu
we ight
we apon
interface s
Register Arc
LU ID
ĠQW MISC
ĠQW GRAPHICSVIEW
first Name
ĠEX T
ĠEX TRACT
Ġtotal Players
Tra de
Tra versal
ĠTest F
ĠTest Class
ĠSc roll
ĠSc ale
ĠSc alar
ĠSc heme
FO O
ĠCD P
GE OT
GE TOPT
") (
") ));<
åħ ·
Group Filter
gl pch
IV IM
den Death
ĠDeclare Shared
10000 5
10000 00
ĠMY PROJECT
Max imal
Mod al
ĠOut buf
word Spelling
Actor UniqueID
dis k
dis connect
tions Dialog
Not Expression
ĠRender Effect
ERR NO
ĠCreate Package
Read Buffer
Ġread y
80 5
PY R
PY GETOPT
ĠLink Type
PR IMARY
Ġlow est
PO FF
Ġ[] (){<
ĠLog Type
Eyer String
Global EventSet
ĠRun Time
USE S
cs xs
30 5
Tri angle
Ġ{} \
helper s
Ġext ent
Ġload Texture
hed String
hed ron
be ast
ĠSprite Data
ĠSprite Editor
Ġdisplay Details
Alloc ation
Camera State
Camera Sensor
Ġnon copyable
Ġtra verse
ĠPLS LOAD
Logger Base
Ġass ume
Ġop tim
Codec Type
Up load
cir ct
ĠFU Model
ĠFU ViewModel
ï¼ļ "
ĠGame Mode
And Expression
Is Supported
We ak
Slider IgnoreScroll
ãĥ ł
Ġother wise
Ġ(* (
ĠClu ster
FL ASH
Min imizer
ĠSe qStatement
Channel sData
curr sum
åĲ ĳ
From Two
Mutex Linux
Mutex Win
Native Modules
Ġmem o
Ġmem block
ĠEvent s
ĠEvent LinkDefinition
Do List
print ln
uff le
ĠType Cvt
ĠType CvtImpl
ĠData Wrapper
Animation Manager
current IndexChanged
Ġæ ³
Ġæ İ
Ġæ ĸ
Ġæ ľ
Ġslo t
Create Package
mem ber
è¯ ¢
At ascii
PATH S
Light map
not ify
Ġrender ing
sk ip
Ġmove ment
ĠAl ign
ĠAl location
Ġsign aled
Ġevent fd
Down loader
Down Interrupt
VO IR
Ġvis ibility
MT KView
Move Event
Move Statement
Sprite Animation
Ġlo ok
Ġlo aded
ĠGB Memory
OW IDGET
Ġsp ectral
Ġcolor s
MARK ET
Dis abled
Dis assembler
Dis regardVariable
ĠTEST QUAZ
ĠNS MenuItem
ZRule SoloGladiator
ZRule TeamGladiator
ian BlurFilter
ä½ ¿
Project Manager
Variable SE
ĠAR CH
Simple Image
Bitmap s
STD INT
)+ (
LI CTYPES
Tab Ctrl
ĠIf Statement
Template Visitor
PS RESOLVER
Export Register
callback s
BYTE S
han oi
Ġopen cv
ĠSH A
TRACY FILE
ãĢ Ĥ
Ġcal cul
Ġfa irplay
ĠCHE SS
SCAL E
ĠĠĠĠĠĠĠĠĠĠĠĠĠĠĠĠĠĠĠĠĠĠĠĠĠĠĠĠĠĠĠĠ ĠĠĠĠĠĠĠĠĠĠĠ
vtk New
vtk Transform
vtk TestUtilities
WE APON
Ġpo licy
MMatch Stage
Fast V
å¯ Ĩ
çĶ¨ åħ¶ä»ĸè¿ĽåĪ¶
ListNode Data
execut ors
Cluster Cluster
]!= '\
Ġãģ® ãģ¨ãģį
throw able
Access Iterator
BE LOG
MI ZE
Static Field
ĠImage View
Ġsuper Step
bb c
ĠVersion ing
ĠChunk Extent
Null RNG
TI E
Ġview port
Audio Device
BL TIN
BL URFILTER
cryp tography
win sock
æŀ ľ
ĠLabel Statement
Script ObjectHandle
Direction al
VIDE OWIDGET
FU Model
FU ViewModel
åĨ ħ
ĠMove Statement
ĠGLE W
Ġdevice s
CODER UNNABLE
Control s
PROCESS ING
idx ml
ĠThread ing
display Details
|| (
è® ¤
ĠAN D
ĠAN CHOR
ENU MOB
ĠName Expression
Intensity Sensor
ĠCommand Selector
åį ķ
Ġmode s
ĠUString Vector
ignore wheel
YPTO PP
06 01
MR VIZ
Tick Time
ki ero
ĠLe af
Desktop EventsMonitor
," /
If Statement
Video Mode
ĠCON CUR
ĠCON CAT
ĠMMatch ChannelRuleMgr
ĠMMatch GameTypeMgr
ĠOp tion
STRUCT OR
ĠAssignment List
ĠPR INT
ĠTri angle
ĠRandom Vector
su z
su ccess
ĠSY M
ĠTra cy
Vertex Shader
Ass ertion
Cmd Line
Focus Event
MUL ATOR
MUL DIV
Ph one
valu ate
stop watch
ĠTemp Expression
asse mble
Character istic
go dot
äº İ
Ġbig int
ĠForm Rviz
VIS ITOR
Mem Expression
ĠAnd Expression
ĠMemory Object
imest amp
ĠQLabel Wrapped
EDIT OR
ĠEyerAV CodecType
åĩ »
åī į
ĠCal culate
ĠNot Expression
ĠUni code
Ġplayers PerTeam
Mark Exception
å½ ¢
ris ma
ĠSu cceed
ĠSTR INGIFY
ĠDate Display
ĠFOR MRVIZ
Bound s
Ġalloc ator
MACH TIME
MACH MALLOC
ah ul
æĮ ĩ
Ġcre ating
ĠPC AP
Non Copyable
Wait ing
Ġgl z
ĠPer ceptron
Stage Setting
estore App
Ġorigin ally
ĠBuffer ing
CamSensor Actor
Sm allest
account s
QStringList Model
EyerPlayer Context
Meta Type
Sda Graph
dr m
dr one
ĠCK SceneObject
Ġform ID
ĠGU IContext
ĠStack LinkedList
TokenKind s
ĠGraphics Asset
Bit rate
Round Man
TABLE FILTER
REAL CV
ĠUN REALCV
fact ory
ĠExp Statement
ĠExp ansion
ĠCommon Counter
Ġcontains Duplicate
Fusion CameraActor
Jump Statement
Jump ConditionalStatement
TV DataHandler
Top Node
DEL PROTECT
ĠDirect ives
ĠFade Animation
ĠTemporary Object
CF gUtf
track s
æĪ Ĳ
los able
los risma
ĠisPowerOf Three
ĠisPowerOf Four
split k
CUSTO MIZE
Mach Type
Media Info
RAM MAR
car losrisma
trans ceiver
ĠMS G
Ġlim its
ĠDis able
ĠRec ursion
ĠWt Helper
Unreal CV
Heap Dbg
ĠImGui MouseButton
Ġ[&] (
convolution al
Private Cards
ĠResource s
SIGN AL
Dock Widget
Kern Param
Pe ak
depth ai
cover ed
cover ity
ĠDB LL
ĠLin Vst
Thumb nail
Ġãģ¯ ç
Ġextension s
Attach ment
Phase Function
INTERRUPT SERVIC
Cy clic
Micro facetType
NC BKern
WH ITE
ĠAct ivity
ĠSleep Forward
ĠScoped Handle
ĠEd ge
ĠMask edFill
ĠPre comp
ordin ates
Make up
ĠNonCopyable Obj
83 64
Blu etooth
Cryp ter
Cube Actor
fam ily
}} }
éĩ į
éĩ ı
cef Widget
rap idxml
ĠLU A
Scheme Manager
ĠHeap Sort
Turbo Module
Bad Version
Sel StraFact
Ġrepres enting
Stamp ed
ĠkNum Nan
ĠOr Expression
TypeTemplate Parameter
Attribute List
IZ ED
æĶ ¾
Ġsingleton s
Ġomn i
ĠCloud Password
Ġofs X
Ġofs Y
ĠBE InitLog
ĠBackground Sprite
ĠmaxC uts
åįģ åħŃè¿ĽåĪ¶
ĠMMatchRule Skillmap
Fundam entals
her it
wind ing
Ġmeg cv
INS ICS
ĠPO INT
ALLO CA
ALLO PSRESOLVER
ĠWORD S
EfcDsrc Generic
Mo vie
Mo lecule
Na vmesh
REND ERNODE
æĹ ¶
éģ ĵ
Ġvtk New
ĠSm all
ĠMX N
ĠToken Kind
Ġdb ll
fft nd
comment er
Connect ed
Tools Module
Cap ital
Clean Up
Fx Curve
gd native
jk stra
Ġvertex Num
loss es
ĠAD VBox
ĠCR YPTOPP
cklink Base
Ġham ming
Encryp tor
WidgetLook Manager
ĠProto cols
ItemList Base
SOFT PLUS
RenderTarget EventArgs
clean up
POINTER S
ĠSpriteAnimation Def
Absolute SetStyle
ĠPLSL oading
SQLite Cpp
NLLLoss Options
BC J
BR ATION
Fun ctor
Plain TextEdit
Risk Mon
SF ER
Uv Loop
fi bo
æĬ ĸéŁ
éĻ ¤
//=== --
Ġtf lite
Ġsupp lied
ĠAbout Dialog
ĠSele ction
ĠCA FFE
ĠEM ITTER
ĠMem Expression
ĠTile Extent
ĠTIME LINE
Coord s
ĠHw Controller
ĠHistory View
bust ed
CONVER TER
ä¸ĭ ãģ®
Secret Split
2818 1
iano forte
POSITION VECTOR
RB spObject
Vm Instruction
Ys DisregardVariable
mk l
patch es
çī¹ æķĪ
Ł¥ è¯¢
Ġcf str
cogn izer
Ġ*>( <
ĠCLI PP
Ġdai et
ĠGpu Texture
ĠGrade Type
ĠGOOGLE MOCK
Ġ'* ';<
SHI ELD
WindowRenderer Manager
WindowFactory Manager
LOOKUP TABLEFILTER
Compile Iterator
RenderEffect Manager
Ġkeyword s
Passes Gui
ĠAlbum Type
ĠkNumM icros
Account Data
BPLib rary
AAB B
BAD GE
ElGamal Encryptor
OES RenderNode
PUB LICTYPES
REN CPP
Warp Affine
è· ¯
ĠçļĦ æĮīéĶ®
Ġmsbl enContext
allow ance
Ġpts name
ĠSET TINGS
ĠCONT ROL
Ġwid tbl
ENG INE
ĠDist ributore
ĠRel ative
quant ized
ĠJump Statement
ASIN H
ASIO SERIALPORTCLIENT
åĬŁèĥ½ æ¨¡åĿĹ
]+$ ",
PerM eter
ĠResize Impl
Ġåħ¨ æİ¢ç´¢
ãĥ¼ãĥ Ī
Ġãģ®åĢ¤ãĤĴ å¤īæĽ´ãģĻãĤĭ
Prev Instance
ĠThreadLocalValue Impl
åįĬ åĪĨ
ĠPRISM STICKERSOURCE
Combat State
Reduction Gpu
ĠElemwise ForwardImpl
EV T
Gauss ianBlurFilter
Mock Node
Pal stanceController
Slic er
mys ql
¨æ Ħı
esc aped
Ġvisual ization
ĠArt ist
ĠMol Holder
ALYZER PUBLICTYPES
ĠGP IO
SEG MENT
ĠHack er
ãģĳ ãģ®çĬ¶æħĭ
ĠsetB ordered
Relayout ForwardImpl
ĠStorage Type
Compute Shader
Quick Action
ĠRelayout Format
ĠDeserial izationError
UserConfig Initializer
ç»Ł è®¡
ĠTRA DE
ĠUTIL S
ĠTHREAD S
ĠRecord Button
ĠOrigin al
ĠAsyncMqttClient Internals
Fundamental Archetype
è½¬æį¢ä¸º åħ¶ä»ĸè¿ĽåĪ¶
BV H
Border Mode
CALI BRATION
Dart Helper
EE PROM
Lazy SegmentTree
ZGameType Manager
fri endly
sat uration
å± ı
çķ ª
éł Ĩ
Ġame deo
rared Sensor
rapid json
Ġintern ally
ĠARE A
ĠPOLY NOM
ĠDIS PLAY
ĠLOT TIE
ĠRO ICopy
getKey wordSpelling
sonic Sensor
Ġdeactivate Wifi
Decompiled CodeGraph
AVA IL
INTR INSICS
ouch Bar
ĠåĬ ł
GameMode Base
velop ment
secut ive
ĠDxsoCode Iter
Asc ii
CATEG ORY
GEL U
Hyp o
Npp Shell
Ops Resolver
QScoped Pointer
Spre ad
SIL U
Sud denDeath
cafe ExportRegister
pFrame Bitmaps
tux family
²ł ãģĳãģ®çĬ¶æħĭ
Ġ================= ====
arca de
ctuator Spelling
iffc raft
Ġbir th
etcher Minimizer
ĠABO UT
ĠATA SCII
Ġglt f
ĠClang Tutor
INPA INT
ĠEGT TOOLS
ĠMEL ON
ĠMutate Impl
splat s
htree ba
ĠNHW C
RESP ONSE
RESER VOIR
ĠDAI ET
ĠQMY VIDEOWIDGET
Ġeast l
getToken Name
getPun ctuatorSpelling
ĠBrowser Dock
ĠIGM DK
ACube Actor
METAG RAMMAR
ĠOtau File
libLAComment er
ĠmaxChunk Len
toRotation Matrix
LODEP NG
Xfix es
CONCEPT S
CONTA INER
Convers ation
Sciss or
PLUGINSTREAM DECK
PropertyProxy Object
ĠdoSome Work
Contraction Gpu
Heuri st
æķ°åĨį çĶ¨åħ¶ä»ĸè¿ĽåĪ¶
subtrees um
ĠSTILL LEBEN
SIERR A
ĠAddAttribut edModules
ĠPLSLOAD ING
FromTwo Vectors
ĠTESTQUAZ IP
BLTIN MODULE
ENUMOB JECT
ĠCONCUR RENCPP
ĠLinVst Manager
INTERRUPTSERVIC EMANAGER
ĠkNumNan os
æĬĸéŁ ³
ĠEMITTER STYLE
ĠçļĦæĮīéĶ® çļĦ
ĠCONTROL BUTTON
Ġãģ®åĢ¤ãĤĴå¤īæĽ´ãģĻãĤĭ åł´åĲĪ
etcherMinimizer Molecule
æķ°åĨįçĶ¨åħ¶ä»ĸè¿ĽåĪ¶ æĺ¾ç¤º
" >>
" ))<
" \\
" }}}
' );
( ++
( ')
) ];<
) &&
* ()
* >*
, @
, ]");<
. *
. =
/ ****************************************************************
0 24
1 44
3 13
3 01
4 30
4 37
4 096
6 80
7 18
8 35
9 00
9 37
9 23
; }
; //
< ><
= *
A nt
A ID
A imbot
A live
A mount
B ag
B SC
B ING
B lob
B MP
B ass
B ES
B undle
B asis
C AP
C AD
C ho
C rt
C rack
C Model
C pu
C ancel
C Exit
C Wnd
C ategory
C Adv
D ri
D IM
D est
D Core
D Array
D Ptr
D Model
D istribution
E K
E mit
E VE
E lide
E asy
E FVR
E QUAL
F s
F lush
F rust
F ENV
F iveHundredScore
G e
G lass
G OG
G IS
G reater
G eo
G DT
G ooch
G PtrArray
H A
H IT
H ard
H ED
H ICLE
I Progress
I ALIZ
I Qubit
J s
J UD
K B
K AC
K uh
L eg
L IC
L Tree
L CC
L STM
L RESULT
L andmarker
M n
M er
M ul
M ON
M Widget
M Base
M UT
M ono
M sec
M utator
M argins
N AN
N ear
O O
O dd
O ID
O VER
O ld
P ED
P ID
P CH
P ip
P lane
P MR
P Sequence
P rincess
P OLIC
P haser
Q Tree
Q Rect
Q Entity
Q Style
Q Runnable
R V
R ing
R out
R ename
R ice
R MQ
R Sphere
R Boundary
R iverCombs
R RTL
S inc
S io
S te
S rc
S PAR
S NAME
S lot
S ql
S mooth
S inglyLinkedListNode
S hopping
T urn
T mp
T AB
T ATION
T ank
T ML
T imeline
T angent
U ST
U ART
U ltra
V k
V Mesh
V oice
W M
W ep
W OW
W rong
X Z
X lib
X util
X pr
X PRESS
Y AML
Z Z
Z Interface
Z HelpScreen
Z Canvas
] (
] ->
^ =
a vide
a ypoint
a emon
b son
b ases
c str
c ub
c ump
c xx
c wd
c mpt
c heat
c uh
d ce
d it
d to
d ark
d fs
e v
e z
e asy
f ce
f ar
f dd
f ac
f printf
f ollow
f eature
f env
f ug
f riend
f ba
f usc
g id
g il
g rip
g iven
g hi
h are
h gt
i red
j i
j acobi
k p
k le
k ely
l b
l on
l or
l am
l ongest
l rm
m al
m pp
m io
m scripten
m ingDistance
n k
n r
n aive
o File
p v
p end
p ur
p io
p impl
p Text
p ts
p Action
p ipeline
q Char
r s
r ule
r hi
s x
s api
s ql
s mooth
s noop
s lices
t id
t ty
t ick
t imes
u red
u age
v ing
v ol
v ation
v ity
v ance
v ld
v oldor
w f
w k
w al
w ave
w alk
w anted
w rap
w eek
x C
x d
x Gui
y les
y ield
y brid
z one
z eh
} }};<
¦ »
¦ çĲĨ
ª ãģ®
¬ å¤§åŃ¦å¤įè¯ķä¸Ĭæľºé¢ĺ
± ¡
½ ãĥ¼ãĥĪ
¿ æĬĸéŁ³
Ñ Ĥ
å ¥
æ Ł
ç Ń
è Ĭ
è ±¡
é Ĵ
ĉ ĠĠĠĠĠĠĠĠĠ
Ġ et
Ġ LE
Ġ --------
Ġ YS
Ġ roll
Ġ zz
Ġ ----------------------------------------------------------------
Ġ uts
Ġ udp
Ĥ çĤ¹
ĥ ãĥ
Ĳ åıĸ
Ĺ äº
ĺ è®¤
in ject
in struction
ĠĠĠĠ ĉ
de g
de tected
de serialize
Ġ< ><
en ew
on s
on ist
on enew
at p
># <
er Dialog
er min
lu alib
re mo
re wards
Ġ<< =
or o
or test
or Input
Ġ" $
Ġ" '
Ġ" ?
Ġ" ")<
ut put
Ġc e
Ġc x
Ġc le
Ġc lo
Ġc sh
Ġc var
Ġc luster
Ġc ross
Ġc redit
Ġc irct
am i
ce a
ce File
Ġm ine
Ġm map
Ġm anager
Ġm pi
Ġm fc
Ġm Program
Ġm Counter
Ġm sec
Ġm Normal
Ġm CounterSingleton
Ġm Hologram
Ġm Dimension
end point
ar ator
ri table
Ġi pc
Ġi Bone
le Bo
le ast
le tter
le ctor
le ts
() "
() ]
() ];<
Ġn l
Ġn as
Ġn om
Ġn ID
Ġn Param
Ġn ome
Ġn xt
Ġn elems
se en
se vent
se lement
co w
co thread
co lour
an i
an de
an ame
an der
Ġt d
Ġt t
Ġt au
Ġt urtle
Ġt cflag
Ġt imestamp
al led
pa yload
if ference
ic ate
ic alls
std in
Ġv w
Ġv oltage
Ġv ett
Ġf ex
Ġf ac
Ġf open
Ġf ake
Ġf atal
Ġf eatures
Ġf rac
Ġf Wep
pp s
ra st
ra vity
Ġs ure
Ġs old
Ġs gemm
Ġs ession
Ġs oftware
Ġs alary
Ġs nar
Ġp j
Ġp t
Ġp ur
Ġp un
Ġp Menu
Ġp Label
Ġp Out
Ġp da
Ġp ProgressBar
Ġp StatusBar
Ġp hysical
Ġp anic
Ġp inyin
Ġb s
Ġb ot
Ġb est
Ġb Sh
Ġb order
Ġb lue
Ġre use
Ġre ally
Ġre cie
Ġa ud
Ġa ccept
Ġa uth
Ġa pi
la ck
la red
la ux
ro bot
ate gor
ate lla
>} */
Ġ0 5
et imes
str cmp
un z
un load
un ite
Ġint err
lic ative
ent e
Ġ1 99
ma pp
ma pper
ma gic
ma pped
ma pping
Ġo ip
ex amples
Matrix Base
ĠA I
ĠA v
ĠA rc
ĠA nti
ĠA imbot
ĠA zure
do l
do ck
do Virtual
Ġma int
Ġ// _
Ġ// __
Ġ// /<
ĠS V
ĠS Actor
ĠS DX
ĠS urface
ĠS PI
ĠS ql
ĠS IZE
ĠS ingh
is a
is y
is hw
Ġreturn ed
Ġg s
Ġg test
Ġg reet
Ġg rok
Ġis Active
ĠC F
ĠC ap
ĠC String
ĠC My
ĠC App
ĠC lick
ĠC ube
ĠC LIM
ĠC rash
ĠC go
ĠC hef
ĠC Record
ĠC lipper
ĠC Wanted
ĠC ategory
ĠC BZip
ĠC BOR
ĠC ORRADE
Ġon Item
Ġon Activate
IN A
IN GL
Ġthe ir
ed Size
ed Tree
ĠE D
ĠE qual
ĠE very
ĠE APOL
ck Channel
__ (
__ _
ch anged
ver bose
ĠM M
ĠM mp
ĠM ay
ĠM TR
ĠM PI
ĠM Bitmap
ĠM MATCH
ĠM ulti
ĠM essenger
Ġ2 60
ĠP J
ĠP List
ĠP age
ĠP lace
ĠP uzz
ĠP lane
ĠP attern
ĠP ulses
ĠP rx
ĠP runing
ĠP ianoforte
ĠP PSequence
ĠT ex
ĠT able
ĠT ape
ĠT iny
ĠT alk
ĠT UTORIAL
im b
im buf
Ġd ur
Ġd sp
Ġd ump
Ġd ifferent
Ġw al
Ġw str
Ġw nd
Ġw cs
EN CRYPT
Ġ{ },
arg e
op e
op upMenu
te ch
---- -<
Ġfor ty
sp s
sp ect
ist ac
In structor
Ġl an
Ġl atch
Ġl cd
Ġl cs
Ġl stm
Co Initialize
Co verage
Co untry
ext ended
LE AD
LE TON
ĠG C
ĠG M
ĠG PS
ĠG iB
ĠG estoreApp
ĠN FC
ST est
ST UB
RE nv
RE CAT
Ġif def
ad or
ge om
Ġch rtbl
ĠD et
ĠD rag
ĠD ash
ĠD IP
ĠD iff
ĠD rop
ĠD ATA
ĠD avide
ir Server
Ġj int
Ġj object
Ġj ug
ment s
AT M
AT ER
/* ========================================================================
ef x
ot ential
ĠF ix
ĠF lag
ĠF IX
ĠF req
ĠF FT
ĠF ixed
OR K
set s
set Enabled
set Focus
set Visible
set jmp
St ar
St Argument
dom eter
(" '
Ġnum ero
Ġnum Rows
Ġh ow
Ġh Window
Ġh orizontal
Ġh ome
Ġh ous
IM U
IM od
IM BAR
ĠL UT
ĠL ITE
ĠL PCWSTR
ĠL GPL
Ġ3 65
ĠQ ST
ĠQ Vector
ĠQ Size
ĠQ Map
ĠQ Rect
ĠQ LineEdit
ĠQ Runnable
ĠQ JsonObject
ĠQ ByteArray
ĠQ ToolButton
ĉĉ ĠĠĠĠĠ
ĉĉ ĉĠĠĠ
ĠR ay
ĠR CPP
ĠR Frame
Ġe uler
Ġx r
get time
get WDF
son Page
ial s
PP ING
PP latform
ĠB S
ĠB in
ĠB egin
ĠB SON
ĠB ound
ĠB SV
ĠB enchmark
ĠB HL
ĠI ter
ĠI CON
ĠI pAddress
Ġto c
Ġto o
Ġto Gl
AN ON
Ġfile desc
em s
em y
em Version
em bed
em scripten
per iod
per iodic
AC ON
Ġ' "
Ġ' .
Ġ' );<
FI C
FI RST
FI RRTL
od ay
th ernet
Ex Dependencies
10 3
10 80
Ġr tl
Ġr viz
Ġr ori
comp uting
ME TA
ME LEE
ME dit
up t
ĠW ide
ĠW ritten
ool er
SE CRET
Ġget Value
Ġget Sum
Ġget Platform
Ġget Git
est ed
ĠH W
16 384
Ġk No
Ġk iss
Ġk az
Ġk eeper
Ġk Pid
CT RE
con verter
con currency
ong Focus
Str u
Str ongFocus
>> (
irtual Cam
AB C
aa a
Ġde s
Ġde ve
Ġde que
20 18
Pro b
Pro p
RO CM
RO TATION
pro filer
EX E
EX IT
EX PR
vi ded
String View
String To
pri or
pri mo
pri tes
ive End
art ists
ĠO ther
ĠO TA
ED GE
ED POWER
ose ph
ose cond
ele ven
Ġ! (
BU IL
ĠV k
ĠV m
ĠV TK
Ġout Size
En ding
GL Debug
ff e
lock er
TE LE
TE vent
TE SC
Ar tic
Ar tist
qu ash
Ġ5 12
ph p
char acter
sc r
DI VISION
PE ER
Ġmax sum
Ġmax Count
Ġmax Area
Ġmax Val
AD MIN
ac i
ãģ °
ãģ Ĩ
Base Data
SC ALL
SC ROLL
Ġtr anslation
Ġset Name
Ġset Value
Ġset Alignment
Node Base
Node Handle
to StdString
Ġhe i
Ġse cs
Ġse lf
Ġse bast
Ġse ems
file Number
Ġex tr
Ġex act
ĠX lib
Ġcomp iles
Ġcomp uting
Ġcomp uted
inl en
Ġdata Err
SS ID
CE LL
LO DModel
Stream Writer
SHO W
UP ER
DN S
Event Object
Event Loop
Ġsum Of
Ġ% .
auto m
auto grad
UT SNAME
ĠĠĠĠĠĠĠĠĠĠĠĠĠĠĠĠ ĠĠĠĠĠĠĠĠĠĠĠĠĠ
CL S
Ġhas Cycle
ork Type
Ġnumber Of
read OFF
Re quired
Re coil
no pack
ender er
ender Py
cl ing
Con secutive
util ities
ers istent
ĠIn st
ĠIn tegration
ĠIn ductor
Name Group
dent ials
Ġ7 2
Ġ7 4
Data Dialog
Row Mer
error s
ĠPy Ar
ms mo
ms df
On Start
On Change
On Exit
Ġ6 55
imp lot
Array Xi
Array XXi
Array SerializationCluster
Of Hanoi
Ġpa int
Ġpa inter
Ġpa irs
DL IDAR
To Update
To Server
Text Stream
Text Config
Text Input
Ġcount s
Ġcount Path
Ġcount AndS
Plugin Registrar
cb or
Col Xpr
anag ed
ĠPro visioning
gram mar
ĠGet File
ĠGet Instance
ĠGet Thread
ĠGet Desktop
add Test
ĠGL Frame
rect angle
For Plugin
For Key
array Sum
erial izer
mo do
mo bi
pen GL
ãĤ »ãĥ
ãĤ ½ãĥ¼ãĥĪ
ert ific
Def ine
Ġdp Max
ERAT ION
Comp cap
ari ya
parse IPv
parse CommandLine
NO PACK
Ġcon verter
Ġcon caten
AV DATA
File Logger
ak u
Get Text
Get Num
Get Time
Get Device
Get Offset
Menu Button
Un iform
Un doVirtual
ix in
000 2
Player Select
Ġq Hash
Set Array
Ġal gorithms
Ġal kane
CK Scene
CK SUM
SP latform
Ġ|| <
Ġrow Index
DO UT
Mode s
input s
ĠRE AL
ĠRE FIN
src Info
Ġu zlib
ĠReg istry
MM IO
MM ATCH
MP U
MP opupMenu
new num
Ġdi vidend
AS API
ĠPRO T
ĠPRO TON
Property Page
Ġwith in
State Frame
ĠArray XXi
Ġdo cs
Ġdo llar
UR A
next term
ĠSC ROLL
Ġfirst chr
Ġfirst Uni
Ġcolumn Number
END R
JECT ORY
RT AS
cv ar
load ing
Add Function
Add Button
OP US
Ġmy vec
Ġmy Dist
xy z
list s
Index edTree
Code gen
Cont ents
Cont ains
Path DataDialog
Error Handler
>:: ~
ĠZ lib
ĠZ TR
ĠZ Game
(( *
Ġfunction ality
ctor s
Pack edSize
Ġtri Num
DAT ER
Log s
pe e
pe Phase
ler ation
Ġsh ift
EM SCRIPT
SER EG
]] )
]] )<
]] !=
]] --;<
ros copy
pos i
Inter cept
FF MPEG
PRO J
PRO BES
Ġå ®
Ġå Ń
EL F
Module Pass
OS Common
An alyzer
Element s
ribut es
Main Bar
100 2
Game Core
He alth
cy cle
Sensor Identifier
BO UN
BO UND
Image View
Image Variant
TH ON
]) -
ĠIm gFilter
99 3
15 0
]= (
ä¸ ļ
Model Index
Ġcnt b
Context Menu
Vis orInput
Ġlog ging
Config ure
Ġsort Array
av r
ĠCO DE
DIS PLAY
æķ° åĪĹ
App Kit
ular Power
ĠY akusuu
ĠY DLIDAR
ĠSet Value
GR AY
IP Mask
Ġwe ight
Ġwe ights
Di vide
ĠBase Printer
Ġexplicit ly
Class Name
Ġptr diff
Ġinit Script
PC M
System Info
System Conf
Ġsource ID
CC var
Common Counter
game Engine
sub set
sub dir
14 74
ĠSystem Conf
Command Queue
view port
view Pos
24 0
Input Iterator
Color Prob
Symbol izer
Symbol Table
åĪ «
ĠST ART
ĠST YLE
Message NameGroup
Version String
Ġ-- >"
Link s
Ġright s
Ġright Side
Al pha
Ġcheck ing
Ġcheck Sparse
ĠFL uaLibFeature
ĠFile NotLoadedException
ĠUn k
Ġmod d
Sub scribe
mod Exp
33 720
run Benchmark
Ġpar allel
Ġserial ized
Ġserial ization
ĠRow Major
MB OL
ĠAdd Function
Lib c
Sp ooler
ingD aemon
IR QHandler
index ed
index ListItem
att aglia
Ġfind f
Ġfind Max
start s
start FirstInnings
Initial ized
key word
lang er
Packet Size
ĠTO bj
ĠOn Register
ĠOn Exit
ĠOn FrameDraw
register Types
jp g
50 8
fs opengl
çļĦ ä¸Ģ
Ġro d
Ġro le
Ġro und
Ġper mutations
*) &
*) >
decl arations
ĠNode s
ĠNode Label
bin omial
Ġserialize Json
Tra in
Ġqu at
Ġqu ake
ĠMC RESULT
Thread LocalValue
Level Data
ĠSc rabble
spec ific
player info
Ġexpression s
Const ColXpr
Ġfast p
") ->
") ]]<
With MarkException
target Url
åħ ¨
åħ Ī
17 4
Group Box
gl tf
pr g
pr onenew
man ifest
element ary
Ġé Ļ
Ġversion s
DEP RECAT
Ġpos es
10000 4
Pri ority
chr s
chr on
Mod ularPower
ĠOut laws
ĠCon vert
dis covery
ĠRender Target
Ġter min
ĠCreate Codec
Read File
Per cent
Per Micro
vert ColorProb
serial Interface
No op
obj detect
åı ³
åı Ĥ
åı į
Server Thread
Ġlow link
Shader Pass
velo pePhase
ãĤĴ æ±ĤãĤģãĤĭ
ãĤĴ è¨Īç®Ĺ
Global Types
Global Offset
Ġ"< --
Ġ1000 7
EW PORT
ob fusc
Ġãģ ĵ
ĠLIB HUNSPELL
CS X
CS Module
mon ey
COMP RESS
30 2
Ġload TestData
Ġbase line
DEBUG BREAK
Com Ptr
ĠNum Array
è¿ ĩ
Ui Component
Ġsy z
ĠTh ere
45 90
Ġtra ce
Ġtra its
Ġ19 62
Serial ized
Ġass erter
Ġop tion
STRING IZE
Icon s
Icon Size
Build Info
Pa use
ĠGame Process
ĠGame Dir
(' \
Auto start
Is DebuggerPresent
Is EulerWalkable
1000 9
Slider Thumb
da isy
Imp lementation
Open CL
Open Gl
User Data
img codecs
74 7
Min us
bit al
msg pack
Channel Handler
Display Name
Display Handler
SV irtualCam
ĠUpdate Callback
inf os
ĠCH IP
ĠCH UNK
Table Dialog
Table Model
World Object
Ġmem cpy
ĠPrint ers
Counter Manager
ĠIs Valid
print er
Ġtry ToUpdate
Ġhash er
Animation Style
Ġæ Ľ
Ġæ ł
INFO DIALOG
Ext ended
AK URA
Material Instance
Ġneed s
è¯ ·
Resource Prov
28 4590
Ro ute
LINK ED
SIMD JSON
Building Type
Lu a
Generic Box
method s
Ġevent Filter
flag Id
Default GameModule
Rec v
bd UNK
bd PublisherVariables
ĠPL AY
CHECK SUM
Sprite Data
Ġinter preter
Ġmake in
Ġmake out
ĠTo DoList
04 6
Act Node
Part ition
Ġcpp util
Ġsp atial
Ġsp vgentwo
ĠSDL Net
Catchment Divide
si eb
Ġç ´
Back ward
tim eline
ä½ ĵ
ä½ Ļ
Ġbind Scene
ĠApp le
Ġdec Graph
ĠPacket Handler
Variable Symbol
ĠSE Protect
ĠEnd s
ĠPri vate
PLS Dialog
PLS About
PLS Naver
Bitmap Font
model s
Ġframe work
Ġdis k
Start up
36 0
Look up
Tab les
Ġad just
Inst all
&& ...
88 88
CD F
over lay
æ³ ¨æĦı
uni code
inBox IgnoreScroll
Ġopen ed
ĠInter val
ors iv
Ġsto i
Man age
Man ifest
Score board
cm c
INTE GER
Graphics CommandList
Det our
Fast GICP
SPE ED
Win HeapDbg
æĿ Ł
Ġfs util
ĠBinary IndexedTree
ACH ABLE
Quest Status
RA W
heel getal
Cluster Id
Sync Settings
Ġãģ® æľĢå¤§
ĠOutput DebugStringA
Cache Path
MI KMOD
Normal ize
ĠMessage Pack
ĠImage Widget
ĠImage InfoDialog
VIEW ER
sse cs
EXCEPTION S
Null s
Place dStructure
SD ock
VE HICLE
ĠTime out
Scalar NodeData
å¤§ ãģį
æİ¥ åı£
Audio Play
Cmpt Material
Cmpt Geometry
Su ite
æĸ °
Local InstrVarSymbol
riptor s
Ġparse RowMer
BIND INGS
Pre served
tag onist
onn aci
ĠMove ment
ĠLP STR
Control Dialog
Control Thread
pl anner
SpinBox IgnoreScroll
è® °
Ġigno re
prod ucer
Ġlevel Order
ĠShow ErrorMessage
INTEGR ATION
Ġsymbol check
ĠSp inBoxIgnoreScroll
Ġstampa re
ĠValue Ref
Ġcompil ers
Tip View
crypto pp
sim ulate
Ġback ward
Widgets Export
Ġorder ing
Offset s
Title Item
task s
wx DEFINE
wx EVT
ĠStart s
Help Widget
pc ap
stat s
Internal ErrorNotImplemented
("/ ");<
ĠIO PORT
ĠColor Name
Dll Export
Wt U
WIDGET SEX
Ġms modo
command s
ĠSY MBOL
ĠTra ceFile
Intern ational
One ThousandScore
Cmd Show
Focus List
Ph ong
TEXT URE
oi ces
pol l
Ġä» ¿æĬĸéŁ³
asse mbly
Ġpad ded
******************** <
******************** /<
87 654
Fa de
USB TipView
ĠAction Status
Ag ent
GLE FFECT
ĠMemory Manager
Comb ine
shal Alloc
ĠKernel Registry
ĠHash Map
Ġinterface s
elcome Widget
Pin Reader
åĩ ¦çĲĨ
ç¬ ¬
Ġwas m
Ġqt MenuSeparator
oftware Update
Virtual Key
hook s
rel ative
Ġsk a
Ġsk Crypt
Ġsk etcherMinimizerMolecule
ĠSu famiTurboCartridge
ĠFOR MAT
Ġalloc a
Ġalloc ate
Linked Ele
Gpu Resource
æĮ ģ
è§ Ĩ
Ġcre ation
ĠQu aternion
Setting Page
Interrupt ServiceManager
offset of
Wait Status
ĠÐ ¿ÑĢ
comm ctrl
Ġtrack s
Ġpatch es
ĠSerial PortClient
ĠCOL OR
PASS INGL
TIM ES
sy z
Ġrecurs ively
ARPMP GeneratorBuildingHolo
ARPMP CoolerBuildingHolo
ARPMP BoilerBuildingHolo
ARPMP HeaterBuildingHolo
ARPMP TurbineBuildingHolo
ĠZRule BaseQuest
ĠZTask Base
TW O
signed Integer
åĮ Ĺäº
Ġref lect
ListBox Look
abc def
COND ITION
ĠDesc riptor
85 4
dic ator
ane Line
extra s
ĠDll Export
Proxy Model
ä¿ Ŀ
ĠIM GUI
Ġman o
Ġtask s
Comm unicationManager
Ġunique Paths
ç»ĵ æĿŁ
Hint Widget
Sphere Mesh
dat at
full y
Ġip filter
los oph
ĠMock Node
ĠEyerPlayer Context
Ġ123 45
Record Keeper
MX mlElement
cr end
cr begin
dup licates
welcome Page
éĸ ĵ
Ġmer ged
ĠActor RuntimeID
ĠCan onical
ĠPol lic
ĠDis k
ĠDxvk SignalTracker
Standard Paths
ĠRec ursive
ãģĭ ãĤī
ĠSTD METHODIMP
CALL BACK
Hw Controller
Save PCM
card s
sn ake
ç±» åŀĭ
Ġcancel led
lash Screen
ĠImp lement
refer ences
ĠScript Api
WiFi USBTipView
ĠSleep ForwardImpl
ĠCounter Manager
Ġsorted Squares
Ġextra TestDataPath
åľ¨ ãģ®
Flow Path
MAT RIX
Next map
Ġtick s
etime Tracker
ĠSk in
ĠSec urity
MMatchRule Training
MMatchRule Skillmap
Sur f
cmake define
Ġbl k
ĠQListWidget Item
interval s
Ġencode d
Rectangle Shape
ĠShape Mesh
ĠInterrupt Manager
DRIVER S
æłĩ åĩĨ
Remote Rendering
Dump er
HF ByteSlice
IZ ER
RPMP BuildingHolo
æĶ ¹
inst all
Ġclean up
ĠCloud Data
ĠPart y
ĠNormal ize
ĠBackground Type
progress Bar
ĠmaxC ut
Visual Mesh
Trans ceiver
ĠéħįåĪĹ ãģ®
PRINT F
video io
ĠARPMP BuildingHolo
sdk ver
Calcul ating
ç´ł æķ°
Hydro Network
dist ortion
Ġ***** **<
Ġcomm unicationManager
ĠAt ascii
ĠCar Interface
ĠPO INTER
Ġkth Smallest
quat f
DataType Ptr
Chat room
5555 5555
æĸ¹ æ³ķ
BT N
CLOCK S
GP IO
RGB A
Tun e
Ġut imbuf
Ŀå§ĭ åĮĸ
Ġmov es
ARDUINO JSON
PLSChannel DataHandler
ĠFR ONTEND
ĠOver lay
Ġprovide s
ãģĵ ãģ¨
Album InfoRunnable
xxxx xxxx
,... );<
SA FE
br k
sq lite
Ġri id
Ġcand y
ĠSingle Wrapper
LET ED
Ġchr ono
Ġham mingDistance
IMG PROC
IMG CODECS
touch pad
Conv Bias
ĠåĪ Ŀå§ĭåĮĸ
ĠChannel DataBase
Recy cling
ĠParser Exception
ĠOBS PLUGINSTREAMDECK
çĶ¨æĪ· çļĦç
Benchmark Query
Car Interface
cum sum
qr ID
åİ »
éĻ Ĳ
Ġtower OfHanoi
Ġsig ma
Ġoct al
izard Page
ĠSele ct
ĠEM PPlatform
ĠPass By
Inc rement
ATTR IBU
ĠRT LD
ĠRep lay
ĠUP DATE
ĠUP DATER
bust ifier
Ġpayload less
ãĤ¹ ãĤ
2818 284590
Ġactivate CommandQueue
([ &]
Http Spooler
Motion AddButton
]" },<
å¿ Ĺ
çİ ¯
Ġ"{ \"
Ġtw ice
Ġ***************************************************************** **********
Ġ***************************************************************** ********************/<
Ġff mpeg
Ġremain der
ĠPose Hypo
ĠTd AccountData
ĠTd Transceiver
//////////// //<
ĠWR ITE
ĠHand les
Reverse d
ĠGetCurrent Process
ĠINTER FACE
ZEffect Billboard
ĠAlloc ate
ĠARDUINO JSON
Fine Tune
Lif etimeTracker
lw api
å¸ ¸
æī Ģ
retri eve
Ġsound woofer
Ġbrow n
Ġcoeff s
Ġoccur red
ĠCEntity Node
REL ATIVE
ĠUrl PushButton
prom ise
IDD EN
ADS REnv
SSp lashScreen
ĠExpr Tree
Refcount ed
Short cut
Ġtrim BST
Ġincre ase
Android AudioPlay
ĠPLSC olor
ĠPrimitive Type
Worker Ptr
Ġä»¥ ä¸ĭãģ®
ĠStyle Transfer
KL M
LAND MARKER
pixel s
tun e
ĠãĤ ¯ãĤ
alt ivec
Ġdx sdkver
ĠFWP M
Ġanim als
Ġatt ribute
ĠAddUpdate Forward
Perform ance
ĠPLSDialog View
INITI ALIZE
TRAIN ING
Multip lier
ĠTraits Type
äºĮ è¿ĽåĪ¶
XPtrTorch Layout
Ġtempl ates
wt orkType
xFFFF FFFF
¨ãĥ ªãģ®
åĳ ĺ
æı Ĳåıĸ
é» ĺè®¤
ĠON LINE
Ġrig id
ı¾ åľ¨ãģ®
under lying
Ġ//.. ..<
ĠSIG N
ĠCl one
Ġinject ed
ĠGEN ERAL
preview s
allenge Dialog
Stg Inst
ĠVARI ANT
UNRE ACHABLE
YSY STEM
OPERATOR S
2402 16
ĠRepres ents
ãĤĴè¿ĶãģĻ éĸ¢æķ°
ĠDEFIN ES
éķ¿ åº¦
RECOGN IZER
141592653589 793
980 8
Air craft
HARD WARE
ISequential InStream
Mis match
Tess Obj
vfs archive
åĭ Ŀãģ¡ãģ®çĬ¶æħĭ
çĻ ¾
ctag ADSREnv
ĠMov ingObject
Ġdig est
Intr usive
ĠGl yph
Ġchat room
ĠFocus List
Ġtog gle
ĠHi erarchy
Ġkpid PackedSize
concept s
artic ulation
ĠVI EWPORT
DISC ARD
CONVERSION S
Collide System
GetProc Address
GetRegistrar ForPlugin
ChannelsData Api
Lightmap Dialog
Ġomni reduce
Ġhamming Weight
å±ı çī¹æķĪ
)&& (
/**************************************************************** ********************<
718 2818284590
BSC ontainer
BING O
Crt Set
Crack le
Frust um
GIS wapChain
IALIZ ABLE
JUD GE
Mn gr
MUT EX
Pip Filter
POLIC Y
Sio WorkerPtr
Shopping L
UST FLOAT
cub oot
cump rod
fug a
yles heet
zeh n
Ġet c
ĠmHologram Type
ĠmDimension s
leBo bble
Ġnas oq
sevent een
ĠfWep Fov
Ġsnar f
Ġaud snoop
laux lib
atella view
Ġoip o
ĠSActor Base
ishw ariya
ĠClick able
ĠCLIM odule
ĠCRecord Vector
ckChannel Base
ĠPuzz leBobble
ĠPulses ToMetersEncoder
ĠPrx Dll
ĠPruning Map
istac asse
Coverage Sensor
Country Code
/*======================================================================== ==;<
ĠFIX ME
setFocus Policy
sonPage Base
ĠBenchmark Query
ĠgetPlatform Name
Ġkaz em
iveEnd Item
oseph us
osecond s
Artic ulation
DIVISION S
Ġsebast iano
msmo bu
msdf gen
ĠcountAndS ay
mobi us
ertific ate
Compcap Main
parseCommandLine Arguments
PlayerSelect ListBox
ĠREFIN EDPOWER
ĠfirstUni qChar
EMSCRIPT EN
1474 8364
pronenew bits
DEPRECAT ED
Percent age
DefaultGameModule Impl
sieb zehn
å¤§ãģį ãģĦ
ĠparseRowMer ged
WIDGETSEX TRA
PASSINGL INK
åĮĹäº ¬å¤§åŃ¦å¤įè¯ķä¸Ĭæľºé¢ĺ
ĠChannelDataBase Handler
ĠEMPPlatform BuildingType
ATTRIBU TE
Ġ*************************************************************************** */<
ĠPLSColor Circle
ĠãĤ¯ãĤ ¨ãĥªãģ®
7182818284590 45
ĠãĤ¯ãĤ¨ãĥªãģ® åĩ¦çĲĨ
" {<
" .<
" ];<
" ]);<
" (<
" ])
" });<
' +
' .<
' ];<
' ))
( {<
( [](
) "
) =
) ]
) |
) ();<
) ==
) >(
) !=
* &
* );
, %
, .
, *,
- ";<
. */<
0 501
1 32
1 16
1 12
2 000
2 95
2 14748364
4 00
4 16
4 512
4 33
4 80
4 72
4 742
4 121
5 86
5 90
5 68
5 92
5 640
6 30
6 74
6 259
7 99
7 046
8 99
8 01
8 43
8 556
8 805
9 44
9 50
9 78
9 68
9 8244353
9 71
9 250
9 556
: '
; ;
; --
< >&
A w
A re
A es
A UN
A UI
A ZE
A verage
A INS
A zure
A lias
B B
B ra
B IN
B ul
B ME
B SP
B ook
B link
B RAN
B ItemList
B kgColor
B vh
B aby
C ine
C la
C el
C pd
C alls
C ry
C tx
C FR
C raft
C ertificate
D un
D ST
D Vector
D og
D xvk
D Show
D TP
D aisy
D ivisors
D atasource
E st
E ver
E sp
E FS
E ye
E LOQUENTTINYML
E thernet
F UL
F Widget
F Command
F old
F ake
F WP
F izz
F langer
G ain
G UN
G Tree
G fx
G esture
G arages
G ORITH
H R
H X
H ap
H ID
H DN
H ERE
H APT
H UFF
H SPRITE
I A
I PL
I mm
I RO
I Add
J et
J ense
J TRUE
K nown
K NOWN
K HR
L Z
L iter
L aserSensor
L ERATION
M N
M Time
M alloc
M ULT
M COLOR
M utable
M issing
M usicShareKind
N N
N t
N ic
N AV
N api
N Control
N DR
N NI
N atives
N amedXMLResourceManager
N BQ
O w
O OKED
O MIC
O ccurrences
O perations
P i
P x
P IT
P ure
P res
P ay
P run
P lease
P ng
P icker
P cap
P rm
Q List
Q Size
Q Map
Q Show
Q Desktop
Q Angle
Q ByteArray
Q ComboBox
Q MediaPlayer
Q Cef
Q InputEvent
Q FocusEvent
Q StandardPaths
Q Shortcut
R AL
R ew
R om
R est
R IG
R ain
R Name
R ENT
R PC
R IR
R ich
R ob
R Token
R MUL
R SLAM
R IPT
R atio
R PLoop
R PluginEventHandler
R ahul
R VisualMesh
S Q
S n
S ong
S aved
S lash
S ophus
S zAlloc
S RGB
S usc
S yscall
S UPER
T B
T ar
T READ
T imes
T First
T BL
T win
T alk
T MX
T EXASSOLVER
T ermin
T oday
U U
U IT
U dp
U ftStrategy
V C
V X
V Z
V ST
V END
V RAM
V VD
W String
W PARAM
W ave
W hen
W rap
W ASAPI
X D
X P
X xy
Y gt
Z ER
Z one
Z ones
Z PlayerSelectListBox
[ --
] /
] ()
] };<
] ")
] *(
_ ++)
a de
a do
a ir
a ud
a FileName
a Zip
b on
b is
b atch
b log
b undle
b ond
b old
b ank
b mi
b fd
b Can
c u
c ial
c fa
c cb
c App
c alloc
c ument
c ript
c artesian
c ategor
d A
d B
d h
d pi
d mac
d ispatcher
d umb
d uang
d irty
d nf
e at
e es
e bo
e of
e qu
f ort
f bj
f close
f bb
f bf
f ields
f etch
f rac
g c
g h
g z
g lass
g ix
g cc
g Context
g Color
g elf
g reen
g az
g ross
h our
h ull
h Instance
h xx
h Token
h Find
h istory
i L
i ma
i ref
i hw
j ia
j edi
j ewels
k b
k n
k ar
k ing
k ur
k ele
k iss
k Is
k bd
l z
l cpp
l cp
l anner
l ws
l ambda
l iding
m en
m sp
m SE
m ann
m yst
m ly
m ono
m Timer
m Mutex
m edia
m mask
m strong
m Polygon
m argin
m anaged
n ce
n se
n it
n tr
n me
n window
n ai
n make
n wn
n sec
n eeded
n Stairs
n TickTime
o h
o z
o ul
o der
o ose
p f
p j
p w
p at
p le
p lat
p lease
p lan
p itch
p ComboButton
p Stage
p Brain
p lug
p ipe
p lain
p inyin
q s
q uint
q tp
q vec
q vv
r v
r an
r ated
r data
r pos
r gba
r pc
r plane
r umble
r quaternion
s is
s View
s que
s ide
s ges
s aved
s ince
s TableView
s ComboButtonItem
s yscall
s igmoid
s entence
t C
t Vector
t od
t olu
t ill
t urtle
u iz
u art
v l
v r
v x
v gicp
v olume
v ett
w en
w at
w nd
w atcher
w asm
x c
x ew
x org
x CA
x FE
x link
x BE
x oms
x Semaphore
x BA
x byak
x mly
y be
z Free
{ '
{ });<
£ æĥ
¤ æĿ
¦ å¿Ĺ
© ãĥ
« ĺ
¯ æĮģ
² Ð»
³ å®ļ
³ éħįåĪĹ
³ ãĤ¢
´ çº
· ¦
º éĸĵ
½ åı
Â °
Ã ©
Ð ¼
å ĥ
æ º
ç ½®
è Ĥ
è ĩ
é ¡
é ¢
é Ľ
ĉ ĠĠĠĠĠĠĠĠĠĠĠĠĠĠ
Ġ ur
Ġ ub
Ġ eg
Ġ dow
Ġ unt
Ġ ).
Ġ loc
Ġ è¾ĵåĩº
Ġ annot
Ġ udc
Ġ ä¸į
Ġ anagram
Ġ :";<
ħ åį
ī ĩ
İ å¤§åŃ¦å¤įè¯ķä¸Ĭæľºé¢ĺ
Ĳ æŀĦ
Ĳ æłĩ
ķ éĶ®
ĸ ¢æķ°
ĺ åĮĸ
Ľ å»º
Ŀ å¯¹
Ń ¦å¿Ĺ
in ser
in lock
in out
in ference
in sertionSort
de l
de p
de pen
de compiler
st amp
st andard
st ates
st encil
st reet
st udent
en On
en abled
en Utils
en coding
en derable
on on
at ari
at Id
er p
er ge
er red
er ations
er asure
er cial
lu t
lu x
lu re
re wind
Ġ<< '
int Type
int StaticField
or ph
or ces
or bis
Ġ" &
Ġ" ~
Ġ" ",
Ġ" <<"
Ġ" ).
Ġ" ")
inc re
include d
ut ation
ut Down
Ġc i
Ġc er
Ġc ar
Ġc id
Ġc li
Ġc type
Ġc art
Ġc py
Ġc decl
Ġc ntr
am l
am Sensor
ce an
ce il
ce les
ce ae
ce stor
Ġm w
Ġm ath
Ġm Window
Ġm sm
Ġm Value
Ġm Thread
Ġm usic
Ġm StatusBar
Ġm Basis
Ġm inlen
end or
end cond
Ġ= %
Ġ= ");<
ar ra
ar th
ar ena
ri ct
ri entation
ri mSE
Ġi a
Ġi it
Ġi mat
Ġi conv
Ġi Fov
def orm
def inition
def orces
le w
le mi
() ()
Ġn al
Ġn fc
ct ure
co d
an o
ing Stairs
Ġt z
Ġt st
Ġt arg
Ġt Vector
Ġt ong
Ġt ill
Ġt ie
al i
al one
al IR
al cul
al go
al ways
pa int
pa ble
ic ult
ion s
Ġ* &
Ġ* ((
Ġv x
Ġv y
Ġv ect
Ġv ol
Ġv alu
Ġv ery
Ġv ki
Ġv elocity
Ġv uk
Ġf p
Ġf y
Ġf it
Ġf ur
Ġf il
Ġf ive
Ġf name
Ġf ft
Ġf ai
Ġf ield
Ġf Char
Ġf env
Ġf lush
Ġf Speed
Ġf flush
Ġf Chams
Ġf regs
it urbo
ra bs
Ġs v
Ġs ink
Ġs ync
Ġs printf
Ġs igh
Ġs dl
Ġs cope
Ġs daCodeGraph
Ġp io
Ġp red
Ġp ull
Ġp Node
Ġp iles
Ġp lat
Ġp Thread
Ġp hs
Ġp Timer
Ġp Surface
Ġp alind
Ġp Monitor
Ġp MenuItem
Ġp ixel
Ġp eb
Ġp Viewport
Ġp MessageWindow
Ġp BrowserWindow
Ġp MenuRadioItem
Ġp MenuCheckItem
Ġp MenuBar
Ġp ComboButtonItem
Ġb i
Ġb ri
Ġb ro
Ġb Menu
Ġb ond
Ġb eta
Ġb oth
Ġb etter
Ġb alance
Ġb Chams
Ġb Spread
Ġb Aimbot
Ġb Recoil
Ġre act
Ġre alloc
Ġre store
Ġre served
Ġre wards
Ġre ceiveInput
Ġre kur
Ġa cross
Ġa Alive
la un
la pi
lo red
lo gin
ro le
ro ma
ro utes
-- ]
-- );<
-- ]);<
-- ;}<
Ġ0 9
Ġ0 03
et Callback
str hex
str tok
str tod
ig er
ub ar
un ix
un nable
un managed
Ġco untry
Ġco ordinates
Ġint ent
Ġint ere
Ġint ptr
Ġint Type
Ġint ensity
mp c
Ġ1 12
Ġ1 18
Ġ1 30
ma ss
ma gbias
ma ybe
us leep
Ġo c
Ġo sp
Ġo pacity
ex Match
ex Matcher
um ar
um ber
um Backend
Ġ( ::
ĠA F
ĠA ck
ĠA String
ĠA UT
ĠA sm
ĠA bs
ĠA TT
ĠA Actor
ĠA BI
ĠA ug
ĠA CCE
ĠA Uv
ĠA SYNC
ĠA colmajor
ĠA CamSensorActor
ĠA FusionCameraActor
>// {<
>// }<
>// ------------------------------------------------
do es
do Size
Ġma ps
ER ACT
iz io
ĠS D
ĠS M
ĠS a
ĠS end
ĠS yn
ĠS ide
ĠS quare
ĠS PR
ĠS DC
ĠS ession
ĠS PECT
ĠS uffix
ĠS aved
ĠS wapChain
ĠS LEEP
ĠS ym
ĠS inglyLinkedListNode
ĠS igmoid
ĠS NDR
ĠS zFree
is A
is Unlock
is Empty
is Hold
ol ved
Ġg e
Ġg reen
Ġg hc
Ġg rammar
Ġis Show
Ġis Valid
Ġis upper
ĠC a
ĠC RE
ĠC Random
ĠC CV
ĠC Dialog
ĠC Config
ĠC ache
ĠC ALL
ĠC rypto
ĠC CR
ĠC lip
ĠC Mem
ĠC AutoLock
ĠC Replay
ĠC Gang
ĠC atId
Ġon dem
IN SERT
el mt
el Circle
yp tr
ĠE MSC
ĠE PLAYER
ĠE seqExpression
ĠE GLEW
ĠE lias
ĠE loquent
ĠE CSModule
__ );
__ ))
ile fac
ch olesky
string List
ver ity
ver ification
ĠM P
ĠM i
ĠM ON
ĠM AP
ĠM Base
ĠM ach
ĠM AG
ĠM ost
ĠM Command
ĠM Layout
ĠM isc
ĠM ob
ĠM SV
ĠM icro
ĠM issing
ĠM artin
ĠP e
ĠP x
ĠP ER
ĠP lugin
ĠP ick
ĠP lease
ĠP odium
ĠP UNICODE
ĠP hysicalBinder
ĠP references
ĠP TMX
ĠT un
ĠT ab
ĠT WI
ĠT ake
ĠT ENSOR
ĠT CHAR
ĠT oggle
ĠT riglav
im ate
im ize
im its
im eter
im bar
//// ///<
Ġd tr
Ġd rop
Ġw ay
Ġw graph
Ġw elcome
Ġw ould
arg ing
Ġin X
Ġin Y
Ġin di
Ġin vert
Ġin struction
op les
ation ID
00 8
00 12
00 51
sp v
sp sc
sp inBox
In ode
In direct
In Scene
In dicator
In izio
Ġl r
Ġl st
Ġl and
Ġl ight
Ġl rc
Ġl ittle
Ġl erp
32 1
32 3
32 6
32 8
Co okie
LE X
LE CTION
ĠG N
ĠG en
ĠG ot
ĠG IT
ĠG rid
ĠG eo
ĠN A
ĠN E
ĠN N
ĠN FA
ĠN ov
ĠN TT
ĠN otify
ĠN eed
ĠN amedXMLResourceManager
ĠN Bcj
ĠN MEA
ST UP
ST OP
ST DIO
ST AGE
ST ools
RE C
RE rror
RE ET
RE QUIRE
RE ASY
RE VISION
RE BOOT
stream buf
ad b
ad apt
ge on
Ġch s
Ġch oose
<< ",
ĠD im
ĠD ep
ĠD IO
ĠD FS
ĠD IRE
ĠD bg
ĠD ummy
ĠD Assert
ĠD uck
ĠD iode
ĠD ashboardUI
ir m
ir ls
ir enderer
Ġj ihw
AR LS
AT YPE
AT UR
AT URE
AT OMIC
PL ASH
pre dic
ef ile
and alone
ated Weapons
ot a
ot ing
ĠF ern
ĠF SS
ĠF irst
ĠF UC
ĠF IND
ĠF ALLBACK
ĠF DefaultGameModuleImpl
OR A
set String
set Frame
set Model
set Font
set HeaderList
set Collapsible
set IconSize
Ġchar Type
Ġchar acters
DE C
DE SK
St ub
St ationID
ort ed
(" {
(" ",
(" :/
(" {}
(" *");<
Ġnum obj
Ġnum Samples
Ġh ack
Ġh our
Ġh ide
Ġh older
Ġh dl
Ġh ybrid
IM ER
IL I
IL UT
IL inear
put s
ĠL C
ĠL IM
ĠL ite
ĠL RESULT
ĠL ambda
ĠL auncher
ĠL zma
ĠL ORA
Ġ3 7
ĠQ Config
ĠQ Variant
ĠQ ResizeEvent
ĠQ uest
ĠQ VBoxLayout
ĠQ Cef
ĠQ ProxyStyle
ĠQ DockWidget
ĠQ PlainTextEdit
ĠQ ModelIndex
ĠQ Nic
ĉĉ ĠĠĠĠ
Ġst k
Ġst ar
Ġst ops
Ġst derr
ĠR S
ĠR c
ĠR et
ĠR cpp
ĠR est
ĠR AND
ĠR TC
ĠR igid
ĠR HI
ĠR GUN
Ġe i
Ġe pc
Ġe vt
Ġe cho
Ġx tech
ack end
ack et
get X
get Size
get Int
get Max
get Transform
get Tex
get CurrentFrame
ap es
ap tor
ap arse
Random Engine
ĠB l
ĠB ut
ĠB it
ĠB AC
ĠB ME
ĠB est
ĠB atch
ĠB one
ĠB ASE
ĠB VE
ĠB cj
ĠB attaglia
ĠI mm
ĠI DL
ĠI Th
ĠI REASY
Ġto ol
Ġto lower
Ġto upper
Ġto gether
li T
-> ()
ĠU tf
float Type
AN C
AN ET
ag on
os v
AC NET
AC amSensor
Ġ' )<
double Type
Ġarg len
ans i
ans ation
th Filter
th umb
Ex ist
tern ating
UL LET
10 2
10 4
sh ould
sh ortest
sh lwapi
Ġr h
Ġr ational
ME ASURE
up il
up Ch
up licate
ĠW T
ĠW hile
ĠW ave
ĠW iFi
ĠW SPR
ĠW IDTH
ĠK Error
ĠK LEE
SE D
SE ET
SE ntity
SE CTION
Ġy es
Ġget Type
Ġget Device
Ġget Max
Ġget Tex
Ġget CurrentFrame
red irect
red RenderedString
num Rows
ĠH IL
ĠH ost
ĠH orizontal
ĠH old
ĠH OG
ĠH ttp
ĠH OOKED
mm an
16 71
Ġk s
Ġk le
Ġk ine
Ġk En
Ġk ind
Ġk eta
Ġk Signature
Ġk wk
CT X
CT AG
par c
par ity
QU uid
con struction
AB CD
MO UNT
MO USE
aa bb
http Client
mat f
mat cher
Ġde p
Ġde x
Ġde scrib
Ġde rived
Ġde coding
Ġde legate
Ġde compress
Ġfloat Type
20 40
Ġvector s
of ele
of day
of Hanoi
Pro bed
Pro cessedSize
Pro filer
Pro actor
64 6
ise ki
ser eg
RO MULATOR
pro be
able UI
String String
String Res
ref lection
ĠO f
ĠO ct
ĠO bj
ose d
IG NO
IG EST
TO I
SH L
SH T
SH EL
SH UFF
ta ke
Ġ! !
BU S
Ġres olve
[] =
data stream
ĠV is
ĠV alues
ĠV Mesh
ĠV IS
ĠV ulkan
ĠV Bitmap
ĠV BE
ĠV elocity
ĠV NNI
Type Stack
List s
List en
List Header
Core Info
dd d
dd dd
lib xml
lib asound
lib EGL
lib xshmfence
lib Xrender
lib drm
lib Xfixes
Ġout Stream
Expression List
En di
En code
GL FRAME
ff ector
TE M
TE SS
TE GR
Ġpro j
Ġpro vider
Ġpro bab
Ġpro visioning
Ġpro tagonist
qu o
qu anti
ain ers
Ġ5 000
ph ase
ph one
ph ake
ph abet
Widget Component
UN I
UN ION
UN ormal
UN SIGN
UN ORM
UN ALIGNED
ull Zones
ID LE
ID irect
char Type
sc ape
Ġmax b
Ġmax x
Ġmax Num
Ġmax Version
Ġmax Word
Ġmax PathSum
eng ht
ush Button
MODE M
MODE LS
//////////////// ////////////
ac cef
out Stream
ãģ ı
ãģ Ľ
bu ff
Base d
Base Addr
Base CameraSensor
ĠCV API
Application s
Application Turbo
Ġtr t
Ġset w
Ġset Double
Ġset Collapsible
Ġset Bluetooth
Node Extension
to lower
Ġhe ap
Ġse quence
Window MainBar
Ġcomp ress
iv ot
rc lcpp
SS L
SS AGE
Ġth ree
Ġth ings
---------------- --
hm utex
Object Factory
Object Hash
Object Cache
LO utput
CH AT
Stream With
Bo ard
STR ATE
Event Action
ab Ctrl
Ġdouble Type
ĠEx it
ĠEx port
EXT ERNAL
auto release
UT emplate
ĠĠĠĠĠĠĠĠĠĠĠĠĠĠĠĠ ĠĠĠĠĠĠĠĠĠĠĠ
De cklinkBase
CL AN
CL ANG
CL Grid
test ogl
sum e
sum mary
ork Sheet
Ġ&& )
Re lay
Re main
Re ceiver
Re verb
no inline
TEST ING
nd k
nd t
stri cmp
val A
YS BOOL
YS IZE
cl r
Con struction
ĠIn c
ĠIn f
ĠIn verter
ĠIn correct
Name Iterator
Ġgen Type
Ġ7 0
Ġ7 3
Ġ7 50
11 5
11 000
11 56
Data Set
Data Container
Data Search
Data Stru
TER Y
TER MIN
ET C
Ġnew size
low link
ĠPy Compiler
ĠPy Primitive
ms dos
ĠJ S
ĠJ it
ĠJ edi
On Map
On Enter
On Entity
On Click
Ġ6 5
SL ogger
Sc ream
Sc hema
Sc rolled
REG ION
ance lable
Array s
ft ime
Ġpa ges
Ġpa ired
loc ator
cp w
gen cy
max x
max count
To Index
To Light
To Bool
To Wide
info box
Text Item
code gen
code cvt
Ġit imer
Ġcount Hi
Ġcount Twin
Ġstr l
cb d
open Url
)) %
ĠPro ton
ĠPro tected
Function Pass
Function Library
Function Cell
ĠGet B
ĠGet Size
ĠGet Index
ĠGet Value
ĠGet Process
ĠGet Max
ĠGet Normal
ĠGet Tex
Test A
add Widget
add Action
add DataSearch
Ch ill
Ch ampa
Ch essType
Ch arging
af m
Ġun def
Ġ++ ;
Ġ++ ++++++++
ĠExpression Wrapper
Ġcl imb
ĠSt udio
ĠGL GaussianBlurFilter
enum erations
>() )<
WIN API
Ġdp Min
ĠCo lour
Comp arator
Ġtest ogl
opt imized
Ġcon n
Ġcon currencpp
AV OID
File d
File Size
File To
File Info
File Length
File Sys
File NotLoadedException
rip ts
Ġle aders
Get P
Get ID
Get Node
Get ting
Get Sensor
Get Opt
Get AAC
Ġ9 5
Ġ9 98244353
Ref s
Ref Dialog
Ref erence
Un ity
Un initialize
Un initObject
Ġmin n
Ġmin or
Ġmin Version
Ġmin Tri
000 11000
Set FileName
ach er
ach ing
44 32
PLUGIN S
CK Def
CK BOOL
SP C
SP END
SP hysical
SP ushButton
TR AP
ĠAr mstrong
Sh ot
Ġcreate Function
Point Light
("% .
DO XY
DO rientation
Ġpri o
Left AD
Left Fork
MP acket
Ġdi ce
Ġdi ctionary
Ġdi vided
... );<
... ";<
ĠPRO P
Ġprint preorder
Right AD
Right Fork
State EventArgs
State Change
State Imagery
ide nce
min n
min p
min utes
Ġtype id
UR I
create Texture
sm allest
sw idget
Num eric
ENT A
ENT S
ENT LY
AG OBJECT
END ER
Id Version
Id Tag
OP TS
):" ;<
Ġmy Allocator
list View
Ġpre c
Ġpre vent
Ġpre defined
Ġpre compiled
Ġpre tty
Ġpre oder
Index Of
Code Page
app y
app eared
Ġadd To
Ġadd Digits
Cont ainers
Path Down
Error List
Error Tracking
Ġsub String
Ġsub scribed
Ġsub tract
Ġsub scribe
block ing
ĠZ Interface
ĠZ Msg
ĠZ BEHAVIOR
ĠDo cument
config s
config ure
SO CK
13 0
event Type
Log Debug
pe b
dered ReadBuffer
Ġsh uffle
unc ated
Ġyour NumPtr
Ġ100 5
]] .
Ġat tr
pos es
Inter section
Inter active
Int Type
Int Pair
READ WRITE
PRO PER
PRO LOG
Ġå ı
Ġå ·¦
Ma ze
Module Plugin
Module Info
Module Initialization
OS Messages
vm Module
Ġcode s
Ġedit able
An y
An si
Element ID
Element Iterator
Th ickness
doc string
Definition s
Main Components
Main ApplicationTurbo
100 10
Render Pass
Render Queue
Ġval ley
Filter Box
Filter Triangle
Sensor BPLib
BO ILER
Image Widget
Image Image
Image IO
DECL S
99 9
99 35
99 36
ĠNC R
15 4
15 33
15 87
ĠID ENTITY
]= '
ä¸ ī
Lin space
Model Matrix
ARE ST
Ġcnt a
tog gle
Ġtime Stamp
ove ment
Ġ** )
Solver Job
Ġkey PressEvent
Ġsc hema
ĠAn im
Ġprocess Info
Init Array
ĠCO MB
Ġreverse Words
ONT AL
æķ° ç»Ħ
App EventHandler
close Event
Ġ16 00
bl k
bl es
Ġrandom Value
ĠY Direction
ĠY gt
ĠSet s
ĠSet up
result String
GR ID
GR AM
IP V
LS erializer
Ġwe apon
UI Image
Ġstart Value
Key pair
Ġz x
Ġz one
ryp t
Ġ(" "
System Clock
tri Mesh
CC Section
Check sumForward
ace Sys
Ġfont Count
MY SHAREDLIB
eth ernet
Ġ(! !
sub array
sub module
SPACE OBJECT
14 8
14 993
Bar rier
space Bundle
Se esaw
tra it
tra jectory
Piv ot
MIN US
Command Event
Command Set
Command Origin
ĠCont ribut
ĠCont rol
ĠCont ains
ĠWidget Component
view Widget
Fact ors
Rule Info
ĠIN A
ĠIN VER
ĠIN LINE
ĠIN TEGR
ĠDe v
ĠDe lay
Input Archive
Font Name
IO Plugin
IO Device
IO CG
IO HID
the st
ĠWindow Handle
PER MAN
Symbol Manager
Ġ) ";<
last IndexOf
ĠST B
ĠST L
ĠST X
ĠST ACK
ĠST UB
ĠST DOUT
HE AP
HE IGHT
Message Hash
Qu it
Qu aZip
ĠStatement Wrapper
NT P
ãģ® è¨Īç®Ĺ
LL CC
]== "
ĠCPP ELIX
SB LEN
Ad ded
fc fab
Al ert
Ġcheck If
ĠFL T
ĠFile Logger
ĠFile Writer
ĠList Header
ĠList aInterpreti
ĠUn it
ĠUn lock
ĠUn signedInteger
Handler Base
Sub string
Sub arrays
33 04
33 34
Le ave
ĠEyer DecodeQueueBase
ĠEyer MediaInfo
ĠEyer LinkedEle
Ġserial Port
Process Info
Ġen coding
resh ape
Ġapplication s
ĠMain Items
MB LY
Lib kernel
Lib VVD
Sp vmModule
ĠUse ful
>{ };<
Line Optimization
Mat ter
Ġus b
Ġfind The
Ġfind All
Ġfind Duplicates
Ġfind GCD
Ġfind Peak
Ġtarget Sum
Ġ10000 05
By Name
Ġne ar
Or deredReadBuffer
Py Namespace
ĠWIN CE
Task ing
Task Queue
Task HandlerBase
lang cc
lang uage
ĠTO H
ĠOn Event
ĠOn ly
ĠOn Init
ĠOn Enter
ĠOn Command
ĠOn Entity
ĠOn Start
Ġlicense d
led Element
Windows Plugin
50 6
çļĦ ç»
Mesh Path
NON FREE
Out er
Ġro om
Ġro bj
Ġlink er
Ġlink ed
cont igu
Ġper iod
ĠWEB ASSE
Ġhead A
Ġhead B
Device Memory
18 0
18 22
we ights
math lib
Component Base
Register ed
ĠSize T
ĠSize Prm
GN U
CI SION
ĠQW MainWindow
ĠQW GraphicsView
ĠQW Misc
Update Cnt
Ġlangu age
cstd arg
Interface s
isc atedWeapons
ĠTest Allocation
ĠTest QuaZip
Match Results
Ġqu anti
ĠMC G
Thread Name
Tr anspond
Tr ansparency
ĠSc rolled
ĠModule Context
Buffer cg
03 88
09 5
Qt Command
Qt PropertyProxyObject
Run loop
Run When
Client Update
Client NetId
Ġfast er
Ġfinal Sum
ĠCh at
åħ ³
lect ron
17 9
gl Gen
gl Delete
IV ED
ĠParam s
Layer Stack
ĠListNode Data
GEN ERIC
lit er
lit efx
Ġé ģ
Ġé ĸ¢æķ°
ci us
my strnicmp
Ġent ities
10000 05
Dele ted
Pri mary
Ġlast Allow
Ġlast Good
ateg ies
image widget
Ġsu fam
Actor Packet
Actor Tick
Draw er
Ver tices
ĠRender Node
ĠRender Queue
ĠCreate File
Per Feature
Per spective
Per mutations
ake up
80 2
80 80
lable Pane
No return
No Wanted
No Rain
//////////////////////////////////////////////////////////////// ////////
DA Y
sort ing
åı ĺåĮĸ
ĠLink ed
Server Relay
Provider Factory
Shader Set
ĠString View
Ġ[] ()
rol lablePane
ĠLog Channel
Block List
Block Desc
Eyer Observer
Eyer SharedCount
Eyer DecodeQueueBase
Global Engine
ĠThe me
Ġinitial izer
SYMB OL
CORE IR
ĠTensor ND
ĠTensor Flow
Ġãģ ¾
CS GTree
CS elCircle
Mouse Cursor
Ġall in
ĠDef s
Scene In
') ||(
30 4
Sec Object
Sec Buffer
Sec End
fd a
ICON V
PRE VIEW
PRE FIX
PRE CISION
Ġload s
Ġload ing
ĠDi vide
be at
ĠSprite DataBase
ĠComp ile
ĠComp lete
FS M
stack over
Com Test
Com ressor
Ġcontain ers
Print ing
Print Ex
Print Array
(! (
Ġsy m
Position OnMap
ĠPLS About
ĠPLS CommonScrollBar
Be aring
Serial ize
å¤ ļ
ĠQt Plugin
ĠQt Over
ĠQt Paths
Ġexec utable
Renderer Base
Callback s
rup ts
ĠFU Filter
ĠFU Animation
ĠFU Makeup
down loader
Icon View
Icon Display
Json Value
cal c
process Info
Call Back
Ġam ax
ĠGame API
Auto Symbol
Is Valid
We ights
ĠDriver Entry
pu gix
ater ize
Ġ(* __
Ġinf inity
LOC AL
All OpsResolver
Float Float
New Handlers
Open CV
User Info
ä» £
ä» ¥
74 179
Min Half
Ġcan Jump
Ġnext term
ĠSe ed
ĠSe maphore
Display List
non ce
non null
Ġcor ner
ĠUpdate QtCommand
åĲ «
åĲ Į
inf inity
Ġcur Time
Ġcur Target
Ġcur Msec
Ġgame Dir
ĠCH LCC
ĠCH ARLS
ĠIP V
From Node
Native Call
Tool Node
Tool tip
Table Filter
Table Init
Target Iterator
Target Condition
ĠEvent Info
ĠEvent Action
ĠIs Mouse
structor s
uff man
Ġsz String
Ġtry Rob
Obj List
Obj Finder
Ġæ Į
Ġæ ·»
Ġæ Ł¥è¯¢
Ġæ Ń¦å¿Ĺ
Ġstream ing
ĉĉĉĉ ĠĠ
valid ate
*/ )
*/ );<
*/ ,<
mem cmp
Ġra ise
Ġra iny
At las
Val Changed
<<"* ";
26 1
Light Tracer
Mon Api
Sort Order
not ification
Ġsensor Manager
Std OutStream
Std PairCEGUI
Lu aLib
func X
Real Subspace
ĠNumber s
ILE S
ĠAl so
ĠAl gorithms
ĠDesktop EventsMonitor
05 85
has Focus
ĠWe br
host Object
ansl ator
MT abCtrl
ĠMy Fixture
ĠMy PinManager
Rec ursion
mesh sync
device Enum
bg pu
æľ Ī
env ironment
resp ot
ĠConst Expression
ĠPL DR
ĠText Object
ĠText Logger
Net DataSize
Net CDF
Ġlo l
Ġblock size
ĠTo Expression
Output Widget
çĽ® å½ķ
play ground
Ġsp t
Ġsp vm
Ġuser Data
Ġuser prog
Dis connect
Push Layer
si e
si red
Ġbit stream
Ġbit set
Ġbit rate
Environment Variable
dll entry
Ġbinary Search
loader s
Ġcounter Manager
ĠApp end
ĠFa il
DEFIN ITION
Variable Time
Variable Sim
ĠSE MA
Ġwindow Proc
ĠLO OP
Simple Module
ĠTR I
ĠGtk Widget
PLS DpiHelper
PLS AddSourceMenuStyle
200 2
NE ON
model Asset
Ġframe Lim
Ġav g
ĠPa ir
ĠPa irs
STD API
ĠHe ight
ĠOP EN
27 2
27 75
37 75
LI SH
Track ed
cla p
Ġcuda Stream
Ġad vance
Pop over
Pop ulator
usion CameraActor
ĠCheck QRCodeRunnable
ĠRF QUACK
Export s
project ion
Combo Edit
88 87
æ³ ¢
Ġbutton Up
Ġbutton Down
Ġ&) >
ĠWork er
ĠWork spaceBundle
Initialize Application
ĠSH T
Ġinst all
Ġinst anti
Ġinst alled
ĠInter alIR
Form Rviz
symbol s
ĠPar allel
ĠTINY ENGINE
ĠĠĠĠĠĠĠĠĠĠĠĠĠĠĠĠĠĠĠĠĠĠĠĠĠĠĠĠĠĠĠĠ ĠĠĠĠĠ
ĠĠĠĠĠĠĠĠĠĠĠĠĠĠĠĠĠĠĠĠĠĠĠĠĠĠĠĠĠĠĠĠ ĠĠĠĠĠĠĠĠĠĠĠĠ
ä¸ª æľĪ
ScrollBar Always
free jia
ĠSensor Identifier
INTE L
66 3
78 1
78 994
Feature Detector
HO ME
ARN ING
resource s
ified Dim
Graphics Widget
Orth ographic
jo ystick
ĠPoint ers
ĠPoint Light
ĠBinary Semaphore
RA YSIZE
Change Listener
KEY WORD
execut ion
Ġreplace d
Ġreplace Character
YP H
]!= -
Ġvar primo
ĠCode IntensitySensor
Pair FloatFloat
Access Manager
BE AUT
Normal CamSensor
QDialog ButtonBox
SUB STRATE
Us ername
ĠAuto start
ĠAuto Diff
ĠMessage Processor
ational Schema
Chain Gate
Ġdoc ument
ĠPropertyDefinition Base
ĠCHECK SUM
34 73
68 5
68 37
Ax is
Body List
Free Array
Free Image
éĢ ģ
encode d
Exec utor
ãģ« ç
ãģ« æ³¨æĦı
Load ing
ĠChunk Ready
TI ES
db f
db us
jac ent
Exp onent
ĠKey Frame
ĠKey Wrapper
Scalar Mul
FORMAT S
ĠTranspose Forward
BL ACK
Cmpt Ptr
Cmpt AccessPtr
Network Handler
Network AccessManager
Su icide
Sele ction
cryp ted
ie ce
æĸ ¯
æŀ ĲæŀĦ
header List
ĠApplication Error
ãģĦ ãģ¦
Local Parameter
Ġparse IPv
AA live
FU Sticker
Pre processor
remove Its
ĠClient App
Request Packet
Request IdTag
48 9935
65 2
ca pacity
Ġmouse MoveEvent
SpinBox Edit
LineEdit box
Im g
Im gFilter
ĠAN ALYZERPUBLICTYPES
Allocator Container
Cell s
Section Map
Work ed
bf usc
ura cy
ĠSp ect
Column List
COUNT DOWN
Ġcompil ing
Direct ives
Quant umBackend
BUFFER CG
Field Cell
ki mai
Ġme asurement
Ġback end
Ġback ground
++++ <
ĠIdent ity
CHANNEL S
Valid ate
DR AGOBJECT
Rot ated
Sys modules
Video IO
cat d
task Id
Ġrand u
ĠStart ed
Unique DeviceMemory
ASSERT S
ä¸Ĭ çļĦ
Optim ize
Driver s
Two Lists
cce leration
Ġtensor E
Ġtensor F
Ġfree Memory
ĠRandom State
ĠRandom AccessIterator
ĠInput Iterator
ĠLogger Base
ĠColumn s
38 33720
DS API
Enum Value
Wt Exec
Wt StraFact
Wt HftStraFact
Wt SelStraFact
ne arest
su per
Ġiss ues
rash Report
chall enge
ĠTra versal
Ġenv p
Vertex Sensor
Card Type
ZTask Base
df e
df adb
prev Mask
short cut
ãģĪ ãĤĭ
Signature Initializer
){ }<
CRE D
Close st
å® ŀ
åĩº åı£
æł ¼
Ġbig ger
ĠDialog ueBox
Ġke ith
Ġke ep
Ġdebug ging
VIS OR
ĠAddress InRegister
ĠAddress InFrame
Ob stacle
XML Helper
XML InputArchive
Ð¸ Ð»
ĠAnd ConditionalWrapper
ĠTips Notification
Ġstat fs
ĠHash er
ĠVertex Holder
ĠEXPORT ED
ĠRFK Function
ĠRFK Class
ĠRFK Variable
ĠRFK Method
ĠRFK Struct
ĠRFK Field
ĠRFK Namespace
AF usionCameraActor
ç§ »
ĠOB SDock
ivis ible
ĠUni versal
Virtual Base
Virtual Object
ĠSTR UCT
ĠTH IS
ĠUser Defined
Ġperf ect
63 18
>" {
GFX Wrapper
Sk eleton
aver age
Ġcre dentials
Ġgroup s
Ġinorder Traversal
ĠNon Movable
ĠItem Stack
Ġrt m
Ġrt os
Conf iscatedWeapons
Ġpass word
offset s
ĠDefault DisplayHandler
57 3
57 7046
MENU ITEM
Non Dependency
Wait Object
dw UpdateCnt
ĠÐ °
comm ercial
Ġpattern s
ĠSerial Formatter
Ġgl yph
Ġgraph Info
Ġgraph ics
ĠPer spective
Ġdist ortion
Ġdist ToLight
Response Packet
Ġperson a
btn Dec
btn Cal
btn Bin
btn Hex
MC Symbolizer
SW AP
sy cl
éĹ Ń
ĠButton s
SEC UR
connection Info
Ġcompat ible
Ġconvert To
ĠZRule Solo
ĠINCLUDE S
Linear Layout
Ġ1900242 15
Dark Theme
Delta Time
rec order
Ġfilter ed
ĠCK BOOL
ĠCK StateObject
ĠMouse Cursor
ĠMutex Linux
ĠMutex Win
oper and
ĠFs Hud
ĠHEL PER
ĠView Controller
Viewport Target
OBS Data
ĠStack Queue
åĪĨ åī²
BRO TLI
EC Point
custom ize
ç¨ ³å®ļ
ongest Substring
rev ision
extra TestDataPath
ĠUN KNOWN
ĠExp Executer
ĠCore Export
ĠCore Runloop
Interpre te
ĠSTAT IC
multip licative
Backend s
Backend Container
çĤ¹ åĩ»
æķ´æķ° çļĦ
Begin Play
Rel ationalSchema
SUPPORT ED
TV ehicle
Vulkan Wrapper
cer es
qw mainwindow
sample Rate
Ġsim ulations
Ġasm jit
ĠPath Saver
Comm it
Comm Head
ĠNUM BER
ĠNUM ERIC
ĠDxso Reader
DEL TA
ĠHandle Type
ĠHandle Impl
ç»ĵ æŀĦ
èİ·åıĸ æĸĩä»¶
43 64
AUT eleport
CRT Startup
MQ Document
ĠSys AllocatorContainer
ĠCond ition
Inf F
ĠSeeta NetDataSize
Double SpinBox
Double Click
Multi Byte
Hook s
Mov es
Mov ing
car s
dup licate
éĸ ĭ
trans formation
Ġdat asource
ĠNetwork Util
ĠDX VK
ĠDxvk Error
ĠDxvk LifetimeTracker
Sticker Source
ICK INFO
Ġresource s
Ġresource ID
ĠContainer ID
ĠSTD IN
ĠSTD METHOD
MRML ID
ĠLevel s
Euler ErrorFactorAD
Jo ystick
Pe er
TC ancelable
sn atch
sn printf
åĿ Ĳæłĩ
æĽ ¸
Ġiter A
icon Name
Ġob server
ĠOri entation
ĠVideo IO
COUN TRY
Scale d
Sha dow
ĠScript Vars
EyerAV Frame
Blur Image
Blur Effect
CLO SE
CLO EXEC
Post Fix
Ġla uncher
dec rement
Ġreport ed
Ġinteg ration
ĠAct ive
ĠSlider Widget
ĠSlider IgnoreScroll
ĠSlider AbsoluteSetStyle
ĠSleep For
ĠMar shalAlloc
Ġdll main
force LogDebug
ĠQR gb
phys ics
ĠState Imagery
Ġalbum ID
Make Bot
Ġenter ed
ImGui Render
HELPER S
Wanted Level
amb igu
Ġmultip ly
Ġour Url
ĠSk ew
ĠSk ip
Instruction Page
script vars
ĠStd PairCEGUI
ĠCount Nodes
Ġexport ed
Sequence EventArgs
StaticMesh Component
StaticMesh Actor
Ġoriginal Num
è¡¨ ãģĻ
Bad ge
Long jump
Sky box
Sheet Style
bla ck
è´ ¨
è´ Ł
è´ ´çº
ĠAsync Buffercg
ĠSim one
ĠSim ulation
ĠSim ulator
Ġdon k
shader s
part ial
part icle
ĠOr der
ĠOr ConditionalWrapper
tok ens
Collision Shape
psz Msg
Ġrunning Sum
++++++++ ++++<
Distortion Test
Drop List
Drop EventArgs
HF ByteArray
IZ ONTAL
SU SPEND
fl Turn
olog ical
¾ç īĩ
æĶ ¯æĮģ
ĠmaxC nt
Objective Packet
Ġ2017 03
æķ°æį® åºĵ
True Name
Trans formation
Calcul ator
Ġmerge TwoLists
ĠFUBeauty Shape
ĠFUBeauty Body
ĠFUBeauty Skin
Mag Bias
bab a
final ize
final value
Ġps b
Ġboard s
ĠPOW ER
Ġwin ograd
Insert Conn
ĠDown load
ĠDown loader
ĠWait For
Proto Window
Ġpartition ing
signature s
åŃĺ åľ¨
Sorted Tree
Origin al
Member Exception
Dependency Manager
Nan o
Pressed Impl
Plug In
WT STools
WT SLogger
å· ¥
å· ¦
Ġut ime
Ġut ente
Ġensure Failed
Ġvtk SmartPointer
Ġspeed Num
Ġai Process
ĠSm istacasse
ĠSty ledElement
ĠNone Type
ĠQStyle Option
ĠQStyle SheetStyle
Extra s
Ġdeg To
ĠOver ride
ãģĵ ãģ§
ĠXMP CORE
ĠXMP FILES
CLIP BOARD
Constructor Helpers
Ġpause Size
ĠGetView Fov
sock ios
Ġperform ance
ĠMenuButton OnClick
æ¨¡ ç³
,... )
Cap tionsDialog
IOS elector
Mi ssion
Mi raiEvent
big gest
gd al
âĢ Ļ
âĢ ľ
âĢ Ŀ
Ġimpl s
hehe he
ĠSS DP
Ġgrid ref
iling Zeroes
ĠPm Core
Ġdate time
spi Lock
Ġlongest Common
ĠDiscrete Position
ĠRect angle
shot Overlay
Encryp tion
WidgetLook Feel
ToM erge
Uni code
SOFT WARE
Edge Loss
CommandLine Parser
ĠConsole Logger
TableView Item
Disable Scope
Detector Type
12345678 90
SCRIPT ION
NoteKey s
Anti Cheat
Bl ending
Fun tion
JNI EXPORT
Legacy PassManager
NV SDK
å¾ Ħ
æµ ģ
Ġcat lan
Ġtower ofHanoi
Ġ********************* /<
Ġsupp osed
Ġsaved Timestamp
Ġpg m
Ġbubble Sort
ĠPOS IX
ĠRT GET
prob es
ĠInt ent
ĠInt Point
ModuleManager Delegate
ĠYs Vec
åºĵ çļĦä¸Ģ
yyyy yyyy
ĠUserConfig Initializer
RUNN ING
Blueprint Pure
Blueprint FunctionLibrary
>/******************** *<
911 3
Mak er
Mapping Iterator
PH ASE
Send Recv
Safe String
XM LOutput
cre ated
har ness
tan h
å¿ ľ
çİ °
è¦ ģ
ĠiA imbot
ĠCall Expression
ĠCMP Sensor
translate Atascii
ĠPipeline Spec
ĠTwo Port
ĠTwo DShape
ĠLast Error
Ġxor sum
ĠUp DownInterrupt
ĠWarning Exception
ĠHand ling
ĠHIGH LIGH
SHI FT
ĠInsert Link
illis PerSecond
MAPP ED
Ġdpi Helper
Ġcontrol Button
minimum Size
ĠCombo Box
ĠNumeric Traits
åĲİ çļĦ
Manual ResetEvent
Detect er
AAAA AAAA
ĠrtGet NaN
######## ########
Ð¾Ð ¶
ĠkNumM illisPerSecond
ĠQueue Handle
éĢĴå½Ĵ è°ĥçĶ¨
éĢĴå½Ĵ åĩºåı£
794 3
794 506
Demo Cluster
Dxso Reader
FONT S
Lap Rank
NORM AL
Tips System
dcc d
lw ip
tool bar
tjs CommHead
wi ki
Ġel t
det ector
retri eval
Ġtre ap
Ġpsz Msg
Ġbrow se
ĠSU DODEM
ĠService Name
Invalid ate
ĠGx CTRL
ĠNAME SPACEOBJECT
asm jit
RandomNumber Generator
MET ATYPE
ĠKe ep
Ġprogress Bar
Completion Callback
Refcount able
ĠArg uments
ASM JIT
popcount ll
ĠSTFT CG
åıĳ äºº
åıĳ éĢģ
Ġincre asing
SysAllocator Base
åĵĪ åĵĪ
ĠReduce Forward
)... );
Discrete Impl
Java VM
Kth Bit
RAnimation Node
TLS DESC
Tls ProviderFactory
Upd ated
Upd ater
Xml Mapper
YO UR
æĥ ħ
Ġâ Ĩ
padd le
padd ing
Ġpat ented
ĠAL GORITH
ĠME SSAGE
ĠMa pper
ĠMa jor
ĠPIX EL
Ġlat ched
added Long
ĠDemo Widget
ĠRem oting
ĠBU F
ĠBU ILD
Exe Fact
ĠOb stacle
ĠStatic Patcher
133 8887
Ġåį ķéĶ®
graphic selement
ĠWidgetLook Feel
Ġlut Texture
ĠFileSystem Watcher
Translation Layer
Locked State
ĠRFKEnum Val
ĠAutomatic ID
ĠAutomatic ally
Marker Widget
Ġsimilar ity
å¼Ģ åıĳäºº
æŀĦéĢł åĩ½æķ°
ĠManual ResetEvent
Ġphone Number
RenderedString Parser
ĠPowC Impl
BIG INT
BEW orkSheet
IAffine RealSubspace
Ke ypoint
Toggle Button
Wh at
aj at
bil ities
clo th
sb First
Ġmar lin
Ġsamp node
unreal cv
ĠAg Hud
ĠSW AP
ĠCy an
ĠCent ronics
ĠCum sumForward
ĠCWeapon Info
ĠMAC ROS
ĠFr amerate
ĠBoom Bang
ĠHas hedString
COMB AT
ĠsetTime Stamp
ivation EventArgs
Deep Recursion
apple button
ĠåĢ ĭ
Ġappro ach
REFCOUNT ED
ĠAnimated Object
Seeta Face
Org anization
Constraint s
Mini Draw
Parenth es
Posix WaitObject
Ordering Hint
IMPLE WINDOW
GeometryBuffer Base
ĠChecksum ForwardImpl
Ġfunzion e
Locator IPL
]<<", "<<
Marlin Core
çº¿ æ¶Īæģ¯
ÐµÐ½Ð¸ Ñı
ĠlengthOfL ongestSubstring
Climb ingStairs
>`` `<
CAL C
NST ouchBar
Nav ig
RCTBridge Module
Tl Help
Tre ble
dm log
nam uu
sink s
sudo dem
wire less
ä¼ ļ
ä¾ ĭ
æ¸ ħåį
éļ ı
Ġ------------------------------------------------------------------------ -
ĹãģŁ åĢ¤
Ġcap ture
cel erator
Ġ********* <
Ġburn Tree
Ġol der
ĠSky rimSE
ĠPASS WORD
ĠTrack s
Invert ed
ĠNST ext
ĠNeg ateConditionalWrapper
PLSL oading
ĠFF MPEG
ĠFAT FS
ĠFUnrealcv Logger
ĠQTree View
ĠQmy VideoWidget
Ġru iseki
omer Counter
ĠHAR NESS
ĠHDN L
ãģ¤ ãģĦãģ¦
ĠminCost ClimbingStairs
ĠqMRML Widget
DOC STRING
Ġsubse quent
ĠNCBKern SizeParam
Adhoc Test
ĠScalar NodeData
Ġæ³ ¨
Ġæĸ ĩ
ä½¿ çĶ¨
ãĢĤ <
ĠOption Info
suz uki
ĠTracy Debug
ĠADVBox Part
RiskMon Fact
Coords Arr
ĠkNumMicros PerSecond
è·¯ å¾Ħ
ĠRelative ConditionalWrapper
ComputeShader Example
AVAIL ABLE
Ġ===================== ==
Heurist ic
ĠkNumNanos PerMicro
024 7943
835 7
Elide String
Ge iger
QTree Widget
Tank Xxy
Timeline UndoVirtual
aypoint Module
¦» çº¿æ¶Īæģ¯
å¥ ½åı
çŃ ī
èĬ Ĥ
Ġuts name
remo te
Ġ"$ {
Ġce il
least Squares
ande z
Ġfac il
Ġbot tom
ĠbSh utDown
Ġreuse Tiles
Ġrecie ver
Ġinterr upt
Ġmaint ain
ĠTex Load
ĠTiny ML
Ġdur ing
LEAD ING
ĠFreq Stack
ORK SHEET
Ġhous enumber
ĠBin opExpression
ĠtoGl Vec
FIC ATION
Ġexact ly
DNS Delegate
ĠPyAr ena
Ġ655 36
GetText Password
GetOffset Vector
SetArray Size
Intercept Entry
ĠCODE GEN
ĠéĻ ¤æĿ
ReadFile Exception
Ġãģĵ ãģĵãģ§
OpenGl DisplayList
SVirtualCam Server
Ġç´ ¯
ĠApple Button
ĠSEProtect Start
PLSDialog SavePCM
Lookup TableFilter
orsiv a
Ġmsmodo Cmd
Phong Material
Combine Interface
è§Ĩ åĽ¾
ä¿Ŀ åŃĺ
ĠPollic ino
brk val
ConvBias Impl
ãĤ¹ãĤ ³ãĤ¢
æıĲåıĸ æĸĩä»¶
ĠSIGN AL
ĠClickable Label
,*, "
4512 7
586 13
674 8
899 854
8805 15
950 9
978 21
968 107
Aw esome
Alias Iterator
Bul liT
BRAN CH
Cla use
Cel cius
Cpd word
Dun geon
DTP MOD
Ever Tick
FWidget DisableScope
Hap tic
HAPT IC
Jet Pack
LZ MA
Ow ning
Pres ence
Pay load
Prun ed
Png Data
QShow Event
QDesktop Services
QCef Widget
Rew ard
Rest art
RIG ID
RName Space
RIR U
RMUL H
RIPT EN
SUPER VISOR
VEND OR
ZER O
_++) )
ado lc
bCan EverTick
cfa bbc
fort y
fbj ni
gaz ebo
ima ges
kele y
kIs Finished
myst ricmp
nse ms
nme aparse
sTableView Cell
tolu a
uiz mo
xmly downloader
£æĥ ³éħįåĪĹ
åĥ ı
èĩ ª
Ġdow ork
Ŀå¯¹ åĢ¼
Ġmsm q
arra yptr
lemi re
Ġtong namuu
alcul ator
icult y
Ġfft wf
ĠfChar Fov
Ġpalind roma
Ġrekur sie
exMatch StateEventArgs
ĠAsm Jit
ĠAug ust
ĠASYNC BUFFERCG
ĠSPR ITE
ĠSDC ARD
ĠSPECT RAL
ĠSNDR V
ĠCRE ATE
Ġondem and
ĠEMSC RIPTEN
ilefac enet
ĠMach ine
ĠMSV S
ĠTENSOR RT
ĠGot Focus
STUP ID
ĠDIRE CT
Ġjihw an
predic ates
ĠFern andez
ĠFSS IMPLEWINDOW
setString List
DESK TOP
("{} :
Ġnumobj s
Ġhybrid clr
ĠLite FX
ĠQuest ion
ĠRGUN Z
ĠBAC API
ĠITh readed
ACamSensor Actor
upCh kIsFinished
SEET ANET
redirect Error
ĠHold s
ĠHOG Descriptor
ĠkEn velopePhase
Ġdescrib ing
ableUI ElementIterator
StringRes Manager
IGNO RE
SHUFF LE
ĠVIS IT
ĠVBE VideoMode
TESS ERACT
UNSIGN ED
ĠmaxWord Length
ĠsetBluetooth Enable
autorelease pool
CLGrid Ref
Remain ing
ĠPyCompiler Flags
ĠJedi Model
Ġitimer spec
Ġ++++++++++ ++++++++++++<
Ġclimb Stairs
GetAAC Encoder
ĠminTri als
SPhysical Material
DOXY GEN
DOrientation MarkerWidget
StateChange Wrapper
Ġpretty Name
PROPER TIES
PROLOG UE
ModuleInitialization Level
MainComponents Registry
MainApplicationTurbo ModuleManagerDelegate
BOILER PLATE
ImageImage Factory
1587 1156
ĠCOMB INE
ĠINTEGR ATION
PERMAN ENTLY
3334 12
ĠUseful Funtion
ĠfindAll Words
ĠfindPeak Element
çļĦç» Ŀå¯¹åĢ¼
contigu ous
ĠWEBASSE MBLY
1822 2775
ĠTestAllocation Mismatch
0388 313
RunWhen SecEnd
Primary ActorTick
ĠlastGood Index
Ġsufam iturbo
PerFeature DataProvider
stackover flow
ĠQtOver viewWidget
pugix ml
TargetCondition als
Atlas Idx
ĠWebr ant
NetCDF PerFeatureDataProvider
ĠframeLim iter
ScrollBarAlways Off
Orthographic Camera
BEAUT Y
SUBSTRATE HOOK
3473 10
ĠChunkReady ToMerge
LocalParameter ization
AAlive Filter
489935 4432
Ġmeasurement s
cceleration Controller
ĠUserDefined Type
Skeleton Root
ĠZRuleSolo DeathMatch
TVehicle Data
AUTeleport Version
TCancelable Event
MakeBot tle
è´´çº ¸
flTurn off
MagBias EEPROM
InsertConn Log
æ¨¡ç³ Ĭ
åºĵçļĦä¸Ģ éĥ¨åĪĨ
SendRecv Op
XMLOutput Archive
ĠHIGHLIGH TER
LapRank Checker
ĠALGORITH M
1338887 3833720
å¼Ģåıĳäºº åĳĺ
LocatorIPL ist
æ¸ħåį İå¤§åŃ¦å¤įè¯ķä¸Ĭæľºé¢ĺ
å¥½åı ĭ
ĠéĻ¤æĿ ĳ
" )<<
& ,<
& );
' re
' <<
( --
) _
) ",
) -(
) \<
* -
+ "
+ %
+ "<<
, \"
. *");<
/ -
/ {
/ "<
/ ";<
0 14
1 20
1 0001
2 44
2 13
2 99
3 15
4 000
4 95
5 000
5 50
5 37
6 24
6 55
6 04
7 000
7 08
8 0000
8 19
8 740
9 60
9 259
: _
; ;<
; };<
< __
= .
= "<<
> .
> ,<
> .<
A H
A p
A um
A ED
A VER
A INT
A sm
A OT
A cc
A Engine
A INFO
A UX
A spect
A ishwariya
B le
B ON
B est
B ED
B ush
B atch
B ET
B LIN
B OT
B LINK
B BLE
B ETA
B CF
B alance
B RIGHT
B onusObject
B OTH
B tls
C N
C l
C ut
C lo
C and
C CH
C ab
C ULL
C SL
C raw
C Render
C App
C FG
C lan
C fr
C Struct
C URL
C atal
C InfoDialog
C lipper
C BA
C lusters
C aches
C DataExchange
C losable
C ControlDialog
C aching
C StdOutStream
D er
D EN
D ont
D os
D FA
D DL
D SY
D ry
D Texture
D Renderer
D eriv
D RA
D iode
D amage
D ashboardUI
D ispatch
D ENDR
D RenderPass
E F
E Y
E at
E con
E CH
E SL
E ADER
E CR
E LOC
E mul
E ATH
E lapsed
E mail
E FFECT
E AUDIO
F B
F d
F g
F sp
F ST
F AR
F og
F ault
F UP
F allback
F LU
F ocused
F MEMORY
F OPR
F FIX
G V
G ive
G di
G TEST
G UE
G REG
G NO
G ENT
G IP
G lue
G OOGLE
G rammar
H t
H ar
H UE
H ey
H DU
H AND
H UD
H IVE
H OLD
H aj
H TML
I AN
I Stream
I FF
I IMPORT
I UM
I APPLICATION
I Splitter
I Unknown
I STORY
I CompileIterator
I QuantumBackend
I FICATION
J u
J oint
J AVE
J UNK
J peg
J ewels
J AH
K F
K AN
K LOG
K ire
K Instruction
K BD
K TG
L M
L ON
L ag
L ION
L ess
L ACED
L CP
L CD
L ava
L antern
L DLT
L ambda
L sq
L ittle
L oraDv
L aneLine
M b
M it
M ER
M RE
M Vector
M ime
M ID
M Button
M TYPE
M Util
M Label
M LL
M Group
M IX
M Quest
M usic
M ToolTip
M imium
M argin
M TextArea
M essenger
M edium
M ixin
N K
N Y
N m
N ER
N ul
N SS
N ACK
N ForwardImpl
N CM
N BT
N ICALL
N upChkIsFinished
O k
O SE
O TE
O PAR
O INT
O DO
O bd
O UTO
O mni
O bfusc
P D
P as
P UL
P ages
P IX
P AY
P THREAD
P NODE
P attern
P AGES
P kg
P refer
P DRIVER
P ulse
P hysicalBinder
P pmd
P sapi
Q Event
Q Manager
Q PLUGIN
Q Hash
Q MAP
Q Graphics
Q Variant
Q Dir
Q GraphicsView
Q VGA
Q ToolBar
Q ProxyStyle
Q MetaType
Q TextStream
Q PhongMaterial
R W
R X
R ic
R ex
R ol
R ip
R ay
R ock
R ules
R APH
R tl
R tmp
R FC
R ENV
R UMBLE
R IDE
R ATIONAL
R pWidget
R USAGE
R SEM
R aster
R aceSys
S Z
S er
S AP
S MO
S igned
S vc
S udo
S NODE
S hould
S izes
S ieve
S ENCODER
S omething
S ym
S nowflake
S NOW
S AKURA
S liding
S ATUR
T c
T t
T int
T or
T et
T AN
T SH
T ID
T ill
T ape
T IONS
T LV
T BD
T POFF
T ckChannelBase
U K
U ptr
U SS
U sed
U REF
U STRING
U FOMAP
U WP
U BOOT
V s
V EXT
V sync
V Point
V DATA
V tx
V anity
V oltage
V ORB
W A
W o
W et
W ay
W HE
W PS
W heel
W XYZ
W unused
W izard
W GPU
W AIT
W OPI
X j
X ES
X Link
X FILTER
X POS
X CompcapMain
Y MO
Y ajat
Z ON
Z VERSION
Z Frame
Z Game
Z UTIL
Z MachineFunctionInfo
Z TID
[ -
[ ^
\ ",
] :
] ),
] });<
_ [
_ ,<
a ic
a Data
a ura
a TVDataHandler
a JAH
b id
b ra
b el
b sp
b ign
b ber
b ass
b ies
b efore
b ench
b Is
b Export
b attery
b cef
b rot
b ubble
b kgColor
c ct
c he
c sh
c ull
c ud
c Base
c Module
c hell
c Conf
c ritical
c arry
c ategory
c xa
c aches
d t
d on
d id
d ad
d ated
d av
d ular
d Task
d word
d gt
e ver
e ptr
e ces
e Filter
e lapsed
e Addon
e cho
f id
f ine
f ur
f str
f ex
f ol
f rag
f ly
f sw
f bs
f ication
f vp
f sto
f ifo
f Fade
f lux
g f
g ex
g og
g ab
g log
g ers
g lue
g auss
g laze
g ather
g Eng
h ard
h art
h ld
h result
h old
h Process
h Sprite
h Dll
h ren
h readed
h PrevInstance
i ence
i mai
i Round
i eml
i DSP
i Directional
i Ju
j a
j ill
j vm
k al
k amp
k Config
k lear
k va
k Find
k Signature
l h
l v
l int
l pa
l ate
l fo
l rc
l ant
l andmarker
m q
m um
m is
m ber
m istry
m map
m Menu
m tk
m gb
m ks
m scorlib
m Options
m eters
m ixer
m illis
m ediate
n P
n cout
n ed
n il
n im
n alu
n os
n tp
n The
n ID
n fc
n ian
n Start
n Round
n CombatState
n PacketSize
n GlobalOffset
n Detour
n Cine
n RError
o un
o ch
o Sample
o ccurrences
o boe
o ji
p sp
p ang
p Node
p file
p ix
p Add
p Context
p Sub
p move
p Format
p Thread
p Server
p Mouse
p mesh
p DC
p TabFrame
p CommandList
p Men
p OnDraw
p RoundMan
p upil
q sort
q wer
q Slicer
r b
r u
r le
r ing
r us
r ature
s lo
s ig
s ure
s ender
s mo
s Instance
s hed
s rand
s heet
s vg
s ampler
s akura
s Ignore
s omething
s istent
t ank
t Stack
t ists
t weets
u cl
u Nm
v olu
v irt
v fuzz
v ious
v Direction
w b
w l
w m
w im
w as
w all
w ast
w alkable
w lc
w xyz
x A
x E
x f
x it
x mm
x Sort
x AF
x BC
y mod
y olo
y Reader
y Default
z x
z ap
z Out
z algorithm
z Crc
{ _
} (
} {
} "<
} ";<
} ");<
} ))<
£ ãĥ
§ åĪ¶
ª çİ¯
« è¿ĽåĪ¶
« ãĥ¼ãĥ
¯ Ħ
² ¡
² æ³ķ
³ ãĥ
µ ŀ
· ç§»
¸ ¡
¹ æį®
º æł¼
¼ ãģ
¾ è®¡
¾ å¿ľ
Ã ¨
Ð ´
Ð º
Ñ Ĩ
â ĸ
å ¦
å ģ
å Ĥ
å ķ
å Ļ
å Ł
æ ®
ç ¼
ç Ł
ç ¤º
ç ¯Ħ
è ¶
è ĭ
è ²łãģĳãģ®çĬ¶æħĭ
é «ĺ
é ¸¡
ĉ ĠĠĠĠĠĠĠĠ
ĉ ĠĠĠĠĠĠĠĠĠĠ
ĉ ĠĠĠĠĠĠĠĠĠĠĠĠĠ
Ġ ht
Ġ Here
Ġ ++)<
Ġ ush
Ġ Zero
Ġ eta
Ġ elif
Ġ ãĥ
Ġ html
Ġ REGISTER
Ġ IMAGE
Ġ ä¹
Ġ ä¸Ģ
Ġ LEGACY
Ġ ÑĢ
Ġ ä¸Ń
Ġ angles
Ġ âĢľ
Ģ ģ
Ģ åĩº
ģ <
ģ Ĭ
ĥ åĽ
Ħ æķ°
ħ §
Ĩ åĲĪ
Ĩ åĪ«
ī ²
ī ¾
Ĭ æĶ¾
ĭ ãĤī
ĭ ãĥł
Į ĥåĽ
į åĴĮ
Ĳ ç®Ĺ
Ļ ļ
Ļ è¯
ļ ÑĢ
Ŀ æľ
Ŀ èĢħ
Ŀ Ð°Ð
Ł åĮĸ
Ł éļı
Ń ä»£
in p
in ate
in ode
in formation
in structors
in hart
ĠĠĠĠ ĉĉ
de lement
de composition
de ven
de coder
de allocate
de leted
de ucl
Ġ< _
st age
st iv
st ill
st ones
st uff
st udy
st ories
st aV
st ubs
en ed
en crypt
en crypted
on itor
on ormal
on nect
on CameraState
at ta
at ty
at Aum
er ing
er ti
er Heuristic
re y
re ec
re main
re pos
re port
re interpret
re coil
re sting
// _
int ro
Ġ" +
Ġ" `
Ġ" )<
Ġ" ..
Ġ" ("
Ġ" );
Ġ" ;}<
Ġ" Â°
Ġ" âĸ
inc i
ut m
ut ine
ut est
ut let
Ġc d
Ġc he
Ġc ent
Ġc um
Ġc el
Ġc tr
Ġc ryp
Ġc att
Ġc alloc
Ġc lip
Ġc ategory
Ġc tre
Ġc losable
Ġc imbar
Ġc SimpleModule
am eter
ce ment
ce iv
Ġm t
Ġm ul
Ġm tp
Ġm Object
Ġm Function
Ġm ost
Ġm tx
Ġm etric
Ġm cnt
Ġm Ui
Ġm iss
Ġm Material
Ġm Pos
Ġm Options
Ġm icro
Ġm ProgressBar
Ġm utable
Ġm Viewport
Ġm secs
Ġm Timeout
Ġm Radius
Ġm illis
Ġm ulti
Ġm cmc
Ġm cuboot
:: <
end Time
end points
es Gui
es seract
ar ct
ar ent
ar per
ar ity
ar cs
ar Down
ar ness
ar ily
ri ting
ri zz
ri cket
Ġi ris
Ġi tems
Ġi qs
le mb
le ak
le kamp
() ();<
() ]);<
() ))
Ġn x
Ġn y
Ġn Time
Ġn vm
Ġn port
Ġn av
Ġn tx
Ġn dk
Ġn CmdShow
se am
se ct
co var
co coa
co Reader
co cr
an te
an pre
an ta
an ya
an ToInt
an ano
an aData
ing Box
ing link
ing Modes
ing Updated
Ġt a
Ġt l
Ġt y
Ġt id
Ġt et
Ġt im
Ġt rib
Ġt ak
Ġt Stack
Ġt aken
Ġt rees
Ġt alking
al am
al an
al kane
al ighter
pa sc
pa que
pa bilities
if ace
ic a
ic all
ic ity
ic les
ic Importer
id le
ion Find
std uplicate
Ġv el
Ġv ort
Ġv vm
Ġv ram
Ġv snprintf
Ġf b
Ġf e
Ġf ar
Ġf et
Ġf ol
Ġf eg
Ġf ew
Ġf older
Ġf lat
Ġf av
Ġf cnt
Ġf nv
Ġf ire
Ġf lash
Ġf etch
Ġf eset
ine Boot
it ate
it ach
ra h
ra ce
ra it
ra coReader
Ġs id
Ġs ine
Ġs ch
Ġs map
Ġs gn
Ġs izes
Ġs lice
Ġs na
Ġs omething
Ġs entence
Ġs prites
ur ons
ur ope
Ġp d
Ġp te
Ġp cpp
Ġp Window
Ġp tt
Ġp ix
Ġp Player
Ġp Command
Ġp Font
Ġp Format
Ġp Edit
Ġp DX
Ġp Bitmap
Ġp LineEdit
Ġp ListBox
Ġp kg
Ġp VerticalScrollBar
Ġp HorizontalScrollBar
Ġp HorizontalSlider
Ġp CheckLabel
Ġp VerticalSlider
Ġp RadioLabel
Ġp TabFrameItem
Ġp TabCtrl
Ġp otential
Ġp ivot
Ġb t
Ġb at
Ġb str
Ġb mp
Ġb el
Ġb eg
Ġb ark
Ġb lob
Ġb one
Ġb box
Ġb ranch
Ġb kgColor
Ġb lake
Ġb tn
Ġb aud
Ġre q
Ġre lu
Ġre comp
Ġre cv
Ġre start
Ġre positor
Ġre comm
Ġre boot
Ġre ceive
Ġre vertColorProb
ss se
ss ystem
ss imp
Ġa b
Ġa k
Ġa y
Ġa ce
Ġa ver
Ġa ble
Ġa aaaa
Ġa Client
Ġa ids
he avy
la pack
la cing
lo ot
lo pen
ro st
ro ute
ro ke
ro pe
ro ding
ate ly
ate Pass
ate xit
-- ,
-- -
-- ];<
>} );<
>} }}<
>} }}
Ġstd Code
Ġ0 7
Ġ0 100
Ġ0 09
et it
et ries
str safe
un do
un protected
un wrap
Ġco in
Ġco ord
Ġco okie
Ġco ordinate
mp s
mp u
ent o
ent ities
ent ication
Ġ1 11
Ġ1 14
ma Allocator
us es
us able
us ED
Ġo per
Ġo tp
Ġo perations
ex tr
ex ical
ex agon
Matrix Util
um es
Ġ( %
Ġ( --
ĠA A
ĠA TO
ĠA mb
ĠA ARCH
ĠA UI
ĠA RC
ĠA sse
ĠA SYM
ĠA tom
ĠA SCII
>// {
>// };<
do p
do vers
do pt
Ġma k
Ġma ss
Ġma ster
ER F
ER ING
ER LIB
ER FIN
ER SENSOR
Ġ// #
Ġ// ...<
ĠS id
ĠS SE
ĠS TO
ĠS PE
ĠS ING
ĠS ECT
ĠS upport
ĠS ell
ĠS afe
ĠS yscalls
ĠS ENSOR
ĠS hould
ĠS TOP
ĠS nowflake
ĠS IMPLE
ĠS cotto
ĠS htreeba
ĠS emVersion
ĠS quash
ĠS Articulation
ĠS parc
ĠS Fg
is o
is ing
is ode
is Manager
is nan
is digit
is Prime
is ReadOnly
is FirstInnings
is Leg
is AutoSymbol
ol s
ol in
ol ith
++ ]);<
Ġg f
Ġg z
Ġg ate
Ġg fa
Ġg old
Ġg pu
Ġg dx
Ġg tc
Ġg rad
Ġg ely
Ġg uess
Ġg laze
Ġis os
Ġis Debug
Ġis User
Ġis Effect
Ġis Checked
Ġis Multi
Ġis Loaded
Ġis vowel
Ġis Mirror
Ġis Initialized
ĠC M
ĠC pp
ĠC EN
ĠC AL
ĠC AP
ĠC Base
ĠC rc
ĠC UR
ĠC tor
ĠC System
ĠC Engine
ĠC pu
ĠC About
ĠC ritical
ĠC MAKE
ĠC AMER
ĠC Generate
ĠC Streamer
ĠC astle
ĠC Adv
ĠC mptsView
ĠC IMBAR
ĠC AnimationStyle
ĠC Garages
ĠC ComTest
ĠC ricket
Ġon New
IN ANT
IN ET
IN DL
IN DEPEND
IN FS
IN ERT
IN FR
IN VIEW
IN RECT
IN FORUNNABLE
IN FINITE
el lo
el ler
el case
el gamal
ed Path
ed ian
ĠE S
ĠE sp
ĠE FS
ĠE ffect
ĠE FD
ĠE lGamal
ĠE QUAL
ĠE valuate
ĠE lectron
ĠE ZVERSION
tr anspond
ck ey
ck mann
ch at
Ġconst ant
Ġconst Max
ver ts
ver eset
ĠM en
ĠM RE
ĠM IM
ĠM YS
ĠM Get
ĠM ix
ĠM SP
ĠM Frame
ĠM eter
ĠM ChannelRuleMgr
ĠM INE
ĠM ixer
ĠM usicShareKind
ĠM edium
ĠM pk
ĠM HttpSpooler
ĠM DRAGOBJECT
ĠM QPLUGIN
ĠM onitor
il enet
.. \\
Ġ2 001
ĠP B
ĠP F
ĠP I
ĠP W
ĠP i
ĠP ch
ĠP ID
ĠP ING
ĠP ORT
ĠP UB
ĠP atcher
ĠP hys
ĠP Flags
ĠP Flag
ĠP cap
ĠP ending
ĠP DF
ĠP rincess
ĠP ersistent
ĠT P
ĠT im
ĠT OR
ĠT Array
ĠT Visitor
ĠT END
ĠT OT
ĠT EM
ĠT ick
ĠT LS
ĠT Lock
ĠT ax
ĠT First
ĠT FD
ĠT ASK
ĠT WOPI
im ode
im os
Ġd id
Ġd ark
Ġd iscard
Ġd ctx
Ġd ays
Ġd sl
Ġd gt
Ġd ashboard
Ġw string
Ġw ere
Ġw ave
Ġw Param
Ġw ifi
Ġw server
Ġw df
Ġw ire
Ġw SObj
Ġw ipe
Ġw glew
Ġw riting
EN INE
ul ong
Ġ{ \<
Ġin ode
Ġin Size
Ġin Rect
Ġin verter
Ġin dic
Ġin active
Ġin DebugName
op List
op over
te mpl
Ġfor Name
Ġfor cing
00 2
00 3
00 6
00 40
AL BU
AL API
AL US
AL MARK
AL TRA
ON AT
ON ENT
ON LOOP
ON ICS
:" );<
sp o
Ġof xGui
In St
In out
In order
In Archive
In Range
In ductor
In Bounds
In herit
In erti
Ġl c
Ġl j
Ġl k
Ġl Param
Ġl ane
Ġl oraDv
Ġl trim
Ġ& [
Ġ& {
Ġ& ()
Ġ& )<
ve h
Co mn
Co ins
ont act
ext Object
ext Config
LE SS
LE LEMENT
LE OPAR
ĠG RE
ĠG RO
ĠG DN
ĠG ui
ĠG AM
ĠG OG
ĠG MOCK
ĠG DB
ĠG reppingDlg
ĠG ELEMENT
ĠG unz
ĠG RAPH
ĠN K
ĠN X
ĠN a
ĠN OL
ĠN File
ĠN RF
ST AC
ST FILTER
ST DLIB
ST UFF
ST REET
RE T
RE QU
RE ED
RE MIN
RE ALIZATION
RE FIID
bo lic
ad ingD
ad just
eg l
Ġch k
Ġch oice
<< '\
ĠD H
ĠD AR
ĠD RO
ĠD Type
ĠD IR
ĠD uration
ĠD DX
ĠD CR
ĠD istance
ĠD ispatcher
ĠD LC
ĠD AED
ĠD ONAT
ow el
Ġj uce
Ġj ia
Ġj peg
Ġj osephus
AR ITH
AR PEN
ment ed
AT AN
AT ES
AT HE
AT IAL
AT ILE
AT INPUT
PL O
PL IER
PL USC
PL SPlatform
PL SSplashScreen
pre fetch
/* !
as ename
as df
ata Handler
ef i
and Hex
all X
ated Hash
ot iff
ot osh
ĠF H
ĠF un
ĠF ST
ĠF Vector
ĠF Object
ĠF DO
ĠF Color
ĠF IR
ĠF lags
ĠF lip
ĠF oreground
ĠF OO
ĠF INDL
Ġ4 100
Ġ4 50
Ġ4 45
OR IZONTAL
set Y
set Application
set Size
set Value
set Style
set Position
set Pin
set Attribute
set Contents
set Focused
DE TE
DE LEG
DE TA
DE LETE
St Function
St Variable
St reet
size i
ray Icon
ray scale
(" -
(" ^[
Ġnum Trees
Ġnum TestCases
Ġnum ofele
Ġnum Jewels
Ġh h
Ġh it
Ġh ue
Ġh ip
Ġh font
Ġh ld
Ġh cf
Ġh andler
Ġh Process
Ġh az
Ġh menu
Ġh ilti
Ġh vp
Ġh PrevInstance
IM AP
IM AGER
IM ATED
IM ovement
IM INANT
IM ALTRA
IL LU
ĠL ang
ĠL CA
ĠL CS
ĠL RC
ĠL OW
ĠL ava
ĠL ittle
ĠL aserSensor
ĠL nk
Ġ3 9
Ġ3 60
for d
ĠQ U
ĠQ List
ĠQ TT
ĠQ Abstract
ĠQ TextEdit
ĠQ Angle
ĠQ MRML
ĠQ ITC
ĠQ GraphicsView
ĠQ ubit
ĠQ TextBrowser
ĠQ CheckBox
ĠQ Validator
ĠQ Sql
ĠQ GroupBox
Ġst ation
Ġst aV
ĠR C
ĠR ing
ĠR ound
ĠR ock
ĠR ice
ĠR tl
ĠR oot
ĠR iverCombs
ĠR pWidget
ĠR PLoop
Ġe a
Ġe st
Ġe ps
Ġe md
Ġe ax
Ġe mployee
Ġe valu
Ġe mscripten
Ġx dw
get ch
get Text
get State
get All
get env
get Width
get Height
get pid
get Runner
get NodeType
get Udc
son ant
ap lus
ap ele
ap Renderer
ode PNG
PP G
PP EB
ĠB M
ĠB Y
ĠB e
ĠB er
ĠB ang
ĠB ush
ĠB ond
ĠB itmap
ĠB ench
ĠB LOCK
ĠB eam
ĠB oolean
ĠB Zip
ĠB ranch
ĠB oard
ĠB alance
ĠI d
ĠI Array
ĠI Text
ĠI BO
ĠI PC
ĠI Compress
ĠI ClassFactory
ĠI CompileIterator
ĠI TEM
ĠI GNO
li App
li kely
og ue
yn ess
ĠU E
ĠU s
ĠU pd
ĠU NI
ĠU SING
AN E
AN K
AN SL
ult ra
ag g
IT AN
IT IC
IT ask
IT IES
IT hreaded
IT extObject
Ġfile Dumper
return ing
em u
em ulator
AP ARG
AP SED
per mutations
os es
os pace
os aic
AC OS
AC HY
AC PI
AC ITOR
Ġ' <
Ġ' [
Ġ' ")
Ġ' :'
Ġ' {'
Ġauto start
FI O
FI EL
FI FOPR
ans formation
ans lider
Ex tern
Ex ternal
Ex Initialize
Ex Release
Ex Ac
UL IB
UL TRA
UL KAN
UL STUFF
ang led
ang ian
10 6
sh irt
Ġr b
Ġr r
Ġr ate
Ġr ng
Ġr usage
Ġr umble
Ġr trim
ĠMatrix Inverse
om ing
om ni
om bies
om yDefault
ME TE
ME DI
up load
up menu
ĠW H
ĠW al
ĠW AP
ĠW nd
ĠW ill
ĠW idth
ĠW arn
ĠW STest
ĠW elcomeWidget
ĠW EATH
ĠK th
ĠK NOWN
ĠK bI
ĠK EY
ĠK imai
SE Q
SE IP
SE STO
SE ETA
SE ALAPI
cpp reference
Ġy s
Ġy aml
Ġget P
Ġget s
Ġget ch
Ġget Random
Ġget Node
Ġget Sensor
Ġget Area
Ġget Min
Ġget Target
Ġget Ext
Ġget env
Ġget Mac
Ġget Current
Ġget Description
Ġget Options
Ġget Close
Ġget Messages
Ġget RandomNumber
Ġget SensorName
red its
est Panel
num Trees
ERN ET
ERN ATIONAL
lm an
lm huv
ĠH ol
ĠH ow
ĠH MENU
ĠH IER
ĠH IDDEN
ĠH KLM
ĠH exagon
ĠH ORIZONTAL
Ġk E
Ġk ill
Ġk now
Ġk tl
Ġk napsack
Ġk Git
Ġk ids
Ġk WaitStatus
Ġk Known
tp s
CT et
CT OR
CT able
CT EST
CT extConfig
QU AT
con version
Str To
>> ,
>> ::
bool Type
Ġover speed
Ġover loaded
AB D
AB EL
MO TE
MO SI
MO WIDGET
MO TOR
MO JAVE
ION ADD
ION METHOD
ION SERVICE
Ġde m
Ġde li
Ġde code
Ġde init
Ġde signed
Ġde term
Ġde compressed
Ġde sired
20 2
20 15
20 48
<<" :
of number
Pro cessed
64 32
ser vers
RO MA
RO PY
pro ps
EX PLIC
Ġbool Type
able List
row major
); ++
wise Impl
String H
String Util
String UTF
String ForKey
String Encryption
pri v
art ext
art icle
art beat
ref s
ĠO ur
ĠO PL
ĠO SH
ĠO dd
ĠO pr
ĠO ops
ĠO wner
ĠO SEX
ĠO mni
ED FOR
ED FRAME
ED SERVICE
IC SENSOR
IC ATOR
IC HOR
IC SELEMENT
TO TYPES
TO GRAPHIC
TO OTH
SH ORT
SH TC
SH ARPEN
ta int
ta bs
ta king
ann ing
BU BBLE
BU MTYPE
Ġres ume
[] ){<
py sapien
data ROM
ĠV A
ĠV S
ĠV ery
ĠV ERT
ĠV pn
ĠV ELOC
ĠV maAllocator
Type Manager
Type From
Type Cvt
Type ComboBox
List File
List Model
List Scanner
List aInterpreti
Core Log
lib ps
lib git
lib HelloWorld
lib respot
Ġout file
Ġout len
Ġout Archive
Ġout pitch
amic ro
GL enum
GL ASS
GL Shader
GL ONG
GL ITTER
GL TF
GL GroupFilter
ansp ort
TE S
TE ACH
Ar bit
Ar resting
ĠVector Union
Ġpro b
Ġpro g
ain Array
CO A
CO SH
CO LS
CO MING
CO COS
ure gex
ph nt
Ġlong Url
use c
UN IT
UN DN
UN DER
UN ITS
UN SYM
UN BOUN
UN SUPPORTED
>( *
>( <
ID s
ID GE
ABLE OP
sc hedule
DI STR
DI SP
DI SCR
PE T
PE LEMENT
Ġmax a
Ġmax Height
Ġmax Sliding
Ġmax mum
//////////////// <
ary Encoder
AD C
AD IC
AD SI
AD JU
ac l
ac m
ac cum
ac quire
out ingDaemon
Ġreg free
FA STM
Base Object
Base Filter
Base Result
Base Address
Base Renderer
fa ke
fa bs
layer s
SC E
SC ON
Ġset Error
Ġset Edit
Ġset Current
Ġset Focus
Ġset Pin
Ġset Radius
Ġset Movable
Ġset Closable
Node let
to i
to do
to upper
Ġhe avy
file path
Ġex press
ĠX P
ĠX PY
ĠX Display
ĠX RSLAM
Ġcomp leted
BUILD ING
Ġ, -
Ġdata Len
SS D
SS ION
SS DP
SS PLASH
Ġth us
Ġth res
CE S
CE IL
ke er
ke ys
VER BO
VER ICK
VER IFICATION
ree View
Object ID
Object Wrapper
Ġstring a
LO PEN
ib rary
ton e
nn oun
Ġdef er
CH AIN
CH ROMA
>* /
>* <
Ġ'\ \
UP DAT
UP DATE
Ġ"\ "
DN A
di vide
di ctionary
di jkstra
Ġinput String
STR AINT
ink ite
Event ErrorCode
Event Dispatcher
Event Timeout
Ġsum Leaf
Ġsum Till
ab ab
ITY FILTER
odule Interface
Ġnot ify
ĠEx tract
EXT EDIT
auto matic
ORT POSITIONVECTOR
UT ABLEOP
ĠĠĠĠĠĠĠĠĠĠĠĠĠĠĠĠ ĠĠĠĠĠĠĠĠĠĠĠĠĠĠ
De psgraph
ui wen
CL ASSE
test String
rt c
rt Storage
rom atic
AM MP
AM ENINE
Ġ&& <
ip ulation
read ing
read fs
Re Alloc
Re place
Re cognizer
no To
font data
CON TR
CON STRAINT
Ġ*/ );<
Ġ*/ )<
Ġoutput Str
com b
YS RESULT
cl oned
cl imits
Ġ} };<
Con Command
Con cat
Ġno Of
ĠIn ference
ĠIn structor
ĠIn paint
IB ER
IB Action
Name Size
Ġgen esis
PORT ABLE
Ġ~ (
Ġ7 1
Ġ7 5
PAR A
Data wrapper
Data Array
Data Wrapper
Data Exception
Data Types
Data Transfer
TER ROR
ET ARY
error Message
Ġnew Size
Ġnew line
Ġnew Symbol
low est
ms pace
ĠJ ul
ĠJ oint
ĠJ ust
ĠJ ash
ĠJ PEG
ĠJ ava
ĠJ peg
ĠJ NICALL
On New
On Create
On Load
On Destroy
On Sphere
On Complete
Ġ6 3
Ġ6 9
Sc river
Sc hedule
amp ling
REG S
REG KEY
ance d
ft Runner
Of Strings
Of Calcul
Of Others
Ġpa y
Ġpa dd
Ġpa used
Ġpa isa
cp x
gen esis
max Pro
max sum
max len
max Length
To k
To Left
To Right
To Read
To Icon
To Screen
To End
To Return
To Top
To Bottom
To Climb
Text Editor
Ġit self
Ġcount B
Ġcount Nodes
Ġcount Zeroes
Ġcount Distinct
Ġstr nc
Ġstr ategy
Ġstr cat
Ġstr Tmp
Ġbu y
Ġbu ffers
Plugin Base
Plugin Info
Plugin Monitor
Plugin ToIcon
SION FILTER
cb i
open mp
face Info
)) ==
)) (<
)) (*
Col Buf
Col lector
<= '
Function MLIB
Function CallbackInfo
ĠGet V
ĠGet Object
ĠGet Path
ĠGet System
ĠGet Command
ĠGet By
ĠGet Char
ĠGet Pos
ĠGet Default
ĠGet Order
ĠGet Vertex
ĠGet Quaternion
ĠGet LastError
ĠGet Async
ĠGet Battery
ĠGet Results
ĠGet QRCodeRunnable
ĠGet BuiltinType
ĠGet TaskName
ĠGet AlbumInfoRunnable
Test Auto
Test Case
Test Runner
Ch anges
af nian
Ġun a
Ġun ix
Ġun used
Ġun pack
Ġun iform
Ġun document
Ġun usED
ĠCre at
OB FU
OB SERVER
OB SVirtualCamServer
OB STAC
ay alam
ĠSt ub
ĠGL Be
ĠGL GroupFilter
ĠGL YPH
base Address
For Numbers
MA VERICK
mo bil
Ġend Time
Ġend ian
WIN FO
WIN SOCK
ãĤ Ī
VAL S
ĠCo Initialize
PIN BOX
Comp lement
Comp leted
Comp oundTag
Comp utation
Ġtest case
Ġtest Case
ari Printer
NO K
opt s
opt string
opt arg
opt ind
Ġcon c
Ġcon struct
25 00
File Type
File Manager
File Item
File Handle
File Description
Ġle x
Ġle af
Get Value
Get Game
Get Class
Get Entity
Get Block
Get Channel
Get Token
Get Console
Get Quaternion
Get Extension
Get GlobalMap
Get Ticks
Get BuiltinType
Get Stamped
Get Performance
Menu Scene
Ġ9 7
Ġresult OfCalcul
main Window
Un able
Un defined
Un format
Ġmin p
Ġmin Ans
Ġmin Moves
INT F
INT EX
INT ENS
INT ERNATIONAL
Info CL
Info Data
Info Mixin
Info Collector
parent Menu
parent PopupMenu
Ġan on
ATION FE
ATION FILTER
000 4
000 8
Player Info
Player Index
Player ScoreboardId
Player Macros
Ġq node
Ġq cvm
sync DB
Map Path
Map Server
Ġname String
Set ter
Set Instance
Set Up
Set Progress
Set Bit
Set Union
Set Stamped
Set Organization
exp onent
SON ICSENSOR
Ġal t
Ġal ign
Ġal igned
Ġal phabet
CK SceneObject
CK StateObject
CK BaseManager
SP V
SP MM
SP KAC
SP HERE
SP OSE
SP opover
SP ATIAL
TR AS
TR IES
TR ONICS
TR ATHE
ĠAr duino
Sh ield
Sh arma
Sh apes
Ġcreate BST
count To
Point Action
Button Clicked
Res istance
Res istor
Res olved
("% [^
DO penGL
Ġpri v
ged Error
ged MPC
input stream
Bu g
ĠRE SI
ĠRE VE
ĠRE TURN
ĠRE SOLUTION
ĠRE FIID
Ġ20 16
Ġ20 11
Ġ20 110
Left Side
Left ToRight
Ident ical
Ġu mp
Ġu set
Ġu map
MM C
MP TY
Ġdi e
Ġdi ct
Ġdi jkstra
ass imp
ass inate
... )<
... ");<
... >::
AS N
AS INK
AS oftwareUpdate
ĠPRO PERTY
ĠPRO TOTYPES
Property Dialog
Property Info
Property Set
Property Settings
Property Bag
Ġcont rast
Ġprint ed
Ġprint Options
Ġprint Post
Ġprint Inorder
Right Side
Right ToLeft
State From
Ġexp ose
LIB GEN
Ġstruct ure
min or
min id
min us
Ġdo g
Ġdo t
Ġdo it
UR ER
UR GLASS
Ġll ist
ĠRegister PRISM
ENT ROPY
point Cloud
AG GREG
END ITEM
Id Counter
Add Layer
Add Range
OP lane
Ġmy Map
Ġmy key
SY STM
SY SEX
SY STIME
list item
Ġpre view
Ġpre Order
Code Window
Code Loader
Code Auth
ĠAP NG
Ġadd Value
Cont act
Error String
Error Window
Error Death
init Program
raw al
Ġsub s
Ġsub array
Ġsub space
inter section
ĠZ one
ĠZ Module
ĠZ IR
ĠZ QuestMap
ĠZ MessageNameGroup
Value Tree
Value Computation
ep Le
ep och
ep isode
ĠDo DataExchange
ES APP
Item Stack
ya Is
Ġspec ifier
Ġgener ating
OT IFY
OT ASoftwareUpdate
cc r
cc Config
afx c
afx win
SO ut
SO ULSTUFF
event Name
Ġtri ador
DAT ASINK
Frame Buffer
Log Frame
Log Serial
Log Output
show problem
Ġclang Tutor
pe ak
pe ating
Ġsh own
EM AP
EM YSYSTEM
EM BED
tax i
Ġtemp s
Ġtemp now
Ġtemp Ã©
Time As
Time Clock
ingle Thread
]] >
]] ){<
lat ency
Ġat om
Ġat oi
Ġat omic
Ġas String
Ġas JsonValue
Ġor bital
Inter action
Inter sector
READ ING
READ THREAD
PRO METE
Ġå ¤
Ġå °
Ġå Į
Ġå Ĳ
Ġå Ľ
Ġå ŀĭ
EL L
EL CAP
OS FLASH
OBJECT ER
vm ar
ange ments
Ġcode c
lex it
ĠError Desc
An i
An ime
An imal
An cestor
Element Type
Th row
Th ird
Main View
Main Thread
Main Content
100 9
Game UIT
He artbeat
Render Texture
Ġlib git
Ġval B
DATA STRUCT
DATA HANDLER
Filter ProxyModel
Sensor Type
arch imedes
BO OK
BO LELEMENT
Image Base
Image Reader
Image Panel
TH ook
TH REE
TH IRD
TH REED
]) ){<
make in
make out
make Scaled
ĠID irect
ä¸ »
by Duplicate
SDL Bitmap
Model s
Model Component
ARE DS
ï¼ ģ<
see k
Ġapp ear
Ġtime Temperature
Handle Map
time value
time Settings
Par ity
86 2
Cpp Image
Cpp Class
Cpp Exception
Cpp Native
Cpp Wait
Ġlog l
Ġkey codes
Ġsc r
]; //
Ġsort ing
av l
av atar
ĠAn other
Ġprocess or
Ġprocess es
Param aterize
ifi ers
ĠCO ut
ĠCO COA
Ġreverse Bits
æķ° çļĦ
æķ° ãģĪãĤĭ
App Event
Ġ16 0
Ġparam eters
ĠSet Console
Di ct
Di vider
ĠMO DS
ĠMO DEL
ĠBase Data
ĠBase Cache
ĠBase SyncSettings
Class Handle
Key State
Key Value
Key Frame
Key Wrapper
Key Share
ryp tor
Ġ(" *");<
PC uda
UM N
holder s
Te arDown
Check Point
Check points
Space Normal
Ġfont byte
Common Ancestor
MY FILE
MY FILEREADER
MY PINMANAGER
MY PINREADER
MY FILEWRITER
MY INTERRUPTMANAGER
MY TIMEKEEPER
MY INTERRUPTSERVICEMANAGER
ĠUi Panel
sub tract
14 1
Bar Widget
ĠOpen File
ĠOpen SSL
åĬ ¡
Se en
Se ed
Se quences
()) )<
()) !='\
Label Look
ĠSystem Info
MIN FORUNNABLE
Ġproject s
Ġ[ =
Ġ[ _,
Engine Config
Engine Client
Engine erHeuristic
Ġbuild Array
Af reec
ĠIN FO
ĠIN DUCT
ĠIN STRUCTOR
ĠDe ck
ĠDe pendencies
ĠDe codes
ĠDe epLe
CODE CTYPE
CODE WINDOW
Graph Initializer
WORD SIZE
Input State
Input Filter
Input System
Input Handler
Color Codes
Font Color
Font Geometry
IO UTIL
IO READTHREAD
Wrapper Pass
the String
the char
the ory
Ġtext Length
ĠWindow Settings
PER SON
Symbol Storage
åĪ ¤
åĪ Ŀæľ
last Point
Message Manager
Message Id
Version Number
Ġrep ly
Tensor Shape
Tensor DeviceGpu
Tensor ReductionGpu
Tensor ContractionGpu
CONFIG PARSER
NT API
NT FST
SI XFILTER
Ġ-- )
ãģ® æľĢå¤§
Action s
Op Thread
Op Resolver
Ġ32 7
SB asic
lin v
Ad just
Ad aptor
OST ASK
OST hread
Ġright Min
Ġright SubTree
Ġright subtreesum
ĠLo ops
Al t
Ġcheck sum
Ġcheck Us
Ġcheck Cuda
ĠFL IGHT
ĠFile Name
ĠFile Reader
ĠFile Sys
ĠList Box
ĠUn define
ĠUn map
ĠUn ique
ĠUn known
ĠUn ionFind
node Type
Ġmod ification
Ġmod time
Ġmod pow
Ġmod Exp
Ġmod ality
EYER THREAD
EYER SUB
EYER SHARED
EYER IMAGE
EYER EVENT
EYER URL
EYER FILEREADER
EYER DECODE
EYER RAND
EYER BITSTREAM
EYER CONDITION
EYER AVER
EYER MEDI
EYER OBSERVER
Handler ModulePlugin
Handler Setter
Sub tree
Sub Options
Sub sequence
Sub arraySum
mod d
mod s
mod ified
Le aves
Ġpar a
Ġcompute OrderingHint
Ġserial PortClient
Process Path
Process Cmd
Process Messages
CA irServer
[...]
