#version: 0.2 - Trained by `huggingface/tokenizers`
Ġ Ġ
i n
; <
> <
d e
ĠĠ ĠĠ
Ġ <
s t
ĠĠ Ġ
e n
o n
a t
> #
e r
l u
r e
Ġ< <
/ /
in t
) ;<
o r
Ġ "
{ <
in c
lu de
inc lude
u t
Ġ c
a m
c e
: :
Ġ m
en d
č Ċ
} <
Ġ =
e s
a r
r i
de f
l e
( )
Ġ i
Ġ n
c t
s e
c o
a n
ĠĠĠĠ ĠĠĠ
in g
Ġ t
a l
Ġ {<
p a
i f
end l
i c
i d
" <
st d
i on
Ġ v
p p
Ġ f
Ġ *
in e
i t
pa ce
Ġ endl
am es
ames pace
r a
at ri
Ġ s
atri x
u r
Ġ p
def ine
o id
Ġ b
Ġ re
s s
> }<
Ġ a
h e
l a
- -
l o
e ct
r o
) <
at e
Ġ std
> }
co ut
e t
st r
( );<
i g
u n
u b
Ġ 0
Ġc o
> {<
ur n
Ġ int
t urn
on st
m p
l ic
m a
en t
> //
Ġ o
e x
u s
Ġ 1
M atrix
u m
d o
v oid
Ġ A
Ġ }<
E R
Ġ (
Ġn amespace
i z
Ġm a
* *
Ġ S
i s
ect or
end if
Ġ //
o l
Ġre turn
Ġ g
Ġi s
h pp
Ġ C
+ +
la ss
iz e
Ġ on
Ġt he
I N
us ing
e l
: <
y p
ub lic
Ġma in
e d
Ġ E
c k
t r
ĠĠĠĠ ĠĠĠĠ
_ _
c h
i le
c lass
n amespace
t er
ra g
Ġc onst
str ing
// //
rag ma
ig en
v er
p ragma
Ġ T
Ġ M
i o
i l
Ġ P
. .
i m
Ġon ce
Ġ 2
-- --
Ġ d
Ġco ut
u l
E N
Ġ w
Ġ {
ar g
o p
Ġ in
re am
t e
at ion
Ġf or
Ġv oid
A L
: "
O N
Ġ :
s p
Ġo f
I n
i st
ĠĠĠĠ ĠĠĠĠĠĠĠ
am e
() <
v e
Ġ &
Ġ -
0 0
3 2
Ġ l
lo at
.. /
C o
on t
c onst
L E
>} ;<
R E
ex t
Ġ h
S T
de r
/ <
Matrix X
, <
Ġ G
n def
b o
a d
if ndef
g e
st ream
. <
Ġ D
e g
Ġi f
< <
Ġc h
yp e
i r
Ġ >
Ġ N
er e
o w
A R
m ent
p ublic
Ġ j
A T
P L
p re
at a
e c
a s
/ *
Ġm atrix
** **
an d
al l
Ġ _
o t
e f
Ġ" ../
v ector
Ġp ublic
Ġb y
ate d
) {<
O R
u int
en er
Ġ 4
ut o
H ere
D E
io stream
Ġch ar
do m
= =
S t
se t
an dom
ra y
s ize
a lu
Ġ F
ĉ ĉ
h t
I M
or t
( "
mp l
Ġn um
I L
V ector
p ut
Ġ +
Ġ 3
Ġ L
el se
t ion
Ġ st
a se
Ġ R
b le
Ġ e
} ;<
Ġ* /<
f or
a ck
s on
h is
ct ion
R andom
//// ////
a p
g et
] ;<
i al
Ġ Q
Ġ x
P P
Ġ I
if def
Ġ @
Ġt o
- >
l i
o de
Ġ __
u ct
e w
Ġ B
ss ion
o g
y n
E igen
j ect
f loat
A N
Ġ U
pp er
---- ----
ul t
pre ssion
ĠĠĠĠ Ġ
it s
Ġ ar
a g
u e
I T
lu s
Ġf ile
A P
e m
re turn
ĠE igen
ener ated
at ic
p er
A C
u al
o s
lu sp
lusp lus
at or
str uct
ig n
ub le
Ġc in
() .
Ġ '
Ġa uto
F I
do uble
o d
c pp
Ġ arg
E x
an s
t h
er n
ter n
an g
s h
Ġ Matrix
1 0
co mp
ra pper
U L
Ġ r
la y
// /
o m
t t
" ;<
o ol
S E
u p
Ġ W
do w
M E
Ġ K
e st
o lu
re d
alu e
Ġ y
Ġg et
Ġs ize
Ġ= =
ER N
m m
Ġ H
l m
n um
Ġ /*
) ,
un t
1 6
ri de
Ġ k
lic ation
C T
" ,
Q U
in dow
pp lication
T he
ir t
c on
> >
Ġ MatrixX
r int
S tr
p ar
t ype
b ject
en s
o int
irt ual
bo ol
ex tern
p tr
w rapper
_ <
m at
M O
Ġo ver
it or
A B
a a
it y
Ġ de
I ON
olu tion
>// <
p yp
pyp lusplus
Ġf loat
2 0
IM PL
id get
Ġv ector
it h
<< "
o f
im e
E X
ĠK ERN
b er
on g
AL I
R O
i se
6 4
a ble
P ro
ut e
co l
un ction
f o
r or
: //
n t
" );<
v ent
v i
Ġb ool
p ro
) .
s er
**** ****
k ern
Ġover ride
Ġ> >
ro w
w ise
FI ER
i str
g in
b ack
i ve
ar d
ist er
Str ing
QU ALI
QUALI FIER
ar t
it ion
re f
Ġ O
p ri
E D
) ;
I C
lu gin
Ġ{ }<
o se
T O
I G
S H
e le
Ġ- >
an n
ce p
un s
B U
ĠĠĠĠ ĠĠ
h ile
p y
Ġ V
ens or
[ ]
++ )<
) );<
t a
Ġ !
L ist
d ata
Ġb e
Ġre s
a der
Co re
d d
define d
Ġg enerated
i mpl
v ate
li b
b its
f f
H PP
E n
en se
l l
am ic
Ex pression
a ge
Ġo ut
yn amic
T ype
is itor
Ġg lm
lo ck
an sp
T E
es s
re ate
o ur
C O
Ġ Vector
A r
++ .
a in
std c
G L
j son
t y
Ġp ro
istr y
Ġar ray
I D
ansp ose
u se
q u
u re
p h
U N
ul l
>} ;
ch ar
ign ed
> (
s c
AB LE
//////// ////////
in d
Ġj son
mpl ate
Ġ 5
m atrix
A D
u le
1 2
un d
Ġ ans
P E
W idget
Ġ uint
en g
IG EN
Ġ1 0
o o
alu es
us h
MO DE
Ġma x
D I
ar y
Ġm at
al se
Ġl ong
a ult
o ut
: \
Ġre g
at h
a c
F A
tr anspose
b u
t op
ĠS olution
ig ht
p s
u d
Ġ else
B ase
ĠC V
ĠT his
lay er
S C
h w
ĠĠĠĠĠĠĠĠ ĠĠĠĠĠĠĠ
le ment
a f
n er
Ġ defined
re g
-------- --------
y st
a st
D ynamic
or m
A pplication
ĠE IGEN
eg in
C E
N ode
Ġt r
uns igned
Ġ he
Ġ se
Ġ set
Ġw hile
yst em
IL D
num s
r c
Ġ };<
Ġco mp
a ct
f ile
t o
Ġ ex
ent s
Ġd ata
BU ILD
Ġ ,
in l
ce ss
W indow
de x
Ġnum s
i v
Ġt h
k e
V ER
h m
ro ot
Ġarg c
Ġst atic
Ġv alue
O bject
re e
Ġ def
FA IL
te mplate
C H
ate ment
an t
mm on
ar r
at ch
S S
n n
t on
Ġ X
or y
== ==
Y PE
Ġ and
std io
i b
St ream
() );<
lo hm
comp ute
lohm ann
ef f
L O
a b
Ġ string
Ġ' \
SH O
d i
D N
Ġ" \
UL D
SHO ULD
Ġt his
f ig
pri vate
h o
B o
U P
EX T
S ize
in k
st atic
/ **
X f
e mp
re s
Ġin put
ST R
E vent
() ,
Ġh tt
++ )
ma p
od ule
Ġf alse
a ce
Ġn ot
IT Y
DN N
Ġ double
ĠE x
++ ){<
rint f
IN G
> &
// <
er o
Ġarg v
C V
ĠĠĠĠĠĠĠĠ ĠĠĠĠĠĠĠĠ
ver se
cep t
C L
lo g
OR T
te st
G DNN
ri g
for m
D e
MatrixX f
a uto
() {<
ro m
w w
Ġh as
r t
Ġdef ault
Ġs um
A M
p ec
s ol
/** <
. /
U T
Ġv irtual
C ON
re ad
l y
s um
Ġ \
or k
Bo x
u i
LE M
ĉ ĠĠĠ
o b
TE ST
R e
f ont
n d
v irtual
++ ;<
n ame
AP I
Ġ* /
en der
> *
Ġ å
af x
() ;
Ġnum ber
v el
ve c
st ri
Ġc lass
Ġout put
i ew
d nn
Ġ& &
Ġ %
co m
c l
v al
Y S
p ush
stri ct
U E
AL AR
r ror
t i
ĠMatrixX f
our ce
g r
eg dnn
MatrixX d
er s
Ġ"../ ../
Ġc all
C on
ut il
AN T
Ġre strict
type def
Ġ In
ra ph
ar am
Ġco re
Ġn o
I B
' ;<
Ġ }
Ġ< =
ont ext
rig ht
on al
Ġ" ./
Ġg en
N ame
D ata
P ORT
de nt
Ġ+ =
EN ABLE
P AR
ht t
1 1
Ġ" ;<
Ġ1 00
Ġn ew
Z ero
er ror
ĠP y
g er
Ġar r
C or
Ġ 7
AC E
i p
vi ce
m s
Ġ ~
il l
ut ton
Ġp ort
O L
O n
Ġ J
per ty
aa aa
R ow
q ue
S c
en u
ff er
Cor ner
S L
u x
he ck
E T
G IN
Ġ include
t yp
Ġ 6
lo w
arg s
Ġa re
V iew
ĠMatrixX d
IN T
T o
an ce
Ġ |
am p
e y
RE G
f t
ir st
Ar ray
W Stream
t ter
Ġ> &
Ġtr ue
L o
D L
Ġ pa
en ame
A ME
O f
R eg
a re
c in
lo c
g en
yn c
os ition
c p
Ġ /
( <
] );<
p d
in fo
ial og
UL L
ma x
__ <
m n
v alues
Ġport s
op en
Ġd t
Ġi t
and le
P lugin
S ION
c b
lu tter
ri b
Ġb u
C h
< =
ma ge
C ol
T est
V AL
i mp
O D
co mmon
an ag
ĠP ro
m b
ad d
ta il
N ow
a y
Ġ un
Ġco unt
re ss
ĠM E
co de
Ġ #
Ġn ull
gr am
) )
ĠEx pression
] [
ĠG et
ä »
VAL UE
F unction
N EXT
Ġc l
re ct
M A
ar ray
Ġ" <<
ĠS t
er ial
is ion
******** ********
anag er
m o
arg v
ag onal
Ġ str
O B
Ġ ++
ele m
Ġ! =
T ext
r ame
Ġt est
W I
Ġ end
b ase
ar k
en um
co re
f ace
Ġ es
AP S
con d
> ()
er t
/* <
Ġreg ister
W IN
p en
ER AT
Ġbe en
ess age
D ef
un its
F or
Ġf oo
ĠC o
Co mp
G et
P IN
GL SL
N O
_ ;<
ĠC re
pre c
par se
REG I
U n
b egin
sol ve
2 5
t his
op t
Ġc on
igen values
eng th
>// /
p lugin
t ing
ri p
ĠME GDNN
a k
Ġc b
a ch
u st
Ġ le
ar i
ma in
A V
Ġ 8
D ense
ter ator
F ile
Ġ unsigned
or g
ĠS YS
In fo
M anager
Ġres ult
R ef
] ,
elem wise
0 1
o st
PL U
M enu
Ġn ame
++ .<
arg c
ĠG L
Ġ an
E LEM
s ync
Ġm in
ro up
ĠG enerated
S et
V isitor
i x
Ġof f
CT YPE
P layer
R es
T ER
ä ¸
Ġ 9
ut ho
utho red
S ON
il d
EN ERAT
it ial
AT ION
m e
1 00
E CT
l d
ex p
impl s
S P
em ory
K E
AR ITY
WI SE
ELEM WISE
4 4
L IN
i ro
Ġ al
ur r
prec ision
C K
Y ER
Ġ* <
PLU GIN
l ine
w ork
par ent
M ap
P oint
Ġd p
EN T
ĠA r
cp lusplus
Ġc reate
ENERAT ED
! <
lo b
arg et
o re
lu mn
set Zero
cep tion
Ġ| |
Ġnull ptr
Ġ q
F OR
co unt
o u
)< <
size of
is p
row s
VER SION
ĠCre ated
B u
B utton
c cept
æ ĸ
per ator
w ith
ri te
Ġp ri
u pp
g ed
REGI STR
//////////////// ////////////////
M M
ol ver
S h
bo tt
bott om
ĠG ENERATED
p rintf
Ġhtt p
Ġ RE
ef t
ers ion
m er
s rc
in put
M P
S Y
te m
ĠR eg
upp ort
I dent
D ialog
Ġn lohmann
reg istry
ä» ¶
L eft
if ic
REGISTR ANT
a ss
ĩ ä»¶
Ġd i
æĸ ĩä»¶
n ew
St atement
y s
ĠP RO
St ate
Pro perty
Ġ u
on e
.. .
Ġw ith
Ġp rint
Ġhe ader
ti e
R ight
i de
t ect
Ġc ont
mer ged
' ,
L IB
std int
for mat
m in
ĠA P
ĠAr ray
lu r
Ġf rom
htt p
n lohmann
Ġ struct
y mb
ymb ol
c reate
o v
Ġ do
at ive
all back
A S
N AME
o und
en e
orm al
ĠReg ister
n ext
Ġt ype
Ġl l
all s
Ġex p
A G
U R
s m
Ġs olution
A dd
H el
U LE
p oint
ce s
as k
c v
q rt
ĠS C
Ġw ill
bu g
R T
Ġv isitor
(" %
==== ====
T R
Ġm y
a pplication
c f
Ġv alues
ra ck
AN D
Ġ using
il es
up d
col wise
Ġth at
in ition
O P
x y
Ġ Z
Ġf irst
ro ll
>* /<
I d
l ist
v alue
on ent
Ġm egdnn
Ġp re
) :"
W R
g lm
o use
lo ad
Ġstd afx
J ECT
K UP
w indow
ra w
T D
a pp
k top
Ġa dd
la g
ign ment
E rror
ic i
In dex
in it
Ġs ub
ex ec
EN D
O T
Ġco lumn
eff ici
> ::
r y
Ġ );<
or d
C ont
E S
Ġy ou
ww w
b lock
f lutter
M ode
Ġv ec
W KUP
Ġon es
V alue
( (
N um
ch ur
typ ename
> /*
P ack
w o
ow er
ĠJ SON
ific ation
M y
S O
a i
ĠD o
Ġf unction
Ġs pec
pro ble
k n
y a
PAR AM
lob al
er ator
Ġo perator
con fig
A KE
P ath
c c
se d
Ġg ener
st ance
or ld
Ġ ed
Ġe lement
SC ALAR
Ġhtt ps
a red
p i
Ġt ri
Ġ{ };<
C PP
Į ħ
es h
und le
ĠSC ALAR
I tem
S pec
e vent
00 00
tect ed
L og
p e
Ġcl ang
l er
p ch
Ġs yn
sh ow
" ),
5 12
t or
t es
w ap
de red
le ft
li ent
D K
F rame
y er
on ents
RE AD
Ġb egin
ro s
O S
Ġs h
L ay
P RO
de tail
25 6
> @
I terator
int er
Ġt emp
lo se
Ġco l
il ter
ser t
ta x
DI O
ting s
j oint
t k
Ġi l
un c
Of A
parse Matrix
' s
I mpl
i que
"< <
Ġb undle
ol der
= "
d im
p ath
Ġa s
mm and
---------------- ----------------
di agonal
Reg istry
ing le
PL IC
ĉĉ ĉ
font info
ux g
l at
ic s
Co de
UN T
Ġreg istry
M odule
Ġ at
lic it
Ġ or
T ime
In ter
Ġy our
å Įħ
ize d
ĠN ya
Ġe ach
AC K
ĠNya an
T YPE
in ary
ri ver
Ġv im
ĠH WStream
Ġsyn tax
_ (
f er
or dered
isp lay
e e
le x
In t
Right Corner
PLIC ATION
F F
Ident ity
Left Corner
S ER
n o
v m
Ġi d
Ġco de
Ġo bject
ĠĠĠĠĠĠĠĠ ĠĠ
xy gen
M ain
g raph
std afx
Ġp rintf
AT E
[] )<
E lement
Q Widget
b s
o c
le te
an ge
do xygen
as h
p os
Ġi os
Ġp art
ĠE rror
AC T
Ġed it
T h
W AKE
] =
unt ime
rib ut
WAKE UP
m egdnn
E L
M a
un def
Ġco effici
ĠP WR
a ve
i as
do c
IM PORT
Def inition
P tr
ss ignment
s o
w hile
y am
z z
er ver
ut h
Ġv al
Ġ> =
Ġnumber s
OB JECT
G ame
H e
R ender
t il
la b
Ġe igenvalues
kern el
Ġcomp onents
c y
c ast
n ing
ile d
E M
X d
S ensor
class es
Ġl ib
DE CL
la ce
>} //
T H
] ]
ar ch
AT A
ĠI m
ab el
O W
g enerated
Ġ upd
im um
1 3
> ().
I mage
c ontext
Ġ root
ĠN C
ĠI D
urr ent
f unction
or iz
ma ke
Ġ [
// /<
9 9
ĠGL M
oriz ont
A RE
B O
F LO
H WStream
L in
U DIO
b y
eng l
orizont al
C ontext
S DL
u ce
ic al
t ime
ut ex
op engl
In it
ot al
ag es
Plugin Registry
W OR
k r
AR CH
ud io
P ar
u zz
se e
ra ct
Ġa pp
et work
LIN E
A n
] )
t og
Ġ ?
:: ~
bo j
ME M
ari able
l ength
H andle
O K
o ve
ic k
Vector Xf
of t
amp le
pd ate
F UN
N ULL
ct or
Ġt ime
Ġ* *
Ġco py
V is
j or
p ort
all y
( &
C pp
S olver
w ard
Ġ log
RE F
ĠVector Xf
ob j
8 6
Q Application
ç Ķ
lic ense
Con fig
k ht
un ter
ST UDIO
nd im
util s
ĠAP STUDIO
yam ov
kht yamov
A pp
t s
ĠĠĠĠĠĠĠĠ Ġ
ation s
Ġk ey
1 5
A SS
a v
g es
IL ITY
Ġ10 1
dim s
P aram
U C
pa ct
MatrixX i
typ es
Ġpri vate
! =
H orizontal
b l
c lose
if i
ĠC O
Ġpro cess
upport ed
< /
Ġs ort
Ġ1 6
iz ation
pd f
rip tion
" >
m l
s qrt
Ġ )<
an f
Ġ2 0
ĠN ULL
ĠQ String
Ġ@ }<
par am
En ter
DI S
Ġse ction
GLSL ang
é ¢
am er
Ġh ref
Ġ@ {<
Ġdefault p
add tog
Ġspec ification
GLSLang Spec
addtog roup
I P
and ler
Ġr andom
( __
F X
] ;
ç ļ
ul ar
MO D
form ation
Row s
l ong
en ce
Ġp aram
ĠS et
out put
res ult
lat form
K ey
se cond
EN SE
Ġw e
D i
T ree
ä ½
ex ception
Ġst art
C lass
G R
L S
S ystem
r yp
Ġs c
Ġp tr
Ġ( !
pri te
ud ge
( -
M B
S co
g ine
l es
Ġ ...
tr y
im er
IM E
ap i
Ġsize of
pro tected
OD O
sm all
kn ob
çļ Ħ
m id
st er
Ġre verse
Ġ( "
Co mmon
EX PORT
On es
G ET
L L
P C
T e
b ind
h older
å Ĳ
Ġs ource
Num ber
U til
i es
p op
t ri
ĠT ODO
eg er
AP PLICATION
htt ps
FLO AT
DIS ABLE
amer a
( _
C C
S pace
e p
ĉ ĠĠĠĠĠĠĠ
Ġf ont
Ġ* =
un ique
col s
M Y
m atic
ME GDNN
SP ACE
M SC
U I
a uthored
b j
al s
ĠA uthored
ĠQ Application
ĠB ase
Col s
My Application
C heck
g ame
å ¤
in al
et h
CO MM
pact o
" )<
r ary
s pace
at ure
re ak
ĠM at
Ġin it
ĠO pen
IC ENSE
çĶ ¨
X i
ri c
ist ribut
rack knob
{ {
Ġ z
li der
open cv
Ġexp licit
R ule
S e
s ktop
he ad
Co mmand
FI G
th read
act or
F ilter
L abel
P iv
t ra
ĠS ystem
Ġin dex
Ġpro ject
WOR D
> ;<
> /**<
E d
M IN
P ER
s g
Ġc la
En gine
bu ffer
2 4
g b
m d
n ormal
Ġ Y
CO DE
inl ine
+ =
B ar
j udge
m ark
s ub
ĠC ont
vi ew
Ġpa ge
Ġbu ild
exp r
tor ch
ACT OR
A f
O p
Ġ- <
ĠD e
om e
ĠW indow
use d
MA X
A ccept
F ont
Ġ= \
Ġs chur
ig h
ol d
Ġse cond
Col or
B IT
G raph
W rapper
g ui
t he
v isitor
re size
Ġc nt
() )<
ĠM ap
ap e
ĠIm pacto
H iro
M essage
S ymbol
[ "
è ¯
() )
id th
Ġreturn s
Ġh iro
ann el
Ġgener ate
H E
la st
-- ){<
Ġin formation
comp osition
comp iled
V I
V ersion
n ect
Ġ row
Ġm id
Ġre p
ex pression
In put
Co eff
di rect
> =
A l
Ġt ext
et ry
CON FIG
ĠSt atement
Ġ lu
Ġ define
Ġb lur
ex cept
ĠA ccept
ĠD ec
Ġauto matic
A ction
Ġ )
Ġ --
Ħ ç
co s
ĠC PP
En try
Hel lo
eth od
1 4
N T
] ==
o ck
Ġ 32
Ġ rows
he l
åĮħ åĲ
åĮħåĲ «
S B
T ensor
U M
l in
° Ĩ
Ġ IN
Ġ right
Ġp oint
iz er
proble ms
é¢ Ħç
A d
B E
I O
L ink
O ST
a le
d uct
ĠF ile
ĠU n
ĠW idget
AB ILITY
uth or
b ri
e igenvalues
t ensor
¼ ĸ
pa vel
Ġa khtyamov
bo ost
Eigen Solver
sol ver
Ġå °Ĩ
MOD ULE
è¯ ĳ
é¢Ħç ¼ĸ
Ġakhtyamov pavel
é¢Ħç¼ĸ è¯ĳ
H andler
t x
v k
Ġc heck
Ġw h
ĠF L
ĠL ist
sh ared
TEST ABILITY
NAME SPACE
REF ACTOR
REFACTOR ING
d p
o us
o bject
pa ge
ch w
ĠU i
nt ity
imp ort
UR CE
Mode l
å¤ ´
) )<
E YER
L e
m od
n ode
ľ ¨
Ġp ar
ver s
op erator
Ġno except
E B
in y
on d
ĠE yer
ĠF lutter
Ġcomp ute
ä¸ Ń
3 3
f c
r un
} ,
er vice
Ġs erial
and ard
ĠR ow
Pro cess
emp ty
) :
A FX
L ine
m v
il er
C A
N S
g or
¼ ķ
Ġ en
in sert
re sh
ic ros
Ġa pplication
et a
ĠS TD
Ġde lete
mo ve
Vis it
¼ķ çĶ¨
D ec
M at
P y
ä ¿
pa c
ĠA dd
ON N
as ic
G ener
S ub
f alse
s ystem
at t
Ġm od
ing D
ĠM ain
te mp
(" ");<
ĠI l
ĠU se
ĠW IN
De bug
Ġcol s
I R
U DE
er y
Ġin i
[] ,
CL UDE
For mat
SO URCE
) ,<
L ib
P AT
r untime
} }<
st art
Ġ" ]
ar ning
Ġn e
Ġf ind
Ġh ere
MatrixX cf
ac he
normal ized
S um
n c
y le
in dex
an k
Ġt arget
> {
A tt
B y
m odule
pa ck
ĠS parseMatrix
In itial
In stance
ĠO n
oo k
ke y
ĠPRO G
close Box
Ġautomatic ally
icros oft
. "
O r
R ect
T RO
f s
l ang
UL T
row wise
Row Vector
roll er
F IN
T ask
] )<
v c
reg ister
ab s
p ow
Ġ us
Ġ license
ut ure
ĠM OD
FI LE
sc anf
Pack et
Lin Space
LinSpace d
g ate
Ġ error
re p
et ric
el f
ens ion
Ar g
Window s
bri ef
Q u
h a
i ble
j p
m emory
le d
le vel
al loc
bu f
rib ute
imp le
ĠPROG MEM
on o
pa ges
Ġs rc
-- ;<
ang ular
C I
S I
Z E
g ener
h om
t ext
Ġ= "
Ġn ode
if y
im d
im ation
De vice
OL S
ass ert
Ġheader s
M esh
O ut
U pper
h normalized
o og
at us
co eff
Ġ1 2
Ġl ang
Ġl ink
ad joint
ĠL o
og ene
con v
qu are
top LeftCorner
UT TER
Ġ\ <
bottom RightCorner
ĠFL UTTER
hom ogene
homogene ous
M emory
Ġp er
bo ard
ow n
ĠI RT
ĠW EB
ition al
Ġhe ad
Bu ffer
oog le
L Y
c ur
c ont
d l
k en
w e
de cl
ĠS ize
ĠN ode
ith ub
Ġinclude s
* )
M L
g test
l en
et er
ER R
ĠL ICENSE
mat h
BU G
Ġhe ight
Comp onent
D es
Ġt otal
al ar
ver ti
ĠF unction
Ġfloat ing
Reg ister
open Horizontal
Ġbu ffer
AV E
Ġupd ated
G N
t ree
Ġp ush
un ordered
ĠA n
Ġin line
Ġl en
IT EM
font s
lin ux
ĠWEB PP
S p
U D
c std
Ġ ro
Ġf uture
Ġ( (
Co unt
======== ========
Lay out
rackknob r
B LEM
F E
L U
Q String
V ert
Ġm p
CT ION
Plugin s
**************** ****************
ĠPRO BLEM
Ġlang u
5 0
U pdate
b lur
c ul
e val
n ull
q ual
w idget
ic ense
un k
ĠE X
ĠĠĠĠĠĠĠĠ ĠĠĠĠĠĠĠĠĠĠĠ
AD ER
Ġserial ize
D OW
F act
G E
T ra
b in
Ġp lugin
-- )<
__ )<
AC ED
vi der
max Coeff
Ġprocess ing
ĠSTD AFX
M atch
se g
ĠT est
AL L
Ġst ate
om etry
ith m
sc ription
Text ure
lab el
holder Q
verti ble
c wise
h andle
p r
w are
in o
ĠĠĠĠĠĠĠĠ ĠĠĠĠ
ans form
Ġde composition
pro to
ain er
matrix T
oo st
ud a
Inter face
Th read
COMM AND
Le vel
2 1
R un
c cess
f ind
g ithub
Ġ uxg
le ar
Ġi terator
ĠS c
ĠC om
ĠM C
PL ACED
all font
sh are
Ġr un
ser ver
Ġgen allfont
gen pages
ĠRE PLACED
uxg genpages
Ġobject s
ĠCont ents
Ġbuild root
Ġlangu ages
0 3
O G
T r
j uce
s ys
er r
it map
IN CLUDE
ĠM odule
ON LY
sp ec
of f
Te am
Ed it
Q t
Q ue
S DK
n chw
le ase
lo ur
ĠC D
EN CV
Ġex pression
Ġit s
Function s
ĠRegister Plugins
" )
C onst
C lient
] .
b pa
d ing
p layer
Ġf ast
Ġf inal
la re
lic ate
ma ster
ĠA CE
ĠS tr
IN V
DE P
Un it
AG E
ĠMOD ULE
f irst
t arget
Ġ ONN
le ct
Ġb reak
lo op
et code
RE SOURCE
ap ed
ĠU SB
ern al
py bind
reg istr
aaaa aa
ĠPro perty
Ġcolumn s
He ader
A PP
F G
W ith
f uzz
h s
r r
de d
Ġc ase
le etcode
et urn
is ual
Ġin verse
uns upported
ingle ton
P er
d is
g l
de sktop
Ġst andard
ode l
Ġcoeffici ent
Entry Point
* >
E ntity
I V
T T
c d
o k
u mp
Ġ ent
Ġ qu
at es
Ġs olver
ĠP aram
ĠR e
ĠB aaaa
eng ine
ark ingD
Lay er
ĠList Node
aaaaaa arkingD
ĠBaaaa aaaaaaarkingD
ĠBaaaaaaaaaaarkingD og
2 2
G EN
c ro
g i
m i
de n
Ġv ersion
ĠC h
ĠQ Widget
ern el
ele ment
ĠWindow s
- <
> ,
F O
m it
ce d
le an
Ġi c
Ġt wo
Ġf ound
Ġs wap
ĠT ele
En v
Sc roll
istribut ion
ĠDec lare
ĠMain Window
Ġplugin s
> );<
A ctor
D raw
a ke
f ast
m y
m an
Ġ last
in es
am pa
it e
um ent
Ġd st
ĠD ense
Ġmat A
Ġcoeffici ents
ryp to
Ġ"] ^
TRO L
coeff Ref
seg ment
ĠTele gram
v ed
x x
st ract
al es
Ġa p
ate g
ch r
ĠM Y
ĠF ON
RO OT
GL OB
Cont roller
ĠRow Vector
H Y
M od
Ġf unc
ĠC on
Ġl ine
ĠO ut
Ġdi rect
window s
ifi er
PC FG
BE GIN
ĠCD PCFG
Ġic alls
0 2
5 5
D ele
S IM
V M
i mage
l ink
or age
ic h
std bool
Ġs u
ur ation
ble m
ĠV isual
Ġ/ =
ĠCO UNT
GLOB AL
A YER
G roup
T yp
U S
] +
a udio
Ġ .
Ġ ;
Ġ ui
Ġi mp
is c
IN LINE
ĠE n
ĠD ynamic
Ġch ang
St ride
tion s
ĠB lock
ĠU sed
CE SS
Ma x
by tes
G lobal
N ot
P ri
P ass
g lib
s wap
Ġf l
Ġp y
ĠC reate
num ber
ĠVector s
lement ation
//////////////////////////////// ////////////////////////////////
SY MB
TD ATA
proble m
Af ter
ĠFON TDATA
1 8
c i
m t
Ġt er
it le
atri ces
Ġp os
Ġ{ "
00 01
ĠR ender
art ial
Ġpro duct
Base Iterator
Re ad
amp les
inter face
OK ED
A ssignment
V er
h p
l im
Ġt op
Ġv fuzz
Ġs quare
Ġre ad
op r
RE S
ĠB O
UT IL
CON TROL
plugin s
Res ult
ĠRegister s
registr ant
0 9
D ATA
I X
S parseMatrix
l an
w ord
la ble
Ġconst expr
il ename
Co lour
ĠD es
Ġe qu
ser ial
ĠV ec
loc al
FOR M
INCLUDE D
T his
v en
w er
è Ģ
Ġ é
pa ir
Ġs ol
Ġp ath
ĠS h
th er
act er
PAR SER
Lo ck
main window
DEP END
ĠONN C
) /
0 8
= (
S erver
h ash
ï ¼
in verse
() (
et s
ĠL ink
top RightCorner
iny lang
gor ithm
resh aped
INV OKED
P R
s ign
le t
Ġp osition
Ġco s
Ġint eger
ver t
ĠM icrosoft
ĠL og
Pro vider
ull Piv
WIN DOW
bottom LeftCorner
READ ONLY
Ad joint
att ribute
elf Adjoint
SYMB OLS
) (
D X
P Y
S U
d a
w h
å ĩ
Ġ []
// {{
ro l
Ġco ales
ch ip
EN CI
ve lo
ME D
ĠVector Xi
qu i
AD D
DECL ARE
DEPEND ENCI
Ġcoales ced
DEPENDENCI ES
B lock
E yer
N orm
d le
f allback
i el
re a
ri d
le ep
IN ST
ĠT he
Ġin itial
bo x
ĠU bpa
ĠW orld
iv en
Re act
**************** <
SY MED
Hel per
Ġsub ject
FUN CTION
decl spec
ĠStr ing
E ST
N D
S ec
S YS
e ometry
m on
u ino
Ġ :<
Ġ" <
Ġ1 1
ĠP layer
Ġl m
IC ON
CO RE
Ġ100 0
que st
ĠSYS ROOT
ĠMC API
0 5
1 7
N E
T imer
e mplate
s ort
re al
Ġ* )
Ġb ut
Ġma y
el if
ĠT ensor
ĠR un
ari ant
graph ics
nect ion
Al loc
iel d
" :
1 9
I S
R UNT
S SE
U SE
f iles
f lag
i a
m essage
æ ł
Ġ low
Ħ å
Ġ" ,
is h
Ġ{ }
Co m
Ġby te
Ġ4 0001
ĠF or
ĠL IB
ang le
", &
Ġ100 1
Sc ene
For ward
Ġq r
Arg s
Ġter ms
hp x
RUNT IME
C S
M ouse
N o
R Y
V ec
t able
Ġ all
ĠD ef
ef ore
AN N
AC H
ĠO bject
CO MP
Ġan y
Sh ader
chr ono
P rint
T ri
c s
i ce
w ri
w rite
æ ĭ
re ction
Ġm sg
it erator
Ġ2 01
ĠN ext
DE BUG
ĠMatrixX i
Con d
ĠCo mp
GN UC
Vert ical
F l
P T
P RE
k s
t wo
Ġf lag
it ch
Ġb ase
he d
Ġon nc
el l
ĠP A
ĠD i
ĠR eturn
AP ACK
tt en
able d
ĠĠĠĠĠĠĠĠĠĠĠĠĠĠĠĠ ĠĠĠĠ
Ġun ordered
Add ress
hel per
Des c
X Xf
b e
m utex
r ender
¯ å
æ Ń
Ġ ::
Ġ load
re verse
ro und
Ġo p
ĠS prite
IN K
Ġw rite
ĠH E
Ġth row
Ġdi ag
angular View
A Y
B asic
_ .
c nt
g tk
v is
æ ī
or lib
Ġf iles
Ġp latform
ĠS T
Ġd isplay
ist ance
ĠN um
qu ent
sc orlib
rip t
Ġcont ain
ouse holderQ
rr g
ateg y
a ir
l f
Ġ enum
or der
al ag
Ġs ave
ur face
Ġo s
Ġ1 5
St yle
AC Y
12 8
Test s
>() :"
AV X
bottom Rows
Ġtri OfA
left Cols
fer ence
Par ser
Link Definition
rep licate
Fl PluginRegistry
alag ard
A rea
I RE
N ON
U i
p u
Ġ ext
st atement
Ġv ariable
Ġs y
ma jor
ER T
im g
ul es
Ex ception
Ġfunction s
Util s
vers ion
Dele gate
" ,<
* ,
: (
P osition
T able
c ase
c stdint
g le
i ss
ĉ ĠĠ
Ġ IMPORT
in s
de scription
on se
Ġm scorlib
Ġn on
Ġt ra
Ġf c
Ġs ingle
Ġa bs
ĠT h
ĠP LS
Ġl ength
og onal
AN G
ĠVector Xd
Ma jor
SI ZE
velo per
" ;
" ));<
S erial
b ias
c atch
s in
¡ æ
æ ĺ
re en
co py
al gorithm
Ġa ssignment
ĠE YER
Ġmax imum
Ġex ec
util ity
ĠIn it
que ue
Ġcon fig
ust om
Log ger
Render er
FUN C
& )
( !
( '
4 5
C amera
D WORD
L OR
O pen
R C
U p
W e
c ir
f d
k an
r up
» å
st ack
int ernal
Ġm essage
co der
Ġs z
ĠM atrices
Ġd istribution
ĠQ t
dow n
SH R
atch er
STR ING
Set tings
ä¸ º
Ġlog ger
c al
l it
{ "
Ġ inc
en ch
co pe
Ġb oost
ol low
ĠĠĠĠĠĠĠĠ ĠĠĠĠĠ
Ch ar
Bu ild
ä½ ľ
Dec l
Fact ory
Ġsol ve
ï¼ Į
> ();<
A nd
B e
C all
C allback
F IL
N ew
a x
d ir
ç ±
Ġ ;<
Ġ am
Ġ use
in rt
Ġs ervice
Ġp layer
Ġ1 9
ĠS ub
Ġon e
00 0
LE G
ĠG ame
ĠG CC
ĠR es
tern al
Event Args
çļĦ æ
' <
/ ****************<
3 5
A uto
F S
I s
J son
b pp
f p
n v
on es
ter min
Ġin f
ĠD river
Ġj ust
pro cess
ann er
Ġpro gram
To ken
MA IN
Res ource
Ġupd ate
CA SE
Ġdirect ory
3 0
: "<
A bs
I con
O bj
P O
S lider
a it
c heck
e igen
f ix
g ress
n orm
p rint
Ĭ ł
at er
int eger
def ault
Ġt yp
if f
Ġs s
Ġs ide
ur l
Ġb efore
Ġa ss
Ġo ther
ĠĠĠĠĠĠĠĠ ĠĠĠĠĠĠ
Ġw ork
ĠD LL
AT SHR
par ser
Ġ10 2
Ġpa ck
Pack age
Ġsh ort
Par ent
ĠHE ATSHR
ĠHEATSHR INK
D U
H AN
I mp
f r
o stream
s imd
º Ĳ
é ľ
ŀ ĭ
in fer
lu a
Ġc an
Ġp i
lic k
ĠC lu
Ġin vertible
ON G
Ġl ist
ĠD ata
ĠL L
QU IRE
col or
Ġcont ents
Main Window
BO OL
Ġcopy right
artial Player
æł ĩ
7 4
A s
A ll
F L
F loat
F rom
H ouseholderQ
M in
P lay
] <
c lude
Ġ INT
ģ ¯
st ate
Ġn orm
Ġs in
Ġco m
Matrix Functions
ĠS e
Ġw idth
ĠD E
ĠL icense
ĠI DI
GL M
12 13
Ġå ı
ms g
Ch annel
åĮħåĲ« æĸĩä»¶
ä¿ ¡æ
ERR OR
Ġequ ation
files ystem
»å ŀĭ
ä½ľ ä¸º
ç± »åŀĭ
ä¿¡æ ģ¯
! !
D isplay
H AS
L ength
S V
S elfAdjoint
U RE
] <<"
b it
c lient
{ };<
ª åĮħ
¬ æłĩ
Ĩ åĮħåĲ«æĸĩä»¶
Ġc or
Ġn ext
Ġs upport
Ġp op
Ġma p
ĠC H
il der
Ġw arning
Ġh ess
Ġh andle
AT CH
ĠU pdate
ĠMatrixX cf
ĠĠĠĠĠĠĠĠĠĠĠĠĠĠĠĠ Ġ
ly On
ä¸ į
work space
Di agonal
ä½ ķ
åĮħåĲ« é¢Ħç¼ĸè¯ĳ
Ġå°Ĩ ä½ľä¸º
Ġå°Ĩ åĮħåĲ«é¢Ħç¼ĸè¯ĳ
é¢Ħç¼ĸè¯ĳ å¤´
ĠDense Index
åĩ ĨåĮħåĲ«æĸĩä»¶
æĭ ¬æłĩ
rup t
ench mark
çļĦæ ºĲ
Ġåı ªåĮħ
ç±»åŀĭ ä¿¡æģ¯
SelfAdjoint EigenSolver
Ġhess OfA
lyOn The
Ġå°Ĩä½ľä¸º é¢Ħç¼ĸè¯ĳå¤´
Ġå°ĨåĮħåĲ«é¢Ħç¼ĸè¯ĳ ç±»åŀĭä¿¡æģ¯
åĩĨåĮħåĲ«æĸĩä»¶ çļĦæºĲ
æĭ¬æłĩ åĩĨåĮħåĲ«æĸĩä»¶çļĦæºĲ
ĠåıªåĮħ æĭ¬æłĩåĩĨåĮħåĲ«æĸĩä»¶çļĦæºĲ
ĠåıªåĮħæĭ¬æłĩåĩĨåĮħåĲ«æĸĩä»¶çļĦæºĲ æĸĩä»¶
2 8
G B
M AP
c urr
n ost
o lo
r andom
v ar
Ġ used
in f
Ġc ur
Ġc urrent
Ġm em
ar m
ent er
Ġg ame
ed Property
ĠN o
Ġby tes
ĠI P
ĠI t
Str ategy
Ġtest ing
Property Base
mark er
ĠDe veloper
alagard PropertyBase
æĺ ¯å
( *
D ER
M utex
N ative
T arget
W orld
b float
d ialog
e ature
f n
n ow
é Ļ
Ġf ollow
Ġs erver
mp ty
Ġ( *
ĠE vent
ĠT ype
ĠP rint
ul kan
Co unter
ĉĉ ĉĉ
ĠI s
ĠU I
struct or
Pro gram
ll vm
LO G
Ġ100 0000
mo ck
Ġmin imum
ĠRE QUIRE
by te
å¤´ æĸĩä»¶
man ip
æī Ģ
9 4
D o
G UI
T ool
p th
u ff
pa re
Ġv m
Ġre ference
il ity
op tion
ON T
ĠG oogle
AN CE
Ex t
Ġtr y
CL ASS
æŃ ¤
' )
* /
B inary
C P
G ui
I AL
S parse
a z
c ache
m em
u id
Ġ æ
er iv
ĠT o
io manip
Ġin sert
RE SS
ge mv
ir on
set up
ĠR UN
fo o
ff ect
val id
Ġelement s
pos itor
An imation
ĠModule EntryPoint
éľ Ģ
ĠClu b
æŃ¤ æĸĩä»¶
A K
C reate
F lag
H AVE
N v
U ser
w itch
» ä½ķ
å ¼ķçĶ¨
Ġ stream
Ġ ä¸Ń
Į ä¸į
Ġs bl
Ġs ome
Ġint o
ĠA M
Ġ2 4
ST D
bo ut
St ack
Base Element
LO C
Ġhas h
Ġå ľ¨
Ġå ¼ķçĶ¨
Ġun der
ä» »ä½ķ
Ġle ft
TH READ
çļĦ éĻ
ľ¨ æŃ¤æĸĩä»¶
ä¸Ń å¼ķçĶ¨
Mat erial
Ġne ed
èĢ Įä¸į
Ħå Ĭł
æĺ¯å ľ¨æŃ¤æĸĩä»¶
æīĢ éľĢ
iron ment
Ġå¼ķçĶ¨ ä»»ä½ķ
çļĦéĻ ĦåĬł
èĢĮä¸į æĺ¯åľ¨æŃ¤æĸĩä»¶
æīĢéľĢ çļĦéĻĦåĬł
Ġå¼ķçĶ¨ä»»ä½ķ æīĢéľĢçļĦéĻĦåĬł
èĢĮä¸įæĺ¯åľ¨æŃ¤æĸĩä»¶ ä¸Ńå¼ķçĶ¨
Ġå¼ķçĶ¨ä»»ä½ķæīĢéľĢçļĦéĻĦåĬł å¤´æĸĩä»¶
" ]
; ++
P I
V al
c lock
c urrent
h ide
p ed
r l
Ġm x
al ias
Ġp Object
tr ue
__ )
Ġd river
St atus
vi de
Sco pe
Ġpar ent
ĠBO OST
ĠDeveloper s
) ->
B ow
I LE
M on
M AR
N UM
P UT
S ort
_ );<
m ul
s z
w n
Ġ extern
or ch
ra in
Ġp ower
ĠT r
im es
set tings
ht ml
MO CK
<<" *
uns Sco
alls Bow
ai lable
so le
ick ets
ĠOpen CV
HE ADER
PAT H
eriv ed
positor y
unsSco red
allsBow led
* >(
A ST
E IGEN
L ight
P os
S urface
V O
n on
n ot
u do
in ue
in stance
re q
or ter
() -
Ġt able
Ġs ensor
Ġp lease
IN FO
ĠM A
St d
IG H
add ress
LIN K
SIM D
wri tten
Build ing
termin ant
> -
D DK
H ash
J SON
L u
P ower
a w
f unc
g ic
g it
g mock
s lider
st ampa
at om
Ġt emplate
im al
Ġ2 5
vector s
Ġr ender
ĠArray XXf
tri angularView
Gener ic
Que ue
Typ es
Ġchang es
RES ULT
ĠNum ber
DDK Ver
b um
c all
h ive
m ult
y os
y sc
Ġ ra
Ġm ove
le ction
() ).
Ġi dent
ĠA l
__ ((
ch ive
00 7
ST M
AR Y
ĠF EX
up o
mm etric
Re al
OP ENCV
ĠStatement List
ĠDes ktop
yos upo
2 6
R ad
c name
f ullPiv
m ethod
s k
s ensor
ç »
in itial
re ment
Ġc atch
Ġm ess
Ġm gb
Ġn etwork
co a
Ġv is
ine d
Ġs ign
ig it
>// !
Ġ1 3
iz able
te le
ĠL ib
Ġe vent
ans l
ĠW e
20 20
top Rows
ho st
ING S
Re ader
right Cols
-------------------------------- --------------------------------
Ġ(" %
cstd lib
cul ant
cwise Abs
proto col
INST ANCE
cir culant
) );
B I
D own
P ort
b i
e ar
g round
h as
w d
Ġ IL
en cy
Ġa c
Ġon ly
ĠT ext
comp lex
ĠPro gram
100 0
upd ate
kernel s
Att ack
wh at
ĠLL VM
A I
B ack
E CK
J OR
M gr
R o
R ec
d uino
r am
s ource
s bl
} };<
le vk
>// #
Ġg lobal
op y
LE D
ST ANT
Ġst atement
Ġ' ;
SH ARE
Lo op
MA JOR
Def ault
no alias
Ġwe bpp
BIT S
Format ting
Or der
openHorizontal hide
Ġsy mmetric
nost ic
openHorizontalhide Box
C atch
F uzz
L ANG
b lob
c he
d ate
g n
m esh
t otal
de vice
lu ding
Ġ" (
se lf
it em
he ight
mp t
ma c
ĠP ack
ul d
ST AT
AR D
ĠL APACK
Ġst ack
ĠQ W
SE T
Ġover written
Ġde tail
log ger
CON V
DL L
Ġbu g
actor ial
tx t
Assignment List
Ġdiag nostic
VO ID
' t
T emp
W ND
b g
b ar
c le
f rame
k y
Ġ lo
en v
er ase
or ary
() {
Ġf old
Ġa f
ĠA uthor
Ġma ke
ĠC onst
IN D
IN Y
ĠT R
ĠP L
li p
ard ware
CH ECK
imp lementation
Comp lex
ĠSet tings
istribut ed
MIN OR
Ġwh ich
Header s
Cond itional
I t
M T
N et
O nn
O perator
S D
S prite
Z Rule
_ ,
b d
c la
i e
u ction
ĉ Ġ
ĉ ĠĠĠĠĠĠ
st m
re sp
Ġt orch
al ind
Ġs lo
Ġint er
ĠS cope
ĠC ol
ĠM y
ĠG B
PL AYER
/* !<
(" \
ag ing
AP H
Ġpro tected
af e
ant s
ide o
Out put
null ptr
opr s
Ġtyp ename
Onn x
> **
A ct
F T
F ACE
M ove
P art
P ush
b utton
e lab
f rom
p lay
x vk
Ġ ^
de bug
Ġc pp
lo y
mp ort
ĠS DL
ed itor
ĠP artialPlayer
te ger
Ġfor mat
ST EM
li mport
Ex pr
olu te
rom e
Ġsh ow
Ġcol or
ĠEYER LIB
FIL TER
option al
Nv Onnx
MAR K
Catch ment
NvOnnx Parser
" ))
* /<
, -
D ate
D is
K EN
Q Object
d ll
m eg
r oid
u ard
Ġc v
an ity
Ġs ystem
Ġb it
Ġb lock
ĠA pp
ĠS ee
ĠT EST
const expr
IM P
ĠL O
ME TH
red uce
Ġk ernel
pri me
Ar duino
INT ER
Ġal ter
Ġadd itional
Cont ainer
Value List
Tree Node
Ġpoint s
Env ironment
ĠRun ner
ĠReturn s
ĠIMPORT ANT
gic p
0 4
E Q
O UT
P age
Y TE
h ys
m int
m ut
n g
t im
} );<
Ġ è
Ġm odule
ct l
it er
Ġb ind
Ġb inary
lo ader
Ġco unter
In st
ST ER
ir d
as bin
ot ify
DE FIN
ĠF a
IT E
Pro ject
Pro gress
ser vice
emp lace
res sed
Lo ader
Ġun it
Bu ilder
Dialog Headers
AND LE
Lin ux
tra its
ĠTensor Layout
atom ic
BI AS
ĠPack et
METH OD
8 8
G eometry
M AC
M ac
U ID
V ariable
W rite
a co
al ph
Ġs p
Ġb ar
Ġre move
ent ity
ĠS E
is f
ĠE nd
ver y
ĠP ri
ul Expression
Ġw indow
Ġl i
pre comp
lay out
Ġde sktop
ber g
vi or
Ar chive
ID GET
iv Expression
ho use
PAR AME
Ġ100 00
ĠPro cess
Ġparam s
GR APH
CODE GEN
Af x
ha vior
ĠLo ss
mi ssion
stract Expression
ysc alls
Ġaf ter
alind rome
loy ee
PARAME TER
2 00
E W
E qual
P ress
Q R
S ervice
S imple
S ingleton
T ab
a uthor
b inary
} )
ut or
se udo
an el
he at
ĠA R
RE AM
ĠG tk
OR Y
IT H
os io
ĠH e
EXT EN
Ġ"../../ ../
GR AD
cstd def
Be havior
LEG AL
nv infer
tele gram
H olo
M sg
P MP
S chur
T ACH
V ar
c uda
g tx
h igh
r and
t desktop
Ġ 64
en berg
er Stride
ic ial
Ġf rame
is Unit
Ġd is
ĠN S
AR GET
ot h
St art
St orage
set Random
ĠI f
Ġde c
<<" \
ĠO P
ess enberg
Ġmat B
CE PT
Ġhe l
REGI STER
Ġoff icial
app lyOnThe
gener ic
lick ed
Building Holo
fullPiv Lu
Ġmess aging
Ġslo ts
telegram desktop
isUnit ary
) +
* );<
3 6
F unc
L I
L ook
R ARY
T rack
e ks
p ool
s d
v ailable
er ative
Ġc uda
Ġi mage
an o
std lib
Ġp q
Ġre l
Ġa d
-- -<
ĠS DK
ĠC heck
Ġh ive
Ġh ave
ĠG raph
ge eks
Ġe igen
ERN AL
pro ject
Ġ} );<
Row Major
BO OST
Ġ20 20
second s
Te mplate
By te
openHorizontal Box
IV E
mit ive
LOR A
HAN A
Ġcor resp
Ġcorresp ond
2 7
B ro
C urrent
K it
M AN
P op
m odel
o ver
v a
Ġ up
Ġf s
Ġf ib
Ġs imd
ro x
ro y
us ion
Ġw inrt
Ġ_ ("
Ġ4 2
== =
ĠR F
Ex port
TO KEN
[] )
ĠIn ter
base d
NO DE
exp licit
ĠAP PLICATION
Ġll vm
Ġpre v
diagonal ization
Ġsc anf
expression s
Com bo
ĠLIB IL
fr ont
aco bi
& &
3 7
; }<
B YTE
O ver
S OR
S ign
S yscalls
a ction
c allback
o unt
z il
Ġ" )
Ġ" );<
Ġc p
Ġc al
it k
Ġs qrt
Ġb utton
Ġre size
Ġre qui
>// ////////////////////////////////////////////////////////////////
ĠS P
ĠP ar
im gui
Ġ& )
LE AN
Ġh igh
bo ai
uint ptr
Ġchar acter
th ree
ĠW ork
DI AL
ib ility
LEM ENT
ĠPro file
WIN NT
Sh ape
Ġcont inue
init e
PRO CESS
TYPE S
COMM ON
hel lo
Initial ize
Const BaseIterator
lan e
Ġinf rt
ĠConst BaseIterator
Operator Type
zil la
* (
9 5
A t
B itmap
D im
M PL
O M
P S
S ource
S ample
on line
lu ster
le m
Ġt inylang
Ġt imes
pa d
mp loyee
ed i
ch ain
ĠP oint
Ġin st
ation al
as n
Ġar m
ho uld
ĠĠĠĠĠĠĠĠĠĠĠĠĠĠĠĠ ĠĠĠĠĠĠĠĠĠĠĠĠĠĠĠĠ
Ġcall back
Ident ifier
TR ACY
Ġtri diagonal
Ġus er
Ġro t
lim its
Imp orter
Ġ1000000 007
ĠOP ENCV
! "
& );<
C G
F orm
H P
L ower
M ethod
S IG
V ENT
W in
Y ES
a iz
b rain
f a
f ree
h al
h and
j sp
s ymbol
Ġ label
at ile
Ġm odel
Ġt mp
Ġre sp
Ġo pen
ĠA pow
ĠS H
ol atile
ĠC HE
ĠT ree
ĠT INY
Ġ> (
IM ENT
Ġst o
Ġe mpty
ĠH AVE
Ġde st
SC AL
VERSION ED
LIB RARY
function al
App rox
PER IMENT
Py API
gener ator
Que st
Scroll Bar
Ġ19 00
meg brain
online judge
aiz u
PERIMENT AL
8 0
A SE
D up
I ts
L ast
M an
P TR
R ange
R untime
V AR
c m
e ed
m ode
v v
v tk
w string
Ġ /**<
Ġ" -
Ġc rypto
Ġm emory
ri ter
ri ve
() :"
Ġn ormal
Ġs anity
ect ion
un i
ub e
ĠA V
ĠS ensor
is hed
ol y
Ġg o
Ġg em
IN TE
ĠE E
ĠP ublic
Ġ{ {"
ad cast
ĠN ET
EX PERIMENTAL
Ġset Text
LO CK
res ource
Player s
]] ++;<
mid dle
]== '
dl limport
6 2
6 6
< >
D ONT
F eature
H O
P ACK
S PE
S core
W E
] >
a ive
k er
n etwork
v ariable
w orld
Ġf allback
Ġs low
Ġp o
Ġo ai
el ine
il t
EN SOR
sp rite
AR N
ĠB u
th on
up Menu
olu me
Pro blem
ac y
Ġtr mv
Ġoff set
MM atch
Property Definition
oc us
Ġapp end
ifi ed
Ġblur x
Or th
DEFIN E
mission s
3 9
9 0
D B
D et
F ast
G M
P U
S qrt
S izable
a uth
a cos
ar ound
an a
an y
Ġs amples
ur s
Ġp ow
rag ment
ĠM O
ĠP a
Ġ2 3
ĠF ont
ort h
ĠB inary
ĠU INT
comp iler
Ġr d
Ġr hs
sc rib
Ġse arch
Ġex ception
Ġth read
di us
TEST S
com es
INT ERNAL
exp ort
Ġal so
OP EN
Graph ics
FIN AL
Tr ansform
element s
ĠCon fig
ĠEn ter
Rad io
ĠLib rary
HP X
" );
7 8
I RT
L icense
O ff
Q W
a ut
d river
f actor
g lobal
j o
w et
Ġ ç
Ġc asbin
se c
ing s
std def
Ġs o
Ġre t
et ad
tr ansform
op tr
Ġ- *
Ġh d
ĠD WORD
Ġ3 0
ĠL P
Ġe qual
ap on
od y
Ġde terminant
List Node
Ġth in
ĠCre ates
rip tor
ENT RY
Ġdo c
PRO TO
Ġ[ "
Ġ20 22
Ġrep lace
mod int
Lib rary
rid ge
PRE COMP
Desc ription
Std Afx
Push Button
CEPT ION
DIAL OG
aut optr
" _
# #
3 1
C luster
D P
E O
E ffect
F R
H WND
L ICENSE
P air
S ync
V E
W idth
] !=
c stdio
f mt
p onse
r ange
s rrg
u it
è ¤
ri ved
Ġn ow
co unter
Ġv ar
it ies
Ġs hould
he ma
ent t
ent ation
Ġo bj
ĠS ymbol
Ġg iven
ĠC ode
IN IT
ver ter
io us
ĠP osition
Ġw ord
sp t
ĠG lobal
AR G
Ġar ch
>> &
ive c
Ch ange
Ġle t
Ġdi agonal
AG ER
99 99
Piv HouseholderQ
gb a
================ ================
ĠCom m
ĠParam List
ĠOut put
ĠOut erStride
isc ard
sign als
Ġabs olute
Flag s
ĠTINY LANG
( ...
A ccess
C ache
D C
I l
N ormal
T I
T S
W ARN
] ){<
d b
f ilename
l ta
s chur
at ing
er ic
ut able
Ġc es
al le
Ġs rrg
Ġp b
Ġp m
Ġp Widget
la p
ma cro
Ġ1 4
ĠA uto
is Zero
is Identity
is Ones
is Diagonal
is Approx
is Orth
Ġg es
ĠM essage
Ġw ish
AL LOC
Ġh c
as set
St atic
ĠF ILE
ĠR ef
Ġe iv
for ward
ĠQ Dialog
ĠI mage
th row
comp onent
matrix H
ner Stride
ĠĠĠĠĠĠĠĠĠĠĠĠĠĠĠĠ ĠĠĠĠĠĠ
Row VectorXf
Ch ain
KE Y
FOR CE
ĠArray Xf
Code c
Cpp Generic
Ġ... "
Ġschur OfA
VI EW
adjoint View
ĠLo ad
tree Wrapper
ĠProperty Definition
Ġsu per
SU B
ANN EL
Tri diagonalization
ĠMA X
IGH T
self adjointView
Project ive
ĠGtk Application
EXTEN SION
ĠSDK DDKVer
ĠWork around
ĠCHE CK
etad ata
isOrth ogonal
Ġeiv als
( {
3 4
6 0
6 8
A x
C opy
F ree
F ield
M ask
U s
V IC
V olume
] *
b reak
b stract
c a
d ry
i ps
s amples
v ariant
Ġ orth
in Box
en code
re quent
Ġi g
Ġf ilename
do t
ĠA SS
Ġ( &
Ġ( __
arg est
Ġin fo
AT H
set w
ĠU Int
IT ION
em o
Ex p
Ex ec
EX CEPTION
ĠV ersion
ess ion
FA ULT
Ġset up
CH AR
cl ang
ĠIn itial
Sc ript
Lo ss
Lo ad
imp erative
ix ed
Ġu pper
Ġadd r
kn own
"<< "
He ight
Ġ[ [
Init G
ĠBase Element
Ġz ero
PER F
pac a
ĠParam ValueList
ĠCh unk
serial ize
React Package
Ġass ert
Ġwork space
Mon itor
ĠASS ERT
' ;
A udio
D O
F ind
I ma
J ob
M icrosoft
N G
N ull
P lace
T FE
Y Z
c ryp
c lear
d x
d mat
e pi
g om
i um
j ac
l ess
n od
p osition
s i
t c
in vertible
Ġ= <
ri end
Ġn aive
Ġs m
Ġre pository
Ġa vailable
he el
ĠA khtyamov
ĠS erver
++ ;
ch er
ĠT ime
io me
In verse
ext ension
ĠN OT
Vector Xd
sh ape
ME AN
Str uct
par ator
row ser
UN K
Sc alar
ert ex
Sh ared
ĠAP I
EYER AV
FORM AT
Ġé į
ADD RESS
Alloc ator
ĠTr anspose
Linux Syscalls
ĠPa vel
Ġorth ogonal
requent ly
nod iscard
' )<
> )
B L
C mpt
L en
L ONG
M ath
R L
S u
S ele
W ork
[ [
a use
c ce
d c
f wd
h i
l p
s low
¥ å
at tern
se arch
Ġv iew
Ġf a
Ġf un
he st
he ader
Ġco mb
ex ample
ĠC ON
ĠM ove
Ġl p
ont gom
ge mm
ĠN ame
ĠL abel
ĠL OG
Ġarg s
con f
RO W
sc alar
Sc reen
Lo cal
Sh ow
Ġor ig
Ġlib rary
Di rection
Op tions
VI DE
ĠDec l
Ġpar se
Process or
oogle Test
Sec ond
Call Expression
---------------------------------------------------------------- --------
Ġsto red
InitG oogleTest
ontgom ery
. \
2 64
6 5
A A
B IND
C X
F irst
F ound
G iven
H ANDLE
K CPP
P re
P LE
R A
V ariant
s se
s qu
t l
t ag
w in
å º
ĉ ĠĠĠĠ
ĉ ĠĠĠĠĠĠĠĠĠĠĠ
Ġ utils
Ġ loop
in ished
on n
re move
Ġ" /
ut down
() :
pa use
ra i
Ġs a
he x
ig its
Ġma cro
ĠP AR
ul ation
ul let
Ġw char
ĠG LE
PL S
PL AT
as on
DE FAULT
ĠF iles
ĠU til
ĠW rite
ĠH Y
Ġde vice
En abled
qu ence
Ġse lect
ĠIn clude
ak en
point er
Cont rol
Ġid x
Se parator
Model Importer
Gener ator
PAT CH
we ak
UTIL S
Ġcom ment
Ġminimum Size
ansl ation
Ro ot
GRAPH IC
2 3
2 9
4 8
A bout
C M
D Y
D ir
L AB
N etwork
T IME
U rl
b a
c py
e ad
f un
m es
p l
de rived
Ġ" ";<
ut s
Ġc urr
Ġm ouse
es ky
se lect
id x
he et
-- )
et ter
ig hest
ent al
ĠS ource
ĠS imple
ol esky
ĠC lient
ĠM enu
ĠM ax
const ants
ĠD raw
<< (
pre s
get char
ME SS
BU FF
En coder
Ġ5 0
Ġans wer
res ent
CON D
ob s
Re quest
ET H
Ġal ias
Ġpri me
SY STEM
TR A
Ġsc alar
sub str
Line Edit
ä¿ ĥ
ĠSh ow
Ġlow er
Forward Impl
ĠTh read
Bro adcast
Ġresp onse
SCAL LS
, &
B ody
C al
C RY
D S
F alagardPropertyBase
G x
O DE
T itle
T ARGET
b f
c amera
c math
d isplay
d iff
e am
h ana
n ames
v ulkan
w arning
| |
} ,<
Ġ local
on ac
ut f
es aw
() ){<
ic le
us er
um ents
ĠA pplication
ĠS ingleton
Ġ// ////////////////////////////////////////////////////////////////
yp edProperty
//// <
ĠT ypedProperty
Ġd ynamic
EN U
Ġw ant
op s
ge st
ĠD erived
ĠF alagardPropertyBase
per f
sh lib
Ġr ange
ĠK ey
Ġy y
par ty
ens ity
pro d
Ġdef ines
Ġbu f
Ġcl one
NO W
Ġle vel
Menu Item
Res ize
)<< "
Property LinkDefinition
Ġdo es
App Config
Ed itor
sub missions
Ġmid dle
Initial izer
ĠProperty LinkDefinition
IV ATE
Ġent t
ĠRe ad
Typ edProperty
WINDOW S
Ġ[] (
React Native
ĠComp onent
SHARE D
mac ros
ĠLO SS
reduce d
Pop upMenu
ĠTree Node
INTE GR
PACK ET
WE AK
ĠComm and
PLAT FORM
DY N
onac ci
& ,
7 9
B ool
C R
C UD
I m
L IM
L AYER
O SCALLS
P TO
S UC
S ection
W D
] -
] ++;<
a res
c string
f ilter
i an
l t
n an
n able
p ower
s wer
u ra
w idth
on y
at ern
re la
or ity
Ġm ode
ri t
co ding
it ive
ra ft
Ġs ymbol
Ġa g
Ġa ct
la d
la s
str uction
Ġco mmand
IN LIN
ed ia
In teger
ist ory
ĠU String
Ex it
ang ed
Ġr and
pro perty
ĠO p
ĠV alue
En d
ess ages
CO DER
oo lean
Ġmax i
Ġcomp il
LO ADER
CON STANT
ENABLE D
ance l
Test Main
ĠPro ject
Ġprint re
ĠRegister Tests
Ġgener al
Ġgener ator
Ġval id
Di rect
Ġen abled
Qu ant
Qu ery
Ġchang ed
statement s
ĠDE BUG
Channel Rule
Val id
STAT US
IMP LEMENT
itk TestMain
ĠSP DX
Ġrot ate
Ġ-* -
BUFF ER
atern ion
rela cy
INLIN ED
' );<
4 2
> /*<
D oc
G uard
I f
Q P
Q Dialog
T EXT
T ip
T ick
T aken
b c
c rypto
l cname
n ative
p b
s im
u ch
v g
} ;
§ ı
è ģ
Ġ ----------------
de s
de st
er ies
Ġc ontext
Ġc amera
Ġm e
Ġt ag
pa ss
Ġv a
Ġf d
Ġs ample
Ġb ack
et ers
ĠS p
++ ++
el ta
Ġw orld
AL SE
bo und
Ġj ac
ĠF U
ĠL e
ĠI dent
ign ore
SE TT
uns Given
Ġbe comes
sc hema
Widget s
reg ex
Ġtr anspose
CH ANNEL
ĠĠĠĠĠĠĠĠĠĠĠĠĠĠĠĠ ĠĠ
rig ger
De composition
AM L
ay s
Ġdo main
alls Play
Ġor der
ASS ERT
UC NAME
param s
api en
Des ktop
ĠAn gle
Ġqu isp
Mod ules
Ġpy bind
ĠString To
render er
Char acter
ickets Taken
ĠCol or
Ġrel ative
>////////////////////////////////////////////////////////////////// ////<
ilt in
Off set
Ġ////////////////////////////////////////////////////////////////// <
allsPlay ed
" ).
$ <
, "
A ss
C am
I F
J acobi
M R
M ult
P latform
R ot
S ys
T ag
V ideo
c at
g ing
n et
p c
r n
r in
t ask
v ations
w x
y y
st atus
en c
Ġm s
Ġm enu
ct x
Ġt ree
Ġf mt
Ġs igned
Ġre v
ĠA pac
ĠE ntity
ĠT FE
ĠM Match
io s
Ġd l
Ġd im
ir cle
and ies
Ġst ampa
ans fer
ph ome
PE CT
bu ild
to col
De lay
On ly
Ch olesky
Test Function
ĠSt art
Un ique
Ġcon structor
isp atcher
Ġcont ent
min Coeff
Hel p
Ġadd ress
Ġsh ape
Module EntryPoint
Game Type
CODE C
Op tim
resh old
text ure
PR IVATE
DX SDK
Ġ[] );<
Open GL
setup Ui
Port Client
ARG S
VIDE O
CUD A
ĠStringTo TestFunction
ĠApac he
ĠStringToTestFunction Map
" (
' \
0 6
7 2
8 2
> [[
B ACK
B allsBowled
C D
C RE
D ll
D river
H ook
K ind
R unsScored
S upport
T A
U CT
U Int
_ ("
b enchmark
c assert
f it
h ack
h ardware
i vate
l g
q l
s w
u g
u ri
v d
æ ķ
st at
re x
ar z
ri tes
Ġi tem
co lumn
Ġt ensor
al k
id den
Ġf ree
Ġa x
ĠA ssignment
ĠC olu
ĠT ri
ĠM AT
ĠP R
ul er
sp otify
In ternal
ist s
()< <
ĠG ener
ĠN V
IM AGE
ĠR andom
Ġe val
ĠQ Object
ĠI O
ĠB etter
Eigen values
Ġget Name
col PivHouseholderQ
ele ase
List Widget
AM IC
ĠIn nerStride
Lo st
ĠSt ride
25 5
Menu Separator
Int ensity
no red
Ġrep o
chw arz
cur s
Ġline ar
ĠLog ger
We apon
Binary Stream
ickets Lost
gn ore
Conditional Wrapper
INTER FACE
MAN AGER
Ġsqrt A
Found ation
SUC CESS
Doc ument
ĠColu mn
colPivHouseholderQ r
, :
3 8
A pi
C U
C ell
E num
F i
F ocus
H essenberg
I o
N amespace
P OS
T wo
W t
W IDGET
^ (-
c luding
f stream
i ed
n e
s ing
t p
t ure
t imer
t inylang
z ied
re es
re ater
Ġc md
Ġm l
Ġm o
Ġi ss
co mmand
co ped
ra sh
Ġp seudo
>} }<
ex u
um b
ĠS Y
ch all
ĠT ra
il li
ĠP PP
Ġd istance
Ġin stance
te am
In tern
Ġ& );<
Ġ- =
Co mb
as ure
as Diagonal
Ġby rn
ĠF ullPiv
ial Functions
ĠI o
Eigen vectors
AP E
Ġr ank
om ial
ĠW in
Ġget line
ĠH AL
", "
mat B
Ġde scription
back end
List ener
TE CT
Ar r
matrix U
iv ity
OL D
On e
Array Xf
>() )
prec ated
sm ata
OP T
Path s
Spec ialFunctions
PRO G
Param eter
Se arch
Ġlu OfA
Ġen v
RowVector Xd
etric s
ĠFunction List
Vert ex
******************************** ********************************
Run nable
Qt Core
ĠDense Base
Ġcos A
ĠDi agonal
iss on
Ġtra cy
eigen vectors
Ġsin A
SV D
ĠNo te
LINK ING
Complex Schur
Ġunit ary
MAC OS
house holderQ
applyOnThe Left
Ġeigen vector
Over lay
Ġthin Q
Ax isf
Ġig nored
Ġalias ing
DYN AMIC
Ġgeneral zied
ĠAngle Axisf
ĠBetter Quant
,: )
Hessenberg Decomposition
ĠPPP tr
Ġbyrn exu
) *
) [
) {
4 0
> $
C ard
C md
D erived
E VENT
F ULL
L ex
M UL
O ri
Q L
R I
S X
U ME
U TO
V A
X ML
X YZ
Z Task
Z Behavior
a is
a ded
d f
g o
k i
l ing
p ol
v alu
Ġ queue
st op
st yle
re set
ar ing
ar ation
() >
() ,<
ct est
ic ro
Ġ* ,
Ġs b
Ġs pace
Ġs upported
Ġs prite
Ġb oolean
Ġre mo
Ġint ernal
>// ------------------------------------------------------------------------
ĠA N
ĠA udio
IN etwork
ĠT emp
Ġw t
sp rites
Ġ& _
Co coa
RE E
RE CT
Ġh and
pre v
as es
ĠF ind
Ġst orage
Ġe ven
Ġe osio
og ger
sh ort
ard uino
CO L
CO UNT
Ġmax Index
Ġcomp ile
Ġcomp onent
Ġinput s
Con sole
ANT I
ger y
Sc anner
Ġpa d
Reg istr
**************** ****
Text Formatting
Ġle g
ĠRE AD
Ġtype def
UR L
Cont ent
Ġspec ific
inter rupt
lex port
ĠID S
Vis ible
Param List
GET LINE
(_ ,
blur x
ĠEX IT
Colour U
Desc riptor
quent ial
NON E
fix ed
ĠCH ud
ç» °
alph a
Ġhel per
Ġcorrespond ing
Sign ature
ĠBu ffer
scrib ed
QW DialogHeaders
LIM IT
INetwork Definition
. ";<
4 6
8 7
B ASE
C lose
F D
G enerated
G pu
T iny
m eta
n i
n Press
x so
{ ,
è ¾
é Ĭ
Ġ util
or s
Ġm ore
Ġm ethod
Ġf ill
Ġb ig
Ġa ction
ect ed
ro d
ma ph
ĠA ction
ĠS IM
is rex
Ġg cd
ĠC E
ck et
ch ine
ĠM ulExpression
ĠP er
Ġ2 6
ĠD ialog
ĠD ivExpression
ĠN O
== '
ĠF orm
PP ORT
Ġr t
Ġde bug
String Ref
Ġpro blem
ph ere
AD I
12 3
Ġex it
dex cept
Ġdef inition
ant i
eff ect
ip eline
OL IB
add r
pe ed
Class ifier
{{ {,
ĠY AML
NT T
Ġwh en
ĠAdd Expression
ĠAdd ress
Sp lit
Sp inBox
Ġimp lement
Mouse Event
ĠSub stractExpression
Power Of
ĠNumber Expression
Ġfold marker
Ġfold method
ReactPackage Provider
CRY PTO
INTEGR AL
ĠIdent Expression
Ġmo isrex
maph ore
" };<
) >
) ),
. "<
6 9
A g
C lock
D M
D ist
F a
G LE
M em
N ET
O b
T ERN
T AG
U int
U INT
Y es
\ \
] <<
c or
c ord
f re
h andler
m enu
n b
r hs
s es
s leep
} }}<
ĩ Ī
st dexcept
re t
am b
am x
Ġm g
Ġi con
an ch
ing Classifier
if orm
Ġv olatile
pp ed
Ġf req
ra d
Ġs l
Ġp Action
ĠA nd
ĠC lear
el com
ĠT O
ĠT ips
ĠM emory
im est
Ġd raw
ul ator
Ġh ighest
ad get
Ġch annel
pre ter
as se
ĠF OR
Ġst at
ĠR OW
Ġe lab
ĠQ Label
sh al
ĠK ernel
est roy
con nect
Ġde lta
ED IT
BU TT
ĠV ertex
CO LOR
Ġpro va
Ġarray s
eng es
di ag
STR UCT
De pth
Ġcall ing
Con nection
ĠIn put
OL VER
Lo c
DL IB
Ch anged
Ġcon d
ari es
File System
ix el
ECT OR
Ġpri ces
AS IC
Ġexp onent
app end
ATE G
Sco ped
Se quential
EYER LIB
ĠEyer AV
pack ed
FE AT
ĠEX PORT
Ġpos itive
Ġinitial ize
Ġlm gl
NE W
vis ible
Ġext ract
Ġinc luding
Ġam ount
PO INT
74 2
<<"* "<<"
Ġinter face
Ġcpp git
ĠPri smata
ĠRF K
Ġprev ious
ĠInitial ize
NOW N
Resize Event
ChannelRule Mgr
èģ ª
Optim ization
Lex er
elcom e
ĠROW S
BUTT ON
! !<
= %
= '
> ());<
B it
B EN
B ASIC
F lex
M ENT
N ABLE
O LED
P h
P in
P ool
P alindrome
S ide
W T
[ ];<
d r
d igit
m ar
p m
p q
p latform
s upported
v t
w inrt
å Ī
æ ³
Ġ ()
Ġ ul
Ġ lock
re ason
or ig
Ġ" ["
ri s
Ġi m
Ġs witch
Ġre quest
lo s
lo ud
ent ry
ĠC al
ĠM ust
im ated
im ental
Ġd fs
Ġw as
op tions
Co lumn
ĠD ate
ĠD ll
ĠN ot
(" /
ĠL u
Ġe le
ĠI R
ĠU T
per imental
ĠH UD
ime des
ĠO B
EXT ERN
mn g
Un ary
100 00
Ġq t
', '
RT TI
OT G
ĠID D
oft ware
param eter
ric s
ĠUn i
pac ity
err no
err ank
Per son
dis able
Scroll Area
èĢ ģ
sign al
INST ANTI
Ġplayer s
94 02
az y
ĠTR UE
iter ations
ĠHe ader
oth er
EXTENSION S
Us age
VIC E
hack errank
Io ctl
chall enges
>//------------------------------------------------------------------------ -<
5 8
8 9
B ullet
F actor
G ER
I gnore
L APACK
M ark
M ACH
U B
U GM
V irtual
W riter
] ];<
] >=
_ ->
a arch
f ib
g ray
g roup
h en
h ook
i u
o x
o lean
p t
r ank
s l
t mp
å Ģ
å ħ
æ ĩĪ
Ġ `
Ġ layer
ĩ èĢģ
en able
at al
lu e
ut es
Ġc lear
ar n
() +
() ->
al igned
al paca
Ġ* (
Ġs k
Ġre f
ect ive
ma sk
Ġo dd
ex perimental
iz ing
ĠS u
ĠS TR
ĠC C
ĠE NTT
ĠT H
ĠT itle
Ġl mng
LE V
Ġh ost
bo olean
Ġj o
AT TACH
ec ause
as ync
and roid
Ġ4 0
ĠF AST
ĠL AN
ĠQ T
ĠB y
ue st
IT ER
Ġarg ument
ĠH ouse
ĠH ash
num eric
Ġde cl
List Box
qu ery
Ġset tings
Ġcomp iler
iv is
Ġth an
Bo und
ĠEx ternal
test ing
De ath
amp ler
Ġpa ss
ĠPro blem
elem etry
pen dent
Def ines
ak ura
Ġal loc
Point XYZ
point s
>/* !
SER VER
SER IAL
WOR K
ASS UME
ĠQString List
é¢ ĩèĢģ
UI Kit
Link ed
mod ules
PAT TERN
Ġper f
cont ainer
ĠAn imation
ĠUSB CON
den se
Draw Context
NON NULL
copy right
uff ix
ĠFEX Core
Ġstatement s
(){ }<
Combo Button
WARN INGS
heel Event
CX X
Ġcompil ation
Rot ation
enc il
255 19
illi seconds
ADI OLIB
èģª ä¿ĥ
Flex Lexer
) %
/ .
/ =
6 3
7 5
> "
A F
B ridge
B rowser
D JSON
F C
G T
G FX
H RESULT
I ter
I ATE
M C
M S
N I
O FF
P anel
Q MouseEvent
R ate
S K
T ur
a h
a ver
b itmap
c ent
c licked
i re
l s
m alloc
o ai
p ose
s u
s ame
t f
æ İ
ç ª
Ġ --------------------------------
er ature
Ġc re
am ed
Ġn v
ct ime
se ction
ing ly
Ġf act
Ġ* );<
Ġs imple
Ġp e
Ġp uts
Ġb enchmark
ro p
ub a
ub l
ma il
Ġo ld
Ġis inf
Ġis nan
++ <
IN O
ch annel
ĠM B
ĠM o
ĠP C
Ġ2 00
---- --
Ġd igit
ul ses
Ġin l
Ġin order
Ġl cname
ĠN on
DE TACH
ĠF ill
ĠL ay
for geeks
ĠI tem
per ation
struct ure
th izer
th ird
Ġk e
Ġde mon
lib gba
CO PY
GL Core
Ġse ed
iv es
Ġth en
log ue
Con f
low er
Ġle ast
Set ting
ĠZ Rule
Ġsub diag
ared Norm
Ġtri angle
Inter rupt
Param s
Ġsc ale
VI S
ock et
ĠIN STANT
ĠWIN API
cul ate
ĠSc anner
off set
Ġimp lementation
Ġmay be
flag s
ĠDef ault
Ġ201 9
DU INO
Ext ension
Ġident ity
Progress Bar
geeks forgeeks
Ġrequi res
ĠSensor ID
Ġgo es
ĠLP VOID
EO F
FR AME
lap sed
cce ed
squ aredNorm
rit ical
CONSTANT S
SETT INGS
Ġiss ue
RI VER
INSTANTI ATION
ĠINSTANT IATE
) ).
8 742
C ase
D ivExpression
E lem
E mployee
F in
F iles
G AME
L EN
M ulExpression
M ENU
N on
P HY
R UN
T one
W ait
X ml
a u
b t
c raft
g os
l ight
l ision
m ing
s afe
t le
u v
v iz
de que
re l
Ġ<< "
Ġ" [
ut ator
Ġm int
Ġm ock
se q
co mm
Ġt ot
Ġt rack
al bum
Ġf r
Ġp atch
Ġp lace
Ġp attern
Ġb ecause
un it
un cher
Ġco st
lic y
ma i
ĠA d
ĠS L
ĠS erial
Ġg l
Ġg raph
ĠC OL
ĠT op
ĠP tr
Ġd xvk
Ġin ner
ge ometry
ĠD P
AT IVE
PL AY
ort ion
Ġe very
li boai
ĠB iome
ĠU SE
its uba
Ġ' ;<
sh r
est ore
Ġde scribed
Pro c
ser v
ain s
sc ene
Ġmax Pro
CH MARK
On ce
are st
Function List
ĠSt ream
mo zilla
WI FI
Set Key
Ident Expression
AS K
Add Expression
Error Code
PRO JECT
Code Graph
]= {
function s
Ġparam eter
Number Expression
ĠOpen AI
EYER PLAYER
Sub stractExpression
att le
Att ribut
pack ages
Ġlink ing
Ġper son
Ġpy thon
ci an
FUNCTION S
ĠDef inition
Ext ent
*/ ,
initial ize
Back end
ĠQW DialogHeaders
Act ive
mut ation
Ġli boai
LI ST
Ġarch imedes
ĠUtil ity
Ġ---------------- ---<
Cam Sensor
MACOS X
ĠREAD ME
amb da
ĠMo zilla
Ġdemon ware
& ]
5 00
; "
A uthor
D REAM
D rive
D ispatcher
H EL
M I
M ar
P OP
S W
S m
T Y
T IM
b b
d w
d log
e h
e ven
i ver
m anager
m isc
m itsuba
p ract
r en
s y
t itle
z ero
å ı
é Ĥ
Ġ ><
Ġ effect
į ŀ
Ġ" :"
Ġc ustom
Ġm d
ar on
ar ations
Ġt ex
Ġt ony
Ġv i
Ġf riend
ra p
Ġs akura
Ġp in
Ġp ch
Ġre curs
ro ss
un o
lic ates
iz es
** <
ĠS RC
Ġg roup
ĠC ATCH
ver ify
ĠT CP
Ġd istributed
ST AB
ĠD isplay
AR PMP
and box
DE X
St age
ĠF oo
ĠF ast
ĠF rame
Ġx y
ĠB utton
AN H
IT ensor
lus h
em ove
Ġ' ,
od ium
comp lete
UL ONG
SE C
CT RL
QU EST
con nection
ION S
RO M
ĠV ar
CO UN
ac count
CE GUI
Node s
Ġcomp at
Event s
CL I
AM PLE
To String
Of Camera
loc ation
max i
Ġtest s
Get Instance
Ġcon v
Ġcon vert
Res ponse
Button s
ĠZ Task
app ing
effici ent
CPP RTTI
event s
yam l
]] <
Key board
Check ed
24 2
ĠDe vice
ĠIN CLUDE
ale ct
ĠWidget s
Line ar
Ġen able
pac ing
ONN X
Qu aternion
board Id
QString List
Tra its
player s
Ġent ity
link ed
Max imum
Pri me
PY BIND
Eyer Player
Ġlm editor
Ġ201 3
Ġpack age
As set
HEADER S
Ġra dius
Ġvis it
che type
Temp orary
ĠTEST S
=== //<
Ġ1900 242
Ġgem m
OPEN AI
Sele ct
Ignore Scroll
pract ice
' ){<
5 9
> ):
A SH
C Y
C vt
D ot
D istance
D elta
E C
E ven
F ace
F ALSE
G l
M eta
M ATCH
P ASS
Q T
R eturn
R AY
S k
S eg
S da
S leep
S ENSOR
S ession
T X
U MP
U MB
W nd
Z ip
b at
b ed
c g
d st
e osio
f req
h d
h ere
j ust
p H
r aries
s igned
t Expression
u de
ä ¹
ç ®
è ĥ
Ġ endif
Ġ efficient
de code
en ces
Ġm i
Ġm on
Ġm ust
ar p
() ==
ic OperatorType
Ġf actorial
Ġ* >
Ġs end
Ġp Sizable
Ġre al
he ll
he me
um my
ĠS O
ĠS X
ĠC K
ĠM od
ĠM ouse
ĠM esh
ĠM utex
ĠM GB
Ġd ll
op er
Ġfor m
sp dlog
RE AL
RE LU
Ġh w
der r
ĠG U
ĠN ew
AR T
DE D
DE F
St ra
ĠF s
IL ogger
ĠL ock
ĠU LONG
IT S
os ite
sh a
ĠH EL
MO ID
Ġde n
Ġde pth
ĠV iew
[] );<
ff ine
TE MPL
ph a
DI R
bu iltin
ĠX OR
LO AD
ab les
UT F
View port
OB S
Comp iler
Ġal gos
line ptr
SY N
ĠZ Behavior
dim ension
Game State
Cpp String
EXPORT S
ĠMat erial
ĠDe bug
Message Window
Ġcheck ed
vers al
CA ST
Ġne cess
TRO DREAM
SDK DDKVer
Const ant
cro ss
ĠMY GETLINE
Global Map
Pri mitive
ĠDes c
Serial PortClient
Token Kind
Ġrender er
Ġvis ible
ĠText ure
SHARE DLIB
ie ve
Mac aron
heat shr
Ġdis able
ĠGraph ics
ĠAV UTIL
Ġgem v
PROTO COL
(... )
Copy able
Ġorig in
ĠPAR TE
lad der
æķ °
ĠMAT LAB
éĬ Ī
ĠSIM DJSON
Ġexponent ial
ATEG Y
LEV EL
Ġ-------------------------------- ---<
SetKey Env
ĠTCP OPT
heatshr ink
" ][
" ].
- (
4 3
5 6
7 3
9 6
9 8
< >(
B R
B in
B its
C an
G U
I ZE
K ERN
K ernel
M ORY
R ed
R ound
R elease
T ABLE
W ITH
Z T
] <=
a inter
c ustom
d ic
f ps
m ute
n x
p seudo
s witch
t up
u vec
ä º
de sc
de terminant
on gest
er ved
re lease
Ġc a
Ġc c
:: _
le gate
se ed
co st
an e
Ġt rigger
Ġv d
Ġf i
Ġf n
Ġf ragment
Ġs apien
Ġs pacing
Ġp resent
Ġre set
Ġa ccess
un used
do ctest
ER SION
Ġma chine
IN PUT
el y
ch or
ĠT imer
ĠT emplate
ĠM ono
ĠP latform
Ġw ait
Ġ{ '
Ġin valid
RE EN
ext ra
ST REAM
bo t
ĠN T
AT OR
DE L
== (
ĉĉ ĉĉĉ
ĠB oost
AN GE
ĠU ser
ult ip
cpp git
ang es
Ġk er
CT L
con struct
bool alpha
Ġover write
ĠV ERSION
Ġres izing
sc ale
DI AN
Ġmat mul
SC R
Ġse g
Ġset Icon
Ġex ample
ant ed
arr y
ab c
STR ATEGY
ĠEx p
De pen
ĠIn teger
Ġ} ;
SL AM
ET A
DL ER
Of M
Of V
cp u
Ġit k
ĠME MORY
ĠCo re
Comp aring
Point er
MM Y
Ġll t
AG ES
Add r
ces sed
ĠSC P
Id x
Ġadd ing
Ġspec ified
EL D
ĠID T
av ed
Ġ... );<
Op tion
Ġlu a
NS String
ULT I
dl lexport
ĠCom mon
Qt Widgets
SDK Ver
Ġqu ery
Not Equal
wh ich
qui red
ield s
Ġcontain s
Ġinc rement
HAN DLER
FL AG
non atomic
Ġ25 6
mult ip
Back ground
lip board
Ġli ke
Ġinst ead
Last Error
HO OK
alle l
cryp t
UNK NOWN
header s
Ġselect ed
Ġextract ed
Ġele vations
ĠBy te
Ġnv infer
pH ake
Ġnecess ary
Macaron lib
& >;<
5 1
B RO
C NT
C licked
D D
D estroy
E SP
F usion
F WD
G en
H ud
H ost
J ump
J edi
L T
L et
Q ResizeEvent
R F
R el
T V
T op
T ON
T Vec
T imest
U SB
V ulkan
b r
b asic
c er
c mp
d raw
d istribution
f inished
i i
i CG
i Fi
j u
p lace
r al
r ate
r uit
s a
s sed
s ample
t ot
t ract
y r
Ġ IM
Ġ raw
Ġ ERROR
ı ã
de v
er Test
re v
Ġ" --
Ġ" ));<
ut ol
Ġc ache
Ġm f
ri tten
def inite
an im
Ġt ask
al ized
ic ha
ra dius
Ġs im
Ġp Parent
Ġp DC
Ġp encil
Ġb itmap
Ġa sm
lo ok
str ong
>// /<
Ġo wn
Ġma jor
ĠS elfAdjoint
ĠC wise
IN DEX
yp h
ĠE NUM
ĠE mployee
__ ,
ch o
ĠT ear
ĠM ine
ĠM AKE
ĠP S
ĠP ath
.. .<
Ġd ist
In Place
Ġl argest
Co mm
Co effici
ST OM
bo ur
ĠD xso
OR B
St op
set State
ĠL azy
Ġst ride
Ġe ig
ĠQ MainWindow
ĠQ iu
ĠU sing
ĠEigen Solver
ĠW hen
ĠH andle
ĠH essenberg
CT Bridge
ptr diff
mat A
ith ms
ALI D
ute Th
ref lect
pri ces
ta b
Ġ! !!
ff ff
En able
qu ency
qu ares
matrix Q
Ġuint ptr
Ġmax Norm
Ġmax OfV
ary Expr
af ruit
compute Inverse
ĠEx ec
rt w
read y
ĠIn cluding
Array XXf
Ġpa ssed
Ch ild
Ch unk
Ġun i
Ġun ique
code c
Def s
ĠCo der
NO T
Ġcon serv
Ġmin OfM
ld lt
CK ET
Statement List
Ġexp ected
Ġapp lyOnThe
Ġcopy Upper
ml ir
ĠSet Up
holder Coeffici
als a
ĠOpen GL
Piv LU
igh bour
Ġ-- "
ĠUn aligned
Ġwh ose
operator Norm
operator Sqrt
Ġcompute U
Ġcompute Eigenvectors
gor ithms
Gener alized
Sub treeWrapper
Ġne ighbour
RowVector Xi
rep o
angular Part
coeff s
UD im
Ġro cm
ĠEX PECT
bin ation
cwise Equal
cwise NotEqual
ĠCom bination
With Check
Ġ"]^ ["
ĠRowVector Xi
Mod Int
artial PivLU
Read Only
lan tern
SU PPORT
Eyer Core
Tri angularPart
Cond ition
ĠDi rect
iss ing
Ġtra iler
Ġplayer ID
ĠSub treeWrapper
LEG ACY
Ġpack ed
ĠData Matrix
FL ANN
HouseholderQ R
ĠPrint Statement
Do ing
Real Schur
Ġsign al
ĠWe icha
Complex EigenSolver
ĠScope AssignmentList
hys ics
ĠFa de
alph as
house holderCoeffici
applyOnThe Right
Ġcorrespond s
SIG MOID
VAR I
middle Rows
middle Cols
SPE CI
Ġpo isson
ĠMO CK
jo ined
Ġéį ıã
lp Norm
GRAPHIC S
MESS AGE
Broadcast ing
sim de
Jacobi Rotation
ĠTri angularView
Ġlinear ly
ĠFullPiv LU
ĠWin SDKVer
ĠTemp orary
packed Matrix
ĠDll Main
Unary View
Ġjo ined
ĠHouse holder
Ġmock a
ĠTop ic
ĠVar Decl
Seg ment
ç® Ĺ
dimension al
iCG STAB
ju gate
utol ink
ĠSelfAdjoint View
ĠCwise UnaryView
ĠTear Down
uteTh in
Ġconserv ative
ĠcopyUpper TriangularPart
ĠWeicha o
householderCoeffici ents
" },
* <
8 5
= {
> _
A sync
C F
C RT
C ritical
F oo
F ov
G la
G IC
H int
H ex
H older
M ol
M ov
M ontgomery
P e
P AN
S te
S phere
T W
T ex
_ )<
b vec
d vec
e ps
f l
f ull
f act
f older
f usion
g s
g t
i us
n as
n tt
p cl
p anel
r ins
t rack
u pper
è °
Ġ ./
Ġ url
in ation
de nc
de lim
st b
re te
inc e
ut er
Ġc s
es e
ar ithm
def s
Ġi p
an imation
Ġt imer
Ġv er
Ġf ilter
Ġf requently
Ġre ader
ss l
Ġa cc
lo t
Ġco mmon
Ġo bs
Ġ1 7
ĠS ys
ĠS ave
Ġis PowerOf
ĠC ond
el s
ĠE SP
ĠM ock
op h
AL E
sp lit
In f
ĠG PL
ĠD istributed
eg acy
Ġch ain
Ġch ange
ĠN ull
pre t
DE TECT
ĠR ec
ĠR ADIOLIB
Ġe mit
ĠQ Color
li ce
Ġfile Path
per ti
ool s
Ġk ee
20 21
Pro duct
fo map
back ward
ref ix
IC K
Ġ! _
AD T
PE G
DI V
Node Data
FAIL URE
di ator
ho ge
EXT R
ĠIn dex
Ġpa ir
code che
ĠSt ack
Comp osite
ari ables
ĠGL Core
Res erved
Ġ9 0
Ġpri ority
Add on
TR Y
Id s
inter pret
Int Ptr
FF FF
He ap
Ġlib raries
Ġ** )<
ĠCO RE
IP v
Util ity
ĠY our
ĠY ou
ĠEyer Player
eta il
ä¿ Ĭ
alloc ate
Ġ12 3
cont rol
*) (
Register er
DOW N
target ver
Mod ification
ĠBO OL
mon itor
ĠPlayer ID
Ġ", "
ĠFor mat
vis ibility
ĠRes ource
Ġinf requently
DU MMY
ĠSe eta
curr ency
Do uble
ĠMA IN
ansl ate
ĠLLVM Fuzz
Rec ord
device s
Ġdetail s
MARK ER
OUT PUT
mint rin
Tab Frame
Track er
Radio Item
alle st
Ima ges
Ġsm all
Su ccess
Mult i
CU STOM
ĠCHud Elem
cor rect
shal a
Ġcond ition
éĤ ª
CLI ENT
Ġ1900242 10
Stra Fact
tup le
ĠMine craft
Gla diator
Montgomery ModInt
denc ies
ĠGPL v
perti es
codeche f
" }};<
2 35
8 000
> \
A bstract
B ig
B egin
B rain
C String
D ark
D uration
D etail
E rr
F EX
L C
L i
M ING
M ach
M essages
O Y
P o
S im
S ORT
S ocket
U se
U bpa
V ID
V ECTOR
W ord
Z Match
[ (
\ ":
b ine
c r
c ar
d up
f ill
f low
j s
m ontgomery
r on
r sqrt
s alsa
v olatile
w elcome
x ml
Ġ $
Ġ ec
Ġ ros
ĳ å
ĸ ª
Ļ ¨
in ing
de lete
lu g
re quency
Ġm er
Ġm etadata
Ġm utator
() *
() /
ic ation
std out
Ġf ixed
it ect
ra de
Ġp cl
Ġp ost
Ġb d
Ġo peration
us bg
Ġ1 8
ĠA ctor
ER E
Ġma c
ĠS ign
Ġis Palindrome
ĠC an
Ġon nx
IN E
el lo
ĠE lement
tr t
tr ans
ch s
ter y
ĠP ol
Ġ2 1
ul ate
Ġw s
In clude
Ġl im
LE E
LE CT
ĠG eometry
ĠD X
ĠD is
ĠD xvk
pre ss
St andard
Ġst yle
Ġst uff
get line
ĠQ PushButton
ĠB iCGSTAB
ĠU N
AP T
ĠW t
Ġget Move
Ġget NvOnnxParser
Pro xy
fo ur
IC AL
ĠV K
ĠV ideo
ta ch
Ġres ource
Ar c
UN D
Ġ10 24
Ġtr ansform
Ġset Checked
Ġcomp lex
De compiler
Ġ\ "
Ġå ®
Ġare a
View er
Col Major
Text Edit
Ġes phome
Un real
Ġcon nection
File Path
Res et
44 35
Ġcreate NvOnnxParser
Ġsub diagonal
exec utor
SO bj
Ġsh ared
FF ECT
ĠIm Gui
Ġ[ &]
An gle
Cpp IntPtr
IP T
Ġsc ene
Check Item
Ġinit Program
ĠCont ainer
Ġlu nas
ĠEyer String
Debug ger
pack age
conv olution
ĠAn swer
TT P
ĠMY SHAREDLIB
ĠCon nection
Ġsu cceed
isc rete
Pri vate
ĠST AT
ĠRes ponse
Json Object
Ġass ign
eature s
Status Bar
initial izer
Ġac comp
Ġ^ =
Press Event
pool ing
Ġfib onacci
Sign al
SIG N
(... )<
Ima gery
Ġfa il
Ġag ain
Direct ory
ĠLe vel
MR ML
82 4435
Intern shala
One Input
PROG RESS
Fa iled
Ob server
ĠAnd roid
BEN CHMARK
Ġim g
Browser Window
ubl ish
Attribut es
Ġ', ',
Ġcompat ibility
ĠTemplate Visitor
erTest OneInput
ĠLazy MontgomeryModInt
rtw types
SPECI AL
rins ic
ĠLLVMFuzz erTestOneInput
itect ure
ĠgetNvOnnxParser Version
Ġlunas vg
824435 3
) ));<
4 7
7 0
> /**
B ST
B SD
B LOCK
C AN
C ALL
E uler
F ix
F USE
H w
H OST
J o
K ern
M edia
N one
P D
P AGE
P artialPlayer
P ulses
Q PushButton
R ON
R cpp
R AM
S ave
S UM
T C
T elemetry
T ANH
W API
X OR
c ap
c ard
c err
e ph
g ly
g tc
k g
k u
s yn
s izes
t utor
v gui
w ner
è Ĭ
Ġ pp
Ġ la
Ġ down
ĥ ¥å
de c
de tect
de pth
de legate
st derr
on der
at s
or a
ut ing
Ġc ancel
am al
Ġm esh
Ġm alloc
Ġm atrices
Ġi ter
Ġn g
Ġn eg
co ver
std arg
Ġf ps
Ġf ix
ine ar
Ġp lus
la sh
lo or
Ġo b
Ġo k
ĠA S
Ġg gui
Ġg eometry
Ġg uit
Ġthe m
tr l
string s
ĠT eam
ĠM G
ĠM S
io ctl
ĠP re
im mintrin
Ġ2 55
Ġd w
Ġin d
ON E
sp ective
Co der
Ġh Module
Ġch ild
ĠN etwork
ĠN DEBUG
as is
ĠF S
ĠL in
Ġst ore
ĠR untime
ap s
ap ter
get Instance
ĠI mp
Ġto ken
ans wer
ĠK ind
Ġy ear
ALI GN
art ist
ref er
ĠO ri
ĠO LED
DI UM
ps b
Ġset Visible
Ġcomp lete
UP T
AM D
CON ST
Ġå º
IB ILITY
Data base
Sc ale
INT ERR
loc ale
Test Environment
Ġstr len
Ġcon nect
Ġcon version
Info Dialog
Menu RadioItem
Menu CheckItem
Ġal low
Sh a
ĠRE L
LIB C
Add Global
exec utable
My String
Ġas set
Th umb
TH ROW
FLO W
av a
Ġsort ed
Check er
game play
Symbol s
Ġ-- -
ĠIN C
Ġpoint f
Ġwh at
Ġpar ser
Att ach
cur ve
ĠSc ene
ĠSc ript
APP LE
Ġdirect ly
serial izer
Eyer AV
IS M
Print Statement
Ġflag s
air s
Ġext ension
Ġconfig uration
process or
PO OL
Ġpack et
Ġcom pare
Ġmem ber
Scope AssignmentList
<<"* ";<
>- (
Expr Tree
hys ical
Var Decl
Ġup to
Dup licate
Dup licates
any ing
ĠConfig ure
Sync Client
Variant Map
Gx CTRL
shlib ext
shlib dir
Ġme ans
Ass ert
asure ment
NEW LIB
Ph ase
æ³ ķ
Ġke mai
VIS IBILITY
ĠDesc ription
Ġéįıã ĥ¥å
Po licy
Ġaccomp anying
eph yr
Ġguit ard
INTERR UPT
AddGlobal TestEnvironment
Ġéįıãĥ¥å §ı
' ||
5 7
7 6
> )<
@ @
A b
C a
C y
C ustom
D ock
D iff
F P
G ENERATED
G rid
G MOCK
H LE
H MODULE
I OS
J UMP
M Q
M et
M icro
P ost
P oly
Q Label
Q ListWidget
R ST
R ULE
S ust
S ee
S QL
S peed
T s
W H
W iFi
] );
a e
b allsBowled
b allsPlayed
c am
d sp
d istance
d igits
e valu
f lat
h ing
j ni
m ary
o i
r ong
r unsScored
r unsGiven
s stream
s Action
u lo
w s
w char
w icketsTaken
x ff
x Interface
y e
z mm
z lib
z Types
{ }<
å ¯
ç Ĥ
è ĸª
Ġ utf
Ġ é¢ĩèĢģ
de struct
on ical
re et
re pository
Ġ" *
Ġc g
Ġc arry
es p
an Token
Ġt p
Ġt ick
ic on
Ġv k
Ġv o
Ġs w
Ġs ame
Ġp lane
Ġb q
Ġb in
Ġb its
Ġb asic
Ġb allsBowled
Ġb allsPlayed
Ġre port
ss ize
he ap
ent ial
ĠA s
ĠA ct
ĠA PP
ĠA tt
ĠS lider
ĠS leep
ĠS coped
ĠS oftware
ĠC lass
yp r
ĠE d
ter m
ĠM in
ĠM ar
ĠM ask
io SerialPortClient
EN V
Ġw x
Ġw icketsTaken
op le
sp eed
00 1
00 200
Ġl mpl
ST ATE
ĠG EO
bo ok
stream ingClassifier
ĠN UM
IL ER
Vector s
ĠR ad
for ce
ĠQ R
ĠI ll
ĠI gor
li de
li pper
Ġarg uments
Ġr unsScored
Ġr unsGiven
ĠW all
ĠW IDGET
Ġget Id
ĠH ANDLE
Ġde lay
20 17
RO ID
Pro tect
fo und
ĠO UT
py thon
lib s
ph ys
AD CAST
und am
Ġset Enabled
Ġth ere
Size f
De code
De coder
sum Forward
PAR T
ĠPy OS
low p
To Conditional
open ssl
mb ler
ĠCo unter
ĠCo coa
Ġle tter
File Name
Ġresult s
ix map
Ġal bum
Ġal pha
SY M
ass ignment
UR ect
Ġmy Addon
AND ROID
WR ITER
ord in
READ NONE
so cket
An im
Cpp Object
av x
ĠCO VID
Ġ... )
Number s
tra ce
ĠY Y
Ġsecond s
Color s
Action Ab
ĠUn supported
vers ity
CA uto
Rect f
ĠFunction CallExpression
Layout Container
GE MM
Tra cy
ĠTest Main
ino is
Ġent er
den cy
FO MAP
Pri ce
Pass word
Colour Rect
ĠSh ape
08 00200
vert ex
sort ed
ĠReturn Statement
Ġop tions
Ġext ra
45 6
Ġtyp es
All Players
SV C
bit rary
Ġcor rect
CP U
THREAD S
Real ization
STAT IC
ĠQW DIALOG
")) )<
ĠFa ust
ĠHe ap
ĠNS Object
Ġdec imal
Byte Array
ĠInter face
fa ust
vtk F
uni std
## _<
Ġarch itecture
epi logue
Struct ure
scalar mult
tag s
party id
Im Gui
uri ty
POS IX
ĠIo Error
Ġremo ved
Registr ar
Ġleg acy
LIMIT ED
ĠTO STRING
Loc ation
ĠUni versity
ĠNon Copyable
HEL PER
POP CNT
TX T
ĠGU IT
ĠHEL IX
TEMPL ATE
BRO ADCAST
look up
EXTR ACT
ĠMAIN WINDOW
235 20
package Builder
ublish er
Met al
Sust ain
evalu ator
ĠIll inois
ĠCOVID SIM
ActionAb ility
ĠQWDIALOG HEADERS
) :<
+ (
5 3
7 1
8 3
8 26
9 2
> __
A UT
B at
B lu
B ind
C ryp
C rypto
C lick
C ube
D rag
D SL
F U
F ill
F low
F REE
G I
H H
K ee
M AT
M YS
N e
N ames
N ext
P ose
R AND
S RC
S olo
S ampler
S uffix
T UP
U SER
V D
V alues
V Box
W P
W ah
W anted
\ "
\ <
` `
b onn
d ynamic
d rive
e o
f am
g g
i co
n a
o ard
s n
s oft
s quare
s cope
s chwarz
t d
t ex
t om
t char
v es
w ays
w icketsLost
y d
} }
¢ °
å Ľ
æ įŀ
Ġ ();<
ĵ Ħå
st ore
at ar
int ern
int Event
Ġc lock
am t
ce f
Ġm an
Ġm ultip
ri ber
le y
() !=
Ġn r
ct ype
se cs
an tern
al ary
ic kn
Ġv ia
pp ing
Ġf printf
Ġf Delta
Ġs hm
Ġs ingly
Ġp w
Ġp id
Ġre m
Ġa ux
lo v
ro t
ate Object
et ime
ig l
un ion
ub ble
Ġint eg
mp ts
Ġo ur
Ġo stream
us y
ER EN
ER IAL
ĠS k
ĠS ec
ĠS core
ĠS chwarz
Ġg reater
ĠC lock
ĠC ustom
ĠC PU
++ ,
++ ]
IN ode
ed u
ĠT ask
ĠT ARGET
ĠM AR
ĠP av
Ġ2 2
Ġw rapper
Ġw icketsLost
Ġ{ {
In struction
Ġl y
ĠD B
ĠD ark
AT T
ĠL U
ĠL oc
ĠQ u
PP ER
ĠI mpl
li x
li ed
ĠB ack
Ġar mv
th ers
om in
ĠH WND
Ġk Debug
AB S
nt i
pro duct
ard ust
ĠV M
[] (
[] ={
Ġbe ing
ll t
ph i
sc ript
sc riber
SC REEN
Ġå Ļ¨
ĠIn ternal
Ġ} ,
Data Handler
OL Y
OL DER
Sc heme
Lo aded
ĠSt d
ĠSt ardust
Ref lection
Menu Bar
Ġal ready
line ar
Point s
Ġwith out
Ġprint s
ov o
Ġexp ort
ĠZ ephyr
config uration
wap Chain
Ġat las
ee ded
SER VICE
ĠError Code
OW ER
13 05
ĠID X
An swer
ick er
Param eters
pop cnt
Se quence
Command s
tra p
visitor s
ĠFile Check
bri d
Packet Ids
Ġtotal BallsBowled
Ġtotal RunsScored
widget s
proto buf
Run ner
ok es
Ġent ry
mi rai
lean up
man ual
Ġsu ccess
ĠRender er
Read Result
wri stb
ĠDi rection
Ġassignment s
Call stack
DU CT
Ġsupport s
vide nd
ĠAl igned
---------------------------------------------------------------- ------
ĠProgram ming
total BallsBowled
total RunsScored
Ġsimd json
Ġcal led
Ġrequi red
ĠSH APE
Score boardId
MMatch Rule
Static Mesh
Ġéį ĳå
Ġfa iled
Ġorig inal
MESS AGES
Ġax is
FEAT URE
atal an
ivis or
Tur bo
ĠStream ReadResult
TIM ER
andbox Layer
REAL SPACE
anim ateObject
ĠExec ute
ReadOnly BinaryStream
ç®Ĺ æ³ķ
ĠMinecraft PacketIds
Detail s
MING W
ĠFaust Generated
TUP LE
ĵĦå §ı
ickn ess
ĠMAR LIN
ĠPav lov
ĠkDebug Suffix
wristb and
Ġéįĳå ĵĦå§ı
: /
> +
A X
B AL
B ad
B AR
B OD
B iome
C art
C UR
C ircle
C loud
D T
D istributed
F ull
F OLDER
H F
H OR
H INSTANCE
I OR
L ong
M ULTI
N ATIVE
R emo
S ur
S el
S elf
S ky
S heet
S eries
U RES
W STR
W atcher
[ '
] ))
b la
c ut
c an
c make
e a
f e
f x
f inite
g on
g uid
g rad
g mail
h ud
h annel
m ol
m essages
p o
p ng
q t
q w
r ust
s olution
s amp
u ess
v ow
x t
{ -
½ æķ°
ç §
ç ĺ
é į
é Ĺ
Ġ /**
Ġ rom
Ġ err
Ġ ladder
ķ Ĭ
re ly
int eg
Ġ" ;
include s
Ġc tx
am ma
ce iver
ar se
() );
an ic
al ance
pa y
pa wn
ion ne
it ude
Ġp Match
Ġp oly
Ġb l
Ġb ound
Ġre pres
ss ible
la ps
ig id
Ġco pi
lic ated
ĠA sync
ĠA UTO
ĠS im
ĠS ha
is er
Ġ// /
ĠC os
ĠC atch
ĠC amera
ĠC heat
yp es
ĠE L
tr anslation
ĠĠĠĠĠĠĠĠ ĠĠĠĠĠĠĠĠĠĠĠĠĠĠĠ
ver age
ĠT OK
ĠM sg
ĠM DrawContext
il y
Ġd b
Ġd on
Ġd ir
Ġd ue
Ġd iff
te ms
Ġfor ward
32 0
RE D
Ġh i
Ġh data
ĠG LO
bo ot
ĠD ionne
ir ror
ĠN et
ĠN Windows
AT ED
DE FORM
St amp
ĠF ilter
ĉĉ ĠĠĠ
Vector Xi
ĠL ou
Ġst atus
ĠR L
ĠR and
ĠR ot
ĠQ ListWidget
Ġto do
Ġto Float
ĠB E
per son
sh ader
10 1
10 24
tt o
Ġget delim
lm gl
Ġk Num
The me
par t
mat ch
MO V
ĠO r
TO OLS
ĠV isitor
Type Info
Type Template
Ar chetype
GL uint
sc reen
AD APT
bu i
ps z
SC hannel
af ter
Ġset Position
act ive
to k
di rection
ho us
Ġnot ice
ĠEx clude
PAR SE
ip e
INT R
Of N
cb egin
Col lision
Ġun o
MA KE
Comp ress
Un known
Ġcon currency
SP R
Bu y
ĠRE TRODREAM
Ġdi rection
ĠZ I
SO DIUM
cc ur
Spec ification
inter val
Render ing
Render Node
cy rand
99 8244353
Cpp Type
Horizontal Formatting
Horizontal TextFormatting
Class es
Class Template
MB itmap
Ġ) "_
NT STATUS
Ġen code
Ġmod ules
Att ribute
Initial iser
Rect angle
FILE S
Arg uments
cont inue
cont ains
we bpp
Component Iterator
proto cols
Ġrun ning
fast io
ateg ory
Colour UDim
Colour URect
ï¼ ļ
åĩ ½æķ°
quest ion
No te
Vertical Formatting
Vertical TextFormatting
PRE SS
ĠEYER PLAYER
var s
inf rt
STD AFX
current Frame
Ġra rely
Dis k
ĠApp Delegate
ĠProcess or
Ġdec rement
Ġhel lo
ano i
ĠInter rupt
Combo Box
ĠPoint er
urs ive
ĠBinary OperatorType
global s
jo in
ĠMessage Window
ĠAPI ENTRY
Ġlp Reserved
åº ľ
Gx IO
Ġdoes n
++++ ++++
GameType Mgr
column s
ĠSY STEM
**************************************************************** ****************<
Ori entation
ĠAN IME
ColourU Vector
ColourU Box
Ġimplement ed
Dist ortion
Scoped Handle
çª ĥ
third party
SEC URE
Select ed
ĠMesh SyncClient
CTBridge Delegate
Ste p
oph us
Li bui
ĠGUIT ARD
Bat tery
Bind ings
ĠåĻ¨ çªĥ
ĠSHAPE DEFORM
BOD Y
Remo te
laps ible
ĠLou is
4 9
; //
A U
B LE
B ot
B oost
C RC
C trl
D R
D OT
D rop
F ragment
G WIN
G UID
H W
H and
I Z
J IT
M etrics
N M
P ol
P resent
R PMP
S R
S CO
S ingle
T K
T OR
T inylang
U tf
W ifi
X clang
Y LE
] %
^ (
c hed
d y
f b
f in
f ield
i dent
i ris
l argest
n u
n all
o log
p n
p Address
t et
t ed
w ait
z e
ä ¾
å ®
æ ¶
æ ¢°
ç ľ
è ®
Ġ REG
Ġ ORB
ı £
in v
in st
in place
en cpp
Ġc rc
Ġc ell
Ġc pu
Ġc atalan
Ġm et
es phome
ar uno
def group
Ġi r
Ġf ull
Ġf uzz
ra ction
Ġs impl
Ġs core
Ġs ingleton
Ġp c
Ġp ha
Ġb attle
Ġre ct
Ġre ach
Ġre lease
Ġa ge
Ġa udio
he lix
la in
un lock
Ġco ins
mp eg
Ġo mn
Ġo gg
ĠA bstract
ER A
iz z
** )<
ĠS to
Ġg id
Ġg ui
ĠC OLS
ĠC mpt
ed Native
ĠM an
ĠM RECT
il on
ĠP art
ĠP BYTE
---- -
Ġd isp
Ġw ritten
te gr
sp an
Ġof s
In ning
Ġl hs
LE Q
Ġh Wnd
bo w
bo se
ĠN ormal
Ġj udge
ot ion
OR M
OR DER
DE CODER
set fill
ĠF C
ĠR x
Ġe lem
Ġto k
yn omial
AN Y
ĠU RL
ĠU FOMAP
em l
em it
od d
Ex ample
comp ressed
Ġr untime
ĠW OR
ĠW ITH
ĠH MODULE
ĠH ello
Ġde sc
RO S
RO LL
pro c
pro vider
String s
ann ot
ense al
ll d
Ġpro to
Ġmax C
FA ST
ud c
ud y
Base Quest
SC L
Ġse f
file Path
Ġth reshold
Object ive
CH ud
ĠEx ception
AM X
AM ERA
Re p
com pact
PORT CLIENT
ĠJ ob
Ġinclude d
To Expression
To Int
ft Strategy
Ch at
Ġ# %
Function Info
Function CallExpression
ĠSt ate
ERAT E
Ġfoo z
Ġcon sole
100 0000
work er
Sh utdown
Ġcont roller
WR ITE
Time out
Inter pol
oc used
Game Object
He ad
ĠID B
MEM ORY
Ġtime out
Ġtime val
Vis ual
REF EREN
av ailable
Param ValueList
ĠCO MM
Ġtext ure
Action Buy
Ġpoint er
node s
fc n
Ġen c
Format ter
Lib graphics
pack et
lang data
gener ate
Ġper mute
cur l
dl fcn
Tra ining
21 9
Tr ue
Tr ans
ĠONN X
ok ie
US ING
Result s
09 6
serial ization
PR INT
Com pare
ĠLIB PS
Ġ201 7
ĠIMPORT ING
ĠRes et
ĠSe arch
curr encpp
LOC ALE
vide o
Sort ed
Rad ius
)); }<
ĠTR ACY
Ġinter val
mut ator
ĠSE COND
ĠSE ETA
}) "_
ĠAR PMP
sd k
Ġrel ated
Ġnormal f
Fast Mutex
ĠGlobal Map
================================ ========
================================ ========================================
¥å ı£
First Inning
GRAPHIC LIB
TRA ITS
Cal cul
filter s
QP ainter
Ġsample Rate
ĠMMatch Rule
DXSDK VER
"( {"
Ġml ir
backend s
ais y
Iter ations
OFF SET
Ġbenchmark Query
CY GWIN
Cvt Impl
Return Statement
"][ "
utolink edNative
GIC P
Ġmer ge
BSD F
ĠGEO GRAPHICLIB
CAuto Lock
Kee per
yd ro
intern als
ATT ACK
ĠBack ground
Tinylang Version
ĠSECOND A
FirstInning s
( /*
* =
. ");<
3 86
< (
> /
> :
A ffine
B AT
B reak
B Zip
C rc
C ross
D src
D ump
E fc
F undam
H I
H istory
H ydro
K S
L AS
M e
M ag
M ele
M ID
M etadata
O ME
P A
P H
P atch
Q MainWindow
S n
S WI
S upported
W arning
Z RULE
] +=
a Lib
b ab
b az
c gi
d uration
e qual
f inal
f actorial
f lush
f eatures
g uest
h h
l ers
p thread
p oly
r m
s end
s dl
t ic
t ist
t bl
u ally
u uid
w ind
z Alloc
æ Ģ
æ Ŀ
è Į
Ġ ()<
Ġ ++)
ļ ä¹
Ń ī
de lta
en ded
er ate
re pp
re ssion
re quired
int rin
int rinsic
Ġc am
Ġc riter
am s
ce ive
Ġm eg
Ġm ark
Ġm utex
Ġm ks
Ġm issing
Ġi o
Ġn et
Ġt ake
Ġt eam
if est
Ġv c
Ġf t
Ġf ace
Ġ* ****
ine FunctionInfo
Ġs size
ur al
Ġp s
Ġp ragma
Ġp Group
Ġp Callstack
Ġb asis
Ġb oard
Ġre d
Ġre interpret
Ġa arch
la cian
-- ;
un ity
un ication
Ġco mm
ma cos
>// ===
Ġo pr
Ġo thers
ex ist
Ġma sk
ĠS U
Ġ// !
Ġg ray
Ġg cc
ĠC ar
ĠC ontext
IN S
ĠE VENT
ĠE NABLE
ch ild
ĠT e
ĠM ore
ĠM KS
il ti
ĠP O
im bot
Ġd d
Ġd type
EN E
Ġw in
AL LO
In sert
Ġl b
Co st
RE CTION
ĠG ET
ĠG UI
ad ing
ĠD own
eg ate
Ġch unk
ĠN ative
ĠN api
ĠN Archive
PL IT
ata ble
as ics
and marker
ef sw
ĠF B
//////// ////
get s
ĠQ P
ĠI S
ĠB asic
AC CESS
Ġr gb
ĠW ait
Ġk th
ens ure
Ġde pendent
ALI Z
Pro to
ser tion
ser ved
ĠO F
ĠO ver
IC ontext
IC ODE
Type ID
qu at
ure ku
Ġmax Depth
ight s
Ġset Font
iv al
Ġth unk
LO OK
di ces
Event Set
Ġnot hing
Ġ% =
Con n
Con verter
Ġ} ,<
Zero es
ĠJ son
DL T
Test Data
mb ly
Ġstr ong
OB J
For ces
Comp onents
Un lock
File Reader
Ref ureku
ĠGL CORE
Res olution
me an
SP I
Ġal ignment
ENT T
SO LE
SO CKET
PRO M
=" ";<
Ġpart ition
Ma ke
BO X
Check Button
Ġz pl
Command List
Op t
Al ignment
Gener ate
By tes
Qu ad
Device s
ML IR
ĠRe al
ĠCh ar
55 55
ich or
Ġsu ch
Ġimp orter
Not ification
pair s
sign ature
ĠLog icOperatorType
Helper Defines
Ġ{} );<
COMP ILER
Vertical ScrollBar
Ġconfig ure
Json Document
ĠSe esaw
Tool Tip
Ġevent s
IND S
Part icle
QR Code
ĠPar se
Ġuser data
hal f
ĠSH ARE
eed back
Fast SIMD
Access Ptr
lap lacian
ĠRef lection
Local Value
Broadcast er
Unique ID
CRE ATE
Ġax es
Intensity Filter
Ori gin
sprites heet
Registr ation
Mem ber
WT P
Ġul ong
ox el
åĢ ł
PointXYZ I
rel ational
Ġplace d
ĠmaxPro fit
PASS WORD
èĥ ¶
SCR IPT
Depen dency
Timest amp
eps ilon
DETECT OR
ĠCHudElem Base
Dark Forces
FEX Core
ĠAS N
Ġallow ed
ĠOUT PUT
phys ical
826 6
ĠLoc al
éĹ ´
ĠGLO BAL
Ġmet atable
Ġfuzz er
Efc Dsrc
Mele e
ļä¹ ī
repp ingD
* \
, (
0 7
4 1
A c
A UTO
B T
B lur
C LOCK
D iv
D bg
D emo
E nt
F n
F ilename
F actorial
F ixed
G o
I SO
I ReactPackageProvider
J S
J MP
L K
L R
L ACK
M o
M etric
M ALLOC
N a
O OG
P ressed
P lug
P ublisher
P OWER
Q Image
R s
R END
R emove
S aver
T un
T Body
U V
U FF
V ariables
Y ou
_ )
b lue
b asics
c andies
d at
d ig
e ve
g re
i ces
j it
j mp
k a
l tra
m illiseconds
n m
n pos
p id
p ost
p Parent
p wn
r f
r g
r x
r anch
s ave
t te
t enseal
u es
{ }
¥ ç
¨ ĭ
å Ĩ
å ķĬ
æ Ĺ
æ ŀ
ç Ńī
ç ¨ĭ
è Ĥ
é ı
é Ķ
Ġ ut
Ġ erase
Ġ question
Ġ ensure
Ħ Ĭ
ı çļĦ
de pendent
st ride
at tr
er l
er os
er arch
re act
Ġ" %
Ġc andies
Ġm ov
ar ma
Ġn b
Ġn at
co ins
Ġt ms
Ġt itle
al gorithms
id Init
Ġv l
Ġv s
Ġv tk
Ġf x
ra int
Ġs at
Ġs ense
Ġs pd
Ġs oft
Ġs leep
Ġs peed
Ġp ool
Ġp Mouse
Ġp MenuSeparator
Ġb et
Ġb usy
Ġa i
Ġa bout
et o
et ype
str s
str len
Ġ0 8
Ġco coa
Ġo wner
us c
us age
Ġ1 80
um e
ĠA T
Ġ( _
Ġma pped
ĠS m
ĠS ort
ĠS ty
is k
Ġ// <
ol l
ĠC RC
++ );<
IN F
ĠE mpty
tr ansfer
ch ach
ĠT YPE
io mes
im s
Ġd at
Ġd up
Ġw on
Ġin v
ation Mode
Ġl arg
Ġl ines
ont h
ĠG AME
ĠG UID
ĠG adget
ĠN GEN
AR DUINO
PL SChannel
St ats
St airs
set Text
ĠF String
ĠF rom
Ġst op
ĠQ Image
ĠQ Style
ĠB ar
ĠB LE
ĠB ML
ĠB iomes
og raph
per m
FI ELD
Ex tra
th in
sh m
comp onents
Ġr l
Ġr st
ĠH RESULT
lm lib
AB OUT
Ġde g
Ġde tect
Ġde serialize
Ġde precated
20 19
Pro perties
pro g
pro p
pro gram
ser ve
ser act
IC S
TO bj
SH APE
BU F
dd k
lib rary
ff t
Ġpro vide
ID R
12 6
Ġmat erial
SC ANN
Ġse ver
Ġth ird
ĠX MP
Stream er
LO OP
CL IP
log ging
ly rics
com ment
UE CS
Con vert
Con version
Con structor
Ġ7 7
Ġpa st
Ġpa use
open Vertical
ĠPro tocol
Ġun known
ĠExpression List
ĠGet View
ERAT OR
Un i
plugin x
Ġan ker
Set up
ä¸ Ģ
Ġ9 6
ENERAT E
Ġal paca
TR UE
Ġfirst Name
Id le
app ender
Ġvec f
pe at
Frame work
PRO C
pos ix
Th reshold
so ck
Game Draw
Render Window
ĠIm Vec
ĠID C
Par se
Par allel
]) %
NULL PTR
Horizontal ScrollBar
result s
Di alect
Ġreverse String
PC WSTR
Util ities
DISABLE D
PER TY
VI RON
Al bum
ale tte
ĠAdd ing
Sub Array
ĠWIN VER
ank erl
ĠOn Update
fs Archive
Ġper form
we i
Ġrun ner
APP ER
den s
lean Up
Ġlast Name
xx xx
Dele te
Not ice
ĠSh ader
NE ED
ĠFor ces
Ġbase d
ell ing
Serial ization
ax es
Ġam x
ĠGame State
fix ture
bit set
Tool s
ĠTo ken
Stack View
Ġsign ature
Ġlo ss
Act ivity
Ġshow s
Dis able
Ġbind ing
METHOD IMP
PARAMETER S
Track ing
ĠPar ent
ĠĠĠĠĠĠĠĠĠĠĠĠĠĠĠĠĠĠĠĠĠĠĠĠĠĠĠĠĠĠĠĠ ĠĠ
generator s
urs or
è¤ ī
WARN ING
dc n
Second s
squ ares
Ġact ive
Ġvalid ate
dest roy
ĠGener ator
è¾ ĳ
CRYPTO PP
asse mbler
FEAT URES
orig in
orig inal
sl am
ĠSu per
ĠFAST SIMD
Bound ary
æİ ĵ
ĠLay out
eh icle
EyerPlayer Event
Ġmon itor
Ġden omin
SYN C
éĬĪ æİĵ
KERN EL
ZT ID
cessed Size
è° ¢
Ġcondition s
Mach ineFunctionInfo
Ġlim it
ĠDX GI
syn thizer
èĸª æĩĪ
ĠAtt ribute
PART ITION
---------------------------------------------------------------------- ===//<
vow el
çĺ ¤
integ ral
Ġpha ke
tegr ation
ĠCOMM ON
unication Manager
>//=== ----------------------------------------------------------------------===//<
Ġthunk libs
oxel Engine
OOG LE
ç¨ĭ åº
èĤ º
Ġspd log
chach a
openVertical Box
Ġanker l
VIRON MENT
& &)
) -
) };<
* >&
, ...
. %
1 99
2 0000
: "<<
A uth
B F
B Kern
C re
C AC
C CE
C MP
C heat
C ursor
D RIVER
E le
E mpty
E very
F x
F ACTOR
G PU
G amal
G uess
H und
H AV
H ardware
I ES
I ReactPackage
J OY
K INDS
L P
L V
L IGHT
M X
M i
M es
M ay
M DrawContext
N A
N LL
N PC
O ta
P atcher
P BYTE
P refix
Q Point
Q Frame
Q JsonObject
R IGHT
R igid
S ink
S AMPLE
T iles
U AL
U String
U CLASS
X Ptr
] ^
] ")<
` <
b et
b ig
b eta
c md
c enter
c asbin
c ube
d ay
d tor
e b
f w
f ec
f iler
f lip
g d
g reg
g lad
h er
i ke
k it
l Gamal
o reg
p lus
q Statement
r anges
s r
s ome
s apien
s alary
v vi
v ision
v atar
x s
y es
ã Ģ
å Ħ
å Ń
æ ļ
é Ŀ
Ġ ri
Ġ ess
Ġ -----
Ĥ <
ĭ ¼
Ķ çĶ¨
st orage
on us
at io
lu cian
re c
re cord
Ġ<< <
Ġ" ."
ut ion
Ġc and
Ġc ircle
end ing
le tion
() ));<
Ġi mpl
Ġi gl
Ġn tp
Ġn eeded
se f
se al
se quence
Ġt s
pa inter
if t
id ar
Ġv v
Ġv gui
Ġv ariant
Ġv ertex
Ġ* _
Ġs odium
Ġp h
Ġp lay
Ġp nd
Ġp PopupMenu
Ġa uthor
he he
he ther
lo ss
lo tt
un iform
ma gery
ent ed
>// {<
ĠA D
ĠA X
ĠA ll
ĠA bout
Ġ( ((
ĠS W
ĠS lic
ol er
Ġg rid
ĠC AN
ĠC CL
ĠC allback
ĠC urrent
ĠC opy
IN C
yp oint
ck link
__ ))<
ĠT AG
ĠM Widget
ĠM atcher
il ing
ĠP m
ĠP ush
ĠP atch
ĠP OS
im izer
im eline
Ġd y
Ġd ate
Ġd igits
EN CODER
Ġw rong
Ġw hether
arg ument
op Expression
sp i
sp arse
In fer
In Register
In verter
ist ream
Ġl dl
Ġl ongest
LE T
RE C
Ġh am
bo y
ĠD O
ĠD elta
ĠD iscrete
eg rees
Ġch r
ĠN one
as i
as y
ĠF ree
ĠF actorial
ĠF ALSE
IM G
IL TER
Ġst ep
ĠR B
ĠR ect
ĠR NE
ĠR estore
ĠR emove
Ġe lapsed
get Parent
ĠQ SpinBox
ĠI chor
ĠI magery
Ġto s
li a
li ve
AN S
ag ram
ag lia
IT C
IT OR
IT ICAL
ual ity
ans ion
th unk
ang les
sh ot
10 5
Ġr cl
om etric
SE MA
ĠW AF
ĠH igh
CT STR
QU rl
QU ENTT
ens y
EX ASS
EX EC
Pro tocol
fo c
TO PT
ĠV idInit
ta in
Type Object
CO P
qu ot
UN SPE
UN NABLE
UN ICODE
matrix Function
Widget Look
DI RECTION
Ġreg s
Ġreg ard
lement ed
Application Delegate
Ġse par
Ġse esaw
Ġset Length
Ġset Selected
act Package
to uch
iv ely
Ġth ese
CH OR
LO QUENTT
ab b
di vidend
Event Handler
ĠĠĠĠĠĠĠĠĠĠĠĠĠĠĠĠ ĠĠĠĠĠĠĠĠĠĠĠĠ
Ġå Ľ
Ġclass es
Con v
Con nect
ĠIn t
Data Type
To M
Ġpa y
are a
pd ims
max Index
ĠPro to
Ġun k
Function Storage
array s
mo oth
enum ber
pen dencies
Def ined
Get Name
AV CONFIG
PLU S
ix er
exp fn
Point Normal
MP C
Statement Wrapper
Ġu id
Ġexp fn
OP R
WR APPER
init Object
Ġsub type
OT A
SO FT
pi Helper
Item List
Log in
Log Level
Ġsyn thizer
show AllPlayers
READ ER
PRO DUCT
Inter preter
FF VERSION
no te
oc i
ash board
ACT IONS
Ma pper
doc ument
Render Target
ning OfCamera
Cpp Array
Cpp Reflection
çĶ «
App ly
Ġkey s
Ġrandom bytes
Ġwe ird
GR L
Common ScrollBar
LL VM
tri angle
game boy
Se maphore
Command Line
ĠSystem Menu
Ed ge
resize Event
HE AD
direct ory
cos lucian
NT L
BE HAV
object s
Py Object
Py TypeObject
ĠOn Draw
Ġus bg
Arg ument
jp eg
cont ract
we ets
Component Vector
Sp elling
Match er
Const Expression
ĠStr uct
INV ALID
ĠRe actPackage
ĠCh annel
Ġtwo Sum
ĠCon sole
link er
Max Iterations
Not Imp
number s
ci ano
Ġequ ival
vert ical
da CodeGraph
ĠString Map
ĠDef ines
ĠComp lex
ĠSprite Animation
air play
Table View
Ġnon ce
Ġsingle Number
cir cle
cal ib
Decl aration
FIL ERE
Resource Manager
Abs olute
PO INTER
Package Test
28 0
nost ics
Ġmem set
ĠIP COP
Ġfollow ing
Do main
Binary OperatorType
ĠTo String
Nv Infer
Ġstream ingClassifier
mult i
initial ized
Attack Range
Attack Melee
Rec y
item s
Temp erature
INY ML
ĠPL SL
Act ivate
mut ations
ĠFa iled
Ġremove Duplicates
isf y
isf inite
EXTEN DED
Current Frame
over ride
TOKEN KINDS
Ġ") "
ĠPar ser
Ġarm strong
Ġpo ssible
Det ector
Graphics View
Radio Button
QW heelEvent
Pair s
ĠSymbol s
CppGeneric Class
CppGeneric Method
SUB CASE
Exec ute
Job Handle
FORMAT TER
Sele ctor
ĠDecl aration
RA DE
About Dialog
ĠMenu Button
WD F
IMPLEMENT ATION
ĠSp otify
ĠFU A
iltin Type
alk able
Comb at
Tiny Engine
ĠPer son
fre open
fre etype
ĠTips Menu
mar coslucian
ĠLu a
ĠLu ciano
ĠOB S
Ġlayer Idx
Linked List
ComboButton Item
GT TOOLS
amed Area
seq Expression
ĠAd afruit
ĠFast Mutex
COUN TER
Events Monitor
Face Info
UMB ER
Ġmi rai
GU ARD
Fusion CamSensor
Rel ative
VARI ABLE
Critical Section
Ġkee pdims
DOWN LOADER
Include s
ĠSTAT US
SPECIAL FUNCTIONS
Fix ture
kg Color
ALIGN ED
Poly gon
SQL ite
çĤ ¹
ĠScoped Guard
ĠMar cos
456 78
Metal Kit
MYS QL
Note Key
SCO PE
TOR CH
nu ovo
Ġir q
Ġsimpl y
Interpol ationMode
Ġcriter ion
ĠTe ensy
egate ConditionalWrapper
reppingD lg
LK FLOW
LACK S
erarch y
Ġsat isfy
ograph ic
SCANN ER
ç¨ĭåº ıçļĦ
CAC HE
FACTOR Y
IReactPackage Builder
Mes Box
NLL Loss
oreg round
ãĢ Ĥ<
ĶçĶ¨ ç¨ĭåºıçļĦ
Ġpnd tri
lott a
ĠCCL CC
Ġldl t
thunk gen
EXASS OLVER
UNSPE LL
LOQUENTT INYML
BEHAV IOR
ĠReactPackage Provider
NotImp lemented
Ġequival ent
FILERE ADER
marcoslucian ops
' };<
( :
) ){<
) *(
* ");<
- =
. ,
. );<
3 00
5 4
9 7
< -
@ +
A UDIO
A ARCH
A vailable
A cce
A nti
B A
B C
B l
B an
B PL
B AB
B ias
B enchmark
B ROW
C ar
C ur
C ap
C ED
C LO
C API
C ATCH
D AT
D CS
D lg
F V
F un
F older
F MT
G P
G iv
G TH
H i
H igh
H ASH
I FIER
J NI
L egacy
M id
M GB
M ATH
M otion
N V
O F
P l
P at
P ow
P lus
P HO
P artialPivLU
R a
R et
R isk
S A
S vd
S quares
S PLIT
T UR
T ax
U gly
W ARE
X MP
X cd
Y our
Z PL
Z eros
] ',
^ [
^ *\
_ ##
a con
b z
b ble
b pm
b attle
c j
c end
c um
d ist
d ivisor
e loc
f i
f printf
f ence
f uture
g il
g rid
g uard
g reater
h ang
h ilti
i ans
i rect
i ano
i entation
j k
j un
j ector
k th
k tl
l n
n ic
p in
p ream
p Line
p buf
p alindrome
p lane
p anic
q r
r amp
r one
r ng
r viz
t ft
u h
u ang
v p
v as
w i
w atch
w ifi
w arn
y ang
{ },
£ ĺ
° éĬĪ
µ åĢł
ã Ĥ
å ł
ç £
é £ĺ
Ġ (),
Ġ engine
Ġ ç»
Ĩ æŃ
in valid
de m
de al
st l
en ge
at ore
at las
at tach
er f
er fc
er bla
re ed
re strict
// ===
or ies
Ġ" #
Ġc at
Ġc lient
es ley
ar bitrary
() %
Ġi eml
Ġn all
co very
co pt
Ġt c
Ġt urn
Ġt ower
al y
pa s
Ġv ulkan
Ġf actor
Ġf requency
Ġ* ********************
Ġ* **<
Ġs ig
Ġs upp
Ġs rand
Ġs aved
Ġs quares
Ġs ince
Ġs secs
Ġp g
Ġp ressed
Ġb ox
Ġb ubble
Ġre c
Ġre cord
la uncher
ro om
ro py
ro ug
et ch
un known
un aryExpr
>// }<
ĠA t
ER Y
Ġ( <
iz ard
ĠS ine
ĠS ele
ĠS top
ĠS ingle
Ġg it
Ġg ive
Ġg tk
Ġg uard
Ġis finite
ĠC A
ĠC L
++ ];<
el on
ed ge
ĠE M
ĠT ile
ĠT IME
ĠM ode
ĠM em
ĠM ac
ĠM ethod
ĠM ake
ĠP h
ĠP in
ĠP op
ĠP ost
ĠP ass
ĠP artialPivLU
im ium
Ġ2 9
Ġd ay
Ġd ummy
Ġd aisy
EN DIAN
Ġw i
Ġw idget
Ġin int
AL UE
sp rintf
In c
Ġ& ,
Ġl ater
Co ord
LE AK
Ġh ook
ST ART
ĠG pu
bo dy
ad j
ĠD on
ĠD emo
ĠD NA
ĠD egrees
Ġif ndef
ĠN Arc
ĠN Compress
AR RAY
Ġj ump
AT ER
AT TR
PL ATE
as ci
ot o
set Threshold
set MaxIterations
ĠF E
ĠF R
ĠF lotta
Ġnum erator
Vector Xcd
ĠL PARAM
ĠL DLT
ĠR T
Ġe v
ĠQ ue
ĠQ VariantMap
Ġx erbla
ĠB UT
ĠB LAS
ĠB DCS
og gle
og ram
Eigen value
AN IM
ĠU C
ĠEigen Base
per mutation
ang ent
comp ress
Ġr f
Ġr amp
SE X
ĠW M
ĠW esley
est imated
Ġy ields
Ġget char
ĠH w
ĠH ouseholderQ
ĠH istory
lm ng
Ġk ern
QU ERY
con jugate
con currencpp
MO VE
20 13
20 22
of stream
nt l
pro b
pro j
pro xy
pri ority
IC ALL
TO S
ĠV ariable
ĠV oxelEngine
ĠV ALUE
Ġ! !!<
List Item
lib av
lib rg
En c
En coding
ID TH
12 7
Ġ10 3
Ġreg ression
ac cess
transpose InPlace
bu st
SC ENE
Ġset F
Ġset Group
Ġcomp utes
Ġcomp licated
ton c
res olution
CON N
CON VER
sum o
vec f
com pare
Ġno ise
Data Matrix
ill map
ĠJ acobi
Ġun initialized
mo us
mo use
Ġstr s
enum s
face t
cond ition
ĠCo unt
Comp lete
Comp ressed
Comp uteThin
Un supported
Un even
solve With
solve InPlace
25 0
Ġcon jugate
Info Flags
ĠGL uint
Ġan ony
Set Value
TER S
ENT ITY
count ing
Ġu f
Ġu fomap
ĠArray Base
RT C
Error Factor
>/* !<
Ġoperator Sqrt
Ġgener ic
Ġtri angular
PRO TECT
lat er
Module Manager
Inter pre
Inter val
Th ree
Sensor Scanner
Image Loader
make Jacobi
make Giv
make Compressed
Ġapp lied
An s
An imated
(& _
Ġlog arithm
Config uration
Horizontal Slider
ENSE AL
ä½ µåĢł
Class ic
tri angular
ep rint
ĠBase Sensor
Check Label
tra de
ĠY s
VI SION
Input Stream
cos A
Hello World
Ġ32 0
ĠIN F
ĠIN PUT
Le af
operator Inverse
ĠRow VectorXf
Ġne arest
ĠSparseMatrix Base
rep lace
SI VE
ĠLo Ra
cont ent
we en
UD P
Tra ce
cwise Product
Ġrun Once
Tr ansfer
Unit X
Unit Y
Unit Z
Per Second
gl fw
Ġqu ite
Ġqu asi
ĠParam eter
ĠEn gine
ĠEn try
Ġfl Time
Ġequ ations
Ġsol ves
ĠSh utdown
let ed
ADD R
Sec ret
Ġlm tk
Timer Tool
æł ¼
No Change
ĠDef ine
Ġ201 8
ĠComp uteThin
Vertical Slider
be comes
vis or
Ġplatform s
ĠTh en
ĠTh at
ĠPLS D
Serial Formatter
sin A
We b
And Det
dir ent
ĠSub tract
Resource Provider
eigen vector
eigen value
simd json
ĠLL T
As se
HouseholderQ r
Ġcom ma
!! !<
!! !"
28 18
inf ty
ĠNo Change
Counter Singleton
mem cpy
ĠTr anslation
non Zeros
__(( __
Real Space
fullPiv HouseholderQr
rement s
ĠIL ike
Rec ursive
ĠCol PivHouseholderQ
ĠLO CK
04 00
Ġsp an
ĠPri mitive
Ġad joint
Bro ker
Ġ") \
Ġbutton s
Ġtimes pec
scrib e
Radio Label
9999 99
9999 999999
ĠOutput Stream
DO UB
Null aryExpr
Ġsm allest
Shared Count
Ġcomb ines
ĠDecl arations
ĠGLE ffect
Ġmouse PressEvent
select Players
pres sed
Cal c
ĠKey board
CR ITICAL
Ġact ivate
Ġtranspose d
yy yy
Ġdl limport
Ġdim ension
lg amma
Ġtensor V
Weapon s
POS ITION
ĠFullPiv HouseholderQR
householderQ r
Ġremo te
ĠAudio Device
Ġleg al
Split ter
åĪ ¶
fib onacci
åĢ ¼
åħ ¥åı£
Death Match
su ite
ĠLay er
Interrupt Manager
Fin ally
LEN GTH
RUN N
au ss
ĠFast SIMD
Sk illmap
oper ations
Red uce
pseudo Eigenvectors
pseudo Eigenvalue
Ġfragment s
Ġpresent ed
ĠUser Config
ĠENUM ERATE
computeInverse WithCheck
computeInverse AndDet
ĠapplyOnThe Left
ĠapplyOnThe Right
Generalized EigenSolver
Generalized SelfAdjointEigenSolver
PAN EL
ICK ER
ĠEyerPlayer Event
ä¿Ĭ è¾ĳ
Ġ$ {
Ġå® ļä¹ī
Reset Event
Ġfail test
èĬ ¯
aps ack
ĠImp lementation
Ġåº ĨæŃ
Ca pacity
Ġsw apping
Ġbin omial
ĠRad ians
ordin ate
Blu eprint
Crypto PP
Ne arest
RAND OM
VBox Layout
Ġinteg ers
brid ge
po isson
Ġcopi es
ĠCos ine
psz Name
çľ °éĬĪ
>/ ********************
Ġrgb f
QRCode Runnable
ĠSHARE D
Div ing
Ġlarg er
thin Q
Ġsever al
Ġdenomin atore
éĬĪæİĵ çľ°éĬĪ
bet as
Ġess ential
onus Object
Ġrcl cpp
Ġregard ing
Ġsepar ate
ĠåĽ º
Login View
ĠTeensy TimerTool
ĶçĶ¨ç¨ĭåºıçļĦ åħ¥åı£
(: ,
Ban as
FV R
Pat rol
PHO TO
eloc ity
nic mp
pream ble
roug h
ĠNArc InfoFlags
asci i
Ġnumerator s
ĠBUT TON
ĠBDCS VD
ĠHouseholderQ R
ĠJacobi SVD
ComputeThin U
solveWith Guess
Ġanony mous
makeGiv ens
operatorInverse Sqrt
ĠComputeThin V
ĠSubtract ing
ĠILike Banas
ĠColPivHouseholderQ R
DOUB LE
pseudoEigenvalue Matrix
computeInverseAndDet WithCheck
ĠåºĨæŃ ¹
éĬĪæİĵçľ°éĬĪ ä½µåĢł
ĶçĶ¨ç¨ĭåºıçļĦåħ¥åı£ çĤ¹
! \
! ");<
( [
) &
) ?
) __
) :\
7 7
8 4
9 1
9 11
9 26
: %
= <
= */
> "<
> ):"
? <
A Z
B D
B IGEN
B ill
C AT
C IDR
D ATE
D Shape
D igits
F riend
F inished
F ROM
G A
G ate
H old
H TTP
H olog
H UNSPELL
I I
I pAddress
J Mol
L D
L J
L ambda
M ak
M ListBox
M Xml
M apping
N AK
O KUP
O LEAN
P lane
P ipeline
P OLY
Q Debug
R B
R en
R IX
R ational
R viz
R ANGE
S end
S QU
S olution
S witch
S afe
S hell
T IN
T IT
T ake
T FT
T utor
T ASK
U v
U UID
V H
V m
V Base
W ide
X M
X Xi
Y s
Z Actor
[ ',
] "
] ));<
] ]);<
a uncher
b ro
c re
c rc
d g
d k
d type
d xvk
e el
e ins
f ul
f old
g row
g oogle
g cd
h r
h ome
h aped
h idden
i or
i ent
j ump
l ion
l mpl
l hs
m k
m ob
m etry
n s
n ul
o ot
o ading
p atch
p onder
q tt
s imple
s Sizable
s ql
s lice
t ile
u ck
u dent
u fomap
u yang
v h
w it
z ma
z wei
z hang
} ",
ª é¢ĩèĢģ
¼ ı
å ĥ
ç ¬
ç ĭ¼
è ´
è ½
è Įħ
é Ĵ
Ġ ../
Ġ ray
Ġ ++;<
Ġ angle
ĵ ªé¢ĩèĢģ
Ŀ èģªä¿ĥ
de ra
de lay
de crypt
de png
ĠĠĠĠ čĊ
st ac
st ers
st ead
en et
on ly
at ives
lu sters
re ader
re quest
Ġ" :
Ġ" {
inc t
Ġc f
Ġc y
Ġc lose
ce ptr
ce ll
Ġm eta
Ġm sd
ri es
ri sc
le g
() ),
Ġi A
Ġi Size
Ġn s
Ġn ames
ct rl
co gn
an other
Ġt C
Ġt b
Ġt w
Ġt ic
Ġt ab
al th
ic To
id ate
Ġf f
Ġf in
Ġf io
Ġ* >(
Ġ* ****************************************************************
it tle
Ġs nd
Ġs ys
Ġs izable
Ġs eries
Ġs ieve
Ġp wn
Ġb ias
Ġre main
ss d
Ġa ctor
la red
la ke
ro cm
ate Dialog
ub it
Ġo ct
ex e
us ic
ER IC
ĠS ER
ĠS Obj
ĠS ophus
ol ta
Ġis Prime
ĠC T
ĠC all
ĠC MP
ĠC OP
ĠC lose
ĠC ell
ĠC LI
ĠE num
ĠE mit
ĠE lem
ĠE ye
ĠE AX
tr anslate
ch ow
ĠT d
ĠT wo
ĠT icTo
ĠM X
ĠM LIB
ĠM odel
io d
il ar
ĠP D
ĠP OW
ĠP ipeline
Ġd q
Ġd ai
EN UM
Ġw arp
Ġin string
Ġin dependent
Ġ: "<<
sp in
In formation
In nerStride
Co oler
RE A
RE QUEST
ST YLE
ĠG en
ĠG rade
ĠG OOGLE
ge o
ĠD em
ĠD ele
ĠD ai
Ġch ip
ir con
AR M
pre order
as ound
Ġ4 7
Ġ4 096
DE x
St udy
set zero
Ġ3 00
ĠL ambda
ĠL egacy
ĠR ed
ĠR elease
Ġe ith
get Name
Ġx x
Ġx or
-> _
ĠB IT
ĠU p
ĠU PD
IT CH
IT TER
Ġ' %
Ġ' ]',
ĠMatrix Power
om eth
om net
tt p
ĠW R
ĠW PARAM
ĠW arning
ĠH and
ĠH ot
ĠH ud
ĠH ide
ĠH IGH
Ġk Config
Ġk Basic
con sole
mat erial
Ġde v
Ġde lim
Pro file
nt ddk
pro file
pri mitive
pri mes
); };<
TO DO
SH I
ele vations
ĠV fsArchive
[] <
lib il
ff ml
En cryp
Ġpro tocol
qu it
Ġmax len
Ġmax Len
DI ST
ac cept
Base Symbol
SC II
yst ick
ast le
Ġhe x
Ġhe he
Ġse pLine
Ġcomp ut
act ivate
Window Renderer
Window Factory
Ġth rough
ant ic
LO OKUP
Ġstring s
Bo iler
EXT RA
ĠEx ample
ING CLASS
log ic
Ġdefault s
CON SOLE
Re verse
Re port
Re pository
Ġå ĵªé¢ĩèĢģ
cl s
ti p
ĠIn sert
Data Base
ms a
ill is
Ġ6 0
To uch
Ġ| <
code d
)) )
)) )<
ĠGet Current
Function Type
ĠSt andard
ĠSt atus
mo e
mo unt
Ġend s
Ġend point
Ġend OfCamera
Comp ile
begin ning
ust um
Info Runnable
ELEM ENT
Ġmin Price
Res haped
Res ponder
me asurement
KE E
Ġdp i
Bu cket
ĠPRO JECT
Ġu v
Ġcont ribut
Ġcont rol
min imum
Ġdo copt
Ġll f
Add Param
cf g
ĠZ PL
roll ing
app ly
My Windows
Path Sum
Ġed ge
Log icOperatorType
pe ople
tes seract
Ġbegin ningOfCamera
Impl Traits
FF mpeg
no op
graph ml
Ġpart y
He ater
Render Effect
ĠID R
FLO OR
An agram
]) )<
tog raph
Handle Impl
Ġ** <
Config File
!= (
bl nd
ĠCO M
sqrt A
exception s
Ġstart s
Ġsc reen
Ġ... )<
åĲ į
UI ApplicationDelegate
ĠBase Symbol
md k
normal ize
CODE S
Graph Modification
14 15
hel p
Ad v
Ad afruit
ĠUn used
ĠUn iform
tensor s
Ġwh ere
mod ulo
Dec lared
Py OS
ĠAdd Param
Ġtarget s
Task s
Ġus age
FILE SYS
alloc ator
ZE ffect
gener al
Out Stream
Out erStride
itional Wrapper
openHorizontal Table
ĠAn ime
Ġro om
Tra der
ALL BACK
Ġstate Broadcaster
ĠCom bo
ĠCom pare
Edit Box
registr ar
Header List
ump y
mi ss
ĠCh ange
SIM PLE
Ġimp licit
Ġimp erative
Pass es
Read y
lim it
Ġé Ĥ
hash map
PR ISM
qui re
NE SS
USE D
Print er
PRE LU
ĠST ATE
ĠNum eric
Camera Actor
Ġinc re
Auto Size
Auto Lock
Auto Order
process ors
Token izer
Ġwork er
Min imal
ĠINT ER
GB A
Ġcurrent Frame
Mutex Impl
ĉĉĉĉ ĉĉ
ĠUI Window
ĠUI Responder
User s
Ġextern al
instance type
ysc all
ĠAl loc
ĠAl bum
tele metry
ĠWe i
wd f
Temp Expression
Net Id
Net Repository
button s
Catchment Realization
Date Time
ĠApp Event
ĠApp ly
ĠPri me
}) :\
ĠAR DUINO
Ġeigen Vectors
Byte S
Ġcal culate
Ġhigh light
Ġdest roy
Ġdest ination
Quest Map
Man ual
Man ia
Det ect
urs ion
PROTO BUF
ĠAuto Size
CppGeneric Context
CppGeneric Inst
Ġsuper visor
Ġig mdk
Exp Statement
NG X
ĠCON FIG
264 0
AA AA
ĠGLE FFECT
ĠGLE WAPI
LAB EL
select ed
Ġyy FlexLexer
Tick s
pass word
IF Y
()<< "
Eigenvalues Only
Card s
Ġwt n
Ġrt Get
123 45678
anti ations
GLE W
Pin Manager
ĠCal c
ĠIR BAB
ĠUT F
ĠUT ILITY
Ġdecl type
ĠQStringList Model
Tur bine
çª į
bt n
Ġfr ont
ErrorCode s
SW ITCH
sy m
ĠFrame work
UMB LE
cg al
just e
Ġdll main
ZT ASK
Ġ{' [',
ĠSys MesBox
ĠCond itionalWrapper
TabFrame Item
ĠSign al
LEE P
four th
Unreal cv
Debugger Present
Jo in
Media Player
Telemetry Sensor
Ġpp l
Ġdown load
ĠLin space
å¯ ¹
assignment s
vertex Shader
AUT HOR
Solo Gladiator
Ġmultip le
mpts View
script en
ĠStd Afx
FOLDER S
qw dialog
Ġrom ulator
ĠTOK EN
ĠMsg Func
ĠRot ate
ĠkNum M
TypeTemplate ClassTemplate
æ¶ Ŀèģªä¿ĥ
ĠCmpt AccessPtr
Sn ap
SWI SH
Ġnet api
Ġface book
macos x
exist ing
sertion Sort
MLIR Context
Ac count
Publisher Variables
rf ks
vision ing
ĠStruct ure
multi precision
ĠFUA vatar
BPL ib
TUR N
pas juste
ĠQue ue
ĠåĽº åºľ
BIGEN DIAN
Bill board
Holog ram
NAK ED
TIT LE
stac le
ceptr on
risc v
olta ge
ĠCOP Y
ĠEAX JMP
chow dsp
ĠTicTo c
Ġeith er
ometh ing
omnet pp
ĠkBasic Version
ffml p
INGCLASS IFIER
Ġåĵªé¢ĩèĢģ çŃī
openHorizontalTable Box
! ";<
' ]
' ."<
) ");<
) ((
, {
/ _
7 00
7 94
8 1
A AB
B AD
C LE
C andies
D xso
E GL
E lGamal
F N
F r
F ine
F String
F inal
F ONT
F OLD
G X
G it
G reppingDlg
H al
H as
H IGH
H idden
H ONE
H anoi
I SE
I tems
J PEG
L if
L ON
L ow
L ap
L ive
L ITER
M PEG
M SVC
M qtt
N an
N ORM
O ES
P ublic
P SP
P VOID
P ixel
P hysics
P lot
P alette
Q Text
Q Font
Q Color
Q Timer
Q LineEdit
Q ITC
R q
R EN
S IN
S ING
S andboxLayer
T orch
T ips
U CE
U dc
U PPER
U SIVE
V K
V ALID
W EB
W ays
W arp
W onder
W alkable
X X
X Y
] ]=
` .<
a intEvent
b I
b ad
b ba
c rash
d q
d ue
d cc
e q
f ragment
g ames
g Filter
g gui
g Utf
h y
h read
i k
l c
m x
m oid
m Lib
m etadata
m etrics
m elon
n l
o ice
p eg
p frame
r d
r inc
r end
r ation
r gb
s f
s id
s ingle
s Group
s coped
t v
t re
t ool
t rig
t js
u k
u la
x a
x r
x or
y m
z ure
z pl
z ircon
} _
¡ £
© º
å §
æ ¨
ç ´
ç ī
ç İ
ç ©º
è ¡
è ¿
Ġ et
Ġ el
Ġ utility
Į è¤ī
ĵ èģªä¿ĥ
in ity
de t
de mo
de precated
ĠĠĠĠ ĉĠĠĠ
st o
st x
en Context
on ic
on etime
on ometric
er tion
re m
re tri
// #
Ġ" .
Ġ" _
Ġ" ");<
Ġ" !!
Ġc ases
Ġc pasjuste
am ount
Ġm sbl
end ar
es is
ri er
() {};<
Ġi mode
Ġi deal
Ġn an
Ġn om
Ġn ID
ing Object
Ġt e
Ġt re
Ġt weets
al ity
al low
if fer
ic ular
id s
Ġv ld
Ġf loor
Ġf ocused
it ed
Ġs f
Ġs er
Ġs ound
Ġs cc
ur tle
Ġp ut
Ġp ts
Ġp itch
Ġp sz
Ġp Listener
Ġb ad
Ġb row
Ġa bc
lo mon
lo aded
et t
et pp
str cpy
str nicmp
un try
Ġco eff
Ġco cos
Ġo ccur
do g
Ġ( *)(
Ġma pper
ĠS um
ĠS pec
ĠS ET
ĠS parse
ĠS ervice
ĠS phere
ol ve
ĠC ard
ĠC Entity
ĠC loud
ĠC lipboard
ĠC AMERA
ĠE C
ĠE LS
ck Link
__ ("
Ġconst ants
string stream
ĠT Vec
ĠT elemetry
ĠT ENSEAL
ĠM Vector
ĠM ark
ĠM ETH
io dic
ĠP g
ĠP ort
ĠP os
ĠP ose
ĠP ower
ĠP AGE
ĠP alindrome
ĠP ATH
im pacto
Ġ2 50
Ġd h
ul se
Ġw id
Ġw og
arg in
AL LE
In str
In Event
In direct
In valid
In cluding
In tegration
ist ogram
Ġ& <
const ant
RE L
RE Q
Ġh int
Ġh Instance
Ġh idden
ST ICKER
ĠG x
stream size
ĠD ist
ir k
ĠN AME
AR GE
PL SU
ec s
as m
as io
and s
and ing
all types
Ġ4 5
DE V
DE CK
DE VICE
St icker
ĠF ormal
ĠF NM
ĠF ILTER
IM A
IL L
ĠL ine
ĠL ength
ĠL ower
ĠL inear
ĠR el
ĠR ep
Ġe mp
ction ary
Random Number
ĠQ Frame
ĠQ Icon
Ġto uch
li er
ĠB SD
ĠB ridge
og l
ĠU int
ĠU rl
ĠU CHAR
Ġar tist
ag nostics
Ġfile path
per spective
struct s
Ġ' )
th ing
ern et
ang ora
10 10
UL AR
SE LECT
ME T
ME SH
est amp
red uction
Ġy aw
Ġget A
Ġget Distance
Ġget Full
Ġget Metrics
ĠH ardware
con structor
<<" -
EX P
EX PECT
RO UP
vi val
pro m
pro gress
pro logue
pro cessedSize
ser ies
pri ce
pri sm
TO P
IG N
SH A
Type CvtImpl
ansp ar
CO MB
Ġpro fit
qu ant
UN INIT
UN USED
sc ii
ind ices
12 62
12 68
Ġreg ex
Ġreg ular
bu ilder
reg ular
Node Type
Ġtr ansfer
Ġse en
file Name
to String
Ġex ists
Window Conn
CH O
CH ANGE
SS p
ĠX PRESS
ab stract
ĠEx pr
form al
De precated
UT OR
UT ILITY
Re actor
Re qui
Re play
com bine
ĠIn animateObject
Data Provider
ip c
ĠJ ump
ĠJ UCE
Sc r
Sc an
Sc anToken
Ġ6 00
REG ULAR
ft StraFact
Ch ams
code s
)) /
ĠGet Name
Ġes p
Comp letion
Get C
Get Global
Get Current
PIN MANAGER
PIN READER
NO ISE
NO CHANGE
Un ion
Un load
Ġle vk
File Writer
Ref count
01 59
ĠGL boolean
Ġan imation
Res olver
100 1
100 05
ĠAr g
ĠAr chive
Bu iltinType
Ġpri mitive
Sh ort
ĠRE SOURCE
ass ign
ass oci
ys class
AS M
AS IN
Ġexp r
cv m
ĠZ MID
Ġsub set
Ġsub seq
OT H
block s
Pack er
Ġspec ial
Path Provider
cc urr
Ġtri m
Ġtri Mesh
0000 0000
show Team
inter preter
Ġor ientation
ee k
Th an
IMPORT S
so lomon
Game Process
BO OT
BO ARD
LINE AR
Cpp Char
ward s
Ġkey word
av y
Ġ20 21
IP HONE
Ġ(" \
bind ings
pop count
tri diagonalization
Check Box
å¤ į
ĠMat Quad
Ġinit With
Ġz lib
Filter s
tra cy
ĠSystem Clock
PER SON
BIT MAP
CONFIG S
Ġ-- >
SB StackView
lin es
ĠIN VALID
iny in
fc ntl
ĠRow s
Sub ject
Ġmod ify
Debug Name
pack ing
pow c
FILE WRITER
Packet Handler
ha ir
ĠLo op
Register Codec
GE OME
Tra cer
21 8
ĠSc anToken
Tr anspose
Team Gladiator
Edit Time
Per M
Entity ID
GLOBAL S
]+ $
]+ [
ĠEn able
ĠBlock s
Not Loaded
ci e
hp et
RES OLVER
local ization
let te
rea ded
Ġinitial Load
Helper s
Sec urity
Ġ{} ",
Com ment
Scene Object
Mouse Button
ĠObject ive
COMP ILE
Ġ201 4
Ġop ens
ĠST FT
Ġlength Of
Ġexec ute
kan e
Ġsz Name
Ġlogger Chain
And roid
FIL EN
ĠSub system
ĠRes ize
termin ate
Resource s
74 0
As ioSerialPortClient
ĠEvent Type
Mon ot
MOCK SENSOR
Std String
Power Series
Ġra d
lection s
Ġsign als
Ġac count
gn u
ĠPL SC
CHECK POINT
MT S
ZRule BaseQuest
meg core
Arduino Json
tim estamp
Inst all
MAC ROS
Service s
Simple WindowConn
ĠAR M
Func Enum
Ġresize Event
Dim ension
Ġrot ation
Ġresp ective
Last EditTime
Ġgo od
Feature s
DB Filter
Ġsearch BST
Ġthread s
OPEN MP
ĠConfig uration
Ġ-* -<
ĠLP CTSTR
è¤ Ł
Ġword s
Access TypeID
Exec utable
YZ ER
dx so
dx gi
jac ency
BL UE
Su per
Work er
ĠCON D
Pre v
onn x
Generator BuildingHolo
TIME KEE
ĠThread LocalValue
)<<" \
79 3
ĠOp tions
IMPLEMENT ED
SETT ING
Sys Allocator
cat en
yy FlexLexer
Ġdl lexport
Help Screen
ĠPR ISM
ĠPR IMA
ĠGener ic
ĠGener ate
IMAGE LOADER
ĠIO CTL
Fi end
ne on
Gpu Resource
Ġbig gest
GLE WAPI
NET WORK
pm r
]>= '
Ġsk ip
ĠFAST NOISE
Ġdecl arations
SERIAL PORTCLIENT
SERIAL FORMATTER
Linked ListNode
MS G
ingly LinkedListNode
COPY ABLE
lapsed Timer
Ġfr ustum
EYERPLAYER EVENT
Ġrecurs ive
Gl yph
Bin der
Red uction
Ġca pacity
Depen dencies
multip ly
TV P
br anch
ĠDirect X
GRAPHICS VIEW
Segment Tree
Hex Fiend
Mov able
PAN E
Ġver bose
Ġacc um
ĠNull Menu
Heap Obj
ĠSeeta FaceInfo
Word s
trans action
Hw ang
tutor ial
Ġneg ative
refer ence
EyerAV FFmpeg
INTERRUPT MANAGER
ĠAs ioSerialPortClient
Decode Queue
openssl conf
ĠHeap Obj
na il
Ġman ually
Ġly rics
Sur vival
Sky Box
rust Controller
itude Controller
Ġrepres entation
ĠEL F
INTR USIVE
SPR ITE
Bot tom
Hand lers
Pol ynomial
tet gen
Ġomn etpp
ĠSto re
Rep ly
1000000 007
Hydro Feature
Me an
aLib Feature
èĮ Ħ
ceive Input
ĠSU PPORT
TestData Path
ka ust
Ġnat ural
Ġbet ween
ĠSty le
199 37
20000 9
Rigid Body
greg ate
åŃ ĺ
foc us
Ġpay load
CppReflection Type
Domain Object
Acce l
Cur ve
CATCH MENT
ĠUC NAME
CONN ECT
ErrorFactor AD
stead y
Ġmsd f
leg acy
ĠElem wise
Cooler BuildingHolo
ĠDele te
ĠRed uce
Ġhehe Hwang
Boiler BuildingHolo
Ġparty id
Heater BuildingHolo
tograph y
ĠGLEWAPI ENTRY
ĠIRBAB Y
Turbine BuildingHolo
LITER AL
Mqtt Client
Wonder Trader
fragment Shader
rinc ess
trig onometric
onetime auth
ĠTelemetry Sensor
ĠMETH OD
Ġwog ha
ALLE L
STICKER SOURCE
PLSU SBStackView
ĠFormal PowerSeries
ĠgetFull Name
Requi rements
showTeam Players
GEOME TRY
NotLoaded Exception
SimpleWindowConn ector
TIMEKEE PER
yyFlexLexer Once
EyerAVFFmpeg Header
! "<
& (
& ;<
( #
( ;
( "<
) "<
) .<
) ...
- '
. "<<
/ %
0 33
5 2
6 1
8 00
9 3
: -
= -
? $
A O
A ge
A utolinkedNative
A HEAD
B Q
B RE
B OR
B alls
B efore
B LI
B VH
C ef
C var
C afe
C lipboard
D v
D end
D EN
D iscrete
E V
E seqExpression
F W
F ork
F requency
F eel
G PL
G ang
G ING
G rip
G ithub
G adget
G uest
G rade
H M
H at
H AL
H ftStrategy
H ttp
I BU
I Array
I ALIZ
J it
J ava
K IT
K th
L M
L AND
L ARGE
M Command
M ock
M irror
N L
N AP
N aver
N egateConditionalWrapper
P al
Q File
Q TT
Q ScrollArea
Q DateTime
R ay
R Animation
R aw
R estore
R CTBridgeDelegate
S M
S lic
S ome
S quare
T G
T P
T ut
T ile
T otal
T LS
T ENSOR
T ls
T hous
U X
U Object
V OL
V SX
W pragma
W ANT
W ped
W macro
Y O
Z Module
Z Brain
Z BEHAVIOR
a ffine
b rowser
b ullet
c ing
c ary
c util
c ancel
c Svd
d iv
d ab
d one
d ump
d onn
d Card
d Structure
d vars
e ach
f ma
f loor
f includes
g y
h c
h l
h it
h data
h cc
i B
i ang
j out
j ob
l sum
l ca
n umpy
o uld
p et
p ick
p ixel
q iang
s b
s v
s core
s Menu
s obj
s ession
s ieve
s daCodeGraph
t an
t un
t rigger
t rees
u c
v okes
w y
w heelEvent
x shm
z er
z ip
z eta
{ };
} ),
¦ èģªä¿ĥ
ª éĬĪæİĵçľ°éĬĪä½µåĢł
° å
² ¥ç
¶ éĹ´
» äº
æ Ĥ
Ġ ){<
Ġ );
Ġ layout
Ġ ...<
Ġ locale
Ġ efsw
Ľ æĸ
in om
in ner
de comp
st oi
st anding
en a
en coder
re ent
re defined
re ach
re curs
re tto
re serve
int types
Ġ" __
Ġc k
Ġc enter
Ġc ause
Ġc rash
am ard
Ġm n
Ġm pp
Ġm ol
Ġm etrics
Ġ= ========================================================================
es c
ar chetype
() ");
Ġn tt
se esaw
co il
co cos
ing h
Ġt iles
al t
al ib
pa dd
ic Catchment
id ing
Ġv isual
Ġf ocus
Ġ* **
it ype
Ġs i
Ġs urface
Ġs ql
ur bo
Ġp r
Ġp at
Ġp alindrome
Ġp anel
Ġp hi
Ġp Desktop
Ġp Brain
Ġp oll
Ġb m
Ġb t
Ġb box
Ġre fer
Ġa void
Ġa bstract
la ze
lo pt
lo depng
ro i
Ġstd out
>} }
str ategy
ig u
ig moid
un gi
ma ps
ma chine
>// //
ex it
us b
do it
ĠA L
ĠA ss
ĠA rt
ĠA LL
Ġ( ;
** )
ĠS un
ĠS ection
ĠS andboxLayer
is m
Ġg c
Ġg li
Ġg uid
Ġis oc
Ġis Anagram
ĠC Object
ĠC Coder
++ ],
ed it
ed ges
ed Fill
ĠE cho
ĠE LOQUENTTINYML
ĠE lapsedTimer
ck it
ĠT EXT
ĠT EXASSOLVER
ĠM a
ĠM ol
ĠM ath
io de
ĠP H
ĠP M
ĠP ut
ĠP ow
ĠP IX
ĠP lane
im ized
Ġ2 000
Ġd x
Ġd ialog
Ġd one
Ġw heelEvent
Ġw uyang
Ġ{ -
arg ins
AL YZER
In Stream
In animateObject
ist or
ist ent
Ġ& =
Ġl at
Ġl ar
Ġl cm
Ġl antern
Co in
LE TE
RE SET
RE TRODREAM
Ġh istory
ST E
ST X
ST ACK
bo ve
ad ded
ad amard
ĠD estroy
ĠD RIVER
eg tt
eg lm
ĠN LO
ow ner
AR C
Ġj og
pre emp
as er
Ġ4 00
DE SC
St ore
St uff
ĠF T
ĠF ull
ĠF UR
ĠF lag
ĠF WP
(" &
(" ../
Ġ3 3
Ġ3 32
ĠL ast
ĠL ANT
ĠL ONG
Ġst x
ĠR em
ĠR aw
ĠR CTBridgeDelegate
ĠR Classic
ack er
ap t
get TinylangVersion
ĠQ Action
ĠQ ScrollArea
Ġx moe
PP ING
ĠI W
ĠI DE
ĠI con
ĠI ES
Ġto h
Ġto ss
li as
li ces
Ġ__ _
ew els
ĠB G
ĠB U
ĠB ig
ĠB ST
ĠB ill
ĠB onusObject
AN IME
AN AGER
ĠU SER
ĠU FL
ĠU ltra
ult i
per mute
Ġ' *
Ġ' ('
Ġarg buf
Ex e
ern ame
sh utdown
10 3
Ġr c
Ġr am
Ġr vector
Ġr data
red it
mm intrin
ĠH INSTANCE
ĠH aruno
lm tk
Ġ/* !<
QU E
QU AL
irt y
irt ree
con io
ity Element
Ġde veloper
Ġde pendencies
******** **
ĠO K
ĠO b
ĠO perator
); }<
IC LE
IC opy
TO OL
ele port
ĠV irtual
ĠV ECTOR
ĠV okes
ĠV ImageLoader
ta Strategy
List box
data base
Ġbe low
lib Un
ansp ond
TE val
ess eng
Ġpro d
qu ak
UN O
sc all
Ġmax To
Ġmax count
Ġmax Value
Ġmax SubArray
DI RECT
Ġmat ch
ath er
ps graph
lement s
CE INLINE
Ġse c
Ġse e
Ġse maphore
Ġset B
Ġset Geometry
Ġset Background
Ġcomp ressed
to N
to ss
to ken
Ġdata base
Window Manager
Window Settings
Object Handle
Object Namespace
ĠX ML
==== =<
ab ort
di an
di alect
Bo ot
Size Grip
Event Join
(), '\
ĠĠĠĠĠĠĠĠĠĠĠĠĠĠĠĠ ĠĠĠĠĠ
ĠĠĠĠĠĠĠĠĠĠĠĠĠĠĠĠ ĠĠĠĠĠĠĠĠĠ
Ġsum Up
Ġsum OfN
UT ION
UT IME
sum OfN
Re layout
Ġå Įħ
(); ++
push Button
Data Size
Ġnew Node
Ġ7 0
OL UTION
ĠJ NI
ĠJ OY
To Statement
DL C
Reg ular
Ġbu ilder
<= (
Col lapsible
Test C
anag ram
Ġun lock
Ġ# #
Ġcl s
MA G
ĠSt atic
ĠSt rip
ĠSt orage
Ġstr tok
Text View
Text Area
Ġtest F
ert ical
For Loop
Comp ute
Get LastError
NO M
25 9
Ġle ak
Ġan im
ä¸ ª
ATION AL
me asure
100 000
KE num
Ġq vec
Bu f
Button Box
Ġpri mary
Sh l
Sh are
mer ge
Property Initialiser
Ġu gly
LIB S
format s
Ġdo ctest
sm t
Add Update
cv t
RT ypes
Ġmy Pow
cf ab
Ġpre pare
Error NotImplemented
init With
My Types
kn apsack
Log Message
dered String
Frame Widget
Ġsh ader
PRO PERTY
Ġcol lapsible
path s
Ġas n
Ġas io
-------------------------------- ----------------
ĉĉĉ Ġ
Ġat t
Inter ior
FF T
vm k
vm esh
Main Activity
bs ite
Th rustController
Ġval f
Sensor Name
Ġlib s
13 3
Lin es
av ing
output s
Key word
Ġsc an
Sco tt
Ġreverse d
EXPORT ED
GET TERS
tri mesh
CC NEW
thread s
tra s
MIN MAX
buffer Pos
sub mit
used ForLoop
Font s
Message Box
Al low
Ġlu t
Ġ) :
14 90
ĠIN IT
duct or
ĠFile System
ĠUn initObject
ĠWidget Look
node let
Ġpar sing
run ning
Ġdelete Node
Dec Block
ĠAdd Update
temp orary
temp erature
By Id
FIN D
Ġus es
rep ly
Qu ick
Ġlink Type
ĠLo ader
Ġper cent
Buffer Tokenizer
cont roller
ĠNode Type
Run ning
ĠSc reen
Tr anslation
ĠProperty Initialiser
Per form
Per Team
Per mutation
ĠRe layout
gi ungi
ĠCh rone
fast call
Mod ify
55 6
Ġimp ort
ĠEn coding
18 9
ĠRender ing
Ġsquare Root
ĠBO OLEAN
ĠDes erial
Lock ed
Lock Guard
Provider s
rol led
Ġinitial ized
ĠPlayer Ptr
NE G
Alloc ate
Alloc ation
IS zAlloc
Tri Mesh
æĭ ·
ĠDi agnostics
Address InRegister
Ġop t
Basic Type
æī ģ
ĠST REAM
128 0
Ġsy scall
img proc
gle w
ĠTh ese
ĠPLS Dialog
copy able
We ight
cal culate
Callback Info
ĠRes ult
check Error
Ġwork s
color s
Play ground
ĠDE VIC
]<<" \
ĠCH ANNEL
ĠIP Mask
LOG GING
Ġvm k
Gui de
Ġæ įŀ
ĠTo Int
User Config
Ġ24 0
STD C
STD METHODIMP
atom ico
mult itype
26 0
ç» ¢
ĠTR A
ĠPL AYER
Conditional Statement
Net Initializer
bd cSvd
>** <
play list
Catchment Ag
Ġblock s
Inst antiations
Ġwindow s
Var Symbol
Ġad j
Ġad apter
ĠCheck sumForward
Ġeigen Values
over write
ĠRF KEnum
front end
ational ity
CG AL
ĠEE PROM
PropertyDefinition Base
Det ach
PU BLI
ĠBinary Search
Ġsearch Matrix
INTERNAL S
Pair CEGUI
ĠAuto matic
ĠFILE SYS
ca de
Job Node
ĠLOG D
CX MI
RA W
tl s
PLS CommonScrollBar
TRA IN
ĠComponent System
rit icCatchment
Ġsymbol s
Valid ator
QP aintEvent
Ġtag s
Ġback prop
eters Encoder
ĠSp lit
Mult ip
Video Widget
BACK REF
alk ing
CU DNN
Namespace Fragment
ĠTra its
Comb s
Arr Size
Ġenv ironment
XML ResourceManager
go od
Ġutil ities
ĠNO MINMAX
Ag Hud
ĠClear List
ĠTips System
ĠFOR M
ĠFOR CEINLINE
Ġstat sd
connect ed
dr s
ĠNot ification
ĠUT IL
Mark er
MACH INE
ĠTH READ
ĠTitle Button
Ġdecl aration
Ġcre ated
amed XMLResourceManager
Ġpe ak
structure s
Fin der
comm it
iver Combs
Ġrecurs ion
Quaternion d
Meta Entry
èĥ ģ
Ġmon ey
ĠSO URCE
ĠSO CKET
oper ation
ĠLock Guard
ĠZBehavior State
ĠMaterial Instance
Bin opExpression
Can vas
]<= '
DEL AY
Ġlua open
FLAG S
multip lication
Timest ep
Ġsim ulation
Ġsim ilar
ffff ffff
fl ann
ĠSave Menu
ĠisPowerOf Two
ĠRec ord
control s
Ġsmall er
Abstract EventJoin
ĠActor UniqueID
ĠSign ature
ĠMYSHAREDLIB SHARED
Euler Walkable
ora Dv
Ġdw Version
ĠOri gin
'|| *
Cy cle
QListWidget Item
Ġé¢ĩèĢģ æ¶Ŀèģªä¿ĥ
Ġ"* ";<
Ġcorrect ly
Cryp t
Drag Object
ĠScore boardId
Ġ{{ (
ĠQu ery
Cart ographic
Sel Strategy
can onical
ç§ °
ĠAsync MqttClient
ĠCheat Loop
hous enumber
Specification Vector
Remote IO
ĠMan ual
ĠWOR D
ĠHello World
ĠException s
REFEREN CED
Fundam ental
tbl gen
Ġmissing Number
ĠBasic Type
LOOK AHEAD
ĠChar acter
EfcDsrc Application
Ent ropy
eto oth
ĠAT TR
PLSChannel LoginView
Serialization Cluster
ĠGenerator ID
Boundary Controller
ĠCOMMON SAMPLE
CCE CHO
XPtr Torch
Ġph one
quot ed
ToM etersEncoder
ĠComplex ity
oreground Color
Mid dle
jector y
ç£ Ĳ
Ġç» Ľæĸ
ĠsetF oregroundColor
facet Type
ĠPLSD piHelper
Ren deredString
SQU ARE
bro adcast
lion et
nul lopt
zhang qiang
DEx tras
Ġdelim iter
1415 926
miss ing
ByteS lice
qwdialog headers
Plot Point
hy fd
Ġte mpl
Instr VarSymbol
anspar ency
Scr atch
GetGlobal Data
ccurr ences
Ġopens ans
Ġaccum ulate
DecodeQueue Base
Polynomial List
BRE AK
Dend riticCatchment
HM ANN
Wpragma s
Wped antic
cary on
donn a
jout standing
wy joutstanding
xshm fence
»äº ªéĬĪæİĵçľ°éĬĪä½µåĢł
inom io
Ġ========================================================================= =====<
Ġisoc ales
ĠCObject Vector
ĠPow C
Ġwuyang jun
egtt ools
ĠNLO HMANN
preemp table
ĠLANT ERN
ĠIES AMPLE
ĠUSER PROG
ĠUFL V
libUn usedForLoop
esseng er
quak eglm
ĠmaxTo Root
ĠsetBackground Color
ĠsumUp toN
ĠStrip e
Interior Catchment
1490 6
ISzAlloc Ptr
ĠSTREAM INGCLASSIFIER
ĠDEVIC ES
atomico bject
CatchmentAg gregate
CXMI SC
Cartographic Realization
Ġç»Ľæĸ »äºªéĬĪæİĵçľ°éĬĪä½µåĢł
libUnusedForLoop Var
% */<
' ]=
' ]++;<
) ";<
) >;<
, *
/ (
0 12
4 50
4 22
6 28
; "<
= ((
> ("
> (),
A AC
A ES
B ER
B IG
B one
B order
B ATCH
B ranch
B cj
C ent
C AR
C ALI
C nt
C lear
C lim
C enter
C lip
C rash
C mptsView
D on
D art
D SP
D igit
D ummy
E E
E ME
E ET
F our
F req
F eedback
G D
G CC
G uid
H L
H istogram
I Vector
I Affine
K ism
L im
L IT
L azy
M D
M en
M IC
M DragObject
N C
O V
P id
P ick
P hys
P odium
P ipe
Q Vector
Q Key
Q Action
Q Handler
Q Close
Q TextEdit
Q VBoxLayout
Q ubit
R M
R S
R V
R and
R NG
R ADIOLIB
S pac
S OLVER
S wapChain
S OLUTION
T LE
T Array
T CHAR
T rees
T REE
T oggle
U Scene
V Rect
V GA
W h
W CHAR
W IDTH
Z LIB
Z CM
Z GameType
Z ChannelRuleMgr
Z GameDraw
Z NetRepository
Z QuestMap
_ ;
_ {
a j
a Interpre
b m
b est
c lo
c lic
c li
c cf
c decl
c lable
c Block
c ases
c SensorScanner
d il
d fs
e uler
f ri
f il
f close
f lake
g les
g pu
g adget
h ip
h orizontal
i lu
i pp
i ph
i Turbo
m g
m gr
m vm
m fc
m etric
m icro
n f
n ar
n eg
n ID
n ish
o op
o ke
p Widget
p Match
p Bitmap
p attern
q global
q MRML
r vector
r sum
r begin
r atio
s q
s and
s Data
s ound
s uffix
s hell
t ower
u ef
u ki
v l
w f
w t
w si
x FFFF
y ear
y rics
y uki
z u
z y
å ¸
å Ĥ
å ľ¨
æ ľ
æ Ł
é Ģ
é Ī
ĉ ĠĠĠĠĠ
Ġ čĊ
Ġ ame
Ġ ),
Ġ rig
Ġ org
Ġ elf
Ġ errno
ī å
Ĭ ¨
Ĭ ãĤ
Ł «
in int
in string
de tach
ĠĠĠĠ ĉĠĠĠĠĠĠĠ
st ing
st ime
at ial
at uration
er ter
re pe
re alloc
or i
Ġ" ";
ut ate
Ġc ast
Ġc ube
Ġc mpts
Ġc annot
Ġc leanUp
Ġc lusters
am age
am ily
Ġm ar
Ġm illiseconds
Ġm Pulses
Ġm irror
end ian
ar c
ri vec
le e
() };<
Ġi v
Ġn h
Ġn ative
se maphore
co ordinate
Ġt i
Ġt ile
ic ide
Ġv ariables
Ġf re
Ġf ine
Ġf low
Ġf open
Ġf inished
Ġ* ;<
ra c
ra red
ra pped
Ġs amp
Ġs obj
Ġp ick
Ġp hys
Ġp ubl
Ġp Stage
Ġp hysics
Ġb atch
Ġb ody
Ġre st
Ġa utolink
Ġa verage
la ws
lo quent
ect ral
ate ver
un der
un real
Ġ0 4
Ġco lour
Ġint ern
ent wo
ent ence
>// }
ex ists
us ive
um ble
do s
do main
ĠA g
ĠA pi
ĠA utolinkedNative
ER AL
Ġ( -
ĠS I
ĠS pace
ĠS AN
ĠS ink
ĠS wap
ĠS PC
ĠS ome
Ġg ot
Ġg ain
Ġg los
Ġis FirstInnings
ĠC Y
ĠC l
ĠC ent
ĠC um
ĠC IR
ĠC Task
ĠC ircle
ĠC Weapon
Ġthe y
ĠE N
ch ange
ter eo
ĠT V
ĠT s
ĠT ool
ĠT otal
ĠM eg
ĠM PL
ĠM IT
ĠM Listener
ĠM ULTI
ĠM SVC
ĠP lay
ĠP GE
ĠP VOID
ĠP OLY
Ġ2 7
Ġd ic
Ġd iv
Ġd mac
EN C
EN VIRONMENT
Ġ{ {<
Ġin s
Ġin ject
Ġin Order
Ġin dices
Ġfor ce
AL G
:" ;<
ON CE
sp r
sp Object
In line
In Duration
In dices
32 5
Ġl on
LE FT
RE CO
RE MOVE
RE TURN
Ġh al
Ġh ardware
ĠG EN
ĠG iven
ĠG ENERATE
ĠD T
ĠD W
ĠD IS
ir ct
ĠN amespace
AR I
AR K
PL SD
PL oop
pre view
pre pare
as ing
and Score
all enge
Ġ4 8
uto re
DE CODE
DE ATH
Ġchar s
St g
set Maximum
ĠF r
ĠF loat
ĠF low
ĠF unc
ĠF tp
IM GUI
(" ./
Ġ3 1
ĠL ow
ĠL ight
ĠL OT
Ġst l
Ġst ra
ĠR O
ĠR en
ĠR ay
ĠR UMBLE
son ic
ap io
get ter
get Distance
ĠQ Menu
ĠQ Font
ĠQ Thread
ĠQ Char
PP C
ĠI Frame
Ġto String
Ġto lua
li ke
ĠB ORDER
Ġar ma
AP OL
em on
per ations
os h
FI X
th ickness
10 7
Ġr sum
Ġr anges
Ġr pn
up sample
ĠW T
ĠW lan
ME TER
est ure
red Score
Ġy et
Ġget X
Ġget Y
Ġget Size
Ġget TinylangVersion
ĠH as
ĠH TTP
ĠH uang
MO B
AB C
Ġde activate
of er
ALI ZE
RO UND
Pro v
col lision
nt ensor
vi e
pro perties
Ġ>> =
back ground
ive Hund
String Type
String Map
art Pointer
art aglia
IC lass
SH EET
ele ton
ele ms
ĠV er
ĠV al
ĠV ARI
[] [
ta u
Core Minimal
ff ers
Ar che
stdc all
GL IntensityFilter
GL FW
ID AR
qu aternion
UN RE
UN REFERENCED
sc c
sc an
sc roll
Ġ5 00
DI FF
ud p
Base Scope
Dynamic s
Ġse m
Ġset Time
act ers
iv ation
CH IP
ĠX uef
ab et
ink u
ĠEx t
test s
De ep
De compiled
CON TEXT
read u
Re ason
Ġå ±
YS Y
Data Checker
11 1
Ġnew N
ms bl
OL IC
On Run
Sc rip
Ġ| =
Ġpa lette
max imum
rib utore
Ġbu ilt
Col lections
ĠPro gress
Ġun ion
ress or
][ "
ĠGet Client
ĠGet Mouse
Ġcl amp
MA SK
Ġstr cpy
base Style
ark ov
enum erate
Comp uting
Get Module
Get Task
Un register
ting Team
ach es
File Meta
Menu Type
Menu Style
ĠGL enum
ĠGL IntensityFilter
Ġan chor
Ġmin i
ix in
44 4
LIN UX
Ġcreate Strategy
ou ch
Ġpri mes
REGISTR Y
REGISTR ATION
new lib
State Object
Ġcont ainer
min i
AS SE
ĠRegister AutolinkedNative
AG MA
sm an
Add Source
Add Field
RT L
RT UAL
TR AC
TR ANS
Ġmy Vector
OP ERATOR
ĠZ ChannelRuleMgr
ĠZ ilu
Ġpre load
app le
Error Type
Error Message
>/* %
Pack ages
wo ofer
ĠDo uble
ĠDo main
Path Delegate
Path Saver
0000 0
Log ic
READ Y
inter view
Ġtemp orary
Module Packages
Time Keeper
ee p
no return
Main Loop
Ġpart icular
ACT IVE
Game Mode
Game Framework
Sensor Factory
Ġlib c
TH EME
arch ive
ĠIm Font
OW N
Image Manager
Image InfoDialog
99 4
Ġapp ro
Ġapp ly
MEM BER
FUN CS
Solver Cholesky
REF COUNT
App Delegate
av g
amer ate
Ġstart Time
Ġ(! (
PC STR
tri m
ĠBase Scope
game Instance
Se eta
Command Base
24 02
+= (
sub scriber
ĠCont roller
Op code
Font Loader
igh ter
Symbol Var
VI RTUAL
Al ways
Ġ-- -<
]== ')
Ad min
IO CTL
ale d
Ġcheck Requirements
Ġwh atever
ĠFL AG
ĠList box
vers ing
ĠEyer SharedCount
run ing
run ner
insert Spac
Ġdelete Strategy
Dec imal
Sub scriber
system s
ingD istance
Debug Overlay
Ġfind Min
Ġfind Duplicate
>{ }<
Att itudeController
pack ets
ĠOn Run
Or g
Out Duration
Memory Manager
Ġper mutation
we b
we bsite
Ġheight s
Register With
ĠAn imated
Sp an
Count down
Tra pframe
Texture Target
03 0
Qt Plugin
Const ants
Const raint
Unit ig
ĠMODULE S
dis cord
gl sl
Entity Registerer
ĠRe pres
US AGE
ĠDynamic JsonDocument
Not ify
Pass Manager
Pass Registry
Ġpos ix
ĠRender Window
Ġread ing
local player
Ġé Ĵ
Ġé Ķ
Ġpath s
08 0
PR AGMA
wh en
velo p
Block Linear
ĠWorld Object
05 00
files ys
DEBUG GER
ĠComp ute
hed ule
Ġfiles ystem
Ġcontain ing
Ġenum Strategy
iss ues
description s
copy left
Ġexec ution
Logger Chain
ĠQt Nodes
Factory Registration
And S
Be acon
Ġam t
Json Conversion
Slider Widget
check er
Parent h
Imp ort
fr ames
Min i
Min imum
Ġsin phi
ĠSe quence
ĠDE F
ĠDE FIN
Ġwarning s
Ġcur ve
now flake
ĠEvent Dispatcher
LOG GER
Tool Bar
ONT END
*/ )<
IAL OG
az ard
Ġæ ²¥ç
User Defined
ĠTr ansform
Pos ix
Ġmove Zeroes
Ġident ifier
Ġvis or
ĠLib retto
ĠWe b
has er
ĠIL UT
Ro le
ram mar
Ġglobal s
Default EntityRegisterer
Order ing
height s
frame work
ZRule Quest
ZRule Training
ZRule Survival
Move ment
debug ger
Catchment Area
Ġcv flann
IMP LE
Geometry Buffer
Mac ro
Mac ros
Ġsp lit
Service Manager
Var s
high gui
Ġhel p
Track s
ĠCheck sum
ĠGraph Modification
action s
Ġcal c
Ġcal lable
Ġrequi re
ĠSP IClass
Shape Mesh
PROCESS OR
Source Builder
edi ate
edi um
fa il
Runtime ID
riter ia
Ġgo dot
ĠBu ild
MMatch GameTypeMgr
MMatch DBFilter
DB G
sec ut
]!= '
è¤ ĭ
Static Patcher
Exec uter
Find LineEdit
Place holder
extension s
Ġview er
ĠLOG GER
65 4
rai Event
ĠUtil s
Im PlotPoint
Ġag giungi
Ġcommand s
Direct X
BUFFER ED
vg entwo
pass es
ĠFU Item
wx id
CRE T
sw izz
ĠNV SDK
ĠRandom Number
38 4
Intern als
ĠHAL F
OPT IONS
ling Team
LIMIT S
Ġdebug ger
Ġdefinition s
Dist inct
]<< ",
anch or
Ġchannel s
ĠInput Stream
Loc ator
FileSystem Watcher
Scoped Guard
ĠEyerAV Rational
ĠCal led
arn ess
ĠTitle Menu
ivis ors
MS A
Ġpe ople
channel s
ĠPC Sensor
lower bed
Extension s
Fin ish
GAME TYPE
Ġtrack er
HEL P
Mar lin
Sm all
Sm artPointer
rap id
ĠDevice PathDelegate
Ġpackage Providers
Ġvisit ed
Sda CodeGraph
bat tingTeam
bat sman
Ġhw nd
ĠFs SimpleWindowConnector
Ġden s
ĠView er
ĠGraphics Element
GU IContext
Kernel s
Kernel Registry
Ġfi bo
ĠNT API
ĠNT STATUS
HOOK S
Ġmajor ityElement
ĠDxso Code
Child Window
Child ren
ĠFade InDuration
ĠFade OutDuration
VARI ANT
CRT DBG
Sim ulation
Use less
car ma
ron ics
ĠPol inomio
Proxy Style
Ġcomplex ity
Ġå® ¶
Signal Tracker
Ġagain st
ĠLevel Data
Ġob tain
ĠMS ID
Ġchild ren
ĠOri ented
ExprTree Sda
hysical Binder
WH EN
icon v
ĠAs set
ĠEd it
Ġletter s
Anim Widget
fam iTurbo
åĽ ¾
Ġpw sz
rot ate
Cart ridge
Ġbl ender
Ġbound s
Archetype Registerer
æ¢° èĸªæĩĪ
lain TextEdit
ĠAbstract Symbol
Ġdisp atch
bow ler
bow lingTeam
ĠJob Handle
REFEREN CE
curl build
Mag num
Patch es
Ġmeg core
Ġteam A
Ġteam B
Ġ***** <
Ġcomm it
ĠFB Library
//////////// /<
ĠQP ixmap
ĠReal Space
Go od
Na N
REND ER
æĹ ¶éĹ´
arma dil
Ġowner EntityID
æļ Ł
Ġcand idate
ĠPOS ITION
ashboard UI
Recy clable
BROW SE
JNI Env
Pl anner
aly zer
Ġ********************* */<
Ġdummy func
Ġdaisy sp
Ġhook s
Ġrf k
libav util
Asse mbly
RUNN ER
>/******************** **<
wit ter
éĴ ¦èģªä¿ĥ
dera ble
ĠDem irk
Study FrameWidget
Ġthrough out
Ġimplicit ly
12345678 9
ĠFUAvatar SDK
ĠCOPY RIGHT
Fr ames
Hal f
è¡ Į
Ġ"!! !
iffer ent
ĠSparse BlockLinear
ckLink Device
UTOR IAL
associ ative
ĠlengthOf L
FILEN O
Monot onic
ĠOptions Menu
tetgen io
focus InEvent
HAL F
Thous andScore
decomp ose
recurs ive
aser Sensor
QUE UE
TestC ases
Shl Obj
NEG ATE
NamespaceFragment Registerer
Clim b
Don ateDialog
Kism et
LIT TLE
QKey Event
QClose Event
ZCM I
aInterpre ti
nish ant
sand y
yuki coder
rivec lear
Ġphys x
Ġpubl ished
ĠAutolinkedNative Modules
ĠSAN ITY
ĠCIR CT
ĠMeg core
RECO GN
iveHund redScore
Arche types
ĠXuef eng
Scrip ting
ĠGetClient Rect
ĠRegisterAutolinkedNative ModulePackages
AddSource MenuStyle
insertSpac er
RegisterWith Registrar
Ġæ²¥ç ĦĬ
swizz le
famiTurbo Cartridge
armadil lo
ĠDemirk api
ĠSparseBlockLinear SolverCholesky
" \
" ),<
( %
( []
) "
) \
* ;<
* >::
, __
- =(
0 123
3 01
5 35
6 7
6 64
7 20
8 01
9 05
: "<<"
; \<
= ");<
> %
> ;
> ");<
> ``
A IN
A ir
A IL
A IT
A abb
A scii
A Comment
B and
B ond
B ML
B OLD
B reach
C AL
C uda
C ATEG
C tab
C Sha
C AMERA
C Generate
C leanUp
C astle
C taStrategy
C riteria
D H
D b
D ream
D sp
D PL
D RO
D one
E GTTOOLS
F ER
F alse
F alagard
F eed
F REQ
G IL
G EL
G CD
G tExpression
G REEN
G ENERATE
G auss
H yp
H EX
H ID
H ide
H ome
H ARD
H ighest
H SIGMOID
H ftStraFact
H azard
I A
I ER
I so
I Sequential
I FRAME
K View
K MOD
K bI
L ang
L UT
L hs
L IGH
L argest
L tExpression
L PCWSTR
L auncher
L zma
L AComment
M H
M K
M s
M is
M LIB
M Font
M Debug
M ount
M illiseconds
M ixer
N pp
N ST
N av
N GEN
N amedArea
O SH
O ps
O OK
O peration
O gre
P G
P un
P ed
P EN
P CH
P IO
P GEN
P NG
P ane
Q Node
Q WORD
Q Slider
Q SpinBox
Q Scoped
Q VariantMap
R x
R am
R OR
R ank
R CTBridge
R TOS
S id
S ol
S pre
S IL
S yn
S ID
S ud
S LO
S ound
S ock
S amples
S ND
S andbox
S LEEP
S tereo
T l
T re
T ION
T ess
T rip
T IP
T Lock
T INGS
T LI
U TE
U pd
U AGE
U FUNCTION
U World
U FusionCamSensor
V x
V st
V irt
V ehicle
W MM
W ater
W ARD
W ire
W rapped
X render
X EW
X LOCALE
X WMM
Z SkyBox
] ");<
] --;<
a V
a ec
a bout
b mp
b ast
b alance
c z
c ule
c Impl
c lean
c lip
c afe
c lipper
c leanup
d h
d m
d s
d it
d var
e en
e ared
e ypoint
f raction
f eedback
f airplay
g a
g ra
g io
g ain
g dx
g amal
h ot
h iro
h uv
h anoi
h adamard
j av
k socket
k Mean
l j
l or
l la
l cs
m ce
m ble
m ys
m xx
m sec
m onth
n T
n am
n tr
n op
n one
n Enter
n own
n amed
n Rs
o q
o om
p g
p k
p Window
p Frame
p md
p Font
q cvm
r pl
s ink
s upport
s fc
s vc
s ingleton
s urface
s udo
s aturation
s apio
t en
t ux
t cp
t main
t ml
t ools
t witter
u f
u u
u ator
u char
u gi
u cer
u aLibFeature
v fs
w b
w heel
w ire
w ssd
x cb
y ond
z ion
å ·
å »
æ ®
æ ĥ
æ Ī
æ ¡£
ç ¡
ç Ī
è ±
è µ
é »
é ĩ
é ĸ
é ĺ
Ġ hpp
Ġ ON
Ġ OR
Ġ çĶ
Ġ ERR
Ġ ------------------------------------------------------------------------
Ġ location
į ¤
İ éľ
Ĵ ¯
ľ å
ŀ çİ
de o
de ep
de cklink
Ġ< >
st or
st ra
en crypt
on ed
er ence
Ġ" "
Ġ" ^[
inc h
inc rement
ut ime
Ġc r
Ġc ap
Ġc ard
Ġc licked
ce l
Ġm r
Ġm v
Ġm ce
Ġm edia
Ġm imium
Ġ= >
Ġ= ================
es et
es ome
es ian
ar a
ar th
ar ages
ar mv
ar cade
le cule
() [
() ");<
Ġi pq
Ġn alu
Ġn th
Ġn ationality
ct r
ct ag
ct uator
se m
se ctor
se lection
co tto
co okie
an ization
ing est
Ġt ar
Ġt ft
Ġt cp
Ġt ell
Ġt witch
Ġt fl
Ġt xt
al ign
al ys
al ignment
if o
if stream
if fc
endl y
ic d
Ġv vi
Ġv ideo
Ġf ields
Ġf airplay
Ġf amily
Ġf lowerbed
Ġ* ********
Ġ* >::
it a
it al
ra bble
Ġs parse
Ġs pi
Ġs ock
Ġs afe
Ġs coped
Ġs pawn
Ġp ur
Ġp et
Ġp ose
Ġp res
Ġp ipeline
Ġp Keyboard
Ġp refix
Ġp ugi
Ġb urn
Ġb ir
Ġb ill
Ġb ordered
Ġb ank
Ġb fs
Ġre tri
Ġre shape
Ġa sync
Ġa bove
la v
la zy
lo x
lo re
ro k
ro Dream
>} */
et cher
un z
ub s
Ġco ef
Ġint rinsic
mp i
lic ator
ma dd
ent ing
ent als
Ġo l
Ġo ps
us r
Ġ1 20
Ġ1 50
ĠA I
ĠA ST
ĠA BO
ĠA ccess
ĠA TA
ĠA DD
ĠA REA
ĠA ula
ER FC
Ġma s
Ġma gic
ĠS te
ĠS eg
ĠS ock
ĠS ky
ĠS anity
ĠS eries
ĠS UB
ĠS ampler
ĠS pawn
ĠS dCard
is PowerOf
is upper
ol or
Ġg ames
Ġg oogle
Ġg lt
Ġis prime
ĠC R
ĠC Time
ĠC lang
ĠC RY
ĠC enter
ĠC Encoder
ĠC Exit
ĠC TAG
ĠC Decoder
ĠC Make
++ ]=
Ġon ed
Ġon Change
Ġthe me
IN ER
IN PA
el im
ed Modules
ĠE GTTOOLS
ĠE FVR
ch unk
ver b
ver Hook
ĠT rack
ĠT Second
ĠT imeline
ĠT artaglia
ĠT arkov
ĠM IN
ĠM ov
ĠM Bitmap
ĠM ENU
ĠM Xml
ĠM ultip
ĠM TP
ĠM utate
il enet
ĠP Y
ĠP IT
ĠP ACK
ĠP ASS
ĠP ixel
ĠP hysics
Ġ2 8
Ġd ig
Ġd uration
Ġd ivisor
ul ations
EN GIN
EN SY
EN CHMARK
Ġin dent
Ġin sertionSort
ON SE
sp lat
In v
In tr
In Frame
In vert
ist ic
32 12
Ġl ess
Ġl sum
Co okie
ont ainer
LE BEN
LE GRAPHICS
RE V
RE SP
RE SER
ext ure
Ġh r
Ġh are
Ġh old
Ġh pet
ST L
ST OR
ST IME
ST ORY
ĠG E
ĠG l
ĠG IF
ĠG tExpression
ĠG RADE
ĠG PIO
ĠG XWMM
bo b
bo e
ad ane
ad jacency
ĠD SP
ĠD SO
ĠD AI
ĠD cBlock
<< -
Ġch at
ĠN ST
ĠN ov
ĠN ALL
ĠN ODE
ĠN HW
ĠN amedArea
AR ATION
Ġj it
Ġj vm
AT ANH
PL SL
pre fix
OR ITH
OR RADE
ener gy
DE FS
== ;<
St at
set Geometry
ĠF F
ĠF M
ĠF AT
ĠF uzz
ĠF alagard
ĠF ocus
ĠF Unrealcv
ĉĉ Ġ
ĉĉ ĠĠ
ht ree
IM odule
IM ARY
(" .
(" [
(" ~
Ġ+ <
Ġ3 4
ĠL AC
ĠL eft
ĠL ANG
ĠL UID
ĠL tExpression
ĠL antern
ĠL yrics
ĠR o
ĠR ange
Ġe at
Ġe ast
for te
get Y
get c
get al
get Value
get Token
get Keyword
get Pun
ĠQ Event
ĠQ Tree
ĠQ MY
ĠQ my
ĠQ Slider
ĠQ TS
ĠI H
ĠI GM
ĠI ReactPackageProvider
ĠI TK
ĠI CHOR
ĠI Cvar
Ġto g
ĠB ool
ĠB ind
ĠB YTE
ĠB rowser
ĠB ENCHMARK
og rad
AN E
ĠU pper
ĠU UID
ĠU dc
Ġar ound
ue Box
IT ERATOR
lus ion
Ġfile Name
AP ON
return s
AC ube
AC OSH
Ġ' +
Ġ' );<
FI ID
Ex ists
Ex change
th reshold
sh im
sh ake
comp ile
UL ANG
Ġr s
Ġr u
Ġr v
Ġr tc
om er
om ic
SE I
SE L
SE M
SE LEMENT
SE GM
ĠW CHAR
ĠW GLEW
ME A
ME TAG
ME LEE
Ġget ter
ERN ODE
ĠH F
ĠH i
ĠH AR
ĠH DN
ĠH AS
ĠH LS
ĠH idden
ĠH ScrollArea
ĠH acker
ĠH LEGRAPHICS
lm editor
Ġk Camera
Ġk pid
Ġk lox
CT ask
QU ACK
QU AZ
con cept
con vert
>> (
extern al
Ġover lay
AB I
AB ASE
Ġde al
Ġde coded
RO T
64 0
Pro be
col major
fo b
nt p
pro fit
ard Variable
String A
String Table
art in
art ic
art esian
ĠO H
ĠO S
ĠO V
ĠO W
ĠO ff
ĠO ES
ĠO bj
ĠO gre
ĠO tau
IC E
ose ph
SH AKE
ele ctor
ĠV I
ĠV X
ĠV ScrollArea
ĠV IMAGELOADER
ĠV ertical
data Err
Ġbe yond
ader s
lib c
lib LAComment
ff f
En g
ll ar
Ġout b
TE MP
TE ENSY
ess Type
CO M
CO S
CO HASH
GL Filter
Ġpro p
Ġpro perty
Ġpro gress
Ġpro cessed
ID ENTITY
qu ences
ph oto
AD S
12 1
Ġ10 4
oo ch
Ġmax Sum
Ġmax Chunk
Ġmax Balls
DI SC
Ġreg comp
Ġreg exec
top ic
ps roi
Base Manager
Base Exception
SC K
reg s
reg ardVariable
ast er
Ġtr ans
Ġtr anslate
Ġse q
Ġse x
Ġse lection
Ġset Orientation
Ġset Interval
Ġset HeaderList
Ġcomp iled
act ivity
to Rotation
Ġex ist
Ġth ickness
Stream ing
LO DEP
ab y
di x
ho c
ho pping
Size Param
Xf ix
emp loyee
STR CMP
STR HEX
Event Type
Event LinkDefinition
ĠEx ist
ING IFY
ĠĠĠĠĠĠĠĠĠĠĠĠĠĠĠĠ ĠĠĠĠĠĠĠĠ
ĠĠĠĠĠĠĠĠĠĠĠĠĠĠĠĠ ĠĠĠĠĠĠĠĠĠĠĠĠĠĠĠ
ĠĠĠĠĠĠĠĠĠĠĠĠĠĠĠĠ ĠĠĠĠĠĠĠĠĠĠĠĠĠĠĠĠĠĠĠĠ
CL IModule
log o
log Event
rig lav
De v
De ckLinkDevice
Ġhas PathSum
rt m
rt bl
CON VERSION
CON CEPT
CON TA
ly ing
ender Kit
cl one
Ġcall s
Con vers
ĠIn fo
ĠIn stance
ĠIn valid
Ġno op
Ġno te
Ġ} }<
Ġgen re
Name Expression
Data Exchange
PAR TY
PAR ALLEL
ĠPy AST
On Draw
ĠJ ls
Sc iss
INT TYPES
To Lo
ft p
DL G
Ġpa intEvent
Reg ion
gen Type
max Num
mn i
Plugin EventHandler
Col lide
Test Utilities
Test Instantiations
imp lements
Ġun its
Ġun load
ĠME LON
code cs
ĠGet B
ĠGet Time
ĠGet User
ĠGet Sample
ä» ¿
ĠSt reet
core ir
cond var
ERAT ION
Def ense
For ce
ĠCo ulo
Get Proc
Get Registrar
NO SUB
25 00
opt imizer
Ġcon f
AV AIL
Manager Dialog
ĠGL Filter
ĠGL XEW
Ġan other
Ġmin Stack
Ġmin utes
Ġmin Cost
ĠGenerated Cluster
Set Style
CTYPE S
exp ect
exp ected
exp lore
44 3
iro Hook
Ġal gorithm
Ġal ways
PLUGIN STREAM
Point Cloud
ĠAr gs
ĠAr bitrary
Ġq MRML
Ġq uality
FOR UNNABLE
isp atch
Bu zz
Ġpri ce
Ġpri mo
MM U
ĠReg ion
Ġdi am
Ġdi vide
ĠPRO CESS
Property Dim
Property Proxy
Ġu char
Ġu uid
Ġheader List
min Price
Ġdo Some
AS URE
AS SET
AS IOS
ound Tag
Add Statement
TR ACE
TR ACT
cf lag
upd ating
OP I
OP CODE
ĠZ Effect
ĠZ GameDraw
Ġpre order
WR AP
Index Changed
Ġsub se
Cont raction
block ed
Value Ref
My Fixture
ĠDo es
ya w
Ġgener ation
stance Controller
Ġed ges
Frame Draw
OS MODULE
Ġsh a
Ġsh utdown
Lay ers
Ġtemp erature
Ġas k
Code s
Int f
FF E
SER VIC
Ġpart Id
ĠError Critical
EL IX
Ptr Array
Game Module
He uri
EM ANAGER
DECL ARATION
]] ==
OW IDGET
Image Codec
ĠNC BKern
by ak
SDL name
SDL NetInitializer
Init Log
ARCH IVE
Ġapp Delegate
An gles
An alys
]) +
Ġ? ?
MEM BLOCK
REF LECT
Ġkey pad
15 0
av es
!= '\
bl ank
Ġsort Colors
ization Error
DIS COHASH
ĠSet Tip
Key s
ä½ ¿
Ġstart ing
Class Factory
Ġsc ript
Ġreverse Str
ĠBase Object
ĠBase Processor
ĠOpen CL
ric mp
Ġz mm
Se ma
Se qStatement
Command Interface
Label Statement
tra versal
gb ias
ĠY ULANG
CODE CS
sub type
sub process
sub trees
ĠCont ent
ĠWindow Renderer
ĠWindow Factory
Font Manager
old or
BIT STREAM
last Name
VI Z
Input Event
Input Broker
Al gorithm
ĠDec imal
Ġright s
Ad apter
Ad hoc
BE LOG
Ġcheck ing
dp wssd
ĠUi Component
EYER BUFFER
33 33
Process Handle
NS Data
NS Array
Dec GraphModification
pac itor
ĠAdd Statement
ĠAdd Attribut
Sub Tree
Sub space
Ġmod ified
Debug StringA
IR D
ĠOn e
ĠPROG RESS
Or Expression
FIN ITE
Task Name
Ġus ers
level s
alloc a
SI ERR
Device Context
Device Gpu
Mesh Sync
Ġ12 8
cont ents
cont ribut
we ight
we apon
ERR NO
Ġtotal Players
verti ces
ĠFunction Type
ĠFunction Storage
Register Arc
Sp ect
Sp otify
UD ODE
Ġro b
LU ID
ĠEX T
ĠEX TRACT
GE OT
GE OM
GE TOPT
Tra de
Tra versal
ĠTest F
ĠTest Class
ĠSc roll
ĠSc ale
ĠSc alar
ĠSc heme
ĠCD P
") (
") ));<
first Name
dis k
dis connect
gl pch
IV IM
den Death
ĠDeclare Shared
Actor UniqueID
TROL BUTTON
ĠMY PROJECT
Mod al
ĠOut buf
Group s
tions Dialog
Max imal
Global EventSet
Not Expression
ĠCreate Package
ĠRender Effect
Read Buffer
interface s
Ġtop ic
Ġread y
ĠLink Type
PR IMARY
ĠLog Type
PY R
PY GETOPT
Ġ[] (){<
Eyer String
ĠRun Time
USE S
Ġlow est
Ġ{} \
Tri angle
cs xs
hed String
hed ron
helper s
be ast
Ġload Texture
Ġop tim
ĠSprite Data
ĠSprite Editor
vis it
ĠST ILL
Ġdisplay Details
Ġext ent
Ġnon copyable
Ġtra verse
ĠPLS LOAD
ĠPLS USB
Logger Base
Camera State
Camera Sensor
Up load
We ak
cir ct
Ġsz String
And Expression
ĠGame Mode
Is Supported
PO FF
Slider IgnoreScroll
print ln
Ġass ume
Ġother wise
DU MP
ĠClu ster
ĠData Wrapper
FL ASH
From File
From Two
Min imizer
ĠSe qStatement
Channel sData
curr sum
Ġmem o
Ġmem block
Mutex Linux
Mutex Win
Native Modules
Ġ(* (
ĠEvent s
ĠEvent LinkDefinition
ĠType Cvt
ĠType CvtImpl
Do List
Tool Button
uff le
mem ber
Animation Manager
Create Package
STD INT
current IndexChanged
ILE D
PATH S
Light map
VO IR
not ify
Ġrender ing
Ġmove ment
ĠAl ign
ĠAl location
sk ip
Ġvis ibility
Ġsign aled
Ġevent fd
Down loader
Down Interrupt
ĠQW GRAPHICSVIEW
Ġlo ok
Ġlo aded
MT KView
Sprite Animation
ZRule SoloGladiator
ZRule TeamGladiator
Ġslo t
ĠGB Memory
Move Event
Move Statement
Ġcolor s
MARK ET
Dis abled
Dis assembler
Dis regardVariable
ĠApp le
ĠTEST QUAZ
Ġè ¢
Project Manager
Variable SE
Ġsp ectral
Simple Image
Tab Ctrl
ĠAR CH
ĠNS MenuItem
ĠIf Statement
)+ (
Template Visitor
Export Register
TOKEN S
BYTE S
callback s
Ġcal cul
>////////////////////////////////////////////////////////////////// ////////
DIAL ECT
PROCESS ING
At ascii
PS RESOLVER
ĠĠĠĠĠĠĠĠĠĠĠĠĠĠĠĠĠĠĠĠĠĠĠĠĠĠĠĠĠĠĠĠ ĠĠĠĠĠĠĠĠĠĠĠ
TRACY FILE
Ġopen cv
ĠSH A
ĠCHE SS
SCAL E
vtk New
vtk Transform
vtk TestUtilities
]==' ('
SPE ED
WE APON
Ġpo licy
MMatch Stage
Fast V
ana iroHook
ListNode Data
Cluster Cluster
]!= '\
Access Iterator
TI E
Static Field
ĠImage View
throw able
Codec Type
Ġsuper Step
ĠVersion ing
Script ObjectHandle
ĠChunk Extent
Audio Device
DO C
Null RNG
cryp tography
BL TIN
Ġview port
Ġfun zion
ĠCON CUR
ĠCON CAT
ĠCON TROLBUTTON
ĠMove Statement
ĠName Expression
ĠLabel Statement
Direction al
VIDE OWIDGET
win sock
ĠGLE W
Ġdevice s
Control s
idx ml
ĠThread ing
CRY PT
display Details
|| (
ENU MOB
ĠCommand Selector
PTO PP
Ġmode s
ĠUString Vector
ĠOp tion
CODER UNNABLE
If Statement
QP ixmap
Tick Time
Ġ---------------- --------
ĠLe af
ignore wheel
Desktop EventsMonitor
Character istic
," /
Ass ertion
MR VIZ
Video Mode
ĠMMatch ChannelRuleMgr
ĠMMatch GameTypeMgr
06 01
ĠAssignment List
ĠTri angle
ĠPR INT
ĠRandom Vector
Intensity Sensor
Focus Event
ĠSY M
ĠTra ce
ĠTra cy
Vertex Shader
Cmd Line
MUL ATOR
MUL DIV
go dot
ki ero
valu ate
stop watch
ĠAN CHOR
ĠTemp Expression
ĠBuffer ing
Ġbig int
ĠPer ceptron
ĠForm Rviz
Mem Expression
ĠAnd Expression
ĠMemory Object
asse mble
ĠFOR MRVIZ
ĠQLabel Wrapped
EDIT OR
STRUCT OR
ĠEyerAV CodecType
Bit rate
Bit maps
Ph one
dr m
dr one
ris ma
los able
los risma
ĠCal culate
ĠDate Display
ĠNot Expression
10000 5
ĠUni code
Ġplayers PerTeam
Mark Exception
MACH TIME
MACH MALLOC
ĠSu cceed
ĠSTR INGIFY
Bound s
Ġalloc ator
ah ul
su ccess
Ġcre ating
ĠPC AP
VIS ITOR
Non Copyable
Wait ing
Ġgl z
estore App
CamSensor Actor
Sm allest
rap idxml
Stage Setting
COUN TD
account s
Quaternion f
QStringList Model
EyerPlayer Context
Meta Type
Sda Graph
ĠCK SceneObject
Ġform ID
REAL CV
ĠGU IContext
TokenKind s
ĠGraphics Asset
Ġorigin ally
BR ATION
Round Man
TABLE FILTER
äº İ
DEL PROTECT
ĠExp Statement
ĠExp ansion
ĠCommon Counter
Ġcontains Duplicate
Fusion CameraActor
Jump Statement
Jump ConditionalStatement
TV DataHandler
Top Node
ĠDirect ives
ĠFade Animation
ĠTemporary Object
CF gUtf
Pe ak
fact ory
track s
ĠisPowerOf Three
ĠisPowerOf Four
split k
ĠRec ursion
ĠStack LinkedList
Heap Dbg
ĠResource s
CUSTOM IZE
Mach Type
car losrisma
trans ceiver
Ġlim its
ĠDis able
ĠUN REALCV
ĠWt Helper
Unreal CV
executor s
ĠImGui MouseButton
Ġ[&] (
convolution al
Private Cards
SIGN AL
Kern Param
Media Info
RAM MAR
depth ai
cover ed
cover ity
ĠMS G
ĠPre comp
ĠLin Vst
aps ule
Ġåº ĶçĶ¨ç¨ĭåºıçļĦåħ¥åı£çĤ¹
Thumb nail
Attach ment
Ġextension s
Phase Function
INTERRUPT SERVIC
Cy clic
Dock Widget
Micro facetType
WH ITE
ĠAct ivity
ĠSleep Forward
ĠScoped Handle
ĠEd ge
ĠMask edFill
ordin ates
ĠHeap Sort
ĠNonCopyable Obj
83 64
Blu etooth
Cryp ter
Cube Actor
FU Item
fam ily
}} }
cef Widget
ERIAL PORTCLIENT
ĠDB LL
ĠLU A
Scheme Manager
Turbo Module
Bad Version
Sel StraFact
Ġrepres enting
Ġdb ll
Stamp ed
ĠBE InitLog
ĠkNum Nan
ĠOr Expression
TypeTemplate Parameter
INTR INS
Attribute List
IZ ED
ä¾ ©
è® ¤
Ġsingleton s
Ġomn i
Ġofs X
Ġofs Y
ĠWOR DS
ĠmaxC uts
ĠMMatchRule Skillmap
ĠBackground Sprite
Fundam entals
wind ing
æĢ ģ
Ġmeg cv
child ren
ĠPO INT
ALLO CA
ALLO PSRESOLVER
EfcDsrc Generic
Mo vie
Mo lecule
Na vmesh
REND ERNODE
Ġvtk New
ĠSm all
fft nd
comment er
Tools Module
ĠToken Kind
Fx Curve
gd native
her it
Ġvertex Num
loss es
ĠAD VBox
ĠAbout Dialog
cklink Base
Ġham ming
WidgetLook Manager
ĠProto cols
SOFT PLUS
ItemList Base
RenderTarget EventArgs
ĠSpriteAnimation Def
Absolute SetStyle
POINTER S
ĠPLSL oading
Combat State
SQLite Cpp
NLLLoss Options
BC J
Cap ital
DAT ABASE
Fun ctor
Risk Mon
fi bo
gil Lock
iano forte
jk stra
//=== --
Ġsupp lied
ĠSele ction
ĠCA FFE
ĠEM ITTER
ĠTile Extent
ĠTIME LINE
ĠMem Expression
Coord s
ĠGpu Texture
ĠHw Controller
ĠHistory View
bust ed
CONVER TER
Secret Split
2818 1
POSITION VECTOR
RB spObject
Uv Loop
Vm Instruction
Ys DisregardVariable
mk l
patch es
ç¬ ¦
Ġcf str
cogn izer
Ġ*>( <
ĠMX N
Ġdai et
ĠGrade Type
ĠGOOGLE MOCK
SHI ELD
Encryp tor
WindowRenderer Manager
WindowFactory Manager
LOOKUP TABLEFILTER
Compile Iterator
RenderEffect Manager
Ġroom s
Passes Gui
ĠéĤ ĵèģªä¿ĥ
Ġincre ase
ĠAlbum Type
ĠkNumM icros
Account Data
BPLib rary
AAB B
BAD GE
ElGamal Encryptor
OES RenderNode
REN CPP
Warp Affine
Ġmsbl enContext
allow ance
Ġpts name
ĠSET TINGS
ĠCloud Password
Ġwid tbl
ĠDist ributore
ĠRel ative
COMB AT
quant ized
ĠJump Statement
GetC urr
ASIN H
PerM eter
]+$ ",
ĠResize Impl
Prev Instance
ĠThreadLocalValue Impl
ĠPRISM STICKERSOURCE
Reduction Gpu
ĠElemwise ForwardImpl
EV T
Mock Node
Pal stanceController
Slic er
æĤ ¼
esc aped
Ġbbox f
ĠArt ist
ĠMol Holder
ALYZER PUBLI
ĠFUR enderKit
Ġ'* ';<
ĠsetB ordered
Relayout ForwardImpl
ĠStorage Type
Compute Shader
Quick Action
ĠRelayout Format
ĠDeserial izationError
UserConfig Initializer
ĠTRA DE
ĠUTIL S
ĠTHREAD S
ĠRecord Button
ĠOrigin al
ĠAsyncMqttClient Internals
Fundamental Archetype
1415926 535
Border Mode
CALI BRATION
Dart Helper
EE PROM
Lazy SegmentTree
NC BKern
ZGameType Manager
fri endly
Ġame deo
rared Sensor
Ġintern ally
ĠPOLY NOM
ĠDIS PLAY
ĠLOT TIE
ĠRO ICopy
sonic Sensor
Ġdeactivate Wifi
Decompiled CodeGraph
ouch Bar
GameMode Base
ĠéĴ İéľ
velop ment
secut ive
rapid json
ĠDxsoCode Iter
åĽ¾ åĥ
CATEG ORY
GIL State
GEL U
Hyp o
Npp Shell
Ops Resolver
QScoped Pointer
Spre ad
SIL U
Sud denDeath
cafe ExportRegister
pFrame Bitmaps
tux family
Ġ================= ====
ctuator Spelling
Ġtfl ite
iffc raft
Ġbir th
etcher Minimizer
ĠABO UT
ĠATA SCII
Ġglt f
ĠClang Tutor
ĠCRY PTOPP
INPA INT
ĠMutate Impl
ENGIN E
splat s
RESP ONSE
RESER VOIR
ĠDAI ET
ĠNHW C
htree ba
Ġeast l
getToken Name
getKeyword Spelling
getPun ctuatorSpelling
ĠQMY VIDEOWIDGET
ĠIGM DK
ĠBrowser Dock
ACube Actor
SEGM ENT
METAG RAMMAR
ĠOtau File
libLAComment er
ĠmaxChunk Len
toRotation Matrix
LODEP NG
Xfix es
CONCEPT S
CONTA INER
Convers ation
Sciss or
ToLo verHook
ĠCoulo m
PLUGINSTREAM DECK
PropertyProxy Object
ĠdoSome Work
ASIOS ERIALPORTCLIENT
Contraction Gpu
Heuri st
subtrees um
ĠAddAttribut edModules
SIERR A
UDODE M
ĠSTILL LEBEN
ĠPLSLOAD ING
FromTwo Vectors
ĠTESTQUAZ IP
BLTIN MODULE
ĠCONCUR RENCPP
ENUMOB JECT
ĠLinVst Manager
INTERRUPTSERVIC EMANAGER
ĠkNumNan os
INTRINS ICS
ĠEMITTER STYLE
ALYZERPUBLI CTYPES
1415926535 89
ĠéĴİéľ ĸ
etcherMinimizer Molecule
" .<
" >>
" ))<
" \\
" }}}
( ++
) ];<
) &&
* ()
* >*
, @
, ]");<
. *
. =
/ ****************************************************************
0 24
3 13
3 05
4 37
4 096
6 80
7 18
7 04
8 32
8 35
9 00
9 02
9 23
; }
< ><
= *
A nt
A ID
A imbot
A live
A mount
B ag
B SC
B ING
B lob
B MP
B ass
B ES
B undle
B asis
C N
C AP
C AD
C ho
C rt
C alls
C rack
C Model
C pu
C Exit
C ancel
C Wnd
C ategory
C Adv
D A
D ri
D est
D Core
D Array
D Ptr
D Model
D istribution
E G
E K
E mit
E VE
E lide
E asy
E FVR
E QUAL
F s
F SU
F lush
F ENV
F rust
F iveHundredScore
G e
G ra
G lass
G UN
G OG
G IS
G reater
G eo
G DT
G ROUP
G ooch
G PtrArray
H IT
H ard
H ED
H ICLE
I Progress
I Qubit
I ALIZE
J s
J UD
K B
K AC
K uh
K LM
L eg
L Tree
L CC
L RESULT
L STM
L andmarker
L ERATION
M n
M er
M ul
M ON
M Widget
M Base
M UT
M ono
M isc
M sec
M utator
M argins
N AN
N ear
N UMBER
O dd
O ID
O VER
O ld
P ED
P ID
P ip
P ause
P MR
P ainter
P ixmap
P Sequence
P lain
P rincess
P OLIC
P haser
Q Menu
Q Tree
Q Entity
Q Style
Q Icon
Q Runnable
Q uality
R ing
R out
R ename
R ice
R Sphere
R MQ
R Boundary
R GBA
R iverCombs
R RTL
S F
S inc
S io
S rc
S NAME
S ql
S lot
S mooth
S inglyLinkedListNode
S hopping
T F
T urn
T mp
T AB
T ank
T imeline
T angent
U ST
U ART
U ltra
V k
V Mesh
V oice
W M
W o
W OW
W ep
W rap
W rong
X Z
X lib
X util
X pr
X PRESS
Y AML
Z Z
Z Interface
Z UTIL
Z HelpScreen
Z Canvas
] ->
^ =
a vide
a ypoint
a emon
b son
b ases
c str
c ub
c ump
c xx
c wd
c mpt
c uh
d ce
d to
d ark
e z
e asy
f ce
f ar
f dd
f ac
f ab
f ollow
f eature
f env
f riend
f ba
f ug
f usc
g id
g rip
g iven
h an
h are
h gt
h Self
h aruno
i red
j i
j acobi
k p
k ely
l b
l on
l am
l ongest
l rm
m al
m pp
m io
m ber
m scripten
m ingDistance
n C
n k
n r
n aive
o File
p v
p end
p ur
p io
p impl
p Text
p Action
p ipeline
q Char
r s
r ule
r hi
s x
s ure
s ie
s rand
s mooth
s noop
s lices
t ar
t id
t ick
t imes
u red
u age
v ing
v ol
v ation
v ity
v ance
v ld
v oldor
w k
w al
w ave
w alk
w rap
w anted
w eek
x C
x d
x m
x Gui
y les
y ield
y brid
z one
} }};<
¤ æĭ·
§ åĪ¶
© ĩ
° ¢
° åº
± ĳ
´ é
¾ Ħ
ä ¼
å Ĭł
å ¼ı
æ ²
æ µ
æ ¾
æ Ħ
æ Į
æ į
æ Ĳ
æ Ĵ
ç ¹
ç ½
ç ĳ
ç Ĵ
ç Ļ
è Ī
ĉ ĠĠĠĠĠĠĠĠĠ
Ġ LE
Ġ --------
Ġ YS
Ġ roll
Ġ zz
Ġ uts
Ġ æł¼
Ġ udp
Ĩ å
Ī ä¾
ī æļ
Ķ åĽ
Ļ æĢģ
ŀ ĺ
Ł æĸ
in ject
in struction
de g
de tected
de serialize
ĠĠĠĠ ĉ
Ġ< ><
en ew
on s
on ist
on enew
at p
># <
er Dialog
er min
lu alib
re mo
re peat
re wards
Ġ<< =
or o
or test
or Input
Ġ" $
Ġ" ?
Ġ" );
Ġ" ")<
Ġ" ")
ut put
Ġc e
Ġc x
Ġc le
Ġc lo
Ġc sh
Ġc var
Ġc luster
Ġc ross
Ġc leanup
Ġc redit
Ġc irct
am i
ce a
Ġm ine
Ġm map
Ġm anager
Ġm pi
Ġm fc
Ġm Counter
Ġm Program
Ġm ano
Ġm any
Ġm sec
Ġm Normal
Ġm CounterSingleton
Ġm Hologram
Ġm Dimension
end point
ar ator
ar mon
ri table
le ast
le Bo
le tter
le ctor
le ts
() "
() ]
Ġi pc
Ġi gnore
Ġi Bone
Ġn l
Ġn as
Ġn Param
Ġn ome
Ġn xt
Ġn elems
se en
se vent
se lement
co w
co thread
co lour
an i
an de
an ame
an der
Ġt a
Ġt d
Ġt f
Ġt t
Ġt imest
Ġt au
Ġt urtle
Ġt cflag
al led
if ference
ic ate
ic alls
std in
Ġv oltage
Ġv ett
pp s
Ġf ex
Ġf ac
Ġf ake
Ġf atal
Ġf eatures
Ġf rac
Ġf Wep
Ġs q
Ġs ure
Ġs old
Ġs ession
Ġs gemm
Ġs oftware
Ġs alary
Ġs nar
Ġp j
Ġp t
Ġp un
Ġp Menu
Ġp Label
Ġp Out
Ġp da
Ġp ProgressBar
Ġp StatusBar
Ġp hysical
Ġp anic
Ġp inyin
Ġb s
Ġb ot
Ġb est
Ġb Sh
Ġb order
Ġb lue
Ġre use
Ġre ally
Ġre served
Ġre peat
Ġre cie
Ġa ud
Ġa ccept
Ġa pi
Ġa uth
he f
la ck
la ux
ro bot
ro uter
ate gor
ate lla
et imes
str cmp
un load
un ite
Ġ0 5
Ġ0 00
Ġint err
lic ative
ma pp
ma pper
ma pped
ma pping
ent e
>// ------------------------------------------------
Ġo ip
ex amples
Ġ1 99
Matrix Base
do l
do ck
do Virtual
ĠA rc
ĠA ND
ĠA nti
ĠA imbot
ĠA zure
Ġ( ++
Ġma int
ĠS M
ĠS V
ĠS Actor
ĠS DX
ĠS urface
ĠS PI
ĠS ql
ĠS IZE
ĠS ingh
is a
is y
is hw
is Hold
Ġ// _
Ġ// __
Ġ// /<
Ġreturn ed
Ġg s
Ġg test
Ġg reet
Ġg rok
Ġis Active
Ġis Hold
ĠC F
ĠC y
ĠC String
ĠC My
ĠC App
ĠC lick
ĠC ube
ĠC LIM
ĠC rash
ĠC go
ĠC Record
ĠC lipper
ĠC Wanted
ĠC ategory
ĠC BZip
ĠC Indirect
ĠC BOR
ĠC ORRADE
ĠC hef
Ġon Item
Ġon Draw
Ġon Activate
Ġthe ir
IN A
IN GL
ed Size
ed Tree
ĠE D
ĠE qual
ĠE very
ĠE APOL
ck Channel
__ (
__ _
ch anged
ver bose
ĠT E
ĠT ex
ĠT able
ĠT ape
ĠT iny
ĠT Obj
ĠT alk
ĠT UTORIAL
ĠM mp
ĠM AC
ĠM ay
ĠM TR
ĠM PI
ĠM edia
ĠM MATCH
ĠM QTT
ĠM ulti
ĠM essenger
il ities
ĠP J
ĠP List
ĠP age
ĠP lace
ĠP uzz
ĠP ick
ĠP attern
ĠP ulses
ĠP rx
ĠP runing
ĠP ianoforte
ĠP PSequence
.. <
im b
im show
im buf
im eter
Ġ2 60
---- -<
Ġd ur
Ġd sp
Ġd ump
Ġd ifferent
Ġw al
Ġw str
Ġw nd
Ġw cs
Ġ{ },
arg e
op e
op upMenu
te ch
Ġfor ty
sp s
sp ect
In structor
ist ac
00 02
Ġl an
Ġl atch
Ġl cd
Ġl cs
Ġl stm
Ġl idar
Co Initialize
Co verage
Co untry
LE AD
LE TON
RE nv
ext ended
Ġh ow
Ġh Window
Ġh orizontal
Ġh ome
Ġh ous
ST O
ST est
ST UB
ĠG C
ĠG M
ĠG R
ĠG PS
ĠG CD
ĠG iB
ĠG estoreApp
ad or
ge om
ĠD et
ĠD rag
ĠD ATA
ĠD IP
ĠD iff
ĠD rop
ĠD avide
Ġif def
Ġch rtbl
ir Server
ĠN FC
ment s
Ġj int
Ġj object
Ġj ug
AT M
/* ========================================================================
ot ential
ef x
OR D
Ġ4 9
dom eter
St ar
St Argument
set s
set Enabled
set Focus
set Visible
set jmp
ĠF D
ĠF ix
ĠF IX
ĠF req
ĠF FT
ĠF ixed
ĉĉ ĠĠĠĠĠ
ĉĉ ĉĠĠĠ
IM od
IM BAR
Ġnum ero
Ġnum Rows
Ġ3 8
Ġ3 65
ĠL UT
ĠL ey
ĠL ITE
ĠL PCWSTR
ĠL GPL
ĠR ight
ĠR AND
ĠR CPP
ĠR Frame
ĠR HI
Ġe uler
son Page
get time
get WDF
ial s
ĠQ ST
ĠQ Vector
ĠQ Size
ĠQ Map
ĠQ Point
ĠQ LineEdit
ĠQ ian
ĠQ Runnable
ĠQ JsonObject
ĠQ ByteArray
Ġx r
PP latform
ĠI ter
ĠI CON
ĠI DL
ĠI pAddress
ĠI Splitter
Ġto c
Ġto o
Ġto Gl
ĠB S
ĠB in
ĠB egin
ĠB SON
ĠB ound
ĠB SV
ĠB enchmark
ĠB HL
AN ON
Ġar c
Ġfile desc
em s
em y
em Version
em bed
em scripten
per iod
per iodic
AC ON
Ġ' .
FI C
FI RST
FI RRTL
od ay
Ex Dependencies
th ernet
10 80
comp uting
Ġr tl
Ġr viz
Ġr ori
tt y
ool er
SE CRET
up t
ĠW ide
ĠW ritten
ME TA
ME dit
est ed
Ġget Value
Ġget Sum
Ġget Platform
Ġget Git
ĠH W
ĠH el
16 384
Ġk No
Ġk iss
Ġk az
Ġk Pid
CT RE
con verter
con currency
Str u
Str ong
irtual Cam
aa a
Ġde s
Ġde ve
Ġde que
20 18
EX E
EX IT
EX PR
RO CM
Pro b
vi ded
pro ps
pro filer
ive End
String View
String To
art ists
ĠO ther
ĠO TA
pri or
pri mo
pri tes
ED GE
ED POWER
ose cond
ele ven
BU IL
ĠV k
ĠV m
ĠV TK
Ġ! (
ff e
En ding
Ġout Size
lock er
TE LE
TE vent
TE SC
Ar tic
Ar tist
GL Debug
qu ash
char acter
sc r
Ġ5 12
AD J
AD MIN
PE ER
Ġmax sum
Ġmax Count
Ġmax Area
Ġmax Val
DI VISION
ac i
FA ILED
Base Data
SC ALL
SC ROLL
CE LL
Node Base
Node Handle
Ġtr anslation
Ġse cs
Ġse lf
Ġse bast
Ġse ems
Ġset Name
Ġset Value
Ġset Alignment
Ġcomp iles
Ġcomp uting
to StdString
Ġex tr
Ġex act
Ġdata Err
inl en
SS ID
ĠX lib
Stream Writer
LO DModel
ab bat
Ġstring stream
SHO W
DN S
UP ER
UP DATE
STR A
Event Object
Event Loop
ĠĠĠĠĠĠĠĠĠĠĠĠĠĠĠĠ ĠĠĠĠĠĠĠĠĠĠ
ĠĠĠĠĠĠĠĠĠĠĠĠĠĠĠĠ ĠĠĠĠĠĠĠĠĠĠĠĠĠ
auto m
auto grad
Ġhas Cycle
Ġsum Of
UT SNAME
CON TRO
read OFF
ork Type
ob fusc
Re main
Re quired
Re coil
ender er
ender Py
Ġnumber Of
cl ing
ti ces
ers istent
Con secutive
util ities
ĠIn c
ĠIn st
ĠIn ductor
Name Group
Data Dialog
dent ials
error s
ĠPy Ar
Ġ7 2
Ġ7 3
Ġ7 4
ms mo
ms df
On Start
On Change
On Exit
Row Mer
View Controller
To k
To Update
To Server
Array Xi
Array XXi
Array SerializationCluster
DL IDAR
Ġpa int
Ġpa inter
Of Hanoi
Plugin Registrar
cb or
Col Xpr
imp lot
anag ed
ĠPro visioning
add Test
Ġcount s
Ġcount Path
Ġcount AndS
gram mar
ĠGet File
ĠGet Instance
ĠGet Thread
ĠGet Desktop
rect angle
array Sum
erial izer
mo do
Text Config
Text Input
ert ific
Def ine
For Plugin
For Key
Comp cap
Get Text
Get Num
Get Time
Get Device
Get Offset
NO PACK
parse IPv
parse CommandLine
Un k
Un pack
Un iform
Un doVirtual
Ġcon verter
Ġcon caten
ak u
ari ya
Ġ8 0
File Logger
sync DB
Set Array
Player Select
100 2
SP latform
Ġal gorithms
Ġal kane
CK Scene
CK SUM
Ġdp Max
Ġ|| <
Ġq Hash
MM IO
MM ATCH
ĠRE AL
ĠRE FIN
src Info
input s
MP U
MP opupMenu
ĠReg istry
Ġdi vidend
new num
ĠPRO T
ĠPRO TON
State Frame
Property Page
Ġu zlib
Ġwith in
ĠArray XXi
Ġdo llar
AS API
next term
UR A
Add Function
Add Button
cv ar
ĠSC ROLL
RT AS
Ġmy vec
Ġmy Dist
OP US
xy z
ĠZ lib
ĠZ TR
ĠZ Game
ĠZ Actor
Ġfirst chr
Ġfirst Uni
list s
load ing
JECT ORY
Error Handler
Index edTree
Ġcolumn Number
>:: ~
Cont ents
Cont ains
Mode s
(( *
Pack edSize
Ġfunction ality
Path DataDialog
Ġtri Num
0000 00
Log s
pe e
pe Phase
ler ation
pch ç»°
wap i
ros copy
OS Common
Ġsh ift
PRO J
PRO BES
Code gen
Module Pass
Inter cept
FF MPEG
SER EG
no pack
Main Bar
graph ic
Element s
pos i
]= (
ribut es
EL F
Game Core
He alth
cy cle
EM SCRIPT
Sensor Identifier
TH ON
]] )
]] )<
]] !=
]] --;<
ĠIm gFilter
Image View
Image Variant
99 3
BO UN
BO UND
Context Menu
An alyzer
]) -
ctor s
Vis orInput
Ġlog ging
obj detect
Config ure
App Kit
av r
ĠCO DE
Ġsort Array
é¢ ĺ
IP Mask
ular Power
ĠSet Value
Ġwe ight
Ġwe ights
Di vide
Class Name
GR AY
System Info
System Conf
Ġptr diff
MB OL
Common Counter
PC M
Ġsource ID
CC var
ĠBase Printer
game Engine
Ġinit Script
Ġexplicit ly
Command Queue
ĠSystem Conf
24 0
ĠY DLIDAR
sub dir
view port
view Pos
Color Prob
Message NameGroup
Symbol izer
Symbol Table
HE AP
Version String
Ġrow Index
Al pha
Ġ-- >"
14 74
Ġright Side
Link s
ĠFile NotLoadedException
ĠUn k
Ġcheck Sparse
ĠFL uaLibFeature
Model Index
mod Exp
Ġpar allel
33 720
run Benchmark
Ġserial ized
Ġserial ization
ĠRow Major
ĠSTD METHODIMP
ĠAdd Function
Sub scribe
att aglia
Ġmod d
ingD aemon
IR QHandler
Lib c
start s
start FirstInnings
Ġfind f
Ġfind Max
index ed
index ListItem
Initial ized
Initial ization
ĠOn Command
ĠOn Register
ĠOn Exit
ĠOn FrameDraw
key word
fs opengl
lang er
register Types
Packet Size
jp g
Ġper mutations
decl arations
ĠNode s
ĠNode Label
*) &
Ġtotal Sec
Sp ooler
Ġro d
Ġro und
Ġlangu age
50 8
Ġserialize Json
Tra in
bin omial
pr g
pr onenew
Thread LocalValue
Level Data
ĠSc rabble
ĠMC RESULT
spec ific
Ġexpression s
") ->
") ]]<
Const ColXpr
player info
Ġfast p
DEP TH
DEP REC
target Url
With MarkException
Per cent
Per Micro
dis covery
gl tf
Ġqu i
Ġqu at
Ġqu ake
ĠRe verse
Ġversion s
element ary
man ifest
chr s
chr on
Mod ularPower
ĠCon vert
ĠOut laws
55 36
Group Box
Global Types
Global Offset
Pri ority
ĠCreate Codec
Ġter min
Ġpos es
ĠRender Target
Read File
serial Interface
Ġé Ĺ
Ġé ŀĺ
ĠSh inku
Server Thread
vert ColorProb
da isy
velo pePhase
mon ey
Ġ"< --
Ġ1000 7
05 01
17 4
flag Id
Ġlow link
Com Ptr
ĠLIB HUNSPELL
CS X
CS Module
No op
ACH ABLE
COMP RESS
Shader Pass
DEBUG BREAK
Ġbase line
Ġload TestData
Ġop tion
ĠST ART
ĠST YLE
ĠNum Array
NON BLOCK
Ui Component
Ġsy z
img codecs
Table Dialog
Table Model
Ġtra ce
Ġtra its
ĠTh ere
Serial ized
(' \
45 90
Open CV
Open CL
Open Gl
STRING IZE
Build Info
Ġ19 62
ĠGame Process
ĠGame Dir
Auto start
Is DebuggerPresent
Is EulerWalkable
Resource Prov
Icon s
Icon Size
PO SE
Slider Thumb
print er
Ġass erter
Imp lementation
74 7
Min us
msg pack
Channel Handler
Display Name
Display Handler
SV irtualCam
bit al
ĠCH AR
ĠCH IP
ĠCH UNK
ĠUpdate Callback
28 4590
inf os
Ġmem cpy
World Object
ĠPrint ers
Counter Manager
ĠIs Valid
Ext ended
Ġtry ToUpdate
Ġæ İ
ĠTo DoList
Animation Style
AK URA
User Data
Ġhash er
Material Instance
Ġneed s
INFO DIALOG
LINK ED
SIMD JSON
Building Type
Hash Map
Lu a
Generic Box
method s
Ġevent Filter
Back ward
Ro ute
Rec v
Default GameModule
Ġmake in
Ġmake out
ĠPL AY
CHECK SUM
SD ock
Sprite Data
bd UNK
bd PublisherVariables
Ġinter preter
Act Node
Part ition
Ġcpp util
ĠSDL Net
Catchment Divide
tim eline
Ġè ¤
Ġè §
Ġè Ĭ
Ġè į¤
Ġbind Scene
ĠPacket Handler
88 05
88 88
Variable Symbol
Ġsp atial
Ġsp vgentwo
ĠSE Protect
ĠEnd s
ĠPri vate
EW PORT
Tab les
Ġframe work
Ġdis k
Start up
Ġdec Graph
36 0
Look up
Ġad just
over lay
Ġfs util
ĠInter val
&& ...
Bitmap Font
Win HeapDbg
Ġopen ed
Ġsto i
Quest Status
Man age
Man ifest
cm c
uni code
INTE GER
Score board
Det our
Fast GICP
ĠBinary IndexedTree
Graphics CommandList
Ġç §
Ġç ĦĬ
ĠLP STR
riptor s
Cluster Id
Sync Settings
VE HICLE
INIT IALIZE
ĠOutput DebugStringA
Cache Path
Normal ize
ĠMessage Pack
ĠImage Widget
ĠImage InfoDialog
VIEW ER
inBox IgnoreScroll
EXCEPTION S
Audio Play
Null s
Place dStructure
heel getal
ĠTime out
Scalar NodeData
Cmpt Material
Cmpt Geometry
Su ite
ĠMove ment
Local InstrVarSymbol
Ġparse RowMer
BIND INGS
Pre served
sse cs
tag onist
onn aci
PLS Dialog
PLS About
PLS Naver
Control Dialog
Control Thread
pl anner
COND ITION
ĠShow ErrorMessage
Title Item
prod ucer
Ġlevel Order
INTEGR ATION
Ġsymbol check
ĠValue Ref
Ġcompil ers
TEXT URE
Tip View
crypto pp
sim ulate
èģ ½
Ġback ward
ĠSp inBoxIgnoreScroll
Widgets Export
Ġorder ing
ĠColor Name
Offset s
pc ap
task s
wx DEFINE
wx EVT
Ġms modo
Ġstampa re
ĠStart s
Help Widget
CD F
Dll Export
stat s
ĠMAT RIX
Internal ErrorNotImplemented
ĠIO PORT
Focus List
Wt U
WIDGET SEX
command s
ĠSY MBOL
Intern ational
Comb ine
One ThousandScore
Cmd Show
pol l
Ġpad ded
******************** <
******************** /<
87 654
è¾ ĵ
ĠAction Status
SpinBox IgnoreScroll
Ag ent
Fa de
GLE FFECT
ĠMemory Manager
asse mbly
ĠFOR MAT
shal Alloc
ĠKernel Registry
Loc ale
Ġinterface s
elcome Widget
Pin Reader
WT ST
WT SL
åĪ ©
los oph
Ġwas m
ĠDll Export
10000 4
Ġqt MenuSeparator
oftware Update
Virtual Key
hook s
Ġsk a
Ġsk Crypt
Ġsk etcherMinimizerMolecule
Ġref lect
ĠSu famiTurboCartridge
ListBox Look
Ġalloc a
Ġalloc ate
Linked Ele
SK IN
æİ §åĪ¶
Ġcre ation
Ġ200 9
Setting Page
ĠZRule BaseQuest
Interrupt ServiceManager
offset of
Wait Status
comm ctrl
Ġtrack s
Ġpatch es
ĠSerial PortClient
Ġgraph ics
ĠCOL OR
MI KMOD
TIM ES
eh n
sy z
åı ¯
åı °åº
Ġrecurs ively
ARPMP GeneratorBuildingHolo
ARPMP CoolerBuildingHolo
ARPMP BoilerBuildingHolo
ARPMP HeaterBuildingHolo
ARPMP TurbineBuildingHolo
ĠZTask Base
PASS INGL
signed Integer
ĠDesc riptor
98 08
dic ator
ane Line
extra s
abc def
USB TipView
br k
ĠIM GUI
Ġtask s
Comm unicationManager
Child Frame
Ġunique Paths
85 4
Hint Widget
Mov ing
Sphere Mesh
full y
è° ©
Ġip filter
ĠMock Node
ĠRec ursive
Ġkee per
Ġpair s
ĠEyerPlayer Context
Ġ123 45
Record Keeper
cr end
cr begin
dup licates
welcome Page
Ġmer ged
ĠActor RuntimeID
ĠCan onical
ĠPol lic
ĠDis k
ĠDxvk SignalTracker
Standard Paths
Proxy Model
CALL BACK
Hw Controller
Save PCM
card s
èĬ ¯å
Ġla uncher
Ġcancel led
lash Screen
ĠImp lement
refer ences
Ġsorted Squares
ĠScript Api
WiFi USBTipView
Ġtick s
ĠSleep ForwardImpl
ĠCounter Manager
ĠShape Mesh
Ġextra TestDataPath
Flow Path
MAT RIX
Next map
sn ake
etime Tracker
ĠSk in
ĠSec urity
ĠQu aternion
MMatchRule Training
MMatchRule Skillmap
HF ByteSlice
Sur f
cmake define
pay load
Ġbl k
ĠQListWidget Item
interval s
Ġencode d
Rectangle Shape
ĠInterrupt Manager
Remote Rendering
IZ ER
RPMP BuildingHolo
è® ¿
inst all
ĠPart y
ĠNormal ize
ĠmaxC ut
Chat room
Visual Mesh
Trans ceiver
PRINT F
video io
ĠARPMP BuildingHolo
sdk ver
Calcul ating
ĠBackground Type
Dump er
Hydro Network
Ġ***** **<
Ġcomm unicationManager
ĠCar Interface
ĠPO INTER
//////////// //<
Ġkth Smallest
ALIZ ATION
ĠOver lay
ĠOver ride
quat f
5555 5555
BT N
CLOCK S
Tun e
dat at
åĨ ħ
æĹ ł
æŀ Ħ
éı ģ
Ġut imbuf
Ġmov es
ARDUINO JSON
PLSChannel DataHandler
Ġprovide s
Album InfoRunnable
xxxx xxxx
,... );<
Cre ated
DRIVER S
éĿ ĻæĢģ
Ġri id
Ġcand y
LET ED
Ġham mingDistance
Ġchr ono
IMG PROC
IMG CODECS
touch pad
Conv Bias
Connect ed
DataType Ptr
ĠChannel DataBase
Recy cling
ĠParser Exception
ĠOBS PLUGINSTREAMDECK
Benchmark Query
Car Interface
GP IO
Motion AddButton
SA FE
bz ehn
cum sum
dist ortion
qr ID
Ġtower OfHanoi
Ġsig ma
ĠAt ascii
izard Page
ĠSele ct
ĠSingle Wrapper
ĠEM PPlatform
ĠPass By
Inc rement
ATTR IBU
ĠFR ONTEND
ĠRT LD
bust ifier
2818 284590
ĠPrimitive Type
Ġactivate CommandQueue
Ġå®ļä¹ī æİ§åĪ¶
ĠåºĨæŃ¹ åķĬ
([ &]
MXml Element
]" },<
mob ius
sql ite
èĮħ r
Ġ"{ \"
Ġtw ice
Ġff mpeg
Ġ***************************************************************** **********
Ġ***************************************************************** ********************/<
Ġremain der
Ġoct al
ĠTd AccountData
ĠTd Transceiver
ĠUPD ATE
ĠUPD ATER
ĠWR ITE
ĠHand les
Ġcomput ed
Ġcomput ers
Reverse d
ĠGetCurrent Process
ZEffect Billboard
ĠINTER FACE
ĠAlloc ate
ĠARDUINO JSON
å¯¹ è±
Fine Tune
Lif etimeTracker
ç©º éĹ´
Ġet c
retri eve
Ġsound woofer
Ġbrow n
Ġcoeff s
Ġoccur red
ĠCEntity Node
ĠPose Hypo
REL ATIVE
ĠRep lay
ĠUrl PushButton
prom ise
SSp lashScreen
ĠExpr Tree
Refcount ed
Short cut
Ġtrim BST
Ġkeyword s
å¤į åĪ¶
Android AudioPlay
ĠPLSC olor
Worker Ptr
GpuResource Descriptor
ĠStyle Transfer
Ġpayload less
CONNECT ION
Http Spooler
IALIZ ABLE
LAND MARKER
pixel s
tun e
°å į
alt ivec
Ġvisual ization
Ġdx sdkver
ĠFWP M
Ġanim als
Ġatt ribute
ĠAddUpdate Forward
Perform ance
ĠPLSDialog View
TRAIN ING
Multip lier
ĠTraits Type
XPtrTorch Layout
Ġtempl ates
wt orkType
xFFFF FFFF
å¸ ¸
Ġrig id
Ġfre open
under lying
ĠCl one
Ġinject ed
ĠGEN ERAL
preview s
allenge Dialog
Stg Inst
ĠVARI ANT
UNRE ACHABLE
Ġå± Īä¾
YSY STEM
OPERATOR S
2402 16
ĠRepres ents
ĠéĶ Įè¤ī
ĠDEFIN ES
Ġå®¶ èĥ¶
RECOGN IZER
Ġæ²¥çĦĬ çĶ«
Air craft
HARD WARE
ISequential InStream
Mis match
Tess Obj
vfs archive
æĪ Ĳ
çĪ ¶
èµ ¢
éĺ ĳ
ĠON LINE
ŀçİ °
ctag ADS
ĠMov ingObject
ĠMXml Element
Ġdig est
Intr usive
ĠGl yph
Ġchat room
ĠFocus List
Ġtog gle
ĠHi erarchy
Ġkpid PackedSize
concept s
ROT ATION
artic ulation
oseph us
ĠVI EWPORT
DISC ARD
CONVERSION S
Collide System
GetProc Address
GetRegistrar ForPlugin
ä½¿ çĶ¨
ChannelsData Api
Lightmap Dialog
ĠTrace File
Ġomni reduce
Ġhamming Weight
åĽ¾åĥ ı
141592653589 793
)&& (
/**************************************************************** ********************<
718 2818284590
BSC ontainer
BING O
Crt Set
Crack le
Frust um
GUN Z
GIS wapChain
JUD GE
Mn gr
MUT EX
Pip Filter
POLIC Y
Sio WorkerPtr
Shopping L
cub oot
cump rod
fug a
sie bzehn
yles heet
Łæĸ ¤æĭ·
ĠmHologram Type
ĠmDimension s
leBo bble
Ġnas oq
sevent een
ĠfWep Fov
Ġsnar f
Ġaud snoop
laux lib
atella view
Ġoip o
ĠSActor Base
ishw ariya
ĠClick able
ĠCLIM odule
ĠCRecord Vector
ĠCIndirect Compare
ĠonDraw Begin
ckChannel Base
ĠPuzz leBobble
ĠPulses ToMetersEncoder
ĠPrx Dll
ĠPruning Map
istac asse
Coverage Sensor
Country Code
/*======================================================================== ==;<
setFocus Policy
ĠFIX ME
ĠLey line
sonPage Base
ĠBenchmark Query
ĠgetPlatform Name
Ġkaz em
Strong Focus
iveEnd Item
osecond s
Artic ulation
DIVISION S
Ġsebast iano
Remain ing
msmo bu
msdf gen
ĠcountAndS ay
ertific ate
Compcap Main
parseCommandLine Arguments
Unpack er
syncDB Job
PlayerSelect ListBox
ĠREFIN EDPOWER
ĠfirstUni qChar
EMSCRIPT EN
1474 8364
pronenew bits
DEPREC ATED
Percent age
DefaultGameModule Impl
ĠparseRowMer ged
WIDGETSEX TRA
åı°åº ĶçĶ¨ç¨ĭåºıçļĦåħ¥åı£çĤ¹
PASSINGL INK
ĠChannelDataBase Handler
ĠEMPPlatform BuildingType
ATTRIBU TE
Ġå®ļä¹īæİ§åĪ¶ åı°åºĶçĶ¨ç¨ĭåºıçļĦåħ¥åı£çĤ¹
Ġ*************************************************************************** */<
ĠPLSColor Circle
Ġå±Īä¾ ¥
ctagADS REnv
7182818284590 45
" {<
" ];<
" (<
" ]);<
" ])
" });<
' +
' .<
' ];<
' ";<
' );
' ))
( {<
( [](
) =
) ]
) |
) ();<
) ==
) >(
) ="
) !=
* &
* );
* ");
, %
, .
, *,
- ";<
. */<
1 32
1 16
1 12
1 44
2 000
2 95
2 14748364
4 00
4 16
4 512
4 33
4 30
4 80
4 72
4 742
4 121
5 86
5 90
5 68
5 73
5 640
6 30
6 74
6 259
7 99
8 99
8 02
8 43
8 556
8 080
9 44
9 50
9 37
9 78
9 68
9 8244353
9 71
9 250
9 556
; ;
; --
< >&
A E
A w
A re
A es
A UN
A UI
A ZE
A verage
A INS
A zure
A lias
B B
B M
B ra
B IN
B ul
B ME
B SP
B ook
B link
B ItemList
B kgColor
B vh
B aby
C la
C el
C ry
C tx
C FR
C raft
C apsule
C ertificate
D F
D u
D un
D ST
D Vector
D og
D xvk
D Show
D aisy
D RAW
D ivisors
E st
E ver
E sp
E FS
E ye
E LOQUENTTINYML
E thernet
F UL
F Widget
F Command
F old
F ake
F WP
F izz
F langer
G V
G ain
G Tree
G fx
G AU
G esture
G arages
G ORITH
H A
H R
H X
H ap
H DN
H ERE
H APT
H UFF
H SPRITE
H anairoHook
I E
I PL
I DE
I mm
I RO
I Add
J et
J ense
J TRUE
K NOWN
K eypoint
K nown
K HR
L Z
L iter
L aserSensor
M N
M ut
M TD
M Time
M IO
M ULT
M alloc
M utable
M COLOR
M issing
N t
N ic
N im
N eg
N AV
N api
N ano
N Control
N NI
N UMP
N atives
N BQ
N amedXMLResourceManager
O w
O OKED
O ccurrences
O perations
P i
P x
P IT
P ure
P res
P ay
P MOD
P run
P lease
P ng
P cap
P icker
P rm
Q List
Q Size
Q Map
Q Rect
Q Show
Q Desktop
Q Angle
Q ByteArray
Q ComboBox
Q MediaPlayer
Q Cef
Q InputEvent
Q FocusEvent
Q StandardPaths
Q Shortcut
R AL
R ew
R om
R est
R IG
R ain
R ob
R Name
R ENT
R PC
R IR
R ich
R Token
R ERROR
R GB
R MUL
R SLAM
R IPT
R atio
R PLoop
R ahul
R VisualMesh
S Q
S ong
S aved
S lash
S ophus
S zAlloc
S usc
S yscall
S UPER
T B
T ar
T READ
T ML
T imes
T BL
T First
T win
T alk
T MX
T EXASSOLVER
T ermin
T oday
U U
U IT
U dp
U ftStrategy
V C
V X
V Z
V ST
V END
V RAM
V VD
W PARAM
W ave
W hen
W ASAPI
X P
X V
X xy
Y gt
Y PH
Z ER
Z one
Z ones
Z FileSystem
Z Combat
Z COMBAT
Z PlayerSelectListBox
[ --
] (
] /
] ()
] };<
] ")
] *(
_ ++)
a do
a ud
a Zip
b on
b is
b atch
b log
b undle
b old
b ond
b ank
b mi
b fd
b Can
b ilities
c u
c ial
c cb
c App
c alloc
c ument
c ript
c arry
c artesian
c ategor
d A
d B
d pi
d mac
d ispatcher
d umb
d uang
d irty
d nf
d riveclear
e es
e bo
e qu
e udo
f ort
f bj
f da
f bf
f bb
f ields
f etch
f cfab
g c
g h
g z
g lass
g ix
g cc
g Context
g Color
g elf
g reen
g az
g hi
g ross
h ar
h our
h ull
h Instance
h xx
h Token
h Find
h istory
h arness
i L
i ma
i hw
j ia
j edi
j ewels
k b
k ar
k ing
k ele
k ake
k iss
k Is
k bd
k urs
l w
l z
l cpp
l cp
l anner
l ambda
l ws
l idar
l iding
l wapi
m sp
m SE
m ann
m yst
m ono
m Timer
m Mutex
m edia
m mask
m strong
m Polygon
m argin
m anaged
n ce
n se
n it
n ess
n me
n window
n ai
n make
n sec
n eeded
n Stairs
n TickTime
o h
o z
o ul
o der
o ose
p f
p j
p w
p at
p le
p lat
p Context
p lan
p itch
p DC
p ComboButton
p Stage
p Brain
p lug
p ipe
p inyin
q s
q uint
q vec
q vv
r b
r v
r an
r ated
r data
r pos
r gba
r pc
r plane
r umble
r quaternion
s is
s ack
s que
s View
s ide
s ges
s api
s aved
s ince
s TableView
s ComboButtonItem
s yscall
s igmoid
s entence
t C
t n
t Vector
t od
t olu
t ill
t urtle
u er
u iz
u art
v r
v x
v gicp
v olume
v ett
w en
w at
w nd
w atcher
w asm
x c
x ew
x os
x org
x BE
x CA
x FE
x link
x Semaphore
x BA
x byak
y be
z Free
{ '
{ });<
¥ æ
¦ O
§ Ŀ
¨ å
© mi
© ĬãĤ
¯ åĲ
± Ĥ
´ å¯¹
¶ ħ
¸ ç»¢
¹ Ģ
¹ ´é
½ Ļ
å ¶
å ¼
å ĳ
å ±ĳ
æ Ķ
æ ±Ĥ
æ ½Ļ
ç Ĭ
ç ĵ
ç ķ
ç Ľ
ç Ł«
é ħ
é Ĳ
ï ¹Ģ
ĉ ĠĠĠĠĠĠĠĠĠĠĠĠĠĠ
Ġ ur
Ġ ub
Ġ eg
Ġ dow
Ġ unt
Ġ ).
Ġ loc
Ġ ----------------------------------------------------------------
Ġ ------
Ġ annot
Ġ udc
Ġ ä¸Ģ
Ġ anagram
Ġ :";<
Ĥ åº
Ħ ãĤ
Ĩ æ½Ļ
ĩ æ
ī ©mi
Ĭ ª
ĭ å
ĭ ç´
ĭ çŁ«
Į «
į ¸
į Ĳ
į ç½
Ĳ ç»°
ĳ Ľ
ĵ åĲį
ĺ è®¤
Ļ i
Ŀ ¿
ŀ åĢ¼
Ł æĪĲ
ł åĩ½æķ°
Ń å
in ser
in lock
in out
in ference
in sertionSort
de l
de p
de pen
de compiler
st amp
st andard
st ates
st encil
st reet
st udent
en On
en abled
en Utils
en coding
en derable
on on
at ari
at Id
er p
er ge
er red
er ations
er asure
er cial
lu t
lu x
lu re
re wind
int Type
int StaticField
or ph
or ces
or bis
Ġ" &
Ġ" ~
Ġ" ",
Ġ" ).
inc re
include d
ut Down
Ġc i
Ġc er
Ġc ar
Ġc id
Ġc li
Ġc type
Ġc art
Ġc py
Ġc decl
Ġc ntr
am l
am Sensor
ce an
ce il
ce les
ce ae
ce stor
Ġm t
Ġm w
Ġm Window
Ġm anag
Ġm sm
Ġm Value
Ġm Thread
Ġm StatusBar
Ġm usic
Ġm Basis
Ġm inlen
end or
end cond
Ġ= %
Ġ= ");<
ar ra
ar ena
ri ct
ri entation
ri mSE
def orm
def inition
def orces
le w
le mi
() ()
() ];<
Ġi it
Ġi tr
Ġi mat
Ġi conv
Ġi Fov
Ġn fc
ct ure
se ct
co d
ing Stairs
Ġt z
Ġt st
Ġt arg
Ġt Vector
Ġt ong
Ġt ill
Ġt ie
al i
al one
al IR
al cul
al go
al ways
pa int
pa ble
ic ult
ion s
Ġv w
Ġv x
Ġv y
Ġv ect
Ġv alu
Ġv ery
Ġv ki
Ġv elocity
Ġv uk
Ġf p
Ġf y
Ġf it
Ġf ur
Ġf il
Ġf ive
Ġf name
Ġf ft
Ġf ai
Ġf ield
Ġf Char
Ġf env
Ġf lush
Ġf Speed
Ġf flush
Ġf Chams
Ġf regs
Ġ* &
Ġ* ((
it urbo
ra st
ra bs
Ġs v
Ġs on
Ġs ink
Ġs ync
Ġs printf
Ġs igh
Ġs dl
Ġs cope
Ġs daCodeGraph
Ġp io
Ġp red
Ġp ull
Ġp Node
Ġp iles
Ġp lat
Ġp Command
Ġp Thread
Ġp hs
Ġp Timer
Ġp Surface
Ġp alind
Ġp Monitor
Ġp MenuItem
Ġp ixel
Ġp Viewport
Ġp MessageWindow
Ġp BrowserWindow
Ġp MenuRadioItem
Ġp MenuCheckItem
Ġp MenuBar
Ġp ComboButtonItem
Ġb i
Ġb at
Ġb ri
Ġb ro
Ġb Menu
Ġb ond
Ġb eta
Ġb oth
Ġb Show
Ġb etter
Ġb alance
Ġb Chams
Ġb Spread
Ġb Aimbot
Ġb Recoil
Ġre act
Ġre alloc
Ġre store
Ġre wards
Ġre ceiveInput
Ġre kurs
Ġa vg
Ġa cross
Ġa Alive
la un
la pi
la uer
-- ]
-- ]);<
-- ;}<
lo red
lo gin
ro ma
ro utes
Ġstd in
et Callback
str hex
str tok
str tod
ig er
un ix
un nable
un managed
ub ar
Ġ0 9
Ġco untry
Ġco ordinates
Ġint ent
Ġint ere
Ġint ptr
Ġint Type
mp c
ma gbias
ma ybe
Ġo c
Ġo sp
Ġo pacity
ex Match
ex Matcher
us leep
Ġ1 10
Ġ1 12
Ġ1 11
Ġ1 18
Ġ1 30
um ar
um ber
um Backend
do es
do Size
ĠA F
ĠA ck
ĠA String
ĠA UT
ĠA sm
ĠA bs
ĠA TT
ĠA Actor
ĠA BI
ĠA ug
ĠA SYNC
ĠA CCE
ĠA Uv
ĠA colmajor
ĠA CamSensorActor
ĠA FusionCameraActor
ER ACT
Ġ( ::
iz io
Ġma ps
ĠS D
ĠS a
ĠS n
ĠS end
ĠS yn
ĠS ide
ĠS quare
ĠS PR
ĠS ND
ĠS SD
ĠS DC
ĠS ession
ĠS PECT
ĠS uffix
ĠS aved
ĠS wapChain
ĠS LEEP
ĠS ym
ĠS IGN
ĠS inglyLinkedListNode
ĠS igmoid
ĠS UDODEM
ĠS zFree
is A
is Unlock
is Empty
ol ved
Ġg e
Ġg reen
Ġg hc
Ġg rammar
Ġis Show
Ġis Valid
Ġis upper
ĠC a
ĠC Matrix
ĠC Random
ĠC ap
ĠC CV
ĠC Dialog
ĠC Config
ĠC ache
ĠC ALL
ĠC lean
ĠC rypto
ĠC lip
ĠC CR
ĠC Mem
ĠC AutoLock
ĠC Replay
ĠC Gang
ĠC atId
Ġon dem
IN SER
el mt
el Circle
yp tr
ĠE MSC
ĠE seqExpression
ĠE GLEW
ĠE lias
ĠE loquent
ĠE CSModule
__ );
__ ))
ch olesky
ile fac
string List
ver ity
ver ification
ĠT un
ĠT ab
ĠT WI
ĠT ake
ĠT ENSOR
ĠT CHAR
ĠT oggle
ĠT riglav
ĠM P
ĠM i
ĠM ON
ĠM AP
ĠM Base
ĠM ob
ĠM Get
ĠM ach
ĠM ost
ĠM AG
ĠM Command
ĠM Layout
ĠM isc
ĠM SV
ĠM icro
ĠM issing
ĠM artin
ĠP e
ĠP x
ĠP ER
ĠP lugin
ĠP lease
ĠP air
ĠP odium
ĠP airs
ĠP OWER
ĠP UNICODE
ĠP hysicalBinder
ĠP references
ĠP TMX
.. ..<
im in
im ate
im ize
im its
im bar
Ġd tr
Ġd rop
Ġw ay
Ġw graph
Ġw elcome
Ġw ould
arg ing
op les
Ġin X
Ġin Y
Ġin vert
Ġin struction
ation ID
sp v
sp sc
sp inBox
In ode
In Scene
In dicator
In izio
Ġ- (
00 8
00 12
00 51
32 1
32 3
32 6
32 8
Ġl r
Ġl st
Ġl and
Ġl ight
Ġl rc
Ġl ittle
Ġl erp
LE X
LE CTION
RE rror
RE ET
RE QUIRE
RE VISION
RE BOOT
ext ract
Ġh v
Ġh ack
Ġh our
Ġh ide
Ġh older
Ġh dl
Ġh Self
Ġh ybrid
ST UP
ST OP
ST DIO
ST AGE
ĠG N
ĠG ot
ĠG IT
ĠG roup
ĠG rid
ĠG eo
ĠG ROUP
ĠG unz
bo lic
ad b
ad apt
ge on
stream buf
ĠD U
ĠD im
ĠD ash
ĠD ep
ĠD IO
ĠD IRE
ĠD FS
ĠD bg
ĠD ummy
ĠD Assert
ĠD uck
ĠD iode
ĠD ashboardUI
<< ",
Ġch s
Ġch oose
ir m
ir ls
ir enderer
ĠN A
ĠN E
ĠN FA
ĠN TT
ĠN otify
ĠN eed
ĠN UMBER
ĠN egateConditionalWrapper
ĠN amedXMLResourceManager
ĠN Bcj
ĠN MEA
Ġj ihw
AT YPE
AT UR
AT URE
AT OM
PL ASH
PL ANE
pre dic
/* !
and alone
ot a
ot ing
ef ile
ated Weapons
OR A
DE C
DE SK
Ġchar Type
Ġchar acters
St ub
St ationID
set String
set Window
set Frame
set Font
set Model
set HeaderList
set Collapsible
set IconSize
ĠF A
ĠF O
ĠF ern
ĠF SS
ĠF ib
ĠF irst
ĠF UC
ĠF IND
ĠF ALLBACK
ĠF DefaultGameModuleImpl
ĉĉ ĠĠĠĠ
IM U
IM ER
ort ed
(" '
(" {
(" ",
(" :/
(" {}
(" *");<
(" *");
Ġnum obj
Ġnum Samples
IL I
IL UT
IL inear
put s
put char
Ġ3 5
Ġ3 6
Ġ3 7
ĠL C
ĠL ite
ĠL RESULT
ĠL auncher
ĠL zma
ĠL ORA
Ġst k
Ġst ar
Ġst ops
Ġst derr
ĠR S
ĠR c
ĠR et
ĠR cpp
ĠR est
ĠR GB
ĠR TC
ĠR igid
ĠR éĸ
ĠR GUNZ
Ġe i
Ġe pc
Ġe vt
Ġe cho
ack et
Random Engine
ap es
ap tor
ap arse
get X
get Size
get Int
get Max
get Transform
get Tex
get her
get CurrentFrame
ĠQ Config
ĠQ Rect
ĠQ Variant
ĠQ ResizeEvent
ĠQ uest
ĠQ VBoxLayout
ĠQ Cef
ĠQ ProxyStyle
ĠQ ToolButton
ĠQ DockWidget
ĠQ ModelIndex
ĠQ Nic
Ġx tech
PP ED
ĠI mm
ĠI Th
ĠI REA
Ġto ol
-> ()
li T
ĠB l
ĠB ut
ĠB it
ĠB AC
ĠB ME
ĠB est
ĠB atch
ĠB one
ĠB ASE
ĠB VE
ĠB cj
ĠB attaglia
float Type
AN CH
AN SL
AN ET
ĠU tf
ag on
AC NET
AC amSensor
os v
Ġ' -
Ġ' )<
double Type
Ġarg len
Ex ist
ans i
ans ation
th Filter
th umb
tern ating
sh ould
sh ortest
sh lwapi
10 2
10 9
UL LET
Ġr h
Ġr ational
SE D
SE ET
SE ntity
SE CTION
up il
up Ch
up licate
ĠW hile
ĠW iFi
ĠW SPR
ĠW IDTH
ME ASURE
ĠK Error
ĠK LEE
ĠK oi
ĠK eep
red irect
red RenderedString
Ġy es
Ġget Type
Ġget Device
Ġget Max
Ġget Tex
Ġget CurrentFrame
mm an
ĠH IL
ĠH ID
ĠH ost
ĠH orizontal
ĠH old
ĠH OG
ĠH OOKED
num Rows
16 71
Ġk s
Ġk ine
Ġk En
Ġk eta
Ġk Signature
Ġk wk
CT X
CT AG
QU uid
con struction
par c
par ity
mat f
mat cher
MO UNT
MO USE
aa bb
Ġde p
Ġde x
Ġde scrib
Ġde rived
Ġde coding
Ġde legate
Ġde compress
Ġfloat Type
20 40
Ġvector s
of ele
of day
of Hanoi
ong Material
RO MULATOR
ise ki
64 6
able UI
Pro p
Pro actor
Pro bed
Pro cessedSize
Pro filer
pro be
ser eg
String String
String Res
ref lection
ĠO f
ĠO ct
ĠO FF
); //
ose d
TO I
IG NO
IG EST
SH L
SH T
SH EL
SH UFF
BU S
ĠV is
ĠV alues
ĠV BE
ĠV Mesh
ĠV IS
ĠV ulkan
ĠV Bitmap
ĠV elocity
ĠV è°©
ĠV NNI
[] =
ta ke
Ġ! !
List s
List en
List Header
data stream
Ġres olve
Core Info
dd d
dd dd
lib xml
lib asound
lib EGL
lib xshmfence
lib Xrender
lib drm
lib Xfixes
ff ic
ff ector
En code
Expression List
Ġout Stream
Type Stack
TE M
TE SS
TE GR
ain ers
Ġpro j
Ġpro vider
Ġpro bab
Ġpro visioning
Ġpro tagonist
ID LE
ID irect
qu anti
ph ase
ph one
ph ake
ph abet
UN I
UN ION
UN ormal
UN SIGN
UN ORM
UN ALIGNED
ull Zones
char Type
sc ape
Ġ5 000
Widget Component
eng ht
ush Button
MODE L
MODE M
Ġmax x
Ġmax Num
Ġmax Version
Ġmax Word
Ġmax PathSum
Ġmat h
out Stream
ac cef
bu ff
Base d
Base Addr
Base CameraSensor
ĠCV API
af m
---------------- --
Application s
Application Turbo
Node Extension
Ġtr t
Ġhe ap
Ġse quence
Ġset w
Ġset Double
Ġset Collapsible
Ġset Bluetooth
rc lcpp
to lower
Ġdata source
Window MainBar
iv ot
Ġth ree
Ġth ings
Object Factory
Object Hash
Object Cache
SS L
SS AGE
Stream With
LO W
LO utput
ab Ctrl
Bo ard
EXT ERNAL
STR ATE
Event Action
ace Sys
Ġdouble Type
ĠEx it
ĠEx port
ĠEx tract
CL AN
CL ANG
CL Grid
test ogl
De cklinkBase
auto release
AM AGE
UT emplate
ly down
sum e
sum mary
TEST ING
Re lay
Re ceiver
Re verb
nd k
nd t
Ġå ¤
Ġå ¼
Ġå §Ŀ
Ġå ¹´é
stri cmp
Ġ&& )
Ġ% .
cl r
val A
YS BOOL
YS IZE
Con struction
ĠIn f
ĠIn verter
ĠIn tegration
Ġgen Type
Name Iterator
Data Set
Data source
Data Container
Data Search
Data Stru
11 5
11 11
11 000
11 56
Ġ100 5
Ġnew size
ĠPy Compiler
ĠPy Primitive
Ġ7 5
Ġ7 50
ms dos
On Map
On Enter
On Entity
On Click
ĠJ S
ĠJ it
ĠJ edi
Sc ream
Sc hema
Sc rolled
ET C
Ġ6 5536
low link
To Index
To Light
To Bool
To Wide
ance lable
REG ION
ft ime
Array s
Ġpa ges
Ġpa ired
loc ator
gen cy
cp w
info box
max x
max count
open Url
Ġit imer
cb d
Ch ill
Ch ampa
Ch essType
Ch arging
Test A
ĠPro ton
ĠPro tected
add Widget
add Action
add DataSearch
Ġun def
Ġcount Hi
Ġcount Twin
ĠME SSAGE
code gen
code cvt
)) %
ĠExpression Wrapper
ĠGet Size
ĠGet Index
ĠGet Value
ĠGet Process
ĠGet Normal
ĠGet Tex
ä» ĺ
Function Pass
Function Library
Ġcl imb
MA PPED
ĠSt udio
Ġstr l
Ġ++ ++++++++
Text Item
Ġtest ogl
enum erations
>() )<
WIN API
ĠCo lour
Comp arator
Get P
Get ID
Get Node
Get ting
Get Sensor
Get Opt
Get AAC
Un Init
Un initialize
Un initObject
opt imized
Ġcon n
Ġcon struct
Ġcon currencpp
rip ts
ach er
ach ing
Ġle aders
AV OID
File d
File Size
File To
File Info
File Length
File Sys
File NotLoadedException
Ref s
Ref Dialog
Ref erence
Ġmin n
Ġmin or
Ġmin Version
Ġmin Tri
Set FileName
TER Y
TER MIN
ä¸ ²
ä¸ ĭ
Ġ9 5
Ġ9 98244353
SP C
SP END
SP hysical
SP ushButton
44 32
CK Def
CK BOOL
PLUGIN S
Point Light
Ġdp Min
ENT A
ENT S
ENT LY
ĠAr mstrong
Ġcreate Function
æĸ ¹
Ġpri o
Sh ot
MP acket
Left AD
Left Fork
Ġdi e
Ġdi ce
Ġdi ctionary
Ġdi vided
ĠPRO P
State EventArgs
State Change
State Imagery
... );<
... ";<
Ġprint Name
Ġprint preorder
Right AD
Right Fork
ide nce
min n
min p
min utes
http Client
create Texture
Ġtype id
AG OBJECT
UR I
sm allest
TR AP
Ġmy Print
Ġmy Allocator
OP TS
ĠZ Interface
ĠZ Msg
ĠZ BEHAVIOR
Id Version
Id Tag
list View
Ġpre c
Ġpre vent
Ġpre defined
Ġpre compiled
Ġpre tty
Ġpre oder
app y
app eared
Ġadd To
Ġadd Digits
Error List
Error Tracking
Ġsub s
Ġsub String
Ġsub scribed
Ġsub tract
Ġsub arrays
Ġsub scribe
exec ution
END ER
Cont ainers
block ing
Num eric
SO CK
ĠDo cument
kn wn
config s
config ure
Path Down
event Type
Log Debug
Log Callback
pe b
pe ated
dered ReadBuffer
READ WRITE
OS Messages
Ġsh uffle
PRO PER
PRO LOG
unc ated
Code Page
Module Plugin
Module Info
Module Initialization
Ġat tr
Inter section
Inter active
Int Type
Int Pair
no inline
vm Module
Ġcode s
Main Components
Main ApplicationTurbo
Element ID
Element Iterator
pos es
Ġedit able
Th ickness
]= '
Ma ze
doc s
doc string
Definition s
Ġval ley
Render Pass
Render Queue
Sensor BPLib
DECL S
13 0
Image Widget
Image Image
Image IO
ĠNC R
ĠID ENTITY
99 35
99 36
ARE ST
BO ILER
Lin space
Init Array
An y
An si
tog gle
ove ment
Ġtime Stamp
Ġ** )
Solver Job
App EventHandler
Ġkey board
Ġkey PressEvent
15 4
15 33
15 87
bl k
bl es
close Event
ĠCO MB
Ġprocess Info
Ġ16 00
DIS PLAY
IP V
Ġrandom Value
çļ ĭçŁ«
ĠSet s
ĠSet up
result String
Key pair
Ġwe apon
Ġstart Value
GR ID
GR AM
LS erializer
System Clock
ryp t
Ġsc hema
Ġ(! !
MB LY
Ġreverse Words
Ġ(" "
LL CC
tri Mesh
CC Section
Ġfont Count
MY SHAREDLIB
SPACE OBJECT
UI Image
Check sumForward
å¤ ¸
eth ernet
space Bundle
Ġz x
Ġz one
Rule Info
Se esaw
Command Event
Command Set
Command Origin
Filter Box
Filter Triangle
Piv ot
tra it
tra jectory
MIN US
PER MAN
ĠY Direction
ĠY gt
Bar rier
sub array
sub module
ĠCont ribut
ĠCont rol
ĠCont ains
view Widget
ĠDe v
ĠDe lay
ĠWindow Handle
Font Name
the st
Message Hash
Symbol Manager
HE IGHT
VI SOR
Input Archive
Al ert
ĠStatement Wrapper
Ġ) ";<
ĠCPP ELIX
14 8
14 993
NT P
]== "
SB LEN
ĠIN A
ĠIN VER
ĠIN LINE
ĠIN TEGR
Ad ded
BE Work
IO Plugin
IO Device
IO CG
IO HID
ĠFile Logger
ĠFile Writer
ĠUn it
ĠUn lock
ĠUn signedInteger
ĠWidget Component
Handler Base
Ġcheck If
ĠFL T
ĠList Header
ĠList aInterpreti
Model Matrix
Le ave
ĠEyer DecodeQueueBase
ĠEyer MediaInfo
ĠEyer LinkedEle
33 04
33 34
Ġserial Port
Process Info
Line Optimization
Line ToString
Ġen coding
resh ape
Ġapplication s
ĠSTD IN
ĠSTD OUT
ĠSTD METHOD
Dec lare
Mat ter
Py Namespace
Py GILState
ä¿ º
Sub string
Sub arrays
ĠMain Loop
ĠMain Items
ĠUse ful
ĠWIN CE
Lib kernel
Lib VVD
Ġne ar
Ġfind The
Ġfind All
Ġfind Duplicates
Ġfind GCD
Ġfind Peak
Ġtarget Sum
>{ };<
By Name
ĠOn Event
ĠOn ly
ĠOn Init
ĠOn Enter
ĠOn Entity
ĠOn Start
Or deredReadBuffer
lang cc
lang uage
Task ing
Task Queue
Task HandlerBase
Ġus b
Ġlicense d
Windows Plugin
Qu it
Qu aZip
led Element
CI SION
Device Memory
Mesh Path
Out er
Ġlink er
Ġlink ed
Ġper iod
ĠWEB ASSE
Ġhead A
Ġhead B
Buffer cg
cont igu
we ights
ĠSize T
ĠSize Prm
*) >
math lib
Component Base
Register ed
GN U
ĠAn im
Sp vmModule
cstd arg
Ġro bj
Ġro uter
50 6
Update Cnt
Match Results
ĠTest Allocation
ĠTest QuaZip
Interface s
Thread Name
Run String
Run loop
Run When
ĠSc rolled
ĠMC G
03 88
Tr anspond
Tr ansparency
ĠModule Context
Qt Command
Qt PropertyProxyObject
Client Update
Client NetId
Ġfast er
Ġfinal Sum
lect ron
Per Feature
Per spective
Per mutations
gl Gen
gl Delete
IV ED
Ġent ities
Ġqu anti
ĠParam s
Layer Stack
ĠListNode Data
22 27
GEN ERIC
ĠCh en
ĠCh at
Actor Packet
Actor Tick
Draw er
ake up
my strnicmp
Ġlast Allow
Ġlast Good
ateg ies
ĠCon v
image widget
Ġsu fam
Group Filter
isc atedWeapons
Global Engine
Pri mary
Ġpy RunString
ĠCreate File
//////////////////////////////////////////////////////////////// /////////////<
SYMB OL
18 0
18 2227
ci us
ĠRender Node
ĠRender Queue
09 5
lable Pane
Ġé Ĭ
Server Relay
ĠLink ed
ĠLog Channel
Provider Factory
SU SPEND
åĩ º
Ġ[] ()
rol lablePane
Block List
Block Desc
Eyer Observer
Eyer SharedCount
Eyer DecodeQueueBase
ĠThe me
Ġinitial izer
ĠString View
Sec Object
Sec Buffer
Sec End
ICON V
CORE IR
05 85
17 9
NE ON
sort ing
ĠTensor ND
ĠTensor Flow
Com Test
Com ressor
Scene In
CS GTree
CS elCircle
Mouse Cursor
No return
No Wanted
No Rain
Ġall in
ĠDef s
Shader Set
Print ing
Print Ex
Print Array
ĠComp ile
ĠComp lete
ĠComp iler
PRE VIEW
PRE FIX
PRE CISION
ĠDi vide
be at
æŃ £
Ġload s
Ġload ing
ĠSprite DataBase
æī ¼
ĠST B
ĠST L
ĠST X
ĠST ACK
ĠST UB
Ġcontain ers
NON FREE
pu gix
Ġsy m
Position OnMap
Table Init
Table Filter
ĠPLS About
ĠPLS CommonScrollBar
Serial ize
¡æ Ŀ¿
æĺ ¯åĲ
Ġexec utable
Renderer Base
(! (
We ights
rup ts
stack over
ĠQt Plugin
ĠQt Over
ĠQt Paths
cal c
lit er
lit efx
Be aring
Call Back
Callback s
New Handlers
ç± »
Ġam ax
000 11000
ĠGame API
Auto Symbol
FS M
Is Valid
Json Value
Ġinf inity
ĠDriver Entry
process Info
30 4
Icon View
Icon Display
Obj List
Obj Finder
ater ize
Ġcan Jump
74 179
All OpsResolver
Float Float
From Node
Min Half
ĠSe ed
ĠSe maphore
Display List
Ġcor ner
Ġnext term
ĠCH LCC
ĠUpdate QtCommand
inf inity
Ġcur Time
Ġcur Target
Ġcur Msec
Ġgame Dir
ĠIP V
Native Call
Target Iterator
Target Condition
Ġ(* __
ĠEvent Info
ĠEvent Action
ĉĉĉĉ ĠĠ
ĉĉĉĉ ĉĉĉ
ĠIs Mouse
structor s
94 7
Tool Node
Tool tip
uff man
ONT AL
Ġtry Rob
') ||(
*/ )
*/ );<
*/ ,<
CP SS
mem cmp
Ġæ £
Ġæ ĥ
Ġæ ¼ı
ĠTo Expression
valid ate
User Info
Ġstream ing
STD API
LOC AL
Val Changed
ILE S
Mon Api
Sort Order
sz Name
<<"* ";
Light Tracer
non ce
non null
not ification
Ġsensor Manager
Std OutStream
Std PairCEGUI
Lu aLib
func X
ĠNumber s
Ġra ise
Ġra iny
Ġra dix
ĠAl so
ĠAl gorithms
Real Subspace
ĠDesktop EventsMonitor
26 1
ç» Ħ
ansl ator
ĠWe br
host Object
has Focus
ĠText Object
ĠText Logger
Ro om
Rec ursion
mesh sync
device Enum
ĠQW GraphicsView
bg pu
Ġlo l
env ironment
ĠConst Expression
ĠTR I
ĠPL DR
MT abCtrl
Net DataSize
Net CDF
SD A
cla p
cla v
ie ce
resp ot
ĠMy Fixture
ĠMy PinManager
Output Widget
Push Layer
play ground
dll entry
Ġbit stream
Ġbit set
Ġbit rate
Ġblock size
ĠApp end
ĠLO OP
Environment Variable
Ġè ¾
Ġè ī©mi
Ġbinary Search
loader s
Ġcounter Manager
DEFIN ITION
ĠFa il
88 87
Variable Time
Variable Sim
Ġsp t
Ġsp vm
ĠSE MA
Ġwindow Proc
Ġ10000 05
200 2
Simple Module
ĠGtk Widget
ĠHe ight
Ġframe Lim
ĠOP EN
Track ed
Ġcuda Stream
Ġad vance
ĠCheck QRCodeRunnable
project ion
27 2
Pop over
Pop ulator
model Asset
usion CameraActor
ĠRF QUACK
Export s
ĠInter preter
ĠInter alIR
Combo Edit
37 75
Ġbutton Up
Ġbutton Down
ĠPar allel
Ġ&) >
ĠWork er
ĠWork spaceBundle
Initialize Application
At las
ĠPoint ers
ĠPoint Light
Ġinst all
Ġinst anti
Ġinst alled
ational Schema
ĠĠĠĠĠĠĠĠĠĠĠĠĠĠĠĠĠĠĠĠĠĠĠĠĠĠĠĠĠĠĠĠ ĠĠĠĠĠ
ĠĠĠĠĠĠĠĠĠĠĠĠĠĠĠĠĠĠĠĠĠĠĠĠĠĠĠĠĠĠĠĠ ĠĠĠĠĠĠĠĠĠĠĠĠ
Ġuser Data
Ġuser prog
Form Rviz
free jia
symbol s
ĠSH T
ĠTINY ENGINE
ScrollBar Always
ĠSensor Identifier
INTE L
resource s
66 3
Feature Detector
HO ME
ARN ING
ified Dim
Orth ographic
DB Mgr
ĠBinary Semaphore
Graphics Widget
78 1
78 994
jo ystick
Ġç ª
Ġç ľ
Ġdoc ument
Ġreplace d
Ġreplace Character
Pair FloatFloat
]!= -
è¤ Į
Ġvar primo
ĠCode IntensitySensor
Change Listener
Access Manager
Normal CamSensor
TI ES
db f
db us
ĠAuto start
ĠAuto Diff
ĠMessage Processor
Chain Gate
KEY WORD
ĠPropertyDefinition Base
SUB STRATE
ĠCHECK SUM
34 73
68 5
68 37
Ax is
Free Array
Free Image
Field Cell
Us ername
ca pacity
encode d
Exp onent
Exec utor
Load ing
ĠChunk Ready
DO XY
DO rientation
jac ent
si red
++; //
Scalar Mul
FORMAT S
Allocator Container
ĠTranspose Forward
BL ACK
Cmpt Ptr
Cmpt AccessPtr
Su icide
Sele ction
Work ed
header List
Local Parameter
Ġparse IPv
65 2
AA live
Pre processor
RA YSIZE
remove Its
PLS AddSourceMenuStyle
48 9935
Network Handler
Network AccessManager
Ġmouse MoveEvent
Request Packet
Request IdTag
LineEdit box
Body List
DS API
bf usc
ĠApplication Error
ĠKey Wrapper
ĠRead LineToString
Im gFilter
Section Map
ian Blur
ura cy
Ġrand u
Ġcompil ing
Direct ives
Quant umBackend
Valid ate
BUFFER CG
QDialog ButtonBox
Ġme an
Ġme asurement
Ġback end
Ġback ground
ĠSp ect
++++ <
ĠIdent ity
CHANNEL S
ASSERT S
Rot ated
Sys modules
Video IO
cat d
task Id
ĠStart ed
Unique DeviceMemory
Optim ize
CRE D
Driver s
Hook s
Ġtensor E
Ġtensor F
Ġfree Memory
ĠRandom State
ĠRandom AccessIterator
ĠLogger Base
ĠColumn s
38 33720
Cell s
Enum Value
Two Lists
Wt Exec
Wt StraFact
Wt HftStraFact
Wt SelStraFact
ne arest
Ġiss ues
rash Report
chall enge
ĠTra versal
Ġenv p
Vertex Sensor
){ }<
Card Type
XML Helper
XML InputArchive
ZTask Base
df e
df adb
ki mai
ĠAN ALYZERPUBLICTYPES
prev Mask
short cut
Signature Initializer
Close st
è¾ ¹
éĬ ĩ
ors iv
Ġbig ger
ĠPer spective
ĠDialog ueBox
Ġrt m
Ġrt os
Ġdebug ging
ĠAddress InRegister
ĠAddress InFrame
SpinBox Edit
Ob stacle
amb igu
ĠAnd ConditionalWrapper
ĠTO H
ĠTips Notification
Ġstat fs
ĠVertex Holder
ĠEXPORT ED
ĠRFK Function
ĠRFK Class
ĠRFK Variable
ĠRFK Method
ĠRFK Field
ĠRFK Struct
ĠRFK Namespace
Column List
ĠOB SDock
10000 9
10000 05
ĠUni versal
Factor s
Virtual Base
Virtual Object
Ġref Value
ĠSTR UCT
ĠTH IS
ĠHash er
ivis ible
Ġpass word
WORK SHEET
Ġperf ect
63 18
>" {
AF usionCameraActor
GFX Wrapper
MC Symbolizer
aver age
Ġcre dentials
Ġpe b
------ <
Ġinorder Traversal
ĠNon Movable
ĠItem Stack
Ġke ith
Conf iscatedWeapons
ĠZRule Solo
offset s
ĠDefault DisplayHandler
MENU ITEM
Non Dependency
Wait Object
Xml Mapper
comm ercial
Ġpattern s
ĠSerial Formatter
Ġgl yph
Ġgraph Info
Ġperson a
Backend s
Backend Container
SW AP
dw UpdateCnt
sy cl
åı Ĥ
Ġgroup s
ĠButton s
SEC UR
connection Info
COUN TRY
Ġcompat ible
Ġconvert To
Response Packet
ĠINCLUDE S
Linear Layout
Ġ1900242 15
59 2
Delta Time
EC Point
Sk in
Sk eleton
ä¹ Ĳç»°
ĠCK BOOL
ĠCK StateObject
ĠMouse Cursor
ĠMutex Linux
ĠMutex Win
oper and
ĠFs Hud
ĠHEL PER
ĠView Controller
Viewport Target
OBS Data
43 64
BR ANCH
custom ize
ongest Substring
extra TestDataPath
DEL TA
ĠUser Defined
ĠExp Executer
ĠCore Export
ĠCore Runloop
multip licative
BRO TLI
Rel ationalSchema
TV ehicle
Vulkan Wrapper
cer es
sample Rate
rev ision
Ġsim ulations
Ġasm jit
ĠPath Saver
Ġdist ortion
Ġdist ToLight
Comm it
Comm Head
ĠDxso Reader
ĠHandle Type
ĠHandle Impl
SUPPORT ED
CRT Startup
Mov es
Pe er
fl Turn
ĠSys AllocatorContainer
ĠCond ition
Inf F
Ġkee p
ICK INFO
ĠStack Queue
ĠSeeta NetDataSize
Double SpinBox
Double Click
Multi Byte
éĤª èĥģ
Begin Play
car s
dup licate
trans formation
ĠDX VK
ĠDxvk Error
ĠDxvk LifetimeTracker
ĠUN KNOWN
ĠVideo IO
Ġresource s
Ġresource ID
ĠContainer ID
ĠSTAT IC
ĠLevel s
MRML ID
Euler ErrorFactorAD
Jo ystick
TC ancelable
dec rement
Ġiter A
Ġob server
ĠNetwork Util
ĠOri entation
Scale d
Sha dow
ĠScript Vars
EyerAV Frame
57 704
IOS elector
MQ Document
Post Fix
å¯ ¸
icon Name
Ġreport ed
ĠAct ive
ĠSlider Widget
ĠSlider IgnoreScroll
ĠSlider AbsoluteSetStyle
ĠSleep For
ĠMar shalAlloc
ĠNUM ERIC
force LogDebug
ĠQR gb
phys ics
Ġalbum ID
Ġenter ed
ImGui Render
HELPER S
AUT eleport
Wanted Level
sn atch
sn printf
Ġmultip ly
Ġour Url
ĠSk ew
ĠSk ip
Instruction Page
script vars
ĠStd PairCEGUI
Ġexport ed
Sequence EventArgs
---------------------------------------------------------------------- <
StaticMesh Component
StaticMesh Actor
Ġoriginal Num
Bad ge
DT PMOD
HF ByteArray
Long jump
Sky box
Sheet Style
bla ck
ĠAsync Buffercg
ĠSim one
ĠSim ulation
ĠSim ulator
Ġdon k
ATED IALOG
shader s
part ial
part icle
ĠOr der
ĠOr ConditionalWrapper
psz Msg
tok ens
Collision Shape
Ġrunning Sum
++++++++ ++++<
Distortion Test
Bot tle
DR AGOBJECT
Drop List
Drop EventArgs
IZ ONTAL
SR GB
olog ical
å® ı
ĠmaxC nt
Objective Packet
ĠState Imagery
True Name
Trans formation
Ġ2017 03
Sorted Tree
Calcul ator
Ġmerge TwoLists
Mag Bias
PH ASE
bab a
final ize
final value
æĿ Ĥåº
Ġps b
Ġboard s
Ġwin ograd
Insert Conn
ĠDown load
ĠDown loader
ĠQP lainTextEdit
ĠWait For
Proto Window
Ġpartition ing
Make Bottle
signature s
Origin al
Member Exception
SCRIPT ION
Dependency Manager
Blur Image
Blur Effect
Demo Cluster
Pressed Impl
Plug In
Ġut ime
Ġut ente
Ġensure Failed
Ġvtk SmartPointer
Ġspeed Num
Ġai Process
ĠSm istacasse
ĠSty ledElement
ĠQStyle Option
ĠQStyle SheetStyle
Extra s
Ġdeg To
ĠXMP CORE
ĠXMP FILES
CLIP BOARD
Constructor Helpers
Ġpause Size
ĠGetView Fov
Uni code
sock ios
Ġperform ance
Disable Scope
,... )
Mi ssion
Mi raiEvent
big gest
gd al
rec order
Ġimpl s
hehe he
ĠSW AP
Ġgrid ref
iling Zeroes
ĠPm Core
ĠPOS IX
Ġdate time
spi Lock
Ġlongest Common
ĠDiscrete Position
ĠNone Type
ĠRect angle
shot Overlay
WidgetLook Feel
ĠInt ent
ĠInt Point
ToM erge
SOFT WARE
CommandLine Parser
Edge Loss
ĠConsole Logger
TableView Item
Detector Type
ĠMenuButton OnClick
NoteKey s
Anti Cheat
Bl ending
Cap tionsDialog
CLO SE
CLO EXEC
Fun tion
JNI EXPORT
Legacy PassManager
NV SDK
wi ki
åł Ŀ
Ġcat lan
Ġtower ofHanoi
Ġ********************* /<
Ġsupp osed
Ġsaved Timestamp
Ġpg m
Ġbubble Sort
ĠDemo Widget
ĠRT GET
prob es
ModuleManager Delegate
Interpre te
ĠYs Vec
Asse mbler
yyyy yyyy
RUNN ING
ĠUserConfig Initializer
Blueprint Pure
Blueprint FunctionLibrary
>/******************** *<
911 3
Friend ToLoverHook
Lambda Op
Mak er
Mapping Iterator
Send Recv
Safe String
XM LOutput
cre ated
vh Accel
è´ °
è½ ¬
è½ ´å¯¹
ĠiA imbot
ĠCall Expression
ĠCMP Sensor
translate Atascii
ĠTwo Port
ĠTwo DShape
ĠPipeline Spec
ĠGen Table
ĠLambda Expr
Ġxor sum
ĠUp DownInterrupt
ĠWarning Exception
ĠHand ling
ĠHIGH LIGH
SHI FT
Encryp tion
ĠInsert Link
illis PerSecond
Ġdpi Helper
Ġcontrol Button
minimum Size
åĲį ç§°
ĠCombo Box
ĠéĤ ª
ĠNumeric Traits
Ġincre asing
Manual ResetEvent
Detect er
AAAA AAAA
ĠrtGet NaN
çªį ç»°
ĠkNumM illisPerSecond
ĠQueue Handle
794 3
794 506
Dxso Reader
Lap Rank
NORM AL
QText Codec
Tips System
dcc d
tool bar
tjs CommHead
å§ ĵåĲį
æ¨ ¡æĿ¿
ç©º æł¼
è¿ ĶåĽ
Ġel t
det ector
retri eval
Ġtre ap
Ġpsz Msg
Ġbrow se
ĠService Name
Invalid ate
ĠGx CTRL
ĠNAME SPACEOBJECT
asm jit
Sticker Source
RandomNumber Generator
MET ATYPE
Completion Callback
Refcount able
ĠArg uments
ASM JIT
popcount ll
å¤į æĿĤåº
ĠSTFT CG
SysAllocator Base
ĠReduce Forward
)... );
Discrete Impl
Java VM
Kth Bit
RAnimation Node
TLS DESC
Tls ProviderFactory
YO UR
sb First
tan h
padd le
padd ing
Ġpat ented
ĠAL GORITH
ĠMa pper
ĠMa jor
ĠPIX EL
Ġlat ched
added Long
ĠLast Error
ĠRem oting
ĠBU F
ĠBU ILD
Exe Fact
ĠOb stacle
ĠåĮħ è®¿
ĠStatic Patcher
cfab bc
133 8887
Ġlut Texture
ĠFileSystem Watcher
ĠWidgetLook Feel
Translation Layer
Locked State
Ġæįŀ æĤ¼
ĠRFKEnum Val
ĠAutomatic ID
ĠAutomatic ally
Marker Widget
Ġsimilar ity
ĠManual ResetEvent
Ġphone Number
RenderedString Parser
ĠPowC Impl
BIG INT
IAffine RealSubspace
Toggle Button
Wh at
aj at
clo th
éĢ łåĩ½æķ°
éĪ °åį
Ġmar lin
arc ig
Ġsamp node
unreal cv
ĠAg Hud
ĠCent ronics
ĠCum sumForward
ĠCWeapon Info
PLSD piHelper
ĠFr amerate
ĠHas hedString
ĠsetTime Stamp
ivation EventArgs
Deep Recursion
apple button
Ġappro ach
REFCOUNT ED
Seeta Face
Org anization
ĠAnimated Object
Constraint s
Parenth es
Mini Draw
Posix WaitObject
Ordering Hint
IMPLE WINDOW
GeometryBuffer Base
ĠChecksum ForwardImpl
]<<", "<<
Locator IPL
Marlin Core
æ¢°èĸªæĩĪ è¤Ł
ĠlengthOfL ongestSubstring
Climb ingStairs
>`` `<
CAL C
Gauss ianBlur
NST ouchBar
Nav ig
RCTBridge Module
Tl Help
Tre ble
Upd ated
dm log
mys ql
nam uu
sink s
sudo dem
wire less
å· ¦
ç¡ ®
é» ĺè®¤
ĠçĶ ¸ç»¢
Ġ------------------------------------------------------------------------ -
Ġcap ture
cel erator
Ġ********* <
Ġburn Tree
Ġol der
ĠSky rimSE
ĠTrack s
ĠPASS WORD
Invert ed
ĠNST ext
PLSL oading
ĠFF MPEG
ĠFAT FS
ĠFUnrealcv Logger
ĠQTree View
ĠQmy VideoWidget
Ġru iseki
omer Counter
ĠHAR NESS
ĠHDN L
ĠGetB Box
ä»¿ åĩ½æķ°
AVAIL ABLE
ĠminCost ClimbingStairs
ĠqMRML Widget
Ġsubse quent
ĠNCBKern SizeParam
Adhoc Test
ĠScalar NodeData
ĠApple Button
>////////////////////////////////////////////////////////////////////////// ///<
DOC STRING
ĠOption Info
ĠTracy Debug
COUNTD OWN
ĠADVBox Part
RiskMon Fact
Coords Arr
ĠkNumMicros PerSecond
ĠRelative ConditionalWrapper
ComputeShader Example
Ġ===================== ==
Heurist ic
ĠkNumNanos PerMicro
024 7943
835 7
Elide String
Ge iger
QTree Widget
Tank Xxy
Timeline UndoVirtual
aypoint Module
xm lydown
æĮ ĩ
æĴ ³
ç¹ Ķ
çĻ »
Ġuts name
Ġæł¼ åĪ©
īæļ ħ
remo te
Ġ"$ {
Ġce il
least Squares
ande z
Ġtimest amp
Ġbot tom
ĠbSh utDown
Ġreuse Tiles
Ġrecie ver
Ġinterr upt
Ġmaint ain
ĠTex Load
ĠTiny ML
Ġdur ing
LEAD ING
Ġhous enumber
ĠFreq Stack
ĠtoGl Vec
ĠBin opExpression
FIC ATION
Ġexact ly
DNS Delegate
ĠPyAr ena
GetText Password
GetOffset Vector
SetArray Size
leration Controller
Intercept Entry
graphic selement
ĠCODE GEN
ReadFile Exception
ĠéĹ ĦãĤ
Ġéŀĺ å¤¸
OpenGl DisplayList
SVirtualCam Server
ĠCHAR LS
Ġèį¤ ä¾©
8805 15
ĠSEProtect Start
Lookup TableFilter
PLSDialog SavePCM
Ġmsmodo Cmd
Combine Interface
WTST ools
WTSL ogger
brk val
ĠPollic ino
èĬ¯å į¸
æŀĦ éĢłåĩ½æķ°
ConvBias Impl
å¯¹è± ¡
ĠClickable Label
,*, "
4512 7
586 13
674 8
899 854
950 9
978 21
968 107
Aw esome
Alias Iterator
Bul liT
Cla use
Cel cius
Du el
Dun geon
Ever Tick
FWidget DisableScope
Hap tic
HAPT IC
Jet Pack
LZ MA
NUMP Y
Ow ning
Pres ence
Pay load
Prun ed
Png Data
QShow Event
QDesktop Services
QCef Widget
Rew ard
Rest art
RIG ID
RName Space
RIR U
RMUL H
RIPT EN
SUPER VISOR
VEND OR
ZER O
_++) )
ado lc
bCan EverTick
driveclear App
eudo xos
fort y
fbj ni
gaz ebo
ima ges
kele y
kIs Finished
lw ip
myst ricmp
nse ms
nme aparse
sTableView Cell
tolu a
uiz mo
©ĬãĤ īæļħ
Ġdow ork
įç½ ®
Ġmsm q
arra yptr
lemi re
Ġtong namuu
alcul ator
icult y
Ġfft wf
ĠfChar Fov
Ġpalind roma
Ġrekurs ie
exMatch StateEventArgs
ĠAsm Jit
ĠAug ust
ĠASYNC BUFFERCG
ĠSPR ITE
ĠSND RV
ĠSSD P
ĠSDC ARD
ĠSPECT RAL
Ġondem and
ĠEMSC RIPTEN
ilefac enet
ĠTENSOR RT
ĠMach ine
ĠMSV S
Ġhybrid clr
STUP ID
ĠGot Focus
ĠDIRE CT
Ġjihw an
ATOM IC
predic ates
DESK TOP
setString List
ĠFern andez
ĠFSS IMPLEWINDOW
ĠFib onacci
("{} :
Ġnumobj s
ĠLite FX
ĠRéĸ Ļi
ĠQuest ion
ĠITh readed
ĠIREA SY
ĠBAC API
ACamSensor Actor
SEET ANET
upCh kIsFinished
ĠKoi kake
redirect Error
ĠHold s
ĠHOG Descriptor
ĠkEn velopePhase
Ġdescrib ing
ableUI ElementIterator
StringRes Manager
IGNO RE
SHUFF LE
ĠVBE VideoMode
ĠVIS IT
ĠVè°© clav
TESS ERACT
UNSIGN ED
ĠmaxWord Length
ĠsetBluetooth Enable
CLGrid Ref
autorelease pool
Ġå¹´é ¾Ħ
ĠPyCompiler Flags
ĠJedi Model
Ġitimer spec
Ġclimb Stairs
Ġ++++++++++ ++++++++++++<
GetAAC Encoder
ĠminTri als
SPhysical Material
StateChange Wrapper
Ġpretty Name
PROPER TIES
PROLOG UE
ModuleInitialization Level
MainComponents Registry
MainApplicationTurbo ModuleManagerDelegate
ImageImage Factory
BOILER PLATE
1587 1156
ĠCOMB INE
çļĭçŁ« çĺ¤
PERMAN ENTLY
ĠINTEGR ATION
BEWork Sheet
3334 12
ĠUseful Funtion
ĠfindAll Words
ĠfindPeak Element
ĠWEBASSE MBLY
contigu ous
ĠTestAllocation Mismatch
RunWhen SecEnd
0388 313
PerFeature DataProvider
ĠlastGood Index
Ġsufam iturbo
Primary ActorTick
182227 75
pugix ml
æĺ¯åĲ ¦
stackover flow
ĠQtOver viewWidget
TargetCondition als
ĠWebr ant
NetCDF PerFeatureDataProvider
Ġèī©mi lauer
ĠframeLim iter
Atlas Idx
ScrollBarAlways Off
Orthographic Camera
SUBSTRATE HOOK
3473 10
ĠChunkReady ToMerge
DOXY GEN
DOrientation MarkerWidget
LocalParameter ization
AAlive Filter
489935 4432
Ġmeasurement s
ĠZRuleSolo DeathMatch
Skeleton Root
ĠUserDefined Type
TVehicle Data
flTurn off
TCancelable Event
57704 6
AUTeleport Version
MagBias EEPROM
InsertConn Log
SendRecv Op
XMLOutput Archive
è½´å¯¹ ç§°
ĠHIGHLIGH TER
LapRank Checker
è¿ĶåĽ ŀåĢ¼
å¤įæĿĤåº ¦O
ĠALGORITH M
1338887 3833720
éĪ°åį ¬
LocatorIPL ist
GaussianBlur Filter
xmlydown loader
ĠéĹĦãĤ Ĩæ½Ļ
" )<<
& ,<
& );
' re
' <<
) _
) ",
) -(
) \<
* -
+ "
+ %
+ "<<
, \"
. )<
. *");<
/ -
/ {
/ "<
/ ";<
1 20
2 44
2 13
2 99
3 15
3 000
4 000
4 95
5 24
5 50
5 000
5 37
6 24
6 04
7 08
8 0000
8 19
8 007
8 34
8 740
9 60
9 259
: '
: _
; ;<
; };<
< __
= .
= "<<
> .
> ,<
> .<
> ();
A H
A i
A p
A um
A ED
A VER
A sm
A OT
A cc
A INFO
A SYN
A SYNC
A spect
A ishwariya
B le
B ON
B est
B ED
B ush
B atch
B ET
B LIN
B OT
B LINK
B ETA
B CF
B alance
B BLE
B onusObject
B OTH
B tls
C l
C ut
C and
C CH
C ab
C SL
C ULL
C raw
C Render
C App
C ML
C FG
C lean
C fr
C Struct
C URL
C atal
C InfoDialog
C lipper
C leanup
C lusters
C aches
C DataExchange
C losable
C ControlDialog
C ChildFrame
C aching
C StdOutStream
D W
D er
D ont
D LE
D IM
D os
D FA
D DL
D SY
D END
D ry
D Texture
D AY
D Renderer
D eriv
D OM
D Ass
D OpenGL
D iode
D amage
D ARK
D ashboardUI
D ispatch
D RenderPass
E A
E F
E Y
E at
E con
E CH
E SL
E ADER
E LOC
E mul
E ATH
E CR
E mail
E lapsed
E AUDIO
F B
F d
F g
F sp
F ST
F AR
F og
F ault
F UP
F allback
F LU
F ocused
F MEMORY
F OPR
F FIX
G ive
G ED
G di
G TEST
G UE
G REG
G NO
G ENT
G IP
G lue
G OOGLE
G rammar
H UE
H ey
H AND
H UD
H IVE
H OLD
H aj
H tml
I AN
I Stream
I END
I FF
I IMPORT
I APPLICATION
I UM
I Unknown
I STORY
I CompileIterator
I QuantumBackend
I SCRIPTION
I FICATION
J u
J oint
J AVE
J UNK
J peg
J ewels
J AH
K AN
K ill
K LOG
K Instruction
K BD
K TG
L AN
L ag
L ION
L ess
L ACED
L CP
L CD
L ava
L antern
L DLT
L ittle
L oraDv
L sq
L aneLine
M b
M it
M ER
M RE
M Vector
M ime
M Button
M TYPE
M LL
M Util
M Label
M Group
M IX
M Quest
M ToolTip
M imium
M usic
M argin
M TextArea
M essenger
M ixin
M edium
M ZFileSystem
N K
N N
N Y
N m
N ER
N ul
N SS
N ING
N ACK
N ForwardImpl
N BT
N ICALL
N sis
N upChkIsFinished
O k
O SE
O TE
O PAR
O INT
O bd
O UTO
O thers
O mni
O bfusc
P as
P UL
P OW
P ages
P IX
P AY
P THREAD
P NODE
P attern
P AGES
P kg
P refer
P ulse
P hysicalBinder
P pmd
Q Event
Q Manager
Q PLUGIN
Q MAP
Q Hash
Q Graphics
Q Variant
Q Dir
Q GraphicsView
Q VGA
Q ToolBar
Q ProxyStyle
Q MetaType
R W
R X
R ic
R ex
R ol
R IT
R ip
R ock
R ules
R tl
R tmp
R FC
R UMBLE
R ATIONAL
R pWidget
R USAGE
R SEM
R aster
R aceSys
S Z
S er
S un
S AP
S MO
S igned
S PAR
S vc
S udo
S NODE
S hould
S NOW
S ieve
S omething
S ym
S nowflake
S AKURA
S liding
S ATUR
T c
T t
T int
T or
T et
T AN
T SH
T ill
T CK
T ape
T IVE
T IONS
T LV
T BD
T POFF
T ckChannelBase
U K
U ptr
U sed
U REF
U STRING
U FOMAP
U WP
U BOOT
V P
V s
V EXT
V sync
V Point
V tx
V DATA
V anity
V ORB
V elocity
V oltage
W A
W et
W im
W String
W ay
W HE
W PS
W TS
W heel
W XYZ
W unused
W GPU
W izard
W ATER
W AIT
W OPI
X j
X ES
X Link
X POS
X CompcapMain
X DW
Y MO
Y ajat
Z ON
Z VERSION
Z Frame
Z Game
Z IP
Z Score
Z Character
Z MachineFunctionInfo
[ -
[ ^
\ ",
] :
] ],
] });<
_ [
_ ,<
a ic
a ura
a TVDataHandler
a JAH
b id
b ra
b el
b sp
b ign
b ber
b ass
b ies
b efore
b ench
b Is
b Export
b cef
b rot
b ubble
b kgColor
c ct
c sh
c ull
c ud
c Base
c Module
c loud
c Conf
c ritical
c ategory
c xa
c aches
d t
d on
d id
d ad
d ated
d av
d ular
d Task
d word
d gt
e k
e v
e ver
e ptr
e ces
e lapsed
e cho
e Addon
f id
f ine
f ur
f str
f ex
f ol
f rag
f ly
f bs
f abs
f ake
f write
f ication
f vp
f sto
f Fade
f lux
g f
g ex
g og
g ab
g ers
g lue
g auss
g Pixel
g laze
g ather
g Eng
h ard
h art
h ld
h result
h old
h Process
h Sprite
h Dll
h dr
h ren
h readed
h PrevInstance
h ongMaterial
i ref
i ers
i ence
i mai
i Round
i eml
i DSP
i Directional
i Ju
j a
j ill
j vm
k le
k al
k Config
k lear
k va
k Find
k Signature
l h
l v
l int
l pa
l ate
l fo
l rc
l ant
l andmarker
m q
m en
m is
m istry
m map
m Menu
m ix
m tk
m gb
m ks
m scorlib
m Options
m eters
m ixer
m illis
m ediate
n P
n ed
n il
n im
n alu
n os
n The
n fc
n Start
n ian
n Round
n apsack
n CombatState
n PacketSize
n GlobalOffset
n Detour
n RError
o un
o ch
o Sample
o ccurrences
o boe
o ji
p sp
p ang
p Node
p file
p ix
p Add
p ts
p move
p Sub
p Format
p Thread
p lease
p Server
p Mouse
p mesh
p TabFrame
p lain
p CommandList
p Men
p OnDraw
p RoundMan
p upil
q wer
q sort
q Slicer
r u
r le
r ing
r us
s lo
s ig
s ender
s mo
s Instance
s hed
s heet
s vg
s Ignore
s ampler
s akura
s omething
s istent
s ntp
s abbat
t ank
t Stack
t ists
t weets
u cl
u Nm
v irt
v fuzz
v ious
v Direction
w l
w m
w im
w as
w all
w ast
w alkable
w lc
w xyz
x A
x E
x f
x it
x mm
x Sort
x AF
x BC
y mod
y Reader
y Default
z x
z ap
z Out
z algorithm
z Crc
{ _
} (
} {
} "<
} ";<
} ");<
} ))<
£ è¤ī
¤ ¼
¦ ģ
¦ å¯¸
§ éĤª
§ éį
¨ åĦ
© åĦ
ª ¬
« å
« ç»
¬ éį
¬ ¨åĦ
¯ ®
¯ ı
² ĭç´
³ »
¶ é
· ©
· ±
º ¢
º ¦
¼ çĤ
¼ éĴ¦èģªä¿ĥ
ã ģ
å ¨
å ½
å ¿
å ļ
å ľ
å Ŀ
å ŀ
å Ĵ¯
æ »
æ ı
æ °¢
ç ĥ
ç ł
ç ¯®
ç º¦
è Ħ
è Ķ
è Ł
è įĲ
ĉ ĠĠĠĠĠĠĠĠ
ĉ ĠĠĠĠĠĠĠĠĠĠ
ĉ ĠĠĠĠĠĠĠĠĠĠĠĠĠ
Ġ Here
Ġ ush
Ġ Zero
Ġ eta
Ġ elif
Ġ REGISTER
Ġ IMAGE
Ġ äº
Ġ LEGACY
Ġ angles
Ġ æīģ
Ġ ä¹Ĳç»°
Ġ çļĭçŁ«çĺ¤
Ģ æŁ
ĥ ¶
ĥ é£ĺ
Ħ ©åĦ
ħ Ĵ
Ĩ Ļ
ĩ ¼
Ī æĴ³
ī §
Ĭ å
ı èĤº
ı ç´
ĳ æĩĪ
Ķ ±
Ķ è¾
ķ °
ĺ çĺ
Ļ éĬ
ļ éĬĪæİĵçľ°éĬĪä½µåĢł
Ľ ¼çĤ
Ŀ åłĿ
ł åķĬ
in p
in ate
in ode
in formation
in structors
in hart
de lement
de composition
de ven
de coder
de allocate
de leted
de ucl
ĠĠĠĠ ĉĉ
Ġ< _
st e
st age
st iv
st ill
st ones
st uff
st udy
st ories
st aV
st ubs
en ed
on itor
on ormal
on CameraState
at ta
at ty
at Aum
er ing
er ti
er Heuristic
re y
re ec
re main
re pos
re port
re interpret
re coil
re sting
// _
int ro
Ġ" )<
Ġ" ..
Ġ" ("
Ġ" <<"
Ġ" ;}<
inc i
ut m
ut ine
ut ation
ut est
ut let
Ġc d
Ġc ent
Ġc um
Ġc el
Ġc tr
Ġc ryp
Ġc att
Ġc alloc
Ġc lean
Ġc lip
Ġc ategory
Ġc tre
Ġc losable
Ġc imbar
Ġc SimpleModule
am eter
ce ment
ce iv
:: <
Ġm ul
Ġm Object
Ġm Function
Ġm ost
Ġm tx
Ġm etric
Ġm Ui
Ġm iss
Ġm Material
Ġm Pos
Ġm utable
Ġm Options
Ġm icro
Ġm ProgressBar
Ġm Viewport
Ġm secs
Ġm Timeout
Ġm Radius
Ġm illis
Ġm ulti
Ġm cmc
Ġm cuboot
end Time
end points
es Gui
es seract
ar ct
ar ent
ar per
ar ity
ar cs
ar Down
ar ily
ri ting
ri zz
ri cket
le mb
le ak
() ();<
() ]);<
() ))
Ġi ris
Ġi tems
Ġi qs
Ġn C
Ġn x
Ġn y
Ġn Time
Ġn vm
Ġn port
Ġn av
Ġn tx
Ġn Count
Ġn Err
Ġn dk
Ġn CmdShow
se am
co var
co coa
co Reader
co cr
an te
an pre
an ya
an ano
an ToInt
ing Box
ing link
ing Modes
ing Updated
Ġt l
Ġt id
Ġt et
Ġt im
Ġt rib
Ġt ak
Ġt Stack
Ġt aken
Ġt rees
Ġt alking
al am
al an
al kane
al ighter
pa sc
pa que
pa bilities
if ace
ic a
ic all
ic ity
ic les
ic Importer
id le
id dh
std uplicate
ion Find
Ġv el
Ġv ort
Ġv vm
Ġv ram
Ġv snprintf
Ġf b
Ġf e
Ġf ar
Ġf et
Ġf ol
Ġf eg
Ġf ew
Ġf older
Ġf lat
Ġf av
Ġf abs
Ġf Sec
Ġf cnt
Ġf nv
Ġf ire
Ġf lash
Ġf etch
Ġf eset
ine Boot
it r
it ate
it ach
ra h
ra ce
ra it
ra coReader
Ġs ine
Ġs ch
Ġs map
Ġs gn
Ġs izes
Ġs lice
Ġs na
Ġs omething
Ġs entence
Ġs prites
ur ons
ur ope
Ġp d
Ġp te
Ġp cpp
Ġp tt
Ġp Window
Ġp ix
Ġp Player
Ġp obj
Ġp Font
Ġp Format
Ġp Edit
Ġp DX
Ġp Bitmap
Ġp LineEdit
Ġp ListBox
Ġp kg
Ġp VerticalScrollBar
Ġp HorizontalScrollBar
Ġp HorizontalSlider
Ġp CheckLabel
Ġp VerticalSlider
Ġp RadioLabel
Ġp TabFrameItem
Ġp TabCtrl
Ġp otential
Ġp ivot
Ġb str
Ġb mp
Ġb el
Ġb eg
Ġb ark
Ġb lob
Ġb one
Ġb ranch
Ġb kgColor
Ġb lake
Ġb aud
Ġb vhAccel
Ġre q
Ġre lu
Ġre comp
Ġre cv
Ġre start
Ġre positor
Ġre comm
Ġre boot
Ġre ceive
Ġre vertColorProb
ss se
ss ystem
Ġa b
Ġa k
Ġa y
Ġa ce
Ġa us
Ġa ble
Ġa aaaa
Ġa Client
Ġa ids
Ġa vl
he type
he avy
he mistry
la pack
la cing
-- ,
-- -
-- );<
-- ];<
lo ot
lo Data
lo pen
ro ute
ro ke
ro pe
ro ding
ate ly
ate Pass
ate xit
Ġstd Code
>} );<
>} }}<
>} }}
et it
et ries
str safe
un do
un protected
un wrap
un knwn
Ġ0 7
Ġ0 100
Ġco in
Ġco ord
Ġco okie
Ġco ordinate
Ġint ensity
mp s
mp u
ma gic
ma Allocator
ent o
ent ities
ent ication
Ġo per
Ġo tp
Ġo perations
ex tr
ex ical
ex agon
us es
us able
us ED
Ġ1 14
Ġ1 75
Matrix Util
um es
do p
do vers
do pt
ĠA A
ĠA TO
ĠA mb
ĠA ARCH
ĠA UI
ĠA RC
ĠA sse
ĠA SYM
ĠA tom
ĠA SCII
ER F
ER ING
ER FIN
ER SENSOR
Ġ( %
Ġ( --
Ġma k
Ġma ss
Ġma ster
ĠS SE
ĠS TO
ĠS PE
ĠS ING
ĠS ECT
ĠS upport
ĠS ell
ĠS afe
ĠS yscalls
ĠS hould
ĠS ENSOR
ĠS SR
ĠS TOP
ĠS nowflake
ĠS IMPLE
ĠS SID
ĠS cotto
ĠS htreeba
ĠS emVersion
ĠS quash
ĠS Articulation
ĠS parc
ĠS Fg
is o
is ing
is ode
is Manager
is nan
is digit
is Prime
is ReadOnly
is FirstInnings
is Leg
is AutoSymbol
Ġ// #
Ġ// ....<
ol s
ol in
ol ith
Ġg f
Ġg z
Ġg ate
Ġg old
Ġg pu
Ġg fa
Ġg dx
Ġg tc
Ġg rad
Ġg ely
Ġg uess
Ġg laze
Ġis os
Ġis Debug
Ġis User
Ġis Effect
Ġis Checked
Ġis Multi
Ġis Loaded
Ġis vowel
Ġis Mirror
Ġis Initialized
ĠC P
ĠC pp
ĠC AL
ĠC RE
ĠC AP
ĠC Base
ĠC rc
ĠC ENT
ĠC UR
ĠC tor
ĠC System
ĠC Engine
ĠC pu
ĠC ONT
ĠC Win
ĠC About
ĠC ritical
ĠC leanup
ĠC MAKE
ĠC Generate
ĠC Streamer
ĠC astle
ĠC Adv
ĠC mptsView
ĠC IMBAR
ĠC AnimationStyle
ĠC Garages
ĠC ComTest
ĠC driveclearApp
ĠC ricket
++ ]);<
Ġon New
IN ANT
IN ET
IN DL
IN DEPEND
IN ERT
IN FR
IN FORUNNABLE
IN FINITE
el ler
el case
el gamal
ed Path
ĠE S
ĠE sp
ĠE FS
ĠE ffect
ĠE FD
ĠE lGamal
ĠE QUAL
ĠE valuate
ĠE lectron
ĠE ZVERSION
ĠE loData
ck ey
ck mann
tr anspond
ch at
Ġconst ant
Ġconst Max
ver ts
ver eset
ĠT P
ĠT im
ĠT OR
ĠT Array
ĠT Visitor
ĠT END
ĠT OT
ĠT EM
ĠT ick
ĠT LS
ĠT Lock
ĠT ax
ĠT First
ĠT FD
ĠT imest
ĠT ASK
ĠT EXTR
ĠT WOPI
ĠM en
ĠM RE
ĠM IM
ĠM atch
ĠM ix
ĠM SP
ĠM Frame
ĠM eter
ĠM UID
ĠM ChannelRuleMgr
ĠM INE
ĠM ixer
ĠM edium
ĠM pk
ĠM HttpSpooler
ĠM MIO
ĠM DRAGOBJECT
ĠM QPLUGIN
ĠM onitor
il itate
ĠP B
ĠP F
ĠP W
ĠP i
ĠP ing
ĠP ch
ĠP ID
ĠP CH
ĠP ING
ĠP ORT
ĠP atcher
ĠP Flag
ĠP hys
ĠP Flags
ĠP cap
ĠP ending
ĠP rincess
ĠP ersistent
.. \\
im ode
im os
Ġd a
Ġd id
Ġd ark
Ġd iscard
Ġd ays
Ġd ctx
Ġd sl
Ġd gt
Ġd ashboard
Ġd riveclear
ul ong
EN GED
Ġw string
Ġw ere
Ġw ave
Ġw Param
Ġw ifi
Ġw df
Ġw arn
Ġw ire
Ġw SObj
Ġw ipe
Ġw glew
Ġw riting
Ġ{ \<
op List
op over
Ġin ode
Ġin di
Ġin Size
Ġin Rect
Ġin verter
Ġin dic
Ġin active
Ġin DebugName
te mpl
Ġfor Name
Ġfor cing
AL BU
AL API
AL US
AL MARK
AL TRA
AL METER
ON ENT
ON LOOP
ON ATEDIALOG
sp o
Ġof xGui
In St
In out
In order
In Archive
In Range
In ductor
In Bounds
In herit
In erti
ve h
Ġ& [
Ġ& {
Ġ& ()
Ġ& )<
00 2
00 3
00 6
00 08
00 40
Ġl c
Ġl j
Ġl k
Ġl Param
Ġl ane
Ġl oraDv
Ġl trim
Co mn
Co ins
ont act
LE SS
LE LEMENT
LE OPAR
RE T
RE QU
RE ED
RE MIN
RE PPING
RE FIID
RE ALIZATION
ext Object
ext Config
Ġh h
Ġh it
Ġh ue
Ġh font
Ġh ip
Ġh ld
Ġh cf
Ġh andler
Ġh Process
Ġh az
Ġh menu
Ġh ilti
Ġh vp
Ġh tml
Ġh PrevInstance
ST AC
ST RO
ST FLOAT
ST DLIB
ST OME
ST UFF
ST REET
ĠG RO
ĠG DN
ĠG AM
ĠG ui
ĠG OG
ĠG MOCK
ĠG DB
ĠG PU
ĠG reppingDlg
ĠG ELEMENT
ĠG REPPING
ad ingD
ad just
ĠD H
ĠD AR
ĠD RO
ĠD Type
ĠD IR
ĠD ump
ĠD uration
ĠD DX
ĠD istance
ĠD CR
ĠD ispatcher
ĠD LC
ĠD eep
ĠD OWN
ĠD AED
ĠD ONATEDIALOG
eg l
<< '\
Ġch k
Ġch oice
ĠN K
ĠN X
ĠN a
ĠN OL
ĠN File
ĠN RF
ow el
AR ITH
AR PEN
ment ed
Ġj uce
Ġj ia
Ġj peg
Ġj osephus
AT AN
AT ES
AT HE
AT IAL
AT ILE
AT INPUT
PL O
PL IER
PL SPlatform
PL SSplashScreen
pre fetch
ata Handler
as ename
as df
and Hex
all X
ot iff
ot osh
ef i
ated Hash
OR IZONTAL
Ġ4 100
Ġ4 50
Ġ4 45
DE TE
DE LEG
DE TA
DE LETE
St Function
St air
St Variable
St reet
set Application
set Size
set Style
set Position
set Pin
set Attribute
set Contents
set Focused
ray Icon
ray scale
size i
ĠF H
ĠF un
ĠF ST
ĠF Vector
ĠF Object
ĠF actor
ĠF Color
ĠF IR
ĠF lip
ĠF AU
ĠF oreground
ĠF INDL
IM AP
IM AGER
IM ATED
IM ovement
IM INANT
IM ALTRA
(" -
(" ^[
Ġnum Trees
Ġnum TestCases
Ġnum ofele
Ġnum Jewels
IL LU
Ġ3 9
Ġ3 60
ĠL ang
ĠL OW
ĠL CA
ĠL CS
ĠL RC
ĠL ava
ĠL ittle
ĠL aserSensor
ĠL nk
Ġst un
Ġst ation
Ġst aV
ĠR C
ĠR ing
ĠR ound
ĠR ock
ĠR ice
ĠR tl
ĠR oot
ĠR iverCombs
ĠR pWidget
ĠR PLoop
Ġe a
Ġe st
Ġe ps
Ġe md
Ġe ax
Ġe mployee
Ġe valu
Ġe mail
Ġe mscripten
for d
son ant
ap lus
ap ele
ap Renderer
get ch
get Text
get State
get All
get env
get Width
get Height
get Runner
get Udc
get NodeType
ĠQ U
ĠQ List
ĠQ TT
ĠQ Abstract
ĠQ TextEdit
ĠQ Angle
ĠQ MRML
ĠQ ITC
ĠQ GraphicsView
ĠQ ubit
ĠQ CheckBox
ĠQ Validator
ĠQ Sql
ĠQ GroupBox
Ġx ml
Ġx dw
PP G
PP EB
PP ATH
ĠI d
ĠI Array
ĠI Text
ĠI BO
ĠI PC
ĠI dx
ĠI Compress
ĠI Subject
ĠI ClassFactory
ĠI CompileIterator
ĠI TEM
ĠI GNO
Ġto lower
Ġto gether
li App
li kely
ode PNG
ĠB M
ĠB Y
ĠB e
ĠB IG
ĠB ush
ĠB itmap
ĠB ench
ĠB LOCK
ĠB oolean
ĠB Zip
ĠB oard
ĠB alance
ĠB ranch
ĠB IGN
og ue
yn ess
AN K
AN SP
AN CED
ĠU E
ĠU s
ĠU pd
ĠU ND
ĠU NI
ĠU SING
ult ra
ag g
ag o
IT AN
IT ask
IT IES
IT hreaded
IT extObject
Ġfile Dumper
AP ARG
AP SED
em u
em ulator
return ing
per mutations
AC OS
AC HY
AC PI
AC ITOR
os pace
os aic
Ġ' "
Ġ' <
Ġ' ")
Ġ' {'
Ġ' :'
Ġauto start
FI O
FI EL
FI FOPR
cpp reference
Ex tern
Ex ternal
Ex Initialize
Ex Release
Ex Ac
ans formation
ans lider
ang led
ang ian
sh irt
ĠMatrix Inverse
10 4
10 55
UL IB
UL TRA
UL KAN
UL STUFF
Ġr b
Ġr r
Ġr ate
Ġr ng
Ġr usage
Ġr umble
Ġr trim
om ing
om ni
om bies
om yDefault
SE Q
SE IP
SE ETA
SE ALAPI
SE STOME
up load
ĠW H
ĠW al
ĠW AP
ĠW nd
ĠW ill
ĠW AV
ĠW ave
ĠW idth
ĠW arn
ĠW STest
ĠW elcomeWidget
ĠW EATH
ME TE
ME DI
ĠK e
ĠK th
ĠK NOWN
ĠK bI
ĠK imin
ĠK EY
ĠK imai
est Panel
olu ion
red its
Ġy s
Ġy aml
Ġget s
Ġget ch
Ġget Random
Ġget Node
Ġget Sensor
Ġget Area
Ġget Min
Ġget Target
Ġget Ext
Ġget env
Ġget Mac
Ġget Current
Ġget Description
Ġget Options
Ġget Close
Ġget Messages
Ġget RandomNumber
Ġget SensorName
ERN ET
ERN ATIONAL
ĠH ol
ĠH MENU
ĠH IER
ĠH KLM
ĠH armon
ĠH exagon
ĠH ORIZONTAL
lm huv
num Trees
Ġk E
Ġk ill
Ġk now
Ġk tl
Ġk Git
Ġk ids
Ġk lee
Ġk WaitStatus
Ġk Known
Ġk napsack
CT et
CT OR
CT able
CT EST
CT extConfig
QU AT
con version
>> ,
>> ::
Str To
bool Type
MO TE
MO TD
MO SI
MO WIDGET
MO TOR
MO TION
MO JAVE
MO TIVE
Ġover speed
Ġover loaded
AB D
AB EL
Ġde m
Ġde li
Ġde code
Ġde init
Ġde cla
Ġde signed
Ġde term
Ġde compressed
Ġde sired
ION METHOD
20 2
20 15
20 48
<<" :
of number
EX PLIC
RO L
RO U
RO MA
RO PY
64 32
able List
Pro cessed
Ġbool Type
ser vers
row major
wise Impl
String H
String Util
String UTF
String ForKey
String Encryption
art ext
art icle
art beat
ref s
ĠO ur
ĠO PL
ĠO SH
ĠO dd
ĠO pr
ĠO ops
ĠO wner
ĠO SEX
ĠO mni
pri v
ED FOR
ED FRAME
ED SERVICE
); ++
IC SENSOR
IC ATOR
IC HOR
IC CATCHMENT
IC SELEMENT
TO TYPES
TO GRAPHIC
TO OTH
SH ORT
SH TC
SH ARPEN
ann ing
BU BBLE
BU MTYPE
py sapien
ĠV A
ĠV S
ĠV ery
ĠV ERT
ĠV pn
ĠV ELOC
ĠV maAllocator
[] ){<
ta int
ta pp
ta bs
ta king
List File
List Model
List Scanner
List aInterpreti
data source
data ROM
Ġres ume
Core Log
lib ps
lib git
lib HelloWorld
lib respot
En dian
amic ro
Ġout file
Ġout len
Ġout Archive
Ġout pitch
Type Manager
Type From
Type Cvt
Type ComboBox
ansp ort
TE S
TE ACH
CO A
CO SH
CO LS
CO MING
CO COS
ĠVector Union
Ar bit
Ar resting
ain Array
GL enum
GL ASS
GL Shader
GL ONG
GL ITTER
GL TF
Ġpro b
Ġpro g
ID s
ID GE
use c
ure gex
ph nt
UN IT
UN DN
UN DER
UN ITS
UN SYM
UN BOUN
UN SUPPORTED
>( *
>( <
sc hedule
ABLE OP
//////////////// <
AD C
AD IC
AD SI
AD SR
PE T
PE LEMENT
Ġ10 5
Ġ10 6
Ġmax Height
Ġmax Sliding
DI STR
DI SP
DI SCR
ary Encoder
Ġlong Url
out ingDaemon
Ġreg free
ac l
ac cum
ac quire
FA STM
Base Object
Base Filter
Base Result
Base Address
Base Renderer
layer s
SC E
SC ON
SC ALLBACK
af nian
CE S
CE IL
Node let
Ġhe avy
Ġset Error
Ġset Edit
Ġset Current
Ġset Focus
Ġset Pin
Ġset Radius
Ġset Movable
Ġset Closable
Ġcomp leted
file path
to i
to do
Ġex press
Ġdata Len
BUILD ING
Ġ, -
Ġth us
ke er
ke ys
VER BO
VER ICK
VER IFICATION
hm utex
Object ID
Object Wrapper
Object Pool
ree View
Ġdef er
CH AIN
CH ROMA
SS D
SS R
SS ION
SS DP
SS PLASH
SS IAN
nn oun
ton e
ĠX P
ĠX Display
ĠX RSLAM
ib rary
LO GIN
LO PEN
ab f
Ġ'\ \
di ent
di vide
di ctionary
di jkstra
DN A
Ġ"\ "
EXT EDIT
ink ite
Ġinput String
Event ErrorCode
Event Dispatcher
Event Timeout
odule Interface
Ġnot ify
ĠĠĠĠĠĠĠĠĠĠĠĠĠĠĠĠ ĠĠĠĠĠĠĠĠĠĠĠ
ĠĠĠĠĠĠĠĠĠĠĠĠĠĠĠĠ ĠĠĠĠĠĠĠĠĠĠĠĠĠĠ
CL ASSE
CL SID
log n
ORT POSITIONVECTOR
test String
De psgraph
auto matic
rom atic
rt c
rt Storage
Ġsum Leaf
Ġsum Till
AM MP
UT ABLEOP
CON STRA
read ing
read fs
ui wen
Re Alloc
Re place
Re cognizer
font data
Ġ*/ );<
Ġ*/ )<
>* /
>* <
Ġå İ
Ġå ķĬ
Ġå Ĵ¯
Ġå Ĭª
afx c
afx win
Ġoutput Str
Ġ&& <
com b
cl oned
cl imits
YS RESULT
ti ps
Con Command
Con cat
ĠIn ference
ĠIn structor
ĠIn paint
Ġno Of
IB ER
IB Action
Ġ} };<
Ġgen esis
Name Size
Data wrapper
Data Array
Data Wrapper
Data Exception
Data Settings
Data Types
Data Transfer
PORT ABLE
PAR A
Ġnew Size
Ġnew line
Ġnew Symbol
error Message
Ġ7 1
ip ulation
ms pace
Ġ~ (
On New
On Create
On Load
On Destroy
On Sphere
On Complete
ĠJ ul
ĠJ oint
ĠJ ust
ĠJ ash
ĠJ PEG
ĠJ ava
ĠJ peg
ĠJ NICALL
Sc hedule
ET ARY
Ġ6 3
Ġ6 9
low est
INT F
INT EX
INT ERNATIONAL
To Left
To Right
To Read
To Icon
To Screen
To End
To ErrorCode
To Return
To Top
To Bottom
To Climb
ance d
amp ling
REG S
REG KEY
ft Runner
Ġpa dd
Ġpa used
Ġpa isa
Of Strings
Of Calcul
Of Others
gen esis
cp x
max Pro
max sum
max len
max Length
open mp
Ġit self
Plugin Base
Plugin Info
Plugin Monitor
Plugin ToIcon
SION FILTER
cb i
Ġbu y
Ġbu ffers
Ch anges
<= '
Col Buf
Col lector
Test Auto
Test Case
Test Runner
VAL S
imp Importer
ay alam
Ġun ix
Ġun used
Ġun pack
Ġun iform
Ġun document
Ġun usED
Ġcount B
Ġcount Nodes
Ġcount Zeroes
Ġcount Distinct
)) ==
)) (<
)) (*
ĠGet V
ĠGet Object
ĠGet Path
ĠGet System
ĠGet Command
ĠGet By
ĠGet Char
ĠGet Pos
ĠGet Default
ĠGet Order
ĠGet Vertex
ĠGet LastError
ĠGet Async
ĠGet Battery
ĠGet Results
ĠGet QRCodeRunnable
ĠGet BuiltinType
ĠGet TaskName
ĠGet AlbumInfoRunnable
ä» §éį
Function CallbackInfo
Function MLIB
MA PPER
MA SYNC
MA PPING
MA VERICK
ĠSt ub
Ġstr nc
Ġstr ategy
Ġstr cat
Ġstr Tmp
OB SERVER
OB FU
OB SVirtualCamServer
OB STAC
Text Editor
Text Browser
Ġtest case
Ġtest Case
Ġend Time
Ġend ian
base Address
face Info
WIN FO
WIN SOCK
For Name
For Numbers
ĠCo Initialize
Comp lement
Comp leted
Comp oundTag
Comp utation
Get Value
Get Game
Get Class
Get Entity
Get Block
Get Token
Get Channel
Get Console
Get Extension
Get Quaternion
Get GlobalMap
Get Ticks
Get BuiltinType
Get Stamped
Get Performance
PIN BOX
NO K
ĠCre at
Un ity
Un able
Un defined
Un format
Un Packer
opt s
opt string
opt arg
opt ind
Ġcon c
Ġle x
ari Printer
main Window
AV ITY
File Type
File Manager
File Item
File Handle
File Description
Info CL
Info Data
Info Mixin
Info Collector
Ġresult OfCalcul
PLU SCALLBACK
Menu Scene
Ġname String
ĠGL YPH
ĠGL GaussianBlurFilter
Ġan on
Ġmin p
Ġmin Ans
Ġmin Moves
Set ter
Set Instance
Set Result
Set Up
Set Progress
Set Bit
Set Union
Set Stamped
Set Organization
Player Info
Player Index
Player ScoreboardId
Player Macros
Res istance
Res istor
Res olved
TER ROR
ä¸ »
Ġ9 7
SON ICSENSOR
ATION FE
ATION FILTER
100 10
100 01
100 0001
exp onent
SP V
SP MM
SP KAC
SP HERE
SP opover
SP ATIAL
44 47
Ġal t
Ġal ign
Ġal igned
Ġal go
Ġal phabet
CK SceneObject
CK StateObject
CK BaseManager
parent Menu
parent PopupMenu
Map Path
Map Server
Point Action
ENT ROPY
ĠAr duino
Ġcreate BST
Ġq node
Ġq cvm
count To
Bu g
Button Clicked
Ġpri v
ged Error
ged MPC
MM C
Sh ield
Sh arma
Sh apes
ĠRE SI
ĠRE VE
ĠRE TURN
ĠRE SOLUTION
ĠRE FIID
input stream
MP TY
SY STM
SY SEX
SY STIME
Ident ical
Left Side
Left ToRight
ass imp
ass inate
Ġdi jkstra
ĠPRO PERTY
ĠPRO TOTYPES
State From
Property Info
Property Set
Property Dialog
Property Settings
Property Bag
Ġu mp
Ġu set
Ġu map
one Y
... )<
... ");<
... >::
Ġprint ed
Ġprint Options
Ġprint Post
Ġprint Inorder
Right Side
Right ToLeft
Ġcont rast
LIB GEN
min or
min id
min us
ĠAP NG
Ġstruct ure
Ġdo g
Ġdo t
Ġdo it
Ġdo cs
AS N
AS IO
AS INK
AS oftwareUpdate
ĠRegister PRISM
Ġll ist
Ġexp ose
AG GREG
UR ER
UR FILTER
UR GLASS
Add To
Add Layer
Add Range
point Cloud
("% [^
TR AS
TR IES
TR ATHE
TR ANSP
Ġmy Map
Ġmy key
Ġmy Complex
OP lane
ĠZ one
ĠZ Module
ĠZ IR
ĠZ Character
ĠZ QuestMap
ĠZ MessageNameGroup
Id Counter
list item
Ġpre view
Ġpre Order
raw al
Ġadd Value
Error String
Error Window
Error Death
init Program
Ġsub array
Ġsub space
exec uter
END ITEM
OT IFY
OT ASoftwareUpdate
Cont act
ES APP
Value Tree
Value Computation
SO ut
SO ULSTUFF
ĠDo DataExchange
Ġspec ifier
ya Is
cc r
cc Config
Ġgener ating
Ġtri ador
Item Stack
event Name
Log Frame
Log Serial
Log Output
pe ak
Ġclang Tutor
READ ING
READ THREAD
OS ERIAL
OS FLASH
Ġsh own
PRO METE
inter section
Ġtemp s
Ġtemp now
Ġtemp èĮħr
tax i
Ġas String
Ġas JsonValue
ingle Thread
lat ency
Code Window
Code Loader
Code Auth
Ġat om
Ġat oi
Ġat omic
Ġor bital
Time As
Time Clock
Inter action
Inter sector
lex it
no ToErrorCode
vm ar
Ġcode c
Main View
Main Thread
Main Content
Element Type
ange ments
ĠError Desc
Th row
Th ird
EL L
EL CAP
Ġval B
OBJECT ER
Game UIT
He artbeat
Render Device
Render Texture
EM YSYSTEM
EM BED
Sensor Type
Ġlib git
TH ook
TH IRD
TH REED
]] .
]] >
]] ){<
arch imedes
Image Base
Image Reader
Image Panel
ĠID irect
make in
make out
make Scaled
Ġ[ =
Ġ[ _,
99 9
ARE DS
BO OK
BO LELEMENT
by Duplicate
SDL Bitmap
time value
time Settings
WOR KEN
Par ity
see k
Ġapp ear
An i
An ime
An imal
An cestor
]) ){<
Handle Map
Ġtime Temperature
Cpp Image
Cpp Class
Cpp Exception
Cpp Native
Cpp Wait
Ġlog l
obj ç»°
86 2
çĶ ŁæĪĲ
App Event
Ġkey codes
av l
Param aterize
ifi ers
ĠCO ut
ĠCO COA
Ġprocess or
Ġprocess es
Ġsort ing
Ġ16 0
Ġ20 16
Ġ20 11
]; //
MOD ERROR
Ġparam eters
ĠSet Console
Key State
Key Value
Key Frame
Key Wrapper
Key Share
Di ct
Di vider
Class Handle
ryp tor
Ġsc r
ODO METER
Ġreverse Bits
Ġ(" *");<
Common Ancestor
PC uda
Te arDown
holder s
åĲ ¯å
Space Normal
ep och
ep isode
Ġfont byte
MY FILE
MY FILEREADER
MY PINMANAGER
MY PINREADER
MY FILEWRITER
MY INTERRUPTMANAGER
MY TIMEKEEPER
MY INTERRUPTSERVICEMANAGER
ĠBase Data
ĠBase Cache
ĠBase SyncSettings
Check Point
Check points
ĠOpen File
ĠOpen SSL
Se en
Se ed
Se quences
Filter ProxyModel
Label Look
ĠSystem Info
Ġproject s
WORD SIZE
MIN FORUNNABLE
Engine Config
Engine Client
Engine erHeuristic
CODE CTYPE
CODE WINDOW
Bar Widget
sub set
sub tract
Ġbuild Array
Af reec
Op Thread
Op Resolver
ĠDe ck
ĠDe pendencies
ĠDe codes
ĠWindow Settings
Font Color
Font Geometry
Color Codes
Graph Initializer
Wrapper Pass
the String
the char
the ory
the me
Ġcnt a
Ġcnt b
Message Manager
Message Id
Symbol Storage
è¯ ·
()) )<
()) !='\
last Point
Version Number
Ġrep ly
Input State
Input System
Input Filter
Input Handler
Al t
Ġtext Length
CONFIG PARSER
Action s
14 1
NT API
NT FST
Ġ32 7
SB asic
Tensor Shape
Tensor DeviceGpu
Tensor ReductionGpu
Tensor ContractionGpu
UM N
lin v
ĠIN FO
ĠIN DUCT
ĠIN STRUCTOR
Ġright Min
Ġright SubTree
Ġright subtreesum
Ad just
Ad aptor
BE E
BE ACON
BE WORKSHEET
IO UTIL
IO READTHREAD
OST ASK
OST hread
ĠFile Name
ĠFile Reader
ĠFile Sys
ĠUn define
ĠUn map
ĠUn ique
ĠUn known
ĠUn ionFind
Handler ModulePlugin
Handler Setter
Ġcheck sum
Ġcheck Us
Ġcheck Cuda
ĠFL IGHT
ĠList Box
ĠUi Panel
Model s
Model Component
EYER THREAD
EYER SUB
EYER SHARED
EYER IMAGE
EYER EVENT
EYER URL
EYER RAND
EYER FILEREADER
EYER DECODE
EYER BITSTREAM
EYER CONDITION
EYER AVER
EYER MEDI
EYER OBSERVER
Le arning
Le aves
mod d
mod s
mod ified
node Type
Ġpar a
Ġcompute OrderingHint
Ġserial PortClient
Process Path
Process Cmd
Process Messages
AFX WIN
CA irServer
Ġen gin
Dec ription
Dec ryptor
Py thon
Sub tree
Sub Options
Sub sequence
Sub arraySum
att ack
att ributes
Ġmod ification
Ġmod time
Ġmod pow
Ġmod Exp
Ġmod ality
ĠWIN RT
ĠWIN DOW
Debug Info
Debug Message
Debug Process
Debug Level
Debug Port
IR PLAY
IR TERROR
Format Mode
Lib Name
PAT ROL
start ed
start Time
Ġ"] ")<
Ġne ver
Ġne urons
Ġfind Sum
Ġfind Dis
Ġfind Kth
Sum BIT
Ġtarget Pos
Ġtarget Url
By Parity
module Info
pack s
Initial ise
Instance s
ĠOn Attach
ĠOn Complete
ĠOn Detach
ĠOn ImGuiRender
ook s
key PressEvent
." ;
fs Function
fs Value
Task Type
abs l
Ġus leep
ĠMOD S
FILE INFO
Packet Data
Packet Info
Ġerror s
Ġerror Code
Ġerror Message
Windows Headers
led ge
pages ize
Ġnode let
Ġnode Transform
Mesh es
Mesh Data
Mesh SyncClient
Ġlang cc
ĠLo ops
Memory Mgr
Ġper missions
Ġper Person
Buffer InfoCL
ĠSize f
ĠNode Data
Component Provider
ĠFunction Table
Register Handler
Register Server
Register PRISM
Register LuaLib
Ġpush ing
ĠAn other
Sp ot
Sp lash
UD INFODIALOG
Ġro bot
Ġmp u
Update Fx
cul ating
ĠEX CEPTION
ĠEX AMPLE
GE P
GE FILTER
Tra jectory
ĠTest Detect
ALL ENGED
Texture Loader
handle Message
Interface Traits
Thread Library
Thread AndroidAudioPlay
COMMAND PARSER
Level s
Ġiterator s
ĠMC M
ĠMC UBOOT
03 4
Tr anslate
sys Alloc
sys random
sys kbd
err Code
Team DeathMatch
Edit OutputWidget
Qt Global
SDK Plug
Client Id
Ġfinal tax
Unit Test
loop Name
loop TaskQueue
Header String
APP ID
With Candies
Per missions
Per iodic
Entity Kind
IV ATER
TT ILE
cd c
Layer Sprite
mi Processor
ĠCh ild
ĠCh allengeDialog
FO O
FO MapServer
FO OSERIAL
mit ives
Env Object
Draw Arresting
my map
my vec
ĠMY TEXT
ĠMY LABEL
Controller Base
HY STICKERSOURCE
HY DRO
HY MODERROR
Mod Loader
ĠCon nect
Ġdirect ories
Dele g
SIM DATA
VM U
link type
Ġsu cess
ĠVisual Settings
Group Look
ĠEn coder
ĠEn sure
ĠEn emy
ĠBlock Data
ĠBlock Pos
Max imized
Global Flag
Global Planner
Not hing
Not Optimize
Not Used
Pri smata
Pass code
Pass InfoMixin
ĠCreate Instance
ĠCreate Variable
//////////////////////////////////////////////////////////////// ////////////////<
Ġter ug
ĠRender Quality
Ġtop o
Ġread Stats
Ġread only
RES DATA
09 02
09 17
09 65
DATA STRUCT
DATA HANDLER
serial PortClient
Ġé ı
Ġé Ŀ
Ġé ħĴ
Ġpath Size
[...]
