#version: 0.2 - Trained by `huggingface/tokenizers`
Ġ Ġ
ĠĠ ĠĠ
ĠĠ Ġ
o r
a t
o n
> <
s e
e r
m e
i n
ĠĠĠĠ ĠĠĠ
a r
m p
or t
i mp
a l
r o
imp ort
a me
a n
d e
n ame
_ _
, <
e n
i on
p l
ro m
f rom
Ġ import
a s
Ġ =
i t
: <
r e
l e
i d
s t
" "
an g
) <
j ang
jang o
u t
o t
ĠĠĠĠ ĠĠĠĠĠĠĠ
l s
d jango
Ġ p
l y
) :<
č Ċ
at or
g s
al id
at ion
i e
alid ator
pl ot
i g
plot ly
i c
Ġ t
a p
" ,
Ġ django
Ġ "
Ġ m
g e
ar gs
as s
c l
en t
de f
a se
e d
k w
kw args
" <
cl ass
Ġ se
u r
l f
h e
l d
o de
V alidator
i s
c t
ie ld
Ġ f
ar ent
o p
) ,<
y p
i ls
b ase
c on
Ġ *
Ġ re
u e
ut ils
Ġ s
g i
= "
Ġ '
"" "<
e x
. <
( "
t r
c o
Ġ def
yp e
( <
in it
ge t
t er
Ġ __
Ġ* *
a c
Ġ v
u p
t ype
f ig
ed it
a d
Ġ in
ode ls
Ġse lf
ic ation
F ield
Ġp arent
alidator s
v alidators
Ġ plotly
base validators
in g
ap pl
Ġ _
appl ication
Ġ name
Ġ .
t t
a b
w s
Ġ [
C on
Ġ T
Ġt he
e ct
ap p
n t
Ġ A
or e
er s
ig r
Ġ get
i b
at e
igr ation
u l
an d
ur n
t urn
' ,
Con fig
a ge
] <
p op
__ (<
Ġ S
Ġ c
i le
or m
c e
( '
o d
m a
Ġre turn
m in
se r
se lf
j ect
ul t
al l
Ġ o
N G
" ),<
ab le
i l
Ġ as
Ġs up
d b
e l
m odels
( )<
G I
u n
me nt
ex t
l or
Ġ )<
> #
) .
Ġ b
t h
a ult
Ġ C
tr ib
it e
0 0
i st
" ,<
Ġ a
Ġf or
l o
S GI
at h
t o
i z
ro ject
en d
p p
Ġ M
con trib
Ġ D
u le
ac k
Ġsup er
od ule
f orm
Ġ #
` `
h o
pp Config
' <
s s
). __
p arent
ws gi
a y
Ġ d
( _
q ue
i f
Ġ edit
p t
i r
Ġ[ <
in gs
igration s
Ġ N
h is
p o
a ut
Ġ con
c ore
> """<
as gi
tt ings
at a
co m
Ġ n
Ġ from
Ġ on
tt p
r or
se t
co lor
Ġ is
ers ion
i al
I NG
Ġm odule
ode l
ie w
R e
on e
Ġ ex
Ġ w
Ġp ath
> __
ad min
t e
Ġ L
que st
Ġm odels
st r
h ttp
Ġf ile
o c
p at
u m
r c
Ġ de
S E
__ (
L E
re s
ter n
' )<
pl o
v e
= '
ie ws
se s
gi st
/ /
f ield
: //
gist er
age s
ic k
~ ~
Ġ P
ata base
Ġ F
b o
http s
ce pt
Ġt o
Ġ l
Ġ B
t ext
r ue
Ġ ]<
v ersion
o s
Ġ 2
v er
en v
u ser
"" "
" )<
in t
Ġm igrations
ion s
W SGI
s p
Ġ (
ial iz
ma il
. _
y s
se ttings
Ġ """<
p roject
Ġo s
E r
def ault
' ,<
i p
h er
Ġt his
Ġ ):<
in e
t a
ir on
Ġdef ault
Ġv ar
er ation
ur l
Ġse e
/ <
env iron
al ue
ho w
lo g
re quest
rc Validator
all able
v el
h t
app s
Ġ u
and l
Er ror
u b
le vel
oc s
A ppConfig
l at
c h
o ur
Ġ ``
p ar
Ġ G
at ic
ĠA ppConfig
l a
at u
l ate
A NG
Ġcon fig
T T
J ANG
JANG O
ĠN O
ic en
c k
ie s
Ġvar i
Ġv iews
s ite
Ġ Re
Ġvari able
Ġc allable
plo y
mp late
O D
po ses
set default
D JANGO
i x
o m
d ocs
O R
Ġ op
F or
Q A
ĠNO QA
Ġp roject
Ġm ore
de ploy
deploy ment
c al
ig n
iz e
M OD
A d
`` .<
aut h
form ation
Ġin formation
Ġex poses
b ar
e atu
se d
U LE
ING S
TT INGS
SE TTINGS
MOD ULE
he ck
Ġs ys
ar e
I t
eatu res
aut o
django project
o l
Ġname d
how to
pat tern
en g
i me
re gister
( )
S er
an s
h ar
d er
m and
q u
' ),<
i ve
Ġo f
i re
eration s
0 2
o k
Ġ r
Ġ O
r app
Ġ I
Ġ or
f ile
Ġ U
Ġ -
pattern s
bo se
ack end
A ut
n c
Ġ st
me ss
Ġ """
p re
Ġv er
Ġver bose
e c
r ay
andl er
Ġ[ "
color bar
ur ls
q l
s c
e t
p en
Ġ ),<
ializ er
at ed
Ġp ass
E R
url patterns
o lor
M odel
o ut
icen se
ac he
z y
eng th
o u
her e
o Field
l ength
e s
T rue
ma x
Ġ if
Ġ and
Ġm odel
p ort
ig ht
on t
v iew
Aut oField
ire ct
har Field
Ġ WSGI
Ġ {
m igrations
Ser ializer
Ġ h
S S
b er
a m
pen de
d le
e st
__ ,
cal c
Ġ H
a x
Ġf ield
m ar
cept ion
O N
r ight
um ber
D E
rapp er
Ġ admin
op y
T ext
er y
Ad min
olor Validator
y th
0 1
" :
Ġ" __
Ġ. _
m o
Ġ ("
er ror
Ġ 1
mess ages
pende nc
p ro
Ġ y
Ġ co
ĠM igration
opy right
M igration
C H
e mail
pendenc ies
yp ing
Ġop erations
Ġb y
our ce
Ġde pendencies
~~ ~~
C harField
Ġn ot
Ġ str
Ġre lat
B ase
CH E
Ġt yping
ĠD atabase
F eatures
en er
ĠA SGI
yth on
al se
Ġse ttings
Ġ 0
# #
Ġv alue
n one
b ackend
__ ,<
Ġin t
la zy
M E
id dle
ar t
w are
V iew
Ġ <
ion al
P E
Ġ ('
Ġ E
it le
m ap
A G
iddle ware
C K
ign al
t ick
ĠT rue
p ath
tr ans
file s
at tr
ĠB ase
CHE CK
ĠN one
backend s
B ig
or y
D atabase
Big AutoField
k e
i ent
i m
form s
ar ray
Ġc heck
s rcValidator
Ġp ip
ER R
ERR OR
Y PE
com mand
l as
f ont
k er
qu ery
con f
o le
J S
l ine
JS ON
v ed
ĠT his
" ]<
a g
T E
ĠT YPE
CHECK ING
. """<
d ate
te mplate
N umber
t ent
Ġrelat ive
ĠD jango
in d
> ]<
p er
Ġ- >
Ġse t
L T
l ab
S T
__ ",<
l ation
re ate
lo ad
I n
par se
e mplate
trans lation
Ġget text
el se
un ct
d is
ĠS e
O p
C E
Ġ_ <
an t
ac e
A SGI
Ġ_ ("
g is
Q L
tr y
B U
u re
ĠS ignal
Number Validator
o w
u de
s ql
atic files
p ut
Ġ `
/ ',
m l
4 0
A U
is s
d ir
S tr
f o
f ix
Ġh as
k en
Ġ (<
x ception
s y
il ter
t itle
Str ing
Ġ un
ect ion
te st
Ġsup port
C olorValidator
o ls
Ġse r
at ter
w or
Ġb e
v iews
v alue
sc atter
F AU
Ġp ro
FAU LT
Ġ 3
n e
A l
Ġ R
it h
> )<
H andler
l ib
f r
r i
ap i
de x
ad d
mar ker
lab el
ma in
F orm
C I
b ject
} <
field s
plo ad
S QL
ie d
Ġm in
l an
m odule
Ġ e
r int
d u
Ġ2 02
ar n
Ġ +
L S
ex cept
d ist
S D
i de
a ct
tern al
Al ter
I D
i ly
Ġt h
form at
or g
Ġset up
le ct
Ġ it
mo ved
t y
l ay
P I
st e
c ode
00 0
Ġy our
ou s
Ġp ack
p ack
ĠF alse
Alter Field
Ġm a
C l
s h
auth or
h andler
ar g
" ]
n y
() )<
ĠG ener
in ter
t ime
Ġ an
W rapper
e g
ializ ers
app end
o me
A L
Ġ |
BU G
s r
to ken
y SQL
om mand
Ġ here
S rcValidator
F ile
u st
m s
Ġ class
ut e
Ġu sed
ind ers
ht ml
s on
- .
in fo
ul l
> @
cl ude
to ols
get attr
un c
he ma
op t
Ġv iew
Ġf orm
Ġsupport s
P o
ac le
f ace
ta ils
N one
c heck
end er
Ġl ist
error s
sp ection
T he
s ize
ĠS t
le ment
id th
po st
s ource
ro spection
ri pt
ic i
ap ter
n d
Ġre gister
AG E
arn ing
T I
Ġt r
q d
Ġn o
st ant
colorbar s
Ġ[ ]<
ĠM ySQL
log in
lay out
t ro
lan k
u sp
f qd
ici ous
usp icious
fqd n
Ġ= =
u g
Ġd ist
Ġ imp
Ġ W
ang e
c ation
ize Validator
ĠO r
o g
i se
que ue
Ġ. -.
Ġ` -
ite m
tro l
con tent
ole an
Ġu pload
C ommand
( ):<
E mail
ĠU ser
' :
o olean
ss ion
am ily
las t
DE FAULT
Ġ g
Ġth at
al ter
Ġr ender
D e
JSON Field
' s
if i
Q ue
Ġ" ._
p age
Ġp rint
S e
ro up
Ġf unct
Ġ 4
Model Admin
N D
U ser
int s
F O
I nt
du ct
ĠGener ated
a gs
id get
ce ss
ĠL icense
Ġm ax
) )<
r ray
sr f
le te
S t
a f
. "<
Ġ V
Ġ https
he l
l ic
Ġ app
Cl ient
Ġvalue s
ax is
wor k
st aticfiles
DE BUG
Ġ are
c op
Ġp re
ho ver
Ġv ersion
Ġ202 2
T est
Ġ{ <
E O
Op eration
f inders
uspicious Operation
v id
sy cop
sycop g
ĠG EO
pt ional
Ġde tails
p yp
set up
Ġt emplate
ĠM e
or ator
ame work
R L
d it
str ing
String Validator
ĠB SD
ĠDatabase Features
s rc
er t
ut ure
in dex
ĠOr acle
l lect
pl e
A R
ĠL I
d irect
Ġ log
up date
Ġdist utils
Que ue
p y
f la
i a
Ġ 7
v alid
Ġt est
n s
end or
m iss
Ġt ime
ut ion
s Config
v endor
Ġr un
A S
ĠA ny
ir st
># <
w rapper
ho me
dit or
ur r
N A
c hema
Ġ args
Ġd ate
E ditor
Ġun der
. __
S ite
ub lic
import ers
Ġ %
Ġco llect
u ment
fla gs
Ġin ter
sp ec
ĠP ro
ar d
pat ch
ĠC opyright
it y
P ro
chema Editor
pl it
ult i
Ġre quest
ue s
h ed
fr amework
E n
M P
an age
ĠO ptional
l ist
un d
Database Features
P D
Ġ[" ._
j son
or age
Ġin clude
~~~~ ~~~~
pre fix
Ġex cept
L ist
40 4
ar y
c srf
f lat
l ied
edit s
C ase
C CE
m iddleware
Ġre st
5 0
urr ent
co l
CCE SS
s ol
Ġd o
an ce
M iddleware
T ick
U CCESS
stant s
B oolean
ed irect
Ġp ublic
f eatures
V E
ad er
Ġ[ ]
Ġp y
Ġl a
color Validator
T ime
ĠD E
o st
Ġs c
LE VE
SS AGE
ME SSAGE
Ġs ql
ĠT ick
andl ers
LEVE LS
T his
h andlers
ĠS PD
ĠSPD X
Ġ" <
CI Text
y le
Ġma in
N ING
or der
(' ',
pre cation
st yle
Ġsql parse
ĠĠĠĠ ĠĠĠĠĠĠĠĠĠĠĠ
value s
v is
Ġb o
r ib
z ip
Ġu se
ĠRe moved
ste m
N SE
ic h
Ġst atic
in ternal
bject s
or s
s Validator
ic t
CE NSE
Test Case
af e
00 1
i o
ĠLI CENSE
p ache
ĠRe turn
Ġd irect
ke y
c opyright
l icense
ta il
it er
um er
ick le
sh ort
to col
ut h
Ġp ython
Ġw ith
A TE
2 02
F alse
as y
per miss
S I
c ut
mp ty
ust om
ate Time
Ġn ull
Ġs ub
ĠC olorValidator
ĠSe e
pl ay
ateTime Field
O M
Ġ cl
rib ution
W arning
st all
pack ages
ĠT ext
od o
po l
il l
Ġb lank
g roup
ĠMe ta
Ġ command
ut il
Ġcollect ions
Ġdefault s
vid er
on se
Ġ load
D I
Ġinter face
Ġ. .
Ġ2 00
s ub
mess age
init ial
Ġcon n
dis patch
ĠC reate
Ġr a
ap sed
Ġop t
el apsed
short cut
ĠĠĠĠ ĠĠĠĠ
in put
s g
Ġm sg
c orator
ser ializers
f unc
N ame
Ġimp lement
q a
Ġno qa
s ole
ate g
shortcut s
I N
m y
Ad apter
) ,
ang es
Ġis s
le ase
oc k
in der
v en
Ġcon text
ome try
Ġ K
U ID
Ġre ad
w ine
Ġ arg
ĠS ite
user name
Command Error
ĠRemoved CommandError
Ġbo ol
Ser ver
Ġst aticfiles
Ġsc ript
s up
Con trol
U N
00 01
Ġ add
ĠT he
dis play
vis ion
AR NING
Ġra ise
MP L
Ġ me
ĠC ache
u ple
() ,
Boolean Validator
ĠSt atic
Ġn e
Ġon ly
( *
o ader
Ġ Error
MPL ATE
S et
ive Server
eg g
iveServer TestCase
res ource
Ġla zy
Ġpack age
2 7
S uspiciousOperation
JSON Serializer
L D
f unct
Ġc h
anage ment
Ġw here
p tr
inter Base
Po interBase
Ġb dist
ĠC I
Ġ gi
Ġdate time
Ġgi ven
ac hed
Ġ{ "
Ġin ternal
C ache
L O
Ġw h
' t
Ġp ar
Ġ Con
Ġre lease
ab sol
absol ute
f ilter
Ð µ
Ð ¾
b ug
Ġ at
Ġfield s
2 5
f f
Ġ* <
cal e
opt im
f uture
od ay
ĠL ist
idth Validator
Ġ email
. %
C opyright
Ġser ializers
set s
## ##
mp ort
e y
ĠU RL
ĠRe gister
og r
ro ut
Ġhas her
u se
} ),<
Ð °
po ints
g ing
Ġ }<
Ġw as
mo ve
N O
d ata
pack age
mport Error
y e
Ġor ig
n ot
0 7
ar ch
ment s
par ser
ser t
ock et
E xception
> ]
Ð ¸
Ġ query
pyp i
Ġimport lib
ĠA PI
en ce
Ġdo es
ĠA pache
GI SS
Ġy ou
ĠDatabase Wrapper
Database Wrapper
Op erations
Int rospection
Ġdirect ory
GISS chemaEditor
sup port
content s
V ER
Ġ elapsed
o ok
Ġ array
as k
ĠH ttp
il t
Email Field
ic e
u nt
Ġc har
u ilt
Ġl icense
2 8
Ġsetup tools
T H
p ages
mar y
ĠI mportError
Ġtr y
a mp
a ve
al s
B ackend
Ġl en
Ġ hel
u al
a ke
Ġ id
request s
sp onse
st ore
* -
ent r
ickle Serializer
A rray
O r
Ñ Ĥ
ĠP ython
S izeValidator
Ġ else
it z
ĠS izeValidator
View Set
ne th
Ġ`- '
Ġ- *-
ert ifi
o ver
Ġp art
ic ode
except ions
S ub
R E
Ġpro tocol
v o
N T
W idget
Ġ[ '
' ]
hover label
as ses
Ġ absolute
w here
Ġpack ages
resource s
icen sed
ĠT ype
ĠI n
ge o
ib le
d ing
f er
de lete
le g
pat ial
Ġco mp
Ġ2 01
template s
b log
Ġa uth
ĠF ile
st orage
Ġfunct ion
ĠE mail
' )
Ġse nd
00 02
n ow
Ġcheck s
Ġo ut
Ġimplement ation
ĠG e
ap s
u ld
s um
Ġread y
T ype
" )
ĠP y
ho uld
bo x
Ġe mpty
Ġ urlpatterns
ated Validator
En umer
permiss ion
Enumer atedValidator
d atabase
Ġex ec
1 50
n o
B B
Ġ errors
A LE
ch or
Ġ @
Ġ user
S UCCESS
e b
Ġ[] ,
Ġcon tent
pre ter
Ġit er
T ags
ok en
sql ite
nt ifi
de tail
D ata
ms g
eng ine
ss ions
Ġb ut
dir s
asy nc
c ache
ĠM ulti
Ġvar y
inter preter
flat pages
In valid
ĠI N
ĠCache Control
' ]<
Ġt ype
vo id
d o
Ġf inder
Ġstr ing
ste ad
C la
to ur
1 2
Cla use
Ġse ssion
ex ception
ad apter
i gs
ag ment
L iveServerTestCase
g zip
sc ript
con stants
TE MPLATE
um an
conf igs
f irst
op en
ĠR edirect
co mp
nd ication
ĠStatic File
Ġiss ues
T AG
f amily
co unt
ne w
fr agment
Ġde corator
qu ence
uman ize
TAG S
B SD
g res
con tour
SE xception
ĠG D
ĠGEO S
ĠGEO SException
Ġp k
) .<
Ġout put
re ad
Ġc an
u mp
x t
ut able
post gres
( ).
ic le
setup tools
b in
Ġ Y
Ġre moved
ĠDE FAULT
ateg ory
ate ment
plit ter
re e
K ey
s u
in k
Ġ Ð
po s
te s
g ments
i ld
Ġ base
) "<
Ġ \
Ġcl asses
Text Field
re direct
ur i
"] ),<
las h
] )
Database Client
ĠN ot
P ar
Ġ all
st atic
h ist
ĠA rray
s lash
leg end
p k
par ate
D jango
Ġt oday
l en
rapp ed
Ġpk g
K E
in al
an ag
Array Validator
Ġ item
3 2
c ar
app ing
and le
re ated
OR S
pos it
b ack
ro ot
ogr am
ĠP ost
m d
40 3
pro duct
Data ArrayValidator
Ġform s
sum mary
/ ",
ab out
Ġform at
NA ME
__ <
U TH
ĠA UTH
hist ogram
ix in
KE Y
ĠT r
anag er
s afe
u ild
Ġcon sole
A ny
pro per
uilt in
ĠAUTH ORS
o bjects
Re sponse
( __
r ange
4 01
Ġse arch
eg er
ĠT o
opt ions
o ints
script ion
Ġ message
m ode
s ign
p et
proper ty
A PI
I de
4 9
r up
Ġ X
imp lied
st op
ec ode
Ġimp lied
ct ion
Ġg ener
Int eger
rup t
ith ub
g ithub
trib ute
v ent
w idget
Ġ >
OM LD
ecode Error
OMLD ecodeError
ntifi er
on ly
s l
Ġ' __
ST A
Ġd i
con fig
format stop
type s
Ġd on
b lank
D ateTimeField
d ict
rout er
Ġ ac
Ide ntifier
a ix
Ġde bug
b j
ac ity
amily Validator
I mp
check s
Imp lement
I T
ĠF or
v ide
L icense
E x
g er
Ġn umber
p rint
File Copyright
FileCopyright Text
Ġ lo
P ython
car pet
C reate
Q u
precation Warning
ĠL ar
ta in
con trol
Ġon e
Ġwh en
Ġrelat ed
st ance
ul ar
Er ic
ĠLar son
ext end
Ġdi vision
P ickleSerializer
Ġ al
[ '
"] ,<
Ð¾ Ð
De precationWarning
ĠHttp Response
M ixin
T o
cl ient
Ġst ack
do main
) (
2 2
en code
Ġs ix
u s
sy stem
y stem
at ch
p ip
ĠA d
alid ation
Ġf ilter
TI C
Ġopt ions
re a
re ss
is ible
ĠC A
c reate
ĠD ist
pol ar
Ġm ay
iss ues
V I
Ġm anagement
v al
Ñ Ģ
7 49
l er
ic ate
th od
ĠV ersion
Ġin stall
Ġname pre
ude nt
Ġnamepre p
un dle
0 8
> }<
able s
b y
o und
Ġadd it
Ad d
SI ON
# <
Ġ Queue
site map
Re quest
Any Validator
Ġm o
or ig
0 4
tt ing
P Y
en neth
ĠD e
ĠRe itz
Ġ| -
27 28
Ġaddit ional
Ġb undle
de d
S patial
Ġ :
ed Error
Ġscript s
Spatial Features
Ġd is
ot her
bo ol
Ġm ust
. .
ge d
yp oints
ex ec
pyp a
Ġne w
entr ypoints
749 8
U ND
(" -
user s
wor d
Se ssion
Qu ery
and om
Ġo ld
FO UND
m ys
Ġas sert
ĠT ags
Ġarg parse
widget s
SE R
ye ar
n ion
ut f
o ld
s ide
bo ok
Ġbe en
St ack
k ing
ĠNot Implement
ĠNotImplement edError
hel lo
u sed
ut ors
Ġs ource
sitemap s
Ġpro vide
c urrent
map box
se e
r ich
ex tr
cale Validator
r a
w ist
environ ment
pro cess
BU I
5 00
Ġ" %
ME NT
Ġrelease d
K T
able d
Ġs ocket
KT Adapter
M e
Y ou
c her
de t
site s
Ġp ost
Ġt ar
pat cher
ional ly
ĠD is
um my
Ġo bjects
oc ument
ow ed
o bject
Ġ ho
Ġ contrib
Ġcomp lete
Ġcontrib utors
U UID
pl at
v ing
Ġ root
Ġt er
R A
on th
U RL
- -
i que
de n
Ġin dex
ect s
Site map
ĠPro duct
Ġc ase
ect ions
wist ed
Ġter ms
> /',
R edirect
un ce
Ġun icode
no unce
ĠD O
ĠW ARNING
f ore
t wine
er ly
in stead
an nounce
ic al
Ġt wine
Form erly
ĠPy PI
A F
LO W
t he
Ġ level
Ġs ide
A T
Ġe ff
Ġeff ects
i as
Ġbe fore
Ġv ia
ite map
log ged
AL LOW
25 5
ĠC allable
F R
l icen
Ġre posit
Ġd ual
Ġl icensed
ch ard
sc hema
ST OR
lan chard
Ġchar det
Type s
Ġreposit ory
Ġw r
geo json
licen ses
STOR AGE
ĠN ame
Ġp as
ĠDE BUG
L oader
ĠP o
AF E
p sycopg
Ġfunct ions
flat page
ur face
ib r
Ġtar get
Email Backend
Ġpre fix
IN FO
GI S
Ġd atabase
ĠK M
(' <
Z ip
ĠM iddleware
qu ire
ĠU UID
c it
w idth
Ġ OR
all owed
ĠU nion
Cl ass
Ġpas sed
C A
Z Sitemap
c ertifi
Ġf inders
Ġl ine
text font
LS itemap
extr as
F unc
re d
ĠC harField
ĠC ached
ĠL oader
ia L
D ns
T emplate
W ARNING
s Handler
y ndication
get fqdn
ĠS uspiciousOperation
ĠS afe
ĠWSGI Handler
AG MENT
ĠBase JSONSerializer
Ġconn ections
Ġsend ing
ĠGe ometry
ĠIN FO
ĠStaticFile sHandler
system Loader
ĠDis allowed
FR AGMENT
Zip Middleware
ĠCached Dns
ĠDisallowed ModelAdmin
ĠCachedDns Name
u pload
ĠD ateTimeField
ages Config
redirect s
ĠUUID Field
C PointerBase
K M
g on
Ġ ERROR
ly gon
ĠS pat
ĠS UCCESS
ĠC PointerBase
ĠP sycopg
int Field
ine String
ĠMySQL Operations
ĠMySQL Introspection
ĠMySQL GISSchemaEditor
ance Field
ALE xception
ĠMulti Po
ĠGD ALException
rea Field
iaL ite
lygon Field
ĠSpat iaLite
ineString Field
S AFE
ve s
Ġauth ors
cit ext
m age
Ġf uture
ĠText Field
Ġ202 1
ĠEmail Field
VER SION
t ask
Ġ utf
con text
im age
en s
ĠC ustom
Ġma king
plat form
Ġp sycopg
and as
void s
Ġch anges
S plitter
sql parse
ilter Stack
Ġ200 9
open source
atement Splitter
ĠT emplate
c ing
ĠA voids
ver se
Ġco ding
ĠSe quence
Ġexec utable
Ġmo ves
Ġhas attr
1 00
' :<
202 0
ĠDatabase Client
Ġ{ }),<
in stance
Ġp r
tick formatstop
" :<
Ġ home
Ġm onth
Ġc urrent
ĠO pen
l iter
liter als
ss rcValidator
N C
in stall
Ġp un
Ġd ay
a v
y code
Ġcon tain
ĠASGI Handler
Add Field
Ġdatabase s
ĠSafe String
Ġpun ycode
de scription
funct ional
m on
s ave
con n
AS Y
Ġb ackend
SI TE
4 00
id Validator
Aut h
Ġ[] ,<
n ull
iss ing
Ġ JSONField
Ġs p
d s
p ython
UN SAFE
ASY NC
int rospection
F ont
ad Request
Ġw rapped
uiltin JSONField
s hould
Ġ other
Ġpar ser
rupt ed
Ġwr aps
me thod
Ġm issing
olor srcValidator
las ses
e ls
Ġp andas
c ls
imp le
amp le
m odel
Model Serializer
ĠPro vider
ex it
Ġsub process
g ener
Ġc ode
i ated
op erations
rapp ers
Pro vider
on g
Ġt op
ĠT odo
ST U
Ġ url
Ġin stant
ĠC lasses
TI LS
STU TILS
. ",<
> """
Ġinstant iated
Ġf eatures
] ]
ĠS chemaEditor
__( ).<
Ġop s
Ġint rospection
ĠSchemaEditor Class
ĠM apping
Ġw or
pro du
ame ter
__ ":<
if y
t odo
Ġo ver
Ð° Ð
ĠC om
1 1
g l
Ġt itle
', '
w idthValidator
ignal s
g color
In ter
s ys
Ñ ģ
Ġget attr
T oken
an y
sl ug
1 0
c md
n el
act ion
Ġtr ans
st art
en e
Ġf ound
ign ore
format Validator
Ġhas h
" ):<
E P
b dist
ĠF ont
os name
T r
202 2
A n
Ġ1 0
Ġc reate
d ig
ĠP EP
Ġsp ec
command s
Ðµ Ð
st name
Ġst art
Ġch ange
g r
Ġex ception
load s
Ġpy test
ameter s
sub ject
an chor
ĠArray Field
Ġf irst
t xt
pro file
Ġ x
ut or
mar k
ĠBase PickleSerializer
Sub query
[ "
Ġ-*- <
Ġfile s
Ġ" _
tern ary
ĠOracle Operations
ĠOracle Introspection
ĠOracle GISSchemaEditor
lo cal
000 4
Text Validator
ĠText Validator
s how
ĠA r
dist ribution
ump y
m anagement
re move
ta ct
A NA
Ġname sp
Ġw ay
Ġorig inal
i ver
u sh
1 7
or ies
ac es
"] )<
p r
Ġ j
ĠB ook
T uple
T OMLDecodeError
f un
Ġis instance
ow n
Ġun ique
er i
d i
Ġpre ser
re am
Ġo bject
Par se
A r
d oc
d Tuple
p ad
V ar
ĠGener ator
im er
Ġhash lib
g ion
w eb
an k
he at
log ging
points Validator
Ġu s
__ .
Ġo bj
ne ss
> _
c cess
Ġ 5
Ġex ist
acity Validator
fun nel
D ist
Ġquery set
0 6
n p
Ġ ge
() ),<
000 5
Ġw e
LE S
H over
__ ':<
te m
ĠH over
# !
ĠM ar
permiss ions
') ),<
ot e
ot o
Integer Field
ur s
Ġb oolean
code c
ĠType Var
c le
ta gs
Ġlo cation
{ '
Ġn on
> ',
re ation
R out
Re source
( "<
L og
w ay
Ġpy gments
X X
re st
TT P
. *
I d
ap h
Po st
heat map
G E
u id
Ġ util
in clude
ializ e
h one
mp lo
en abled
sc ene
ST Y
direct ory
order color
U n
STY LES
T U
g colorValidator
er ies
ĠThe me
Ġ+ =
Ġ201 5
N U
s ocket
Ġ Eric
ce iver
A x
o ols
o ple
Ġ key
Ġs o
by tes
3 7
Ġ' <
"" ,
p i
re turn
ur ation
reation Form
as t
not ation
a in
u sr
w n
ĠE n
Ġchar act
f fix
k now
ass word
Ġser ialize
Ġby tes
ĠAd min
#! /
t tribute
s plit
is hed
Ġc ertifi
Rout er
' ).
Ġcontent s
ip e
mplo ye
de l
LE D
ick ness
module s
quire d
Ġ J
st ream
re t
re lat
w h
Ġs u
ab c
ocument ation
A pp
C reationForm
", )<
Ġ2 0
tick font
fer red
b uild
ĠT oken
know n
= =
f a
bo ard
c at
Ġ2 5
om l
ĠRe quest
Ġma ke
Ġtest s
( "",
P y
at tern
lo at
C heck
ĠO n
ĠA uth
u ct
ĠH el
u d
ĠE xception
Ġ. __
Ġn umpy
arg ument
as rcValidator
ĠC ommand
ag ma
Ġpr agma
Ġt ext
ore ign
Ġh andle
ĠDist ribution
[ :
tick s
Ġwith in
en co
Ġco ver
s umer
Ġhel p
alidation Error
> ~~~~~~~~
A P
D ec
c ustom
Ġreturn s
str act
oreign Key
in u
Ġs hould
ext ens
Ġload s
Ġn p
Ġ2 3
item name
et up
query set
h ing
AS CA
Par ser
F oreignKey
O U
f ault
Ġre direct
de corator
ize srcValidator
De tail
P RE
Ġh ave
ASCA DE
G e
{ }
ed ocs
th edocs
bo und
ĠH TTP
chor ople
read thedocs
su ffix
chorople th
Ġ ignore
de tails
ĠS how
Ġw ill
ĠL icensed
lab els
2 00
H I
L ay
x y
Ġc reated
atu s
C ol
F amilyValidator
ac count
ĠF amilyValidator
Model Form
S how
Ġ login
co der
Ġcl ient
Ġcontain ing
C ASCADE
g mail
de precation
ex p
text Validator
~~~~ ~~
CHE S
isible Validator
decorator s
st d
log out
AL I
M AT
r at
un known
N E
Ġ db
Ġimport ed
Ġc ache
Ġd ata
color s
Ġ1 9
Ġwh ich
o ws
ĠM IT
Ġst ill
ĠE xt
DI R
Ġexist s
ĠL ab
res ol
fer en
AP P
j o
ser ver
ĠB log
ire vision
m igr
s m
Ġc ore
ax pointsValidator
enco ding
r anges
od y
imp l
he x
Ġcharact ers
= [
tr ie
pol ls
init ion
Ġde code
Or der
BB BB
H e
Ġre feren
Ġw arning
ST AL
ang le
ĠT here
000 8
ĠW ind
migr ate
O K
â Ģ
Ġ encode
tr ies
ĠN o
ĠĠĠĠĠĠĠĠ ĠĠĠĠĠĠĠĠ
exec ute
C h
e mpty
as ter
ert if
Ġb uild
ok s
wor ld
ĠTr ans
NO T
Ġac cess
Ġwor k
Ġ error
de bug
Ġo wn
Ax is
. ,
P age
S M
f or
Ġa ction
ĠM odule
TI ME
STA TIC
ertif icate
h store
le y
json b
(* *
Ġpreser ved
Ġreferen cing
D is
Ġiss ue
legend group
Me ss
ibr ary
Ġm anage
ĠA ttribute
CI I
AS CII
s ix
lect ed
STAL LED
I mage
P roject
un used
is c
Ġ{ '
Ġdist ribution
Ġ200 8
sm ith
C U
Ġ application
Ġre ceiver
if o
res ult
ĠV alidationError
entr y
su ccess
~~~~~~ <
d at
Ġdef inition
iz ation
ĠF lat
text srcValidator
lect ion
sign up
ĠWind ows
Ġde precation
ID NA
Ġfunct ools
ns ure
ĠTo Un
ĠTo ASCII
Ġutil ise
37 0
Ġmanage d
ĠToUn icode
- '
ro w
ĠA ns
ser ializer
ant s
Ġhel lo
22 9
TIC AL
N V
w r
Ġm od
ĠM S
Ġadd ress
move s
Ġ201 3
>~~~~~~~~ ~~~~~~<
L Y
Ġp attern
ag ing
content types
urs or
inu x
Lay ers
c ert
c reated
f in
u k
Ġse parate
ĠS QL
ĠL ifo
A pache
] ,
Ġ queue
Ġ âĢ
it ho
Ġc ertificate
## #
"] ,
ĠW KTAdapter
Ġne ed
postgres ql
ĠRequest s
Layers Widget
itho ut
- .<
. `
. |
> /
> ",
K enneth
M L
` .`
c ake
q size
or ical
de que
re itz
Ġ_ ):<
Ġ. -.<
ĠL inux
um ans
ĠH umans
Ġstr ings
Ġ` -.
ken neth
Ġ| (
Ġ| .|
Ġ`- .<
Ġ`- '<
Ġ`- `.`
Ġconn ection
ĠK enneth
ĠIn ter
ĠLifo Queue
kenneth reitz
Ġ`-`.` -'
I f
c ategory
x axis
000 9
Ġpack aging
Ġpre ferred
package d
ĠIn valid
BUI LD
cert s
Ġseparate ly
ĠâĢ Ķ
g ument
Ġ color
on ent
se tting
an el
ĠT uple
Base SpatialFeatures
Ġint ent
ĠBase SpatialFeatures
IT Y
VI R
relat ed
l t
m isc
tr ue
pre c
Ġser ver
Ġintent ionally
0 3
W N
Ġ init
le t
st ack
Ġ" --
Ġop en
dist utils
ook up
APP S
K NO
ed is
ĠT est
ĠS etup
order colorValidator
UN KNO
ĠGe o
CU R
UNKNO WN
1 01
id den
act ive
Ġg roup
OU S
resol ver
ĠA g
load er
mys ite
PRE VI
l ink
if ied
ĠSetup tools
M ulti
Ġ Query
in en
as h
ĠB ack
ER S
scatter gl
Sub package
ALE NV
Ar gument
TU ALENV
Ġsu ch
MAT CHES
VIR TUALENV
PREVI OUS
Ġse tting
par ator
Ġprovide d
U P
a ma
m anager
Ġv isible
Ġin d
Ġas y
25 4
STA MP
Ġus ing
TIME STAMP
Argument Parser
E T
f inder
ch ang
ans it
Ġsub modules
ĠCon trib
bin ary
way s
aph y
N S
Ġd eri
eg end
Ġ api
Ġp ages
Ġtemplate s
fault Router
S F
W in
c er
Ġm ys
Ġw ithout
Ġat tribute
ĠAttribute Error
Ġse con
ĠM odel
`` ,
`` <
Ġis n
res p
ĠP SF
Ġu ses
andl ing
Ġh andling
ty le
ree ment
cle ar
Col lection
Ġdeprecation s
ĠAg reement
ĠSetuptools DeprecationWarning
ĠContrib utor
Ġderi ved
H ttp
as sert
Ġm ulti
Ġs ame
ĠS tyle
ile d
Ġl ong
ta g
mode Validator
ra w
Ġs h
ĠC ursor
funct ions
dig est
chang ed
1 4
i To
n der
on ath
Ġre init
ĠM ain
Ġde init
ĠF ore
ans i
ĠH art
ow in
Se e
initial ise
Integer Validator
control ler
ĠJ onath
ĠTrans action
ĠAns iTo
Ġcolor ama
ansit owin
ĠHart ley
ĠJonath an
ĠAnsiTo Win
P re
Ġst orage
Ġ3 0
Ġlog ging
ĠCon tent
ĠType Error
Ġj ust
edis Cache
) :
Ð »
ĠO SM
ome tries
amily srcValidator
VER TICAL
ĠOpen LayersWidget
mploye e
T ML
ch an
Ġby te
File Cache
Y Y
h andle
ad io
( ).__
L ookup
s urface
w arning
Ġ messages
Ġp ickle
con sumer
qu al
Ġpro cess
Ġme ant
LO OK
Ex ample
uct ure
Dis patcher
uk k
LOOK UP
i ke
ic kw
Ġt ags
Ġs ignals
ĠM A
DI T
anchor Validator
Ġasy nc
M atch
s ult
Ġ ap
er ed
ĠT anel
Ġc srf
(' .
el l
Ġa void
Ġex clude
par e
ĠH ukk
St atic
sol ver
wh ich
ĠTanel i
ĠHukk inen
p assword
v ice
ĠI f
ĠI ANA
Ġser ve
Ġbase d
Ġmys ite
u me
Ġ appl
se ction
ĠD an
Ġ als
se ssions
ig inal
ĠNO T
ĠH TML
Admin ist
Ġhel per
Ġdis patch
gener ic
start ed
impl ify
Ġals o
> :
M ySQL
se c
ĠD ummy
dis patcher
ĠR ange
act ions
fin ished
ro ss
Ġre trie
Ġv alidation
ĠT HI
qu eries
Ġme ans
mys ql
Axis Types
Ġind icate
clear AxisTypes
F lat
v ok
ĠT E
lo ws
ĠE DIT
001 1
{} "
ĠExt end
hex digest
t ree
al ly
Ġexcept ions
Ġsub packages
Ġal ias
Ġsecon ds
Ġappl ied
) ]<
2 0
A ND
M ake
d an
de pende
Ġp ur
ĠS ub
Ġb ump
Ġd own
Ġcon stants
ĠI T
Ġstr ucture
ĠE nsure
ĠR andom
Ġe asy
AL LY
valid ation
Ġdirect ories
Ġal ways
Ġretrie ving
ĠTHI S
depende nt
' .<
L ITY
M ap
[ -
b lanchard
g d
Ġ 40
Ġs implify
ĠT OMLDecodeError
ĠC urrent
ĠL ET
ĠB lanchard
ĠU TI
ĠLI NE
ĠSite map
ĠTr ie
Ġho stname
Tr ie
NU ALLY
fa iled
ALI Z
ĠMA NUALLY
ĠUTI LITY
Ġin dependent
ser ve
Ġw ell
ĠP ages
load ing
ĠCacheControl Adapter
Ġgener al
Ġac ross
ĠTE MPLATE
Ġpur poses
ALIZ ERS
D ummy
is m
opt s
ĠIN STALLED
exp onent
ĠInter face
1 8
> ',<
D ocs
I ALIZERS
U p
V S
h idden
Ġ append
er ic
ro ck
ion rock
Ġt ake
admin docs
trans actions
LT IN
Se ssions
Pro tocol
Cache Control
ĠCacheControl ler
SER IALIZERS
BUI LTIN
Ġnamesp aces
Ġcache control
S L
b gcolor
s patial
Ġ adapter
ang ular
Ġm igration
op acity
Con stants
Re verse
ĠF unc
Ġr adio
art icle
files ystem
ĠMe ss
safe string
RA ND
ĠKM ZSitemap
ĠKM LSitemap
ĠCom mon
spatial ite
C ustom
C VS
Ġm ode
form sets
Ġnot hing
Base DatabaseFeatures
Base EmailBackend
ĠBase DatabaseFeatures
ĠBase EmailBackend
Ġcheck ing
ĠSe parator
sy ndication
Ġregister ed
Ġg zip
Middleware Mixin
Ġload ing
Ġme chan
ĠEmail Backend
ĠStaticFile sConfig
ĠMiddleware Mixin
produ cer
Parse Error
ĠNo Reverse
Ġmod ified
Ġap art
Ġmechan ism
ĠNoReverse Match
) ),<
1 5
k ml
r aster
t oday
y axis
Ñ ı
con version
SE P
pro xy
Ġset s
In vok
ĠSe ssions
sign ing
ĠOR M
Ġge ometry
GE N
ĠOn ly
ĠHel per
Invok es
* ~
D NS
G ZipMiddleware
P agesConfig
S yndication
T oField
g ot
z ily
Ġ JSONSerializer
Ġ GIS
__ .__
Ġt amp
Ġs plit
Ġs lows
=" {}"
ĠA ND
ĠS uspicious
ĠS yndication
Ġas sets
ĠM aps
ĠD ocumentation
parent ly
ĠL iveServerTestCase
ĠP ickleSerializer
WSGI Handler
ĠG ZipMiddleware
ĠRe solver
Ġco uple
Ġser ving
File systemLoader
Site Middleware
Ġcollect static
csrf middleware
Ġrest art
Ġpy dispatch
Ġla zily
iter able
sub queries
Ġopt ionally
ĠSite Admin
ĠSite Map
ĠStatic LiveServerTestCase
rout ers
Ġquery string
Or iginal
ĠFile s
ĠFile systemLoader
Ġexec ution
Ġcontent types
Ġiter ables
Create s
Session Key
Template Command
ĠDisallowedModelAdmin Lookup
ĠDisallowedModelAdmin ToField
ĠTemplate Command
av ily
Ġover lay
Ġtrans parently
ĠAdmin Docs
Py Dispatcher
Dec orator
bound field
rat ive
He avily
ĠFlat PagesConfig
ĠInvalid SessionKey
CUR RE
ĠContent Types
Ġbyte array
Administ rative
Ġdispatch ing
ĠDummy DatabaseFeatures
ĠCurrent SiteMiddleware
Ġgzip s
ĠSessions Config
ĠGIS Config
Ġtamp ered
ĠSuspicious Session
ĠSyndication Config
csrfmiddleware token
ĠSiteMap sConfig
Original ly
ĠAdminDocs Config
A reaField
H umanize
L ineStringField
N ow
W KTAdapter
h umanize
o bj
t op
ge os
ge ometries
con form
ĠA reaField
ĠL ineStringField
ver ses
ĠH umanize
ĠBase Ge
SQL ite
AL Base
ĠMySQL DatabaseWrapper
ometry Widget
ĠMulti LineStringField
ĠRedirect Admin
ĠRedirect sConfig
ĠGD ALBase
ĠGEOS Base
ĠDist anceField
Redirect s
ĠPo intField
ĠPo lygonField
ĠGeometry Field
ĠGeometry Collection
KM ZSitemap
KM LSitemap
ĠMultiPo intField
ĠMultiPo lygonField
ĠSpatiaLite Client
ĠSpatiaLite Adapter
Dist anceField
Ġaccess ing
ĠTransaction Now
Pre pare
ĠOSM Widget
MySQL DatabaseWrapper
Ġindicate s
ĠRandom UUID
gd al
RAND OM
CURRE NT
ĠHumanize Config
ĠBaseGe ometryWidget
ĠGeometryCollection Field
Prepare Protocol
o f
} )<
ĠP ath
Ġimplement ed
return s
extens ion
po int
yth ing
ĠSe ssion
CI CharField
CI EmailField
CIText Field
ĠCI Text
ĠCI CharField
ĠCI EmailField
ĠCI TextField
save points
pad Validator
="{}" >',<
Ġ Z
ogr aphy
Ġthe y
F ilterStack
I TE
s plitter
st atement
Ġp o
Ġt e
ĠF ilterStack
cept ions
Base Serializer
ĠBase Serializer
ĠR anges
ĠSt atementSplitter
St atementSplitter
group ing
Ex ceptions
ĠSQL ParseError
Ġgroup ing
ĠRange Serializer
th ous
te ger
alue Validator
ou d
tick labels
parate thous
paratethous and
at er
AS H
ĠC ategory
ĠD JANGO
ss rc
color src
database s
act ory
Ġ environment
Ġin stead
ĠA P
th an
Ġ202 0
Ġde ploy
Ñ ĥ
al ias
Ġth an
Se quence
exec utable
SL ASH
M odule
t able
quest ion
lat er
ASGI Handler
ĠCustom User
w rapped
Ġ he
app Config
ĠMar k
resp onse
b ad
v ol
ic es
Ġs ystem
ĠL og
ĠF ilter
Ġw ants
Base DatabaseClient
ĠBase DatabaseClient
Boolean Field
di vid
B adRequest
] ,<
c ached
r ank
t ection
Ġin teger
Re name
ĠI nt
Pro duct
legendgroup title
z one
in f
ge x
Ġre quired
Ġs af
un safe
et y
Ġpro tection
Ġdis ables
.. .
Ġsaf ety
B uiltinJSONField
Ġl ast
ĠB uiltinJSONField
ou ld
Ġexclude d
tree map
] )<
} ,<
ge ography
Ġw ould
ĠB adRequest
PE ND
py test
Ġinter rupted
Ġdecorator s
Inter rupted
ĠSession Interrupted
" {
C olorsrcValidator
G et
\ \
v ote
ut line
ic er
ĠS ITE
ĠC olorsrcValidator
Ġn icer
max points
ide Validator
inter section
Log ger
Ġredirect ion
Image Field
ĠCommon Middleware
ĠAP PEND
ĠL ink
. '<
i v
t icle
ĠD I
are a
fo und
#### ####
vol ume
ĠDe faultRouter
M apping
c r
w rappers
Ñ Į
ar ies
ic icle
class method
is os
isos urface
out put
arg v
Ġan ything
DI STUTILS
Ġho oks
ĠDI STUTILS
Ġc ached
lo w
std lib
divid ual
W rappers
Ġ5 17
P os
w w
ĠF irst
Ġan notation
Ġannotation s
' \
Ġv alid
ĠT oml
and ard
product s
d raw
im al
ace back
at r
se lected
get Logger
Ġarg ument
c all
er miss
0 9
1 3
R O
or acle
ic s
scatter geo
St orage
Ġuser s
% (
- %
re c
den ied
sp ect
scatter polar
Pro file
v ie
st ion
('. ')<
Y PY
m er
0 5
2 01
D ate
b ot
ho ws
er e
it ies
min Validator
Ġst andard
Ġth ings
itemname Validator
' '
s un
3 0
b ordercolor
f ol
ur st
ĠO p
atr ix
op ied
Ġc opied
ome n
prec ated
b urst
h ickness
cl oud
bar polar
~~~~~~~~ ~~~~~~~~
Ġ19 9
Ġ 8
en ded
', )<
Ġa ix
Ġh ist
ĠPro file
O ST
U se
Ġ entry
me sh
ro om
Ġm y
atu re
array draw
scatter smith
arn ings
M any
ĠT ask
ers on
url conf
ub e
per i
w ith
ĠM YPY
text src
me n
ĠS ign
Ġl ibr
Que stion
Ð¸ Ð
Ġgener ated
Ġlibr aries
" }),<
con sole
sun burst
Ġt m
ect ed
il er
Ġy ield
us age
( [
9 04
b uilt
c auto
i k
~ <
par ameters
ag in
hover formatValidator
Ġpar ameters
irevision Validator
Order ed
Module s
inf os
F loat
__ ).
In dividual
test ing
back port
RA Y
pr ice
jo in
ĠInt ended
s plo
ent ication
scatter carpet
Mess ages
splo m
( %(
h int
t il
Ġ json
re moved
ap e
Ġex p
ĠI mage
AR RAY
sub query
ĠK ey
ĠArray Subquery
ĠSub query
Ġpo int
Ġhist orical
R UN
post s
API Resource
6 4
e p
r id
re en
Re turn
ĠI tem
am s
.* ",
M anager
} )
Ġ" *~
Ġ" .*",
ex tt
Ġb log
() "<
": ")<
Ġ"__ "<
ME DI
scatter ternary
000 3
acle DatabaseWrapper
ĠSt ack
ĠOracle DatabaseWrapper
Or acleDatabaseWrapper
Ġargument s
RUN NING
Ġ"*~ "]<
extt emplate
t ube
ĠT wisted
ĠA l
ine s
ĠUser CreationForm
stream tube
API View
] :<
test s
ĠSt udent
List View
optim ize
D ict
d contour
m atch
con e
able APIResource
str s
scatter pol
arg l
scatterpol argl
, '
m all
st udent
st atus
Ġm anager
account s
Ch ange
peri od
ĠH ome
produ cing
1 6
Ġre producing
tr aceback
("- "
ĠName dTuple
Detail View
MEDI A
im ization
': '
Ġopt imization
Name dTuple
Ġre verse
line ar
fol io
f t
Ġ1 000
ri mary
P ick
view sets
Ġdebug ging
angle Validator
Ġsh im
Ġte am
Change Form
Ġb uiltin
De f
funct ion
orm ally
ĠReturn s
Name Validator
ĠName Validator
context manager
cmd line
re dis
Ġs mall
f lt
Ġ ~~~~~~~~~~~~~~~~
tt y
ĠLog in
hickness Validator
Def ines
Ġpre vent
Ġcontext lib
) """<
v iron
con tact
ad ers
Ġw idth
In dex
Ġ200 6
til ities
ĠKey board
Ġ zip
on ical
Ġre gion
to ml
Inter rupt
ĠMess agesConfig
viron ment
onical ize
N ull
c ular
Ġin spect
ĠRe gion
ĠPy gments
ĠAr gs
ĠKeyboard Interrupt
R un
c an
t z
Ð ²
Ġ ],<
ir cular
ip ython
ĠU tilities
add Handler
py gments
result s
Ġhe ight
: .
F ilter
Ġ ,
Ġp ick
Ġt imer
Op acityValidator
scatter mapbox
ĠOp acityValidator
Ġ~~~~~~~~~~~~~~~~ ~<
P ush
Ñ ĭ
Ġc ircular
par t
pre tty
Ġsc reen
ĠFile Cache
the me
Null Handler
B ody
T imer
] ):<
se nder
Ġp ush
cl ature
ct angular
Ġre ctangular
). """<
Ġn omen
max Validator
ĠR edisCache
Tick val
ĠTick val
style s
ĠCon sole
context lib
Ġnomen clature
or d
in ary
In line
ĠÐ ¿
parate Body
... )<
parateBody FileCache
Re move
Ġser ializer
ĠCom ment
s ignals
Ġ i
pl ace
Ġ' )]<
ĠN ormally
Ġ( ...)<
tick Validator
date time
ĠOr der
prefix Validator
len Validator
Page View
ickw idthValidator
c count
f ill
w e
me t
agin ation
B gcolorValidator
' ),
M ar
ĉ ĉ
ĠRe source
contour carpet
abled Validator
gcolor srcValidator
suffix Validator
cat s
2 6
W idthValidator
[ ']
b stract
e mp
s an
or ds
as rc
ĠW idthValidator
ere f
f all
' ))<
I tem
tick sValidator
ĠRemoved In
exponent Validator
ater fall
s imple
202 1
ĠRemovedIn Django
O ptional
X Validator
[ [
e vent
de v
ĠB gcolorValidator
Ġstr ipe
ient ation
Ġ.. .
ĠX Validator
Ġexp ected
Remove Field
= {'
] ])
n er
v i
vis ible
H el
m idValidator
auto Validator
ĠAr ticle
verses caleValidator
san key
00 00
com mon
Y Validator
l ug
min u
ĠR E
ĠY Validator
com ment
Rename Field
C T
ĠM atrix
ĠUser sConfig
axis Validator
orator ies
group Validator
Font Validator
ĠFont Validator
heatmap gl
ĠLab oratories
ticklabels Validator
paratethousand sValidator
2 1
F r
ut o
ĠBlog Config
> /",
it s
du mp
1 9
o mp
o om
in side
res h
L ine
S izesrcValidator
p h
w aterfall
de ns
ĠS imple
ĠS izesrcValidator
ho ice
et asrcValidator
tick mode
size src
data Validator
Ñģ ÑĤ
gr id
dat asrcValidator
dens ity
C ategory
ho stname
Ġw rapper
r un
re gex
ce it
ub l
fix up
En coder
O bject
V isibleValidator
a il
in exponentValidator
ĠI d
ste p
ĠV isibleValidator
P ath
a o
t ure
ĠP roject
our se
Ġre sult
and ing
De coder
Ġbase name
colors cale
density mapbox
e ed
al ign
M axpointsValidator
e qual
ic ator
ĠM axpointsValidator
ack age
Ġde scription
ign srcValidator
ĠAuth or
egend rank
egendrank Validator
Ġw arnings
a axis
b axis
co ords
choropleth mapbox
c ent
C ode
C olor
i pp
r andom
Ġ ide
lo gs
Ġw eb
Ġpro duct
wr ite
N ot
Ġr andom
Ġ /
ĠUser Admin
p ie
Re ader
par cats
out side
length srcValidator
ĠIn dex
comp ile
ordercolor srcValidator
Mar ker
B oto
o ff
ab stract
Ġl ike
ne ws
ÑĤ Ðµ
Date Field
dump s
m ber
base d
par coords
3 6
Ġm d
ser ies
ĠP ol
' },<
L ib
½ Ð¸
en c
le ad
st amp
he el
edit or
Ġ# ##
oc ial
02 27
Ġ1 4
call back
0227 01
A D
en ch
Ġtrans late
article s
U SER
at ing
Ġs ign
In put
Ġf l
dir name
B ordercolorValidator
yp to
ad ata
ĠA pp
ĠB ordercolorValidator
ol in
port folio
Ġ1 2
User Admin
order widthValidator
Token Validator
Ġnamesp ace
ĠToken Validator
== ==
Ġ199 6
f ind
Ġ ""
lo b
line s
Ġ http
gi str
ĠL ine
um n
F I
ĠA ccount
oc ation
ind icator
Ġ... ]<
he aders
ore Config
project s
Ġu uid
infos rcValidator
vi olin
C om
O T
n um
as ic
ĠE x
Hel lo
se arch
le d
ĠI D
c re
com men
ch at
3 8
F amilysrcValidator
th ickness
ĠC l
ĠF amilysrcValidator
ax es
template Validator
format s
ĠW eb
family src
XX XX
c ateg
ĠM y
auth token
ĠY YY
ĠYYY Y
y m
Ġt wisted
Ġre commen
com mer
ĠP ret
Ġversion s
ĠÐ ´
ĠAd d
=[ <
Ġrecommen ded
ĠPret end
I ANA
Ġ Config
ct ive
to m
Model ViewSet
Ġ4 40
ntifi ers
Parse Float
Ġide ntifiers
Ġp ermiss
ĠS er
Ġ[" .
hover template
colors caleValidator
n umber
__ '<
Ġt able
ho ices
not es
V alueValidator
k t
Ġt odo
ab el
B log
P OST
h l
Ġ1 6
a u
ur ity
Ġd j
Ġde precated
template srcValidator
label step
funnel area
utline colorValidator
bstract User
d j
t od
Ġ Question
ac y
el ery
Form at
Ð¾Ð ²
conn ect
commer ce
= ['
m b
p hone
Ġ Ñ
an notation
A pi
r f
s k
se nt
Ġ" +
ip es
book s
c ase
g ap
or n
en Validator
re f
ĠT OM
Ġl il
Ð° ÑĤ
legend Validator
bot tom
ĠTOM L
l i
v ies
ĠC ourse
Ġpar se
toml i
/ '},<
hover format
can onicalize
r ad
Ġpath lib
Aut o
ra int
c art
s n
al led
Create Model
Ġpr ice
ĠMar ker
hone Number
egend groupValidator
hows caleValidator
raint ree
B ook
u uid
In fo
ĠUser ChangeForm
Ġgener ate
T O
d ated
re q
lo cation
ay ment
time zone
not e
Me ta
] ),<
g le
Ġre sponse
Ġconfig uration
= {
> >
w arn
co ver
ĠN e
out line
attr s
t yping
Ġ en
ot str
sup er
comp at
SER VER
web site
ĠLogin ViewSet
otstr ap
2 3
Ð ½
de let
__ )<
ĠT ag
par am
TI ON
De lete
ĠV alueValidator
\ .
un ique
task s
ĠConfig uration
S ideValidator
Ġ q
ro p
ĠS ideValidator
ĠM o
filter s
ĠTemplate View
T oml
w t
ce l
str ict
Token Config
low er
G ener
it ys
up dated
eri od
Dist ribution
a z
ac h
Test s
vid ing
ĠSign up
ench mark
Ġ ar
Ġp rimary
Re ad
contour s
Ð¾Ð »
ientation Validator
minu sValidator
enc y
* *
] +
le ft
ed ia
ww w
RO OT
ceit a
' ):<
g en
Sub plot
Ð¾Ð ±
Up date
L ink
a ker
l int
Ġ routers
me ta
Ġ1 5
w kt
ar io
ac eref
sp ort
pro j
template itemname
-- --
Template itemnameValidator
ĠTemplate itemnameValidator
delet ion
F actory
i os
Ð ¿
Ġ image
dig its
( ),<
E L
d a
o se
ĠA pi
Ġo ur
ĠL ibrary
gle Validator
B A
O ne
S h
ls Config
Ġin stance
ĠCon tact
gener ator
' ^
. ',<
en modeValidator
ic ated
ĠC olor
Ġw idget
Ġor der
Ġst udent
quire ment
utline widthValidator
gistr ation
. ")<
ss l
Ġpass word
Ġ1 1
Ġ\ \
)( \\
? ?
U irevisionValidator
u irevision
ã ĥ
__ (_
(" ~
ĠU irevisionValidator
Ġ1 3
Ġrequest s
Ð¸ Ñģ
An gleValidator
ĠToml Ordered
Ordered Dict
ipp et
2 4
D o
E qual
F ill
e mployee
al og
ro s
it ion
ut om
Ġc re
to ol
ĠF ill
im ages
fer ence
link s
D type
st ick
ic orn
ĠA ctive
Re sult
Ġof f
'' '<
ĠSignup ViewSet
Ġauth or
sec urity
Code c
G roup
L ibrary
T wisted
c andle
j wt
cl asses
co ur
ĠC oreConfig
ver ter
ĠV alue
'] )<
To Many
candle stick
an sport
Ġp d
ĠS ec
Ġpro vider
Template View
cr ud
Many ToMany
ManyToMany Field
o hl
Ġf la
ĠA n
ser v
un icorn
ite ms
Ġd ict
Ġview sets
urr ency
comp any
posit ion
Ġ> >>
To ols
ÑĢ Ð°Ð
ohl c
d jang
k es
re quired
Ġp oints
ĠÐ ½
utor ial
ĠPol lsConfig
find all
$ ',
4 6
Ġ el
at t
Ġp age
is h
ho ol
Ġd type
sec ret
cent er
C O
r and
} )(\\
ã ģ
ĠĠĠĠ Ġ
le arning
st framework
Ġto ken
MOD EL
pro viding
Ġlo cale
W eb
o b
Ġf unc
ĠS eries
ver bose
auth entication
auto colorscale
ou nt
Ġbo ok
comp iler
Ġsign ing
d ash
id s
ac ao
ore stframework
bo otstrap
User s
T hicknessValidator
d flt
g re
s caleValidator
pl aces
ĠT hicknessValidator
un try
Ġd ocumentation
Ġd flt
## ",
## ",<
ĠOpen API
assert Equal
Subplot idValidator
djang orestframework
P H
T itle
l ack
l ight
v als
} ,
Ġ 6
ang u
ĠC h
am b
fr ont
ĠÐ ²
ĠNot e
hello app
ĠEn vironment
Com ment
f ull
__ ":
ot ive
env s
AU TH
sr id
En vironment
Ġq s
3 4
b um
b logs
f actory
t wisted
w in
__ __
Ġd ocument
ĠR oom
User CreationForm
Ġ201 9
]) [
Ġpreser ve
# ",<
G rid
Q U
t on
yp roject
all auth
ĠC ar
Ġmodule s
tick val
tick vals
### ",<
Tickval sValidator
Tickval ssrcValidator
ĠTickval sValidator
ĠTickval ssrcValidator
tickval ssrc
B ar
R edisCache
T odo
c m
c imal
e ded
", "
ĠSe parateBodyFileCache
lay er
Se parateBodyFileCache
Ġme thod
") ]<
ĠEn um
del ta
" ),
- ####
3 1
? )
J E
T ickwidthValidator
V alue
d tick
t ickw
ac itys
ĠT ickwidthValidator
bo ut
ĠI s
Ġst ore
dist s
idth srcValidator
us ic
honeNumber Provider
tickw idth
( .*
P ermiss
P ackage
a ur
d type
z er
ã Ĥ
ro und
hel l
Ðµ ÑĤ
Ġus age
met adata
ĠApi Config
/ %
m ore
m iddle
p ep
p ubl
Ġ kwargs
or ia
ent icated
Con f
ĠA B
ĠA uto
un it
if ication
tick color
tick format
tick len
add ress
000 6
En abledValidator
Tick colorValidator
Tick formatValidator
Tick lenValidator
ĠTick colorValidator
ĠTick formatValidator
ĠTick lenValidator
Ġcomp iler
ĠEn abledValidator
point cloud
JE CT
" [']
m ac
t i
it ive
ut c
tr a
ath er
En um
ĠSign Up
ĠHome PageView
['] ",
?) [']",
(.* ?)[']",
"['] (.*?)[']",
A ct
D tickValidator
E nd
N ticksValidator
O pen
n ect
Ġ" \
ĠT itle
nt ick
il ity
ĠD tickValidator
ĠN ticksValidator
ĠRe st
mo vie
tick text
tick prefix
tick suffix
tick textsrc
Tick textValidator
Tick textsrcValidator
Tick prefixValidator
Tick suffixValidator
ĠTick textValidator
ĠTick textsrcValidator
ĠTick prefixValidator
ĠTick suffixValidator
Ġ"" ]),<
Ġpermiss ions
labelstep Validator
ntick s
' .
/ "<
P h
s in
s ocial
id er
ot ics
ation s
Con verter
db otics
ĠC reated
Ġl abel
Ġ1 7
St udent
") ),<
BBBB BBBB
row dbotics
Run Python
Fr ame
lack list
z axis
re verses
Ġf ont
tr ic
Re versescaleValidator
ĠRe versescaleValidator
tick angle
Tick angleValidator
ĠTick angleValidator
Ð¾ ÑĢ
leg acy
config uration
Create View
Auth or
reverses cale
ver t
ĠE mployee
Ġpy lint
angu age
H OST
U pload
Z Validator
a ir
b asic
c he
Ñ ĩ
se paratethousand
de mo
Ġse nder
Ġf r
Ġ[ ("
ser vice
ĠC omp
Ġd ump
ĠL e
sp ace
OR E
ĠSe paratethousandsValidator
fix ture
ne ls
Se paratethousandsValidator
Tick font
Tick sValidator
ĠTick font
ĠTick sValidator
show ticklabels
ĠShow ticklabelsValidator
Show ticklabelsValidator
ĠZ Validator
separatethousand s
) )
P A
T YPE
h op
Ð º
Ġ $
re name
ur al
Ġ' %
ĠT ime
ĠN umber
im it
Ġne eded
Log in
ĠTest Case
ĠCl ient
Ġen um
B gcolorsrcValidator
M etasrcValidator
b order
pl ication
ĠM etasrcValidator
ho st
ĠB gcolorsrcValidator
ĠRe view
et ing
ĠH ist
Ġ1 8
ĠMeta Validator
ÑĢ ÐµÐ
ĠCustom dataValidator
ĠCustom datasrcValidator
custom data
custom dat
bgcolor src
Custom dataValidator
Custom datasrcValidator
met asrc
Meta Validator
Ġcre ating
customdat asrc
C omp
n ome
p erson
} }
Ġ pl
me tric
co llect
Ġst atus
SS SS
Ġg unicorn
ĠRE AD
Permiss ion
= ["
M inexponentValidator
U idValidator
e q
p rimary
__ '
re al
re port
Ġs sl
co me
min exponent
ĠM inexponentValidator
color axis
ĠU idValidator
ec a
af f
Tick formatstop
ĠTick formatstop
legend only
cr ypto
rec ipes
ĠSer vice
Act iv
. "
2 9
B JECT
w ik
Ġ extend
re view
Ġc ustom
=' ',
ĠO BJECT
Ġ1 0000
sy m
ff set
AT A
part ment
ĠAccount sConfig
ĠREAD ME
I s
L egendrankValidator
f loat
Ġ initial
id ssrc
Ġre c
Ġb raintree
ĠL egendrankValidator
ch ed
Text font
Ġco l
ĠE vent
Al ignsrcValidator
ĠV ER
ĠText font
legend rank
Id sValidator
Id ssrcValidator
ĠHel lo
ĠAl ignsrcValidator
ĠId sValidator
ĠId ssrcValidator
align src
/ {
< <
H E
P RO
w o
Ġ 50
ac her
up port
ĠS ystem
pt ions
sh op
time stamp
av or
let ed
ph oto
C RE
N B
b tain
b ody
m od
r l
name length
Ġ' '
un selected
ok up
Ġstr ict
sh ape
extens ions
exttemplate Validator
categ ories
ĠHist ory
f e
Ġ router
ĠĠĠĠ čĊ
ut ton
Ġp hone
ĠC ateg
ĠD ata
est ed
Alter Model
Ġan y
Ġcore api
( ?
B ordercolorsrcValidator
a i
g au
| \.
Ġ Ñģ
Ġre source
ing le
end a
Ġ# ####
Ġn um
ĠB ordercolorsrcValidator
ĠRe sponse
ol ine
ĠI ma
Ġ0 9
Name lengthsrcValidator
Ð¾Ð ´
ĠName lengthsrcValidator
Dec imal
bordercolor src
ĠMo vie
ĠSec ret
Ġfont Tools
NB it
namelength src
gau ge
G N
S lug
T ag
T ask
c hoices
m at
p plication
Ġ about
st alled
is dir
Ġ' \
ĠA bout
te ams
vel op
OD O
ol ist
Ġst ub
Ġ0 5
lib r
Mess age
we et
BA SE
cour se
Activ ator
, ##",
b a
b v
e asy
s v
Ñ Ĩ
se ssion
ar s
st anding
Ġp agination
Ġt ask
ial axis
ow Validator
posit ions
lected pointsValidator
rad ialaxis
aur ant
C ateg
O ptions
P agination
s cal
s hows
con t
ac cess
000 7
ĠUser Serializer
ĠUser Profile
ĠĠĠĠĠĠĠĠ ĠĠ
conn ection
cat alog
custom er
Rename Model
Float Field
ail able
$ <
5 8
B orderwidthValidator
C minValidator
C maxValidator
H ome
c min
c max
or ages
Ġre distribution
od is
ĠC minValidator
ĠC maxValidator
ĠL und
ĠF red
ĠB orderwidthValidator
ĠG rid
ri k
Ġ200 2
ĠAd ded
ĠLab s
jo b
Ġ199 7
tod os
Ġstudent s
Ġel t
border width
ĠIma ging
Slug Field
ĠLund h
ĠFred rik
( {
C hoice
P R
R ender
e lement
f time
r ender
Ġ View
ĠĠĠĠ ĠĠ
ar a
Ġa utom
lic t
PD ATE
Add ress
Ġcontain ed
ĠTodo Serializer
Ġurl conf
Ð» Ñı
Fr amework
½Ð¸ Ðµ
odis cover
C midValidator
C autoValidator
T e
X Converter
p ix
Ð ·
Ġ !
me mber
ap t
Ġc r
Ġc at
ĠC midValidator
ĠC autoValidator
ĠM edia
ĠG et
ĠG roup
TT XConverter
mo ot
Ġ1 00
fr action
hover infos
rea k
Hover infosrcValidator
ĠHover infosrcValidator
angular axis
Pos itive
student s
inside textfont
cm id
hoverinfos rc
) /
5 5
N ote
o auth
Ġ apps
Ġt a
ed Dict
str ings
str ftime
file name
off set
" /
6 7
M y
d one
g o
g round
i ma
s al
t exttemplate
ar r
Ġcon trol
ĠU PDATE
("- ",
web socket
Hover templateValidator
ĠHover templateValidator
Check s
Ge o
ĠĠĠĠĠĠĠĠĠĠĠĠĠĠĠĠ ĠĠĠĠĠĠĠĠĠĠĠĠĠĠĠĠ
201 9
Ġfr amework
Ġresource s
GN ORE
S imple
X OR
_ .
b u
b row
t uple
x es
y ect
pl ural
le x
ĠP ackage
url resolver
02 28
ok ie
ĠI GNORE
ĠU se
Ġadmin s
Ġformat s
ĠX OR
used for
Ġurl resolver
ĠOn Conf
pytest mark
ik es
Ġdump s
Ġ'' '<
0228 01
usedfor security
ĠOnConf lict
" ))<
5 9
X anchorValidator
n a
n ippet
x anchor
le arn
ut es
Ġa v
if t
mo vies
In stall
hover text
Ġlog ic
ĠList ableAPIResource
ixin s
ĠX anchorValidator
STA TU
Ġstack level
ank Provider
Hover textValidator
ĠHover textValidator
simple jwt
Auto colorscaleValidator
={ <
outline color
ĠAuto colorscaleValidator
pix els
A bstractUser
D ATA
O n
b oto
e sc
Ġ env
re ceita
ot al
Ġs imple
Ġc elery
Ġd ir
ial s
Ġ{ }<
Resource Reader
ĠOrder edDict
ĠResource Reader
3 9
F ound
L ocation
O utlinecolorValidator
Y anchorValidator
c axis
h ash
p ublic
r am
y anchor
Ġ 9
ab ular
trib utes
iz eref
ĠF orm
eatu re
Ġr ange
ĠO utlinecolorValidator
Ġst orages
sc m
Text srcValidator
Ġ0 7
ĠText srcValidator
ĠY anchorValidator
ĠÐ º
sl ider
Ġpost s
Auth enticated
ÐµÐ »
Ar ticle
Hover templatesrcValidator
ĠHover templatesrcValidator
ĠShow Validator
Show Validator
men u
Color scaleValidator
hovertemplate src
libr ary
abular Inline
C OM
L I
T able
ar k
re ceiver
re gistration
he ader
ĠA bstractUser
ĠC o
Ġw heel
ix path
Ġ{ }
Base Command
ĠE asy
ĠBase Command
im g
fo o
IN E
mploye es
ĠMain Config
ĠMess age
ĠID s
ĠÐ´ Ð»Ñı
mb ers
AlterModel Options
Ġta ken
ĠEasy Install
( (
B LO
L L
L enValidator
P assword
e k
as n
", )
yp ass
Ġb ypass
ĠL enValidator
ĠP age
fr ame
module path
show legend
ĠShow legendValidator
Show legendValidator
otive Provider
ara co
STATU S
" [-
M A
W S
f resh
__ "<
Ġin to
Ġin put
ĠT ODO
Ġfile name
ĠP erson
par ams
Ġtr ack
Ġcan onicalize
ÐµÐ ½
relat ive
Ġvalid ate
201 7
super user
]+ ")<
Ġ50 3
Decimal Field
Ġ! =
_. ]+")<
yect o
"[- _.]+")<
L egendgroupValidator
N e
Q T
S howscaleValidator
X padValidator
Y padValidator
r ant
x pad
Ñ ħ
Ġt t
cl i
yp ad
ib ility
ĠS howscaleValidator
ĠC ol
end point
ĠL egendgroupValidator
hover textsrc
Ġtime zone
Ð¾ ÑĤ
ĠY padValidator
ĠX padValidator
CA CHE
Ġcontain s
gener ated
Hover textsrcValidator
ĠHover textsrcValidator
cle an
prec ate
ord ers
outside textfont
Marker Validator
ĠMarker Validator
shows cale
! <
" ^
4 4
e ar
k editor
l l
m usic
p ub
t c
} ),
Ð ´
Ġ k
an ner
de nt
Ġ' _
co un
Ġc keditor
pre sent
Ġco unt
Ġ0 6
ind ow
act or
Ġg lob
Ġpar am
CA TION
Not Found
ym bo
publ ished
n ode
r ie
Ð ¼
en able
Ġm atch
ho ld
mail sender
ch ange
ol l
art Validator
tick et
line Validator
funct ools
ens ion
gr idValidator
GE T
exttemplate srcValidator
period Validator
Index View
lug in
cel ery
ĠVER SION
Positive IntegerField
E X
S c
m igration
n et
p th
w arnings
se nd
st aff
cl ose
co okie
ĠC elery
ist s
ĠD o
com ments
ĠU p
Ġ0 8
Ġat tributes
Ð¸ ÑĤÐµ
over write
URL Field
cloud inary
ĠRE ST
ĠNe ws
ĠRest Framework
c a
e u
e lf
f ul
f eed
g it
t utorial
} /"<
or ientation
al c
an im
de velop
ma ke
ĠL ocation
Ġit s
Ġan im
check out
Ġg o
ĠPost Admin
ĠDe ferred
Ġurl lib
ĠAuth TokenConfig
ĠModel Form
Ð» ÑĮ
rf c
ĠRestFramework Config
ĠDeferred Error
3 3
l imit
r an
Ġ lead
at ibility
op ic
(" %
ĠS ource
Ġb enchmark
__( *
ĠG H
LO CATION
ens ure
Auth TokenConfig
==== ====
Ġar ound
9 9
> '''<
B y
F U
b enchmark
b lacklist
d ocument
e to
x Validator
y Validator
} "<
re vision
ic y
ad as
ĠT e
(' /
min us
Ġl ink
Ġl ibrary
version s
ck editor
OR T
ri ver
Ġe vent
ĠOr ientationValidator
list ing
Ðµ ÑĢ
Or ientationValidator
Ax es
align ment
ĠAdd ress
dash board
amb da
4 7
4 8
A ttribute
A WS
R Y
d own
e ss
v ar
Ġ updated
st ock
Ġp os
Ġm ixins
ed Inline
Ġs ite
ad o
Con nect
Ġl ambda
late st
ĠRe c
ug in
Ġbo oks
gr ad
CO L
scal ed
ĠMedia Storage
DATA BASE
E D
i ses
j ti
p ayment
w er
plot lib
ac cept
ate s
ĠC hoice
Ġcon tact
Ġ2 1
OR I
fo od
De tails
Ġge om
ALI AS
sec ure
Render er
Ġdir name
4 3
4 5
8 000
: `
C rowdbotics
D B
b utton
h and
o o
Ð Ŀ
at ar
re g
Ġt od
ex ample
ĠS tr
Ġb eca
Ġ2 2
Ġac count
Ġfilter s
ĠModule s
ĠModule sConfig
ĠNe w
ĠData Frame
ima g
esc ap
Ġglob al
Ġbeca use
2 50
I L
L enmodeValidator
N o
O utlinewidthValidator
S ize
Ð Ł
on Validator
as ing
ĠS ize
to ck
Ġ# #
ĠL enmodeValidator
ĠO utlinewidthValidator
Ġall ow
len mode
lt k
umn Validator
ref resh
outline width
Ġorder ing
Ġfla ke
ĠCh at
acitys rcValidator
E mployee
b ers
p ec
y n
Ġ articles
or ld
al e
__ )
tr ansport
Ġc ategory
orm al
el come
ment ario
lo ck
Ġto ol
ime ns
am er
Ġfield sets
Ġ0 4
my app
ĠProduct Serializer
ĠOpen Id
own er
codec s
######## ########
ĠToml Encoder
ĠToml Decoder
Toml Encoder
Toml Decoder
ĠTomlOrdered Encoder
ĠTomlOrdered Decoder
Result s
QU E
mac ros
Ð»ÑĮ ÑĤ
E NG
E vent
R oom
_ %
r g
v ers
w ard
w heel
Ġ ad
Ġ qu
mp l
Ġre move
pop ul
ĠS h
Ġc opy
min al
ack er
field sets
Ġ( ("
ĠRe gex
En ter
parser s
Ġ'__ '<
config ure
Ġwor ld
.* ',
Gener ator
ach ment
Ð¾Ð» ÑĮ
vert ise
BLO B
imag inary
c ard
d f
n umpy
name space
st and
django Project
Ġ' *~
Ġ' .*',
Ġin side
Ġun it
Ð°Ð ²
ĠAuth entication
of t
Delete Model
wik i
CRE T
Ġ'*~ ']<
> \
G rant
I P
M o
b e
er oline
ro ws
st ud
ct est
Ġdef ine
aut odiscover
Re gister
tern et
=' (
() '<
Ġ{ })
File Field
TI CE
order ing
gap Validator
Fill Validator
ĠFill Validator
urrency Provider
light ing
ĠNumber Format
moot hing
COM PI
ĠUp date
grad ient
imens ion
' re
C o
L ab
O ffset
U nion
` .<
f il
f req
n ack
r ink
s lic
} :
me m
Ġf ull
ate way
min or
Ġb ody
ĠC art
Ġde cimal
=' '),<
=' \\
Text area
ĠURL s
RE GE
Ġcomp atibility
local host
Ġge vent
NU M
ĠExt ension
ĠCustomUser CreationForm
}) ',
ĉĉ ĉĉ
Ġwidget s
ĠActive Link
sym bo
='( \\
REGE X
A pplication
D i
G HE
P honeNumberProvider
d imension
p ic
} .<
Ġ z
Ġ utc
ĠĠĠĠ ĠĠĠĠĠĠĠĠĠĠĠĠĠĠĠ
at plotlib
me d
Ġp eriod
ic ial
Ġm ark
op s
Ġre s
Ġs ure
get her
ĠA xes
ul o
(' '))<
th read
log ger
ch a
pro files
add ing
sh ift
Ġg r
ĠCreate ableAPIResource
Ð¾ ÑģÑĤ
Ġid x
12 0
ĠY ou
Ġ"% #
ÐµÐ ´
Ġcharact er
HI GHE
rec ipe
ceit as
Ġproduct s
½Ð¸ Ñı
TO COL
---- ----
PRO TOCOL
ĠAbout PageView
ÑĨ Ð¸
ess o
ENG INE
ĠRegex Object
COMPI LED
HIGHE ST
$ ",
) ))<
3 5
O wn
d rop
t adata
Ġ urls
as ure
Ġdjango Project
ĠC lo
iz z
ir th
SE CRET
ĠB o
are s
ĠE mp
Ġme tadata
ĠList View
unt ime
quire ments
Tr ans
Ð¸Ð ¼
ĠÐ¿ ÑĢ
sk ip
ĠHello appConfig
}), )
hold er
> /<
F rom
I O
S ource
T abularInline
U T
k ed
Ġ ensure
en ge
le ss
Ġp er
Ġm yproject
Ġf avor
Ġs ort
(" .")<
Con sumer
Ġc all
all enge
Re view
ĠF aker
pro tocol
Base Permission
Ġ0 3
ĠE nd
ĠR ich
width src
Ġhello app
Ġpermiss ion
sk ill
gap sValidator
ĠComp any
positions rcValidator
Ġav ailable
",) }),)
/ (?
E mp
H TTP
P lugin
W r
b re
u ff
at ive
ar se
le ep
Ġt here
Ġre place
Ġs how
Ġs nippet
ex ists
ĠS tock
Ġd if
Ġcon sum
ĠNO TICE
Ġ- <
out standing
og le
sub package
Ġne ws
arch ive
TH OD
') ],
ĠDe precated
Ð°Ð ·
03 8
ĠModel ViewSet
room s
li ance
Ġoff icial
collect ion
outstanding token
, )<
I mportError
P ORT
W idthsrcValidator
m yproject
o od
z auto
Ġ ke
Ġ learning
se lect
ort folio
al bum
an ual
Ġp ri
ur ist
Ġv info
Con tact
ĠP agesConfig
ol low
ME THOD
ĠW idthsrcValidator
De faultRouter
ĠType Validator
Type Validator
script s
bin s
ra ises
ĠModel Serializer
resh ape
Open Id
" }<
A tt
F OR
O btain
W OR
a it
c ors
d ay
e commerce
m it
n ested
t s
re verse
re pr
Ġp ubl
yp er
sc rib
Ġh and
ĠBase Config
ĠGener ate
AR E
AR T
ĠÐ ·
Ġ\ <
To One
ĠCustom er
di ag
One ToOne
End point
5 1
< /
E MA
O P
X srcValidator
m atrix
m ios
x src
Ġ }
at Validator
ar ios
Ġ" (
Ġm atplotlib
Ġf loat
ĠF eed
Ġproject s
Text Input
tick labelstep
Ġpro file
act iv
author ization
Tick labelstepValidator
ĠTick labelstepValidator
cut ter
Ġme ta
ĠX srcValidator
std out
Ġdata classes
wr ong
fill color
ĠÑ ĩ
Ġgenerate s
ĠSignUp View
On ly
izeref Validator
limit ed
Ġlead ing
Ð¾Ð»ÑĮ Ð·
Ġunit test
ĠActiveLink Manager
OneToOne Field
A g
P air
k it
n om
s ort
on s
de precate
ap ture
ge ometry
ur a
Ġf actory
con str
ĠC heck
ĠO ut
pack ed
Ġdoes n
Ġpkg util
ĠTodo Config
ĠLink sConfig
ĠActive Session
____ ____
che s
Categ orical
brow ser
ĠUse ful
dent ials
Obtain Pair
EMA IL
' {
. ###
L e
V ersion
h oto
l anding
n ormal
p g
s ome
s ample
s hell
x period
Ġ )
Ġ ÑĤ
de cimal
Ġf req
ĠP honeNumberProvider
ys rc
Ġ{ {
ker nels
Number Pagination
ĠGener ic
ug ue
update menu
Ġtest ing
col umn
Ġ201 8
pi kes
ĠCustomUser ChangeForm
pep s
adas tro
esso a
WOR D
C ar
E LD
F la
O f
T h
d uto
l ike
p ickle
r ap
u su
ro ll
it al
re place
st ations
Ġs ave
Ġin stalled
Re c
Ġde lete
SE T
har ed
ire d
Ġ3 2
py i
fla kes
comp lete
Ġwor d
Ġutil ity
Ð² ÐµÐ´
place holder
ĠUserProfile Info
apt cha
develop er
Ġgo es
}: {
METHOD S
4 1
> -
B ankProvider
C R
C r
Y srcValidator
c or
o int
p e
t otal
¹ ÑĤÐµ
Ġ JSON
Ġ Ð¸
er Validator
ls rcValidator
Ġm er
Ġm ap
kw ard
ac kward
Ġv at
ing roup
Ġc md
(' _
lo okup
ĠN a
Ġn ltk
Re ference
um b
Ġto ml
ip on
Aut om
ag ent
ant ity
eg acy
qd m
ĠW e
001 0
IN STALLED
Ð° ÑĨÐ¸
Ġauth entication
Ġexec ute
no op
comp liance
ĠY srcValidator
pi ke
ĠLab el
generic s
ĠSimple TestCase
Lib Error
Ġ### ",<
FI LE
cre asing
ĠÑ Ħ
super class
Gener ic
Ġfla gs
real axis
report lab
Geo Admin
Ġtt Lib
ORI Z
slic es
5 3
C S
C an
C ON
I QUE
m onth
n umer
t weet
in sert
he ad
co es
', {'
ĠS c
Ġc alled
un i
ĠC r
ĠD ate
Re fresh
ĠUser Config
202 10
UN IQUE
vide o
red ient
Ch at
Ñĥ Ð
26 00
ypto gr
Upload ing
038 2
1 000
5 4
5 7
A ccount
B o
M aker
O ut
T exttemplateValidator
b el
t ing
y ield
Ġ 00
ort ener
Ġp ol
Ġp erson
Ġf ollow
con d
appl e
ĠT exttemplateValidator
un icode
ĠD AT
Re quirement
Ġex ample
Ġex tra
ch allenge
SS WORD
ĠSe arch
Ġe ach
layout style
ĠV AT
hel p
list Validator
SI G
Ġsub ject
DI S
rout ing
'] ,
ĠPy Trie
read y
rest aurant
NU LL
=[ ('
trie ve
ĠHome Config
ÑģÑĤ ÑĢ
ĠQuestion Admin
sn ippet
Ġar r
** **
Ð¾Ð± Ð°Ð²
Fill colorValidator
ĠFill colorValidator
ĠService Maker
({ "
coun ter
elf ont
Results View
Own er
Ġreplace ment
ĠDAT rie
* .
4 2
R M
S upport
U LT
b reak
d types
t ables
{ {
Ġ username
Ġ Qu
Ġs ome
ex e
Ġin lines
Ġc ut
Ġd ocs
ign ment
02 4
mar t
ON T
ĠE mpty
Ġpro j
act ice
ĠW orld
Ġtime delta
Ġpy asn
RE S
Ð¾Ð º
Stack edInline
ong o
Ġsu ccess
uct ions
ĠLog out
ĠLink Serializer
XXXX XXXX
ĠAn chor
PA SSWORD
ched ule
DATABASE S
yn am
ĠAuthentication Config
untime Error
ObtainPair View
+ )/
/ ')<
9 0
P attern
P ayment
X hoverformatValidator
Y hoverformatValidator
e h
j a
j pg
k its
o in
v ate
x hoverformat
y hoverformat
Ġ It
Ġ colorbar
Ġ Ñĥ
ro tt
re quirements
ig h
Ġse c
tr aceref
nt ax
Ġc ls
Ġa uto
Ġd rop
if f
ir s
ch ars
am ount
ĠSe lectedpointsValidator
Se lectedpointsValidator
ĠOracle DatabaseFeatures
cache s
open id
ĠY hoverformatValidator
ĠTr aceref
ĠX hoverformatValidator
ĠAd vertise
ĠProduct sConfig
Tr aceref
ipe Object
fa q
Get ter
ÑĮ ÑĤÐµ
selected points
bot h
we ather
minu ssrcValidator
Color Bar
ym metric
Read Only
ĠColor Bar
tool kits
serv ices
Web App
Textfont Validator
ĠTextfont Validator
Ġautom atic
ymbo lsrcValidator
amer a
imaginary axis
ORIZ ONT
Refresh View
ĠAdvertise ment
ymmetric Validator
ORIZONT AL
P L
T A
V alidationError
b us
c opy
d rf
e ma
f bv
o sed
t d
Ġ čĊ
de sc
id ing
Ġ" .
he s
Ġc ateg
ser ved
Ġb ank
ho use
ir m
Re set
LE TE
res a
ĠP hone
SS L
Ġpro per
Ġch at
first App
Ġ> =
ĠDe tail
extr a
ĠProduct ViewSet
Ġbackend s
method s
ÐµÐ º
ÐµÐ ½Ð¸Ðµ
ud ge
Ġwork s
Update View
Simple TestCase
Ne w
cookie cutter
izz a
ynam ic
M anual
U D
_ (
a yp
b an
b rand
c amera
o ve
s d
s ingle
t ic
u res
v env
} ")<
at o
ar row
__ ',
ot Base
yp y
ex tern
ter minal
ĠT h
ib ly
ma ked
th ing
ĠM in
Ġ# #",<
Ġcon t
ĠL ay
ver ify
sp arse
ĠRe quirement
qu i
sc hool
True Type
Base TTXConverter
## -
ĠBase TTXConverter
array src
font s
ag ram
dis able
ri o
Ġe mp
ĠSt oreConfig
': ')<
ĠĠĠĠĠĠĠĠ čĊ
Ð¸ Ð»ÑĮÑĤ
BB B
comp leted
Ġlo okup
ALLOW ED
Ð°Ð ½Ð¸Ðµ
ĠDistribution NotFound
Ch ap
ĠCustomUser Admin
call ibrary
ipp ing
Ġweb site
ĠIndex Error
ĠEx ample
cel ls
ĠÐ½ Ð°
Is Authenticated
<< <<
oauth lib
clean up
mem ory
asure ment
Ġdif ference
Autom otiveProvider
Ġautomatic ally
ayp al
maked irs
Ð¸Ð»ÑĮÑĤ ÑĢ
/ $',
C ATE
L abel
U SE
W indow
b al
b it
b ile
c sv
c adastro
h g
k ip
r ate
v as
in ject
ro y
st agram
ge ode
ĠM att
po se
po ss
ĠB oolean
02 2600
ug h
Ġpre sent
Ġrun shell
list s
ill ing
ff er
read lines
ĠPost sConfig
Ġwor king
Ġspec ification
gr am
local time
Axis Error
Ġhello world
Ð¸Ð º
event s
ĠWeb appConfig
HOST S
cont inu
uni q
geode tic
! ")<
/ '),<
C har
C ourse
E nsure
P ART
X axisValidator
Y axisValidator
c ity
c ast
j ax
j araco
l on
l ikes
m ulti
p andas
p agination
s ing
s sert
t wo
} '<
Ñ İ
Ġ mpl
in vo
an nels
ion ary
re strict
ic ao
is py
Ġf ig
yp eriod
Ġre quirement
(" ."
type Validator
ab ove
ĠT opic
ĠA utom
', )
ĠS SSSS
(' *.
un ity
ist r
Ġa ct
ay load
te mp
um ns
ch art
ix ture
() )
file obj
ĠU n
ON E
array Validator
array srcValidator
Ġg ateway
LO NG
Ġiter able
do ctest
ĠY ield
ĠY axisValidator
product o
ĠX axisValidator
ĠProduct Admin
av atar
Ð°Ð ´
Ð°Ð ½
Ġfirst App
ĠToken RefreshView
ash Validator
'' '
ĠAuthor ization
li er
={ "
moothing Validator
ĠUpdate ableAPIResource
Ġthere of
yper link
oint ment
poss ibly
continu ation
" .
" ).
> {
A B
P erson
S ign
U rl
m aster
p ing
w ag
x ml
z i
Ġ 02
en re
pl ugin
ot el
ic o
ed chars
Ġs l
Ġ' ''
ul ator
Ġo btain
il ls
Ġb ackward
end ar
Ġn d
ĠF r
Ġvari ous
Ser ies
Ġ{ !
Ġ1 024
pro to
fo ld
ĠUser ViewSet
Ġg re
St atus
home page
Ġcl oud
Ġlo cal
Tr ansport
ÐµÐ ¼
aph ene
wr aps
Custom User
ĠFirst appConfig
ĠÐ½ Ðµ
ĠSignUp Form
ĠTime stamp
ched ul
ĠCateg oria
Ġcat s
ran ch
Ġpos ixpath
ĠStr ing
escap edchars
ĠClo ud
wag ger
' })<
1 27
3 00
= ('
C art
F eed
a k
b ench
c bv
d ar
n on
u ffix
Ġ encoding
__ ))<
re lease
Ġdjango bench
Ġf ind
Ġre present
tr ip
co untry
ad a
ĠS E
Ġb asic
Ġb reak
ĠC rowdbotics
ĠC ARE
ite DatabaseFeatures
ĠD ec
ir t
Ġde tail
ĠB E
os x
pro vider
trans action
line color
line width
per cent
unct ion
AU TO
Form s
The se
ia o
miss ing
pos ixpath
the ta
100 000
ĠTodo Admin
rat ing
ĠSQL iteDatabaseFeatures
Custom er
Ð¸Ð ·
Not es
Ġ"" <
num ba
ĠMy User
au ction
Result Set
ÑĢÐ°Ð ¼
Login View
person al
Ġ##### #",<
FU L
ĠTe acher
secure transport
rg lob
med ia
Ð²ÐµÐ´ Ð¸ÑĤÐµ
Ġproper ly
("." ).
dar win
ĠCARE FUL
6 8
: ',
> '''
P T
h a
m an
p ict
s with
Ñ Ī
Ġ question
on to
ig hl
cl us
co ls
ce s
un iao
ment al
Ġa g
Ġn ome
LE RY
:// {
Ġl anguage
ta x
DE PRE
Admin Site
Ġe mployee
author s
User Profile
ĠPro tocol
pol l
Ġpar ams
ĠCon nect
Or ReadOnly
ĠPost Serializer
ĠPost Form
Ð¾Ð ¼
word s
plat zi
wr iter
Ð» Ð°
lead s
Ð°ÑĤ ÑĮ
TION S
ĠLe ad
revision id
popul ated
Mo vie
CATE D
chedul er
ighl ight
DEPRE CATED
B uild
C hoices
P r
R ate
S ystem
T SI
T exttemplatesrcValidator
V AR
X PR
Z srcValidator
] {
e az
n ing
n ection
r t
w al
x type
y type
z src
Ġ ]
Ġ 01
Ġ Ð¾Ð±
on en
me mo
in ner
de s
as ite
it ulo
Ġp print
ap Validator
Ġ" {{
ent er
op acitys
Ġs lug
ing Validator
ĠT exttemplatesrcValidator
ĠS parse
Ġc alc
res nel
ĠF I
project ion
ip edia
ĠO ffset
Ġco untry
ME XPR
path bar
Ġpro to
add r
org rid
ĠSt artValidator
Ġtr aces
ĠW rap
St artValidator
display ed
mode bar
Ġmo vie
Ġdis able
Ġ"% ##
2022 07
Ġx p
show grid
Ġj araco
wh ile
Ġ25 6
ĠShow gridValidator
Show gridValidator
ĠĠĠĠĠĠĠĠĠĠĠĠĠĠĠĠ Ġ
ĠZ srcValidator
Ð¸Ð ¹
ape Validator
period alignment
ĠHome View
ĠLogin View
Index er
grid color
grid width
gen re
Ð¿ Ð¸Ñģ
ĠColor scaleValidator
light position
Grid colorValidator
Grid widthValidator
ÐµÑĤ ÑĢ
End Validator
sym metric
ĠGrid colorValidator
ĠGrid widthValidator
Ġautom otive
Ġ100 000
texttemplate src
bu sc
ĠEnd Validator
ĠRich Text
FOR MAT
Ag g
ugue l
iff use
restrict ions
ispy Error
Ġcloud inary
ĠDec imal
periodalignment Validator
( {'
@ {
A LT
C lo
L egacy
R I
S p
W e
b ud
} @{
Ð Ķ
Ġ },<
Ġ room
se cond
name s
ot env
Ġp ub
Ġt utorial
ct or
ex pat
ex pr
tr acker
ĠS nack
Ġa ut
str ip
ve mber
ĠB BBBBBBBB
et ree
ag enda
Ġser vice
ĠR udge
Ġe commerce
ĠMe mbers
Ġpy expat
rib ut
IN T
store front
Ġall owed
Create APIView
Me mber
Ġj oin
ĠNo vember
rec ord
ĠAl bum
contact s
ĠÐ¿ Ð°
Ð½ Ñĭ
BA CK
tool z
zer o
ĠCateg orical
Fla g
Ġpol ls
ĠCloud inary
, "
D irect
E S
M in
a int
g ress
l ong
u ction
y ntax
Ġ age
me etup
ro le
an ime
ot os
ed u
op e
Ġ' -
Ġa f
Ġis Path
pat ient
ick name
ĠP ants
ĠF la
bo olean
her it
qu iz
qu antity
ĠO Auth
Ġh andler
lab elfont
sy nc
Ġun iv
Ġun packed
Ġ3 27
ide o
De fault
Ġpre populated
ĠÐ ¼
ĠNot es
hist ory
hello world
Ġhome page
Token Generator
argument s
Ġte mp
mer note
ĠAl l
tod olist
phone metadata
Delete View
PH ONE
Ġmethod s
-#### ",<
ĠIs Authenticated
Comp any
}} ",<
wik ipedia
Ġcr yptogr
Password Input
ticket s
ĠActiveSession ViewSet
Ð¾Ð±Ð°Ð² ÑĮÑĤÐµ
Ġsec ret
ĠAutom otiveProvider
yperlink ed
ÑĢÐ°Ð¼ ÐµÑĤÑĢ
ĠRichText Uploading
ĠÐ¿Ð° ÑĢÐ°Ð¼ÐµÑĤÑĢ
Flag listValidator
Ġcryptogr aphy
( ["
5 2
; "<
L o
R ING
V er
] ))<
a uctions
b ind
c hoice
f act
h as
i an
k p
n g
s leep
u z
y am
} "
Ġ ple
Ġ 64
ro me
an ies
de partment
__ "
ion Error
re ceitas
st ar
ct ions
ĠS p
ce pth
th umb
form ular
Ġn ow
Ġw in
str ipe
ĠP hoto
ix ed
qu ot
DE LETE
Ġ1 28
Number Format
User ChangeForm
Pro yecto
En try
Ġpy flakes
25 6
Ð¸ ÑĤ
Ġcomp any
comp anies
sign in
Ġgener ics
Ð¾Ð ½
val i
ged Item
Ġsource s
ra ise
dig it
ĠJ son
part ial
ĠComment Form
FI ELD
compat ible
Ð¿ Ð¾Ð»ÑĮÐ·
Ġcol umn
ai ro
ai sed
Ġtod olist
Ġgr aphene
Ð°Ð· Ð²
OP TIONS
Ð°ÑĨÐ¸ Ð¸
rott le
Ġcateg ories
qui res
Ġaf ter
yperlinked ModelSerializer
Ġple ase
cepth ook
: %
: \
A DIS
D ATE
E NUM
F F
R owValidator
_ <
b lob
b irth
c i
g h
s core
t itulo
Ġ ext
Ġ update
Ġ Ð¸Ñģ
Ġ ÑĢÐµÐ
de st
Ġ= '
re uniao
Ġp aypal
Ġse nt
ode Validator
is fileobj
op roject
Ġs chema
ad line
Ġb ban
Ġa m
lo op
to gether
Ġd rf
color way
ĠB ankProvider
ch ar
la in
ĠRe port
array s
ST RING
Op acitysrcValidator
CE LERY
ĠR owValidator
short ener
ĠĠĠĠĠĠĠĠ ĠĠĠĠĠĠ
ff ff
ask et
Backend QT
range select
ĠTo Do
Ġgener ic
tain s
Ġsp ace
Ġ5 12
Col umnValidator
ĠLab els
wr ap
Ġmod ify
### )
ĠSub plot
ĠOp acitysrcValidator
hickness modeValidator
Filter Set
off Validator
ĠAccount Config
cre dentials
categ oria
ĠMy appConfig
proj eto
?? ?
cour ses
Ġstore front
ĠCol umnValidator
ĠRec ipe
configure d
stud io
symbo l
Di vider
mios platzi
activ ate
nom bre
normal ize
ipon axisValidator
bel ow
Ġperson al
ĠAnchor ed
>{ <
opacitys rc
ĠFla ke
rangeselect or
L ike
R OU
S ocial
c urrency
d y
e er
f l
g ame
n an
w ait
Ð ¡
Ð Ĵ
Ð ĺ
Ñ ī
or um
in ja
ame tr
de code
ot eca
cl ick
Ġ' '<
tr ial
ĠA pplication
(' -
il la
th is
ĠC ity
lo c
iz ed
ĠM ater
ĠD i
Ġd f
ir ror
po lic
one s
os Config
Ser ializers
Ġ- -
Model Factory
Base Provider
ĠBase Provider
Op s
Ġun known
Ġser v
Se lect
Ġopt ion
Ġch annels
'] )]<
vent ory
orig in
Ð°Ð ½Ð¸Ñı
ĠBook mark
Ġso ft
ĠToken ObtainPairView
ĠCategory Admin
Product s
mer ge
201 8
Ġ8 0
Hel p
ĠArticle sConfig
att achment
gre g
." .
Ġrec ipe
Ð¾ÑģÑĤ Ð¸
Ġpri vate
Th rottle
ĠÑĦ Ð¸Ð»ÑĮÑĤÑĢ
ssert ionError
onen umber
ametr ize
> "<
B uff
C urrencyProvider
J ob
V eh
W or
Z eroline
] |
b ingroup
c um
e e
h az
i um
l ator
n unique
q rt
x p
± Ñĥ
Ġ ()<
at tribute
de vice
de precated
pl ates
it or
ig ure
Ġt ho
Ġ" .".
ur t
ur ve
Ġf alse
Ġs hared
Ġ' :
ex cepthook
Con tent
Ġc or
ĠC urrencyProvider
ĠM ax
Ġ# ###",<
ve al
gist ic
ĠP os
ĠP assword
ine ss
ĠG o
qu ote
ĠO ffer
ĠI nc
ĠU SER
Ġst d
date s
sh ares
St ate
St art
dit ion
Ġlog out
Tick s
group by
Ġ.. .<
LD ER
Ġpar sing
filter warnings
'] .
Ġal ready
Ġinstall ation
ĠDe partment
resol ve
He aders
ĠFlat Buff
raw ler
Ġsh util
ĠZ eroline
Ð¸Ð ½
Ġprice tag
Group By
gre et
front end
zer oline
Ġrec ipes
PR I
brow se
Ne ws
Ġaccount s
Lab els
From Ticks
Ġsort ed
Ġconsum ers
ĠGeneric ForeignKey
CR UD
Generic ViewSet
numer ify
20210 9
ĠÐ¸Ñģ Ð¿Ð¾Ð»ÑĮÐ·
polic y
Veh icle
haz mat
ĠFlatBuff ers
' }<
( ("
6 6
= ""
> [
A ccess
N ode
P lease
R ole
R ich
T opic
W heel
X T
d t
e co
i sed
l anguage
r on
Ġ ot
Ġ comment
Ġ abstract
Ġ archive
er ia
me an
in p
in stalled
le an
st ate
Ġt otal
is ual
Ġre vision
Ġs ignal
Ġ' )<
ers ity
Ġc hoices
ĠC at
end ing
ĠF igure
Ġl anding
version eer
par ametrize
ĠRe f
ĠO bject
Ġy ear
ĠE ND
CE S
dir ty
Form Field
ici os
User View
Ġ% }
Ġsub scrib
Ġra ised
Ġne ver
car s
04 8
Ġtar bal
Ġho st
ĠProduct s
Ġunicode data
AT CH
av ailable
Ġwor ds
Ð°Ð »
ĠAdmin Site
Page NumberPagination
ĠEx p
ĠTag gedItem
tool bar
serv ation
publ ish
ĠLe arn
mat ches
Te acher
My App
Sc ript
usu ario
Ġmer ge
challenge s
ĠJson Response
Ġtarbal ls
( ['
5 6
C airo
H ook
H az
L ong
M odels
P UT
T z
Y ADIS
a jax
c ur
c apture
d river
f avor
g aps
g redient
n ail
s cale
s chedule
u i
ç Ķ
Ġ attrs
se ctions
in ed
pl ic
re set
re veal
id x
Ġp adding
ic ul
Ġt ag
Ġt uple
Ġm on
Ġf hand
Ġs al
Ġ' .
co mentario
ac ion
up per
Ġthe m
nt ity
ĠA utor
ĠA bstract
NG TH
un o
th er
ĠC alc
Ġd one
Re gistration
Ġw ant
LE NGTH
ĠP ublic
text positions
request ed
la mb
cal endar
Ġst ock
Ġ[" #
Ġh mac
est ate
Text positionsrcValidator
pendenc y
## "]<
Ġ< =
page website
ard ous
En Ph
List ableAPIResource
io Validator
ĠText positionsrcValidator
ĠĠĠĠĠĠĠĠ ĠĠĠĠĠ
Ġread only
ĠList ing
#### ###",<
comp ress
comp ose
ĠSafe Text
upload er
ene Validator
mark et
show line
Log out
Post List
Un it
ĠEn Ph
ĠShow lineValidator
labels Validator
Show lineValidator
Pos ition
tz win
0000 0000
Line colorValidator
Line widthValidator
Ġproduct ion
ĠPol icy
AD ER
ĠLine colorValidator
ĠLine widthValidator
Format Warning
ĠCourse Serializer
ĠSec urity
Ġpl ugin
collect or
fe home
Ġ##### ##",<
go ogle
ymbo l
ternet Provider
rink s
Ġperiod s
Ġke ep
Att achment
ĠÑĩ Ð¸Ñģ
Ġproj eto
both ify
ĠDetail View
Ġact ual
Ð°Ð·Ð² Ð°Ð½Ð¸Ðµ
ĠMater ials
Ġsoft ware
Haz ardous
Tz FormatWarning
textpositions rc
lamb da
' }),<
/ ?
> ):<
A IN
B IN
D ocument
G B
M ULT
O Auth
P ol
P ATCH
b le
d d
d r
d uration
f ake
p ics
r ule
s w
t st
Ð Ĳ
Ñ Ħ
Ġ })<
Ġ ÑģÑĤ
Ġ items
on al
ar get
mp lab
imp lement
ro ugh
en um
Ġp ortfolio
ly ph
Ġt st
Ġs yntax
ab ility
ĠT od
(' ^
ment arios
Ġb ot
Ġb logs
ĠC ORS
ĠC ount
ho ok
Ġex c
ĠL o
=' __
ĠG ame
OD E
auth enticated
ans wer
der r
file browser
pen se
ou gh
CH AR
TE N
Ġe ven
work ers
py asn
valid ate
ĠPro files
ĠCreate View
Ġat t
leg ram
Ġtype s
12 34
open ssl
comp lex
ĠProduct Config
gr aph
pr actice
ĠEn try
exp ected
~~~~~~ ~<
ĠBlog Post
ĠAttribute Getter
CUR ITY
ĠQuery Set
resp on
Ġsh op
('. ',
top ic
Ð¸Ð ²
ĠPol l
gistr y
cre mental
ĠÑ į
sk ills
case s
sn ack
sn mplab
location s
Ġoff sets
Ph oto
Categ oria
coun tries
symbo ls
ĠBo ard
diag onal
Ġfollow ing
proto cols
ROU P
ĠPos ition
snmplab s
" ']<
/ #
/ '<
8 22
A bstract
B Validator
C L
C ard
C ity
D est
E ND
F T
F irst
H idden
O SM
P ublic
S O
S ome
S izerefValidator
W elcome
Y our
b r
b anner
b asket
c ed
d nt
d ers
e mployees
f n
f inal
g n
s ignal
s Index
s izeref
w d
Ð Ĺ
Ġ Field
or a
at ient
in spect
de pth
de pendency
__ ='
pl y
it ter
re ct
ic on
ic ros
Ġt k
Ġ" ??
Ġf eature
Ġre po
Ġre sol
ex port
ac ed
Ġin fer
Ġin dividual
ul ate
ĠS izerefValidator
Ġc y
Ġc ors
Ġb us
th ere
ĠC ors
ĠD a
ĠD rink
po ol
Ġn umer
Ġde cor
ĠP l
ĠP eriod
ĠF R
bo lt
ĠB Validator
ĠB ol
ĠNO TE
ER Y
ME T
ols ite
Al l
ĠR ole
ĠR oll
Ġth en
size mode
St ore
lic it
ia Template
~~~~~~~~ ~~~~~~~<
csrf token
Time stamp
Ġsc hool
Ġdirect ly
uth y
play ground
ĠĠĠĠĠĠĠĠ Ġ
Ðµ ÑĢÐµÐ
ĠRegister View
ĠRegister Form
ĠPy test
first project
comp are
static method
back ground
ĠPost ViewSet
ĠTr uthy
Ex it
Ð¾Ð ¿
ĠDe vice
Ġ"% .###
the blog
Ġhe aders
######## ",<
connect gaps
Ð°ÑĤ Ð°
raintree Error
ĠMo vies
ĠContact Form
ĠValue Error
QU ERY
hell Activator
ĠClient e
upport ed
Ġphone s
Connect gapsValidator
escap es
bers hop
Co un
Wr ite
cors headers
ĠQu iz
Reset TokenGenerator
Ġnd im
ĠÐ½Ðµ Ð¾Ð±
irt ual
ĠConnect gapsValidator
thumb nail
miosplatzi app
Ġtho se
Headers AppConfig
Ġatt ached
OSM GeoAdmin
icros oft
Ġcors headers
ĠCors HeadersAppConfig
bolt ops
iaTemplate Activator
/ __
6 749
8 6
H yperlinkedModelSerializer
M ax
N a
R untimeError
S pec
U s
_ ,
a io
c ss
c ri
d x
e m
f eature
g in
h i
p ng
r u
t ies
v a
x ff
± Ð»
Ġ platform
me mbers
an c
name d
en u
it a
re views
con stant
Ġre gex
Ġs ocial
Ġ' {
Ġ' ':<
co la
edit able
ad os
Ġin valid
Ġin compatible
Ġthe se
ib li
ĠD ocument
ir d
Re trieve
one y
Ġde al
ĠP Y
ĠP r
ĠP lay
default s
our ses
par ty
bar bershop
ĠU rl
et ch
Ġ{ })<
dis count
Ġser ies
lect ure
De mo
Se arch
Test er
ĠPro yecto
'] ,<
") ],<
no x
ĠTo ol
SION S
upload s
Auth entication
ĠTodo View
urs o
XX X
Post s
board s
>~~~~~~~~ ~~~~~~~~~~~~~~~<
jo ser
Ġasync io
Ġpo ss
inf ura
iv ersity
rec ent
201 6
fol low
Filter Backend
Ñĭ Ðµ
emp t
run ner
categ or
Ġdict ionary
ĠRest aurant
67 8
EX TEN
down load
Application Client
Ġconsum ing
Ġpubl ished
Can vas
ĠSE CURITY
wal ker
Ġaut odiscover
ÐĴ Ð²ÐµÐ´Ð¸ÑĤÐµ
="" )<
Dest roy
ibli oteca
EXTEN SIONS
' }
. ')<
. ##",
9 7
= %
A Y
C B
C re
E mpty
F C
H O
R Validator
S parse
S pike
T Z
Z ER
] .
] ]<
c aps
d otenv
e ep
f ence
f li
m id
m box
p ass
p ay
s moot
s qrt
t qdm
v at
w ild
w indow
w elcome
Ġ able
Ġ end
Ġ attr
at os
in ue
in creasing
ro ken
an te
de creasing
re served
id itys
ot s
ic ip
Ġt ables
Ġt urt
ap es
Ġ" ##
ge vent
he ight
is ing
op fli
tr act
get ables
get Table
ter ator
ad i
ad ded
Ġin cremental
tt Lib
ĠT SI
nt il
and offValidator
ĠS pike
ĠC ode
ĠC ard
ĠM ail
Ġ# ###
if ic
set item
color sValidator
str ain
um ath
ĠP art
ĠP ortfolio
Ġl ab
ĠB ackend
ĠB asic
sp ike
ip ro
ign Validator
() :
pen s
port al
ĠH ook
Ġco ur
CH A
CH O
art ist
ĠBase Permission
ient Validator
title font
ĠR Validator
lib s
act er
Ġma il
size min
ĠW h
Ġg lyph
AR Y
fla ke
style Validator
Ġbo und
001 2
DI CT
Ġwh y
Ð¾ Ñĩ
Ð° Ñĩ
Ġcomp leted
Ġimplementation s
Type Router
") :
async gen
ĠÐ Ķ
tes IO
Ġlo ck
ular Validator
ĠDe fault
Query Set
book store
book instance
UUID Field
ĠOpen Type
ĠOpen SSL
2022 08
ĠBook s
di vider
doc string
ness Validator
Ġwe ather
Hover formatValidator
ĠHover formatValidator
wh l
Lay erValidator
Dis play
ash board
Line Validator
ĠSimple Router
ĠLine Validator
ĠSer ver
Ġdj ongo
mb ientValidator
ĠCourse Filter
rad ient
Ð¿ Ð¾ÑĢ
ĠÐ² Ñĭ
unit test
Ð¾Ð´ Ð¸Ð¼
NBit Int
cont ato
ĠCo untry
ĠCo mentario
Ġtt Font
NotFound Error
Sc hool
stock s
Size modeValidator
Size minValidator
ĠSize modeValidator
ĠSize minValidator
ĠOpenId Auth
less on
OpenId Auth
ĠÐ· Ð°Ð
Cr ispyError
ĠNa T
ĠSc hool
snippet s
ignment groupValidator
ema ils
Ġcont inue
ĠLay erValidator
Window Indexer
uffix Validator
auction listing
pict ure
ĠProtocol TypeRouter
resnel Validator
displayed Validator
iffuse Validator
herit ance
Ġ327 68
ĠDi vider
cum count
urve y
Ġot Font
ĠFigure Canvas
BIN ARY
ough nessValidator
ĠProfiles Config
Ġdecor ate
ĠPytest Tester
ĠÐ½ÐµÐ¾Ð± Ñħ
aio http
ZER O
smoot h
Ġturt le
getTable Class
5 678
9 8
A ction
B rand
D OM
G ame
G ROUP
M anagement
N Y
R el
S ocket
W ith
a de
a zy
c rawler
d ue
e ople
f d
f g
f etch
j s
m or
p c
u do
v h
v ot
z min
} -
³ Ð¾
Ð ¢
Ñ Ĭ
Ġ le
Ġ ass
in st
in el
ar ange
al f
as on
it ude
Ġp ort
Ġ" /
Ġ" )<
Ġm ath
Ġm ypy
ent h
is o
Ġf old
Ġre sp
Ġre pr
tr ics
ad v
Con text
Ġc ss
Ġfor ce
te ms
Ġde sc
ĠP essoa
Ġl on
() ).
ĠI mport
pro d
Base User
ĠUser Factory
cop e
ns upported
List ing
ook ie
ĠHttp Request
unt u
ÑĤ Ð¾ÑĢ
Ð¾Ð ¹
iver y
ĠBook Admin
ĠBook sConfig
bound s
Ġown er
Mess agesConfig
dat rie
ĠAns wer
ĠModel Admin
zone s
Mar k
ĠIndex View
36 6
ĠWeb App
ĠÑ Ĩ
Api View
utc now
PA CK
Ġpos ition
ĠRec ipes
ÐĿ Ð°Ð·Ð²Ð°Ð½Ð¸Ðµ
popul ate
-------- --------
urist ico
ÐµÐº ÑģÑĤ
sd k
ĠÐ¾Ð± ÑĬ
vali acao
ĠUSER NAME
ĠCat alog
Ġnumer ic
ĠFR OM
DOM AIN
, ##"]<
: -
A A
A ctive
B lacklist
E xt
F il
H ORIZONTAL
I ST
J W
M AL
M anage
P ubl
S H
S ymbolsrcValidator
S ymmetricValidator
T C
U M
Z hoverformatValidator
[ <
b raintree
c q
f name
f hand
g unicorn
i ment
i vo
j or
l te
m t
m un
n z
p f
p m
r ent
r ag
t k
w ent
z hoverformat
å Ĳ
Ġ Q
Ġ er
Ġ :<
Ġ up
Ġ es
se n
in x
ar at
al ways
Ġm ult
ge ek
cl ar
ase r
yp ro
con dition
Ġs um
Ġs rc
Ġs leep
ac c
Ġv alidators
ĠT abularInline
ĠS upport
ĠS pec
ĠS ymbolsrcValidator
ĠS ymmetricValidator
Ġa xes
ĠD ict
Ġedit able
Ġcon str
Ġn a
ial ist
Ġ2 048
ver age
user profile
Ġu id
ime ter
ĠI mp
es Not
port unity
ĠH ORIZONTAL
DE S
## )
Ġ< /
Big IntegerField
array minu
array minus
per imeter
Str ipeObject
fix ed
Ġbe h
value minus
ĠR ating
sh ipping
eg roup
sr s
ĠSt art
ĠV e
ĠMe mber
Ġrun ning
Site s
List APIView
Ġcl osed
IN CRE
ĠSite sConfig
UN SIG
Ð¾ Ðµ
Array srcValidator
Array minusValidator
Array minussrcValidator
Ġcomp ress
ĠGe ometries
ĠArray Validator
ĠArray srcValidator
ĠArray minusValidator
ĠArray minussrcValidator
Django ModelFactory
sign out
ĠX XXXX
Ex ist
ĠCA CHES
by te
Me thod
CA CHES
av i
conn ections
Ð°Ð º
ÐµÐ ½Ð¸Ñı
Ġfirst project
di ameter
Un ique
wh y
ĠToken Backend
NE D
BBBB B
Ġpattern s
fin anc
ĠInter val
ĠGeo ModelAdmin
101 7
assert Is
ĠOSM GeoAdmin
Ñı Ð²
ĠZ hoverformatValidator
######## ##",<
######## #",<
ĠToml Error
ĠProfile Admin
ĠStack edInline
ĠStudent Admin
ĠArticle Admin
Ġweb driver
FI LL
38 4
ĠCl ass
ĠMy Profile
Ġ16 384
CreateModel Mixin
]+ )/
ĠValue minusValidator
ĠAn ything
ãģ ®
Ġ6 55
-#### ##",<
Value minusValidator
Open LayersWidget
Ðº Ð°
ĠEvent o
ĠVER TICAL
standing Token
Te ams
apt or
Geo ModelAdmin
On line
2017 1017
feed back
ĠStr ipeObject
transport s
Ġad aptor
Ġqu ote
oft ware
IP LE
stud y
Ġ"%# ,##",
Ġ"%# .###
ĠOut standingToken
lookup s
traceref minus
ĠTraceref Validator
ĠTraceref minusValidator
Traceref Validator
Traceref minusValidator
invo ice
onto T
Ġag enda
Ġ"%## ,##",
ÐĶ Ð°ÑĤÐ°
Ġstd out
Rich TextField
Ġ["# ,##",
MULT IPLE
Pol icy
1234 5678
ĠÑį ÑĤ
symbols rc
Ġ"%.### ,##",
Ġposs ible
ZERO FILL
Ġlon ger
Blacklist Config
esNot Exist
arrayminu ssrc
INCRE MENT
UNSIG NED
financ ial
Ġ655 36
Ġ"%#.### ,##"]<
" })<
8 8
> ')<
A C
C all
C Meta
F l
I m
M ain
N PY
S ingle
T op
T wo
f ree
h ortener
n ext
n ickname
p ri
p air
s a
s mart
t ip
u ar
v ocation
w omen
· Ñĥ
ä ¸
Ġ utils
Ġ zones
se quence
er ec
in valid
pl aced
re load
Ġt orn
Ġt rio
Ġf eed
Ġf aker
Ġre quires
Ġre placed
Ġ' ,
ex empt
up dat
Ġ_ ('
ab ac
and o
ĠS hop
ĠS nippet
Ġc sv
lo callibrary
ĠD irect
ho oks
ss ue
aut or
te acher
Ġde v
ĠF oo
ĠB y
ializ ed
ine ma
ub le
ch ant
our ite
ĠRe fresh
Ġop er
() ]<
() ],<
DE CI
JSON Codec
ow er
Ġpro xy
ĠSt orage
Ġunder stand
Middleware Stack
ĠCon nection
ĠURL Router
'] ),
su me
Ġlo callibrary
To gether
Ġmo ved
Ġmo vies
ĠProduct o
ĠOpen ID
av ourite
Ñģ Ñı
An imal
ĠGenerator Config
web app
ĠJ ob
=[ (
Order Item
ĠTest P
ĠCommon Config
Ñı Ð´
cr m
ĠTask Form
ĠTask sConfig
ik ed
ĉĉ ĉ
ph otos
FI X
Ð°ÑĤ ÐµÐ»
Do esNotExist
Ġoff set
HE ADER
Te am
Ġcr ud
Ġ{} '.
ĠPage NumberPagination
music a
EX IST
('/ ')<
Ð»ÑĮÑĤ Ð°ÑĤ
ĠBo otstrap
________ ________
ÑĥÐ ¹ÑĤÐµ
Sign Up
PT CHA
Rate Throttle
busc ar
BACK END
Ġserv ices
Wor ker
ĠGo ogle
202109 13
Logout View
Ġtk inter
Ġresol ve
ĠÐ½ÐµÐ¾Ð±Ñħ Ð¾Ð´Ð¸Ð¼
·Ñĥ Ð»ÑĮÑĤÐ°ÑĤ
erec ord
Ġtorn ado
updat erecord
DECI MAL
) ),
) [:
- ##-
1 28
4 21
; <
C ount
D xValidator
D yValidator
D ashValidator
G RES
L A
L oc
P K
P honeNumber
R ange
S moothingValidator
U S
U AGE
X period
X periodValidator
] [
b id
b illing
c c
d ur
e tag
k o
k ta
m anage
o ot
r strip
s reg
s moothing
t mp
t re
t ap
v ia
} \
å Ī
Ġ com
Ġ row
Ġ Ð¾ÑĤ
Ġ comments
in er
in ventory
al th
pl us
Ġimport s
re ader
Ġt di
Ġt wo
ap er
Ġ" -
Ġ" ################
cl io
cl osed
he m
Ġf ix
Ġf ree
Ġre places
Ġs ay
Ġs mart
tr acao
co s
ad Validator
ers ist
ĠS moothingValidator
(' ='
all ax
Ġb ad
Ġb ack
th project
ĠC ourses
end points
ĠD xValidator
ĠD yValidator
ĠD ashValidator
Ġd river
pt p
Ġn am
ĠL oc
ĠL ookup
Ġde clar
LE CT
=' ')<
ĠP honeNumber
ĠP ayment
ĠP izza
Ġl imit
Ġ2 000
ys hop
ANG UAGE
ou se
ight s
ight Validator
DE X
query sets
conf irm
line colorValidator
line widthValidator
ag greg
LT K
In Line
iss u
iss ue
wor ker
value ssrc
Ġpro viding
ne g
ĠR u
ĠR untimeError
ĠR FC
lib ro
Ġe mployees
The ta
post ed
TI NY
ĠUser Register
De precated
direct or
direct ion
py lint
col orm
ĠText Input
group s
sub plot
Ġopt ional
IN DEX
ĠThe ta
#### ##",<
rout es
Ð° ÐµÑĤ
ÑĤ Ð°
over lay
Ġ[' -
'] ]<
Ġ201 6
first app
new year
su ario
anag ers
range break
ĠX period
ĠX periodValidator
sl iding
Ð¾Ð ¶
ÑĢ Ð°
Ġline s
gener ate
todo app
Token Grant
start swith
Ġstart s
Ġj ob
urs ive
enco d
custom s
NE W
category array
category arraysrc
let on
ĠCategory arrayValidator
ĠCategory arraysrcValidator
ĠInt eger
09 09
hows pikes
16 21
fill pattern
ÑģÑĤ Ð²
Category arrayValidator
Category arraysrcValidator
thickness Validator
ĠWeb site
POST GRES
phone s
sn Provider
rop a
ĠValue sValidator
ĠValue ssrcValidator
ob tain
ĠNote Serializer
Value sValidator
Value ssrcValidator
Ġcol umns
ĠSystem Exit
Choice Field
go clio
2019 0909
Ġ{} ".
eu ropa
vers ation
stand off
UT C
ĠRich TextField
Wr iter
constr uct
pe ople
USE D
Ġsl iding
clus ive
tax ation
ribut ions
Direct ory
ĠRichTextUploading Field
formular io
colorway Validator
irror Validator
Script s
ymbol Validator
Hidden Input
ĠDa vid
86 28
Ġlab els
CHO I
}- [
Ġfold er
EXIST S
howspikes Validator
# -
. ",
6 0
> ========
A bout
B ound
B ear
C ODE
D R
D el
F unction
G O
M IN
S N
U sed
a use
b and
d ab
f our
g ender
i enda
l w
m ul
p ur
s ay
s hared
z illa
Ã ¡
Ð ¹
Ġ io
Ġ play
Ġ abc
Ġ Ð¸Ð·
at s
er minal
me s
in ym
in heritance
ar i
ar ge
al ys
de part
it ution
st u
st derr
st itution
ut ed
ic als
Ġ" *
ge om
ent icate
Ġre ceita
Ġs core
ex change
(" ^
Ġdef ined
ad or
ing redient
ab sp
ĠA ssertionError
Ġc ar
ma jor
un ch
Ġb irth
ist ema
Ġa i
ings Config
ĠN U
Ġcon f
Ġn ode
Re st
ĠL ike
ĠL anguage
ĠP ontoT
ĠB BBBB
ĠB BBB
ializ ation
Ġr ating
ĠU TC
et icao
Ġh int
ĠH e
mo bile
Ġnot e
In stance
sql plus
Ġsupport ed
Ġpro files
ĠR aised
Ġe th
lect ron
sh ad
token s
son g
ĠUser s
ifi er
Se ed
af t
ĠPro xy
ĠPro duto
ard s
Pro j
Pro xy
001 3
Ġwh at
Ð¾ Ñģ
Data Frame
comp lain
len ium
KE N
vide os
Ex p
ĠHttpResponse Redirect
ĠDe mo
Ġwr iter
Ð°Ð ¹ÑĤÐµ
umpy Version
urs os
Ġkey word
Ġsu ite
Ġ25 5
ĠAuth MiddlewareStack
Ġexp ired
ĠItem Form
tz info
ord in
ĠÐ¿ Ð¾Ð»
we ek
19 18
½Ð¸ ÑĨ
enc ies
ĠSer v
Api Config
]+ )
meta class
ÑĢÐ°Ð ½Ð¸ÑĨ
ĠIs Owner
ãĤ Ĵ
che my
sal es
bu ck
ĠÐº Ð¾Ð½
Ġmatch ing
checkout sdk
Ġpubl ish
Categorical Filter
CON TE
Chat Consumer
ĠEmpty ResultSet
ĠLogout ViewSet
Ġrepresent ation
ĠÑĢÐµÐ ·ÑĥÐ»ÑĮÑĤÐ°ÑĤ
Ġpaypal checkoutsdk
Ð¡ ÑĤ
Ġ': '.
irtual env
Ġdeal ing
Empty ResultSet
ĠRecipes Config
ĠCatalog Config
neg ative
CHOI CES
lw geom
inym ce
alys is
absp ath
! ')<
( \.
) [
9 6
= "",
? |\.
E N
E W
F ixture
I E
L V
L Validator
L onValidator
L atValidator
M IT
P en
R ST
S chema
T Validator
U B
U FO
U DES
V TT
W orld
Z a
Z minValidator
Z maxValidator
Z midValidator
Z autoValidator
[ ...
c map
c ff
d ave
f low
g able
h or
h ot
i ans
l ing
m ate
m oney
r b
r aph
t p
t arget
u x
u pl
u ous
x bins
y bins
y acc
z max
z mid
} '
} ')<
Ġ article
Ġ Ð¾Ð¿
at ural
er red
in fer
ro t
ro ute
de pendencies
en fold
as ci
re qu
id key
Ġp h
ig uous
Ġse parator
is ode
op portunity
con cat
Ġs ingle
Ġs kip
(" /
co in
get path
ac ert
ĠT Validator
ĠT rio
ĠS SS
Ġc lean
min der
el if
un changed
Ġa wait
ĠM icrosoft
form ance
ĠN ull
ĠN umpyVersion
color ssrc
Ġis ort
ĠL Validator
ĠL onValidator
ĠL atValidator
Ġde l
ĠP ort
ĠP arent
ĠP et
ĠP LY
Ġl ength
Ġl ru
ĠB ar
ĠB eaz
rue ba
OR TE
For ward
auto contour
der eco
Ġst aff
Ġ[" -
sc ope
Model Mixin
## -####
ĠTrue Type
font Tools
template tags
ST DI
In ternetProvider
Al low
Al bum
ĠR un
add record
sh are
arg in
opt ional
ici a
ĠW omen
ĠW ord
ĠUser ModelSerializer
Ġrender er
De partment
ĠV isual
ĠMe asurement
py arrow
Ġ% (
Time out
Ġsql ite
001 5
Ġconn ect
Ġpar a
Ġpar sed
ĠURL Pattern
ĠRegister ViewSet
fer ent
blog app
12 3
bin sy
ĠÐ ±
pk g
ĠPost List
proper ties
range mode
Ġdi ag
Ġlo gistic
Create Form
Create ableAPIResource
ĠTags Config
SER VI
Me trics
RA NS
100 0000
]] )<
Ġx ml
local zone
NU MEXPR
ĠToken Generator
Ġtext wrap
std in
Ġind ices
Ð» ÐµÐ½
point Pen
ĠZ minValidator
ĠZ maxValidator
ĠZ midValidator
ĠZ autoValidator
Module Attribute
Product Admin
Date time
Ġmy app
ik i
contact o
ĠComment Admin
ph onenumber
Com mun
Ð¾Ð² Ð¾ÑģÑĤÐ¸
Ð¾Ð² Ð°ÑĤÐµÐ»
TO KEN
location ssrc
ĠTag Admin
Sh apeValidator
?? ",<
ãĥ ¼
ãĥ Ī
Group by
Ġtoken ize
Ġ6 0
amb iguous
ĠRoom Serializer
ĠRoom View
Ð¾Ð´ ÐµÐ»
access log
({ !
Location sValidator
Location ssrcValidator
elf orm
ĠLocation sValidator
ĠLocation ssrcValidator
ÐŁ ÑĢ
ĠSh apeValidator
vertise ments
Offset Validator
thread s
ĠÐ¿ÑĢ Ð¸
ĠStock ViewSet
ĠFeed back
usu arios
pe m
ĠLabel Validator
ÑĥÐ ±Ð»
**** ****
ĠLogout View
ĠÑĥ Ð¿Ð¾ÑĢ
<<<< <<<<
Label Validator
Ð¸Ðº Ð°ÑĨÐ¸Ð¸
PART Y
invo ices
AB CMeta
plugin s
ĠFr ont
ranch values
ĠOffset Validator
Ġ'- '<
uz zy
yam l
Ġam ount
ĠToDo List
ĠÐ¸ÑģÐ¿Ð¾Ð»ÑĮÐ· ÑĥÐ¹ÑĤÐµ
Access or
ĠÑģÑĤ ÑĢÐ°Ð½Ð¸ÑĨ
Ð¸Ð² Ð°Ð½Ð¸Ñı
CL UDES
ĠRoll ing
Na T
Ġcour se
Ð¾Ñĩ Ð¸Ð²Ð°Ð½Ð¸Ñı
ĠÐĶ Ð¾Ð±Ð°Ð²ÑĮÑĤÐµ
ĠÐ¾Ð±ÑĬ ÑıÐ²
sen ger
Unique Together
ĠÑįÑĤ Ð¾ÑĤ
ĠBy tesIO
ÑıÐ´ Ð¾ÑĩÐ¸Ð²Ð°Ð½Ð¸Ñı
dur acao
issu ing
dab eaz
Ġai ogram
ĠNU MEXPR
ĠÑĢÐµÐ·ÑĥÐ»ÑĮÑĤÐ°ÑĤ Ð¾Ð²
ĠBeaz ley
STDI N
Ð»ÐµÐ½ Ð¸Ð¹
Commun icator
ÑĥÐ±Ð» Ð¸ÐºÐ°ÑĨÐ¸Ð¸
ĠÑĥÐ¿Ð¾ÑĢ ÑıÐ´Ð¾ÑĩÐ¸Ð²Ð°Ð½Ð¸Ñı
ĠÐ¾Ð±ÑĬÑıÐ² Ð»ÐµÐ½Ð¸Ð¹
> ")<
E NT
E mployees
I F
L C
N ested
S core
S ta
S wagger
S hellActivator
` <
a w
c s
c ursor
d p
f lex
g an
g ra
g lob
l v
m ult
p d
r ls
s o
s id
t series
u gi
å ®
Ġ }}
in ternet
ar is
al t
en o
Ġ= "
it ch
re et
le v
le et
id o
Ġp hoto
ic os
ct x
Ġf inal
Ġs ize
get ter
ab i
ĠA p
ĠA tracao
ib o
', ]<
ĠS al
Ġc ur
Ġc ity
Ġc atch
Ġb ig
end swith
ĠD ynamic
ĠN um
po sed
Ġw arn
te en
te am
te ast
te enth
ĠL LC
__( __
ĠP ar
ĠP lugin
ĠB anner
log level
are fa
ĠU sed
Ġ[" __
port er
pro vid
trans late
im m
TE ST
test cases
ri end
du ce
Alter UniqueTogether
inter val
Ġan chor
ĠUser Form
User Form
Ġlog ger
update s
Ġtime stamp
list ings
202 101
Ġwh ile
ĠCon stants
Ġat temp
amp us
script ions
su ite
Django Project
ĠX XXXXXXXX
tain er
To ol
Ġmo bile
ĠDe lete
.. ..
500 5
Me m
CA PTCHA
11 11
Ñģ Ð»
start ing
Tr acker
doc ker
Rout es
pi res
ain er
ud y
std io
âĢ Ļ
for um
Ġsecon d
Http Response
ater ing
Product o
ĠÐ¿ ÑĥÐ±Ð»Ð¸ÐºÐ°ÑĨÐ¸Ð¸
event o
ĠApp Seed
Com ments
num bers
ĠWeb Socket
connect or
=[' [
Sh op
Sh ape
Sh ipping
'^ $',
ÑĢÐ°Ð ½
ĠReview Admin
ÑĢÐµÐ ±Ñĥ
Ġpl t
Ġtask s
!< /
ĠTe am
Ġlink s
Attribute Getter
ĠChat Config
card s
Ġz eep
scrib e
ĠÑĩ ÑĤ
Le ad
ĠÑĤ ÑĢÐµÐ±Ñĥ
month ly
Bo x
ĠTh read
ÐµÐ¼ ÑĭÐµ
ĠString IO
clus ion
UserProfile Info
Coun ter
'} ))<
ĠPortfolio Config
ĠBasic AppConfig
Ð¡ÑĤ Ð°ÑĤÑĮ
provid ers
ĠÑĤÑĢÐµÐ±Ñĥ ÐµÐ¼ÑĭÐµ
( {}
/ ',<
8 0
A c
A rea
B el
D F
I tems
L ength
L anguage
M odeValidator
P l
P arent
P layer
S al
S ong
T ables
T hicknessmodeValidator
V iews
Y period
Y periodValidator
Y styleValidator
c hex
d ummy
f sl
f gcolor
g op
h n
k ill
m apping
m ypy
n ltk
t en
u ding
u rop
v in
w code
x x
y a
z oom
Ð ŀ
è ¿
Ġ html
Ġ commerce
Ġ img
Ġ above
at trib
at srcValidator
in clusion
ort Validator
import ors
__ ()<
pl anner
re act
re ference
ot ation
Ġp ayment
Ġp ayload
ic ulo
Ġm ans
Ġm ock
args pec
cl ipon
cl uding
ed id
ed ora
ld s
Ġf name
con sum
Ġre q
Ġre al
gi um
Ġ' ',
ex peri
co mentarios
Ġdef erred
Ġin fo
Ġin vocation
ing leton
ĠT qdm
ĠT hicknessmodeValidator
app able
ĠA ccess
ĠA valiacao
and y
age m
Ġc v
il ine
el ine
un s
un os
un nel
Ġb u
Ġb roken
ĠC an
lo cat
iz er
end ance
ĠM odeValidator
pt ime
ir cle
ĠN LTK
Ġn ext
Ġis Directory
Ġex it
ĠL ib
ĠL ikes
ĠL td
Ġde mo
=' ').
ĠF ixture
ĠB logs
par ation
ĠRe ceita
ĠRe served
OR M
ol iditys
Ser vice
02 2
02 25
ĠO N
es k
ython ize
View set
ĠE lement
ĠE urop
line sValidator
ĠDjango FilterBackend
per ty
Ġset Up
try django
fix Validator
ĠR ights
Form View
dist ance
dist ributions
ide ntity
Cl iponaxisValidator
token ize
Ġg uar
cess ing
ĠV er
axis lines
py flakes
Editor Widget
spec Marker
Tick et
iter al
group gapValidator
group titlefont
UN T
Ġpar asite
ĠCon text
ĠAPI View
28 4
vo ice
ĠIn gredient
Ġcomp are
sum mernote
ĠPy Char
script or
ĠY period
ĠY periodValidator
ĠTr aceback
range Validator
API Exception
Ġac cept
Ð¾Ð ·
pip eline
ÑĢ Ñĥ
ĠDe f
ĠDe let
("- -
ra coes
100 00
Tr aceback
Ġspec ial
ÐµÐ ¹
mark s
di v
.* `
ĠEn dereco
[: ]<
impl Marker
He ader
for ward
ĠInvalid Token
Ġopen id
inen o
tag ged
Ġsh ort
ĠContent Type
ĠRange modeValidator
Ġpo or
Ñĥ Ñĩ
zone info
ĠLink s
rec aptcha
([ [
ĠImage Grid
ĠAl uno
ft p
part ments
[[ [[
ail ure
ĠProject sConfig
Ġweb socket
thickness mode
ĠCl iponaxisValidator
ĠÐ´ Ð¾Ð±Ð°Ð²ÑĮÑĤÐµ
tod ict
Book s
Subplot Validator
Update APIView
generator s
Do uble
Web site
Comment View
unit Validator
ti po
tra wcode
PA TH
ĠTime delta
mod ified
NBit Long
({ <
ground Config
learn er
tutorial s
develop ment
ĠSource s
adas tr
ÐĿ Ð¾Ð²Ð¾ÑģÑĤÐ¸
ĠSh ort
Co untry
Ġz opfli
shift Validator
Source Code
Ð¾Ð»ÑĮÐ· Ð¾Ð²Ð°ÑĤÐµÐ»
ĠCheck s
Rec ursive
Support sIndex
bus iness
terminal writer
pose Validator
ĠBoolean Widget
lier colorValidator
Pr ice
ĠFI ELD
Legacy Test
Sp ace
ĠÐ¼ Ð¾Ð´ÐµÐ»
Ġtemp dir
ixed rangeValidator
quot ed
ĠReport Lab
ĠSubplot Validator
ĠSubplot Divider
fl ush
click Validator
bingroup Validator
Ġsubscrib er
Attachment View
GB Axes
ĠTod olist
ĠLo ad
ĠPlay groundConfig
ante ed
apes rcValidator
adi u
strain textValidator
ipro cessing
ĠFigureCanvas QT
smooth Validator
Ġmult iprocessing
ĠImp licit
Ġbeh avi
Call Error
-##- ##",<
Loc ator
Range modeValidator
Ġnam ing
erminal Writer
Ġ"* "
unch pad
[... ]<
rot ation
requ encies
ĠNum Py
fsl ineno
gop acityValidator
importors kip
clipon axis
ĠTqdm DeprecationWarning
locat able
oliditys rcValidator
0225 01
ĠEurop e
Ġguar anteed
ĠPyChar m
ĠDelet ableAPIResource
, **
/ '
/ ",<
3 58
7 8
8 7
: ')<
B ind
B row
B utton
C ine
C AL
D V
D et
D own
F a
G ORI
L INE
M ode
M aint
P ER
P oll
P atient
S nack
V AL
W ARE
Z E
[ ^
b untu
c ap
d ynamic
d rinks
d joser
f b
f i
f y
f ast
i po
i oc
i vid
l ider
m any
n os
p a
p Django
p df
p essoa
r d
r icao
t wist
y our
å Ĩ
æ Ī
æ Ĺ
æ ľ
Ġ plot
Ġ ip
Ġ common
Ġ ÑģÑĤÑĢ
on ation
on line
al one
it ap
re lev
ut ation
ot es
ig il
Ġt z
Ġm any
ur name
Ġf un
Ġf ood
Ġv al
Con nection
app ointment
ĠA SN
ĠS o
ĠS um
ĠS wagger
Ġreturn ed
Ġa ctive
form a
Ġon line
Ġw ait
Ġw iki
quest ions
SE LECT
gist ers
ĠF L
os p
ta ke
ĠRe move
eatu red
() ))<
qu ir
02 22
ok e
ĠU nsupported
et s
es hop
calc ulator
ĠH ous
pro gress
Base Model
ional ity
ke yp
Ġe lement
ici o
Se ttings
Ġfunct ionality
FO LDER
ĠV igil
py bo
ia coes
Pro vide
001 4
Ġsub class
Ġ200 5
Ġra ising
ĠĠĠĠĠĠĠĠ ĠĠĠĠĠĠĠĠĠĠĠĠĠĠĠ
ĠURL Conf
Ġtry django
ÑĤ Ñĭ
") .<
no se
ĠPost Detail
ĠPost ListView
mode lf
config obj
Ð¾Ð ³Ð¾
To Do
client es
val iacoes
Me mbers
Ġhome PageView
ĠCom ments
Var i
[: :-
custom user
tag git
14 46
18 5
ĠCategory ViewSet
201 5
reen let
part icip
ĠÐ¿ ÐµÑĢÐµÐ
ph a
Object Identifier
Code Grant
mb ed
QU I
ĠÑģ Ð¿Ð¸Ñģ
sal e
clean ed
99 99
Ġtod os
ĠNew Type
ĠOpenId Connect
################ ################
ĉĉĉĉ ĉĉĉĉ
Emp resa
Ġke pt
ĠÐ· Ð°Ð´
activ ation
Rec ipe
CS V
RES ULT
multi ple
ĠAuthorization CodeGrant
We ather
bud get
ribut ed
Ver ify
ffff ffff
Content Type
icul os
Ġbot h
Ġ'{ %
HO LDER
Im ages
aggreg ator
ĠRu ss
>======== ========
raph QL
ĠFront end
lv l
consum ers
Maint ainer
ĠHous ley
' })
) ).
) ###
- ###
- ###",<
9 5
A TION
B I
C QA
D b
D esk
E lement
H igh
I C
L ec
N on
O LS
P SS
P TO
P eriod
P adding
R D
R aised
R oot
S ection
S caleValidator
S snProvider
T ODO
W h
W ord
a ware
a urs
b ig
c v
c fehome
e a
e w
e aster
e zer
f alse
f lower
f actor
h it
h ip
h otel
h alf
k a
m app
m metric
m cq
n u
n ft
p ag
p isode
r rule
w b
w atch
w ithout
y Animal
{ "
Ã ©
Ã ³
ä »
å ĩ
è ¡
Ġ know
or p
at ist
at ivo
in os
ar ia
al y
al uguel
al chemy
ame nt
__ "]<
en eration
pl an
Ġ= [<
ot ify
Ġp et
Ġp oll
ic ular
Ġt ick
Ġm ost
Ġm ines
ent est
ode ezer
is her
Ġf ake
Ġre f
Ġre ason
Ġs har
Ġ' {}
ex er
ex am
ex pires
ype s
get text
get tz
get Routes
up s
Ġin p
ĠA symmetric
ore m
ore JSONCodec
ate st
ĠS ome
ĠS caleValidator
Ġc fehome
ma cos
GI ST
un ities
ĠC D
ĠC re
ĠC reationForm
Ġa utors
to zero
iz ont
ĠM ake
ĠD B
ĠD el
Ġd ig
Ġd oc
Ġd ados
Ġd rag
Ġd inos
ĠN ft
Ġn ormally
ĠL ec
ve ls
ve iculos
ĠP a
ĠP re
ĠP attern
ĠF eature
ĠF ood
Ġl and
Ġl aser
ĠB and
Ġ2 50
Ġ( )
Ġ( ('
log o
Ġu func
ch ild
ĠG raphQL
ĠRe gistration
ok u
ĠI O
ĠU pload
ĠU ntil
Aut or
port unities
am c
pro duto
Base Codec
ĠE mployees
ĠBase Codec
ĠBase Transport
Database Tests
load Codec
ace book
test app
fr a
Ġe g
"] :<
Ġno cover
ug gable
ĠUser View
ĠUser Info
Ġg uns
St ream
ĠV ideo
Ġpre pare
hover on
pyp ro
Ġtest ed
Ġinter preter
list a
list ar
Ġdo ing
Time Field
short t
Ġcl ose
ĠText Codec
Ġload er
ĠList a
Ġpart y
RE D
RE CT
'] },<
Ġabsolute ly
Ġcomp ile
ĠY orum
dict ionary
Request Parser
ĠDe precate
Ġdis play
.. .,
current value
RA TION
den ce
Ġwr ap
ens ity
Ġpr actice
]] ]]
Ð°Ð ¹
Token ObtainPairView
Ġtrans lation
Tr ack
Hover onValidator
ĠHover onValidator
include d
ĠRequest Parser
Py CQA
Ġhelp ers
custom ers
suffix es
ĠBlog DetailView
Ġcore schema
ĠWind ow
ĠĠĠĠĠĠĠĠĠĠĠĠĠĠĠĠ ĠĠĠĠ
Ġaccess ible
ĠInter section
Ġasy mmetric
assert False
Ġmulti ple
Ġbyte string
ĠFilter Set
agin a
join ed
tz str
tz file
tz range
tz ical
tz local
tz utc
tz offset
we e
vi ous
ĠRE QUI
Color sValidator
Color ssrcValidator
abstract property
Ġ### -####",<
ĠApp User
ĠApp ointment
ĠEx clusive
cre ase
cre te
categ orical
Ð¾Ð± ÑĢÐ°Ð
Sh ort
ĠContact Config
ĠColor sValidator
ĠColor ssrcValidator
Ġel if
att le
Todo APIView
Upload Model
Comp leted
Ġpl uggable
rl wrap
fe a
weet s
ĠĠĠĠĠĠĠĠĠĠĠĠĠĠĠĠĠĠĠĠĠĠĠĠĠĠĠĠĠĠĠĠ ĠĠĠĠĠ
2019 02
esc ape
public ada
LI C
BLO G
relative delta
ĠCol umn
Sc eneValidator
eu ro
Ġqu iz
less ons
ĠDeprecated TzFormatWarning
landing pagewebsite
some thing
ĠWe ather
ĠSc eneValidator
Ð¾Ðº Ñĥ
+)/ $',
+)/ $",
ĠLay out
Ð°Ð´ Ð°Ñĩ
fold er
non negative
ĠBBBBBBBBB BBBBBBBB
ĠRichTextUploading FormField
Lo op
Ð¸ÑĤ ÑĮ
dest roy
char acter
Social Auth
Ġlanding pagewebsite
ĠRef Space
favor ite
ĠCalc ulator
Ġstock s
tzwin local
ĠÑĩÐ¸Ñģ Ð»Ð°
sw appable
respon ce
FT WARE
SO FTWARE
icon tains
Ġcy cle
iversity C
CB V
fd v
åĲ į
ĠDirect or
PK CS
ĠUserRegister Form
Deprecated TzFormatWarning
pur ch
ordin ate
hot mail
Ġ["- ",
Allow Any
IF Y
({} ,
ĠLikes Config
ĠON LY
ĠDef inition
[^ @
Non UploadModel
ĠAsymmetric Padding
Ġdrag ons
Ġdinos aurs
ĠExclusive Union
! !
' m
( """<
) ])<
+ '
7 9
> }
A p
B ack
B LE
B raintreeError
C opy
C ookie
D r
F eature
G enre
H ost
I M
I SS
M S
M ITE
P O
P ort
P ON
P art
S u
S um
S ample
T RANS
V A
V O
V iaTemplateActivator
X ML
a cl
a ded
b b
b at
b ul
b est
b io
b iblioteca
c d
c pf
d c
d og
d icated
e mplo
f lock
g ue
h r
i er
l if
m ixins
p ont
p izza
p ayload
p ending
r ator
s age
s il
s urvey
t ed
t Ops
v atar
w ide
³ Ð¸
³ Ð¾ÑĢ
Ð ¤
ç ļ
è ®
Ġ ab
Ġ ctx
or l
or ity
at ches
on ym
se ns
er at
me eting
in ation
al hes
__ ",
as type
as Config
re gistry
Ġp ing
ly a
ap ro
ur are
ode d
Ġf ail
Ġre view
Ġre gistry
ue vo
Ġs istema
Ġ' "']<
ex act
tr i
tr l
co olsite
get env
ĠT emp
Ġthe ir
nt e
ĠA ss
ĠA ctor
ers Config
ĠS AFE
ĠS ample
ĠS ong
Ġc ms
ser ial
GI NG
Ġb et
th ird
ĠC urso
00 5
wsgi app
Ġd rinks
ata forma
com m
Ġn ickname
ĠL egacy
ĠL azy
ĠL iteral
Ġde velop
Ġde dicated
=' -
ĠP arse
ĠF ake
ĠF loat
ĠB lacklist
ĠB raintreeError
ĠG enre
ĠRe g
om i
ĠI P
ĠI terator
ĠI ssue
ĠU sage
Ġ""" )<
pre miosplatziapp
Ġver ify
ec ho
urls hortener
et ings
ER E
port s
Ġ{ %
ĠH ex
Text Choices
Ġco olsite
ME TA
ĠE dit
ĠE ditor
trans form
put e
Ġbe ing
Ġbe come
ri de
Ġth read
Ġth rows
opt ion
Ġview set
ĠW or
ĠOr iginal
ise ase
ĠUser name
Ġg h
Ġg enre
De scription
ĠV iaTemplateActivator
Ġpre miosplatziapp
Ġtemplate tags
ĠMe mo
Ġinter ested
list ed
Ġinclude d
List CreateAPIView
Ġsub stitution
ĠĠĠĠĠĠĠĠ ĠĠĠĠ
LO G
Ġpar ameter
#### ##
not ification
Sub Factory
RE CAPTCHA
RE GIST
Ġ[' \
'] ].
Ġauth enticate
Ġiter tools
Create Serializer
client e
us ing
ĠDe bug
process or
ĠDis play
Ġcase s
av g
mon key
Ð°Ð ¶
Ñģ Ñģ
ĠAr t
ĠAr row
Ar row
ank s
06 0000
aph ic
Ġso on
ĠOn line
{} )
exp ired
Ġbuild ing
03 060000
Administ rator
Ġhe ader
Ġhe adline
RO P
mer chant
ĠTask Serializer
agin ator
}) '.
ĠStudent Serializer
Run SQL
Ð² Ð²ÐµÐ´Ð¸ÑĤÐµ
Ð² ÑĤÐ¾ÑĢ
Ñĭ Ð²
ĠOrder Serializer
we en
emp lead
19 6
19 90
ĠAuthor ity
ĠWeb Config
number Of
sent inel
Ð°ÑĤ Ð¾ÑĢ
Toml Error
serv icios
att en
CO MP
Ġtoken s
ĠClient es
Ġ'\ "']<
Home View
go od
LI MITE
Ġ{} ):
Password ResetTokenGenerator
present s
Ġcount s
ĠNews Config
FU RA
ĠCompany View
ts Ops
Ag ent
Le vel
Rec ord
numer o
ĠCr yptogr
help ers
PL A
ĠÐ½Ð° ÑģÑĤÑĢ
',) }<
ĠSSSSS SSSS
istr y
Ð°Ð½ Ð½Ñĭ
Ġnd array
ĠFr ame
pict ures
addr info
Sp odeezer
yam db
formular ios
Help ers
Ġcor rect
ĠPassword ResetTokenGenerator
ĠOffer Admin
Ġsubscrib ers
snack s
ÐĹ Ð°Ð´Ð°Ñĩ
ĠBol tOps
ĠBol tsOps
ĠWh at
PACK AGE
went y
shipping address
hem as
Ġlimit ed
ingredient s
CONTE NT
Ġph onenumber
ugi fy
aris on
imm utable
Shipping Address
022 400
tagged item
ĠÐ¼Ð¾Ð´ÐµÐ» Ð¸
Desk top
Ġshar ing
Ġ'{} ({},
ĠGraphQL View
amc rest
Ð¾Ð±ÑĢÐ°Ð ¶
pont ot
çļ Ħ
urare ceita
ĠAss ume
LIMITE D
ĠCryptogr aphic
$ "<
' ',
, ###
1 202
4 02
6 9
A SE
A nd
A ns
A ssertionError
A mbientValidator
B logs
C allable
C alled
C urrency
C FF
C trl
D T
D a
D river
D iffuseValidator
E B
E AR
F oo
F ood
F resnelValidator
F ailure
G H
G radient
H ighlight
M iss
M enu
O ver
O kta
P er
R UD
R oughnessValidator
S ec
\ <
_ ):<
a ol
d ia
d ns
d Agg
d iffuse
d isease
e kt
f c
f w
f resnel
f eatured
g a
g ui
h ide
h ape
h ighlight
h inx
l iv
m ad
m ace
m ask
m oproject
n pt
p adding
p wd
r shift
s pl
s qu
s use
s Datetime
t ile
t asrcValidator
t shift
t urist
w as
w art
x is
ç ®
Ġ å
Ġ environ
Ġ images
Ġ learn
Ġ role
Ġ ???
ĠĠ čĊ
or ed
at racoes
on srcValidator
se Url
er o
me asurement
in set
in teger
ar m
mp ed
ort ran
ort unity
ro l
an Validator
de adline
__ :<
ion Validator
pl ar
as tr
it finder
it coin
re trieve
re quires
st ats
ang er
ut ri
ot hes
Ġp iv
ic ro
Ġt d
Ġt urn
Ġt lds
ap is
Ġm i
ge shape
ent ial
ed i
ur y
ct rl
Ġre gisters
Ġs sn
Ġs cope
Ġ' [
ex pense
get Messages
ac andy
up on
type src
ĠT T
ĠT op
ĠT wo
ect or
ĠA mbientValidator
ul ation
ĠS T
ĠS ent
ĠS ens
ĠS SL
ĠS wart
Ġc hoice
Ġc urrency
Ġc ars
(' %
(' __
min orgrid
able Offset
ĠC opy
ĠC ertificate
ĠC RUD
00 2
00 6
to self
pp ortunity
ĠM ace
ĠM usic
ĠM enu
ĠD iffuseValidator
ho sp
Ġd atos
his ker
aut if
Ġcon cat
com mit
color srcValidator
Ġis CFF
ial Mo
te legram
ĠL iked
Ġde co
Ġde compile
Ġde partment
Ġde leted
__( )
res um
ĠP lease
ĠP ubl
ĠF resnelValidator
ĠF avourite
Ġl atter
ĠB el
ĠB box
ĠB rand
text angle
ver ification
mail box
default Axes
ip Validator
ip ient
ip board
Ġu fo
lat able
ch sp
par allax
ĠG radient
TT ype
om bre
Ġop portunities
cal egroup
auto bin
qu ential
ok i
ok ta
Ġr u
Ġr ate
ĠO ne
ĠI lya
Ġor ient
out lier
es cola
max displayed
Ġh andlers
Ġh amcrest
ĠH ighlight
mar gin
Text angleValidator
": "
Ġ(" ???
pro p
art ists
ĠE du
ĠE mploye
ĠE ting
trans formation
In ada
String Dtype
Ġ3 1446
Al ignValidator
Al ignmentgroupValidator
ĠR out
ĠR oughnessValidator
Ġe ver
du plic
ide s
ide sValidator
Ġit self
Ġit finder
code star
Cl io
File Reader
>@ _
check view
size Validator
ĠSt andoffValidator
nd array
nd iter
ange Validator
St andoffValidator
af ter
ĠV ault
Client e
ĠMe etup
index er
index ers
Ġdate Format
Editor Uploading
spec ular
ĠPro perty
Pro cess
list dir
json Validator
List Item
Ġdo ctest
play list
Ġcl i
ĠText area
ĠText angleValidator
sub process
Ġra ises
func Validator
Ġme nu
Ġme dia
Ġ{" ^
Ð° Ñı
data class
VER IFY
28 3
over view
RE SS
ĠType srcValidator
Ġcomp lain
') ),
Type srcValidator
ĠPy lint
comp eticao
count s
contour Validator
contour sValidator
bin xValidator
bin yValidator
ĠY our
]) ),<
ĠNot Support
pk ix
range ment
pet Validator
pet stagram
Ide ally
sl ots
Ġal ong
domain s
orig inal
mys ock
Ġprovide s
ving Window
URL CON
den a
ĠCustom Backend
Ġcode star
Inter val
start s
gr ant
gr ams
Ġfirst name
pr act
ĠBook Form
Ar r
heat er
logging Tools
Ġge ek
Post Detail
uration Validator
cat er
Py Test
Py Tables
PRE FIX
bound sValidator
labels src
200 7
rat ioValidator
server Command
ĠBlog ListView
ranges lider
Project s
ĠFlat Page
### -####",<
onent ialMo
ĠTest Models
Multi Widget
ĠModel State
adio Select
Lookup Error
Custom Backend
of acandy
divid ers
Ġlast name
Ġvalid ated
201 3
til ing
Ġblog app
ĠAl uguel
ĠAl ignValidator
ĠAl ignmentgroupValidator
Ð² ÐµÑĢ
ĠOrder Item
simple Action
align Validator
Color listValidator
news hape
Ġ### -##-##",<
AD MIN
axes labelsValidator
Ġdeprecated ModuleAttribute
rad ar
note book
Sh ift
ĠContact Admin
ÑĢÐ°Ð ±
ÑĢÐ°Ð ²
CO UNT
rand n
ãģ Ĥ
gre ssion
gre eting
amb ient
ĠCar s
Package Support
ãĤ ĭ
ti enda
Ph Provider
sin ce
Upload Url
Ñĩ Ð¸Ðº
eting of
ÑĢÐµÐ ´
person as
Ġ##### ",<
Ġ##### ###",<
Ġnum bers
access or
Home PageView
render er
Ġcr ypto
offset group
67 3
ground colorValidator
ĠĠĠĠĠĠĠĠĠĠĠĠĠĠĠĠĠĠĠĠĠĠĠĠĠĠĠĠĠĠĠĠ ĠĠĠĠĠĠĠĠ
2019 1202
bu f
public ado
ĠForm Helpers
COM MIT
",) }<
ÐµÐ½ Ð½
alignment group
Ġtool z
Ġtool kit
rg b
rows izeValidator
Offset groupValidator
fil ls
ĠExtension Array
Di vision
Trans action
ĠÐ¿ÑĢ Ð¾
Ġper form
ĠCompany Provider
ĠStock Serializer
Ġdif ferent
urist co
bins xValidator
mios app
constr ain
pikes idesValidator
Of Bound
ingroup Validator
ĠNa oki
ĠCr ispyError
Ġfollow ed
SIG NING
ĠMin orgrid
Ġcont ato
bal ance
ĠSSSSS S
ĠSSSSS SS
theta Validator
ĠTeacher Admin
onto s
Build Path
asite Axes
ĠSparse Array
ĠSparse Dtype
ĠOffset groupValidator
busc a
Min orgrid
edu ca
patient s
Default Table
Company Provider
ĠÐ¿Ð°ÑĢÐ°Ð¼ÐµÑĤÑĢ Ñĭ
ĠSp ace
ixed Forward
quot es
BackendQT Agg
BackendQT Cairo
Ðĺ Ð·
ĠÑĦÐ¸Ð»ÑĮÑĤÑĢ Ð°ÑĨÐ¸Ð¸
Ġcor respon
ĠMax displayedValidator
Ð°Ð» Ð¸Ð·
ĠExp anding
ĠExp onentialMo
Ġmon keyp
market s
Position Validator
dr aft
rough ness
ĠCount Validator
filebrowser Brow
filebrowser UploadUrl
graph ql
ĠPosition Validator
Some thing
depth Validator
Ġcy toolz
ĠPl ace
ĠPeriod Index
background Validator
Max displayedValidator
Spec ularValidator
categor icals
TZ Dtype
ĠPart yAnimal
ĠSpec ularValidator
ĠVe getables
Ġcompress or
]+)/ $",
ĠEvento Admin
Ġoper ator
ĠÐ½ÐµÐ¾Ð±ÑħÐ¾Ð´Ð¸Ð¼ Ð¾ÑģÑĤÐ¸
Count Validator
ĠLookup Error
colorm apValidator
encod ings
construct or
Ġplay s
Ġhint ing
shad ingValidator
song ofacandy
ĠÐ¿Ð¾Ð» Ñı
ĠIsOwner OrReadOnly
UFO LibError
ux Trans
idkey Validator
ORTE D
##-#### ###",<
argin Validator
binsy Validator
elform atValidator
ranchvalues Validator
sid ered
å® ļ
ĠDynamic Error
ĠÑĩÑĤ Ð¾
otation Validator
adiu sValidator
Ġbehavi or
ivid ad
ĠÑģÑĤÑĢ Ð¾ÐºÑĥ
ĠFL AG
particip ants
ĠÑģÐ¿Ð¸Ñģ Ð¾Ðº
ĠFrontend Config
Root S
atist ics
ĠCD P
ĠPa ul
fea Lib
PON SE
VO LT
lif LibError
ĠFloat Model
Miss ion
fw f
spl ine
turist icos
Ġpiv ot
ĠTwo Config
ĠSwart z
ableOffset WindowIndexer
ĠLiked Item
defaultAxes Class
Ġufo Lib
calegroup Validator
ĠEting of
duplic ating
EditorUploading Widget
ĠNotSupport edError
URLCON F
PackageSupport BuildPath
ĠFormHelpers Exception
OfBound sDatetime
ixedForward WindowIndexer
Ġcorrespon d
ĠExponentialMo vingWindow
filebrowserBrow seUrl
! "<
" }
" ><
' }),
) ?
+ ")
. ')
/ $",
2 000
2 08
3 000
6 5
7 5
8 4
9 1
9 2
: /
A t
B O
B ot
B IT
D ay
D OU
D ROP
F LO
G U
G o
I MP
K IP
M O
M ater
M usic
N ormal
O L
S ens
S ale
S cheduler
S oftware
T emp
U ER
V ideo
] ")<
] '])]<
a vel
a dena
b d
b n
b ike
b az
b attle
c ircle
e th
f oc
f oto
f requencies
g f
g ateway
h ao
i ro
j av
l in
l and
m i
m ock
n notes
p x
p ersist
r st
t inymce
u ses
u ck
v alidator
w itter
y b
y ou
z ure
Ð ¶
ä º
å Ľ
è ·
Ġ ir
Ġ 404
Ġ Ðµ
Ġ place
Ġ extensions
Ġ roll
Ġ zero
in s
in ical
in stagram
ar ily
al endar
an a
an nel
as set
as sets
as ics
le ar
st uff
ot p
Ġp ut
Ġt mp
Ġt weet
ap on
Ġ" {}
Ġm anag
Ġm usic
Ġse lenium
op ulate
con tains
Ġre t
Ġre ce
Ġs k
Ġs hell
Ġs ale
ex c
co ding
get Notes
ter house
Ġv irtualenv
ĠT weet
ĠA ut
ĠS end
ĠS ocial
ĠS ingleton
Ġc art
Ġc ast
(' /<
ma ils
all ow
Ġb uilt
th at
ĠC K
00 8
ist as
Ġa ware
Ġfor ward
ĠM E
ho ur
Ġd at
Ġd otenv
Ġcon sumer
Ġcon vert
Ġn et
ĠL ANGUAGE
LE EW
ĠF unction
Ġl arge
ĠB utton
Ġ( %
Ġos car
default filters
ip c
her oku
lat ed
ch rome
la ugh
Ġvari ant
har d
ĠU SE
ĠU rls
ĠU buntu
Ġst yle
pre ssion
pre fetch
ec ute
mar ca
01 4
ĠE pisode
ĠBase User
im iter
per formance
AU DI
eg gs
AL L
AL GORI
File s
Po ol
ender eco
ĠW r
User ViewSet
ĠV alid
ĠMe thod
Pro files
ance l
Time delta
ĠTick et
Ġsub classes
DI RECT
sub s
Ġra w
IN STAL
ven ue
ff ice
Ð¸ Ð°Ð»Ð¸Ð·
TH M
Sub mit
'] )
ĠIn ternet
') ()<
') },<
Ġout standing
Ġbut ton
ĠÐ Ĵ
ĠPost Config
ular io
us hes
val or
04 00
ĠDe precationWarning
book ing
ra in
process ors
Ġwr ite
Ġsp hinx
Ġcode cs
Ġtop ics
ĠTodo List
Ñģ Ðµ
Token BlacklistConfig
di u
ĠMar ca
ĠToken BlacklistConfig
ud get
Ġcover age
Detail APIView
ĠTrans lator
row er
>/ ',<
prec io
ĠTest F
Multi ple
ash Activator
raw l
Ð» Ð¾
ĠZ one
ĠCategory Serializer
Ñĥ Ñİ
RO W
ĠItem Serializer
Ġbuiltin s
can vas
ĠOrder ViewSet
emp resa
off sets
AD ATA
Ġsign ature
Ġhttp ie
ĠÐ´ Ð°Ð½Ð½Ñĭ
Ð¾Ð² ÐµÑĢ
={ ('
Update Destroy
Sh im
ãĥ «
Do main
verter s
ish Activator
angu ages
amb re
ĠCar Serializer
ÐµÑĤ Ð°
ÐµÑĤ ÑģÑı
Ðº Ð¸
Ðº Ð°Ð¶
Ġrec ord
ĠHello Config
ĠCateg ories
ĠÑģ Ð¾
ĠAbout View
libr eria
Ġcat alog
ima gen
sal ary
Simple Router
ĠCo un
icy cle
ÐµÑĢ Ð¸Ð°Ð»Ð¸Ð·
ÐŁ Ð¾ÑģÑĤ
slic e
izz as
Trans lation
Ġke ys
album s
head line
Ġcut s
ĠCategoria Admin
ces sed
VAR CHAR
ĠÐ¾Ð± ÑĢÐ°Ð±
Clo se
Clo ud
ĠMembers Config
INT ER
meetup s
fact ories
FIELD S
DATE TIME
Ġpaypal http
Ġ%} .',<
00000000 00000000
sw itch
ÐĲ Ð²ÑĤÐ¾ÑĢ
SO CK
MET ADATA
cri acao
ĠTool kit
recent ly
ĠÐ·Ð°Ð ³
ĠÐ·Ð°Ð ¿
Rel ated
With Re
Ext ension
JW K
JW T
Ġer r
assertIs Instance
Fl ushes
Ġfeed back
ower ShellActivator
iner aries
confirm ation
Bear er
ĠPontoT uristico
lectron ic
ĠÐºÐ¾Ð½ ÑĤ
EN CE
UB LIC
SERVI CE
ÐŁÑĢ Ð¾Ð²ÐµÑĢ
gan ization
Tool bar
edid os
ĠLib ro
nos is
æĹ ¥
osp ital
quir y
ĠOpenIdConnect Auth
ĠÐ·Ð°Ð´ Ð°Ð¹ÑĤÐµ
åĩ º
ĠDel ivery
ĠIO Error
ĠCalculator Config
ISS UER
³Ð¸ ÑģÑĤÑĢ
onym ous
Ġbet ween
='- '),<
hosp ital
ĠEdu cation
VERIFY ING
ĠSpace objects
DOU BLE
FLO AT
Ġmanag ing
LEEW AY
laugh terhouse
AUDI ENCE
ALGORI THM
INSTAL L
ÐµÑĢÐ¸Ð°Ð»Ð¸Ð· Ð°ÑĤÐ¾ÑĢ
$ ',<
( -
( ('
) },<
, ):<
- >
. ")
/ \
/ ><
2 14
5 12
7 0
9 50
: "))<
= _
A s
A CT
A uction
B and
B ank
C at
D O
D one
D ashboard
E dit
E NC
F aker
G EO
H ist
H ide
H otel
H ERE
I mport
L azy
M ed
M and
M ail
M ORE
M irrorValidator
O ffer
O pportunity
P G
P ay
P lat
P ress
P anel
P adValidator
R F
S OR
S plit
S ymbolValidator
S howspikesValidator
T K
T XT
W ild
W EB
X periodalignmentValidator
Y EAR
] ']),
b uiltin
c y
c urr
c fg
c inema
e id
f v
f on
f cm
f leet
g pl
h project
h ub
h igh
i ac
i us
j up
k k
k Editor
l ue
l ata
l ive
m ale
m irror
n ed
n uevo
o v
o up
o ol
p end
p aypal
q s
s at
s im
t m
u ation
w ers
y ter
z en
z od
} '.
¡ ç
¯ çĶ
å Ĭ
è ¯
Ġ æ
Ĳ Ĩ
at ype
se parator
in ce
in Bo
imp licit
ame l
an ie
de sk
as i
as ury
Ġ= >
it Wild
st er
django chat
django crud
Ġp gen
ator y
ic ec
Ġdjango chat
Ġdjango crud
Ġ" ?
Ġ" ###
he alth
is ol
base s
Ġre gistr
Ġre actor
Ġre ceitas
Ġs on
Ġs afe
Ġs itemap
ex clude
co ast
ac i
ing Config
Ġname s
ĠT IN
ĠT utorial
ĠA v
Ġget addrinfo
ib log
and int
ĠS O
ĠS TA
ĠS ymbolValidator
ĠS howspikesValidator
min s
all ery
all ticks
Ġo cc
un register
Ġb abel
ĠC har
ĠC ash
ĠC ookie
ist i
ĠM OD
ĠM irrorValidator
form set
ho o
ho la
Ġd t
Ġd joser
ĠN atural
aut om
com me
Re al
Re porter
Re presents
Ġex act
str ptime
Ġde s
Ġde st
SE NT
=' /
~~ <
ĠP layer
ĠP adValidator
ĠP inBo
Ġto o
ĠB ad
ĠB ASE
Ġ2 001
Ġ2 49
Ġ2 46
Ġ2 47
Ġ2 48
Ġ2 45
sp ikes
Ġ( ###)
ht m
Ġu ntil
Ġu suario
Ġu gettext
ĠG itWild
ANG ED
Ġconfig obj
ĠRe servation
are house
ime iro
register ed
Ġr untime
Ġr andint
ĠU su
Ġst udy
andler View
sc hemas
et c
et list
Ġh or
am o
ĠH andlerView
pro g
Ġco er
Ġco okie
CH ANGED
PE D
PE S
ĠE NUM
path spec
ĠBase Endpoint
ke ys
im ing
conf test
JSON Renderer
per m
In formation
In clude
sy ntax
ne ed
ĠR O
ĠR ender
ith ual
api Config
api settings
Ġe b
ide nt
Cl ipboard
eg in
File Path
ĠSt ate
TI T
Ġtr ansport
ĠW HERE
ĠOr ders
Command s
Email Input
ĠUser Registration
Ġg ender
De bug
St and
ĠV is
Ġpre paration
Test ing
Ġinter act
spec ific
PD F
col umns
Time Del
order ed
order item
vis ors
ict ure
001 7
SI ZE
Ġsub module
play lists
group gap
DI A
Ġ200 4
sub scriptions
Name s
my blog
my todo
my world
my notes
ĠK itap
ĠError s
LO CAL
#### ###
ey e
ĠRegister APIView
Ð° ÑĢ
not hing
Ð¸ ÑĪ
ĠAPI Exception
ook ies
Ġchar s
Array terator
Ġpart icular
ĠIn ternetProvider
Ġcomp onent
') ))<
') )"<
aps cheduler
ĠMulti Index
tour s
first name
Ġcan not
su ch
ĠÐ Ł
ĠPost DetailView
ĠX periodalignmentValidator
Implement ation
Ġlo op
Ġal uguel
ÑĢ Ð¸Ð
Ġaddit ion
04 23
PY TZ
.. /
URL s
CA PES
Template s
mon itor
ĠTodo ViewSet
Ð°Ð ¼
Token Endpoint
Ġj s
Ġj wt
ĠBook Serializer
Id Field
Ġ25 1
Ġ25 2
Ġ25 3
Ġ25 4
[: -
>~~~~~~~~ ~~~~~~~~~~~~~~~~
>~~~~~~~~ ~~<
200 5
Lay out
APP O
He ightValidator
ĠĠĠĠĠĠĠĠĠĠĠĠĠĠĠĠ ĠĠ
ĠĠĠĠĠĠĠĠĠĠĠĠĠĠĠĠ ĠĠĠĠĠĠĠĠĠ
let ion
CUR SOR
Ġsh ape
chan nels
Match Pattern
{}" .
ĠSub scription
iv ar
iv ro
######## ",)<
Ġmy todo
Ġmy world
Ġmy notes
with in
Manager Mission
MEDI UM
ĠHome page
ĠHome Page
Pick ler
Ñĭ Ð¹
ĠÐ¿ Ð¾
ĠÐ¿ Ð¾Ð»ÑĮÐ·Ð¾Ð²Ð°ÑĤÐµÐ»
ĠÐ¿ ÑĢÐ°Ð²
ph inx
off line
cre dit
chat s
ĠCl ing
ĠWeb socket
ĠÐ´ Ð¾Ð±Ð°Ð²
Api ViewSet
sent iment
warn s
cover y
Ð½ Ð¾
Ð½ Ð¾Ðµ
delet ed
Gener ated
Ð¾Ð» Ð°
Ð¾Ð» Ð½
Ð¾Ð» ÑĥÑĩ
Sh ortener
ĠContact View
Result View
crud project
att endance
rand int
ãģ «
Ġbook store
gre tting
-#### -###",<
ĠIs Admin
Permiss ions
ãĤ ¿
tra vel
ĠComp ress
ĠLe vel
ĠTime FromTicks
ĠTime Sta
Comp iler
Comp atibility
report s
PRO JECT
NBit Base
scal ar
shows pikes
job s
Choice Filter
element s
sal a
Ġav atar
Ġsimple json
LI CENSE
foo bar
ĠPerson a
ĠCol lection
Ġk nox
oll ar
git wild
ĠAddress ViewSet
example s
example app
ĠChat Consumer
QUE ST
IP T
Ġgr ab
ĠEmp resa
Ġsnippet s
anual ly
Ġpri ority
Contact o
OpenId Connect
ĠFeed Source
dentials Grant
xperiod alignment
CR IPT
cor p
Ð°ÑĨÐ¸ Ñı
CON FI
ĠCr ypto
ĠDate FromTicks
ĠÑĥ ÐºÐ°Ð¶
rott ling
gram m
lon axis
LONG LONG
Ġsl ugify
Ġgre eting
Ġgre entest
Ġlocal time
ĠTimestamp FromTicks
Feed back
AUTO COMMIT
Ð»Ð° ÑģÑģ
ĠFI RST
BACK SLASH
ES CAPES
Ġ327 67
ĠLabels Validator
ĠLabels srcValidator
Zeroline Validator
Zeroline colorValidator
Zeroline widthValidator
ĠZeroline Validator
ĠZeroline colorValidator
ĠZeroline widthValidator
zeroline color
zeroline width
Labels Validator
Labels srcValidator
lean up
Ġmon key
ĠAbstract Distribution
Ġactual ly
ble m
implement ations
ĠTod osConfig
Abstract Distribution
gn u
__=' ''
MET RY
ita mins
ĠPr ice
Cre dentialsGrant
Spike colorValidator
Spike thicknessValidator
wild card
ĠSpike colorValidator
ĠSpike thicknessValidator
spike color
spike thickness
ĠSchool Config
Ð¢ ÐµÐºÑģÑĤ
Ext end
Fil m
SH ORT
geek s
geek shop
ĠSupport sIndex
ĠInterval Index
ĠClass room
AC COUNT
ĠSnippet sConfig
ĠRefresh TokenGrant
ĠTestP ickle
LA ST
tre asury
ĠLoc al
TokenGrant Dispatcher
Ġjob lib
NEW DATE
NEW DECIMAL
ĠWebsite Section
GO OD
ĠHe ightValidator
Exp ired
asci i
ĠRun ner
ENT RY
Swagger Error
gra de
Ġattemp ts
ĠElement al
ĠVer ify
ĠTimedelta Index
ĠImplicit Grant
ToDo List
mbed ded
RESULT S
>================ ====
Element Include
è¡ ¨
ament o
ĠCre dit
izont al
ĠUserInfo Endpoint
ĠREQUI RED
crete Model
wide uk
Ð¤ Ð¸Ð»ÑĮÑĤÑĢ
Ġdevelop ers
REGIST RATION
pontot uristico
Over view
Ġ??? ",<
itcoin rate
Ġturn ed
Ġru amel
Ġgeek shop
DROP PED
IMP ORTED
yb rid
è· ¯çĶ
Ġtmp dir
ĠME DIA
ĠÐ´Ð°Ð½Ð½Ñĭ Ñħ
INTER VAL
ĠÐºÐ¾Ð½ÑĤ ÐµÐºÑģÑĤ
ÐŁÑĢÐ¾Ð²ÐµÑĢ ÑĮÑĤÐµ
GEO METRY
cy toolz
jup yter
lata xis
zod iac
isol ation
ĠTIN Y
ĠPinBo ards
ĠGitWild MatchPattern
FilePath Field
Ġtransport s
TimeDel ta
gitwild match
è·¯çĶ ±
" (\.
' (-
) $"<
* '<
- ]+
. "),<
/ .<
/ ([
2 16
3 59
4 29
7 4
: ])<
= <
= '<
> %
> (
> })<
A CCE
A ssert
B LA
C ream
C atering
C ookies
D LI
F S
L ANGUAGE
M B
N um
P et
P lan
S ender
S mall
S tock
S CRIPT
T P
T od
T LS
V alidation
a valiacoes
b f
b ine
b ill
b ye
b undle
b lock
c ce
c ine
c resource
c ursos
c acert
e te
f otos
g u
g ol
h ort
h an
h apro
i end
i ved
i ence
i ography
j e
j k
k b
k r
k y
l st
l ap
m ant
m angle
m anagers
m istry
p ull
p aper
p izzas
p edidos
s air
t l
u c
u fact
v tk
w j
w ho
| _
| __
} .
¨ Ðº
» é
Ð ĵ
Ð ļ
Ð ł
Ð ¨Ðº
ä ½
å ı
æ ķ
ï ¼
Ġ ,<
Ġ ",
Ġ est
Ġ }),<
Ġ ViewSet
Ġ })
Ġ ãĥ
or ias
at che
se ll
in ch
in secure
al eria
an ne
an not
an alysis
de pt
__ )/
pl ataforma
rom ot
it able
re eting
re mental
le ave
le br
id a
id ade
st ors
ut ing
ot a
ot ote
Ġp atch
Ġdjango project
Ġ" $
Ġm app
Ġm igr
Ġm atrix
Ġm anually
ent al
ent ly
ent ic
Ġse p
Ġse ns
ur er
he ther
is digit
Ġf od
con te
con ch
con tainer
Ġre gistration
Ġs ample
Ġs nack
Ġs cheduler
Ġs urname
Ġs orl
=" {
=" __
ex ist
tr as
Ġv ideo
fig ure
ad vertisements
Ġin te
Ġin line
Ġin ner
ab s
ĠT k
ĠT ax
ĠT arefa
ect edError
ĠA ction
ĠA partments
ore s
ate ver
ĠS phinx
Ġc pf
Ġc acert
ce Cream
(' \
od er
ser ialize
Ġo auth
Ġsup posed
un a
># #
Ġb io
Ġb lock
th en
ĠC ython
ĠC kEditor
ite st
ite space
Ġa ff
lo ok
to x
ĠM ode
ĠM PL
ĠD ateTime
ack s
ack ages
Ġcon stant
Re sol
Re solver
Re ceitas
Re servation
Ġex tras
admin s
admin istr
oc r
Ġde precate
res hold
ick start
ĠP ick
ĠP ub
ĠP RE
ĠP atient
ĠF il
Ġl ater
Ġl xml
ĠB ranch
Ġ2 4
ver sed
int ro
sp r
mail ing
ip ment
ip yn
url encode
log y
ch no
ch ron
ĠG PL
ĠNO NE
ĠRe trieve
ĠRe sume
ĠRe gression
OD ER
qu it
qu ipment
02 23
ok eh
ĠO ID
ĠI Python
file path
nc oded
Ġst able
Ġst atistics
ec ca
es a
es ome
view set
Ġh app
ĠH otel
Admin Config
mo zilla
Ġnot es
ĠE d
ĠE ASY
CK EditorWidget
ĠBase Model
TE CT
ind ices
In voice
dis h
ĠSe ttings
CE HOLDER
ant ic
BU FF
dir env
atter s
Ġpro duto
Al ready
Ġe name
Ġe mac
format ting
org ot
Cl ick
sh ip
Ġform ulario
Po int
ĠSt atus
post al
Ġdist ributed
ĠW atch
Ġg ame
Ġg reenlet
Ġg eneration
De vice
ND ING
User RateThrottle
Test Plugin
pyp ackages
ĠMe eting
py w
Ġtest tools
Ġcollect ion
spec ial
spec ialist
und o
und ing
List ModelMixin
Ġrest aurant
50 9
Ġdo main
001 8
iter ator
short code
short ner
202 01
Ġnull context
Ġcommand s
IN CLUDES
ĠThe se
Ġne cess
Set up
Ġinternal ly
Ġpar ses
ĠCon f
Ðµ ÑģÑĤÐ²
Ġat exit
ĠList Todo
#### #
07 00
Ð¸ Ñı
entr ies
ÑĤ Ð¸
ÑĤ ÑĮ
Ġcomp at
Ġcomp ute
Ġ201 7
') [
do ctor
comp onent
read only
Django Config
Django App
ĠPost s
ĠTr ansport
sign Up
sl ack
dict s
Ex pose
rea ded
ĠDe tails
Ġdis count
ra va
process a
Me mo
ĠProduct Image
Ġwr it
ĠName Form
red oc
upload file
Ġcode s
ĠTodo Form
ĠTodo User
Ð°Ð ³
Ð°Ð ¿
dig o
mark down
ĠAr my
ĠBook Config
ĠBook ListView
rest api
Ġutil ities
TU RE
return ed
del item
== <
fa ker
Col umn
exp ectedError
rat er
rat ings
BBBB BB
for med
row ser
let ter
ĠTest Model
Multi Error
ĠModel B
ĠMain AppConfig
Ġte legram
ĠAP P
Ġhe ad
Product Detail
... )
rec ords
Date Converter
Ġ8 8
ĠProfile Serializer
ĠTask Admin
Ġjson ify
64 8
student atten
ĠLogin Config
Run serverCommand
part ner
ĠComment sConfig
place ment
'), )},<
Object Type
ĠAuthor Admin
ipp ed
Not icia
enc ia
AD DR
Ġsign up
FI LES
ĠÐ´ ÐµÐ¹
ĠSer ializer
Ð¾Ð² Ð°ÑĤÑĮ
cart s
ĠMo zilla
cel ular
Ð¾Ð» Ð¾Ð²
Ġorder ed
Ġcre dentials
serv ations
ãģ Ļ
Web socket
ĠCh rome
ĠÐ² ÑģÐµ
Value Error
ãĤ ¹
Author ization
che mistry
ĠLe arning
Ġcustom ized
PRO TECT
avor ite
AlterModel Table
Ð¾Ð´ Ð¿Ð¸Ñģ
ĠMovie Serializer
sv n
ĠGroup Serializer
"/ (\.
67 6
ÐµÐ» ÑĮ
ark et
ÐµÐ½ ÑĤÐ°
"^ (?
Ð´ Ñĥ
EX CLUDES
close st
FU TURE
Attribute Error
ÐŁ Ð¾Ð»ÑĥÑĩ
Ġad vertisements
Ġqu antity
Ġcopy reg
ĠUpdate View
Di ag
Ġmark et
ĠClo se
Ġper f
FOR CE
ĠFeed ing
Ġmeta class
kit ap
nom arket
Version s
cor rect
FILE NAME
Ġsec ure
ĠAdvertisement sConfig
ĠAdvertisement Filter
ĠDetail Todo
brand s
ĠTh readed
Char acter
Ġrepresent ing
ĠBBBBBBBBB B
INT MENT
Ð½Ñĭ Ð¹
uz zer
Ġ=' __
ĠÑĦÐ¸Ð»ÑĮÑĤÑĢ Ñĭ
çĶ ¨
ĠAbstract BaseUser
ĠListing Admin
Retrieve UpdateDestroy
2016 0423
categor ias
pay ments
ĠÐ²Ñĭ Ð²
Ġmypy c
Ġconstr uct
Method Field
ialized Nested
Ġdeclar ation
Ġdeclar ations
ause nte
ĠBBBBB BB
buck etlist
ĠMeasurement Config
alt or
teenth CRUD
ĠPar ser
Mem ory
ÑģÐ» Ð¸
Ð¡ÑĤÐ°ÑĤÑĮ Ð¸
Ac cept
Pl ace
adastr ar
pa id
relev ant
Ġelement s
ĠÐ¿ÐµÑĢÐµÐ ´
Verify View
BI NDING
RD PARTY
Ã³ n
wee ter
ĠWor k
COMP RESS
PLA CEHOLDER
GH G
ç® ¡ç
rol ls
resum o
Ġmonkeyp atch
)? $',
Ġir relevant
ĠBaseUser Manager
ĠÐ¾Ð±ÑĢÐ°Ð± Ð¾ÑĤ
Related Field
ENC ODER
Mand atory
icec ream
ĠSTA TIC
ĠCookie Stand
Ġcookie cutter
Ð¸ÑĪ Ð¸ÑĤÐµ
APPO INTMENT
ĠÑĥÐºÐ°Ð¶ Ð¸ÑĤÐµ
Ð¤Ð¸Ð»ÑĮÑĤÑĢ Ñĭ
BLA CK
DLI B
Small IntegerField
hapro xy
mangle d
ufact urer
Ð¨Ðº Ð¾Ð»Ð°
sell ing
annot ate
__)/ "
romot ion
lebr ity
otote ch
Ġfod der
look for
ĠPub DateConverter
ĠPRE FIX
ipyn b
0223 00
ĠOID C
ecca k
Ġemac s
studentatten dence
ĠÐ´ÐµÐ¹ ÑģÑĤÐ²
ÐŁÐ¾Ð»ÑĥÑĩ ÐµÐ½Ð¸Ðµ
ĠThreaded Resolver
ç®¡ç ĲĨ
! ",
" '
" (
( ...)
) ")<
) ##
) (__
+ <
. ##
/ ")<
0 32
1 404
1 08
2 40
4 55
5 64
6 07
7 6
: :<
; __
= {}
= âĢĻ
> )
A N
A v
A Validator
A ir
A TT
A srcValidator
A sync
A uxTrans
B u
B an
B srcValidator
B uiltin
C urrent
C over
C reated
C md
C adastro
D K
D ot
D FU
D anie
E l
E CU
E NV
F gcolorValidator
F gcolorsrcValidator
F unnel
F ixedrangeValidator
F gopacityValidator
G est
H as
H old
H alf
I ma
I ssue
J J
J ar
K S
L ow
L ess
L exer
M ace
M issing
M isc
N N
N EP
P AGE
P atch
P ending
P aper
R T
R GBAxes
S urface
S HI
S USE
S uffixValidator
S urvey
S kill
S ortValidator
S oliditysrcValidator
S KIP
T k
T ienda
T erminalWriter
U t
U til
U nsupported
V i
V ID
Y F
Y periodalignmentValidator
Z styleValidator
Z smoothValidator
[ ...,
_ ")
_ ]]
a View
a verage
a unchpad
b or
b src
b ank
b rec
b rain
c is
c ho
c var
c aptcha
c ythonize
d tickValidator
d onation
d within
f s
f edora
g as
g nt
g ray
g gle
h v
h ab
h all
j unction
m ue
m ath
n b
n orm
n apValidator
n asci
o ce
o minValidator
o maxValidator
p ong
p yshop
r ics
r dtypes
r aria
s i
s ug
t ally
t ures
t iming
u int
v t
v ag
v ied
v info
v string
v ado
w ar
w ise
x trans
x ri
x sd
y style
y markets
z A
z e
z opfli
z smooth
| (?
§ å
½ ®
¾ ç
Ð ³
Ð ľ
æ ³
æ į
Ġ que
Ġ im
Ġ hoverlabel
Ġ 500
Ġ Ð°ÑĤ
Ġ Ð¸Ð¼
Ġ rooms
Ġ istr
Ġ Ð¸Ð½
Ġ ??",<
Ġ Ã©
Ġ echo
ī Ī
ĵ ģ
at al
at an
at ars
at ingsConfig
on aut
>< /
se na
se lenium
er ence
er man
er fence
me di
in fra
ar istas
al iz
al ance
al pha
ro Message
import ant
de lay
de gre
de dent
__ ']<
__ '])<
__ =%
en k
en ido
pl icate
pl ain
Ġimport ing
as of
as ons
it ions
it bit
re gion
re asing
re servation
re arat
st ions
st orages
ang o
ut app
ot h
django job
Ġp ay
Ġp anel
Ġp ape
Ġp eople
Ġp ypro
Ġp yshop
ly x
ly nom
ly rics
gs Config
ation al
plotly js
ic ing
Ġt qdm
Ġt inymce
ap sValidator
Ġdjango py
Ġm ar
Ġm iddleware
ge trawcode
ass ignment
cl o
cl oc
ent ymarkets
def matrix
ed Score
kw ise
class room
ield s
Ġf a
Ġf our
Ġf act
yp ography
base line
con ta
con vert
Ġre set
Ġre port
Ġre quirements
Ġre asons
Ġs n
Ġs il
Ġ' ')<
Ġ' \\
Ġ' +'
(" +")
tr ack
Ġdef matrix
get value
get Note
get fslineno
Ġ__ <
Ġ__ ('
ac ient
Ġv otes
up rava
Ġin spection
Ġin sert
Field s
Field Error
ing Area
appl y
Con str
Con stant
Con tainer
Con straintextValidator
ĠT erminalWriter
ĠA Validator
ĠA srcValidator
ĠA CCESS
ĠA uction
ĠA sync
ers hip
Ġget argspec
Ġget fslineno
ib l
ib ir
ĠS S
ĠS core
ĠS ql
ĠS urface
ĠS tra
ĠS uffixValidator
ĠS ortValidator
ĠS oliditysrcValidator
Ġc ash
Ġc aptcha
Ġc ythonize
(' \\
od cast
ser ialized
all back
il ities
el icul
un ion
un configure
ment o
Ġb el
Ġb ug
Ġb rand
th rottling
th reshold
ĠC O
ĠC atering
lo s
to ggle
iz zer
iz ingValidator
end ian
pp erfence
ĠM on
ĠD b
ĠD own
ĠD ashboard
form Box
form atters
parent s
ay er
Ġd ns
Ġd upl
(_ ("
pt ion
po sValidator
po lynom
aut os
Ġcon sidered
Ġis fileobj
Ġis Mandatory
Re gion
Re quired
Re ceita
Ġex posed
Ġw atch
Ġw indow
Ġw elcome
ĠL eg
str uctions
Ġde compress
SE TU
=' ;
ses rcValidator
ĠP ad
ĠP rint
ĠP OP
ĠP eople
ĠF lo
ĠF gcolorValidator
ĠF gcolorsrcValidator
ĠF unnel
ĠF ixedrangeValidator
ĠF gopacityValidator
Ġto ols
ĠB srcValidator
ĠB illing
ĠB alance
text utils
text anchorValidator
project tracker
ub untu
ch imp
par o
par asite
la unchpad
atu aliz
ĠRe al
cal erat
bar Axes
() ;"<
ans rcValidator
02 44
ĠO kta
ĠI S
ĠI NT
Ġst ate
Ġst ep
Ġ""" \<
pre co
pre paro
et adata
Model Multiple
max depth
ĠWSGI Request
ĠH igh
ĠH yperlinkedModelSerializer
ĠH ouse
01 49
Ġ(" __
Ġco uld
Base Attribute
Base LegacyTest
ware house
Ġ(' -
ĠE commerce
ĠE XT
path s
trans pose
ĠBase LegacyTest
Ġcheck Path
Ġcheck Recursive
conf erence
ole Validator
ĠDjango ModelFactory
per f
per fil
In sert
In gredient
In direction
dis cover
ant illa
BU TE
ow oo
Ġ` ~
fix srcValidator
test e
test er
Ġser vers
value Validator
ĠR el
ĠR GBAxes
ĠR adioSelect
ĠR atingsConfig
ith ms
fr u
add ition
label Validator
label modeValidator
main loop
Ġe arn
Ġe mails
PI C
code Provider
sh apes
arg apValidator
inter p
inter po
AL U
ust ome
son Validator
info Validator
ull Validator
check Path
check Recursive
Ġlist a
Ġlist ings
size modeValidator
ĠSt d
ĠSt ore
ĠSt ream
post a
login f
ĠW ard
ĠW heel
ĠUser ModelViewSet
ĠUser SocialAuth
': "
De scriptor
FO O
ĠV ALU
axis artist
Ġpre cis
ert ex
update Item
update Note
py x
py Open
Ġtest app
Ġtest Case
ĠPro cess
ĠPro gress
Pro gress
MP TT
~~~~~~~~ ~~~~
prefix ed
sol iditys
ance Validator
ance stors
Boolean Filter
ĠDE LETE
Ġsc rap
order Validator
order padValidator
Ġbo ard
NSE RT
iter SourceCode
Ġsub plot
Ġsub set
Ġsub parsers
play er
sub modules
my web
my website
sup pDjango
Ġpar allax
ĠCon sumer
ĠCon straintextValidator
filter set
bug fix
25 9
ĠList CreateAPIView
ĠList ando
ĠRegister Serializer
Exception Info
Ð¸ Ð¸
Ð¸ ÑĦ
28 49
TH ON
Ġid ade
Ġpart s
Sub ject
'] ['
geo location
delete Note
Ġcomp arison
ĠFile Response
') ;"<
Ġiter SourceCode
Data Fla
open suse
count Validator
ĠY periodalignmentValidator
Key board
su cce
Ġbase line
Par asiteAxes
Ġall auth
pk id
Django FilterBackend
ĠPost CreateView
product ion
about us
Ġformat argspec
ĠX ML
ĠX XXX
vent hproject
Ġdi visors
Ex port
Create Api
Ġal unos
Ð¾Ð ³
Ð¾Ð ¹ÑĤÐµ
us iness
Ġfilter set
Ġ: ]<
Ġold er
side Validator
book mark
ĠDis patcher
ĠDis pute
Ġho urs
ĠName s
ĠPo int
task manager
ĠCustom ProductAdmin
av a
av atars
Ġother wise
ong apsValidator
ĠTodo appConfig
Token View
Ġtrans latable
ÐµÐ ³Ð¾
profile pic
show exponent
di vision
Ar t
Ġge trawcode
Ġwe ibo
Hover label
ĠHover label
Post Form
Post ListView
Post DetailView
Post Index
Post Delete
Post Update
Post CreateApi
37 2
pi k
ĠEn counter
ret weets
ĠException Info
Ġtext utils
bound ssrcValidator
ĠShow exponentValidator
Show exponentValidator
Ġclient s
exp and
ows rcValidator
sm tp
BBBB BBB
Ġreferen ced
Ch BankProvider
ĠTrans poseValidator
ĠModule NotFoundError
], [
### -######",<
03 3
ĠTest Dot
ash srcValidator
assert True
raw ingArea
Ġsh ortener
ĠMain appConfig
Pre fixValidator
ĠMA X
vok ed
ĠMess ages
top ics
ĠZ smoothValidator
Ñĥ Ð½
cached Renderer
Ġlast mod
pytest tester
######## #
cr on
call ers
spect To
mer chex
sun set
Ġhist ory
Ġmy web
Ġmy website
ĠTask List
([ (
([ ])),<
Messages Type
ĠKey Error
,' ')<
ĠComment Serializer
ĠOrder Admin
fill mode
event sValidator
dev version
dev search
Ġ... ,<
Object IdField
Ġide ntity
Ġlike ly
news app
36 15
lob by
FI RST
Com mon
OT P
ĠEx pense
au xtrans
Ġdj Forms
dj Forms
tod oproject
ref Validator
rad ians
rad ius
Ġgenerate Accept
TO PIC
>> >>
cover age
Ð½ Ð°Ñĩ
Tests Mixin
Read Mixin
gen api
Ð¿ Ð¾Ð»Ð½
Sh apesrcValidator
ãĥ ³
Ð¸Ñģ ÐµÑĤÐ°
Fill modeValidator
ĠFill modeValidator
Ġoff ice
Library NotFoundError
Ġfla g
full api
full stack
ton ext
ĠCar ro
Ġmethod Name
Ġmethod Type
-#### -####",<
acitys caleValidator
ĠIs Author
tra de
tra coes
'. "
Ð¾ÑĢ Ð¼
ĠEmployee Serializer
space frame
report ing
Ġcustom Data
PRO VID
fe blog
(? :
ai ses
ĠÑģ ÐµÑĢÐ¸Ð°Ð»Ð¸Ð·Ð°ÑĤÐ¾ÑĢ
NBit By
NBit Single
NBit Double
NBit Short
NBit Half
mat plotlib
mat mul
mat scalar
Home page
render ers
Address Provider
Positive SmallIntegerField
67 5
ĠĠĠĠĠĠĠĠĠĠĠĠĠĠĠĠĠĠĠĠĠĠĠĠĠĠĠĠĠĠĠĠ ĠĠĠĠĠĠĠĠĠĠĠĠĠĠĠĠĠĠĠĠĠĠĠĠĠĠĠĠĠĠĠĠ
Ġav g
ĠÐº Ð²ÐµÑĢ
ĠÐº Ð»Ð°ÑģÑģ
ĠPage Admin
frame Validator
Ñħ ÑĢÐ°Ð½
ĠCol umns
Ġk ind
EX ECU
make trans
Ġlead s
ĠSource Validator
revision Validator
down loader
Connect or
button s
Ġtod oproject
ĠNew UserForm
No DatabaseTests
__) ;"<
Event o
vers al
Ġad ded
ĠSh im
ĠSh apesrcValidator
stand offValidator
Register View
Ġfull api
Ġmark down
ĠAxes Grid
ĠAxes Divider
ĠAxes Locator
ĠBo x
Trans poseValidator
skip if
Source Validator
Plugin Manager
Plugin ValidationError
Ð°Ð· Ñĭ
Att nd
Ġpubl ication
diag nose
matrix lib
apture eventsValidator
constr uction
ĠOut liercolorValidator
landing page
ugue is
pikes napValidator
ital ize
ĠUserProfileInfo Form
Ġmer ging
Ġmer chex
lookup error
head Validator
ĠSc ript
ĠDate time
Out liercolorValidator
ĠSearch Form
Ġsome thing
Ġauto complete
ĠAdvertisement ViewSet
Ġcateg oria
arrow Validator
ĠExample Model
ĠBoolean Filter
yperiod alignment
ĠUn iversityC
doctest compare
lier widthValidator
AB LE
ping lyx
uffix srcValidator
Ġfind ing
theta unit
man agment
Ġag greg
Legacy Auth
RI BUTE
Direct or
ĠNotes Config
mernote ModelAdmin
Ver ifier
fact ura
}" ><
Ġext obj
ĠAnchored Size
fl ip
Ġserv icios
Help Base
ĠÑĦÐ¸Ð»ÑĮÑĤÑĢ Ð¾Ð²
±Ñĥ ÑĤÑĭ
ĠGo Clio
([' __
([' ']
Hook specMarker
Hook implMarker
Hook CallError
Ġ'. '
ĠPublic ReadMixin
PostList Api
Ġplugin s
ĠÑĩÐ¸Ñģ Ð»Ð¾
Ġactual Score
/? $',
/? $',<
ble s
rule Validator
implement ing
Ġshop app
banner image
ĠField Error
ĠField LookupError
itter Validator
ĠPl ot
ĠMovies Config
ĠTool HelpBase
follow ers
icip ant
strain Validator
ipro yecto
ĠHook specMarker
ĠHook implMarker
ĠHook CallError
202208 06
NBitInt C
NBitInt P
Rel ation
fg opacity
Ġport ions
adv model
ĠÑĨ Ð¸Ðº
ĠÑĨ Ð¸ÑĦ
Publ isher
Ġer roMessage
Ġes cola
fixed range
ĠVe iculo
ĠMyProfile Model
study bud
Top ical
sa ved
ĠShop Config
Ġdev search
ower fence
iner ary
ĠCourses Config
ĠCourses ViewSet
ĠLoc Mem
Theta unitValidator
ĠTheta unitValidator
encod able
four th
mes senger
Rest aurant
ĠPontoT uristco
ĠBBBBB BBB
lectron ics
]+) |(?
hor izontal
}' ")<
ĠSSS S
Ġdel imiter
ĠPort al
ĠWomen Config
Timeout Error
******** ********
mult iline
ĠSal es
Ġcur dir
teen session
ĠPlugin Manager
ĠPlugin ValidationError
Shape Like
Ð¡ÑĤÐ°ÑĤÑĮ Ñı
Bel owValidator
Bel gium
fgcolor src
ya hoo
zoom Validator
Ġmock ing
experi ments
Ġbu sc
ĠTraceback Entry
Traceback Entry
.*` ",<
NBitLong Long
NBitLong Double
Bind ings
modelf ields
Vari ant
PTO OLS
half Validator
Ġpet stagram
ĠSome Model
macos x
ĠPre fixValidator
purch ase
Cookie Jar
Host Axes
MS Plugin
PO S
sil ently
ĠLegacy Auth
ĠUsage Error
###### "<
emplead o
ĠÐ½Ð°ÑģÑĤÑĢ Ð¾Ð¹ÑĤÐµ
Ð¾Ð±ÑĢÐ°Ð¶ ÐµÐ½Ð¸Ðµ
Ans wer
Driver Manager
padding Validator
geshape Validator
edi aristas
ĠSent iment
('__ '))<
hisker widthValidator
ĠBel owValidator
ĠBbox Connector
outlier color
Ġever y
rangement Validator
pract ise
heater typeValidator
dividers Validator
constrain text
ÐĺÐ· Ð¾Ð±ÑĢÐ°Ð¶ÐµÐ½Ð¸Ðµ
jav na
px d
Ġsk ipped
ĠSingleton ModelAdmin
ecute Validator
Ġbutton s
ĠÑģÐ¾ ÑħÑĢÐ°Ð½
ĠÐ·Ð°Ð³ Ð¾Ð»Ð¾Ð²
WithRe spectTo
214 7
Lazy Object
Panel Demo
curr y
Ġstudy bud
Ġcoer ced
perm iso
ĠOrders Config
ĠVis it
Ġinteract s
ÑĢÐ¸Ð ±ÑĥÑĤÑĭ
ĠCompress or
Expired Token
>==================== =<
ACCE PT
æķ °
atche sValidator
conte udo
Ġinline formset
Ġoauth lib
Ġaff ect
ĠPick ler
Ġformulario Cadastro
Setup tools
ĠChrome DriverManager
ĠÐ¿ÐµÑĢÐµÐ´ Ð°Ð¹ÑĤÐµ
ĠÐ´ÐµÐ¹ÑģÑĤÐ² Ð¸Ð¹
(...) `.<
ATT RIBUTE
Gest or
Misc Provider
SHI M
Ut ils
bor rower
brec ht
mue bles
nasci mento
vag rant
vied ata
ĠÐ°ÑĤ ÑĢÐ¸Ð±ÑĥÑĤÑĭ
degre es
rearat ioValidator
cloc kwise
("+") [
Constr aint
ĠStra kt
serialized Object
izzer ia
Ġdupl icated
polynom ial
SETU PTOOLS
ĠPrint Help
calerat ioValidator
0244 31
ĠINT O
ModelMultiple ChoiceFilter
0149 033
ĠEXT RA
Ġearn edScore
shapes rc
Ġprecis ions
pyOpen SSL
ĠtestCase Results
soliditys rc
DataFla ir
succe eded
PostDelete Api
PostUpdate Api
ĠEncounter ed
ĠgenerateAccept Header
PROVID ERS
ĠÑģÐµÑĢÐ¸Ð°Ð»Ð¸Ð·Ð°ÑĤÐ¾ÑĢ Ð¾Ð²
NBitBy te
ĠÐºÐ²ÐµÑĢ Ð¸ÑģÐµÑĤÐ°
Ġaggreg ate
ĠLocMem Cache
ĠÑģÐ¾ÑħÑĢÐ°Ð½ ÐµÐ½Ð¸Ðµ
! (
" ',
' },
( \
( ""
( ","
) }
+ .
. {}".
/ *'<
2 32
4 000
6 16
7 7
: '
: '):<
= __
> "
> ..
@ ^
@ [^@
A m
A rc
A verage
B id
C P
C SS
C ash
C oreJSONCodec
C oder
D j
D ynamic
G ender
H A
H ex
H TML
H ospital
I R
J on
J son
J oin
J ango
J ava
K I
L ock
L imit
M an
M od
M ach
M utation
O ther
P C
P essoa
P izza
P eople
P UBLIC
R a
R edis
R ating
S name
S ent
S end
S hell
T here
U pl
V isual
W atch
W ords
] ')<
] },<
a wn
b s
b api
b by
b ranch
c allable
c ms
c data
c ens
c ube
c apt
c ares
c adastrar
d um
d res
d umb
d ups
d ollar
e name
e lectronics
f light
f uzzer
g ers
g ular
i ation
i app
i ql
j udge
k art
l ar
l iked
m q
m Config
m ypro
n l
o y
o es
o hn
p in
p id
p up
r s
r en
r pc
r pm
r ipc
r ithual
s dist
t g
u at
u str
u diu
v ars
y nc
z on
¡ å
¢ ãĥ
å ¯
å Ń
æ ī
æ ĸ
æ ĺ
æ ł
ç §
ç ±
ç īĪ
é Ĺ
Ġ ent
Ġ ed
Ġ //
Ġ engine
Ġ places
Ġ endpoint
Ġ Ð°Ð²
Ġ lecture
at tributes
se Card
in a
in box
in place
in ha
in icals
ar ly
al k
al urareceita
ro id
ro pp
de scribe
en ko
ion ario
pl ore
it t
it ypes
re actor
re ply
re versed
re servations
le gs
le phone
le vels
id ate
ut os
ut down
ut ricao
django py
Ġt yp
Ġ" {
Ġm ac
Ġm ypro
ge bot
ass ign
cl op
cl ib
Ġse ver
he art
he mes
Ġf oo
Ġf uzzy
Ġf riend
con st
Ġre solver
Ġre fresh
Ġre duce
Ġs a
Ġ' /
(" __
tr ust
co upon
ac a
Ġv ot
Ġv env
Ġin cluding
application s
ab bit
Con tains
Con versation
ĠT x
ĠT LS
ĠA tracoes
and idate
ĠS u
ĠS ta
ĠS ale
ĠS chedule
Ġc apture
ject ed
il ia
Ġsup pDjango
GI T
># ################################
Ġb it
Ġb rowser
th rough
ĠC ASCADE
ĠC oreJSONCodec
ĠC leanup
00 20
00 24
Ġa jax
Ġa verage
lo bo
to o
ĠM P
ĠM ult
ĠD j
ack ets
ho le
Ġd p
Ġd ur
Ġd ups
Ġd ropp
if est
ĠN ode
ĠN ested
core json
Ġn args
Ġn ombre
Ġis sub
Re s
Re gex
Ġex change
Ġw ide
Ġw ild
Ġw ere
te ch
ĠL ivro
str path
str action
__( ):<
ve getables
ĠP RO
ĠP DF
bo y
bo Config
Ġl at
Ġl ikes
ĠB B
ĠB ot
ĠB iblioteca
os cope
Ġ2 7
ver ifier
user info
user table
sp age
sp otify
par ameter
ĠG reeting
ĠRe id
ĠRe cent
ĠRe altor
OD U
OD Y
MOD E
Ad j
bar ber
are f
() [
() ),
() ])<
Ser v
02 8
Ġr end
ĠI m
ĠI tems
ĠU RI
pre ss
pre vious
sc reen
Model Backend
Model ChoiceField
Serializer MethodField
SS H
mar ily
ON MENT
Text Codec
pro c
Ġstr ip
Base Transport
ĠE X
trans lator
trans lated
im ate
las k
ag ens
ag reg
ST ATE
sql alchemy
40 822
test model
ri vers
add task
du plicate
act ual
Ġit ypes
Ġma de
Cl othes
sh i
inter est
inter face
Ġan other
son ar
Ġform field
face book
ici as
TI VE
': ('
last name
Ġrender ing
User Warning
User OrReadOnly
St d
af io
ĠV ari
Ġpre vious
Test Model
valid o
valid ated
Pro duto
Ġrequest ed
En v
json data
List Create
Ġpy tz
Ġsc hemes
LEVE L
Ġsql alchemy
vis it
ich a
play ers
ĠCreate APIView
ateg y
IN ET
IN FURA
Control ler
Ġme mo
Ġme eting
Ġch ang
Ġwh itespace
ĠCon t
ĠCon ference
Ðµ ÑģÑĤ
Ð° ÑĤÐµ
Ð° ÑĪ
Ġchar set
Or ders
ĠPython Codec
Sub class
RE ST
RE QUEST
'] :<
ĠIn herit
Ġcomp ose
Ġcomp liance
Ġ201 1
blog project
ĠEmail Message
') )
sum Address
ĠPy boConfig
Ġexec uted
no va
do b
do ct
12 2
read line
ĠÐ ŀ
car ro
sign ature
Ġac c
Ex change
Ex pense
Python Codec
Create UserView
create Note
ĠDist utils
ÑĢ Ðµ
Ġdis covery
process Order
Me asurement
det alhes
RA M
ĠProduct Category
cit ies
Ġpr in
av ail
gener al
Ġurl encode
todo App
Inter est
Ġtrans ition
start up
Tr ansit
An ime
An chor
ÐµÐ ²
ÐµÐ ³Ð¾ÑĢ
Ġchange freq
ĠAr gument
pad y
imer a
Ġ5 000
06 00
06 13
Post View
ĠToken VerifyView
cat en
ĠHTTP Transport
logout User
rat io
ĠBlog appConfig
Ġencode d
for ce
dat os
VIR ONMENT
Ġinit ialization
ĠTest Django
ĠTest Categorical
101 98
14 429
Ð» Ð¾Ð²
Ð» Ñİ
Example Model
Example NonUploadModel
18 8
18 05
15 5
obj s
Ġte chno
Ñĥ ÑĢ
Ñĥ Ñī
... ")<
rec v
rec ipient
201 40822
ĠProfile View
([ ]))<
Ġblog project
ĠStudent s
ĠStudent List
ĠComment ViewSet
ĠRE DIRECT
Fr ont
Ġweb dev
off ice
ĠEx it
ĠEx Config
cre ator
chat app
ĠWeb Application
ĠMy AppConfig
ĠÐ´ Ð¾
Ġtodo api
Ġtodo App
Ð°ÑĤ ÐµÐ³Ð¾ÑĢ
Gener o
]+ @[^@
Link View
sport s
Do ctor
ĠAn imal
ãģ Ł
Web Framework
ĠCh wideuk
front page
ĠÐ² Ð²ÐµÐ´
win inst
aur ants
ãĤ ¤
Conf irm
air dres
Ġfr ame
Ġfr ont
Ðº ÑĨÐ¸
Ðº Ð»Ñİ
host s
aff ic
Ġrec aptcha
Ġ'' }<
ĠAbout Us
Ġtask manager
cont atos
58 5
Choice Inline
ara ja
Ġ! /
39 675
ĠÐº Ð¾Ð´
ĠÐº Ð¾ÑĤ
LI ENT
ĠCo mentarios
net loc
ful ly
ĠChoice Inline
Ġcontact o
ÐŁ Ð¾Ð´Ð¿Ð¸Ñģ
yn chron
Event Loop
ĠSh ortener
Offset Pagination
ĠActiveLink View
Application Config
Ġres posta
esso as
Ġurls hortener
Trans fer
HTTP Transport
Ġpri marily
Ġ} .
arios Config
Of Interest
Cr ud
Cr ypto
oint ments
ĠJSON Codec
ackward s
ĠCr mConfig
Bo ard
Bo otstrap
Ġpol icy
Ġperson as
Ġ". ",
ĠExample NonUploadModel
Char Filter
multi plication
ĠFr amework
non ce
ÑĪ ÑĢÑĥ
ces ses
ĠLead ViewSet
202207 18
Ð¿Ð¸Ñģ Ð°Ð½Ð¸Ðµ
Clo sed
Ġtutorial s
ĠSnack s
Lo ad
has hing
Ġupdate s
ĠRecipe Admin
ĠBookmark LV
ĠBookmark DV
Wor k
ĠMax ValueValidator
greet ings
ĠÐ¸ÑģÐ¿Ð¾Ð»ÑĮÐ· Ð¾Ð²Ð°ÑĤÑĮ
66 6
Rich Text
schedule d
plic acion
Ġsal udo
compress or
market place
Document s
dd dc
('^ [
('^ [^@
ĠGame Manager
graph iql
ĠBoard sConfig
Abstract BaseUser
ÐĹ Ð°Ðº
ita plar
pens ive
Display Codec
ĠÐ²Ñĭ Ð¿Ð¾Ð»Ð½
ĠComentario Admin
Ġle gs
Ġle vels
adv ance
---------------- ----------------
Manage Team
Publ ication
rent als
Ġup back
Ġes al
pri vate
SignUp View
ĠÐ½ÐµÐ¾Ð±ÑħÐ¾Ð´Ð¸Ð¼ ÑĭÐµ
Ġcom mit
alth Check
DR F
stu info
ĠProduto Admin
EN VIRONMENT
upl es
ĠÐ¾Ð¿ Ð¸Ñģ
ĠÐ¾Ð¿ Ð¸ÑĪÐ¸ÑĤÐµ
SERVI CES
glob als
ĠXXXXXXXXX XXXX
Ðŀ Ð¿Ð¸ÑģÐ°Ð½Ð¸Ðµ
Ġaccept ed
Ð¾Ð· Ð´
adastr ado
ĠTodolist s
ĠTodolist Config
358 5
Bind ing
Down loadCodec
Fa iled
æĪ Ĳ
0222 00
Provide s
modelf orm
ffffffff ffffffff
watch list
orp or
Dr aft
Su ccess
bul k
gue st
ĠDisplay Codec
ĠArt ist
ÐĹÐ°Ð´Ð°Ñĩ Ð°
ero Division
anger ine
ĠTop ping
Ġdeco ders
ĠEmploye Register
cater ing
ÑĩÐ¸Ðº Ð¸
ÑĢÐµÐ´ ÐµÐ»
Ġplays ound
Sens or
eth pm
foc uses
äº §å
Ġrece ive
Ġdat atype
endereco s
ÐŁÐ¾ÑģÑĤ Ñĭ
åĩº çīĪ
Plat form
ool z
ĠMOD ULE
comme nder
htm x
ĠUsu ariosConfig
Ð°ÑĢ ÑĪÑĢÑĥ
ĠTimeSta mped
ĠLocal Payment
-]+ :')<
Num s
mant ics
ï¼ Į
Ġinte gr
ĠRetrieve UpdateAPIView
ializedNested CategoricalFilter
enk ins
ĠDown loadCodec
ĠVALU ES
~~~~~~~~~~~~ <
ÑĥÐ½ ÐºÑĨÐ¸
("," .
+. -]+:')<
Jango Pro
Mach ine
Sent inel
ripc ion
åŃ Ĺ
Ġed ad
Ġtyp ical
clop edia
lobo mantics
Ġissub class
ĠRecent LinkView
agreg ar
duplicate s
Transit ion
0613 53
Ġtechno logy
20140822 061353
]+@[^@ ]')<
airdres ser
ÐºÐ»Ñİ Ñĩ
ĠÐºÐ¾ÑĤ Ð¾ÑĢ
ĠComentarios Config
dddc b
('^[^@ ]+@[^@]')<
ManageTeam Members
eroDivision Error
äº§å ĵģ
! ")
! !")<
" ;
" !",
$ ",<
$ "),
' d
' ll
' "',
( .
( ',
( ###)
( ...,
) #
) ^
) ",
) ])
) ],
) })<
) ]),<
, *
, -
- <
- ##
- {}
- ##",<
. ####
. '''<
. ##"]<
/ ###
1 024
2 64
4 40
5 000
7 45
8 1
8 2
8 3
8 09
9 09
9 673
= (
> ``
? ',
? ",<
A M
A b
A sn
A VA
B lock
B ingroupValidator
B ranchvaluesValidator
C ho
C map
C alc
D D
D en
D ateTime
D types
D MIN
D urationValidator
D thetaValidator
E A
E com
E commerce
E ncoded
F ive
F ON
F ra
F Format
F riend
F ortran
F ixedForwardWindowIndexer
G W
G LE
G ER
G LI
G amer
G ood
G lifLibError
H UP
I x
I nc
I ceCream
I RDPARTY
J O
J oke
J ohn
K U
L atsrcValidator
L orem
L onsrcValidator
L anguages
M M
M os
M onth
M YPY
M ongo
M anagers
M Db
N contoursValidator
N binsxValidator
N binsyValidator
O OLS
P P
P ad
P ri
P hone
P ayload
P acient
Q X
R srcValidator
R otationValidator
R adiusValidator
S V
S ys
S pikesidesValidator
S PONSE
S calegroupValidator
S ync
T ree
T weet
T alk
U suario
U rls
V e
V ATE
V Metrics
V alignValidator
W here
W IN
W aterfall
W hether
X gapValidator
X typeValidator
Y es
Y ear
Y gapValidator
Y typeValidator
Z one
Z oom
Z eroDivisionError
\ __
\ (\
] })<
_ ,<
_ ",<
_ /\
a a
a is
a mand
a ise
a MDb
b k
b t
b sl
b ran
b ranchvalues
b rawl
b egin
c z
c id
c ext
c ip
c ise
c blog
c red
c reation
c wd
d on
d ic
d ive
d URL
d theta
d ko
d antic
e com
e comm
e quipment
f k
f ish
f pg
f avourite
f ortran
f orgot
g or
g ar
g os
g aleria
g cid
h il
h df
h vh
h mt
i u
i NaT
j d
j ack
j et
j inja
j oke
k i
k al
k ak
k nox
l ang
l end
l Lib
l ope
l arge
l hn
l ipValidator
m m
m ort
m os
m sp
m ies
m ime
m ust
m icrosoft
m icro
n Name
n ume
n contours
n bins
n binsy
n Length
n utri
o ul
o Config
o que
p or
p al
p ies
p eg
p asses
p rueba
p ontos
q oo
q ov
r j
r Validator
r add
r src
r unt
r ates
r rshift
s ame
s name
s ate
s ock
s ob
s oft
s wagger
s oftware
s istema
t v
t imer
t asrc
t Lib
t LibError
t weeter
t ypography
t aref
t uples
u an
u ls
u ich
v he
v ault
w i
w x
w ale
w fn
x pr
x gap
y l
y out
y gap
y orum
} /
¨ ¡å
º Ð¾Ð¼
Ð ±
Ð Ľ
Ð ½Ð¸
å ¹
æ Į
Ġ mp
Ġ .<
Ġ Ð¾
Ġ ,'
Ġ colorscale
Ġ educa
ĩ å®ļ
ķ ãĤ
or ie
or ing
at ivar
on ic
on ta
se p
se x
er al
er ature
er chant
me lt
me mb
me asure
in line
in aries
in ference
in crease
ar able
ar ify
ar rows
mp roject
ort ick
al p
al le
al let
al uno
al unos
al gos
ro zen
import s
an cer
de sign
de compile
de crease
de moproject
de mos
__ =
__ /",
en mo
pl ate
rom o
as o
as array
as ures
Ġ= ('
it ineraries
re l
re main
re minder
re marks
le ls
id or
id ers
st ation
st ab
st amo
ut er
ut ions
ot ed
ot yp
ot lLib
django base
django app
django API
django Blog
django tutorial
Ġp ie
Ġp om
Ġp agina
Ġp ontos
ation TokenGenerator
plotly lib
Ġt ri
Ġt wist
Ġt shift
Ġdjango API
Ġdjango Blog
Ġdjango tutorial
Ġ" ))<
Ġ" /",
Ġ" ##-
Ġ" ########",<
Ġm ask
Ġm apping
ge stion
ent ype
ent ity
ent Nums
he me
he mp
is user
is asyncgen
is bn
Ġf no
Ġf count
Ġf address
Ġf sal
Ġf ixture
op er
op bd
op entype
yp age
base name
con verter
con versation
Ġre load
Ġre duct
Ġs name
Ġs lack
Ġs ince
gi ft
Ġ' '.
ex ibir
ex oes
(" \
(" ../
co ol
Ġ__ _
ac ular
ac entNums
Ġv ote
Ġv itamins
up en
up ation
ad db
ad ition
ad ob
ad vert
ad lock
Ġin place
Ġin ventory
ing o
ing Name
ing CustomBackend
tt Font
tt ools
tt Collection
ab log
ab ber
ab elf
Ġ[ -
Ġ[ ('
Con caten
ĠT ienda
Ġthe me
ĠA ct
ĠA ir
ĠA rc
ers lope
Ġget ter
ul ative
ĠS pre
ĠS hell
ĠS ingle
ĠS SH
ĠS snProvider
ĠS kill
ĠS pikesidesValidator
ĠS calegroupValidator
Ġc al
Ġc ame
Ġc ap
Ġc el
Ġc ard
Ġc reation
Ġc ros
Ġc lear
ile method
ce lebrity
(' '
(' [
ma ker
min i
min ute
min size
el ope
un ay
un iversity
Ġb oto
Ġb uff
Ġb asics
Ġb inaries
ĠC ore
ĠC KE
ĠC RY
ĠC aptcha
ĠC FF
ĠC ShellActivator
ĠC orpor
ite No
00 9
lo gistic
to l
to string
to show
to cart
iz ex
ĠM an
ĠM ay
ĠD NS
ĠD urationValidator
ĠD thetaValidator
ĠD rValidator
form field
Ġ# ########",<
Ġ# #########",<
parent ssrc
Ġd jang
Ġd ue
Ġd aph
Ġd ashboard
(_ (
if ferent
ir uich
ĠN contoursValidator
ĠN binsxValidator
ĠN binsyValidator
po a
po ols
po wers
aut op
aut ors
Ġcon junction
Ġn or
Ġn ice
Ġn utri
Ġfrom XML
Ġis asyncgen
Re port
Re sum
Ġex ternal
Ġex tract
Ġex cluding
>__ ________________
ĠL O
ĠL AP
ĠL atsrcValidator
ĠL onsrcValidator
str ar
Ġfile path
oc cer
Ġde pth
Ġde moproject
Ġde pend
Ġde adlock
res ume
tern ate
tern ative
ve iculo
=' _
ses sed
gist ro
ĠP A
ĠP op
ĠP asses
ĠP ersist
ĠP rueba
ĠP owerShellActivator
ĠP KI
ĠF rom
ĠF OR
ĠF uture
ĠF lower
ĠF acebook
ĠF ixedForwardWindowIndexer
ĠF ishActivator
ĠF TP
ĠF atal
ĠF lipValidator
ĠF onta
bo iler
Ġto XML
Ġl st
Ġl ib
Ġl reshape
Ġl ayer
Ġl inha
ĠB id
ĠB inary
ĠB raintree
ĠB lock
ĠB irth
ĠB ingroupValidator
ĠB ranchvaluesValidator
ĠB ashActivator
os ing
int like
sp an
sp ot
sp inner
sp awn
Ġ( (
ine td
url open
log ar
lat src
lat itude
ch r
ch un
ch ambre
ĠG rant
ĠG lifLibError
ĠG erman
ĠG fortran
la kes
Ġconfig Logger
TT ERS
TT OOLS
ĠRe ceitas
ĠRe ply
ĠRe minder
For ce
For Single
are vision
are arat
ol ing
ol io
ol lower
ol ingroup
ol tLibError
() [:
() )))<
ans rc
ire dis
02 00
Ġr g
Ġr tol
ĠO f
ĠO PA
ĠO ptions
ĠO ffice
ĠI nd
ĠI Plugin
ĠI NSERT
ĠU R
ĠU FO
Ġst derr
Ġst reet
Ġst ored
pre dict
pre paration
pre miosapp
sc r
sc ap
sc ik
sc heme
ated Model
out er
out let
es h
es nt
es ch
port forward
ight ing
Ġh ref
Ġh yperlink
Ġh otel
est oque
calc ulate
calc ulation
ĠH ash
ĠH GHG
Text Parser
Text FileReader
Ġ(" ??
pro grams
pro blem
Ġy et
Ġco ordinate
Ġnot ify
Ġstr ptime
Base Validator
Base UserAdmin
Base Indexer
Ġint s
art ilemethod
Ġ< <<<<<<<<
CK S
CK EditorUploadingWidget
tick eting
trans ition
ĠBase Validator
ĠBase UserAdmin
ĠBase Indexer
ker x
JSON Array
JSON Dtype
ag ar
Number Input
ind ows
ind romo
Ġset attr
lab elform
ST DLIB
In View
In ternal
In stalled
ow e
ml ink
Ġun ion
Ġun wrapped
test case
views Config
value format
value src
Ġpro b
Ġpro grams
Al ugueis
ĠR ate
ĠR srcValidator
ĠR edis
ĠR aw
ĠR otationValidator
ĠR adiusValidator
ith uan
ri ot
main app
Form atter
Ġmin version
Ġe add
Ġe comm
Ġe mbedded
Ġth rough
Ġit erations
Ġma cos
author ize
Ġ| _<
The tasrcValidator
ĠSt andard
tro le
ĠW ay
ĠW ords
ĠW aterfall
ĠW ait
ise lect
ĠUser LoginView
Ġg ra
Ġrender ers
De adline
Que stions
Se cond
Int ensity
St ation
St udy
af dko
ĠV i
ĠV alignValidator
ĠV enmo
ĠV oltLibError
Ġapp ort
Ġapp ointment
Client Error
DEBUG GING
Ġpre miosapp
Test Django
Test Mixin
index table
AR D
update task
py plot
py tables
valid a
.__ {
ĠPro j
Pro ver
List Array
List Dtype
flat shad
Boolean Array
Ġpy win
Ġpy tables
Time series
001 6
ĠText Parser
ĠText FileReader
group er
Ġ200 7
sub mit
ĠCreate UserView
Name dAgg
IN F
), (
ĠThe tasrcValidator
Ġme lt
ĠStatic RootS
ĠStatic RunserverCommand
Cache Descriptor
ĠCon ch
ĠCon versation
ĠCon creteModel
ĠList Array
ĠList Dtype
use colorm
NO TH
data classes
not icias
>] +
>] \
Ð¸ Ð»
28 50
TH IRDPARTY
ĠPython SocialAuth
over ride
Ġpart ition
Ġ[' *
Ġ[' __
ĠIn it
ĠIn stall
ĠIn voice
ĠEmail PostForm
') ]<
') [:
') ]},<
Ġout er
Type Error
") ")<
") }<
") )),<
") })<
150 95
eb ay
Tags App
Data Validator
Data View
async io
ĠMulti Widget
ĠIN FURA
do esnt
first pro
ĠRedirect To
comp ute
comp iled
comp arable
count y
gres ql
read ers
(). _
ĠY gapValidator
ĠY typeValidator
Key Bindings
ĠÐ ĺ
hist func
ĠPost DataView
ĠTr ip
ĠTr avel
ĠTr acks
pet photo
ĠX View
ĠX gapValidator
ĠX typeValidator
ecode dURL
config Logger
Ġdebug msg
Ġlo s
Ġlo aded
Qu oted
Ġal urareceita
Ġal gor
atch Activator
val ign
ÑĢ Ð¸
ÑĢ Ð¾Ñģ
ĠDe ploy
ĠDe scribe
Ġ: ")<
users ocial
word count
side Bear
book ings
book list
Ġ"% ,###
det ect
Ġpost gresql
Ġindex ers
ĠProduct Serializers
ical Machine
the tasrc
FR OM
ĠName dAgg
task app
ens itys
Ġmonth ly
mon str
Auth System
null able
Ġover load
Token Auth
10 676
Ġtrans formation
ene factor
gr aphene
subject s
Ġfirst pro
mark ers
local ized
show labels
show lines
show axes
show background
Ġway s
iver ging
pr j
pr icing
Ġj inja
Ġj iruich
ĠBook Catering
ank r
heat erslope
Ġexist ing
Dist ributed
06 11
Un available
Un iversityC
Ġso lo
37 1
pi vot
ast ic
ain ed
ĠEn able
ĠEn quiry
del ivery
ĠJ abber
ĠToken Authentication
fa de
fa il
Ġmake trans
Py Str
ĠAuth Group
ĠCommand Error
custom urlconf
ĠShow labelsValidator
ĠShow linesValidator
ĠShow axeslabelsValidator
ĠShow backgroundValidator
Show labelsValidator
Show linesValidator
Show axeslabelsValidator
Show backgroundValidator
Ġclient es
exp anding
ĠLab elfont
ĠLab elformatValidator
ĠBlog Model
ĠBlog API
ĠBlog CreateView
=[ ])[
Order WithRespectTo
ĠĠĠĠĠĠĠĠĠĠĠĠĠĠĠĠ ĠĠĠĠĠ
Ch annels
Ch rome
ĠTrans lation
ĠTrans fer
for geeks
for war
ĠFlat shadingValidator
### -####
ĠTest AppConfig
ĠTest Series
ĠTest Select
ĠTest Sparse
ĠTest Split
ĠTest Insert
ĠTest Utils
ĠTest Where
ĠTest Quoted
ĠGeo jsonValidator
ĠBack groundcolorValidator
Ġlong itude
Pre sent
chan nel
DIT OR
('. ')))<
ĠDummy Backend
Flat shadingValidator
ĠSub stitution
18 4
18 29
Ñı Ð·
of olio
vol tLib
ices Config
ĠLog book
ĠInt Index
Product Form
cr yp
13 34
201 0
Use colormapValidator
ĠSign ature
Ð¸Ð ´
agin ated
ĠImage Field
Return s
ĠAl ready
ĠStudent Form
ĠStudent Create
Dict Reader
Ð² ÑĢÐ°
Ġi NaT
'), #
Mar ca
dev net
visible by
Hel per
ĠRE SPONSE
ĠSimple Model
Category View
run server
Color Provider
write cdata
ĠIndex ers
36 0
Lib Location
enc hemp
ĠApp ender
ĠApp Two
Ġ"" ))<
lines occer
ĠAccount Activ
num s
ĠEx change
38 607
Ġtodo app
Blog View
Blog Post
dj forms
dj ongo
Auto contourValidator
Auto binxValidator
Auto binyValidator
sn ark
={ ("
Ð½ Ð°
Ð½ Ð¾Ð¹
ĠTag Serializer
Ġq cut
ach ers
ency clopedia
Link s
proj e
da ily
ĠColor Provider
ãĥ ª
ãĥ ĥ
Group er
ĠValue srcValidator
ĠValue formatValidator
serv static
ĠÐ½ Ð¾Ð²
rand s
ãģ §
ĠSeries GroupBy
dash src
factory boy
ĠRoom Member
QU AN
ĠCar petValidator
Todo App
-#### ###",<
Value srcValidator
Value formatValidator
aur ent
ãĤ ¯
ĠAuto contourValidator
ĠAuto binxValidator
ĠAuto binyValidator
Ph Lorem
Frame Accessor
Ġfont s
vert ex
basic app
TYPE S
ĠTime out
ĠHist funcValidator
person a
collect r
collect ions
Ġcustom er
ĠEvent Admin
ĠEvent User
fe cha
ĠCateg orias
ĠData Mixin
Ġnum ba
Decimal Array
Decimal Dtype
ĠMovie ViewSet
ĠMovie mon
Tag git
mat plotlylib
ĠAbout Config
Message ApiView
Categ ories
scal egroup
Home Page
PR ODU
ĠView Container
ĠMedia RootS
ĠGroup er
ĠGroup Admin
ĠGroup By
Note Attachment
offset src
My User
sal udo
Geo jsonValidator
lex Fields
ĠUse colormapValidator
Location Type
hash lib
header Tag
ĠMessage Middleware
MA X
MA IN
MA TTERS
ÐµÐ½ Ð´Ñĥ
ear ing
tc cz
Ġk eccak
present ation
Ġglob als
Ð¼ Ð¸Ð½
ĠLocation Type
ran king
By tesIO
document s
Ġevent s
ÐµÑĢ Ð²
var i
var Lib
grad ians
secure Shell
ĠDataFrame GroupBy
Room s
stud ys
Co mentario
Lab elfont
Lab elformatValidator
Offset srcValidator
fil ms
ĠCart Config
ĠCart Serializer
ĠCart Item
Ġ"%# .##",
Ġ"%# ,###
drop down
Ð¸Ð¼ Ð²
Ð¸Ð¼ ÐµÑĢ
ked ata
Ġper cent
Ġfavor ite
ĠEnd point
Emp lead
Contact Us
FOR MATTERS
ts b
ts libs
deprecate Function
constr aint
ĠOut OfBoundsDatetime
Categorical Dtype
Categorical Attribute
ObtainPair Serializer
Le arning
Le Ix
Version String
ĠGeneric ViewSet
ugue se
Car petValidator
Fla gs
roll ing
ĠJSON Array
ĠJSON Dtype
ĠNa N
ĠNa TType
Autom arginValidator
ĠWe ek
ĠÑĦ ÑĥÐ½ÐºÑĨÐ¸
54 32
Out OfBoundsDatetime
SIG HUP
ĠQu ote
ĠEmpty CBV
RES PONSE
Pattern Validator
ĠÑĥ ÑĢ
ReadOnly Field
TA AA
drf site
Ġchat s
ÐµÐº ÑĤÐ°
ĠTh en
ĠMin Validator
ĠMin GW
qui val
lon src
ĠAutom arginValidator
Person a
master s
Ġsl ot
Series GroupBy
Ġgre etings
ĠCategoria ViewSet
ak ototech
auction status
ĠLead Serializer
wal let
ĠSparse Accessor
ĠSparse FrameAccessor
Ġcalc ulate
ĠOffset srcValidator
Ġ"%## .##",
ĠDecimal Array
ĠDecimal Dtype
ĠSnack sConfig
ĠSnack ListView
Ġaut ouse
ĠCategorical Dtype
Direct ionValidator
Min Validator
edu cation
ĠÐ¼ Ð°ÑĢÑĪÑĢÑĥ
Lo gsConfig
ĠÑĢÐµÐ ³Ð¸ÑģÑĤÑĢ
ĠÑĢÐµÐ ºÐ¾Ð¼
Ġdrf site
ĠToDo AppConfig
Ðĺ Ð¼
ĠApplication Config
loc s
cum ulative
deprecated ModuleAttribute
urve ys
ĠMax depthValidator
gistic Config
ĠInc remental
PRI VATE
66 00
Access Record
mean line
Ġmon itor
ĠAutor angeValidator
ther net
ĠCalc Form
Ġ["# .##",
compose example
ĠPolicy Filter
/? ",
implement ation
enum bers
ĠLo gisticConfig
graph ics
ĠBlogPost Admin
First Project
Ġbus iness
ĠDrink Serializer
ĠPeriod Dtype
background color
Max depthValidator
Na TType
Spec ialist
cri ar
feature idkey
xff fa
xff fd
xff fb
xff fc
Retrieve APIView
ĠPlay list
'} )),<
CB DT
HO ME
Sparse Array
Sparse Dtype
Ġend s
ĠMail Sender
Ġcour ses
ĠDefault Pagination
ĠDefault Table
ĠOpenType LibError
ĠServer Error
mor x
vh v
vot acao
Ġass ume
inst ancer
iso Fortran
Ð¾Ð¹ ÐºÐ°
Mark et
ĠÑĨ ÐµÐ»
Ġposition ing
Fil PhProvider
Fil PhLorem
tk iapp
Ġmult iline
Ġsum mary
ĠSpec ialist
Ġconstr uction
Ġbeh ave
ĠInterval Dtype
]+)/ $',
88 88
Fl ipValidator
Im g
ĠDirect ionValidator
autor ange
Ġoper ate
ĠTestP tp
Ġcrud project
åĪ °
Ġ"################ #######
Ġfix up
ĠLookup Debug
ĠPhoneNumber Field
Theta Validator
ĠTheta Validator
Ð¾Ð¶ Ð´
Bound ary
Used Error
Ã¡ gin
ĠÐ¸Ð· Ð¼
Proj eto
DataFrame GroupBy
ĠDemo ApplicationConfig
CONTE XT
UFO Format
VTT Talk
ĠParent sValidator
ĠParent ssrcValidator
Ġlength s
Metrics Name
Datetime TZDtype
ĠÑģÑĤÑĢÐ°Ð½Ð¸ÑĨ Ðµ
ĠÑģÑĤÑĢÐ°Ð½Ð¸ÑĨ Ñĥ
ĠRolling Groupby
Sta ff
alt Parser
Ġattemp ting
ĠXXXXXXXXX XXXXXXXX
Tool kit
Tracker User
âĢĻ ),<
ĠReviewAdmin Form
Ac TAAA
DF L
Parent sValidator
Parent ssrcValidator
mypy c
xx xx
attrib ution
ĠVer ification
Ð¾Ð· Ð²ÑĢÐ°
ĠAluno Serializer
[[[[ [[[[
Det alhes
Fa ils
cap italize
Ġcommon mark
relev ance
ĠUnsupported GLI
ĠUnsupported UFOFormat
Vari ableOffsetWindowIndexer
Period Dtype
Wh at
ew m
mapp er
aly zer
plan ta
ĠPattern Validator
ĠFeature idkeyValidator
ĠFeature LibLocation
ĠBand Admin
Ġufunc s
Autor angeValidator
fra ud
ĠLista Pessoa
ĠLista Alugueis
]]]] ]]]]
Track Job
201902 12
ĠWeather Config
ĠBBBBBBBBBBBBBBBBB BB
åĲį ç§
purch aser
Back groundcolorValidator
Dr Validator
Feature idkeyValidator
IM AGE
gue ss
Ġab log
sens itive
ĠTemp or
ĠFake Payload
ĠHex Address
ĠEditor a
ĠDebug Object
ĠDebug Toolbar
ÑĭÐ² Ð°ÐµÑĤ
numberOf VMetrics
numberOf MetricsName
Level Validator
ÐĹÐ°Ð´Ð°Ñĩ Ð¸
Highlight Validator
Highlight colorValidator
highlight color
ĠTT Collection
ĠTT LibError
ĠSens ors
ĠCertificate s
autif ul
autif uls
ĠPubl ication
autobin x
autobin y
Ġorient s
ĠHighlight Validator
ĠHighlight colorValidator
ĠMeetup Admin
Process or
Interval Dtype
ĠModelState CacheDescriptor
ÐµÐ½Ð½ Ð¾Ð³Ð¾
ĠExpanding Groupby
ĠExponentialMovingWindow Groupby
208 3
inical data
Ġ"{} -{}
ĠCK EditorUploadingWidget
Ġnet addr
ĠFunction Tests
Ġlarge st
ĠWr ite
ĠValid Adj
Ġsphinx contrib
nosis Request
=_ ("
Faker Exception
Hist funcValidator
fon ttools
ĠSO CKS
autom argin
spikes ides
ĠRO OT
ĠRender er
Ġeb ay
TIT Y
LOCAL FOLDER
monitor ing
Layout Validator
ĠIsAdmin OrReadOnly
ĠLevel Validator
corp ora
CONFI GU
gramm ing
jupyter lab
216 14
Tod olist
ete er
hort ner
je ta
anne lsConfig
leave s
Ġmigr ate
Ġsens itive
ĠCkEditor MultiWidget
Ġdeprecate Function
ĠFil PhProvider
BUFF ER
Ġnecess arily
Websocket Consumer
ĠLearning LogsConfig
RetrieveUpdateDestroy APIView
ĠÐ²ÑĭÐ² Ð¾Ð´
ĠÐ¾Ð±ÑĢÐ°Ð±Ð¾ÑĤ ÑĩÐ¸ÐºÐ¸
"' ",
"( ",
1404 2
Danie l
tally app
ĠÐ¸Ð¼ Ñı
Ġmar ker
Ġsil ly
ĠDashboard Config
='; '))<
fru its
interpo late
######### ",)<
FIRST PARTY
ĠIsAuthor OrReadOnly
ĠÐºÐ»Ð°ÑģÑģ Ñĭ
EXECU TE
ĠDatetime TZDtype
ĠPlot ly
ĠÑĨÐ¸Ðº Ð»
MSPlugin Base
!( %
)} __.
Ra ising
dum mies
ĠÐ°Ð² ÑĤÐ¾ÑĢ
Ġsever al
ĠTx Pool
Ġ27 673
parameter ized
ĠVari ableOffsetWindowIndexer
Env Map
Ġcompose example
Ġacc ident
avail ability
1805 1
ĠÐ²Ð²ÐµÐ´ ÐµÐ½Ð½Ð¾Ð³Ð¾
ĠSnacks DetailView
RichText FormField
advance Name
"; ",
FON TTOOLS
Fra ud
Mongo DB
\(\ )
bsl n
bran ches
brawl Set
cip al
fpg m
hmt x
kak ao
msp x
nume xpr
nbins x
runt est
sock s
taref as
vhe a
yout ube
arrows ize
remain der
otyp enumbers
Ġpie ces
Ġpom idor
Ġreduct ions
adob e
abelf ish
Concaten ate
ĠSpre ad
ĠSSH v
Ġcros stab
Ġbuff er
ĠCKE DITOR
ĠCRY PTO
ĠCorpor ation
iteNo ise
Ġdaph ne
Resum o
Ġextract ed
>__________________ ________________
ĠLAP ORTE
ĠFuture Warning
ĠFatal ClientError
ĠFonta ine
boiler plate
ĠBlock Index
ĠReceitas Config
ForSingle Object
arearat io
ĠOPA QUE
ĠUFO LibError
Ġ<<<<<<<<< <<<<<<<<
labelform at
Installed Model
ĠWait ForSingleObject
Study Manage
flatshad ing
usecolorm ap
ĠPythonSocialAuth Config
comparable Versions
Ġalgor ithms
usersocial auth
sideBear ingName
Ġ"%,### .##",
showaxes labels
Ġjiruich ang
Unavailable Error
ĠTestSeries Dtypes
ĠTestSelect ingCustomBackend
ĠTestSparse Accessor
ĠTestQuoted Character
1829 5
linesoccer manager
ĠAccountActiv ationTokenGenerator
QUAN TITY
PRODU CT
ÐµÐ½Ð´Ñĥ ÐµÑĤÑģÑı
Ġ"%#,### .##"]<
LeIx AcTAAA
ĠÑĢÐµÐºÐ¾Ð¼ ÐµÐ½Ð´ÑĥÐµÑĤÑģÑı
isoFortran EnvMap
FilPhLorem Provider
Ġ"####################### "<
ĠLookupDebug Info
Ð¾Ð·Ð²ÑĢÐ° Ñī
ĠUnsupportedGLI FFormat
ĠListaPessoa View
ĠListaAlugueis Cliente
åĲįç§ °
autifuls oup
Ġ"{}-{} .{}".
ĠValidAdj acentNums
" +
" \
% %
' /
) '
) +
) ):<
+ )
+ @
+ ",
+ ',
. /
. {
. ',
/ "
0 40
2 06
4 39
6 09
6 58
7 17
8 5
8 9
: :
> '
> '<
> ')
> ")
> .*
> '.
? {
? '}<
A I
A AG
B is
B asic
B anner
B ashActivator
B usiness
C N
C ore
C elery
C ourses
C inema
D M
D oc
E d
E TI
E ns
E MP
E mit
E LERY
F E
F amily
F inder
F uzzy
F leet
F ishActivator
G eneration
H o
H ow
H ash
H ASH
I G
I S
I ZE
L Q
L U
L en
L ast
M g
M ust
N HE
O ffice
P al
P ing
P agina
P opulate
P owerShellActivator
R S
R oll
R pc
R aises
S l
S up
S ignal
S eg
S PA
S oft
T R
T ac
T AS
T ra
T area
U ST
U RI
V endor
V TK
W indows
Z K
] /
] ',
_ %(
a h
a api
a ints
a plar
b he
b act
b ills
b tre
b icycle
c b
c ery
c urso
c ampus
c rawl
c nomarket
d l
d id
e ses
e add
e ven
f ad
f if
f ied
g p
g t
g allery
h d
h ib
h ive
h ave
h ift
h ybrid
i q
i or
i ase
i min
j i
j itter
j esh
l imp
m k
m ut
m il
m acy
m Projects
n k
n ce
n ine
n opts
n ik
n ai
n utricao
o openid
p an
p as
p ers
p his
p est
p ush
p odcast
q y
q ty
q mul
r y
r ss
r ict
r ush
r ish
s ig
s ure
s ListView
s cola
s urname
t ur
t di
t ected
t went
t wenty
u ent
u ch
u site
v an
v ost
v irtual
w u
w an
w esome
x on
z hao
} $
} ',
} /{
} ".
} {})
} ]")<
} ?{
¡ æ
§ Ĩ
¨ åĨ
¿ ¡æ
Ã º
ä ¹
ä ¿¡æ
å ¼
å į
æ ¨¡å
è ¨
è §Ĩ
Ġ ĉ
Ġ ls
Ġ od
Ġ how
Ġ ÑĢ
Ġ hex
Ġ left
Ġ ÑĢÐ°Ð
Ġ rows
Ġ less
Ġ routing
Ġ enter
Ġ abspath
Ġ è¿
Ġ encodings
Ġ hard
ģ ¯
ħ ¥
į ç
Ŀ ¢
or i
at on
on y
on gs
se nc
me the
in ct
in ing
in formation
in icio
ar am
ar che
ar jeta
mp t
mp age
al ph
al arm
ro per
ro bot
ro cery
an o
an other
an onymous
de a
de my
de ep
en nai
pl ies
Ġimport ant
as c
as hed
Ġ= ="
Ġ= ['
re ed
le ge
le to
le af
le men
st ata
ut ers
ot ment
Ġp essoa
ly mor
ie e
ic Tac
Ġt g
Ġt el
Ġt ienda
ap k
ap ache
ap agar
", {"
Ġdjango gram
Ġm ind
Ġm anagers
Ġm atches
Ġm icro
def ined
Ġse ss
Ġse ction
he els
is fied
Ġf il
Ġf oreign
Ġf lex
Ġf ixed
Ġf requencies
op ro
yp ie
con stance
Ġre dis
ue st
Ġs w
Ġs y
Ġs it
Ġs qu
Ġs qrt
Ġ' $
Ġ' +
Ġ' ))<
ex cer
ex ams
tr yp
tr ace
tr action
tr ash
co ut
co vers
co ordin
co digo
Ġdef init
get ting
ad on
ad fe
Ġin c
Ġin stagram
ws se
ws dl
Con vert
ĠT AG
ĠT arget
ĠT RANS
app ointments
ĠA R
ĠA tt
ĠA nd
ĠA WS
ĠA jax
ĠA zure
ĠA DMIN
and a
ĠS V
ĠS ort
ĠS et
ĠS hould
ĠS hows
ĠS laughterhouse
Ġc amp
Ġc adena
Ġc alendar
orm odel
min ing
min ha
ser ves
il i
db g
un availability
Ġb r
Ġb ind
Ġb inary
Ġb tre
Ġb udget
Ġb reed
th ank
th anks
ĠC la
ĠC ON
ĠC hoices
ĠC urrency
ĠC ODE
ĠC ELERY
00 23
00 39
ist a
ist est
ist rad
to ys
iz ing
ĠM O
ĠM p
ĠM al
ĠM ed
ĠM es
ĠM anager
ĠM etadata
contrib ute
ĠD oc
ĠD ATA
ĠD rag
ĠD onation
ĠD RF
Ġsuper lists
Ġsuper cool
form Cre
ss on
ay a
Ġd JangoPro
ĠN A
ĠN inja
po ke
Ġcon sume
com bine
Ġn ous
Ġfrom share
set ter
Re act
Re jected
Ġex pression
Ġex pensive
Ġw heels
te cnomarket
ĠL atest
str ument
str ucture
Ġde t
Ġde pending
Ġde monstr
plo aded
=' ?',
ĠP er
ĠP as
ĠP lan
ĠP rest
ĠP ayload
ĠF our
ĠF ull
ĠF oreignKey
ĠF uzzy
ĠF avorite
Ġto ler
Ġto gether
Ġl atest
ĠB e
ĠB ug
ĠB ill
ĠB asket
ĠB roken
ĠB itcoinrate
ĠB ODY
user Config
Ġ( [<
mail er
her o
her ram
url lib
url resol
Ġu nt
Error Flags
ch i
ĠG amer
ĠG ood
la h
atu ses
Ġconfig ure
ĠRe ader
ĠRe viewsConfig
Ġop eration
cal led
auth enticate
auto use
eng ers
() ['
har macy
ire base
02 909
ĠO per
ĠO ther
Ġor d
Ġst ar
Ġst ata
pre senc
pre serves
sc a
sc rap
Model Info
am age
am ilia
ĠH uman
ĠH ybrid
yth ree
01 8
01 00
Ġ(" #
Ġ1 01
Ġco mentario
Ġint ro
Ġint ended
ĠE NV
ĠE scola
ient a
im db
im itive
Ġset ter
In heritance
translation s
dis pute
fo ot
fix tures
String RelatedField
Ġbe gin
Ġpro yecto
Ġpro gram
Ġ3 7
Ġ3 000
Al chemy
ĠR PC
fr iend
ri val
ri jesh
api Overview
add res
main Page
ide os
ide ntifier
lect ro
Ġma kes
sh ots
arg o
"] .
"] }<
"] ["
ny c
time out
time table
ome ns
Po seCard
check er
check list
ĠSt ory
post gis
Ġtr ial
Ġtr aceback
login User
tro id
ĠW elcome
ĠW allet
ĠOr ange
ĠOr ganization
ĠUser PI
ĠUser Data
ĠUser RateThrottle
ĠUser CreateForm
ĠUser Agent
Ġg en
ifi able
Se m
Ġ4 2
Ġ4 000
User Model
User APIView
User Factory
St u
ĠMe asure
ert as
AR N
update Project
ia omi
Ġrun s
Site Config
list AppConfig
list view
List By
VE NT
Ġ"< ",
zip code
key board
Ġsub string
Ġcl o
Ġ.. ..
sub tract
dispatch ers
ĠCreate UserForm
my user
my file
ĠK illing
Ġme m
Ġme asurement
Set Pagination
Ġch r
Ġch ild
ĠCon verters
Ðµ ÑĦ
Ġat trib
ĠList sConfig
ĠList ingsConfig
ĠRegister API
Ð° ÐµÐ¼
NO TICE
not her
>] ,
>] )<
Ð¸ Ñĩ
Ð¸ Ð»ÑĮ
Ġid s
Array Field
Or ganization
ÑĤ Ð¾Ð²
RE AD
RE MO
Ġ[' %(
'] }]")<
ĠIn fo
ĠIn stalled
ĠIn ventory
delete Project
Ġcomp uted
Ġ201 4
blog api
Ġout come
Type Base
comp leto
comp uters
ĠY aMDb
su shi
ĠÐ ¡
ĠÐ »
ĠÐ ±Ñĥ
ĠTr y
ĠTr adition
mode lo
sign ed
sign In
Integer Choices
Ġdi v
vide d
create Project
val uation
Request TestCase
04 648
PY ING
PY THON
Ġ: "))<
Ġnew Arr
year Config
book ed
book manager
see k
Ġho bby
ĠProduct ion
ĠProduct Form
ĠProduct Detail
ĠProduct Filter
task mate
ĠCustom Token
ĠCustom LoginView
install ation
Ġsp otify
model Inheritance
Ġcode c
ĠTodo AppConfig
ĠTodo Project
ĠTodo APIView
produ ces
Ġover ride
Ð°Ð ±Ð»
11 1
11 3
11 6
11 12
11 018
Ġfound ation
2022 06
An onymous
An gebot
dig ital
Ġspec ify
Ġspec ific
ÐµÐ ½Ð¸
gr and
Ġfirst app
Ġx range
mark eting
local s
pr d
pr ix
ĠBook ing
ĠBook APIView
fun ded
web dev
Ġobj s
Ġ5 87
np a
Ġwe ek
Log ErrorFlags
rest aurants
Un iversity
socket io
Ġso ap
ast ypie
ĠAdmin istr
ĠAdmin Snack
wh en
Ġsu cess
App ointment
ĠToken Auth
fa hr
ĠRequest Validator
ĠRequest TokenEndpoint
Py char
ĠAuth Config
ĠAuth UserAdmin
ud a
Ġhandle s
enco der
bound aries
xy z
NE T
Ġcache back
feren ced
ĠBlog UpdateView
ĠBlog DeleteView
OK IE
ĠĠĠĠĠĠĠĠĠĠĠĠĠĠĠĠ ĠĠĠĠĠĠĠĠĠĠ
ĠĠĠĠĠĠĠĠĠĠĠĠĠĠĠĠ ĠĠĠĠĠĠĠĠĠĠĠĠĠĠĠĠĠĠĠ
Ġbuild s
Ġown ers
wr it
lt i
Ġopen ed
ĠTest appConfig
ĠTest Timedelta
ĠModel A
assert Sequence
assert Raises
Ð» Ð°Ð²
20 9
Up dated
Custom Config
Ġmode lo
ĠZ hao
Ñĥ Ñģ
ĠMark et
... ')<
cr isti
ĠFirst DjangoProject
Profile View
mer ce
Date Array
Date Input
Date Dtype
~~~~~~~~~~~~~~~~ <
ĠProfile User
ĠProfile Update
Ġmy blog
Ġmy uploadfile
ĠTask Config
ĠImage Admin
ĠImage Upload
ĠAl low
ĠStudent sConfig
ĠLogin API
Ġprevent s
Index Ops
can teen
Filter Factory
part amento
ĠÐ¿ Ð¾Ð´
ĠÐ¿ Ð¾ÑģÑĤ
ĠComment Post
Ġi po
we ak
ĠResource Endpoint
ĠResource Owner
Ġ... ")<
ĠArticle ListView
ĠArticle DetailView
Line Item
ĠProject s
ĠProject Config
Ġresult s
ĠAuthor Job
Ġide ntifier
off er
Lib ro
Ġ"" )<
Ġ"" ",
gistr ate
Com merce
Hello world
cre ar
chat bot
ĠWeb ApplicationClient
XXXX X
commer se
ĠÐ´ Ð¸
ĠÐ´ Ð°ÑĤ
case studys
ĠCourse Admin
cart item
Book View
Book Relation
super lists
Ġq t
ĠMo bile
az zmin
Ð¿ ÑĢÐµÐ´ÐµÐ»
ĠContact o
ãĥ ļ
Ð¸Ñģ Ð¸
Ġcre dit
Ġoff line
serv icos
ĠÐ½ Ð°Ð·Ð²Ð°Ð½Ð¸Ðµ
Ġel astic
att aci
secret Joke
CO PYING
ãģ ¦
ãģ ¨
ãģ ª
Web Socket
Ġfunc ao
Ġbook mark
Ġbook manager
acao Config
ĠCh ange
ĠCh allenge
ĠCh annel
34 3
ĠCar Admin
ĠCar ros
Todo Project
ãĤ ¸
ĠAB I
Open ID
ĠEmployee Admin
HOST NAME
ĠComp letion
ĠLe sson
)) [
Ðº Ðµ
Ġ$ <
ĠClient CredentialsGrant
ĠReview Config
ĠReview List
Ġpl aced
real t
ĠService Admin
ĠService ApplicationClient
ĠEvent sConfig
ĠEvent LogErrorFlags
ĠHello World
mod ify
AlterModel Managers
ĠÑģ Ð¾Ð·Ð´
ĠÑģ Ð¸Ð¼Ð²
cont enido
Render Window
ĠÐº Ð¾Ð¼
ĠÐº Ð°ÑĤÐµ
Article ListView
Article DetailView
LI KE
Password Reset
Password CredentialsGrant
Ġ'_ ')<
Ð¼ Ð°
Ð¼ ÐµÐ½ÑĤÐ°
ĠDo ctor
ĠNews Admin
Ġgo od
listing detail
ĠRec ord
COL OR
Ġcontact s
Ġ21 04648
43 188
43 155
ĠNew Topic
ĠNew yearConfig
IL ABLE
ÐŁ Ð¾Ð»ÑĮÐ·Ð¾Ð²Ð°ÑĤÐµÐ»
ĠChat App
__) ))<
Results SetPagination
IP Address
be at
Ġmark eting
35 658
ĠEmp Form
ĠÐ¿ÑĢ Ð¸Ð¼ÐµÑĢ
UT F
HTTP Error
Ġnews app
ĠÐ· Ð½Ð°Ñĩ
diag nosis
authorization s
Only Endpoint
kit aplar
ĠCheck ListItem
ĠCheck sumAddress
ĠÑĤ ÐµÐº
ĠÑĤ Ð°Ðº
ĠGeneric TabularInline
Car ros
Th an
Ġword count
Ġword Counter
Cr isti
Ð°ÑĨÐ¸ Ñİ
Generic TabularInline
CS hellActivator
CS RF
tweet s
ĠDate Array
ĠDate Dtype
Chat App
ÑĥÐ ¶
Out come
ongo Manager
ĠÑĥ ÑģÐ»
openid connect
PL US
desc ricao
Ġemp resa
bit coin
ĠTopic Form
Ġact ions
ĠUn expectedError
Ð°Ð½ Ñĭ
Ð°Ð½ Ð½
ĠAuthorization Endpoint
ĠAuthorization TokenGrantDispatcher
Ġbackward s
Ġgre ater
ĠSignUpForm Test
Cart Item
ak si
non zero
Ġrepresent s
Ð¾Ð¼ ÐµÑĢ
We ek
Ð½Ñĭ Ðµ
Min ValueValidator
Ver ification
rome o
star ter
Proyecto WebApp
Ð¸ÑĤ ÑģÑı
vali ation
vali ations
Ð°Ð·Ð² Ð°Ð½Ð¸Ñı
birth day
dest ination
loc mem
Ġ-- >
Products List
Job Post
Start ing
ĠPolicy Factory
ĠPolicy CategoricalFilter
Pol ls
ĠÑģÑĤ Ð°Ð½
ĠEntry Form
Ġresol ution
there um
All Employees
ÐµÑĢÐµÐ ½Ð¸Ñı
ĠDevice Client
Coun tries
follow ed
97 7
ĠPart icipant
ĠBackend ApplicationClient
pens ary
ĠWh atever
202208 08
Ð¿Ð¾ÑĢ ÑĤÐ¸
Brand sConfig
vh iee
vot es
Ġass ign
Ġass ignment
inst gram
ĠPessoa Form
prod utos
Mark up
Ġes hop
Ġsum mernote
Ġconstr aint
ĠImp roper
ĠRating Admin
ĠXXXXX XXX
Policy Factory
Main Config
sa hib
ä¸ Ń
ĠRefresh Token
ĠBootstrap Error
ĠBootstrap Exception
PhoneNumber Field
Ġback ports
ĠRu owe
ĠUserRegister View
#- *-
band s
depart ure
depart amento
Ġbirth day
ialization Error
ĠDemo Config
week ly
hor oscope
ãĥĪ ãĥ«
Swagger ValidationError
gra vatar
glob s
ĠAp ple
ĠSal aView
ĠBanner Image
202101 17
.... ....
Comments Model
ten ido
experi ence
ĠAccess TokenEndpoint
Ġbu f
ĠCan not
ÑĢÑĥ ÐµÐ¼
ĠShort URL
ĠImplicit TokenGrantDispatcher
åĨ Ļ
æľ Ī
æľ Ł
ĠSwagger Error
ĠSwagger ValidationError
ĠSwagger Generation
ĉĉĉĉĉĉĉĉ ĉĉĉ
ĠAuthorizationCodeGrant Dispatcher
'}) )
cv jd
pag o
Ġtick eting
exer cise
Ġdig ital
ĠNft s
child ren
ĠUpload File
Ð°Ð¹ Ð»
79 439
Part ner
Su ite
sens ors
ĠSample PageView
ĠLegacy ApplicationClient
ĠHex Str
emplead os
ĠClientes Config
Ġcorrect ly
And BrandsConfig
Da ily
Sec ure
Sec urity
squ ashed
ĠMusic Config
Ġdeco uple
ĠRout es
cater ings
PREFIX ED
ĠCars AndBrandsConfig
tienda App
Mater ializer
gf p
Ð¶ Ðµ
åĽ ¾
ĠÐµ ÑģÐ»Ð¸
Ġroll no
inical Data
arily UnavailableError
ĠCK EditorWidget
Ġnet work
ĠTestF req
ĠCoun tries
SOCK ETI
lectronic Device
³Ð¸ÑģÑĤÑĢ Ð¸
Import er
ned bat
sat isfied
desk top
aci Ã³n
Ġocc urs
>~~~~~~~~~~~~~~~~~~~~~~~~ ~~~~~~~~~~~~<
>~~~~~~~~~~~~~~~~~~~~~~~~ ~~~~~~~~~~~~~~~~<
ĠÐ¿Ð¾Ð»ÑĮÐ·Ð¾Ð²Ð°ÑĤÐµÐ» Ñı
ãĤ¿ ãĤ¤
ĠCrypto Currency
gol ia
Ġmapp ings
Ġsnack s
letter s
ãģĻ ãĤĭ
teenthCRUD fbv
Bu sca
Cover age
gas to
æį ®
elicul as
ĠMon itor
ĠBilling Address
ĠStream ing
ĠWheel Distribution
Ġscrap y
Keyboard Markup
coverage py
ĠUniversityC ampus
ĠÑĨÐ¸ÑĦ ÑĢ
Ġbusc ar
ĠÐ·Ð°Ð³Ð¾Ð»Ð¾Ð² Ð¾Ðº
Am ount
Limit OffsetPagination
Man ifest
capt ion
oy og
pup pies
æł ¼
éĹ ´
itt le
assign ed
ĠSu ccess
doct ors
imera Pagina
ĠExit Status
ĠWebApplication Server
ãģŁ ãĤ
Bootstrap Exception
ĠÐ¾Ð¿Ð¸Ñģ Ð°Ð½Ð¸Ðµ
809 3
Calc ulator
jet as
pal indromo
sob re
æĮ ĩå®ļ
Ġcel ular
powers hell
autop ep
ĠLO CAL
ĠGrant TypeBase
Ġgra vatar
Ġ['* ']<
ĠSignature OnlyEndpoint
ãĥĥ ãĥĪ
MAIN NET
ÐĺÐ¼ Ñı
Ã¡gin as
ĠÐ¸Ð·Ð¼ ÐµÑĢÐµÐ½Ð¸Ñı
ĠTempor arilyUnavailableError
Ġaccident ally
ĠListaAlugueisCliente Serializer
206 78
>.* )
Ens ures
Fuzzy Attribute
Ho la
Seg u
bhe em
bact eria
eses hop
phis m
}{}) '.
¨åĨ Į
ä¿¡æ ģ¯
è§Ĩ åĽ¾
methe us
lymor phism
Ġtel net
excer pt
coordin ates
Ġdefinit ions
ĠTAG GING
ĠTRANS PORT
istrad or
ĠMes senger
ĠDATA BASE
formCre ative
poke mon
herram ienta
urlresol vers
02909 5
ĠOper ator
presenc a
ĠHybrid Grant
ĠEscola Config
REMO TE
ĠInstalled Distribution
Pychar mProjects
ĠTestTimedelta IndexOps
assertSequence Equal
ĠResourceOwner PasswordCredentialsGrant
ĠMobile ApplicationClient
Ġelastic mapper
ĠChallenge sConfig
ĠHelloWorld Config
ĠÑģÐ¸Ð¼Ð² Ð¾Ð»
Ġ2104648 38
ĠNewTopic Form
ĠÑĤÐµÐº ÑĥÑī
ĠÑĥÑģÐ» Ð¾Ð²
sahib i
ĠRuowe i
ĠSwaggerGeneration Error
SOCKETI O
lectronicDevice Detail
ãĤ¿ãĤ¤ ãĥĪãĥ«
! '<
! !</
" '<
" },
# )
# /",
# -%
% ##)
( ([
) *
) '<
) ####
) ##-#######",<
* <
+ =
+ )<
, ]<
, \<
- *-
. ######",<
/ ')
/ "),
/ ###-####",<
/ $"),
1 02
2 25
3 254
4 116
5 01
6 00
7 1
7 048
9 4
9 038
: {
: ]<
: '<
: ',<
: {{
= ("
= (<
= (),
> ,
> `
> })
A K
A Z
A ge
A ss
A ST
A MP
A use
A yValidator
A CL
A OL
A zure
A rearatioValidator
A TIVE
A nother
B G
B Q
B R
B X
B Y
B i
B t
B ol
B ER
B AS
B box
B RA
B ird
B egin
B argapValidator
B orderpadValidator
C al
C ME
C LO
C ALE
C lasses
C OT
C TION
C CO
C aptcha
C enter
C STRING
C urso
C orp
C adena
C alendar
C barAxes
C aptureeventsValidator
C heatertypeValidator
C LIENT
C adastrado
C ARD
D C
D TO
D valueValidator
D labelValidator
D ashsrcValidator
D rawingArea
E U
E u
E ID
E mploye
E ll
E IP
E IO
E thereum
F B
F Z
F e
F our
F ace
F ake
F ifo
F ollow
F ee
F edora
F acebook
F avorite
G R
G X
G mail
G old
G ateway
G tk
G DC
H L
H U
H V
H i
H ue
H um
H EL
H oleValidator
I con
I TICAL
I CT
I AB
I HV
J P
J inja
J itterValidator
J enkins
J LQ
K B
K illing
L ight
L CO
L owValidator
L ikes
L sa
L atest
L aunchpad
L owsrcValidator
L owerfence
L earing
L JP
M ang
M ay
M ER
M ock
M anag
M edia
M atchesValidator
M HL
N L
N CH
N AG
N LTK
N ombre
O LO
O PR
O GLE
P F
P J
P M
P ic
P OD
P acker
P irt
P rueba
P aginator
P icture
Q M
Q ual
R ent
R amp
R iver
R ider
R adioSelect
R ental
S X
S d
S o
S id
S CHE
S TE
S ri
S hows
S CHO
S cope
S laughterhouse
S oup
S pikesnapValidator
S uffixsrcValidator
S caleratioValidator
T M
T W
T OR
T utorial
T arget
T ipo
T weets
U Validator
U srcValidator
U hoverformatValidator
U buntu
U pperfence
V alid
V Validator
V srcValidator
V ost
V hoverformatValidator
V ertex
W A
W Validator
W srcValidator
W ard
W hoverformatValidator
W AY
W arehouse
W hiskerwidthValidator
W DM
W WA
X Y
X View
X shiftValidator
X bingroupValidator
X RD
X SX
Y OT
Y shiftValidator
Y bingroupValidator
Z lib
` ."""<
a e
a ar
a base
a ws
a el
a work
a home
a unt
a eb
a valiacao
a unay
b c
b ult
b lo
b atch
b gcolorValidator
b server
b ids
b ts
b asics
b ibl
b loginf
c ab
c gis
c ript
c afe
c icle
c book
c ao
c heater
c ancel
c feblog
d ot
d ad
d ial
d om
d value
d label
d cut
d ice
d Query
d ream
d rest
d rink
d ados
d anger
d witter
d araja
d ifferent
e kw
e ver
e ard
e mploye
e lection
e asing
e igh
e enth
e pik
f p
f ed
f ing
f ine
f isher
f itbit
f esch
g y
g Validator
g amer
g oproject
g fg
g rocery
h u
h ints
h ref
h ullValidator
h airdresser
i pt
i ous
i jack
j al
j forms
j orn
j arat
j emplo
j wj
k z
k an
k ore
k Config
k ios
k ids
k anda
l app
l ers
l back
l xml
l apValidator
l ru
l orem
m z
m oc
m ike
m unity
m undo
m vt
m iproyecto
n ap
n sp
n inja
n atural
o x
o ly
o ome
o User
o ctest
p u
p it
p ect
p support
p ast
p anel
p ape
p az
p edia
p ause
p romotion
p izzeria
p essoas
p eliculas
q tag
q tc
r as
r is
r ct
r Site
r ice
r ds
r adio
r uting
r Len
s ap
s ist
s View
s ri
s ms
s hel
s Type
s ound
s quot
s andy
s orl
s And
s urveys
t u
t at
t ot
t ls
t ect
t model
t utor
t ari
t arefa
t lds
t Paper
u o
u src
u hoverformat
u Pr
v ite
v src
v hoverformat
v icorn
v Templates
v itamins
w ink
w hoverformat
w ars
w ired
w hisker
w cblog
w aeb
x ys
x html
x shift
x bingroup
x rd
x rds
y ad
y ment
y ol
y et
y ard
y blog
y ash
y az
y bingroup
y arat
z lib
z ied
z style
z tat
{ <
| ",
} """<
¤ º
¤ ¾
¦ ç±
§ ĭ
³ ÑĥÑĢ
¶ éĹ´
· æł¼
¸ ¸
Ã Ń
Ð ķ
ã Ģ
å ¤
å Į
å ľ
å ħ¥
å §ĭ
æ Ļ
ç ´
ç ¤¾
è ¦
é ĩ
é Ľ
Ġ orm
Ġ ).
Ġ wsgi
Ġ um
Ġ ),
Ġ uri
Ġ angle
Ġ extension
Ġ Ð°Ð´
Ġ answer
Ġ lesson
Ġ etc
Ġ geolocation
Ġ ÐµÐ³Ð¾
Ġ ediaristas
Ġ Questions
Ħ è®
ĩ ãĥ«
ŀ ĭ
ĠĠĠĠ ĉ
ĠĠĠ čĊ
or ap
or is
or ange
or ry
at ers
at ings
at vi
at Bo
at temp
at kart
at arevision
on tour
on linesoccermanager
on ious
se l
se ss
se ver
se quential
se oul
er p
er r
er yp
er arch
er food
er ador
er ofolio
er bult
me ns
me todo
me san
me trics
me etings
me ga
in ic
in stant
in ople
in ished
in APP
in ations
in Bot
in WEB
ar ser
ar ity
ar lier
ar rangement
ar rowsizeValidator
ar Carros
mp ot
al a
al he
al ab
al Blog
al vin
ro ad
ro ker
ro ach
ro gen
import lib
import ance
ame TagsApp
an colorValidator
an modeValidator
an ico
an ana
an jal
de cl
de construct
de scriptor
name Auth
__ [
__ ")<
__ /',
en ic
en ed
en author
en wer
en roll
en quiry
pl ied
pl entymarkets
pl antilla
as min
as us
as gn
as Online
as yshop
as gnt
as anjal
Ġ= ["
it ools
it boundsValidator
it rogen
re lation
re du
re tail
re quire
re ast
re duce
re versal
re presentation
re plies
re funded
le k
le bot
le venthproject
le oUser
id p
id jango
id ict
id na
st ub
st atu
st roid
ang ulation
jango Templates
ut ter
ut App
ot ic
ot Place
ot onic
ls List
django form
django backend
django Test
django blog
Ġp ig
Ġp ic
Ġp agin
Ġp opulate
Ġp icture
Ġp izzeria
Ġp Ã¡ginas
ly fe
gs rcValidator
alid ad
ation Toolbar
ie un
ie th
ie man
ie colorwayValidator
ig or
ig nt
ig her
ig ationToolbar
ic a
ic um
ic ine
ic ol
ic us
Ġt ab
Ġt ec
Ġt ax
Ġt xt
Ġt utor
Ġt itulo
Ġt went
Ġt wenty
ap m
ap idjango
Ġdjango Test
Ġdjango blog
Ġ" ..
Ġ" \\
Ġ" ########
Ġ" ???
Ġ" |",
Ġm utation
Ġm iproyecto
ass ignt
cl ist
cl ip
cl ub
cl inicaldata
ed j
ed ro
ed API
ed geshape
ed ModelBackend
class ify
class App
Ġse lect
Ġse quence
Ġse na
Ġse ctions
ur ad
ur ant
ur gis
ur enko
lf th
is i
is ation
is link
is pypro
ct ime
Ġf e
Ġf if
Ġf lat
Ġf ol
Ġf ill
Ġf ast
Ġf ew
Ġf acebook
Ġf inch
Ġf itbit
Ġf allback
Ġf rozen
Ġf irebase
Ġf inished
op ag
yp edDict
yp riot
base src
con to
con sult
con vers
con currency
con tract
con sidered
con trole
Ġre p
Ġre v
Ġre act
Ġre sume
Ġs id
Ġs chedule
Ġs ymbol
Ġs ports
Ġs ynchron
gi ume
=" /
Ġ' ):
Ġ' ****
ex io
ex clusive
(" *
(" {
tr end
tr if
tr ire
tr aces
tr itools
co w
co st
co ordinate
get to
get Data
get ful
get cwd
ter able
ac quired
ac ross
ac cessed
Ġv alidator
Ġv card
Ġv isual
ad ik
Ġin f
Ġin st
Ġin set
Ġin gredient
Ġin muebles
ing api
ing Django
tt imer
ab ri
ab aton
ws rc
Ġ[ (
Ġ[ {
Ġ[ "",
Ġ[ {"
Con t
Con creteModel
Con strainValidator
ĠT I
ĠT ree
ĠT HE
ĠT ypedDict
ect acular
ĠA S
ĠA xValidator
ĠA yValidator
ĠA uxTrans
ĠA rearatioValidator
ĠA ustr
ĠA CME
ĠA OLO
Ġget Data
ib ili
ate words
ul os
ul lsrcValidator
ul gar
and i
and colorValidator
', ),
', {"
Config uration
ĠS C
ĠS d
ĠS v
ĠS name
ĠS id
ĠS lo
ĠS chema
ĠS plit
ĠS use
ĠS kip
ĠS cheduler
ĠS yntax
ĠS SN
ĠS pikesnapValidator
ĠS uffixsrcValidator
ĠS caleratioValidator
ĠS ighting
ĠS ameTagsApp
Ġc a
Ġc s
Ġc mt
Ġc ards
Ġc ancel
Ġc feblog
ile autos
orm Validator
ce ssion
ce ancolorValidator
(' ''
od d
od bapi
od opag
ma zon
min iblog
ser ving
self edu
all Auth
NG V
able Validator
able PhoneNumber
il ma
il way
il des
il ida
Ġas gi
Ġas gn
Ġas gnt
Ġas troid
db DATA
el td
GI NT
un der
un spec
un tries
un burst
un ner
un its
un expected
un quoted
Ġb ar
Ġb iblioteca
Ġb itcoinrate
Ġb ibl
th ir
th ree
ĠC ATE
ĠC enter
ĠC inema
ĠC allback
ĠC barAxes
ĠC ustome
ĠC aptureeventsValidator
ĠC heatertypeValidator
ĠC PF
ĠC ypriot
trib ble
00 64
00 46
00 31
00 58
00 59
00 45
00 366
00 3254
00 4116
ist itle
ist ep
ist band
ist anceValidator
Ġa voids
Ġa uctions
Ġa udiu
Ġa wesome
lo Project
ath on
to one
to axis
to folio
to learn
end ings
end line
end linecolor
end linewidth
end jforms
ĠM odels
ĠM od
ĠM ys
ĠM anage
ĠM atch
ĠM isc
ĠM atplotlib
ĠM utation
ĠM atchesValidator
ĠM altParser
ĠM uch
ĠD est
ĠD river
ĠD ados
ĠD valueValidator
ĠD labelValidator
ĠD ashsrcValidator
ĠD rawingArea
ĠD nsp
ack brain
ack athon
form text
Ġ# <
ho urs
ss n
ay s
Ġd id
Ġd ont
Ġd ynamic
(_ ('
if e
Ġedit ed
ir it
ings ystem
ĠN av
his se
po files
aut ic
aut entic
aut ores
Ġcon stance
Ġn ine
Ġn atural
set Position
color ing
Ġis o
Ġis Completed
Ġis bn
Re versal
one show
one advmodel
one toone
Ġw ieman
admin PanelDemo
te se
te in
te endjforms
ĠL ibr
ĠL ast
ĠL anding
ĠL owValidator
ĠL ENG
ĠL ux
ĠL aunchpad
ĠL owsrcValidator
ĠL owerfence
ĠL ithuan
ĠL atvi
str uct
str Path
str onaut
str aunt
str unner
Ġfile store
oc us
oc iated
Ġde vice
Ġde dent
SE D
SE S
LE R
res her
res sed
tern ational
ve ga
=' ')),<
ses rc
ĠP i
ĠP up
ĠP lat
ĠP AGE
ĠP ress
ĠP ermiss
ĠP YPY
ĠP df
ĠP aginator
ĠP UBLIC
ĠP aginated
ĠF E
ĠF ace
ĠF amily
ĠF ast
ĠF actory
ĠF light
ĠF ollow
ĠF irm
ĠF riend
ĠF edora
ĠF ailure
ĠF unding
ĠF lask
ĠF icha
ĠF ollower
ĠF lexFields
bo b
bo ys
bo om
bo ke
bo urgis
Ġl i
Ġl iv
Ġl orem
ĠB ye
ĠB ills
ĠB LOG
ĠB udget
ĠB argapValidator
ĠB orderpadValidator
ĠB enchemp
ĠB ulgar
text anchor
os izeValidator
ver ge
ver News
int ent
int ensity
sp roject
ializ able
mail mail
mail chimp
ys ad
ys rcValidator
ys Game
ys ftp
ys hift
project template
project URL
ip se
ip ware
ip fs
her lock
ine t
ta ob
Ġu vicorn
Error s
ub an
ub unit
ub food
ub hub
ub edj
level query
ch apter
ch anges
ch widthValidator
ch collector
ch ennai
ch ildes
par ated
par ttimer
ĠG ROUP
la is
TT B
Ġvari ants
ĠRe set
ĠRe sult
ĠRe uniao
om an
OR Y
Ġop portunity
ign oring
Ad alab
auth enauthor
bar mode
bar gap
sed Images
MODULE S
It inerary
auto gui
ime x
register Page
qu ickstart
qu arify
02 49
02 36
02 35
02 564
02 7048
Ġr ight
Ġr ush
Ġr ater
Ġr adi
Ġr ental
ĠI con
ĠI ns
ĠI dent
ĠI rish
file store
file ids
ĠU Validator
ĠU srcValidator
ĠU hoverformatValidator
ĠU sing
ĠU suario
ĠU pperfence
Ġst uff
Ġst ats
Ġst epik
pre mios
pre stamo
Ġver y
Ġver ification
ec as
ec na
Ġ[" >",
sc anner
et ut
et xrd
pen Id
Model Tests
Model BaseAttribute
out box
length Validator
es al
Ġmodel project
ont ly
ont ab
view cart
Ġh igh
Ġh igher
SS S
SS itemap
SS oftware
ber Fl
am i
am os
am ms
am io
am adon
am FB
ĠH or
ĠH ide
ĠH ard
ĠH idden
ĠH ospital
ĠH FS
ĠH oleValidator
mar proj
DE V
Ġadmin PanelDemo
Admin User
01 28
01 2020
01 229
01 05
01 55
01 39
01 69
01 9038
mo w
mo st
mo strar
Ġ(" ###
pro ger
pro yecto
pro cessed
pro getto
Ġy orum
Ġco mentarios
Ġco untries
email sender
Base srcValidator
Base Handler
Base FakerException
ĠASGI Middleware
## "<
## .####
art s
art in
ĠE T
ĠE ID
ĠE shop
ĠE cho
ĠE arly
ĠE valuation
itle d
map colorwayValidator
CK TYPES
tick er
tick label
tick son
path sValidator
ĠBase srcValidator
ĠBase Email
ĠBase Reporter
ient o
im iento
array tick
array dtick
ker nel
conf lict
ag re
ag ue
ag az
template filter
ĠDjango App
ĠDjango Project
ĠDjango Wh
per ties
per pend
lab extension
ST RA
In Queue
In box
In side
In sure
parse html
unct uation
dis likes
dis pensary
ĠSe cond
ĠSe quential
Op acityscaleValidator
CE SS
ace groupgapValidator
gis django
ure ka
ow ql
ow orderValidator
sql store
40 96
Str ipe
Str ategy
ken zied
String IO
Ġun a
Ġun less
test site
Ġser ialization
Ġbe autifulsoup
value hoverformat
Ġpro p
Ġpro blem
Ġpro cesses
Ġ3 1
ĠR o
ĠR s
ĠR iver
ĠR aise
Handler Resol
api APIView
add page
add Item
add tocart
label prefix
label padding
main page
Form set
}< /
Ġmin iblog
Ġe qual
Ġe igh
Ġe quival
Ġe arlier
arn ormValidator
dist inct
ide textanchorValidator
act ers
act ons
act iff
act ividad
act icum
ID ATION
ID ICT
Ġth ir
format src
Ġit terable
ty om
ste pik
ste mesan
ous Sensor
Ġpack ed
Ġma iler
Cl one
arg roup
"] [
ĠGener o
ĠGener al
ome t
ome loProject
File Storage
File Upload
ms ky
Ġclass room
unc atewords
face View
post as
source sValidator
nd ahome
Ġtr asn
Ġtr avel
Ġtr uncatewords
login logout
login Page
ug ares
ug DjangoProject
Ġdist ributions
ĠW Validator
ĠW srcValidator
ĠW ith
ĠW hoverformatValidator
ĠW hiskerwidthValidator
ange bot
Email Auth
ĠUser AppConfig
ĠUser Model
ĠUser List
ĠUser Manager
ĠUser Details
ĠUser Renderer
ĠUser Role
ĠUser BookRelation
Ġg rid
Ġg amer
Ġg erador
De v
De ploy
De precation
De velop
De pth
De ChBankProvider
De serializedObject
page Config
Ġprint ed
Se quential
Ġ4 564
User Serializer
User Data
User Detail
User Api
User Login
User nameAuth
Int Enum
duct ion
srf Function
lete Form
St atuses
ĠV Validator
ĠV srcValidator
ĠV hoverformatValidator
ĠV TK
ĠV ertex
ĠV Packer
Ġapp roach
work s
Ġpre mios
hover ed
hover info
hover ong
Test Boundary
ĠMe m
index Validator
ple arn
Ġlog o
py dj
Ġtest Django
Ġtest model
Ġtest App
ution Tests
Ġrun ner
Editor Permission
Ġ% #######",<
ĠPro ver
ĠPro Two
ard inBot
Pro Two
Pro perty
En Django
En roll
list create
und s
~~~~~~~~ ~~~~~~<
prefix es
prefix src
List Serializer
List API
Ġrest api
col lback
sol ution
Ġdo uban
Tick modeValidator
Tick labelmodeValidator
Tick sonValidator
Ġpy doc
Ġpy dantic
Time Project
Time table
Ġsc r
Ġsql store
ĠTick modeValidator
ĠTick labelmodeValidator
ĠTick sonValidator
order place
vis itor
rib ble
Ġuse ful
001 9
001 29
202 00
202 005
Ġsub scription
Ġsub tract
Ġcl ase
Ġcl ick
ĠText Area
sub stract
sub unit
sub parsers
sub straction
message data
Ġconn ected
ĠCreate New
ĠCreate TokenView
ĠĠĠĠĠĠĠĠ ĠĠĠĠĠĠĠĠĠĠĠĠĠĠĠĠĠĠĠ
my django
my filter
my chat
my Blog
my note
my document
my dog
my mow
ock addr
ven ian
ven ience
Ġcontext manager
ĠK eep
ĠK itaplar
Ġarg v
ĠSite Config
sup press
Ġadd ing
ĠCache Class
ĠError HandlerResol
funct io
funct oolz
Ġch allenge
LO ADER
LO CALE
ĠCon strainValidator
ĠCon exoes
Ðµ Ñģ
Ðµ ÑĤÐµ
Ġat ivo
Ġat racoes
ff line
cale modeValidator
Ġemail sender
#### )
#### ",
#### ",<
ĠURL conf
ĠRegister Config
ye b
ye to
ye icus
not ice
not egroup
not chsp
07 0
arch ived
ĠAPI Client
ĠAPI Resource
ook site
Ġarray s
ĠHttp Rpc
ilt Validator
ice Model
unt il
Ġchar t
Ġchar ity
amp rj
ake colorValidator
Array tick
Array dtickValidator
ViewSet s
over lapValidator
Sub scription
Sub unit
RE BASE
RE DIRECT
ĠIn put
ĠIn stagram
ĠIn setPosition
geo django
delete task
blog ging
blog Project
ĠFile View
ĠEmail Test
ĠEmail Auth
ĠEmail Update
ĠEmail Verifier
") ())<
") ])<
eb django
Ġiter val
Invalid ExpiredToken
do is
first site
open ing
open src
new project
new hit
ump ti
bin Validator
ĠY ADIS
ĠY shiftValidator
ĠY bingroupValidator
Key Validation
ĠÐ ³
ĠÐ ļ
ĠÐ ³Ð¾ÑĢ
Ġbase s
Ġbase string
redirect ed
lash cards
ĠNot chsp
Ġall ows
ĠArray tick
ĠArray Like
ĠArray FormField
ĠArray dtickValidator
Django app
Django Notes
Django Rest
Django WebFramework
posit ive
back ing
back space
ĠPost View
ĠPost Sitemap
ĠPost CreateForm
product os
product image
product Id
ĠAUTH ORIZ
ĠTr acker
ĠTr ade
range font
sign Out
pet ition
API s
API ViewSet
Ide a
Ide ntity
49 609
ĠX shiftValidator
ĠX bingroupValidator
Ġgener ator
vent eenth
Ġac quired
ĠFor getful
vide nd
Ex am
Ex ists
Ex ecuteValidator
ger ador
Ġlo an
Ġlo ve
Python Compiler
Create Throttle
Create TokenView
Qu it
Qu iz
Qu eries
control lers
ular ios
Ġal brecht
Ġal ternative
To o
us hellActivator
ĠCA PTCHA
create Post
Ġmay be
undle colorsValidator
Add rLen
Request s
PY PY
ĠDe ChBankProvider
ĠDe serializedObject
Ġdis course
.. .<
exec ution
Ġnew project
("- ----------------
word list
year s
book site
hello World
used octest
ra exio
Ġ"% .
Ġ"% ##-
Me eting
det ector
ummy fing
Ġho ur
URL Router
-- ")<
ĠProduct List
ĠProduct Details
ĠProduct GenericViewSet
ĠProduct Viewset
ĠProduct DetailAPIView
Redirect View
ical test
AF RI
logged in
Ġpas tPaper
GIS Blog
width srcValidator
Class Project
CA E
CA Provider
Template Pro
Template App
upload project
task List
ĠTemplate Response
ĠOpen Validator
ĠOpen srcValidator
ĠOpen SUSE
av s
Ġcontain er
mon otonic
save post
Ġbackend Todolist
Auth Config
Auth View
Auth Pro
Auth ors
els ka
model project
Ġcode point
ĠTodo DetailView
ĠTodo Item
Ġwor ker
Inter faceView
Token APIView
Token RefreshView
Ġtrans lator
start line
start linecolor
start linewidth
start standoff
ene mt
An alysis
An alyzer
An urad
Ġstart ed
anchor ed
Ġfirst site
profile app
local es
show arrow
show dividers
ĠAr rowsizeValidator
ĠAr rangementValidator
tact z
17 5
17 038
aces Validator
pr in
Ġj wj
ĠBook DetailView
ĠBook Author
ĠBook Store
own ership
di ary
di visibleby
Ar rowsizeValidator
Ar rangementValidator
imer Django
imer Proyecto
web page
web hook
web playground
web sate
06 4
np j
Ġge stion
0005 92
Ġwe apon
Hover infoValidator
Hover ongapsValidator
ĠHover infoValidator
ĠHover ongapsValidator
oto ols
Log Admin
way Validator
rest ate
uid b
Un expectedError
Un structure
Ax Validator
Ġso up
37 3
pi ked
ast linecolorValidator
ast linewidthValidator
notation Bbox
ain el
del iver
ĠJ itterValidator
Ġsu itable
App Command
build er
Ġmake element
Py Py
ud ar
ud io
inu ousSensor
OU R
bound ary
bound ssrc
ĠHTTP SSitemap
suffix src
ĠShow arrowValidator
ĠShow dividersValidator
labels rc
labels srcValidator
labels uffix
200 00
Show arrowValidator
Show dividersValidator
ows Validator
DIR S
APP LI
ĠBlog ApiConfig
migr ated
sm il
He fesch
ĠĠĠĠĠĠĠĠĠĠĠĠĠĠĠĠ ĠĠĠĠĠĠĠĠĠĠĠĠĠĠ
Ch uck
aster ingDjango
ertif ication
Page Config
Image Grid
CU T
lection revisionValidator
Ġhello World
created At
fin chcollector
### -###
ĠInvalid ExpiredToken
03 1
03 18
03 616
03 0039
let s
let in
let icia
Ġopen SUSE
ĠTest s
ĠTest Settings
ĠTest Suite
ĠGeo Validator
ĠGeo location
active Validator
active color
active shape
Ġgroup s
ash op
ash Project
ĠContrib utors
cer Helper
Ġmys ql
ĠModel BaseAttribute
ĠModel Raising
resp ect
assert Less
Ġsh utdown
Pre fixsrcValidator
Ð» Ð¸Ð½
Ð» Ð¾Ð¶
surface Validator
surface color
Static Pro
Static Files
Static Identity
ĠDan ish
implify Validator
lows rc
ĠSub unit
ĠRandom Question
validation s
Sessions Pro
SL ife
RAND S
15 6
of ertas
point pos
Ġpo lymorphism
Ġte strunner
ater ings
ĠCategory DetailView
Ñĥ ÑĤ
Ñĥ ÑģÑĤ
Ñĥ Ð¼
Ñĥ ÐµÑĤÐµ
question text
ices Validator
ĠLog Out
ĠInt ensity
Product ion
Product View
Product List
Product ViewSet
treemap colorsValidator
ĠLink Admin
area colorwayValidator
ÑĮ Ñİ
icicle colorsValidator
13 8
rec ored
spect ratioValidator
Profile Data
Profile APIView
05 88
201 50
bot collback
ere gister
ĠOp acityscaleValidator
cloud pickle
cloud Player
ĠProfile Form
ĠProfile ListView
ĠProfile DetailView
Ġmy django
Ġmy chat
Ġmy Blog
Ġmy note
ĠTask db
ĠTask list
with sandy
Ð¸Ð ³ÑĥÑĢ
sunburst colorsValidator
([ <
ik sv
ik ashProject
Ġjson schema
ĠImage Form
ĠImage Comp
ĠKey Press
ep isode
Manager QT
Ġblog Project
ĠAl brecht
ĠStudent Destroy
16 3
ĠLogin Form
Run ner
Run ning
Ð² ÐµÑĤ
Filter s
Inline Admin
ĠÐ¿ Ð¾ÑĢ
ĠÐ¿ Ð¾Ðº
Ġi plot
ĠOrder Config
ĠOrder Form
ĠOrder Detail
fill rule
we ibo
we apon
we lfth
met odopag
'), ('
ĉĉ čĊ
simple social
2021 08
2021 04
2021 100
Ġ... ]
ĠArticle s
ĠArticle FormView
19 00
19 01
19 87
inside textanchor
resh op
ĠSimple LazyObject
Category Detail
Category APIView
run s
ĠProject Form
ĠAuthor sConfig
cent agem
Code s
Color Generator
Color ingValidator
Ġide a
Ġweb hook
Ġweb playground
Not ification
Not chsp
Not InstalledModel
ĠUserAdmin CreationForm
pie colorsValidator
ĠIndex ListView
Boto Storage
off ee
36 5
36 67
enc urt
Ġ### ",)<
Ġ### -###",<
Input Widget
ĠApp s
olin modeValidator
Ġ"" .
ĠAccount Own
ĠAccount Owner
Com munity
OT STRA
ĠEx port
ĠEx am
ĠEx porter
ĠEx ecuteValidator
led ger
chat room
ĠMy UserAdmin
ĠMy TokenObtainPairView
ĠÐ´ Ð²
au diu
Ġdj One
Ġdj CSV
Ġdj Bank
Ġdj URLs
Ġdj Cookies
Ġdj DFU
funnelarea colorsValidator
dj One
dj CSV
dj Bank
dj URLs
dj Cookies
dj DFU
dj goproject
tod owoo
Format Validator
Format srcValidator
connect ex
Api Django
Ġ"+ (
li ability
Auto Test
sn ap
Book Create
Book Store
req ruting
gle srcValidator
ĠNe ek
Ġen o
Ġen able
Ġen cryp
compat ibility
23 33
Ð½ Ð¾Ð¶
ĠTag Inline
ĠMo viedata
wt tr
lower fence
lower halfValidator
Gener al
az ure
ĠSignup As
Ġar mor
gen res
gen eration
Subplot Host
Ð¾Ð± Ñĭ
Update Form
EL X
ĠApi Anime
BA NN
ĠContact Us
ĠColor ingValidator
Ġwidget admin
?? ########
ãĥ Ń
ãĥ ķãĤ
24 65
Do ctest
Fill ruleValidator
Ġcre ator
tool bel
ĠFill ruleValidator
ĠActive Validator
ĠActive colorValidator
Ġauthor ization
Group titlefont
Group sAnd
ĠValue hoverformatValidator
ĠValue ListItem
ĠAn gleValidator
ĠAn alysis
ĠAn notationBbox
serv ico
ĠÐ½ Ð°Ð·Ð²Ð°Ð½Ð¸Ñı
46 2
46 9
Ġbook site
gre entest
ĠCh ambre
ĠRoom Form
ĠCar Brand
Bar modeValidator
Bar codeProvider
layer Validator
Ġmethod Title
"), )<
Value s
Value hoverformatValidator
ĠIs ominValidator
ĠIs omaxValidator
aur ante
publ ication
itive CBV
Act or
Act ividad
End lineValidator
End linecolorValidator
End linewidthValidator
Open Validator
Open srcValidator
BBBBBBBB BB
tric ontour
ĠEmployee Config
ĠEmployee Form
ĠComp at
ĠComp eticao
ĠComp leteForm
ORE DIS
border pad
ĠReview Form
ÑĢÐµÐ ³Ð¸ÑģÑĤÑĢÐ¸
Ġpl entymarkets
Ġpl antilla
come dy
Is ominValidator
Is omaxValidator
Is Light
Is AdminUser
Ġrec v
ched Validator
ĠEvent Att
/{ {
shop pinglyx
CRE ATE
CRE ATIVE
mod al
shape Validator
fe k
fe w
fe icao
fe male
ĠData Validator
ĠÑģ Ðº
ĠÑģ Ð»Ð¾Ð²
ĠMovie Form
Tag Inline
Tag gedItem
Task s
sv g
sv cb
ÑĨ Ð¸Ð¹
Ġtask mate
scal erat
cont attaci
0007 84
0007 74
ĠUserProfile ModelInfo
Choice InLine
Render Node
render ing
Address Adapter
Te lephone
pix el
Ġcr ontab
ĠGroup titlefont
Positive BigIntegerField
offset box
sal t
sal utapp
arr ive
Geo Validator
ĠĠĠĠĠĠĠĠĠĠĠĠĠĠĠĠĠĠĠĠĠĠĠĠĠĠĠĠĠĠĠĠ ĠĠĠĠ
ĠĠĠĠĠĠĠĠĠĠĠĠĠĠĠĠĠĠĠĠĠĠĠĠĠĠĠĠĠĠĠĠ ĠĠĠĠĠĠĠĠĠĠĠĠĠĠĠĠĠĠ
bu y
STATU SES
On Rent
Ġenv elope
Ġsimple social
Ġdir s
public acao
Ġ9 0
ĠForm View
ĠForm Collection
ĠForm atValidator
ĠForm atsrcValidator
Article s
Ġ{} ))<
ĠMessage Admin
",) },<
ĠPerson Admin
ĠPerson With
ĠCol ab
orders rcValidator
"^ (.
ear ly
ll ite
Ð´ ÐµÑĤ
node s
Ð¼ Ð¸
Ð¼ Ñĥ
Ð¼ Ð¾ÑĤ
Ð¼ Ð¿Ð¾ÑĢÑĤÐ¸
net work
send mail
ĠDo main
ca it
feed s
feed ing
Ġgo ogle
99 48
document al
ĠTe legram
Axes Grid
ĠAddress Serializer
ED BACK
ates Group
food Name
45 4
ÐĿ Ðĺ
reg uest
Ġtod owoo
asing Validator
Ġallow ing
rg ba
ward s
Ġad odbapi
Ġqu it
Ġqu otes
card holder
be lek
Offset box
fil m
mem map
mem store
Ġfull name
Ġfull stack
ĠCart sConfig
NUM BER
ĉĉĉĉ ĉĉĉ
Di vidend
Ġz pad
Ġz oome
med als
ulo Django
recipe ingredient
Own ers
ĠClo sesrcValidator
ĠEmp AppConfig
ĠEmp Admin
Trans lator
ĠÐ¿ÑĢ Ð¾Ð³
Ġper formance
Review View
ĠEnd lineValidator
ĠEnd linecolorValidator
ĠEnd linewidthValidator
Emp Admin
Wr itable
uff le
ative Validator
Ð°Ð· Ñĥ
urist ack
Contact Info
Att empt
yper School
ĠÐ· Ð°
ĠCustomer Config
ĠCustomer Admin
ĠCustomer Form
Ġ"( %##)
activ ated
ura coes
ura Receitas
ĠOut lierwidthValidator
Le ave
landing website
ĠÑĤ Ð¾
WORD S
Of Django
Of Adalab
Th read
Rec ipes
Ġdelete s
CR ITICAL
Cr ispy
Reference Field
agent s
0010 49
ĠLabel prefixValidator
ĠLabel paddingValidator
Generic Filter
Can cerHelper
numer ic
uni formtext
20210 3
20210 32
Chat Room
Out put
Out lierwidthValidator
bel gium
bel giume
ĠSearch Config
DIS PLA
counter clockwise
ĠEmpty Callable
ĠLogout APIView
+)/ $",<
Payment Method
iff io
weather app
copy tree
drf project
desc ripcion
ĠPhone Verifier
arrow color
arrow width
arrow head
ĠMin imal
ĠMin ValueValidator
ĠMin sizeValidator
##- ########",<
Label Command
Label prefixValidator
Label paddingValidator
Ġmpl Deprecation
Ġfig ure
Ġfig ures
Sign ature
ping Cart
ico blog
Ġgre et
Status Type
Ġlocal host
ĠTimestamp Admin
ĠCloud Pickler
Cart Items
ak ale
non exist
trip color
ĠSE CRET
Ð¸Ð· Ð²ÐµÐ´
ha j
man ufacturer
ÑĪ Ðµ
Ġag g
poll ing
poll ster
Pr imerProyecto
VAR IAB
wal k
opacitys cale
ĠFI LE
addr s
Ġ"%## .##
202207 12
202207 20
Clo sesrcValidator
bud dy
strip etut
ĠBBBBBBBBB BB
Member Management
Min sizeValidator
role s
edu Project
Ġuniv ersity
Default ACL
ĠNotes Serializer
ĠNotes Admin
Lo an
bind ing
bind ings
ian Validator
ĠSp ending
ĠSp ectacular
ĠPhoto Config
Proyecto Django
Ð¸ÑĤ ÐµÐ»ÑĮ
FF LINE
dest inations
ĠReport Type
ĠReport Run
ĠLabels rcValidator
ĠLabels uffixValidator
###) -######",<
Divider colorValidator
Divider widthValidator
ĠAnchored Text
ĠAnchored AuxTrans
ĠAnchored Zoom
ĠAnchored DrawingArea
ĠAnchored Ell
ĠAnchored Offsetbox
fl ix
wait ing
ĠCity Admin
loc ator
ee ch
ee wee
lator ios
ĠPassword Reset
Start lineValidator
Start linecolorValidator
Start linewidthValidator
Start standoffValidator
Labels rcValidator
Labels uffixValidator
ĠÐ¸ÑģÐ¿Ð¾Ð»ÑĮÐ· ÑĥÐµÑĤÐµ
policy factory
Node NotFoundError
eria Config
mean Validator
ĠCat atan
ĠFigure ManagerQT
Ġlanding page
Ġlanding website
cars app
Ð°Ð» ÑĮ
ĠTaggedItem Inline
Script Error
Hook Mixin
Models Pro
cur ta
capture events
çĶ »é
plic a
plic it
Ġtag git
Ġsal ary
Ġsal utapp
upper fence
upper halfValidator
ĠAutor ViewSet
ĠCalc Tests
EnPh PhoneNumberProvider
EnPh BankProvider
EnPh AutomotiveProvider
EnPh InternetProvider
EnPh SsnProvider
EnPh AddressProvider
EnPh MiscProvider
ĠEnPh PhoneNumberProvider
ĠEnPh BankProvider
ĠEnPh AutomotiveProvider
ĠEnPh InternetProvider
ĠEnPh SsnProvider
ĠEnPh AddressProvider
ĠEnPh MiscProvider
ĠPolicy Action
/? $",
GB RANDS
MULT IDICT
dr ft
ÑĦ Ð¾ÑĢÐ¼
ÑĦ Ð¸Ð³ÑĥÑĢ
ĠCount RenderNode
ĠLo an
workers chedule
expected Failure
Ġshop pinglyx
countries Validator
ĠBoard Serializer
Card Backend
Card Provider
First DjangoProject
gn ore
wd m
Ġ"?? ##
Ġ"?? ??########
ĠDa Validator
ĠRoll Validator
Coun trie
ĠQuiz Question
Max Length
Us age
cri ado
em bourgis
hi erarch
named tuple
ita ire
ĠProyecto Django
Posts View
ĠRestaurant ViewSet
Destroy ModelMixin
Cre dit
FC M
Spike modeValidator
atos Empresa
ĠSpike modeValidator
ĠCard sConfig
ĠCard Details
ĠCard holder
ĠMail ing
ific acion
ĠBackend Config
spike mode
Ġmail chimp
ĠWh en
ĠBooks Serializer
divider color
divider width
ĠÐ²Ñĭ ÐºÐ»ÑİÑĩ
ĠDivider colorValidator
ĠDivider widthValidator
ĠFigureCanvas Agg
ĠFigureCanvas Cairo
Ġass ociated
Ġport al
iso min
iso max
adv template
ĠImport s
Active Validator
Active colorValidator
Manage UserView
Publ ish
UM MER
iment o
rent al
userprofile info
##) -#######",<
ĠStart lineValidator
ĠStart linecolorValidator
ĠStart linewidthValidator
ĠStart standoffValidator
ĠXXXXX X
ĠXXXXX XX
assertIs None
ĠClass ic
ĠMyProfile Admin
ĠMyProfile ListView
ĠMyProfile DetailView
invoice history
Policy Filter
AC Q
Call Failed
Main View
free form
pri v
smart notes
uar ants
ä¸ ª
ĠShop pingCart
ĠConnection Token
OrderItem Inline
ĠTestP ass
PK Config
ko yeb
manage System
tmp dir
åĪ Ĺ
ĠÐ¾ÑĤ Ð¾Ð±ÑĢÐ°Ð¶
Ġ"################ "<
hem istry
Ġsmart notes
Ġbad tag
Ġback compat
thproject staticfiles
thproject MODEL
thproject modelform
thproject djforms
thproject DISPLA
ĠPayment Config
aggreg ate
direction Validator
ĠWebsite Config
goclio eu
About PageView
Del ivery
GO OGLE
four middleware
four teensession
uted Validator
ador URL
Ġconf use
ĠHe althCheck
ĠProxy Model
ursos Django
ĠÐ¿Ð¾Ð» ÑĥÑĩ
ĠServ icios
ĠServ icio
ĠServ icesConfig
]+) $',
sales App
ĠÐºÐ¾Ð½ ÑĦÐ¸Ð³ÑĥÑĢ
irtualenv Builtin
UB E
World OfDjango
gable MPTT
ians rcValidator
("/ ")<
Ġclean up
ĠNull ablePhoneNumber
ĠPort uguese
ĠParent Manager
ĠPet Photo
ĠBar modeValidator
ĠBar codeProvider
##-#### #",<
ĠÐ± Ð°Ð·Ñĭ
ĠÐ± Ð°Ð·Ñĥ
ãĥ¼ ãĥ
ĠÐ¿ÑĢÐ¸ Ð»Ð¾Ð¶
ĠFeedback Form
ĠÑģÑĤÑĢÐ°Ð½Ð¸ÑĨ Ð°
Nested ModelSerializer
aw esome
aw elska
glob al
mult idict
so lo
Ġ}} /
Ġ}} '<
eno app
itch Validator
reet ter
ĠAp ply
Ġbig c
Ġbig count
teen djangoform
teenth ORM
teenth authenauthor
ĠPar asiteAxes
ĠDelete QuerySet
1111 1111
ĠWebSocket Server
ĠThread List
ĠThread Detail
Length Validator
Sal utApp
vin cent
Ðŀ ÑĤ
è¿ Ķ
react B
gium EID
ĠAccess ory
ĠFixture Request
ORM Pro
ĠElement sType
distance Validator
Website Section
adiu ssrcValidator
ĠFigureCanvasQT Agg
ĠFigureCanvasQT Cairo
Ġbehavi our
Button Group
Down loader
GORI ES
Mode los
VAL IDATION
ioc psupport
nos lash
your name
æĪ ı
æĹ ¶éĹ´
Ġtz local
ĠSum Validator
ĠSum mernote
ĠSum mernoteModelAdmin
osp ice
take home
ĠRemove GroupsAnd
quir ies
0222 64
0222 454
ĠÐ¿ÐµÑĢÐµÐ ¼
pha hullValidator
9999 9999
)### -######",<
-### ",)<
Db Validator
Element Tree
High Validator
High srcValidator
IC cbv
Wh en
Word Cloud
nft s
watch mate
ä» ·æł¼
è¡ Į
Ġpoll ster
ĠCre ator
izont ally
ĠDB s
Ġdig its
Ġdoc utils
ĠPre fixsrcValidator
ĠRegistration Config
ĠEmployees Config
Stream Platform
ĠYorum Serializer
Ð°Ð¹ Ð»Ð°
ĠREQUI RES
BLOG project
ĠLayout Validator
ĠBBBBBBBBBBBBBBBBB BBBBBB
CBV Context
ordinate sValidator
Back space
Port al
Sum Validator
Sum mary
Sum mernoteModelAdmin
bb c
emplo ee
flock s
sil ly
è® ¾ç
apro vado
tri plot
tri interpolate
tri angulation
005 360
005 469
ĠLazy RedirectView
ĠReg ular
ĠIP v
Ġthread ing
ĠUsername Test
ĠUsername Auth
LOG GER
ĠArrow colorValidator
ĠArrow widthValidator
ĠArrow headValidator
Arrow colorValidator
Arrow widthValidator
Arrow headValidator
ĠOnline StudyManage
ĠClientes ViewSet
ĠÐ½Ð°ÑģÑĤÑĢ Ð¾Ð¹ÐºÐ°
ĠSSSSSSSSS SSSS
wenty oneadvmodel
arison Failure
Currency Rate
DT L
Da Validator
Foo Base
Okta OAuth
Per fil
liv ros
liv raria
astr ucture
edi hisse
ĠSens or
minorgrid color
minorgrid count
minorgrid width
002 184
002 064
006 008
006 138
006 0588
Ġdatos View
Ġdatos Hum
ĠBel giumEID
ĠBbox Patch
outlier width
Ġ("??? -###",)<
Ġever ything
Clio OAuth
ĠProperty Admin
Ġdoctest s
Ġdoctest compare
pract icaltest
ĠFlatPage Sitemap
ĠÐ¿ÑĢÐ¾ ÐµÐºÑĤÐ°
Ġperform ing
ĠMinorgrid colorValidator
ĠMinorgrid widthValidator
ĠMinorgrid countValidator
Minorgrid colorValidator
Minorgrid widthValidator
Minorgrid countValidator
ĠTwoConfig Bis
BO OTSTRA
Go ClioOAuth
Mater ializedNestedCategoricalFilter
Temp Filters
Video Downloader
baz aar
foc us
lin ode
land Validator
persist ent
persist ence
åĽ º
ĠÐµ Ðµ
Ġrece ived
coding Error
008 2465
Ġconvert s
Ġ(% ##)
ĠUrls Database
ĠUbuntu OpenId
014 113
ĠWr iter
ĠValid ate
ĠÐĴ Ð°ÑĪ
ĠTodoList Admin
ĠCategories Config
imagen Auto
ĠCoun trie
Translation Options
Close Validator
0000000000000000 0000000000000000
ĠÐ·Ð°Ð¿ ÑĢÐ¾Ñģ
Cat alog
DO CSTRING
Hist ory
Med ium
Mail View
Split Validator
WEB SITE
fon o
fcm device
high src
lue Bird
sim onious
åĬ ł
è¯ Ħè®
separator s
Ġson gs
coast linesValidator
ĠAv engers
Ġocc upation
Ġbabel ize
ĠChar Filter
ĠCash Field
autom ation
ĠBad Node
spikes nap
imeiro Projeto
Ġhor izontally
need squot
Ġeb django
TIT LE
ĠUserRegistration View
PDF Pro
Ġcomponent s
Compiler Filter
ĠEmpresa Form
corp us
ĠCrypto Extension
geeks forgeeks
ĠClassroom Config
ĠWebsiteSection Category
mbedded Field
è¡¨ åį
MB F
Plan View
Validation s
gol iase
iend asOnline
lap top
vtk Tk
Ðļ Ð°ÑĤÐµÐ³Ð¾ÑĢ
ä½ ľ
åı °
Ġ"$ \
Ġblock s
ĠMode lo
ĠDateTime Provider
administr acao
ocr ud
intro duction
spr acticum
okeh Django
ĠEd geshapeValidator
Point posValidator
ĠConf irm
##### ",
component s
ĠTransport ation
Ġwrit ten
ĠTestModel Region
ãĤ¹ ãĥ
Diag nose
Diag nosisRequest
ĠClose Validator
teenthCRUD cbv
Memory Worker
COMPRESS OR
032 240
={} ,<
={} )<
Async LibraryNotFoundError
Ban king
Builtin Valid
Hold ings
JJ P
Surface colorValidator
brain app
cho msky
donation app
hab ilida
nb extension
norm Validator
oce an
oce anValidator
sug ar
xri res
¾ç ¤º
æ³ ķ
æ³ ¨åĨĮ
ĠÃ© s
onaut ic
oth ers
djangojob execution
clo sesrc
Ġfour teensession
Ġsn iffio
ĠAsync LibraryNotFoundError
ĠSurface colorValidator
Ġbel ow
ĠDb Validator
Required Mixin
Ġwatch mate
ĠBalance Transaction
atualiz acao
ĠOkta OAuth
ĠOkta OpenIdConnect
ĠIS C
ĠHigh Validator
ĠHigh srcValidator
ĠRel atedModel
ĠRadioSelect ButtonGroup
ĠStore CustomConfig
ĠUserSocialAuth Manager
ĠListando Receitas
venthproject faker
ĠPoint posValidator
expand Validator
Ġflag ged
(?: [
ĠScript TestsMixin
managment system
ĠAnchoredSize Bar
ĠAnchoredSize Locator
ĠGoClio OAuth
ĠGoClio Eu
ĠBboxConnector Patch
ĠCompressor Finder
ĠCompressor FileStorage
æķ° æį®
77 462
Coder Blog
Gender Type
Hex Str
Hospital System
Mod al
Upl oded
Visual ization
Watch List
mq tt
¢ãĥ ĩãĥ«
æĸ ĩ
æĺ ¯
Ġent ered
plore bts
Ġfriend ly
trust root
ĠSta mped
ĠSchedule dQuery
0020 40
0024 32
Ġdur ing
Ġdropp ing
ĠLivro ViewSet
Ġlat itude
ĠRealtor Admin
Serv icios
028 648
Ġrend ers
rivers Validator
Clothes Api
Ġchang ing
ÐµÑģÑĤ Ð¸
ĠÐŀ Ð¿ÑĢÐµÐ´ÐµÐ»
ĠArgument Error
Confirm View
ĠAboutUs PageView
ĠShortener Config
Crud MongoDB
Load s
ÐĹÐ°Ðº Ð°Ð·
åĩºçīĪ ç¤¾
htmx Modal
ĠTimeStamped Model
Ġintegr ation
(###) ###-####
745 49609
AVA ILABLE
Cho fer
JO CI
Mos h
Pri vate
Pacient e
amand er
bt n
hil lels
ki wi
kal ium
lend Validator
por centagem
Ð± ÑĢÐ°Ð½
Ġmp tt
eral KeyValidation
memb uat
ortick lenValidator
alp ine
asures rcValidator
Ġtri angular
addb ook
ĠAct iv
ĠArc gis
009 163
toshow Validator
izex Validator
sessed Car
ĠFacebook OAuth
ĠBinary Zlib
lakes Validator
ĠReply KeyboardMarkup
oling apValidator
olingroup gapValidator
iredis Error
scap ed
scik it
artilemethod Validator
Ġprob ability
ĠRaw JSON
iselect Validator
ĠVenmo ProfileData
ĠConcreteModel Subclass
NOTH ING
ĠRedirectTo Dashboard
ĠÐĺ Ð¼Ð¿Ð¾ÑĢÑĤÐ¸
detect me
ensitys rcValidator
iverging Validator
prj ct
heaterslope Validator
ained dropdown
fade Validator
ĠAuthGroup Admin
OrderWithRespectTo Tests
Present e
ĠExchange Rate
proje ect
Emplead os
ĠÑĦÑĥÐ½ÐºÑĨÐ¸ Ñı
ĠÑĥÑĢ Ð»Ð°
ĠÐ¼Ð°ÑĢÑĪÑĢÑĥ ÑĤÐ°
Market place
ĠÑĨÐµÐ» Ð¾Ðµ
Ð¾Ð¶Ð´ ÐµÐ½Ð¸Ñı
Toolkit SSH
attribution Validator
ĠVerification Report
guess ing
ĠEditora ViewSet
autiful Soup
ĠRenderer Cairo
ĠÐ²ÑĭÐ²Ð¾Ð´ Ð¸ÑĤ
ĠPlotly Renderer
ĠÐ°Ð²ÑĤÐ¾ÑĢ Ð°
Fraud Warning
otypenumbers Validator
Ð¾Ð·Ð²ÑĢÐ°Ñī Ð°ÐµÑĤ
ĠValidAdjacentNums Page
AI OREDIS
CN J
Ed geshapeValidator
Mg mt
Roll Validator
Sup er
TAS K
VTK RenderWindow
even odd
sig ma
xon as
ä¹ ¦ç±
æ¨¡å ŀĭ
ĠÑĢ Ð¾Ð¶Ð´ÐµÐ½Ð¸Ñı
ĠÑĢÐ°Ð ·
įç ½®
mpt ToolkitSSH
asc ota
tryp p
Ġinc una
ĠAnd i
ĠAjax InputWidget
ĠSV M
Ġcamp os
ormodel Validator
ĠMp esa
ĠMal tese
ĠNA ME
React Site
ĠPrest amo
ĠFour th
ĠBe autifulSoup
chi ha
Sem Lock
iaomi Store
Ġmem store
ĠInventory Config
ferenced Image
writ ers
ĠÐºÐ¾Ð¼ Ð¼ÐµÐ½ÑĤÐ°
ĠÐºÐ°ÑĤÐµ ÑĤ
ĠÐ·Ð½Ð°Ñĩ ÐµÐ½Ð¸Ðµ
ĠÑĤÐ°Ðº Ð¶Ðµ
ĠÑģÑĤÐ°Ð½ ÑĨÐ¸Ð¹
gasto s
ĠStreaming HttpResponse
oyog a
ãģŁãĤ ģ
Segu ros
ĠÑĤÐµÐºÑĥÑī ÑĥÑİ
(([ ],
AK Z
Ass ignment
Ause nte
BX I
Bol g
BAS ICcbv
BRA NCH
Begin ning
CCO S
Corp us
CbarAxes Base
EU L
FZ A
GX R
Gmail Pro
Hue Type
Jinja Pro
Latest ProductsList
Manag enemt
Pirt folio
Qual ity
Ramp Up
SCHO OL
TW F
Vost Client
XRD S
awork takehome
aunay axisValidator
blo od
cript ion
cicle colorwayValidator
cheater type
dial ects
ekw are
fed orap
fisher ies
jorn ada
kore a
ox start
oly eregister
paz ari
qtag g
qtc airo
sound s
tot als
tls abase
tari hi
uPr imeiroProjeto
wink le
wars ztat
whisker width
waeb site
yad is
yaz ar
yarat ilma
¸¸ æĪı
åĮ ĸ
æĻ Ĥ
oris nik
aters ite
atBo ysGame
attemp t
atarevision Validator
sever ity
eryp aram
erbult en
inAPP lvl
inWEB PAGE
mpot ency
enic destinations
asmin web
itrogen ous
reast CancerHelper
leventhproject templatefilter
statu ss
stroid Manager
utter App
otic toys
Ġpig let
ieth advmodel
Ġtec nomarket
Ġ"\\ "]),<
urenko v
ispypro j
Ġfinch collector
convers ations
Ġsynchron ize
Ġ'**** **
trend yol
trif inder
trire fine
abri que
ĠAuxTrans formBox
ĠAustr ian
ĠAOLO penId
ibili oteca
ĠSlo venian
ĠSplit Validator
cession aria
dbDATA inWEBPAGE
unspec ified
unburst colorwayValidator
0064 21
0046 84
0058 47
0059 16
0045 36
00366 9
ĠManage UserView
ĠMatplotlib DeprecationWarning
ĠDest ination
ĠDnsp ython
ĠNav igationToolbar
Ġwieman n
teendjforms cookie
ĠLibr eriaConfig
ĠLENG TH
ĠLux embourgis
ĠLaunchpad OpenId
ĠLithuan ian
ĠLatvi an
straunt project
ĠFast API
ĠFedora OpenId
boke h
Ġliv raria
ĠBulgar ian
projectURL inAPPlvl
taob ao
ubunit sValidator
quarify ratioValidator
0249 65
0236 04
0235 33
02564 75
027048 9
Ġradi us
ĠIns idetextanchorValidator
ĠIdent ity
SSoftware Manager
berFl utterApp
0128 90
01229 4
0105 98
0155 60
0139 54
0169 17
##.#### #",<
ĠEcho Node
ĠEarly FraudWarning
ticklabel mode
ĠBaseEmail Message
ĠDjangoWh iteNoise
perpend icular
Inside textanchorValidator
Insure Pro
kenzied oc
Ġequival ence
stemesan itaire
argroup gapValidator
Ġtrasn formed
ugares Seguros
Develop ment
UserApi view
srfFunction TestMixin
hoverong aps
ardinBot anico
00129 7
ĠErrorHandlerResol utionTests
yeicus Dev
notegroup model
ĠInstagram Config
umpti ous
ĠÐ³Ð¾ÑĢ Ð¾Ð´
DjangoNotes App
ĠAUTHORIZ ATION
venteenth BASICcbv
ĠForgetful CookieJar
("----------------- --")<
raexio is
ummyfing erfood
AFRI CA
ĠOpenSUSE OpenId
Anurad ha
17038 77462
Unstructure d
piked istanceValidator
APPLI CATION
0318 97
03616 0
ĠModelRaising Messages
botcollback message
iksv an
ĠImageComp arisonFailure
Running Error
ĠÐ¿Ð¾Ðº Ð°
welfth cookie
metodopag o
offee Station
encurt adorURL
ĠAccountOwn ership
ĠNeek man
ĠApiAnime VostClient
BANN ER
ãĥķãĤ ©
toolbel t
ĠEventAtt ender
svcb base
scalerat io
"^(. +)/
Ġzoome d
ĠÐ¿ÑĢÐ¾Ð³ ÑĢÐ°Ð¼
Writable NestedModelSerializer
Crispy Forms
belgiume id
ĠEmptyCallable View
nonexist ent
PrimerProyecto EnDjango
VARIAB LES
MemberManagement App
DefaultACL Mixin
ĠAnchoredAuxTrans formBox
ĠAnchoredZoom Locator
ĠAnchoredEll ipse
çĶ»é Ŀ¢
MaxLength s
hierarch y
ĠÐ²ÑĭÐºÐ»ÑİÑĩ ÐµÐ½
thprojectmodelform s
thprojectDISPLA dbDATAinWEBPAGE
ĠÐ¿Ð¾Ð»ÑĥÑĩ Ð¸ÑĤÐµ
ĠÐºÐ¾Ð½ÑĦÐ¸Ð³ÑĥÑĢ Ð°ÑĨÐ¸Ñİ
gableMPTT Admin
teendjangoform cookie
teenthauthenauthor i
ĠParasiteAxes AuxTrans
ĠRemoveGroupsAnd Permissions
è®¾ç ½®
ĠÐ½Ð°ÑģÑĤÑĢÐ¾Ð¹ÐºÐ° Ñħ
ĠBelgiumEID OpenId
BOOTSTRA P
lueBird Banking
è¯Ħè® º
needsquot ing
è¡¨åį ķ
goliase arch
ĠTestModelRegion AR
BuiltinValid ate
habilida des
ĠGoClioEu OAuth
ĠScheduledQuery Run
ĠÐŀÐ¿ÑĢÐµÐ´ÐµÐ» Ð¸ÑĤÐµ
74549609 2
eralKeyValidation Mixin
ĠBinaryZlib File
ä¹¦ç± į
Managenemt API
fedorap roject
uPrimeiroProjeto Django
ĠLuxembourgis h
! ')
! "}<
" .<
" ...
# %
' "<
' ."""<
) )]<
* :
+ .<
, {'
- +
. "),
/ |
/ ')),<
1 40
1 001
1 37
2 12
2 04
2 048
3 50
3 10
4 46
6 1
6 17
6 18
8 37
8 209
: ]
: ]:<
= ="
= ='
> .
> =
> ",<
> [-
> },
> }),
> }.<
> `<
? "
? ",
A Q
A void
A NY
A valiacao
A tracao
A valiation
B E
B K
B L
B ad
B OR
B JSON
B ill
B RO
B AD
B ranch
B ackwards
B atchActivator
B enefactor
C afe
C ra
C Provider
C ASCA
C ities
C leanup
C andidate
C MSPluginBase
D S
D on
D ir
D ULE
D og
D AY
D rag
D ecodedURL
D Secure
E Y
E KU
E VENT
F L
F ac
F lower
F light
F bv
F actor
F irm
F em
F uo
G P
G ON
G PACK
G ORY
H h
H ic
H all
H ard
H ere
H ouse
H GHG
I ON
I LD
I LL
I ES
I TestPlugin
J c
J We
K itap
K UBE
L P
L u
L IN
L inux
L AIN
L AY
L iteral
L ivro
L aurent
M X
M Y
M Z
M ask
M ens
M AP
M OUS
M AND
M ism
M cq
M IC
M etadata
M erchant
M akale
N K
N Z
N ON
N NE
N eed
N inja
N Fuo
O ME
O bjects
O bj
O ption
O bserver
O ffline
O FFLINE
P eng
P AR
P LY
P TIONS
P ontoT
P ais
P ony
Q S
R C
R W
R h
R o
R qy
R atings
S U
S k
S ort
S he
S ql
S es
S ally
S cr
S che
S Consumer
S kip
S yntax
S ingleton
S lider
S ynchron
T Y
T n
T in
T yp
U SD
U tilities
U PDATE
V B
V al
V ot
V ote
V Rqy
W if
W ARN
Y orum
Y MOUS
Z e
Z VRqy
\ /|
] *
] :
] \
] }
] ':<
] },
_ /
_ |
_ ("
_ /<
_ \/|
` ,
a j
a Config
a od
a ved
a king
a kt
a valiations
a udio
b l
b x
b ut
b ote
b ash
b lack
b roken
b lue
b iography
b gp
b rijesh
c are
c sh
c Test
c ance
c mon
c ream
c shell
c nopts
c argo
d haj
e tags
e ach
e acher
e ars
e mit
e lectronic
e lebrity
e thernet
e lectro
f m
f ir
f count
f aces
f arm
f unding
f avs
g un
g reen
g reenlet
h I
h s
h w
h ig
h app
h ir
h ire
h yper
h otos
h acks
h ina
i ar
i lf
i ate
i ven
i ability
i Manifest
j J
j j
k l
k s
k ind
k Client
k ale
k ototech
l g
l ies
l ish
l Images
l imiter
l anguages
m is
m ates
m ypage
n av
n ba
n ational
o id
o gs
p s
p ings
p cm
p aginator
p aises
p harmacy
p unctuation
q na
r ic
r pk
r abbit
r alph
s ip
s low
s Tests
s cheduler
t b
t x
t ant
t ml
t util
t witter
t angerine
u a
u er
u ed
u ploaded
v s
v ance
v FI
v irtualenv
w ish
w qs
x e
x j
x ls
x MZ
y M
y t
y z
y er
y ext
y es
z d
z h
z o
} /<
} $"<
¡ ãĥ³
¡ ä¿¡æģ¯
® µ
° å
° Ĩ
³ Ð°
³ ãĥ
» º
» Ł
¼ ÐµÐ½Ð¸
½ æķ°
Ð ¦
ä ¼
å º
å ½
å ¿
å ĳ
å Ļ
å »º
æ ¬
æ ´
æ ¸¸æĪı
æ ®µ
ç ¾
ç Ļ
ç Ľ
ç »Ł
è ª
è ´
Ġ &
Ġ ><
Ġ (_
Ġ his
Ġ ERR
Ġ alter
Ġ ))<
Ġ 403
Ġ enabled
Ġ queries
Ġ ãĤ
Ġ etree
Ġ estate
Ġ artist
Ġ artists
Ġ rolls
Ġ enderecos
Ġ education
Ġ robot
Ġ ~~~~~~~~~~~~~~<
Ģ è¦
ĥ ½
ħ å®
ĩ ãĥ¼
ĭ ãĥļ
Į ²
İ åı°
Ļ ä¸ª
Ľ å»º
Ŀ Ģ
or ador
or EventLoop
at osConfig
on d
on ion
on ac
on sh
on RateThrottle
se in
se lection
er c
er Config
er ce
er tain
er ler
er oku
me usite
in te
in spection
in complete
in cremental
in cluding
in structions
in voked
in muebles
in ternational
ar tr
ar mor
ar Cine
ar jetas
ar Ses
mp le
mp esa
al and
al ternate
al ogs
ro de
ro ved
ro vado
import ed
an en
an aly
de mp
de posit
__ }<
__ ),
__ ('_
__ _/\
en dence
en imiento
pl s
pl t
as d
as pp
Ġ= [
it o
it ic
it her
it erations
it ional
it eno
it inerary
re p
re de
re eb
re ater
re venue
re comme
re voked
re gistro
re gistrate
le s
le ta
le sh
le Settings
le fono
id om
st k
st an
st able
st ds
st andard
st reet
st atistics
"" <
ang Peng
ut he
ot ally
django demo
Ġp or
Ġp int
Ġp ure
Ġp ik
Ġp izza
Ġp wd
Ġp ersist
Ġp ysftp
ator Config
ie v
ig o
ig ger
ic ed
ic orp
Ġt b
Ġt ickle
Ġt arefa
Ġt reeb
ap ital
ap itest
", '
", ),<
Ġdjango models
Ġ" #
Ġ" ^
Ġ" ."<
Ġm s
Ġm ut
Ġm ad
Ġm un
Ġm ss
Ġm iddle
Ġm odo
Ġm atr
Ġm oney
Ġm Ã©
ass oc
cl inicals
cl imate
cl osing
ent ification
ed a
ed Item
ed ChoiceField
class ic
Ġse x
ur color
ur ch
ur aciÃ³n
he st
he eseshop
he artr
is Config
is Completed
Ġf n
Ġf t
Ġf ar
Ġf ib
Ġf et
Ġf amily
Ġf low
Ġf ool
Ġf lask
Ġf amilia
con tain
con ds
con verters
con vite
Ġre views
Ġre ally
Ġre served
Ġre CAPTCHA
Ġre gular
Ġre lies
ue ling
Ġs ig
Ġs im
Ġs lash
Ġs low
Ġs cout
Ġ' ',<
Ġ' ),
Ġ' ').
Ġ' /'
Ġ' ]':<
ex cel
(" ./
tr ac
tr affic
co ok
co urs
co met
co upen
get h
get able
get item
get Token
get password
get Product
get room
get hostname
get notes
get Member
get Products
get addrinfo
get pid
get VersionString
ter min
ter pri
Ġ__ |
ac quire
ac apture
Ġv a
Ġv e
Ġv in
Ġv envs
Ġv ista
up grade
edit a
edit page
ad j
ad l
ad bapi
ad demp
Ġin et
Ġin vo
Ġin ternet
Ġin structions
Ġin strument
ing h
ing res
ing API
Ġ_ (
Ġ_ /
Ġ_ /<
Ġ. ._
tt oolz
ab ilities
Ġ[ [
Ġ[ {'
Con ch
ĠT able
ĠT om
ĠT AP
ĠT erminal
ĠT ABLE
ĠT icTac
app ort
ĠA rea
ĠA tom
ĠA LL
ĠA valiacoes
ĠA plicacion
ĠA stroidManager
ĠA NON
Ġget h
Ġget ting
Ġget Routes
Ġget Average
Ġget VersionString
ib uat
ul k
and sh
and alone
and roid
', "
', ]
', {}
age edItem
pop ular
ĠS l
ĠS ING
ĠS te
ĠS ys
ĠS ections
ĠS ET
ĠS upported
ĠS KIP
ĠS ince
ĠS IG
ĠS ays
Ġc urr
Ġc afe
Ġc ursor
Ġc rawler
Ġc urso
Ġc ause
Ġc ursos
Ġc idade
Ġc StringIO
Ġc aterings
Ġc hemistry
Ġc elebrity
Ġc ertain
Ġc heeseshop
orm app
ce p
(' /',
ma gen
ma kale
min ima
ser ie
ult ure
all ist
all Rooms
Ġo b
Ġo c
Ġo k
il ar
il it
Ġas t
Ġsup press
el imin
un g
un liked
ment acao
># :
Ġb an
Ġb anner
Ġb okeh
ĠC ine
ĠC ms
ĠC afe
ĠC RA
ĠC red
ĠC ampus
ĠC ancel
ĠC andidate
ĠC LIENT
ĠC MSPluginBase
ĠC UST
ĠC BOR
00 25
00 36
00 34
00 29
ist eacher
Ġa y
Ġa ws
Ġa valiacoes
Ġa closing
Ġfor um
to cols
ĠM ap
ĠM ore
ĠM ixin
ĠM ET
ĠM ULT
ĠM ypy
ĠM oney
ĠM erchant
ĠM artin
ĠM ascota
ĠD one
ĠD og
ĠD OM
ĠD iv
ĠD ecodedURL
ĠD atosEmpresa
ack us
Ġsuper vis
`` ."""<
ho m
ho sein
ss ip
Ġd a
Ġd de
Ġd ic
Ġd nd
Ġd ia
Ġd uration
Ġd imens
Ġd ollar
Ġd amage
if sc
ir med
ĠN ipp
ĠN EW
po mid
Ġcon verters
com ing
Ġn c
Ġn pt
Ġn one
Ġn dit
Ġn ba
Ġn inja
Ġn Ãº
Ġon ce
set Up
Re quirements
Re ply
Re ason
Re minder
Re gression
Ġex ams
Ġex pose
Ġex cepthook
Ġw ard
Ġw ish
Ġw arehouse
Ġw hether
Ġpath s
admin detail
ĠL imit
ĠL aurent
ĠL AST
ĠL iability
str ength
http auth
oc res
Ġde ep
Ġde scrib
Ġde scriptions
Ġde scribe
Ġde scriptor
Ġde partments
Ġde letion
SE VER
res as
=' ')
ĠP an
ĠP ri
ĠP air
ĠP IL
ĠP romotion
ĠP BK
ĠP LAIN
ĠP hotos
ĠF inal
ĠF orgot
Ġl b
Ġl p
Ġl z
Ġl ang
Ġl arg
Ġl ittle
ĠB uild
ĠB abel
ĠB icycle
ĠB iography
ĠB usiness
ĠB ackwards
ĠB atchActivator
ĠB anana
ĠB atBoysGame
ĠB GP
ver b
env enido
user detail
user board
user generator
int l
sp in
sp read
sp ell
sp ider
Ġ( [
Ġ( {
Ġ( {})
ys ics
ip ath
ta Config
ta iled
ta kes
url join
Error Detail
level up
ch ain
ch ota
our s
Ġ`` @
ĠG ateway
ĠG lyph
ĠG reet
ĠG lobomantics
ĠG iven
Ġconfig w
Ġconfig uraciÃ³n
Ġvari ations
site Config
ĠRe ad
ĠRe presents
ĠRe Captcha
OR ITY
cal ories
cal orie
Ġnamed tuple
eng lish
ime vost
() #
() }
() ):<
() .<
() }<
() )),<
() })<
Ser iaL
ans aksi
qu ick
qu eda
02 1901
Ġr f
Ġr ather
Ġr ights
ĠO K
ĠO S
ĠI l
ĠI ceCream
ĠI TestPlugin
ĠI gnore
ĠI MAP
ĠI RC
Ġor ange
ĠU I
ĠU P
ĠU nder
ĠU BJSON
Ġst ars
Ġst andalone
pre view
pre pare
pre actor
pre populated
pre miosplatzi
urls plit
urls hortner
ated ata
Ġpass ing
Model Resource
ache s
es i
ont ap
ont ary
Ġ{ :
Ġ{ __
Ġ{ },
Ġh a
Ġh ab
am Request
est atus
ĠH as
ĠH ere
ĠH ospice
ĠH OME
ĠH tml
ĠH andsh
ĠH ours
mar vhiee
DE D
DE CL
Ġadmin istrador
Text o
01 0
01 11
": '
": [
mo viedata
Ġ(" '
Ġ1 50
pro cm
pro gram
pro vided
Ġy t
Ġy am
Ġco me
CH LD
Ġnot a
Ġnot ification
Ġnot iced
Ġstr ength
Base Config
Base Filter
Base TokenAuth
CHE MY
View sets
ĠE SM
ĠE ncoded
ĠE lectronicDeviceDetail
CK ET
tick eteer
path mapping
ĠBase Handler
ĠBase TokenAuth
ory Storage
im s
im um
im uthe
conf irmed
ĠDjango AppConfig
ĠDjango crud
ĠDjango Rest
ĠDjango WebFramework
ind o
LT ER
ST RE
load data
In f
In it
In comparableVersions
dis p
CE PTIONS
try aa
ow itz
40 5
Str ict
sy mlink
title man
Ġun ide
Ġun ich
test suite
Ġser ves
Ġpro gress
Ġpro metheus
ne ver
Al ignment
Al golia
ĠR AND
ĠR oot
fr astructure
api key
add y
add Question
main photo
module self
Ġe k
Ġe mplo
Ġe mul
Ġe mbed
Ġe arly
Ġe thernet
Ġe ither
Ġ+ <
ide show
act ors
Alter Index
ID L
Ġth row
Ġth umb
org an
lect or
Ġit is
lay a
ste ven
code s
code point
code gen
ous TestCase
sh a
sh irt
sh utdown
sh uffle
author ized
"] )
inter linear
inter faces
Ġan imevost
eg n
eg aso
AL CHEMY
Ġ| /
Ġ| \__
Ġ| _|
File Name
ust er
son gs
info Noticia
Ġlist ing
Ġlist AllEmployees
The User
ĠSt ations
lement ary
post ings
ici arSes
Ġregister Page
Ġtr affic
Ġtr igger
Ġno va
Ġdist util
ĠW R
ĠW arehouse
ĠW ILD
ĠW SConsumer
ĠW angPeng
Email View
ĠUser Create
ĠUser Login
ĠUser CreateSerializer
ĠUser Arr
ĠUser Permissions
ĠUser Languages
Ġg u
Ġg over
Ġg aleria
De ar
De cl
De sc
De serializer
Se en
Ġ4 00
User Config
User List
User Type
User App
User Info
User CreateView
St oreConfig
St ats
ĠV endor
ĠV ote
ĠV irt
ĠV ideos
Ġapp ear
work out
Ġpre miosplatzi
Ġpre fetch
Test Two
ĠMe ibo
direct ions
update User
py reverse
Ġ7 0
Ġtest Foo
Ġtest kk
Ġtime out
Ġrun server
AS N
home Page
Editor a
Ġ% }<
ĠPro d
ĠPro actor
ĠPro gram
ĠPro ekt
ĠPro gramming
ĠPro tected
ĠPro tocols
Pro cesses
Pro cmon
En rol
MP P
list esi
und red
json schema
List Field
List DB
col lap
col lege
sol utions
Ġ[] )<
Ġsc hemas
ĠTick er
Ġbo ws
rib le
rib utors
rib utor
Ġstatic method
io loop
key word
iter toolz
202 008
SI P
SI NE
SI GN
SI GINT
Ġsub title
Ġsub stract
[...]
