{"<s>":0,"<pad>":1,"</s>":2,"<unk>":3,"<mask>":4,"!":5,"\"":6,"#":7,"$":8,"%":9,"&":10,"'":11,"(":12,")":13,"*":14,"+":15,",":16,"-":17,".":18,"/":19,"0":20,"1":21,"2":22,"3":23,"4":24,"5":25,"6":26,"7":27,"8":28,"9":29,":":30,";":31,"<":32,"=":33,">":34,"?":35,"@":36,"A":37,"B":38,"C":39,"D":40,"E":41,"F":42,"G":43,"H":44,"I":45,"J":46,"K":47,"L":48,"M":49,"N":50,"O":51,"P":52,"Q":53,"R":54,"S":55,"T":56,"U":57,"V":58,"W":59,"X":60,"Y":61,"Z":62,"[":63,"\\":64,"]":65,"^":66,"_":67,"`":68,"a":69,"b":70,"c":71,"d":72,"e":73,"f":74,"g":75,"h":76,"i":77,"j":78,"k":79,"l":80,"m":81,"n":82,"o":83,"p":84,"q":85,"r":86,"s":87,"t":88,"u":89,"v":90,"w":91,"x":92,"y":93,"z":94,"{":95,"|":96,"}":97,"~":98,"¡":99,"¢":100,"£":101,"¤":102,"¥":103,"¦":104,"§":105,"¨":106,"©":107,"ª":108,"«":109,"¬":110,"®":111,"¯":112,"°":113,"±":114,"²":115,"³":116,"´":117,"µ":118,"¶":119,"·":120,"¸":121,"¹":122,"º":123,"»":124,"¼":125,"½":126,"¾":127,"¿":128,"À":129,"Á":130,"Â":131,"Ã":132,"Ä":133,"Å":134,"Æ":135,"Ç":136,"È":137,"É":138,"Ê":139,"Ë":140,"Ì":141,"Í":142,"Î":143,"Ï":144,"Ð":145,"Ñ":146,"Ò":147,"Ó":148,"Ô":149,"Õ":150,"Ö":151,"×":152,"Ø":153,"Ù":154,"Ú":155,"Û":156,"Ü":157,"Ý":158,"Þ":159,"ß":160,"à":161,"á":162,"â":163,"ã":164,"ä":165,"å":166,"æ":167,"ç":168,"è":169,"é":170,"ê":171,"ë":172,"ì":173,"í":174,"î":175,"ï":176,"ð":177,"ñ":178,"ò":179,"ó":180,"ô":181,"õ":182,"ö":183,"÷":184,"ø":185,"ù":186,"ú":187,"û":188,"ü":189,"ý":190,"þ":191,"ÿ":192,"Ā":193,"ā":194,"Ă":195,"ă":196,"Ą":197,"ą":198,"Ć":199,"ć":200,"Ĉ":201,"ĉ":202,"Ċ":203,"ċ":204,"Č":205,"č":206,"Ď":207,"ď":208,"Đ":209,"đ":210,"Ē":211,"ē":212,"Ĕ":213,"ĕ":214,"Ė":215,"ė":216,"Ę":217,"ę":218,"Ě":219,"ě":220,"Ĝ":221,"ĝ":222,"Ğ":223,"ğ":224,"Ġ":225,"ġ":226,"Ģ":227,"ģ":228,"Ĥ":229,"ĥ":230,"Ħ":231,"ħ":232,"Ĩ":233,"ĩ":234,"Ī":235,"ī":236,"Ĭ":237,"ĭ":238,"Į":239,"į":240,"İ":241,"ı":242,"Ĳ":243,"ĳ":244,"Ĵ":245,"ĵ":246,"Ķ":247,"ķ":248,"ĸ":249,"Ĺ":250,"ĺ":251,"Ļ":252,"ļ":253,"Ľ":254,"ľ":255,"Ŀ":256,"ŀ":257,"Ł":258,"ł":259,"Ń":260,"ĠĠ":261,"ĠĠĠĠ":262,"ĠĠĠ":263,"or":264,"at":265,"on":266,"><":267,"se":268,"er":269,"me":270,"in":271,"ĠĠĠĠĠĠĠ":272,"ar":273,"mp":274,"ort":275,"imp":276,"al":277,"ro":278,"import":279,"ame":280,"an":281,"de":282,"name":283,"__":284,",<":285,"en":286,"ion":287,"pl":288,"rom":289,"from":290,"Ġimport":291,"as":292,"Ġ=":293,"it":294,":<":295,"re":296,"le":297,"id":298,"st":299,"\"\"":300,"ang":301,")<":302,"jang":303,"jango":304,"ut":305,"ot":306,"ĠĠĠĠĠĠĠĠĠĠĠ":307,"ls":308,"django":309,"Ġp":310,"ly":311,"):<":312,"čĊ":313,"ator":314,"gs":315,"alid":316,"ation":317,"ie":318,"alidator":319,"plot":320,"ig":321,"plotly":322,"ic":323,"Ġt":324,"ap":325,"\",":326,"Ġdjango":327,"Ġ\"":328,"Ġm":329,"ge":330,"args":331,"ass":332,"cl":333,"ent":334,"def":335,"ase":336,"ed":337,"kw":338,"kwargs":339,"\"<":340,"class":341,"Ġse":342,"ur":343,"lf":344,"he":345,"ld":346,"ode":347,"Validator":348,"is":349,"ct":350,"ield":351,"Ġf":352,"arent":353,"op":354,"),<":355,"yp":356,"ils":357,"base":358,"con":359,"Ġ*":360,"Ġre":361,"ue":362,"utils":363,"Ġs":364,"gi":365,"=\"":366,"Ġ'":367,"\"\"\"<":368,"ex":369,".<":370,"(\"":371,"tr":372,"co":373,"Ġdef":374,"ype":375,"(<":376,"init":377,"get":378,"ter":379,"Ġ__":380,"Ġ**":381,"ac":382,"Ġv":383,"up":384,"type":385,"fig":386,"edit":387,"ad":388,"Ġin":389,"odels":390,"Ġself":391,"ication":392,"Field":393,"Ġparent":394,"alidators":395,"validators":396,"Ġplotly":397,"basevalidators":398,"ing":399,"appl":400,"Ġ_":401,"application":402,"Ġname":403,"Ġ.":404,"tt":405,"ab":406,"ws":407,"Ġ[":408,"Con":409,"ĠT":410,"Ġthe":411,"ect":412,"app":413,"nt":414,"ĠA":415,"ore":416,"ers":417,"igr":418,"Ġget":419,"ib":420,"ate":421,"igration":422,"ul":423,"and":424,"urn":425,"turn":426,"',":427,"Config":428,"age":429,"]<":430,"pop":431,"__(<":432,"ĠS":433,"Ġc":434,"ile":435,"orm":436,"ce":437,"('":438,"od":439,"ma":440,"Ġreturn":441,"min":442,"ser":443,"self":444,"ject":445,"ult":446,"all":447,"Ġo":448,"NG":449,"\"),<":450,"able":451,"il":452,"Ġas":453,"Ġsup":454,"db":455,"el":456,"models":457,"()<":458,"GI":459,"un":460,"ment":461,"ext":462,"lor":463,"Ġ)<":464,">#":465,").":466,"Ġb":467,"th":468,"ault":469,"ĠC":470,"trib":471,"ite":472,"00":473,"ist":474,"\",<":475,"Ġa":476,"Ġfor":477,"lo":478,"SGI":479,"ath":480,"to":481,"iz":482,"roject":483,"end":484,"pp":485,"ĠM":486,"contrib":487,"ĠD":488,"ule":489,"ack":490,"Ġsuper":491,"odule":492,"form":493,"Ġ#":494,"``":495,"ho":496,"ppConfig":497,"'<":498,"ss":499,").__":500,"parent":501,"wsgi":502,"ay":503,"Ġd":504,"(_":505,"que":506,"if":507,"Ġedit":508,"pt":509,"ir":510,"Ġ[<":511,"ings":512,"igrations":513,"ĠN":514,"his":515,"po":516,"aut":517,"Ġcon":518,"core":519,">\"\"\"<":520,"asgi":521,"ttings":522,"ata":523,"com":524,"Ġn":525,"Ġfrom":526,"Ġon":527,"ttp":528,"ror":529,"set":530,"color":531,"Ġis":532,"ersion":533,"ial":534,"ING":535,"Ġmodule":536,"odel":537,"iew":538,"Re":539,"one":540,"Ġex":541,"Ġw":542,"Ġpath":543,">__":544,"admin":545,"te":546,"ĠL":547,"quest":548,"Ġmodels":549,"str":550,"http":551,"Ġfile":552,"oc":553,"pat":554,"um":555,"rc":556,"Ġde":557,"SE":558,"__(":559,"LE":560,"res":561,"tern":562,"')<":563,"plo":564,"ve":565,"='":566,"iews":567,"ses":568,"gist":569,"//":570,"field":571,"://":572,"gister":573,"ages":574,"ick":575,"~~":576,"ĠP":577,"atabase":578,"ĠF":579,"bo":580,"https":581,"cept":582,"Ġto":583,"Ġl":584,"ĠB":585,"text":586,"rue":587,"Ġ]<":588,"version":589,"os":590,"Ġ2":591,"ver":592,"env":593,"user":594,"\"\"\"":595,"\")<":596,"int":597,"Ġmigrations":598,"ions":599,"WSGI":600,"sp":601,"Ġ(":602,"ializ":603,"mail":604,"._":605,"ys":606,"settings":607,"Ġ\"\"\"<":608,"project":609,"Ġos":610,"Er":611,"default":612,"',<":613,"ip":614,"her":615,"Ġthis":616,"Ġ):<":617,"ine":618,"ta":619,"iron":620,"Ġdefault":621,"Ġvar":622,"eration":623,"url":624,"Ġsee":625,"/<":626,"environ":627,"alue":628,"how":629,"log":630,"request":631,"rcValidator":632,"allable":633,"vel":634,"ht":635,"apps":636,"Ġu":637,"andl":638,"Error":639,"ub":640,"level":641,"ocs":642,"AppConfig":643,"lat":644,"ch":645,"our":646,"Ġ``":647,"par":648,"ĠG":649,"atic":650,"ĠAppConfig":651,"la":652,"atu":653,"late":654,"ANG":655,"Ġconfig":656,"TT":657,"JANG":658,"JANGO":659,"ĠNO":660,"icen":661,"ck":662,"ies":663,"Ġvari":664,"Ġviews":665,"site":666,"ĠRe":667,"Ġvariable":668,"Ġcallable":669,"ploy":670,"mplate":671,"OD":672,"poses":673,"setdefault":674,"DJANGO":675,"ix":676,"om":677,"docs":678,"OR":679,"Ġop":680,"For":681,"QA":682,"ĠNOQA":683,"Ġproject":684,"Ġmore":685,"deploy":686,"deployment":687,"cal":688,"ign":689,"ize":690,"MOD":691,"Ad":692,"``.<":693,"auth":694,"formation":695,"Ġinformation":696,"Ġexposes":697,"bar":698,"eatu":699,"sed":700,"ULE":701,"INGS":702,"TTINGS":703,"SETTINGS":704,"MODULE":705,"heck":706,"Ġsys":707,"are":708,"It":709,"eatures":710,"auto":711,"djangoproject":712,"ol":713,"Ġnamed":714,"howto":715,"pattern":716,"eng":717,"ime":718,"register":719,"()":720,"Ser":721,"ans":722,"har":723,"der":724,"mand":725,"qu":726,"'),<":727,"ive":728,"Ġof":729,"ire":730,"erations":731,"02":732,"ok":733,"Ġr":734,"ĠO":735,"rapp":736,"ĠI":737,"Ġor":738,"file":739,"ĠU":740,"Ġ-":741,"patterns":742,"bose":743,"ackend":744,"Aut":745,"nc":746,"Ġst":747,"mess":748,"Ġ\"\"\"":749,"pre":750,"Ġver":751,"Ġverbose":752,"ec":753,"ray":754,"andler":755,"Ġ[\"":756,"colorbar":757,"urls":758,"ql":759,"sc":760,"et":761,"pen":762,"Ġ),<":763,"ializer":764,"ated":765,"Ġpass":766,"ER":767,"urlpatterns":768,"olor":769,"Model":770,"out":771,"icense":772,"ache":773,"zy":774,"ength":775,"ou":776,"here":777,"oField":778,"length":779,"es":780,"True":781,"max":782,"Ġif":783,"Ġand":784,"Ġmodel":785,"port":786,"ight":787,"ont":788,"view":789,"AutoField":790,"irect":791,"harField":792,"ĠWSGI":793,"Ġ{":794,"migrations":795,"Serializer":796,"Ġh":797,"SS":798,"ber":799,"am":800,"pende":801,"dle":802,"est":803,"__,":804,"calc":805,"ĠH":806,"ax":807,"Ġfield":808,"mar":809,"ception":810,"ON":811,"right":812,"umber":813,"DE":814,"rapper":815,"Ġadmin":816,"opy":817,"Text":818,"ery":819,"Admin":820,"olorValidator":821,"yth":822,"01":823,"\":":824,"Ġ\"__":825,"Ġ._":826,"mo":827,"Ġ(\"":828,"error":829,"Ġ1":830,"messages":831,"pendenc":832,"pro":833,"Ġy":834,"Ġco":835,"ĠMigration":836,"opyright":837,"Migration":838,"CH":839,"email":840,"pendencies":841,"yping":842,"Ġoperations":843,"Ġby":844,"ource":845,"Ġdependencies":846,"~~~~":847,"CharField":848,"Ġnot":849,"Ġstr":850,"Ġrelat":851,"Base":852,"CHE":853,"Ġtyping":854,"ĠDatabase":855,"Features":856,"ener":857,"ĠASGI":858,"ython":859,"alse":860,"Ġsettings":861,"Ġ0":862,"##":863,"Ġvalue":864,"none":865,"backend":866,"__,<":867,"Ġint":868,"lazy":869,"ME":870,"iddle":871,"art":872,"ware":873,"View":874,"Ġ<":875,"ional":876,"PE":877,"Ġ('":878,"ĠE":879,"itle":880,"map":881,"AG":882,"iddleware":883,"CK":884,"ignal":885,"tick":886,"ĠTrue":887,"path":888,"trans":889,"files":890,"attr":891,"ĠBase":892,"CHECK":893,"ĠNone":894,"backends":895,"Big":896,"ory":897,"Database":898,"BigAutoField":899,"ke":900,"ient":901,"im":902,"forms":903,"array":904,"Ġcheck":905,"srcValidator":906,"Ġpip":907,"ERR":908,"ERROR":909,"YPE":910,"command":911,"las":912,"font":913,"ker":914,"query":915,"conf":916,"ole":917,"JS":918,"line":919,"JSON":920,"ved":921,"ĠThis":922,"\"]<":923,"ag":924,"TE":925,"ĠTYPE":926,"CHECKING":927,".\"\"\"<":928,"date":929,"template":930,"Number":931,"tent":932,"Ġrelative":933,"ĠDjango":934,"ind":935,">]<":936,"per":937,"Ġ->":938,"Ġset":939,"LT":940,"lab":941,"ST":942,"__\",<":943,"lation":944,"reate":945,"load":946,"In":947,"parse":948,"emplate":949,"translation":950,"Ġgettext":951,"else":952,"unct":953,"dis":954,"ĠSe":955,"Op":956,"CE":957,"Ġ_<":958,"ant":959,"ace":960,"ASGI":961,"Ġ_(\"":962,"gis":963,"QL":964,"try":965,"BU":966,"ure":967,"ĠSignal":968,"NumberValidator":969,"ow":970,"ude":971,"sql":972,"aticfiles":973,"put":974,"Ġ`":975,"/',":976,"ml":977,"40":978,"AU":979,"iss":980,"dir":981,"Str":982,"fo":983,"fix":984,"Ġhas":985,"ken":986,"Ġ(<":987,"xception":988,"sy":989,"ilter":990,"title":991,"String":992,"Ġun":993,"ection":994,"test":995,"Ġsupport":996,"ColorValidator":997,"ols":998,"Ġser":999,"atter":1000,"wor":1001,"Ġbe":1002,"views":1003,"value":1004,"scatter":1005,"FAU":1006,"Ġpro":1007,"FAULT":1008,"Ġ3":1009,"ne":1010,"Al":1011,"ĠR":1012,"ith":1013,">)<":1014,"Handler":1015,"lib":1016,"fr":1017,"ri":1018,"api":1019,"dex":1020,"add":1021,"marker":1022,"label":1023,"main":1024,"Form":1025,"CI":1026,"bject":1027,"}<":1028,"fields":1029,"pload":1030,"SQL":1031,"ied":1032,"Ġmin":1033,"lan":1034,"module":1035,"Ġe":1036,"rint":1037,"du":1038,"Ġ202":1039,"arn":1040,"Ġ+":1041,"LS":1042,"except":1043,"dist":1044,"SD":1045,"ide":1046,"act":1047,"ternal":1048,"Alter":1049,"ID":1050,"ily":1051,"Ġth":1052,"format":1053,"org":1054,"Ġsetup":1055,"lect":1056,"Ġit":1057,"moved":1058,"ty":1059,"lay":1060,"PI":1061,"ste":1062,"code":1063,"000":1064,"Ġyour":1065,"ous":1066,"Ġpack":1067,"pack":1068,"ĠFalse":1069,"AlterField":1070,"Ġma":1071,"Cl":1072,"sh":1073,"author":1074,"handler":1075,"arg":1076,"\"]":1077,"ny":1078,"())<":1079,"ĠGener":1080,"inter":1081,"time":1082,"Ġan":1083,"Wrapper":1084,"eg":1085,"ializers":1086,"append":1087,"ome":1088,"AL":1089,"Ġ|":1090,"BUG":1091,"sr":1092,"token":1093,"ySQL":1094,"ommand":1095,"Ġhere":1096,"SrcValidator":1097,"File":1098,"ust":1099,"ms":1100,"Ġclass":1101,"ute":1102,"Ġused":1103,"inders":1104,"html":1105,"son":1106,"-.":1107,"info":1108,"ull":1109,">@":1110,"clude":1111,"tools":1112,"getattr":1113,"unc":1114,"hema":1115,"opt":1116,"Ġview":1117,"Ġform":1118,"Ġsupports":1119,"Po":1120,"acle":1121,"face":1122,"tails":1123,"None":1124,"check":1125,"ender":1126,"Ġlist":1127,"errors":1128,"spection":1129,"The":1130,"size":1131,"ĠSt":1132,"lement":1133,"idth":1134,"post":1135,"source":1136,"rospection":1137,"ript":1138,"ici":1139,"apter":1140,"nd":1141,"Ġregister":1142,"AGE":1143,"arning":1144,"TI":1145,"Ġtr":1146,"qd":1147,"Ġno":1148,"stant":1149,"colorbars":1150,"Ġ[]<":1151,"ĠMySQL":1152,"login":1153,"layout":1154,"tro":1155,"lank":1156,"usp":1157,"fqd":1158,"icious":1159,"uspicious":1160,"fqdn":1161,"Ġ==":1162,"ug":1163,"Ġdist":1164,"Ġimp":1165,"ĠW":1166,"ange":1167,"cation":1168,"izeValidator":1169,"ĠOr":1170,"og":1171,"ise":1172,"queue":1173,"Ġ.-.":1174,"Ġ`-":1175,"item":1176,"trol":1177,"content":1178,"olean":1179,"Ġupload":1180,"Command":1181,"():<":1182,"Email":1183,"ĠUser":1184,"':":1185,"oolean":1186,"ssion":1187,"amily":1188,"last":1189,"DEFAULT":1190,"Ġg":1191,"Ġthat":1192,"alter":1193,"Ġrender":1194,"De":1195,"JSONField":1196,"'s":1197,"ifi":1198,"Que":1199,"Ġ\"._":1200,"page":1201,"Ġprint":1202,"Se":1203,"roup":1204,"Ġfunct":1205,"Ġ4":1206,"ModelAdmin":1207,"ND":1208,"User":1209,"ints":1210,"FO":1211,"Int":1212,"duct":1213,"ĠGenerated":1214,"ags":1215,"idget":1216,"cess":1217,"ĠLicense":1218,"Ġmax":1219,"))<":1220,"rray":1221,"srf":1222,"lete":1223,"St":1224,"af":1225,".\"<":1226,"ĠV":1227,"Ġhttps":1228,"hel":1229,"lic":1230,"Ġapp":1231,"Client":1232,"Ġvalues":1233,"axis":1234,"work":1235,"staticfiles":1236,"DEBUG":1237,"Ġare":1238,"cop":1239,"Ġpre":1240,"hover":1241,"Ġversion":1242,"Ġ2022":1243,"Test":1244,"Ġ{<":1245,"EO":1246,"Operation":1247,"finders":1248,"uspiciousOperation":1249,"vid":1250,"sycop":1251,"sycopg":1252,"ĠGEO":1253,"ptional":1254,"Ġdetails":1255,"pyp":1256,"setup":1257,"Ġtemplate":1258,"ĠMe":1259,"orator":1260,"amework":1261,"RL":1262,"dit":1263,"string":1264,"StringValidator":1265,"ĠBSD":1266,"ĠDatabaseFeatures":1267,"src":1268,"ert":1269,"uture":1270,"index":1271,"ĠOracle":1272,"llect":1273,"ple":1274,"AR":1275,"ĠLI":1276,"direct":1277,"Ġlog":1278,"update":1279,"Ġdistutils":1280,"Queue":1281,"py":1282,"fla":1283,"ia":1284,"Ġ7":1285,"valid":1286,"Ġtest":1287,"ns":1288,"endor":1289,"miss":1290,"Ġtime":1291,"ution":1292,"sConfig":1293,"vendor":1294,"Ġrun":1295,"AS":1296,"ĠAny":1297,"irst":1298,">#<":1299,"wrapper":1300,"home":1301,"ditor":1302,"urr":1303,"NA":1304,"chema":1305,"Ġargs":1306,"Ġdate":1307,"Editor":1308,"Ġunder":1309,".__":1310,"Site":1311,"ublic":1312,"importers":1313,"Ġ%":1314,"Ġcollect":1315,"ument":1316,"flags":1317,"Ġinter":1318,"spec":1319,"ĠPro":1320,"ard":1321,"patch":1322,"ĠCopyright":1323,"ity":1324,"Pro":1325,"chemaEditor":1326,"plit":1327,"ulti":1328,"Ġrequest":1329,"ues":1330,"hed":1331,"framework":1332,"En":1333,"MP":1334,"anage":1335,"ĠOptional":1336,"list":1337,"und":1338,"DatabaseFeatures":1339,"PD":1340,"Ġ[\"._":1341,"json":1342,"orage":1343,"Ġinclude":1344,"~~~~~~~~":1345,"prefix":1346,"Ġexcept":1347,"List":1348,"404":1349,"ary":1350,"csrf":1351,"flat":1352,"lied":1353,"edits":1354,"Case":1355,"CCE":1356,"middleware":1357,"Ġrest":1358,"50":1359,"urrent":1360,"col":1361,"CCESS":1362,"sol":1363,"Ġdo":1364,"ance":1365,"Middleware":1366,"Tick":1367,"UCCESS":1368,"stants":1369,"Boolean":1370,"edirect":1371,"Ġpublic":1372,"features":1373,"VE":1374,"ader":1375,"Ġ[]":1376,"Ġpy":1377,"Ġla":1378,"colorValidator":1379,"Time":1380,"ĠDE":1381,"ost":1382,"Ġsc":1383,"LEVE":1384,"SSAGE":1385,"MESSAGE":1386,"Ġsql":1387,"ĠTick":1388,"andlers":1389,"LEVELS":1390,"This":1391,"handlers":1392,"ĠSPD":1393,"ĠSPDX":1394,"Ġ\"<":1395,"CIText":1396,"yle":1397,"Ġmain":1398,"NING":1399,"order":1400,"('',":1401,"precation":1402,"style":1403,"Ġsqlparse":1404,"ĠĠĠĠĠĠĠĠĠĠĠĠĠĠĠ":1405,"values":1406,"vis":1407,"Ġbo":1408,"rib":1409,"zip":1410,"Ġuse":1411,"ĠRemoved":1412,"stem":1413,"NSE":1414,"ich":1415,"Ġstatic":1416,"internal":1417,"bjects":1418,"ors":1419,"sValidator":1420,"ict":1421,"CENSE":1422,"TestCase":1423,"afe":1424,"001":1425,"io":1426,"ĠLICENSE":1427,"pache":1428,"ĠReturn":1429,"Ġdirect":1430,"key":1431,"copyright":1432,"license":1433,"tail":1434,"iter":1435,"umer":1436,"ickle":1437,"short":1438,"tocol":1439,"uth":1440,"Ġpython":1441,"Ġwith":1442,"ATE":1443,"202":1444,"False":1445,"asy":1446,"permiss":1447,"SI":1448,"cut":1449,"mpty":1450,"ustom":1451,"ateTime":1452,"Ġnull":1453,"Ġsub":1454,"ĠColorValidator":1455,"ĠSee":1456,"play":1457,"ateTimeField":1458,"OM":1459,"Ġcl":1460,"ribution":1461,"Warning":1462,"stall":1463,"packages":1464,"ĠText":1465,"odo":1466,"pol":1467,"ill":1468,"Ġblank":1469,"group":1470,"ĠMeta":1471,"Ġcommand":1472,"util":1473,"Ġcollections":1474,"Ġdefaults":1475,"vider":1476,"onse":1477,"Ġload":1478,"DI":1479,"Ġinterface":1480,"Ġ..":1481,"Ġ200":1482,"sub":1483,"message":1484,"initial":1485,"Ġconn":1486,"dispatch":1487,"ĠCreate":1488,"Ġra":1489,"apsed":1490,"Ġopt":1491,"elapsed":1492,"shortcut":1493,"ĠĠĠĠĠĠĠĠ":1494,"input":1495,"sg":1496,"Ġmsg":1497,"corator":1498,"serializers":1499,"func":1500,"Name":1501,"Ġimplement":1502,"qa":1503,"Ġnoqa":1504,"sole":1505,"ateg":1506,"shortcuts":1507,"IN":1508,"my":1509,"Adapter":1510,"),":1511,"anges":1512,"Ġiss":1513,"lease":1514,"ock":1515,"inder":1516,"ven":1517,"Ġcontext":1518,"ometry":1519,"ĠK":1520,"UID":1521,"Ġread":1522,"wine":1523,"Ġarg":1524,"ĠSite":1525,"username":1526,"CommandError":1527,"ĠRemovedCommandError":1528,"Ġbool":1529,"Server":1530,"Ġstaticfiles":1531,"Ġscript":1532,"sup":1533,"Control":1534,"UN":1535,"0001":1536,"Ġadd":1537,"ĠThe":1538,"display":1539,"vision":1540,"ARNING":1541,"Ġraise":1542,"MPL":1543,"Ġme":1544,"ĠCache":1545,"uple":1546,"(),":1547,"BooleanValidator":1548,"ĠStatic":1549,"Ġne":1550,"Ġonly":1551,"(*":1552,"oader":1553,"ĠError":1554,"MPLATE":1555,"Set":1556,"iveServer":1557,"egg":1558,"iveServerTestCase":1559,"resource":1560,"Ġlazy":1561,"Ġpackage":1562,"27":1563,"SuspiciousOperation":1564,"JSONSerializer":1565,"LD":1566,"funct":1567,"Ġch":1568,"anagement":1569,"Ġwhere":1570,"ptr":1571,"interBase":1572,"PointerBase":1573,"Ġbdist":1574,"ĠCI":1575,"Ġgi":1576,"Ġdatetime":1577,"Ġgiven":1578,"ached":1579,"Ġ{\"":1580,"Ġinternal":1581,"Cache":1582,"LO":1583,"Ġwh":1584,"'t":1585,"Ġpar":1586,"ĠCon":1587,"Ġrelease":1588,"absol":1589,"absolute":1590,"filter":1591,"Ðµ":1592,"Ð¾":1593,"bug":1594,"Ġat":1595,"Ġfields":1596,"25":1597,"ff":1598,"Ġ*<":1599,"cale":1600,"optim":1601,"future":1602,"oday":1603,"ĠList":1604,"idthValidator":1605,"Ġemail":1606,".%":1607,"Copyright":1608,"Ġserializers":1609,"sets":1610,"####":1611,"mport":1612,"ey":1613,"ĠURL":1614,"ĠRegister":1615,"ogr":1616,"rout":1617,"Ġhasher":1618,"use":1619,"}),<":1620,"Ð°":1621,"points":1622,"ging":1623,"Ġ}<":1624,"Ġwas":1625,"move":1626,"NO":1627,"data":1628,"package":1629,"mportError":1630,"ye":1631,"Ġorig":1632,"not":1633,"07":1634,"arch":1635,"ments":1636,"parser":1637,"sert":1638,"ocket":1639,"Exception":1640,">]":1641,"Ð¸":1642,"Ġquery":1643,"pypi":1644,"Ġimportlib":1645,"ĠAPI":1646,"ence":1647,"Ġdoes":1648,"ĠApache":1649,"GISS":1650,"Ġyou":1651,"ĠDatabaseWrapper":1652,"DatabaseWrapper":1653,"Operations":1654,"Introspection":1655,"Ġdirectory":1656,"GISSchemaEditor":1657,"support":1658,"contents":1659,"VER":1660,"Ġelapsed":1661,"ook":1662,"Ġarray":1663,"ask":1664,"ĠHttp":1665,"ilt":1666,"EmailField":1667,"ice":1668,"unt":1669,"Ġchar":1670,"uilt":1671,"Ġlicense":1672,"28":1673,"Ġsetuptools":1674,"TH":1675,"pages":1676,"mary":1677,"ĠImportError":1678,"Ġtry":1679,"amp":1680,"ave":1681,"als":1682,"Backend":1683,"Ġlen":1684,"Ġhel":1685,"ual":1686,"ake":1687,"Ġid":1688,"requests":1689,"sponse":1690,"store":1691,"*-":1692,"entr":1693,"ickleSerializer":1694,"Array":1695,"Or":1696,"ÑĤ":1697,"ĠPython":1698,"SizeValidator":1699,"Ġelse":1700,"itz":1701,"ĠSizeValidator":1702,"ViewSet":1703,"neth":1704,"Ġ`-'":1705,"Ġ-*-":1706,"ertifi":1707,"over":1708,"Ġpart":1709,"icode":1710,"exceptions":1711,"Sub":1712,"RE":1713,"Ġprotocol":1714,"vo":1715,"NT":1716,"Widget":1717,"Ġ['":1718,"']":1719,"hoverlabel":1720,"asses":1721,"Ġabsolute":1722,"where":1723,"Ġpackages":1724,"resources":1725,"icensed":1726,"ĠType":1727,"ĠIn":1728,"geo":1729,"ible":1730,"ding":1731,"fer":1732,"delete":1733,"leg":1734,"patial":1735,"Ġcomp":1736,"Ġ201":1737,"templates":1738,"blog":1739,"Ġauth":1740,"ĠFile":1741,"storage":1742,"Ġfunction":1743,"ĠEmail":1744,"')":1745,"Ġsend":1746,"0002":1747,"now":1748,"Ġchecks":1749,"Ġout":1750,"Ġimplementation":1751,"ĠGe":1752,"aps":1753,"uld":1754,"sum":1755,"Ġready":1756,"Type":1757,"\")":1758,"ĠPy":1759,"hould":1760,"box":1761,"Ġempty":1762,"Ġurlpatterns":1763,"atedValidator":1764,"Enumer":1765,"permission":1766,"EnumeratedValidator":1767,"database":1768,"Ġexec":1769,"150":1770,"no":1771,"BB":1772,"Ġerrors":1773,"ALE":1774,"chor":1775,"Ġ@":1776,"Ġuser":1777,"SUCCESS":1778,"eb":1779,"Ġ[],":1780,"Ġcontent":1781,"preter":1782,"Ġiter":1783,"Tags":1784,"oken":1785,"sqlite":1786,"ntifi":1787,"detail":1788,"Data":1789,"msg":1790,"engine":1791,"ssions":1792,"Ġbut":1793,"dirs":1794,"async":1795,"cache":1796,"ĠMulti":1797,"Ġvary":1798,"interpreter":1799,"flatpages":1800,"Invalid":1801,"ĠIN":1802,"ĠCacheControl":1803,"']<":1804,"Ġtype":1805,"void":1806,"do":1807,"Ġfinder":1808,"Ġstring":1809,"stead":1810,"Cla":1811,"tour":1812,"12":1813,"Clause":1814,"Ġsession":1815,"exception":1816,"adapter":1817,"igs":1818,"agment":1819,"LiveServerTestCase":1820,"gzip":1821,"script":1822,"constants":1823,"TEMPLATE":1824,"uman":1825,"configs":1826,"first":1827,"open":1828,"ĠRedirect":1829,"comp":1830,"ndication":1831,"ĠStaticFile":1832,"Ġissues":1833,"TAG":1834,"family":1835,"count":1836,"new":1837,"fragment":1838,"Ġdecorator":1839,"quence":1840,"umanize":1841,"TAGS":1842,"BSD":1843,"gres":1844,"contour":1845,"SException":1846,"ĠGD":1847,"ĠGEOS":1848,"ĠGEOSException":1849,"Ġpk":1850,").<":1851,"Ġoutput":1852,"read":1853,"Ġcan":1854,"ump":1855,"xt":1856,"utable":1857,"postgres":1858,"().":1859,"icle":1860,"setuptools":1861,"bin":1862,"ĠY":1863,"Ġremoved":1864,"ĠDEFAULT":1865,"ategory":1866,"atement":1867,"plitter":1868,"ree":1869,"Key":1870,"su":1871,"ink":1872,"ĠÐ":1873,"pos":1874,"tes":1875,"gments":1876,"ild":1877,"Ġbase":1878,")\"<":1879,"Ġ\\":1880,"Ġclasses":1881,"TextField":1882,"redirect":1883,"uri":1884,"\"]),<":1885,"lash":1886,"])":1887,"DatabaseClient":1888,"ĠNot":1889,"Par":1890,"Ġall":1891,"static":1892,"hist":1893,"ĠArray":1894,"slash":1895,"legend":1896,"pk":1897,"parate":1898,"Django":1899,"Ġtoday":1900,"len":1901,"rapped":1902,"Ġpkg":1903,"KE":1904,"inal":1905,"anag":1906,"ArrayValidator":1907,"Ġitem":1908,"32":1909,"car":1910,"apping":1911,"andle":1912,"reated":1913,"ORS":1914,"posit":1915,"back":1916,"root":1917,"ogram":1918,"ĠPost":1919,"md":1920,"403":1921,"product":1922,"DataArrayValidator":1923,"Ġforms":1924,"summary":1925,"/\",":1926,"about":1927,"Ġformat":1928,"NAME":1929,"__<":1930,"UTH":1931,"ĠAUTH":1932,"histogram":1933,"ixin":1934,"KEY":1935,"ĠTr":1936,"anager":1937,"safe":1938,"uild":1939,"Ġconsole":1940,"Any":1941,"proper":1942,"uiltin":1943,"ĠAUTHORS":1944,"objects":1945,"Response":1946,"(__":1947,"range":1948,"401":1949,"Ġsearch":1950,"eger":1951,"ĠTo":1952,"options":1953,"oints":1954,"scription":1955,"Ġmessage":1956,"mode":1957,"sign":1958,"pet":1959,"property":1960,"API":1961,"Ide":1962,"49":1963,"rup":1964,"ĠX":1965,"implied":1966,"stop":1967,"ecode":1968,"Ġimplied":1969,"ction":1970,"Ġgener":1971,"Integer":1972,"rupt":1973,"ithub":1974,"github":1975,"tribute":1976,"vent":1977,"widget":1978,"Ġ>":1979,"OMLD":1980,"ecodeError":1981,"OMLDecodeError":1982,"ntifier":1983,"only":1984,"sl":1985,"Ġ'__":1986,"STA":1987,"Ġdi":1988,"config":1989,"formatstop":1990,"types":1991,"Ġdon":1992,"blank":1993,"DateTimeField":1994,"dict":1995,"router":1996,"Ġac":1997,"Identifier":1998,"aix":1999,"Ġdebug":2000,"bj":2001,"acity":2002,"amilyValidator":2003,"Imp":2004,"checks":2005,"Implement":2006,"IT":2007,"ĠFor":2008,"vide":2009,"License":2010,"Ex":2011,"ger":2012,"Ġnumber":2013,"print":2014,"FileCopyright":2015,"FileCopyrightText":2016,"Ġlo":2017,"Python":2018,"carpet":2019,"Create":2020,"Qu":2021,"precationWarning":2022,"ĠLar":2023,"tain":2024,"control":2025,"Ġone":2026,"Ġwhen":2027,"Ġrelated":2028,"stance":2029,"ular":2030,"Eric":2031,"ĠLarson":2032,"extend":2033,"Ġdivision":2034,"PickleSerializer":2035,"Ġal":2036,"['":2037,"\"],<":2038,"Ð¾Ð":2039,"DeprecationWarning":2040,"ĠHttpResponse":2041,"Mixin":2042,"To":2043,"client":2044,"Ġstack":2045,"domain":2046,")(":2047,"22":2048,"encode":2049,"Ġsix":2050,"us":2051,"system":2052,"ystem":2053,"atch":2054,"pip":2055,"ĠAd":2056,"alidation":2057,"Ġfilter":2058,"TIC":2059,"Ġoptions":2060,"rea":2061,"ress":2062,"isible":2063,"ĠCA":2064,"create":2065,"ĠDist":2066,"polar":2067,"Ġmay":2068,"issues":2069,"VI":2070,"Ġmanagement":2071,"val":2072,"ÑĢ":2073,"749":2074,"ler":2075,"icate":2076,"thod":2077,"ĠVersion":2078,"Ġinstall":2079,"Ġnamepre":2080,"udent":2081,"Ġnameprep":2082,"undle":2083,"08":2084,">}<":2085,"ables":2086,"by":2087,"ound":2088,"Ġaddit":2089,"Add":2090,"SION":2091,"#<":2092,"ĠQueue":2093,"sitemap":2094,"Request":2095,"AnyValidator":2096,"Ġmo":2097,"orig":2098,"04":2099,"tting":2100,"PY":2101,"enneth":2102,"ĠDe":2103,"ĠReitz":2104,"Ġ|-":2105,"2728":2106,"Ġadditional":2107,"Ġbundle":2108,"ded":2109,"Spatial":2110,"Ġ:":2111,"edError":2112,"Ġscripts":2113,"SpatialFeatures":2114,"Ġdis":2115,"other":2116,"bool":2117,"Ġmust":2118,"..":2119,"ged":2120,"ypoints":2121,"exec":2122,"pypa":2123,"Ġnew":2124,"entrypoints":2125,"7498":2126,"UND":2127,"(\"-":2128,"users":2129,"word":2130,"Session":2131,"Query":2132,"andom":2133,"Ġold":2134,"FOUND":2135,"mys":2136,"Ġassert":2137,"ĠTags":2138,"Ġargparse":2139,"widgets":2140,"SER":2141,"year":2142,"nion":2143,"utf":2144,"old":2145,"side":2146,"book":2147,"Ġbeen":2148,"Stack":2149,"king":2150,"ĠNotImplement":2151,"ĠNotImplementedError":2152,"hello":2153,"used":2154,"utors":2155,"Ġsource":2156,"sitemaps":2157,"Ġprovide":2158,"current":2159,"mapbox":2160,"see":2161,"rich":2162,"extr":2163,"caleValidator":2164,"ra":2165,"wist":2166,"environment":2167,"process":2168,"BUI":2169,"500":2170,"Ġ\"%":2171,"MENT":2172,"Ġreleased":2173,"KT":2174,"abled":2175,"Ġsocket":2176,"KTAdapter":2177,"Me":2178,"You":2179,"cher":2180,"det":2181,"sites":2182,"Ġpost":2183,"Ġtar":2184,"patcher":2185,"ionally":2186,"ĠDis":2187,"ummy":2188,"Ġobjects":2189,"ocument":2190,"owed":2191,"object":2192,"Ġho":2193,"Ġcontrib":2194,"Ġcomplete":2195,"Ġcontributors":2196,"UUID":2197,"plat":2198,"ving":2199,"Ġroot":2200,"Ġter":2201,"RA":2202,"onth":2203,"URL":2204,"--":2205,"ique":2206,"den":2207,"Ġindex":2208,"ects":2209,"Sitemap":2210,"ĠProduct":2211,"Ġcase":2212,"ections":2213,"wisted":2214,"Ġterms":2215,">/',":2216,"Redirect":2217,"unce":2218,"Ġunicode":2219,"nounce":2220,"ĠDO":2221,"ĠWARNING":2222,"fore":2223,"twine":2224,"erly":2225,"instead":2226,"announce":2227,"ical":2228,"Ġtwine":2229,"Formerly":2230,"ĠPyPI":2231,"AF":2232,"LOW":2233,"the":2234,"Ġlevel":2235,"Ġside":2236,"AT":2237,"Ġeff":2238,"Ġeffects":2239,"ias":2240,"Ġbefore":2241,"Ġvia":2242,"itemap":2243,"logged":2244,"ALLOW":2245,"255":2246,"ĠCallable":2247,"FR":2248,"licen":2249,"Ġreposit":2250,"Ġdual":2251,"Ġlicensed":2252,"chard":2253,"schema":2254,"STOR":2255,"lanchard":2256,"Ġchardet":2257,"Types":2258,"Ġrepository":2259,"Ġwr":2260,"geojson":2261,"licenses":2262,"STORAGE":2263,"ĠName":2264,"Ġpas":2265,"ĠDEBUG":2266,"Loader":2267,"ĠPo":2268,"AFE":2269,"psycopg":2270,"Ġfunctions":2271,"flatpage":2272,"urface":2273,"ibr":2274,"Ġtarget":2275,"EmailBackend":2276,"Ġprefix":2277,"INFO":2278,"GIS":2279,"Ġdatabase":2280,"ĠKM":2281,"('<":2282,"Zip":2283,"ĠMiddleware":2284,"quire":2285,"ĠUUID":2286,"cit":2287,"width":2288,"ĠOR":2289,"allowed":2290,"ĠUnion":2291,"Class":2292,"Ġpassed":2293,"CA":2294,"ZSitemap":2295,"certifi":2296,"Ġfinders":2297,"Ġline":2298,"textfont":2299,"LSitemap":2300,"extras":2301,"Func":2302,"red":2303,"ĠCharField":2304,"ĠCached":2305,"ĠLoader":2306,"iaL":2307,"Dns":2308,"Template":2309,"WARNING":2310,"sHandler":2311,"yndication":2312,"getfqdn":2313,"ĠSuspiciousOperation":2314,"ĠSafe":2315,"ĠWSGIHandler":2316,"AGMENT":2317,"ĠBaseJSONSerializer":2318,"Ġconnections":2319,"Ġsending":2320,"ĠGeometry":2321,"ĠINFO":2322,"ĠStaticFilesHandler":2323,"systemLoader":2324,"ĠDisallowed":2325,"FRAGMENT":2326,"ZipMiddleware":2327,"ĠCachedDns":2328,"ĠDisallowedModelAdmin":2329,"ĠCachedDnsName":2330,"upload":2331,"ĠDateTimeField":2332,"agesConfig":2333,"redirects":2334,"ĠUUIDField":2335,"CPointerBase":2336,"KM":2337,"gon":2338,"ĠERROR":2339,"lygon":2340,"ĠSpat":2341,"ĠSUCCESS":2342,"ĠCPointerBase":2343,"ĠPsycopg":2344,"intField":2345,"ineString":2346,"ĠMySQLOperations":2347,"ĠMySQLIntrospection":2348,"ĠMySQLGISSchemaEditor":2349,"anceField":2350,"ALException":2351,"ĠMultiPo":2352,"ĠGDALException":2353,"reaField":2354,"iaLite":2355,"lygonField":2356,"ĠSpatiaLite":2357,"ineStringField":2358,"SAFE":2359,"ves":2360,"Ġauthors":2361,"citext":2362,"mage":2363,"Ġfuture":2364,"ĠTextField":2365,"Ġ2021":2366,"ĠEmailField":2367,"VERSION":2368,"task":2369,"Ġutf":2370,"context":2371,"image":2372,"ens":2373,"ĠCustom":2374,"Ġmaking":2375,"platform":2376,"Ġpsycopg":2377,"andas":2378,"voids":2379,"Ġchanges":2380,"Splitter":2381,"sqlparse":2382,"ilterStack":2383,"Ġ2009":2384,"opensource":2385,"atementSplitter":2386,"ĠTemplate":2387,"cing":2388,"ĠAvoids":2389,"verse":2390,"Ġcoding":2391,"ĠSequence":2392,"Ġexecutable":2393,"Ġmoves":2394,"Ġhasattr":2395,"100":2396,"':<":2397,"2020":2398,"ĠDatabaseClient":2399,"Ġ{}),<":2400,"instance":2401,"Ġpr":2402,"tickformatstop":2403,"\":<":2404,"Ġhome":2405,"Ġmonth":2406,"Ġcurrent":2407,"ĠOpen":2408,"liter":2409,"literals":2410,"ssrcValidator":2411,"NC":2412,"install":2413,"Ġpun":2414,"Ġday":2415,"av":2416,"ycode":2417,"Ġcontain":2418,"ĠASGIHandler":2419,"AddField":2420,"Ġdatabases":2421,"ĠSafeString":2422,"Ġpunycode":2423,"description":2424,"functional":2425,"mon":2426,"save":2427,"conn":2428,"ASY":2429,"Ġbackend":2430,"SITE":2431,"400":2432,"idValidator":2433,"Auth":2434,"Ġ[],<":2435,"null":2436,"issing":2437,"ĠJSONField":2438,"Ġsp":2439,"ds":2440,"python":2441,"UNSAFE":2442,"ASYNC":2443,"introspection":2444,"Font":2445,"adRequest":2446,"Ġwrapped":2447,"uiltinJSONField":2448,"should":2449,"Ġother":2450,"Ġparser":2451,"rupted":2452,"Ġwraps":2453,"method":2454,"Ġmissing":2455,"olorsrcValidator":2456,"lasses":2457,"els":2458,"Ġpandas":2459,"cls":2460,"imple":2461,"ample":2462,"model":2463,"ModelSerializer":2464,"ĠProvider":2465,"exit":2466,"Ġsubprocess":2467,"gener":2468,"Ġcode":2469,"iated":2470,"operations":2471,"rappers":2472,"Provider":2473,"ong":2474,"Ġtop":2475,"ĠTodo":2476,"STU":2477,"Ġurl":2478,"Ġinstant":2479,"ĠClasses":2480,"TILS":2481,"STUTILS":2482,".\",<":2483,">\"\"\"":2484,"Ġinstantiated":2485,"Ġfeatures":2486,"]]":2487,"ĠSchemaEditor":2488,"__().<":2489,"Ġops":2490,"Ġintrospection":2491,"ĠSchemaEditorClass":2492,"ĠMapping":2493,"Ġwor":2494,"produ":2495,"ameter":2496,"__\":<":2497,"ify":2498,"todo":2499,"Ġover":2500,"Ð°Ð":2501,"ĠCom":2502,"11":2503,"gl":2504,"Ġtitle":2505,"','":2506,"widthValidator":2507,"ignals":2508,"gcolor":2509,"Inter":2510,"sys":2511,"Ñģ":2512,"Ġgetattr":2513,"Token":2514,"any":2515,"slug":2516,"10":2517,"cmd":2518,"nel":2519,"action":2520,"Ġtrans":2521,"start":2522,"ene":2523,"Ġfound":2524,"ignore":2525,"formatValidator":2526,"Ġhash":2527,"\"):<":2528,"EP":2529,"bdist":2530,"ĠFont":2531,"osname":2532,"Tr":2533,"2022":2534,"An":2535,"Ġ10":2536,"Ġcreate":2537,"dig":2538,"ĠPEP":2539,"Ġspec":2540,"commands":2541,"ÐµÐ":2542,"stname":2543,"Ġstart":2544,"Ġchange":2545,"gr":2546,"Ġexception":2547,"loads":2548,"Ġpytest":2549,"ameters":2550,"subject":2551,"anchor":2552,"ĠArrayField":2553,"Ġfirst":2554,"txt":2555,"profile":2556,"Ġx":2557,"utor":2558,"mark":2559,"ĠBasePickleSerializer":2560,"Subquery":2561,"[\"":2562,"Ġ-*-<":2563,"Ġfiles":2564,"Ġ\"_":2565,"ternary":2566,"ĠOracleOperations":2567,"ĠOracleIntrospection":2568,"ĠOracleGISSchemaEditor":2569,"local":2570,"0004":2571,"TextValidator":2572,"ĠTextValidator":2573,"show":2574,"ĠAr":2575,"distribution":2576,"umpy":2577,"management":2578,"remove":2579,"tact":2580,"ANA":2581,"Ġnamesp":2582,"Ġway":2583,"Ġoriginal":2584,"iver":2585,"ush":2586,"17":2587,"ories":2588,"aces":2589,"\"])<":2590,"pr":2591,"Ġj":2592,"ĠBook":2593,"Tuple":2594,"TOMLDecodeError":2595,"fun":2596,"Ġisinstance":2597,"own":2598,"Ġunique":2599,"eri":2600,"di":2601,"Ġpreser":2602,"ream":2603,"Ġobject":2604,"Parse":2605,"Ar":2606,"doc":2607,"dTuple":2608,"pad":2609,"Var":2610,"ĠGenerator":2611,"imer":2612,"Ġhashlib":2613,"gion":2614,"web":2615,"ank":2616,"heat":2617,"logging":2618,"pointsValidator":2619,"Ġus":2620,"__.":2621,"Ġobj":2622,"ness":2623,">_":2624,"ccess":2625,"Ġ5":2626,"Ġexist":2627,"acityValidator":2628,"funnel":2629,"Dist":2630,"Ġqueryset":2631,"06":2632,"np":2633,"Ġge":2634,"()),<":2635,"0005":2636,"Ġwe":2637,"LES":2638,"Hover":2639,"__':<":2640,"tem":2641,"ĠHover":2642,"#!":2643,"ĠMar":2644,"permissions":2645,"')),<":2646,"ote":2647,"oto":2648,"IntegerField":2649,"urs":2650,"Ġboolean":2651,"codec":2652,"ĠTypeVar":2653,"cle":2654,"tags":2655,"Ġlocation":2656,"{'":2657,"Ġnon":2658,">',":2659,"reation":2660,"Rout":2661,"Resource":2662,"(\"<":2663,"Log":2664,"way":2665,"Ġpygments":2666,"XX":2667,"rest":2668,"TTP":2669,".*":2670,"Id":2671,"aph":2672,"Post":2673,"heatmap":2674,"GE":2675,"uid":2676,"Ġutil":2677,"include":2678,"ialize":2679,"hone":2680,"mplo":2681,"enabled":2682,"scene":2683,"STY":2684,"directory":2685,"ordercolor":2686,"Un":2687,"STYLES":2688,"TU":2689,"gcolorValidator":2690,"eries":2691,"ĠTheme":2692,"Ġ+=":2693,"Ġ2015":2694,"NU":2695,"socket":2696,"ĠEric":2697,"ceiver":2698,"Ax":2699,"ools":2700,"ople":2701,"Ġkey":2702,"Ġso":2703,"bytes":2704,"37":2705,"Ġ'<":2706,"\"\",":2707,"pi":2708,"return":2709,"uration":2710,"reationForm":2711,"ast":2712,"notation":2713,"ain":2714,"usr":2715,"wn":2716,"ĠEn":2717,"Ġcharact":2718,"ffix":2719,"know":2720,"assword":2721,"Ġserialize":2722,"Ġbytes":2723,"ĠAdmin":2724,"#!/":2725,"ttribute":2726,"split":2727,"ished":2728,"Ġcertifi":2729,"Router":2730,"').":2731,"Ġcontents":2732,"ipe":2733,"mploye":2734,"del":2735,"LED":2736,"ickness":2737,"modules":2738,"quired":2739,"ĠJ":2740,"stream":2741,"ret":2742,"relat":2743,"wh":2744,"Ġsu":2745,"abc":2746,"ocumentation":2747,"App":2748,"CreationForm":2749,"\",)<":2750,"Ġ20":2751,"tickfont":2752,"ferred":2753,"build":2754,"ĠToken":2755,"known":2756,"==":2757,"fa":2758,"board":2759,"cat":2760,"Ġ25":2761,"oml":2762,"ĠRequest":2763,"Ġmake":2764,"Ġtests":2765,"(\"\",":2766,"Py":2767,"attern":2768,"loat":2769,"Check":2770,"ĠOn":2771,"ĠAuth":2772,"uct":2773,"ĠHel":2774,"ud":2775,"ĠException":2776,"Ġ.__":2777,"Ġnumpy":2778,"argument":2779,"asrcValidator":2780,"ĠCommand":2781,"agma":2782,"Ġpragma":2783,"Ġtext":2784,"oreign":2785,"Ġhandle":2786,"ĠDistribution":2787,"[:":2788,"ticks":2789,"Ġwithin":2790,"enco":2791,"Ġcover":2792,"sumer":2793,"Ġhelp":2794,"alidationError":2795,">~~~~~~~~":2796,"AP":2797,"Dec":2798,"custom":2799,"Ġreturns":2800,"stract":2801,"oreignKey":2802,"inu":2803,"Ġshould":2804,"extens":2805,"Ġloads":2806,"Ġnp":2807,"Ġ23":2808,"itemname":2809,"etup":2810,"queryset":2811,"hing":2812,"ASCA":2813,"Parser":2814,"ForeignKey":2815,"OU":2816,"fault":2817,"Ġredirect":2818,"decorator":2819,"izesrcValidator":2820,"Detail":2821,"PRE":2822,"Ġhave":2823,"ASCADE":2824,"Ge":2825,"{}":2826,"edocs":2827,"thedocs":2828,"bound":2829,"ĠHTTP":2830,"chorople":2831,"readthedocs":2832,"suffix":2833,"choropleth":2834,"Ġignore":2835,"details":2836,"ĠShow":2837,"Ġwill":2838,"ĠLicensed":2839,"labels":2840,"200":2841,"HI":2842,"Lay":2843,"xy":2844,"Ġcreated":2845,"atus":2846,"Col":2847,"FamilyValidator":2848,"account":2849,"ĠFamilyValidator":2850,"ModelForm":2851,"Show":2852,"Ġlogin":2853,"coder":2854,"Ġclient":2855,"Ġcontaining":2856,"CASCADE":2857,"gmail":2858,"deprecation":2859,"exp":2860,"textValidator":2861,"~~~~~~":2862,"CHES":2863,"isibleValidator":2864,"decorators":2865,"std":2866,"logout":2867,"ALI":2868,"MAT":2869,"rat":2870,"unknown":2871,"NE":2872,"Ġdb":2873,"Ġimported":2874,"Ġcache":2875,"Ġdata":2876,"colors":2877,"Ġ19":2878,"Ġwhich":2879,"ows":2880,"ĠMIT":2881,"Ġstill":2882,"ĠExt":2883,"DIR":2884,"Ġexists":2885,"ĠLab":2886,"resol":2887,"feren":2888,"APP":2889,"jo":2890,"server":2891,"ĠBlog":2892,"irevision":2893,"migr":2894,"sm":2895,"Ġcore":2896,"axpointsValidator":2897,"encoding":2898,"ranges":2899,"ody":2900,"impl":2901,"hex":2902,"Ġcharacters":2903,"=[":2904,"trie":2905,"polls":2906,"inition":2907,"Ġdecode":2908,"Order":2909,"BBBB":2910,"He":2911,"Ġreferen":2912,"Ġwarning":2913,"STAL":2914,"angle":2915,"ĠThere":2916,"0008":2917,"ĠWind":2918,"migrate":2919,"OK":2920,"âĢ":2921,"Ġencode":2922,"tries":2923,"ĠNo":2924,"ĠĠĠĠĠĠĠĠĠĠĠĠĠĠĠĠ":2925,"execute":2926,"Ch":2927,"empty":2928,"aster":2929,"ertif":2930,"Ġbuild":2931,"oks":2932,"world":2933,"ĠTrans":2934,"NOT":2935,"Ġaccess":2936,"Ġwork":2937,"Ġerror":2938,"debug":2939,"Ġown":2940,"Axis":2941,".,":2942,"Page":2943,"SM":2944,"for":2945,"Ġaction":2946,"ĠModule":2947,"TIME":2948,"STATIC":2949,"ertificate":2950,"hstore":2951,"ley":2952,"jsonb":2953,"(**":2954,"Ġpreserved":2955,"Ġreferencing":2956,"Dis":2957,"Ġissue":2958,"legendgroup":2959,"Mess":2960,"ibrary":2961,"Ġmanage":2962,"ĠAttribute":2963,"CII":2964,"ASCII":2965,"six":2966,"lected":2967,"STALLED":2968,"Image":2969,"Project":2970,"unused":2971,"isc":2972,"Ġ{'":2973,"Ġdistribution":2974,"Ġ2008":2975,"smith":2976,"CU":2977,"Ġapplication":2978,"Ġreceiver":2979,"ifo":2980,"result":2981,"ĠValidationError":2982,"entry":2983,"success":2984,"~~~~~~<":2985,"dat":2986,"Ġdefinition":2987,"ization":2988,"ĠFlat":2989,"textsrcValidator":2990,"lection":2991,"signup":2992,"ĠWindows":2993,"Ġdeprecation":2994,"IDNA":2995,"Ġfunctools":2996,"nsure":2997,"ĠToUn":2998,"ĠToASCII":2999,"Ġutilise":3000,"370":3001,"Ġmanaged":3002,"ĠToUnicode":3003,"-'":3004,"row":3005,"ĠAns":3006,"serializer":3007,"ants":3008,"Ġhello":3009,"229":3010,"TICAL":3011,"NV":3012,"wr":3013,"Ġmod":3014,"ĠMS":3015,"Ġaddress":3016,"moves":3017,"Ġ2013":3018,">~~~~~~~~~~~~~~<":3019,"LY":3020,"Ġpattern":3021,"aging":3022,"contenttypes":3023,"ursor":3024,"inux":3025,"Layers":3026,"cert":3027,"created":3028,"fin":3029,"uk":3030,"Ġseparate":3031,"ĠSQL":3032,"ĠLifo":3033,"Apache":3034,"],":3035,"Ġqueue":3036,"ĠâĢ":3037,"itho":3038,"Ġcertificate":3039,"###":3040,"\"],":3041,"ĠWKTAdapter":3042,"Ġneed":3043,"postgresql":3044,"ĠRequests":3045,"LayersWidget":3046,"ithout":3047,"-.<":3048,".`":3049,".|":3050,">/":3051,">\",":3052,"Kenneth":3053,"ML":3054,"`.`":3055,"cake":3056,"qsize":3057,"orical":3058,"deque":3059,"reitz":3060,"Ġ_):<":3061,"Ġ.-.<":3062,"ĠLinux":3063,"umans":3064,"ĠHumans":3065,"Ġstrings":3066,"Ġ`-.":3067,"kenneth":3068,"Ġ|(":3069,"Ġ|.|":3070,"Ġ`-.<":3071,"Ġ`-'<":3072,"Ġ`-`.`":3073,"Ġconnection":3074,"ĠKenneth":3075,"ĠInter":3076,"ĠLifoQueue":3077,"kennethreitz":3078,"Ġ`-`.`-'":3079,"If":3080,"category":3081,"xaxis":3082,"0009":3083,"Ġpackaging":3084,"Ġpreferred":3085,"packaged":3086,"ĠInvalid":3087,"BUILD":3088,"certs":3089,"Ġseparately":3090,"ĠâĢĶ":3091,"gument":3092,"Ġcolor":3093,"onent":3094,"setting":3095,"anel":3096,"ĠTuple":3097,"BaseSpatialFeatures":3098,"Ġintent":3099,"ĠBaseSpatialFeatures":3100,"ITY":3101,"VIR":3102,"related":3103,"lt":3104,"misc":3105,"true":3106,"prec":3107,"Ġserver":3108,"Ġintentionally":3109,"03":3110,"WN":3111,"Ġinit":3112,"let":3113,"stack":3114,"Ġ\"--":3115,"Ġopen":3116,"distutils":3117,"ookup":3118,"APPS":3119,"KNO":3120,"edis":3121,"ĠTest":3122,"ĠSetup":3123,"ordercolorValidator":3124,"UNKNO":3125,"ĠGeo":3126,"CUR":3127,"UNKNOWN":3128,"101":3129,"idden":3130,"active":3131,"Ġgroup":3132,"OUS":3133,"resolver":3134,"ĠAg":3135,"loader":3136,"mysite":3137,"PREVI":3138,"link":3139,"ified":3140,"ĠSetuptools":3141,"Multi":3142,"ĠQuery":3143,"inen":3144,"ash":3145,"ĠBack":3146,"ERS":3147,"scattergl":3148,"Subpackage":3149,"ALENV":3150,"Argument":3151,"TUALENV":3152,"Ġsuch":3153,"MATCHES":3154,"VIRTUALENV":3155,"PREVIOUS":3156,"Ġsetting":3157,"parator":3158,"Ġprovided":3159,"UP":3160,"ama":3161,"manager":3162,"Ġvisible":3163,"Ġind":3164,"Ġasy":3165,"254":3166,"STAMP":3167,"Ġusing":3168,"TIMESTAMP":3169,"ArgumentParser":3170,"ET":3171,"finder":3172,"chang":3173,"ansit":3174,"Ġsubmodules":3175,"ĠContrib":3176,"binary":3177,"ways":3178,"aphy":3179,"NS":3180,"Ġderi":3181,"egend":3182,"Ġapi":3183,"Ġpages":3184,"Ġtemplates":3185,"faultRouter":3186,"SF":3187,"Win":3188,"cer":3189,"Ġmys":3190,"Ġwithout":3191,"Ġattribute":3192,"ĠAttributeError":3193,"Ġsecon":3194,"ĠModel":3195,"``,":3196,"``<":3197,"Ġisn":3198,"resp":3199,"ĠPSF":3200,"Ġuses":3201,"andling":3202,"Ġhandling":3203,"tyle":3204,"reement":3205,"clear":3206,"Collection":3207,"Ġdeprecations":3208,"ĠAgreement":3209,"ĠSetuptoolsDeprecationWarning":3210,"ĠContributor":3211,"Ġderived":3212,"Http":3213,"assert":3214,"Ġmulti":3215,"Ġsame":3216,"ĠStyle":3217,"iled":3218,"Ġlong":3219,"tag":3220,"modeValidator":3221,"raw":3222,"Ġsh":3223,"ĠCursor":3224,"functions":3225,"digest":3226,"changed":3227,"14":3228,"iTo":3229,"nder":3230,"onath":3231,"Ġreinit":3232,"ĠMain":3233,"Ġdeinit":3234,"ĠFore":3235,"ansi":3236,"ĠHart":3237,"owin":3238,"See":3239,"initialise":3240,"IntegerValidator":3241,"controller":3242,"ĠJonath":3243,"ĠTransaction":3244,"ĠAnsiTo":3245,"Ġcolorama":3246,"ansitowin":3247,"ĠHartley":3248,"ĠJonathan":3249,"ĠAnsiToWin":3250,"Pre":3251,"Ġstorage":3252,"Ġ30":3253,"Ġlogging":3254,"ĠContent":3255,"ĠTypeError":3256,"Ġjust":3257,"edisCache":3258,"):":3259,"Ð»":3260,"ĠOSM":3261,"ometries":3262,"amilysrcValidator":3263,"VERTICAL":3264,"ĠOpenLayersWidget":3265,"mployee":3266,"TML":3267,"chan":3268,"Ġbyte":3269,"FileCache":3270,"YY":3271,"handle":3272,"adio":3273,"().__":3274,"Lookup":3275,"surface":3276,"warning":3277,"Ġmessages":3278,"Ġpickle":3279,"consumer":3280,"qual":3281,"Ġprocess":3282,"Ġmeant":3283,"LOOK":3284,"Example":3285,"ucture":3286,"Dispatcher":3287,"ukk":3288,"LOOKUP":3289,"ike":3290,"ickw":3291,"Ġtags":3292,"Ġsignals":3293,"ĠMA":3294,"DIT":3295,"anchorValidator":3296,"Ġasync":3297,"Match":3298,"sult":3299,"Ġap":3300,"ered":3301,"ĠTanel":3302,"Ġcsrf":3303,"('.":3304,"ell":3305,"Ġavoid":3306,"Ġexclude":3307,"pare":3308,"ĠHukk":3309,"Static":3310,"solver":3311,"which":3312,"ĠTaneli":3313,"ĠHukkinen":3314,"password":3315,"vice":3316,"ĠIf":3317,"ĠIANA":3318,"Ġserve":3319,"Ġbased":3320,"Ġmysite":3321,"ume":3322,"Ġappl":3323,"section":3324,"ĠDan":3325,"Ġals":3326,"sessions":3327,"iginal":3328,"ĠNOT":3329,"ĠHTML":3330,"Administ":3331,"Ġhelper":3332,"Ġdispatch":3333,"generic":3334,"started":3335,"implify":3336,"Ġalso":3337,">:":3338,"MySQL":3339,"sec":3340,"ĠDummy":3341,"dispatcher":3342,"ĠRange":3343,"actions":3344,"finished":3345,"ross":3346,"Ġretrie":3347,"Ġvalidation":3348,"ĠTHI":3349,"queries":3350,"Ġmeans":3351,"mysql":3352,"AxisTypes":3353,"Ġindicate":3354,"clearAxisTypes":3355,"Flat":3356,"vok":3357,"ĠTE":3358,"lows":3359,"ĠEDIT":3360,"0011":3361,"{}\"":3362,"ĠExtend":3363,"hexdigest":3364,"tree":3365,"ally":3366,"Ġexceptions":3367,"Ġsubpackages":3368,"Ġalias":3369,"Ġseconds":3370,"Ġapplied":3371,")]<":3372,"20":3373,"AND":3374,"Make":3375,"dan":3376,"depende":3377,"Ġpur":3378,"ĠSub":3379,"Ġbump":3380,"Ġdown":3381,"Ġconstants":3382,"ĠIT":3383,"Ġstructure":3384,"ĠEnsure":3385,"ĠRandom":3386,"Ġeasy":3387,"ALLY":3388,"validation":3389,"Ġdirectories":3390,"Ġalways":3391,"Ġretrieving":3392,"ĠTHIS":3393,"dependent":3394,"'.<":3395,"LITY":3396,"Map":3397,"[-":3398,"blanchard":3399,"gd":3400,"Ġ40":3401,"Ġsimplify":3402,"ĠTOMLDecodeError":3403,"ĠCurrent":3404,"ĠLET":3405,"ĠBlanchard":3406,"ĠUTI":3407,"ĠLINE":3408,"ĠSitemap":3409,"ĠTrie":3410,"Ġhostname":3411,"Trie":3412,"NUALLY":3413,"failed":3414,"ALIZ":3415,"ĠMANUALLY":3416,"ĠUTILITY":3417,"Ġindependent":3418,"serve":3419,"Ġwell":3420,"ĠPages":3421,"loading":3422,"ĠCacheControlAdapter":3423,"Ġgeneral":3424,"Ġacross":3425,"ĠTEMPLATE":3426,"Ġpurposes":3427,"ALIZERS":3428,"Dummy":3429,"ism":3430,"opts":3431,"ĠINSTALLED":3432,"exponent":3433,"ĠInterface":3434,"18":3435,">',<":3436,"Docs":3437,"IALIZERS":3438,"Up":3439,"VS":3440,"hidden":3441,"Ġappend":3442,"eric":3443,"rock":3444,"ionrock":3445,"Ġtake":3446,"admindocs":3447,"transactions":3448,"LTIN":3449,"Sessions":3450,"Protocol":3451,"CacheControl":3452,"ĠCacheController":3453,"SERIALIZERS":3454,"BUILTIN":3455,"Ġnamespaces":3456,"Ġcachecontrol":3457,"SL":3458,"bgcolor":3459,"spatial":3460,"Ġadapter":3461,"angular":3462,"Ġmigration":3463,"opacity":3464,"Constants":3465,"Reverse":3466,"ĠFunc":3467,"Ġradio":3468,"article":3469,"filesystem":3470,"ĠMess":3471,"safestring":3472,"RAND":3473,"ĠKMZSitemap":3474,"ĠKMLSitemap":3475,"ĠCommon":3476,"spatialite":3477,"Custom":3478,"CVS":3479,"Ġmode":3480,"formsets":3481,"Ġnothing":3482,"BaseDatabaseFeatures":3483,"BaseEmailBackend":3484,"ĠBaseDatabaseFeatures":3485,"ĠBaseEmailBackend":3486,"Ġchecking":3487,"ĠSeparator":3488,"syndication":3489,"Ġregistered":3490,"Ġgzip":3491,"MiddlewareMixin":3492,"Ġloading":3493,"Ġmechan":3494,"ĠEmailBackend":3495,"ĠStaticFilesConfig":3496,"ĠMiddlewareMixin":3497,"producer":3498,"ParseError":3499,"ĠNoReverse":3500,"Ġmodified":3501,"Ġapart":3502,"Ġmechanism":3503,"ĠNoReverseMatch":3504,")),<":3505,"15":3506,"kml":3507,"raster":3508,"today":3509,"yaxis":3510,"Ñı":3511,"conversion":3512,"SEP":3513,"proxy":3514,"Ġsets":3515,"Invok":3516,"ĠSessions":3517,"signing":3518,"ĠORM":3519,"Ġgeometry":3520,"GEN":3521,"ĠOnly":3522,"ĠHelper":3523,"Invokes":3524,"*~":3525,"DNS":3526,"GZipMiddleware":3527,"PagesConfig":3528,"Syndication":3529,"ToField":3530,"got":3531,"zily":3532,"ĠJSONSerializer":3533,"ĠGIS":3534,"__.__":3535,"Ġtamp":3536,"Ġsplit":3537,"Ġslows":3538,"=\"{}\"":3539,"ĠAND":3540,"ĠSuspicious":3541,"ĠSyndication":3542,"Ġassets":3543,"ĠMaps":3544,"ĠDocumentation":3545,"parently":3546,"ĠLiveServerTestCase":3547,"ĠPickleSerializer":3548,"WSGIHandler":3549,"ĠGZipMiddleware":3550,"ĠResolver":3551,"Ġcouple":3552,"Ġserving":3553,"FilesystemLoader":3554,"SiteMiddleware":3555,"Ġcollectstatic":3556,"csrfmiddleware":3557,"Ġrestart":3558,"Ġpydispatch":3559,"Ġlazily":3560,"iterable":3561,"subqueries":3562,"Ġoptionally":3563,"ĠSiteAdmin":3564,"ĠSiteMap":3565,"ĠStaticLiveServerTestCase":3566,"routers":3567,"Ġquerystring":3568,"Original":3569,"ĠFiles":3570,"ĠFilesystemLoader":3571,"Ġexecution":3572,"Ġcontenttypes":3573,"Ġiterables":3574,"Creates":3575,"SessionKey":3576,"TemplateCommand":3577,"ĠDisallowedModelAdminLookup":3578,"ĠDisallowedModelAdminToField":3579,"ĠTemplateCommand":3580,"avily":3581,"Ġoverlay":3582,"Ġtransparently":3583,"ĠAdminDocs":3584,"PyDispatcher":3585,"Decorator":3586,"boundfield":3587,"rative":3588,"Heavily":3589,"ĠFlatPagesConfig":3590,"ĠInvalidSessionKey":3591,"CURRE":3592,"ĠContentTypes":3593,"Ġbytearray":3594,"Administrative":3595,"Ġdispatching":3596,"ĠDummyDatabaseFeatures":3597,"ĠCurrentSiteMiddleware":3598,"Ġgzips":3599,"ĠSessionsConfig":3600,"ĠGISConfig":3601,"Ġtampered":3602,"ĠSuspiciousSession":3603,"ĠSyndicationConfig":3604,"csrfmiddlewaretoken":3605,"ĠSiteMapsConfig":3606,"Originally":3607,"ĠAdminDocsConfig":3608,"AreaField":3609,"Humanize":3610,"LineStringField":3611,"Now":3612,"WKTAdapter":3613,"humanize":3614,"obj":3615,"top":3616,"geos":3617,"geometries":3618,"conform":3619,"ĠAreaField":3620,"ĠLineStringField":3621,"verses":3622,"ĠHumanize":3623,"ĠBaseGe":3624,"SQLite":3625,"ALBase":3626,"ĠMySQLDatabaseWrapper":3627,"ometryWidget":3628,"ĠMultiLineStringField":3629,"ĠRedirectAdmin":3630,"ĠRedirectsConfig":3631,"ĠGDALBase":3632,"ĠGEOSBase":3633,"ĠDistanceField":3634,"Redirects":3635,"ĠPointField":3636,"ĠPolygonField":3637,"ĠGeometryField":3638,"ĠGeometryCollection":3639,"KMZSitemap":3640,"KMLSitemap":3641,"ĠMultiPointField":3642,"ĠMultiPolygonField":3643,"ĠSpatiaLiteClient":3644,"ĠSpatiaLiteAdapter":3645,"DistanceField":3646,"Ġaccessing":3647,"ĠTransactionNow":3648,"Prepare":3649,"ĠOSMWidget":3650,"MySQLDatabaseWrapper":3651,"Ġindicates":3652,"ĠRandomUUID":3653,"gdal":3654,"RANDOM":3655,"CURRENT":3656,"ĠHumanizeConfig":3657,"ĠBaseGeometryWidget":3658,"ĠGeometryCollectionField":3659,"PrepareProtocol":3660,"of":3661,"})<":3662,"ĠPath":3663,"Ġimplemented":3664,"returns":3665,"extension":3666,"point":3667,"ything":3668,"ĠSession":3669,"CICharField":3670,"CIEmailField":3671,"CITextField":3672,"ĠCIText":3673,"ĠCICharField":3674,"ĠCIEmailField":3675,"ĠCITextField":3676,"savepoints":3677,"padValidator":3678,"=\"{}\">',<":3679,"ĠZ":3680,"ography":3681,"Ġthey":3682,"FilterStack":3683,"ITE":3684,"splitter":3685,"statement":3686,"Ġpo":3687,"Ġte":3688,"ĠFilterStack":3689,"ceptions":3690,"BaseSerializer":3691,"ĠBaseSerializer":3692,"ĠRanges":3693,"ĠStatementSplitter":3694,"StatementSplitter":3695,"grouping":3696,"Exceptions":3697,"ĠSQLParseError":3698,"Ġgrouping":3699,"ĠRangeSerializer":3700,"thous":3701,"teger":3702,"alueValidator":3703,"oud":3704,"ticklabels":3705,"paratethous":3706,"paratethousand":3707,"ater":3708,"ASH":3709,"ĠCategory":3710,"ĠDJANGO":3711,"ssrc":3712,"colorsrc":3713,"databases":3714,"actory":3715,"Ġenvironment":3716,"Ġinstead":3717,"ĠAP":3718,"than":3719,"Ġ2020":3720,"Ġdeploy":3721,"Ñĥ":3722,"alias":3723,"Ġthan":3724,"Sequence":3725,"executable":3726,"SLASH":3727,"Module":3728,"table":3729,"question":3730,"later":3731,"ASGIHandler":3732,"ĠCustomUser":3733,"wrapped":3734,"Ġhe":3735,"appConfig":3736,"ĠMark":3737,"response":3738,"bad":3739,"vol":3740,"ices":3741,"Ġsystem":3742,"ĠLog":3743,"ĠFilter":3744,"Ġwants":3745,"BaseDatabaseClient":3746,"ĠBaseDatabaseClient":3747,"BooleanField":3748,"divid":3749,"BadRequest":3750,"],<":3751,"cached":3752,"rank":3753,"tection":3754,"Ġinteger":3755,"Rename":3756,"ĠInt":3757,"Product":3758,"legendgrouptitle":3759,"zone":3760,"inf":3761,"gex":3762,"Ġrequired":3763,"Ġsaf":3764,"unsafe":3765,"ety":3766,"Ġprotection":3767,"Ġdisables":3768,"...":3769,"Ġsafety":3770,"BuiltinJSONField":3771,"Ġlast":3772,"ĠBuiltinJSONField":3773,"ould":3774,"Ġexcluded":3775,"treemap":3776,"])<":3777,"},<":3778,"geography":3779,"Ġwould":3780,"ĠBadRequest":3781,"PEND":3782,"pytest":3783,"Ġinterrupted":3784,"Ġdecorators":3785,"Interrupted":3786,"ĠSessionInterrupted":3787,"\"{":3788,"ColorsrcValidator":3789,"Get":3790,"\\\\":3791,"vote":3792,"utline":3793,"icer":3794,"ĠSITE":3795,"ĠColorsrcValidator":3796,"Ġnicer":3797,"maxpoints":3798,"ideValidator":3799,"intersection":3800,"Logger":3801,"Ġredirection":3802,"ImageField":3803,"ĠCommonMiddleware":3804,"ĠAPPEND":3805,"ĠLink":3806,".'<":3807,"iv":3808,"ticle":3809,"ĠDI":3810,"area":3811,"found":3812,"########":3813,"volume":3814,"ĠDefaultRouter":3815,"Mapping":3816,"cr":3817,"wrappers":3818,"ÑĮ":3819,"aries":3820,"icicle":3821,"classmethod":3822,"isos":3823,"isosurface":3824,"output":3825,"argv":3826,"Ġanything":3827,"DISTUTILS":3828,"Ġhooks":3829,"ĠDISTUTILS":3830,"Ġcached":3831,"low":3832,"stdlib":3833,"dividual":3834,"Wrappers":3835,"Ġ517":3836,"Pos":3837,"ww":3838,"ĠFirst":3839,"Ġannotation":3840,"Ġannotations":3841,"'\\":3842,"Ġvalid":3843,"ĠToml":3844,"andard":3845,"products":3846,"draw":3847,"imal":3848,"aceback":3849,"atr":3850,"selected":3851,"getLogger":3852,"Ġargument":3853,"call":3854,"ermiss":3855,"09":3856,"13":3857,"RO":3858,"oracle":3859,"ics":3860,"scattergeo":3861,"Storage":3862,"Ġusers":3863,"%(":3864,"-%":3865,"rec":3866,"denied":3867,"spect":3868,"scatterpolar":3869,"Profile":3870,"vie":3871,"stion":3872,"('.')<":3873,"YPY":3874,"mer":3875,"05":3876,"201":3877,"Date":3878,"bot":3879,"hows":3880,"ere":3881,"ities":3882,"minValidator":3883,"Ġstandard":3884,"Ġthings":3885,"itemnameValidator":3886,"''":3887,"sun":3888,"30":3889,"bordercolor":3890,"fol":3891,"urst":3892,"ĠOp":3893,"atrix":3894,"opied":3895,"Ġcopied":3896,"omen":3897,"precated":3898,"burst":3899,"hickness":3900,"cloud":3901,"barpolar":3902,"~~~~~~~~~~~~~~~~":3903,"Ġ199":3904,"Ġ8":3905,"ended":3906,"',)<":3907,"Ġaix":3908,"Ġhist":3909,"ĠProfile":3910,"OST":3911,"Use":3912,"Ġentry":3913,"mesh":3914,"room":3915,"Ġmy":3916,"ature":3917,"arraydraw":3918,"scattersmith":3919,"arnings":3920,"Many":3921,"ĠTask":3922,"erson":3923,"urlconf":3924,"ube":3925,"peri":3926,"with":3927,"ĠMYPY":3928,"textsrc":3929,"men":3930,"ĠSign":3931,"Ġlibr":3932,"Question":3933,"Ð¸Ð":3934,"Ġgenerated":3935,"Ġlibraries":3936,"\"}),<":3937,"console":3938,"sunburst":3939,"Ġtm":3940,"ected":3941,"iler":3942,"Ġyield":3943,"usage":3944,"([":3945,"904":3946,"built":3947,"cauto":3948,"ik":3949,"~<":3950,"parameters":3951,"agin":3952,"hoverformatValidator":3953,"Ġparameters":3954,"irevisionValidator":3955,"Ordered":3956,"Modules":3957,"infos":3958,"Float":3959,"__).":3960,"Individual":3961,"testing":3962,"backport":3963,"RAY":3964,"price":3965,"join":3966,"ĠIntended":3967,"splo":3968,"entication":3969,"scattercarpet":3970,"Messages":3971,"splom":3972,"(%(":3973,"hint":3974,"til":3975,"Ġjson":3976,"removed":3977,"ape":3978,"Ġexp":3979,"ĠImage":3980,"ARRAY":3981,"subquery":3982,"ĠKey":3983,"ĠArraySubquery":3984,"ĠSubquery":3985,"Ġpoint":3986,"Ġhistorical":3987,"RUN":3988,"posts":3989,"APIResource":3990,"64":3991,"ep":3992,"rid":3993,"reen":3994,"Return":3995,"ĠItem":3996,"ams":3997,".*\",":3998,"Manager":3999,"})":4000,"Ġ\"*~":4001,"Ġ\".*\",":4002,"extt":4003,"Ġblog":4004,"()\"<":4005,"\":\")<":4006,"Ġ\"__\"<":4007,"MEDI":4008,"scatterternary":4009,"0003":4010,"acleDatabaseWrapper":4011,"ĠStack":4012,"ĠOracleDatabaseWrapper":4013,"OracleDatabaseWrapper":4014,"Ġarguments":4015,"RUNNING":4016,"Ġ\"*~\"]<":4017,"exttemplate":4018,"tube":4019,"ĠTwisted":4020,"ĠAl":4021,"ines":4022,"ĠUserCreationForm":4023,"streamtube":4024,"APIView":4025,"]:<":4026,"tests":4027,"ĠStudent":4028,"ListView":4029,"optimize":4030,"Dict":4031,"dcontour":4032,"match":4033,"cone":4034,"ableAPIResource":4035,"strs":4036,"scatterpol":4037,"argl":4038,"scatterpolargl":4039,",'":4040,"mall":4041,"student":4042,"status":4043,"Ġmanager":4044,"accounts":4045,"Change":4046,"period":4047,"ĠHome":4048,"producing":4049,"16":4050,"Ġreproducing":4051,"traceback":4052,"(\"-\"":4053,"ĠNamedTuple":4054,"DetailView":4055,"MEDIA":4056,"imization":4057,"':'":4058,"Ġoptimization":4059,"NamedTuple":4060,"Ġreverse":4061,"linear":4062,"folio":4063,"ft":4064,"Ġ1000":4065,"rimary":4066,"Pick":4067,"viewsets":4068,"Ġdebugging":4069,"angleValidator":4070,"Ġshim":4071,"Ġteam":4072,"ChangeForm":4073,"Ġbuiltin":4074,"Def":4075,"function":4076,"ormally":4077,"ĠReturns":4078,"NameValidator":4079,"ĠNameValidator":4080,"contextmanager":4081,"cmdline":4082,"redis":4083,"Ġsmall":4084,"flt":4085,"Ġ~~~~~~~~~~~~~~~~":4086,"tty":4087,"ĠLogin":4088,"hicknessValidator":4089,"Defines":4090,"Ġprevent":4091,"Ġcontextlib":4092,")\"\"\"<":4093,"viron":4094,"contact":4095,"aders":4096,"Ġwidth":4097,"Index":4098,"Ġ2006":4099,"tilities":4100,"ĠKeyboard":4101,"Ġzip":4102,"onical":4103,"Ġregion":4104,"toml":4105,"Interrupt":4106,"ĠMessagesConfig":4107,"vironment":4108,"onicalize":4109,"Null":4110,"cular":4111,"Ġinspect":4112,"ĠRegion":4113,"ĠPygments":4114,"ĠArgs":4115,"ĠKeyboardInterrupt":4116,"Run":4117,"can":4118,"tz":4119,"Ð²":4120,"Ġ],<":4121,"ircular":4122,"ipython":4123,"ĠUtilities":4124,"addHandler":4125,"pygments":4126,"results":4127,"Ġheight":4128,":.":4129,"Filter":4130,"Ġ,":4131,"Ġpick":4132,"Ġtimer":4133,"OpacityValidator":4134,"scattermapbox":4135,"ĠOpacityValidator":4136,"Ġ~~~~~~~~~~~~~~~~~<":4137,"Push":4138,"Ñĭ":4139,"Ġcircular":4140,"part":4141,"pretty":4142,"Ġscreen":4143,"ĠFileCache":4144,"theme":4145,"NullHandler":4146,"Body":4147,"Timer":4148,"]):<":4149,"sender":4150,"Ġpush":4151,"clature":4152,"ctangular":4153,"Ġrectangular":4154,").\"\"\"<":4155,"Ġnomen":4156,"maxValidator":4157,"ĠRedisCache":4158,"Tickval":4159,"ĠTickval":4160,"styles":4161,"ĠConsole":4162,"contextlib":4163,"Ġnomenclature":4164,"ord":4165,"inary":4166,"Inline":4167,"ĠÐ¿":4168,"parateBody":4169,"...)<":4170,"parateBodyFileCache":4171,"Remove":4172,"Ġserializer":4173,"ĠComment":4174,"signals":4175,"Ġi":4176,"place":4177,"Ġ')]<":4178,"ĠNormally":4179,"Ġ(...)<":4180,"tickValidator":4181,"datetime":4182,"ĠOrder":4183,"prefixValidator":4184,"lenValidator":4185,"PageView":4186,"ickwidthValidator":4187,"ccount":4188,"fill":4189,"we":4190,"met":4191,"agination":4192,"BgcolorValidator":4193,"'),":4194,"Mar":4195,"ĉĉ":4196,"ĠResource":4197,"contourcarpet":4198,"abledValidator":4199,"gcolorsrcValidator":4200,"suffixValidator":4201,"cats":4202,"26":4203,"WidthValidator":4204,"[']":4205,"bstract":4206,"emp":4207,"san":4208,"ords":4209,"asrc":4210,"ĠWidthValidator":4211,"eref":4212,"fall":4213,"'))<":4214,"Item":4215,"ticksValidator":4216,"ĠRemovedIn":4217,"exponentValidator":4218,"aterfall":4219,"simple":4220,"2021":4221,"ĠRemovedInDjango":4222,"Optional":4223,"XValidator":4224,"[[":4225,"event":4226,"dev":4227,"ĠBgcolorValidator":4228,"Ġstripe":4229,"ientation":4230,"Ġ...":4231,"ĠXValidator":4232,"Ġexpected":4233,"RemoveField":4234,"={'":4235,"]])":4236,"ner":4237,"vi":4238,"visible":4239,"Hel":4240,"midValidator":4241,"autoValidator":4242,"ĠArticle":4243,"versescaleValidator":4244,"sankey":4245,"0000":4246,"common":4247,"YValidator":4248,"lug":4249,"minu":4250,"ĠRE":4251,"ĠYValidator":4252,"comment":4253,"RenameField":4254,"CT":4255,"ĠMatrix":4256,"ĠUsersConfig":4257,"axisValidator":4258,"oratories":4259,"groupValidator":4260,"FontValidator":4261,"ĠFontValidator":4262,"heatmapgl":4263,"ĠLaboratories":4264,"ticklabelsValidator":4265,"paratethousandsValidator":4266,"21":4267,"Fr":4268,"uto":4269,"ĠBlogConfig":4270,">/\",":4271,"its":4272,"dump":4273,"19":4274,"omp":4275,"oom":4276,"inside":4277,"resh":4278,"Line":4279,"SizesrcValidator":4280,"ph":4281,"waterfall":4282,"dens":4283,"ĠSimple":4284,"ĠSizesrcValidator":4285,"hoice":4286,"etasrcValidator":4287,"tickmode":4288,"sizesrc":4289,"dataValidator":4290,"ÑģÑĤ":4291,"grid":4292,"datasrcValidator":4293,"density":4294,"Category":4295,"hostname":4296,"Ġwrapper":4297,"run":4298,"regex":4299,"ceit":4300,"ubl":4301,"fixup":4302,"Encoder":4303,"Object":4304,"VisibleValidator":4305,"ail":4306,"inexponentValidator":4307,"ĠId":4308,"step":4309,"ĠVisibleValidator":4310,"Path":4311,"ao":4312,"ture":4313,"ĠProject":4314,"ourse":4315,"Ġresult":4316,"anding":4317,"Decoder":4318,"Ġbasename":4319,"colorscale":4320,"densitymapbox":4321,"eed":4322,"align":4323,"MaxpointsValidator":4324,"equal":4325,"icator":4326,"ĠMaxpointsValidator":4327,"ackage":4328,"Ġdescription":4329,"ignsrcValidator":4330,"ĠAuthor":4331,"egendrank":4332,"egendrankValidator":4333,"Ġwarnings":4334,"aaxis":4335,"baxis":4336,"coords":4337,"choroplethmapbox":4338,"cent":4339,"Code":4340,"Color":4341,"ipp":4342,"random":4343,"Ġide":4344,"logs":4345,"Ġweb":4346,"Ġproduct":4347,"write":4348,"Not":4349,"Ġrandom":4350,"Ġ/":4351,"ĠUserAdmin":4352,"pie":4353,"Reader":4354,"parcats":4355,"outside":4356,"lengthsrcValidator":4357,"ĠIndex":4358,"compile":4359,"ordercolorsrcValidator":4360,"Marker":4361,"Boto":4362,"off":4363,"abstract":4364,"Ġlike":4365,"news":4366,"ÑĤÐµ":4367,"DateField":4368,"dumps":4369,"mber":4370,"based":4371,"parcoords":4372,"36":4373,"Ġmd":4374,"series":4375,"ĠPol":4376,"'},<":4377,"Lib":4378,"½Ð¸":4379,"enc":4380,"lead":4381,"stamp":4382,"heel":4383,"editor":4384,"Ġ###":4385,"ocial":4386,"0227":4387,"Ġ14":4388,"callback":4389,"022701":4390,"AD":4391,"ench":4392,"Ġtranslate":4393,"articles":4394,"USER":4395,"ating":4396,"Ġsign":4397,"Input":4398,"Ġfl":4399,"dirname":4400,"BordercolorValidator":4401,"ypto":4402,"adata":4403,"ĠApp":4404,"ĠBordercolorValidator":4405,"olin":4406,"portfolio":4407,"Ġ12":4408,"UserAdmin":4409,"orderwidthValidator":4410,"TokenValidator":4411,"Ġnamespace":4412,"ĠTokenValidator":4413,"====":4414,"Ġ1996":4415,"find":4416,"Ġ\"\"":4417,"lob":4418,"lines":4419,"Ġhttp":4420,"gistr":4421,"ĠLine":4422,"umn":4423,"FI":4424,"ĠAccount":4425,"ocation":4426,"indicator":4427,"Ġ...]<":4428,"headers":4429,"oreConfig":4430,"projects":4431,"Ġuuid":4432,"infosrcValidator":4433,"violin":4434,"Com":4435,"OT":4436,"num":4437,"asic":4438,"ĠEx":4439,"Hello":4440,"search":4441,"led":4442,"ĠID":4443,"cre":4444,"commen":4445,"chat":4446,"38":4447,"FamilysrcValidator":4448,"thickness":4449,"ĠCl":4450,"ĠFamilysrcValidator":4451,"axes":4452,"templateValidator":4453,"formats":4454,"ĠWeb":4455,"familysrc":4456,"XXXX":4457,"categ":4458,"ĠMy":4459,"authtoken":4460,"ĠYYY":4461,"ĠYYYY":4462,"ym":4463,"Ġtwisted":4464,"Ġrecommen":4465,"commer":4466,"ĠPret":4467,"Ġversions":4468,"ĠÐ´":4469,"ĠAdd":4470,"=[<":4471,"Ġrecommended":4472,"ĠPretend":4473,"IANA":4474,"ĠConfig":4475,"ctive":4476,"tom":4477,"ModelViewSet":4478,"Ġ440":4479,"ntifiers":4480,"ParseFloat":4481,"Ġidentifiers":4482,"Ġpermiss":4483,"ĠSer":4484,"Ġ[\".":4485,"hovertemplate":4486,"colorscaleValidator":4487,"number":4488,"__'<":4489,"Ġtable":4490,"hoices":4491,"notes":4492,"ValueValidator":4493,"kt":4494,"Ġtodo":4495,"abel":4496,"Blog":4497,"POST":4498,"hl":4499,"Ġ16":4500,"au":4501,"urity":4502,"Ġdj":4503,"Ġdeprecated":4504,"templatesrcValidator":4505,"labelstep":4506,"funnelarea":4507,"utlinecolorValidator":4508,"bstractUser":4509,"dj":4510,"tod":4511,"ĠQuestion":4512,"acy":4513,"elery":4514,"Format":4515,"Ð¾Ð²":4516,"connect":4517,"commerce":4518,"=['":4519,"mb":4520,"phone":4521,"ĠÑ":4522,"annotation":4523,"Api":4524,"rf":4525,"sk":4526,"sent":4527,"Ġ\"+":4528,"ipes":4529,"books":4530,"case":4531,"gap":4532,"orn":4533,"enValidator":4534,"ref":4535,"ĠTOM":4536,"Ġlil":4537,"Ð°ÑĤ":4538,"legendValidator":4539,"bottom":4540,"ĠTOML":4541,"li":4542,"vies":4543,"ĠCourse":4544,"Ġparse":4545,"tomli":4546,"/'},<":4547,"hoverformat":4548,"canonicalize":4549,"rad":4550,"Ġpathlib":4551,"Auto":4552,"raint":4553,"cart":4554,"sn":4555,"alled":4556,"CreateModel":4557,"Ġprice":4558,"ĠMarker":4559,"honeNumber":4560,"egendgroupValidator":4561,"howscaleValidator":4562,"raintree":4563,"Book":4564,"uuid":4565,"Info":4566,"ĠUserChangeForm":4567,"Ġgenerate":4568,"TO":4569,"dated":4570,"req":4571,"location":4572,"ayment":4573,"timezone":4574,"note":4575,"Meta":4576,"]),<":4577,"gle":4578,"Ġresponse":4579,"Ġconfiguration":4580,"={":4581,">>":4582,"warn":4583,"cover":4584,"ĠNe":4585,"outline":4586,"attrs":4587,"typing":4588,"Ġen":4589,"otstr":4590,"super":4591,"compat":4592,"SERVER":4593,"website":4594,"ĠLoginViewSet":4595,"otstrap":4596,"23":4597,"Ð½":4598,"delet":4599,"__)<":4600,"ĠTag":4601,"param":4602,"TION":4603,"Delete":4604,"ĠValueValidator":4605,"\\.":4606,"unique":4607,"tasks":4608,"ĠConfiguration":4609,"SideValidator":4610,"Ġq":4611,"rop":4612,"ĠSideValidator":4613,"ĠMo":4614,"filters":4615,"ĠTemplateView":4616,"Toml":4617,"wt":4618,"cel":4619,"strict":4620,"TokenConfig":4621,"lower":4622,"Gener":4623,"itys":4624,"updated":4625,"eriod":4626,"Distribution":4627,"az":4628,"ach":4629,"Tests":4630,"viding":4631,"ĠSignup":4632,"enchmark":4633,"Ġar":4634,"Ġprimary":4635,"Read":4636,"contours":4637,"Ð¾Ð»":4638,"ientationValidator":4639,"minusValidator":4640,"ency":4641,"**":4642,"]+":4643,"left":4644,"edia":4645,"www":4646,"ROOT":4647,"ceita":4648,"'):<":4649,"gen":4650,"Subplot":4651,"Ð¾Ð±":4652,"Update":4653,"Link":4654,"aker":4655,"lint":4656,"Ġrouters":4657,"meta":4658,"Ġ15":4659,"wkt":4660,"ario":4661,"aceref":4662,"sport":4663,"proj":4664,"templateitemname":4665,"----":4666,"TemplateitemnameValidator":4667,"ĠTemplateitemnameValidator":4668,"deletion":4669,"Factory":4670,"ios":4671,"Ð¿":4672,"Ġimage":4673,"digits":4674,"(),<":4675,"EL":4676,"da":4677,"ose":4678,"ĠApi":4679,"Ġour":4680,"ĠLibrary":4681,"gleValidator":4682,"BA":4683,"One":4684,"Sh":4685,"lsConfig":4686,"Ġinstance":4687,"ĠContact":4688,"generator":4689,"'^":4690,".',<":4691,"enmodeValidator":4692,"icated":4693,"ĠColor":4694,"Ġwidget":4695,"Ġorder":4696,"Ġstudent":4697,"quirement":4698,"utlinewidthValidator":4699,"gistration":4700,".\")<":4701,"ssl":4702,"Ġpassword":4703,"Ġ11":4704,"Ġ\\\\":4705,")(\\\\":4706,"??":4707,"UirevisionValidator":4708,"uirevision":4709,"ãĥ":4710,"__(_":4711,"(\"~":4712,"ĠUirevisionValidator":4713,"Ġ13":4714,"Ġrequests":4715,"Ð¸Ñģ":4716,"AngleValidator":4717,"ĠTomlOrdered":4718,"OrderedDict":4719,"ippet":4720,"24":4721,"Do":4722,"Equal":4723,"Fill":4724,"employee":4725,"alog":4726,"ros":4727,"ition":4728,"utom":4729,"Ġcre":4730,"tool":4731,"ĠFill":4732,"images":4733,"ference":4734,"links":4735,"Dtype":4736,"stick":4737,"icorn":4738,"ĠActive":4739,"Result":4740,"Ġoff":4741,"'''<":4742,"ĠSignupViewSet":4743,"Ġauthor":4744,"security":4745,"Codec":4746,"Group":4747,"Library":4748,"Twisted":4749,"candle":4750,"jwt":4751,"classes":4752,"cour":4753,"ĠCoreConfig":4754,"verter":4755,"ĠValue":4756,"'])<":4757,"ToMany":4758,"candlestick":4759,"ansport":4760,"Ġpd":4761,"ĠSec":4762,"Ġprovider":4763,"TemplateView":4764,"crud":4765,"ManyToMany":4766,"ManyToManyField":4767,"ohl":4768,"Ġfla":4769,"ĠAn":4770,"serv":4771,"unicorn":4772,"items":4773,"Ġdict":4774,"Ġviewsets":4775,"urrency":4776,"company":4777,"position":4778,"Ġ>>>":4779,"Tools":4780,"ÑĢÐ°Ð":4781,"ohlc":4782,"djang":4783,"kes":4784,"required":4785,"Ġpoints":4786,"ĠÐ½":4787,"utorial":4788,"ĠPollsConfig":4789,"findall":4790,"$',":4791,"46":4792,"Ġel":4793,"att":4794,"Ġpage":4795,"ish":4796,"hool":4797,"Ġdtype":4798,"secret":4799,"center":4800,"CO":4801,"rand":4802,"})(\\\\":4803,"ãģ":4804,"ĠĠĠĠĠ":4805,"learning":4806,"stframework":4807,"Ġtoken":4808,"MODEL":4809,"providing":4810,"Ġlocale":4811,"Web":4812,"ob":4813,"Ġfunc":4814,"ĠSeries":4815,"verbose":4816,"authentication":4817,"autocolorscale":4818,"ount":4819,"Ġbook":4820,"compiler":4821,"Ġsigning":4822,"dash":4823,"ids":4824,"acao":4825,"orestframework":4826,"bootstrap":4827,"Users":4828,"ThicknessValidator":4829,"dflt":4830,"gre":4831,"scaleValidator":4832,"places":4833,"ĠThicknessValidator":4834,"untry":4835,"Ġdocumentation":4836,"Ġdflt":4837,"##\",":4838,"##\",<":4839,"ĠOpenAPI":4840,"assertEqual":4841,"SubplotidValidator":4842,"djangorestframework":4843,"PH":4844,"Title":4845,"lack":4846,"light":4847,"vals":4848,"},":4849,"Ġ6":4850,"angu":4851,"ĠCh":4852,"amb":4853,"front":4854,"ĠÐ²":4855,"ĠNote":4856,"helloapp":4857,"ĠEnvironment":4858,"Comment":4859,"full":4860,"__\":":4861,"otive":4862,"envs":4863,"AUTH":4864,"srid":4865,"Environment":4866,"Ġqs":4867,"34":4868,"bum":4869,"blogs":4870,"factory":4871,"twisted":4872,"win":4873,"____":4874,"Ġdocument":4875,"ĠRoom":4876,"UserCreationForm":4877,"Ġ2019":4878,"])[":4879,"Ġpreserve":4880,"#\",<":4881,"Grid":4882,"QU":4883,"ton":4884,"yproject":4885,"allauth":4886,"ĠCar":4887,"Ġmodules":4888,"tickval":4889,"tickvals":4890,"###\",<":4891,"TickvalsValidator":4892,"TickvalssrcValidator":4893,"ĠTickvalsValidator":4894,"ĠTickvalssrcValidator":4895,"tickvalssrc":4896,"Bar":4897,"RedisCache":4898,"Todo":4899,"cm":4900,"cimal":4901,"eded":4902,"\",\"":4903,"ĠSeparateBodyFileCache":4904,"layer":4905,"SeparateBodyFileCache":4906,"Ġmethod":4907,"\")]<":4908,"ĠEnum":4909,"delta":4910,"\"),":4911,"-####":4912,"31":4913,"?)":4914,"JE":4915,"TickwidthValidator":4916,"Value":4917,"dtick":4918,"tickw":4919,"acitys":4920,"ĠTickwidthValidator":4921,"bout":4922,"ĠIs":4923,"Ġstore":4924,"dists":4925,"idthsrcValidator":4926,"usic":4927,"honeNumberProvider":4928,"tickwidth":4929,"(.*":4930,"Permiss":4931,"Package":4932,"aur":4933,"dtype":4934,"zer":4935,"ãĤ":4936,"round":4937,"hell":4938,"ÐµÑĤ":4939,"Ġusage":4940,"metadata":4941,"ĠApiConfig":4942,"/%":4943,"more":4944,"middle":4945,"pep":4946,"publ":4947,"Ġkwargs":4948,"oria":4949,"enticated":4950,"Conf":4951,"ĠAB":4952,"ĠAuto":4953,"unit":4954,"ification":4955,"tickcolor":4956,"tickformat":4957,"ticklen":4958,"address":4959,"0006":4960,"EnabledValidator":4961,"TickcolorValidator":4962,"TickformatValidator":4963,"TicklenValidator":4964,"ĠTickcolorValidator":4965,"ĠTickformatValidator":4966,"ĠTicklenValidator":4967,"Ġcompiler":4968,"ĠEnabledValidator":4969,"pointcloud":4970,"JECT":4971,"\"[']":4972,"mac":4973,"ti":4974,"itive":4975,"utc":4976,"tra":4977,"ather":4978,"Enum":4979,"ĠSignUp":4980,"ĠHomePageView":4981,"[']\",":4982,"?)[']\",":4983,"(.*?)[']\",":4984,"\"['](.*?)[']\",":4985,"Act":4986,"DtickValidator":4987,"End":4988,"NticksValidator":4989,"Open":4990,"nect":4991,"Ġ\"\\":4992,"ĠTitle":4993,"ntick":4994,"ility":4995,"ĠDtickValidator":4996,"ĠNticksValidator":4997,"ĠRest":4998,"movie":4999,"ticktext":5000,"tickprefix":5001,"ticksuffix":5002,"ticktextsrc":5003,"TicktextValidator":5004,"TicktextsrcValidator":5005,"TickprefixValidator":5006,"TicksuffixValidator":5007,"ĠTicktextValidator":5008,"ĠTicktextsrcValidator":5009,"ĠTickprefixValidator":5010,"ĠTicksuffixValidator":5011,"Ġ\"\"]),<":5012,"Ġpermissions":5013,"labelstepValidator":5014,"nticks":5015,"'.":5016,"/\"<":5017,"Ph":5018,"sin":5019,"social":5020,"ider":5021,"otics":5022,"ations":5023,"Converter":5024,"dbotics":5025,"ĠCreated":5026,"Ġlabel":5027,"Ġ17":5028,"Student":5029,"\")),<":5030,"BBBBBBBB":5031,"rowdbotics":5032,"RunPython":5033,"Frame":5034,"lacklist":5035,"zaxis":5036,"reverses":5037,"Ġfont":5038,"tric":5039,"ReversescaleValidator":5040,"ĠReversescaleValidator":5041,"tickangle":5042,"TickangleValidator":5043,"ĠTickangleValidator":5044,"Ð¾ÑĢ":5045,"legacy":5046,"configuration":5047,"CreateView":5048,"Author":5049,"reversescale":5050,"vert":5051,"ĠEmployee":5052,"Ġpylint":5053,"anguage":5054,"HOST":5055,"Upload":5056,"ZValidator":5057,"air":5058,"basic":5059,"che":5060,"Ñĩ":5061,"separatethousand":5062,"demo":5063,"Ġsender":5064,"Ġfr":5065,"Ġ[(\"":5066,"service":5067,"ĠComp":5068,"Ġdump":5069,"ĠLe":5070,"space":5071,"ORE":5072,"ĠSeparatethousandsValidator":5073,"fixture":5074,"nels":5075,"SeparatethousandsValidator":5076,"Tickfont":5077,"TicksValidator":5078,"ĠTickfont":5079,"ĠTicksValidator":5080,"showticklabels":5081,"ĠShowticklabelsValidator":5082,"ShowticklabelsValidator":5083,"ĠZValidator":5084,"separatethousands":5085,"))":5086,"PA":5087,"TYPE":5088,"hop":5089,"Ðº":5090,"Ġ$":5091,"rename":5092,"ural":5093,"Ġ'%":5094,"ĠTime":5095,"ĠNumber":5096,"imit":5097,"Ġneeded":5098,"Login":5099,"ĠTestCase":5100,"ĠClient":5101,"Ġenum":5102,"BgcolorsrcValidator":5103,"MetasrcValidator":5104,"border":5105,"plication":5106,"ĠMetasrcValidator":5107,"host":5108,"ĠBgcolorsrcValidator":5109,"ĠReview":5110,"eting":5111,"ĠHist":5112,"Ġ18":5113,"ĠMetaValidator":5114,"ÑĢÐµÐ":5115,"ĠCustomdataValidator":5116,"ĠCustomdatasrcValidator":5117,"customdata":5118,"customdat":5119,"bgcolorsrc":5120,"CustomdataValidator":5121,"CustomdatasrcValidator":5122,"metasrc":5123,"MetaValidator":5124,"Ġcreating":5125,"customdatasrc":5126,"Comp":5127,"nome":5128,"person":5129,"}}":5130,"Ġpl":5131,"metric":5132,"collect":5133,"Ġstatus":5134,"SSSS":5135,"Ġgunicorn":5136,"ĠREAD":5137,"Permission":5138,"=[\"":5139,"MinexponentValidator":5140,"UidValidator":5141,"eq":5142,"primary":5143,"__'":5144,"real":5145,"report":5146,"Ġssl":5147,"come":5148,"minexponent":5149,"ĠMinexponentValidator":5150,"coloraxis":5151,"ĠUidValidator":5152,"eca":5153,"aff":5154,"Tickformatstop":5155,"ĠTickformatstop":5156,"legendonly":5157,"crypto":5158,"recipes":5159,"ĠService":5160,"Activ":5161,".\"":5162,"29":5163,"BJECT":5164,"wik":5165,"Ġextend":5166,"review":5167,"Ġcustom":5168,"='',":5169,"ĠOBJECT":5170,"Ġ10000":5171,"sym":5172,"ffset":5173,"ATA":5174,"partment":5175,"ĠAccountsConfig":5176,"ĠREADME":5177,"Is":5178,"LegendrankValidator":5179,"float":5180,"Ġinitial":5181,"idssrc":5182,"Ġrec":5183,"Ġbraintree":5184,"ĠLegendrankValidator":5185,"ched":5186,"Textfont":5187,"Ġcol":5188,"ĠEvent":5189,"AlignsrcValidator":5190,"ĠVER":5191,"ĠTextfont":5192,"legendrank":5193,"IdsValidator":5194,"IdssrcValidator":5195,"ĠHello":5196,"ĠAlignsrcValidator":5197,"ĠIdsValidator":5198,"ĠIdssrcValidator":5199,"alignsrc":5200,"/{":5201,"<<":5202,"HE":5203,"PRO":5204,"wo":5205,"Ġ50":5206,"acher":5207,"upport":5208,"ĠSystem":5209,"ptions":5210,"shop":5211,"timestamp":5212,"avor":5213,"leted":5214,"photo":5215,"CRE":5216,"NB":5217,"btain":5218,"body":5219,"mod":5220,"rl":5221,"namelength":5222,"Ġ''":5223,"unselected":5224,"okup":5225,"Ġstrict":5226,"shape":5227,"extensions":5228,"exttemplateValidator":5229,"categories":5230,"ĠHistory":5231,"fe":5232,"Ġrouter":5233,"ĠĠĠĠčĊ":5234,"utton":5235,"Ġphone":5236,"ĠCateg":5237,"ĠData":5238,"ested":5239,"AlterModel":5240,"Ġany":5241,"Ġcoreapi":5242,"(?":5243,"BordercolorsrcValidator":5244,"ai":5245,"gau":5246,"|\\.":5247,"ĠÑģ":5248,"Ġresource":5249,"ingle":5250,"enda":5251,"Ġ#####":5252,"Ġnum":5253,"ĠBordercolorsrcValidator":5254,"ĠResponse":5255,"oline":5256,"ĠIma":5257,"Ġ09":5258,"NamelengthsrcValidator":5259,"Ð¾Ð´":5260,"ĠNamelengthsrcValidator":5261,"Decimal":5262,"bordercolorsrc":5263,"ĠMovie":5264,"ĠSecret":5265,"ĠfontTools":5266,"NBit":5267,"namelengthsrc":5268,"gauge":5269,"GN":5270,"Slug":5271,"Tag":5272,"Task":5273,"choices":5274,"mat":5275,"pplication":5276,"Ġabout":5277,"stalled":5278,"isdir":5279,"Ġ'\\":5280,"ĠAbout":5281,"teams":5282,"velop":5283,"ODO":5284,"olist":5285,"Ġstub":5286,"Ġ05":5287,"libr":5288,"Message":5289,"weet":5290,"BASE":5291,"course":5292,"Activator":5293,",##\",":5294,"ba":5295,"bv":5296,"easy":5297,"sv":5298,"ÑĨ":5299,"session":5300,"ars":5301,"standing":5302,"Ġpagination":5303,"Ġtask":5304,"ialaxis":5305,"owValidator":5306,"positions":5307,"lectedpointsValidator":5308,"radialaxis":5309,"aurant":5310,"Categ":5311,"Options":5312,"Pagination":5313,"scal":5314,"shows":5315,"cont":5316,"access":5317,"0007":5318,"ĠUserSerializer":5319,"ĠUserProfile":5320,"ĠĠĠĠĠĠĠĠĠĠ":5321,"connection":5322,"catalog":5323,"customer":5324,"RenameModel":5325,"FloatField":5326,"ailable":5327,"$<":5328,"58":5329,"BorderwidthValidator":5330,"CminValidator":5331,"CmaxValidator":5332,"Home":5333,"cmin":5334,"cmax":5335,"orages":5336,"Ġredistribution":5337,"odis":5338,"ĠCminValidator":5339,"ĠCmaxValidator":5340,"ĠLund":5341,"ĠFred":5342,"ĠBorderwidthValidator":5343,"ĠGrid":5344,"rik":5345,"Ġ2002":5346,"ĠAdded":5347,"ĠLabs":5348,"job":5349,"Ġ1997":5350,"todos":5351,"Ġstudents":5352,"Ġelt":5353,"borderwidth":5354,"ĠImaging":5355,"SlugField":5356,"ĠLundh":5357,"ĠFredrik":5358,"({":5359,"Choice":5360,"PR":5361,"Render":5362,"element":5363,"ftime":5364,"render":5365,"ĠView":5366,"ĠĠĠĠĠĠ":5367,"ara":5368,"Ġautom":5369,"lict":5370,"PDATE":5371,"Address":5372,"Ġcontained":5373,"ĠTodoSerializer":5374,"Ġurlconf":5375,"Ð»Ñı":5376,"Framework":5377,"½Ð¸Ðµ":5378,"odiscover":5379,"CmidValidator":5380,"CautoValidator":5381,"Te":5382,"XConverter":5383,"pix":5384,"Ð·":5385,"Ġ!":5386,"member":5387,"apt":5388,"Ġcr":5389,"Ġcat":5390,"ĠCmidValidator":5391,"ĠCautoValidator":5392,"ĠMedia":5393,"ĠGet":5394,"ĠGroup":5395,"TTXConverter":5396,"moot":5397,"Ġ100":5398,"fraction":5399,"hoverinfos":5400,"reak":5401,"HoverinfosrcValidator":5402,"ĠHoverinfosrcValidator":5403,"angularaxis":5404,"Positive":5405,"students":5406,"insidetextfont":5407,"cmid":5408,"hoverinfosrc":5409,")/":5410,"55":5411,"Note":5412,"oauth":5413,"Ġapps":5414,"Ġta":5415,"edDict":5416,"strings":5417,"strftime":5418,"filename":5419,"offset":5420,"\"/":5421,"67":5422,"My":5423,"done":5424,"go":5425,"ground":5426,"ima":5427,"sal":5428,"texttemplate":5429,"arr":5430,"Ġcontrol":5431,"ĠUPDATE":5432,"(\"-\",":5433,"websocket":5434,"HovertemplateValidator":5435,"ĠHovertemplateValidator":5436,"Checks":5437,"Geo":5438,"ĠĠĠĠĠĠĠĠĠĠĠĠĠĠĠĠĠĠĠĠĠĠĠĠĠĠĠĠĠĠĠĠ":5439,"2019":5440,"Ġframework":5441,"Ġresources":5442,"GNORE":5443,"Simple":5444,"XOR":5445,"_.":5446,"bu":5447,"brow":5448,"tuple":5449,"xes":5450,"yect":5451,"plural":5452,"lex":5453,"ĠPackage":5454,"urlresolver":5455,"0228":5456,"okie":5457,"ĠIGNORE":5458,"ĠUse":5459,"Ġadmins":5460,"Ġformats":5461,"ĠXOR":5462,"usedfor":5463,"Ġurlresolver":5464,"ĠOnConf":5465,"pytestmark":5466,"ikes":5467,"Ġdumps":5468,"Ġ'''<":5469,"022801":5470,"usedforsecurity":5471,"ĠOnConflict":5472,"\"))<":5473,"59":5474,"XanchorValidator":5475,"na":5476,"nippet":5477,"xanchor":5478,"learn":5479,"utes":5480,"Ġav":5481,"ift":5482,"movies":5483,"Install":5484,"hovertext":5485,"Ġlogic":5486,"ĠListableAPIResource":5487,"ixins":5488,"ĠXanchorValidator":5489,"STATU":5490,"Ġstacklevel":5491,"ankProvider":5492,"HovertextValidator":5493,"ĠHovertextValidator":5494,"simplejwt":5495,"AutocolorscaleValidator":5496,"={<":5497,"outlinecolor":5498,"ĠAutocolorscaleValidator":5499,"pixels":5500,"AbstractUser":5501,"DATA":5502,"On":5503,"boto":5504,"esc":5505,"Ġenv":5506,"receita":5507,"otal":5508,"Ġsimple":5509,"Ġcelery":5510,"Ġdir":5511,"ials":5512,"Ġ{}<":5513,"ResourceReader":5514,"ĠOrderedDict":5515,"ĠResourceReader":5516,"39":5517,"Found":5518,"Location":5519,"OutlinecolorValidator":5520,"YanchorValidator":5521,"caxis":5522,"hash":5523,"public":5524,"ram":5525,"yanchor":5526,"Ġ9":5527,"abular":5528,"tributes":5529,"izeref":5530,"ĠForm":5531,"eature":5532,"Ġrange":5533,"ĠOutlinecolorValidator":5534,"Ġstorages":5535,"scm":5536,"TextsrcValidator":5537,"Ġ07":5538,"ĠTextsrcValidator":5539,"ĠYanchorValidator":5540,"ĠÐº":5541,"slider":5542,"Ġposts":5543,"Authenticated":5544,"ÐµÐ»":5545,"Article":5546,"HovertemplatesrcValidator":5547,"ĠHovertemplatesrcValidator":5548,"ĠShowValidator":5549,"ShowValidator":5550,"menu":5551,"ColorscaleValidator":5552,"hovertemplatesrc":5553,"library":5554,"abularInline":5555,"COM":5556,"LI":5557,"Table":5558,"ark":5559,"receiver":5560,"registration":5561,"header":5562,"ĠAbstractUser":5563,"ĠCo":5564,"Ġwheel":5565,"ixpath":5566,"Ġ{}":5567,"BaseCommand":5568,"ĠEasy":5569,"ĠBaseCommand":5570,"img":5571,"foo":5572,"INE":5573,"mployees":5574,"ĠMainConfig":5575,"ĠMessage":5576,"ĠIDs":5577,"ĠÐ´Ð»Ñı":5578,"mbers":5579,"AlterModelOptions":5580,"Ġtaken":5581,"ĠEasyInstall":5582,"((":5583,"BLO":5584,"LL":5585,"LenValidator":5586,"Password":5587,"ek":5588,"asn":5589,"\",)":5590,"ypass":5591,"Ġbypass":5592,"ĠLenValidator":5593,"ĠPage":5594,"frame":5595,"modulepath":5596,"showlegend":5597,"ĠShowlegendValidator":5598,"ShowlegendValidator":5599,"otiveProvider":5600,"araco":5601,"STATUS":5602,"\"[-":5603,"MA":5604,"WS":5605,"fresh":5606,"__\"<":5607,"Ġinto":5608,"Ġinput":5609,"ĠTODO":5610,"Ġfilename":5611,"ĠPerson":5612,"params":5613,"Ġtrack":5614,"Ġcanonicalize":5615,"ÐµÐ½":5616,"relative":5617,"Ġvalidate":5618,"2017":5619,"superuser":5620,"]+\")<":5621,"Ġ503":5622,"DecimalField":5623,"Ġ!=":5624,"_.]+\")<":5625,"yecto":5626,"\"[-_.]+\")<":5627,"LegendgroupValidator":5628,"Ne":5629,"QT":5630,"ShowscaleValidator":5631,"XpadValidator":5632,"YpadValidator":5633,"rant":5634,"xpad":5635,"Ñħ":5636,"Ġtt":5637,"cli":5638,"ypad":5639,"ibility":5640,"ĠShowscaleValidator":5641,"ĠCol":5642,"endpoint":5643,"ĠLegendgroupValidator":5644,"hovertextsrc":5645,"Ġtimezone":5646,"Ð¾ÑĤ":5647,"ĠYpadValidator":5648,"ĠXpadValidator":5649,"CACHE":5650,"Ġcontains":5651,"generated":5652,"HovertextsrcValidator":5653,"ĠHovertextsrcValidator":5654,"clean":5655,"precate":5656,"orders":5657,"outsidetextfont":5658,"MarkerValidator":5659,"ĠMarkerValidator":5660,"showscale":5661,"!<":5662,"\"^":5663,"44":5664,"ear":5665,"keditor":5666,"ll":5667,"music":5668,"pub":5669,"tc":5670,"}),":5671,"Ð´":5672,"Ġk":5673,"anner":5674,"dent":5675,"Ġ'_":5676,"coun":5677,"Ġckeditor":5678,"present":5679,"Ġcount":5680,"Ġ06":5681,"indow":5682,"actor":5683,"Ġglob":5684,"Ġparam":5685,"CATION":5686,"NotFound":5687,"ymbo":5688,"published":5689,"node":5690,"rie":5691,"Ð¼":5692,"enable":5693,"Ġmatch":5694,"hold":5695,"mailsender":5696,"change":5697,"oll":5698,"artValidator":5699,"ticket":5700,"lineValidator":5701,"functools":5702,"ension":5703,"gridValidator":5704,"GET":5705,"exttemplatesrcValidator":5706,"periodValidator":5707,"IndexView":5708,"lugin":5709,"celery":5710,"ĠVERSION":5711,"PositiveIntegerField":5712,"EX":5713,"Sc":5714,"migration":5715,"net":5716,"pth":5717,"warnings":5718,"send":5719,"staff":5720,"close":5721,"cookie":5722,"ĠCelery":5723,"ists":5724,"ĠDo":5725,"comments":5726,"ĠUp":5727,"Ġ08":5728,"Ġattributes":5729,"Ð¸ÑĤÐµ":5730,"overwrite":5731,"URLField":5732,"cloudinary":5733,"ĠREST":5734,"ĠNews":5735,"ĠRestFramework":5736,"ca":5737,"eu":5738,"elf":5739,"ful":5740,"feed":5741,"git":5742,"tutorial":5743,"}/\"<":5744,"orientation":5745,"alc":5746,"anim":5747,"develop":5748,"make":5749,"ĠLocation":5750,"Ġits":5751,"Ġanim":5752,"checkout":5753,"Ġgo":5754,"ĠPostAdmin":5755,"ĠDeferred":5756,"Ġurllib":5757,"ĠAuthTokenConfig":5758,"ĠModelForm":5759,"Ð»ÑĮ":5760,"rfc":5761,"ĠRestFrameworkConfig":5762,"ĠDeferredError":5763,"33":5764,"limit":5765,"ran":5766,"Ġlead":5767,"atibility":5768,"opic":5769,"(\"%":5770,"ĠSource":5771,"Ġbenchmark":5772,"__(*":5773,"ĠGH":5774,"LOCATION":5775,"ensure":5776,"AuthTokenConfig":5777,"========":5778,"Ġaround":5779,"99":5780,">'''<":5781,"By":5782,"FU":5783,"benchmark":5784,"blacklist":5785,"document":5786,"eto":5787,"xValidator":5788,"yValidator":5789,"}\"<":5790,"revision":5791,"icy":5792,"adas":5793,"ĠTe":5794,"('/":5795,"minus":5796,"Ġlink":5797,"Ġlibrary":5798,"versions":5799,"ckeditor":5800,"ORT":5801,"river":5802,"Ġevent":5803,"ĠOrientationValidator":5804,"listing":5805,"ÐµÑĢ":5806,"OrientationValidator":5807,"Axes":5808,"alignment":5809,"ĠAddress":5810,"dashboard":5811,"ambda":5812,"47":5813,"48":5814,"Attribute":5815,"AWS":5816,"RY":5817,"down":5818,"ess":5819,"var":5820,"Ġupdated":5821,"stock":5822,"Ġpos":5823,"Ġmixins":5824,"edInline":5825,"Ġsite":5826,"ado":5827,"Connect":5828,"Ġlambda":5829,"latest":5830,"ĠRec":5831,"ugin":5832,"Ġbooks":5833,"grad":5834,"COL":5835,"scaled":5836,"ĠMediaStorage":5837,"DATABASE":5838,"ED":5839,"ises":5840,"jti":5841,"payment":5842,"wer":5843,"plotlib":5844,"accept":5845,"ates":5846,"ĠChoice":5847,"Ġcontact":5848,"Ġ21":5849,"ORI":5850,"food":5851,"Details":5852,"Ġgeom":5853,"ALIAS":5854,"secure":5855,"Renderer":5856,"Ġdirname":5857,"43":5858,"45":5859,"8000":5860,":`":5861,"Crowdbotics":5862,"DB":5863,"button":5864,"hand":5865,"oo":5866,"ÐĿ":5867,"atar":5868,"reg":5869,"Ġtod":5870,"example":5871,"ĠStr":5872,"Ġbeca":5873,"Ġ22":5874,"Ġaccount":5875,"Ġfilters":5876,"ĠModules":5877,"ĠModulesConfig":5878,"ĠNew":5879,"ĠDataFrame":5880,"imag":5881,"escap":5882,"Ġglobal":5883,"Ġbecause":5884,"250":5885,"IL":5886,"LenmodeValidator":5887,"No":5888,"OutlinewidthValidator":5889,"Size":5890,"ÐŁ":5891,"onValidator":5892,"asing":5893,"ĠSize":5894,"tock":5895,"Ġ##":5896,"ĠLenmodeValidator":5897,"ĠOutlinewidthValidator":5898,"Ġallow":5899,"lenmode":5900,"ltk":5901,"umnValidator":5902,"refresh":5903,"outlinewidth":5904,"Ġordering":5905,"Ġflake":5906,"ĠChat":5907,"acitysrcValidator":5908,"Employee":5909,"bers":5910,"pec":5911,"yn":5912,"Ġarticles":5913,"orld":5914,"ale":5915,"__)":5916,"transport":5917,"Ġcategory":5918,"ormal":5919,"elcome":5920,"mentario":5921,"lock":5922,"Ġtool":5923,"imens":5924,"amer":5925,"Ġfieldsets":5926,"Ġ04":5927,"myapp":5928,"ĠProductSerializer":5929,"ĠOpenId":5930,"owner":5931,"codecs":5932,"################":5933,"ĠTomlEncoder":5934,"ĠTomlDecoder":5935,"TomlEncoder":5936,"TomlDecoder":5937,"ĠTomlOrderedEncoder":5938,"ĠTomlOrderedDecoder":5939,"Results":5940,"QUE":5941,"macros":5942,"Ð»ÑĮÑĤ":5943,"ENG":5944,"Event":5945,"Room":5946,"_%":5947,"rg":5948,"vers":5949,"ward":5950,"wheel":5951,"Ġad":5952,"Ġqu":5953,"mpl":5954,"Ġremove":5955,"popul":5956,"ĠSh":5957,"Ġcopy":5958,"minal":5959,"acker":5960,"fieldsets":5961,"Ġ((\"":5962,"ĠRegex":5963,"Enter":5964,"parsers":5965,"Ġ'__'<":5966,"configure":5967,"Ġworld":5968,".*',":5969,"Generator":5970,"achment":5971,"Ð¾Ð»ÑĮ":5972,"vertise":5973,"BLOB":5974,"imaginary":5975,"card":5976,"df":5977,"numpy":5978,"namespace":5979,"stand":5980,"djangoProject":5981,"Ġ'*~":5982,"Ġ'.*',":5983,"Ġinside":5984,"Ġunit":5985,"Ð°Ð²":5986,"ĠAuthentication":5987,"oft":5988,"DeleteModel":5989,"wiki":5990,"CRET":5991,"Ġ'*~']<":5992,">\\":5993,"Grant":5994,"IP":5995,"Mo":5996,"be":5997,"eroline":5998,"rows":5999,"stud":6000,"ctest":6001,"Ġdefine":6002,"autodiscover":6003,"Register":6004,"ternet":6005,"='(":6006,"()'<":6007,"Ġ{})":6008,"FileField":6009,"TICE":6010,"ordering":6011,"gapValidator":6012,"FillValidator":6013,"ĠFillValidator":6014,"urrencyProvider":6015,"lighting":6016,"ĠNumberFormat":6017,"moothing":6018,"COMPI":6019,"ĠUpdate":6020,"gradient":6021,"imension":6022,"'re":6023,"Co":6024,"Lab":6025,"Offset":6026,"Union":6027,"`.<":6028,"fil":6029,"freq":6030,"nack":6031,"rink":6032,"slic":6033,"}:":6034,"mem":6035,"Ġfull":6036,"ateway":6037,"minor":6038,"Ġbody":6039,"ĠCart":6040,"Ġdecimal":6041,"=''),<":6042,"='\\\\":6043,"Textarea":6044,"ĠURLs":6045,"REGE":6046,"Ġcompatibility":6047,"localhost":6048,"Ġgevent":6049,"NUM":6050,"ĠExtension":6051,"ĠCustomUserCreationForm":6052,"})',":6053,"ĉĉĉĉ":6054,"Ġwidgets":6055,"ĠActiveLink":6056,"symbo":6057,"='(\\\\":6058,"REGEX":6059,"Application":6060,"Di":6061,"GHE":6062,"PhoneNumberProvider":6063,"dimension":6064,"pic":6065,"}.<":6066,"Ġz":6067,"Ġutc":6068,"ĠĠĠĠĠĠĠĠĠĠĠĠĠĠĠĠĠĠĠ":6069,"atplotlib":6070,"med":6071,"Ġperiod":6072,"icial":6073,"Ġmark":6074,"ops":6075,"Ġres":6076,"Ġsure":6077,"gether":6078,"ĠAxes":6079,"ulo":6080,"(''))<":6081,"thread":6082,"logger":6083,"cha":6084,"profiles":6085,"adding":6086,"shift":6087,"Ġgr":6088,"ĠCreateableAPIResource":6089,"Ð¾ÑģÑĤ":6090,"Ġidx":6091,"120":6092,"ĠYou":6093,"Ġ\"%#":6094,"ÐµÐ´":6095,"Ġcharacter":6096,"HIGHE":6097,"recipe":6098,"ceitas":6099,"Ġproducts":6100,"½Ð¸Ñı":6101,"TOCOL":6102,"--------":6103,"PROTOCOL":6104,"ĠAboutPageView":6105,"ÑĨÐ¸":6106,"esso":6107,"ENGINE":6108,"ĠRegexObject":6109,"COMPILED":6110,"HIGHEST":6111,"$\",":6112,")))<":6113,"35":6114,"Own":6115,"drop":6116,"tadata":6117,"Ġurls":6118,"asure":6119,"ĠdjangoProject":6120,"ĠClo":6121,"izz":6122,"irth":6123,"SECRET":6124,"ĠBo":6125,"ares":6126,"ĠEmp":6127,"Ġmetadata":6128,"ĠListView":6129,"untime":6130,"quirements":6131,"Trans":6132,"Ð¸Ð¼":6133,"ĠÐ¿ÑĢ":6134,"skip":6135,"ĠHelloappConfig":6136,"}),)":6137,"holder":6138,">/<":6139,"From":6140,"IO":6141,"Source":6142,"TabularInline":6143,"UT":6144,"ked":6145,"Ġensure":6146,"enge":6147,"less":6148,"Ġper":6149,"Ġmyproject":6150,"Ġfavor":6151,"Ġsort":6152,"(\".\")<":6153,"Consumer":6154,"Ġcall":6155,"allenge":6156,"Review":6157,"ĠFaker":6158,"protocol":6159,"BasePermission":6160,"Ġ03":6161,"ĠEnd":6162,"ĠRich":6163,"widthsrc":6164,"Ġhelloapp":6165,"Ġpermission":6166,"skill":6167,"gapsValidator":6168,"ĠCompany":6169,"positionsrcValidator":6170,"Ġavailable":6171,"\",)}),)":6172,"/(?":6173,"Emp":6174,"HTTP":6175,"Plugin":6176,"Wr":6177,"bre":6178,"uff":6179,"ative":6180,"arse":6181,"leep":6182,"Ġthere":6183,"Ġreplace":6184,"Ġshow":6185,"Ġsnippet":6186,"exists":6187,"ĠStock":6188,"Ġdif":6189,"Ġconsum":6190,"ĠNOTICE":6191,"Ġ-<":6192,"outstanding":6193,"ogle":6194,"subpackage":6195,"Ġnews":6196,"archive":6197,"THOD":6198,"')],":6199,"ĠDeprecated":6200,"Ð°Ð·":6201,"038":6202,"ĠModelViewSet":6203,"rooms":6204,"liance":6205,"Ġofficial":6206,"collection":6207,"outstandingtoken":6208,",)<":6209,"ImportError":6210,"PORT":6211,"WidthsrcValidator":6212,"myproject":6213,"ood":6214,"zauto":6215,"Ġke":6216,"Ġlearning":6217,"select":6218,"ortfolio":6219,"album":6220,"anual":6221,"Ġpri":6222,"urist":6223,"Ġvinfo":6224,"Contact":6225,"ĠPagesConfig":6226,"ollow":6227,"METHOD":6228,"ĠWidthsrcValidator":6229,"DefaultRouter":6230,"ĠTypeValidator":6231,"TypeValidator":6232,"scripts":6233,"bins":6234,"raises":6235,"ĠModelSerializer":6236,"reshape":6237,"OpenId":6238,"\"}<":6239,"Att":6240,"FOR":6241,"Obtain":6242,"WOR":6243,"ait":6244,"cors":6245,"day":6246,"ecommerce":6247,"mit":6248,"nested":6249,"ts":6250,"reverse":6251,"repr":6252,"Ġpubl":6253,"yper":6254,"scrib":6255,"Ġhand":6256,"ĠBaseConfig":6257,"ĠGenerate":6258,"ARE":6259,"ART":6260,"ĠÐ·":6261,"Ġ\\<":6262,"ToOne":6263,"ĠCustomer":6264,"diag":6265,"OneToOne":6266,"Endpoint":6267,"51":6268,"</":6269,"EMA":6270,"OP":6271,"XsrcValidator":6272,"matrix":6273,"mios":6274,"xsrc":6275,"Ġ}":6276,"atValidator":6277,"arios":6278,"Ġ\"(":6279,"Ġmatplotlib":6280,"Ġfloat":6281,"ĠFeed":6282,"Ġprojects":6283,"TextInput":6284,"ticklabelstep":6285,"Ġprofile":6286,"activ":6287,"authorization":6288,"TicklabelstepValidator":6289,"ĠTicklabelstepValidator":6290,"cutter":6291,"Ġmeta":6292,"ĠXsrcValidator":6293,"stdout":6294,"Ġdataclasses":6295,"wrong":6296,"fillcolor":6297,"ĠÑĩ":6298,"Ġgenerates":6299,"ĠSignUpView":6300,"Only":6301,"izerefValidator":6302,"limited":6303,"Ġleading":6304,"Ð¾Ð»ÑĮÐ·":6305,"Ġunittest":6306,"ĠActiveLinkManager":6307,"OneToOneField":6308,"Ag":6309,"Pair":6310,"kit":6311,"nom":6312,"sort":6313,"ons":6314,"deprecate":6315,"apture":6316,"geometry":6317,"ura":6318,"Ġfactory":6319,"constr":6320,"ĠCheck":6321,"ĠOut":6322,"packed":6323,"Ġdoesn":6324,"Ġpkgutil":6325,"ĠTodoConfig":6326,"ĠLinksConfig":6327,"ĠActiveSession":6328,"________":6329,"ches":6330,"Categorical":6331,"browser":6332,"ĠUseful":6333,"dentials":6334,"ObtainPair":6335,"EMAIL":6336,"'{":6337,".###":6338,"Le":6339,"Version":6340,"hoto":6341,"landing":6342,"normal":6343,"pg":6344,"some":6345,"sample":6346,"shell":6347,"xperiod":6348,"Ġ)":6349,"ĠÑĤ":6350,"decimal":6351,"Ġfreq":6352,"ĠPhoneNumberProvider":6353,"ysrc":6354,"Ġ{{":6355,"kernels":6356,"NumberPagination":6357,"ĠGeneric":6358,"ugue":6359,"updatemenu":6360,"Ġtesting":6361,"column":6362,"Ġ2018":6363,"pikes":6364,"ĠCustomUserChangeForm":6365,"peps":6366,"adastro":6367,"essoa":6368,"WORD":6369,"Car":6370,"ELD":6371,"Fla":6372,"Of":6373,"Th":6374,"duto":6375,"like":6376,"pickle":6377,"rap":6378,"usu":6379,"roll":6380,"ital":6381,"replace":6382,"stations":6383,"Ġsave":6384,"Ġinstalled":6385,"Rec":6386,"Ġdelete":6387,"SET":6388,"hared":6389,"ired":6390,"Ġ32":6391,"pyi":6392,"flakes":6393,"complete":6394,"Ġword":6395,"Ġutility":6396,"Ð²ÐµÐ´":6397,"placeholder":6398,"ĠUserProfileInfo":6399,"aptcha":6400,"developer":6401,"Ġgoes":6402,"}:{":6403,"METHODS":6404,"41":6405,">-":6406,"BankProvider":6407,"CR":6408,"Cr":6409,"YsrcValidator":6410,"cor":6411,"oint":6412,"pe":6413,"total":6414,"¹ÑĤÐµ":6415,"ĠJSON":6416,"ĠÐ¸":6417,"erValidator":6418,"lsrcValidator":6419,"Ġmer":6420,"Ġmap":6421,"kward":6422,"ackward":6423,"Ġvat":6424,"ingroup":6425,"Ġcmd":6426,"('_":6427,"lookup":6428,"ĠNa":6429,"Ġnltk":6430,"Reference":6431,"umb":6432,"Ġtoml":6433,"ipon":6434,"Autom":6435,"agent":6436,"antity":6437,"egacy":6438,"qdm":6439,"ĠWe":6440,"0010":6441,"INSTALLED":6442,"Ð°ÑĨÐ¸":6443,"Ġauthentication":6444,"Ġexecute":6445,"noop":6446,"compliance":6447,"ĠYsrcValidator":6448,"pike":6449,"ĠLabel":6450,"generics":6451,"ĠSimpleTestCase":6452,"LibError":6453,"Ġ###\",<":6454,"FILE":6455,"creasing":6456,"ĠÑĦ":6457,"superclass":6458,"Generic":6459,"Ġflags":6460,"realaxis":6461,"reportlab":6462,"GeoAdmin":6463,"ĠttLib":6464,"ORIZ":6465,"slices":6466,"53":6467,"CS":6468,"Can":6469,"CON":6470,"IQUE":6471,"month":6472,"numer":6473,"tweet":6474,"insert":6475,"head":6476,"coes":6477,"',{'":6478,"ĠSc":6479,"Ġcalled":6480,"uni":6481,"ĠCr":6482,"ĠDate":6483,"Refresh":6484,"ĠUserConfig":6485,"20210":6486,"UNIQUE":6487,"video":6488,"redient":6489,"Chat":6490,"ÑĥÐ":6491,"2600":6492,"yptogr":6493,"Uploading":6494,"0382":6495,"1000":6496,"54":6497,"57":6498,"Account":6499,"Bo":6500,"Maker":6501,"Out":6502,"TexttemplateValidator":6503,"bel":6504,"ting":6505,"yield":6506,"Ġ00":6507,"ortener":6508,"Ġpol":6509,"Ġperson":6510,"Ġfollow":6511,"cond":6512,"apple":6513,"ĠTexttemplateValidator":6514,"unicode":6515,"ĠDAT":6516,"Requirement":6517,"Ġexample":6518,"Ġextra":6519,"challenge":6520,"SSWORD":6521,"ĠSearch":6522,"Ġeach":6523,"layoutstyle":6524,"ĠVAT":6525,"help":6526,"listValidator":6527,"SIG":6528,"Ġsubject":6529,"DIS":6530,"routing":6531,"'],":6532,"ĠPyTrie":6533,"ready":6534,"restaurant":6535,"NULL":6536,"=[('":6537,"trieve":6538,"ĠHomeConfig":6539,"ÑģÑĤÑĢ":6540,"ĠQuestionAdmin":6541,"snippet":6542,"Ġarr":6543,"****":6544,"Ð¾Ð±Ð°Ð²":6545,"FillcolorValidator":6546,"ĠFillcolorValidator":6547,"ĠServiceMaker":6548,"({\"":6549,"counter":6550,"elfont":6551,"ResultsView":6552,"Owner":6553,"Ġreplacement":6554,"ĠDATrie":6555,"*.":6556,"42":6557,"RM":6558,"Support":6559,"ULT":6560,"break":6561,"dtypes":6562,"tables":6563,"{{":6564,"Ġusername":6565,"ĠQu":6566,"Ġsome":6567,"exe":6568,"Ġinlines":6569,"Ġcut":6570,"Ġdocs":6571,"ignment":6572,"024":6573,"mart":6574,"ONT":6575,"ĠEmpty":6576,"Ġproj":6577,"actice":6578,"ĠWorld":6579,"Ġtimedelta":6580,"Ġpyasn":6581,"RES":6582,"Ð¾Ðº":6583,"StackedInline":6584,"ongo":6585,"Ġsuccess":6586,"uctions":6587,"ĠLogout":6588,"ĠLinkSerializer":6589,"XXXXXXXX":6590,"ĠAnchor":6591,"PASSWORD":6592,"chedule":6593,"DATABASES":6594,"ynam":6595,"ĠAuthenticationConfig":6596,"untimeError":6597,"ObtainPairView":6598,"+)/":6599,"/')<":6600,"90":6601,"Pattern":6602,"Payment":6603,"XhoverformatValidator":6604,"YhoverformatValidator":6605,"eh":6606,"ja":6607,"jpg":6608,"kits":6609,"oin":6610,"vate":6611,"xhoverformat":6612,"yhoverformat":6613,"ĠIt":6614,"Ġcolorbar":6615,"ĠÑĥ":6616,"rott":6617,"requirements":6618,"igh":6619,"Ġsec":6620,"traceref":6621,"ntax":6622,"Ġcls":6623,"Ġauto":6624,"Ġdrop":6625,"iff":6626,"irs":6627,"chars":6628,"amount":6629,"ĠSelectedpointsValidator":6630,"SelectedpointsValidator":6631,"ĠOracleDatabaseFeatures":6632,"caches":6633,"openid":6634,"ĠYhoverformatValidator":6635,"ĠTraceref":6636,"ĠXhoverformatValidator":6637,"ĠAdvertise":6638,"ĠProductsConfig":6639,"Traceref":6640,"ipeObject":6641,"faq":6642,"Getter":6643,"ÑĮÑĤÐµ":6644,"selectedpoints":6645,"both":6646,"weather":6647,"minussrcValidator":6648,"ColorBar":6649,"ymmetric":6650,"ReadOnly":6651,"ĠColorBar":6652,"toolkits":6653,"services":6654,"WebApp":6655,"TextfontValidator":6656,"ĠTextfontValidator":6657,"Ġautomatic":6658,"ymbolsrcValidator":6659,"amera":6660,"imaginaryaxis":6661,"ORIZONT":6662,"RefreshView":6663,"ĠAdvertisement":6664,"ymmetricValidator":6665,"ORIZONTAL":6666,"PL":6667,"TA":6668,"ValidationError":6669,"bus":6670,"copy":6671,"drf":6672,"ema":6673,"fbv":6674,"osed":6675,"td":6676,"ĠčĊ":6677,"desc":6678,"iding":6679,"Ġ\".":6680,"hes":6681,"Ġcateg":6682,"served":6683,"Ġbank":6684,"house":6685,"irm":6686,"Reset":6687,"LETE":6688,"resa":6689,"ĠPhone":6690,"SSL":6691,"Ġproper":6692,"Ġchat":6693,"firstApp":6694,"Ġ>=":6695,"ĠDetail":6696,"extra":6697,"ĠProductViewSet":6698,"Ġbackends":6699,"methods":6700,"ÐµÐº":6701,"ÐµÐ½Ð¸Ðµ":6702,"udge":6703,"Ġworks":6704,"UpdateView":6705,"SimpleTestCase":6706,"New":6707,"cookiecutter":6708,"izza":6709,"ynamic":6710,"Manual":6711,"UD":6712,"_(":6713,"ayp":6714,"ban":6715,"brand":6716,"camera":6717,"ove":6718,"sd":6719,"single":6720,"tic":6721,"ures":6722,"venv":6723,"}\")<":6724,"ato":6725,"arrow":6726,"__',":6727,"otBase":6728,"ypy":6729,"extern":6730,"terminal":6731,"ĠTh":6732,"ibly":6733,"maked":6734,"thing":6735,"ĠMin":6736,"Ġ##\",<":6737,"Ġcont":6738,"ĠLay":6739,"verify":6740,"sparse":6741,"ĠRequirement":6742,"qui":6743,"school":6744,"TrueType":6745,"BaseTTXConverter":6746,"##-":6747,"ĠBaseTTXConverter":6748,"arraysrc":6749,"fonts":6750,"agram":6751,"disable":6752,"rio":6753,"Ġemp":6754,"ĠStoreConfig":6755,"':')<":6756,"ĠĠĠĠĠĠĠĠčĊ":6757,"Ð¸Ð»ÑĮÑĤ":6758,"BBB":6759,"completed":6760,"Ġlookup":6761,"ALLOWED":6762,"Ð°Ð½Ð¸Ðµ":6763,"ĠDistributionNotFound":6764,"Chap":6765,"ĠCustomUserAdmin":6766,"callibrary":6767,"ipping":6768,"Ġwebsite":6769,"ĠIndexError":6770,"ĠExample":6771,"cells":6772,"ĠÐ½Ð°":6773,"IsAuthenticated":6774,"<<<<":6775,"oauthlib":6776,"cleanup":6777,"memory":6778,"asurement":6779,"Ġdifference":6780,"AutomotiveProvider":6781,"Ġautomatically":6782,"aypal":6783,"makedirs":6784,"Ð¸Ð»ÑĮÑĤÑĢ":6785,"/$',":6786,"CATE":6787,"Label":6788,"USE":6789,"Window":6790,"bal":6791,"bit":6792,"bile":6793,"csv":6794,"cadastro":6795,"hg":6796,"kip":6797,"rate":6798,"vas":6799,"inject":6800,"roy":6801,"stagram":6802,"geode":6803,"ĠMatt":6804,"pose":6805,"poss":6806,"ĠBoolean":6807,"022600":6808,"ugh":6809,"Ġpresent":6810,"Ġrunshell":6811,"lists":6812,"illing":6813,"ffer":6814,"readlines":6815,"ĠPostsConfig":6816,"Ġworking":6817,"Ġspecification":6818,"gram":6819,"localtime":6820,"AxisError":6821,"Ġhelloworld":6822,"Ð¸Ðº":6823,"events":6824,"ĠWebappConfig":6825,"HOSTS":6826,"continu":6827,"uniq":6828,"geodetic":6829,"!\")<":6830,"/'),<":6831,"Char":6832,"Course":6833,"Ensure":6834,"PART":6835,"XaxisValidator":6836,"YaxisValidator":6837,"city":6838,"cast":6839,"jax":6840,"jaraco":6841,"lon":6842,"likes":6843,"multi":6844,"pandas":6845,"pagination":6846,"sing":6847,"ssert":6848,"two":6849,"}'<":6850,"Ñİ":6851,"Ġmpl":6852,"invo":6853,"annels":6854,"ionary":6855,"restrict":6856,"icao":6857,"ispy":6858,"Ġfig":6859,"yperiod":6860,"Ġrequirement":6861,"(\".\"":6862,"typeValidator":6863,"above":6864,"ĠTopic":6865,"ĠAutom":6866,"',)":6867,"ĠSSSSS":6868,"('*.":6869,"unity":6870,"istr":6871,"Ġact":6872,"ayload":6873,"temp":6874,"umns":6875,"chart":6876,"ixture":6877,"())":6878,"fileobj":6879,"ĠUn":6880,"ONE":6881,"arrayValidator":6882,"arraysrcValidator":6883,"Ġgateway":6884,"LONG":6885,"Ġiterable":6886,"doctest":6887,"ĠYield":6888,"ĠYaxisValidator":6889,"producto":6890,"ĠXaxisValidator":6891,"ĠProductAdmin":6892,"avatar":6893,"Ð°Ð´":6894,"Ð°Ð½":6895,"ĠfirstApp":6896,"ĠTokenRefreshView":6897,"ashValidator":6898,"'''":6899,"ĠAuthorization":6900,"lier":6901,"={\"":6902,"moothingValidator":6903,"ĠUpdateableAPIResource":6904,"Ġthereof":6905,"yperlink":6906,"ointment":6907,"possibly":6908,"continuation":6909,"\".":6910,"\").":6911,">{":6912,"AB":6913,"Person":6914,"Sign":6915,"Url":6916,"master":6917,"ping":6918,"wag":6919,"xml":6920,"zi":6921,"Ġ02":6922,"enre":6923,"plugin":6924,"otel":6925,"ico":6926,"edchars":6927,"Ġsl":6928,"Ġ'''":6929,"ulator":6930,"Ġobtain":6931,"ills":6932,"Ġbackward":6933,"endar":6934,"Ġnd":6935,"ĠFr":6936,"Ġvarious":6937,"Series":6938,"Ġ{!":6939,"Ġ1024":6940,"proto":6941,"fold":6942,"ĠUserViewSet":6943,"Ġgre":6944,"Status":6945,"homepage":6946,"Ġcloud":6947,"Ġlocal":6948,"Transport":6949,"ÐµÐ¼":6950,"aphene":6951,"wraps":6952,"CustomUser":6953,"ĠFirstappConfig":6954,"ĠÐ½Ðµ":6955,"ĠSignUpForm":6956,"ĠTimestamp":6957,"chedul":6958,"ĠCategoria":6959,"Ġcats":6960,"ranch":6961,"Ġposixpath":6962,"ĠString":6963,"escapedchars":6964,"ĠCloud":6965,"wagger":6966,"'})<":6967,"127":6968,"300":6969,"=('":6970,"Cart":6971,"Feed":6972,"ak":6973,"bench":6974,"cbv":6975,"dar":6976,"non":6977,"uffix":6978,"Ġencoding":6979,"__))<":6980,"release":6981,"Ġdjangobench":6982,"Ġfind":6983,"Ġrepresent":6984,"trip":6985,"country":6986,"ada":6987,"ĠSE":6988,"Ġbasic":6989,"Ġbreak":6990,"ĠCrowdbotics":6991,"ĠCARE":6992,"iteDatabaseFeatures":6993,"ĠDec":6994,"irt":6995,"Ġdetail":6996,"ĠBE":6997,"osx":6998,"provider":6999,"transaction":7000,"linecolor":7001,"linewidth":7002,"percent":7003,"unction":7004,"AUTO":7005,"Forms":7006,"These":7007,"iao":7008,"missing":7009,"posixpath":7010,"theta":7011,"100000":7012,"ĠTodoAdmin":7013,"rating":7014,"ĠSQLiteDatabaseFeatures":7015,"Customer":7016,"Ð¸Ð·":7017,"Notes":7018,"Ġ\"\"<":7019,"numba":7020,"ĠMyUser":7021,"auction":7022,"ResultSet":7023,"ÑĢÐ°Ð¼":7024,"LoginView":7025,"personal":7026,"Ġ######\",<":7027,"FUL":7028,"ĠTeacher":7029,"securetransport":7030,"rglob":7031,"media":7032,"Ð²ÐµÐ´Ð¸ÑĤÐµ":7033,"Ġproperly":7034,"(\".\").":7035,"darwin":7036,"ĠCAREFUL":7037,"68":7038,":',":7039,">'''":7040,"PT":7041,"ha":7042,"man":7043,"pict":7044,"swith":7045,"ÑĪ":7046,"Ġquestion":7047,"onto":7048,"ighl":7049,"clus":7050,"cols":7051,"ces":7052,"uniao":7053,"mental":7054,"Ġag":7055,"Ġnome":7056,"LERY":7057,"://{":7058,"Ġlanguage":7059,"tax":7060,"DEPRE":7061,"AdminSite":7062,"Ġemployee":7063,"authors":7064,"UserProfile":7065,"ĠProtocol":7066,"poll":7067,"Ġparams":7068,"ĠConnect":7069,"OrReadOnly":7070,"ĠPostSerializer":7071,"ĠPostForm":7072,"Ð¾Ð¼":7073,"words":7074,"platzi":7075,"writer":7076,"Ð»Ð°":7077,"leads":7078,"Ð°ÑĤÑĮ":7079,"TIONS":7080,"ĠLead":7081,"revisionid":7082,"populated":7083,"Movie":7084,"CATED":7085,"cheduler":7086,"ighlight":7087,"DEPRECATED":7088,"Build":7089,"Choices":7090,"Pr":7091,"Rate":7092,"System":7093,"TSI":7094,"TexttemplatesrcValidator":7095,"VAR":7096,"XPR":7097,"ZsrcValidator":7098,"]{":7099,"eaz":7100,"ning":7101,"nection":7102,"rt":7103,"wal":7104,"xtype":7105,"ytype":7106,"zsrc":7107,"Ġ]":7108,"Ġ01":7109,"ĠÐ¾Ð±":7110,"onen":7111,"memo":7112,"inner":7113,"des":7114,"asite":7115,"itulo":7116,"Ġpprint":7117,"apValidator":7118,"Ġ\"{{":7119,"enter":7120,"opacitys":7121,"Ġslug":7122,"ingValidator":7123,"ĠTexttemplatesrcValidator":7124,"ĠSparse":7125,"Ġcalc":7126,"resnel":7127,"ĠFI":7128,"projection":7129,"ipedia":7130,"ĠOffset":7131,"Ġcountry":7132,"MEXPR":7133,"pathbar":7134,"Ġproto":7135,"addr":7136,"orgrid":7137,"ĠStartValidator":7138,"Ġtraces":7139,"ĠWrap":7140,"StartValidator":7141,"displayed":7142,"modebar":7143,"Ġmovie":7144,"Ġdisable":7145,"Ġ\"%##":7146,"202207":7147,"Ġxp":7148,"showgrid":7149,"Ġjaraco":7150,"while":7151,"Ġ256":7152,"ĠShowgridValidator":7153,"ShowgridValidator":7154,"ĠĠĠĠĠĠĠĠĠĠĠĠĠĠĠĠĠ":7155,"ĠZsrcValidator":7156,"Ð¸Ð¹":7157,"apeValidator":7158,"periodalignment":7159,"ĠHomeView":7160,"ĠLoginView":7161,"Indexer":7162,"gridcolor":7163,"gridwidth":7164,"genre":7165,"Ð¿Ð¸Ñģ":7166,"ĠColorscaleValidator":7167,"lightposition":7168,"GridcolorValidator":7169,"GridwidthValidator":7170,"ÐµÑĤÑĢ":7171,"EndValidator":7172,"symmetric":7173,"ĠGridcolorValidator":7174,"ĠGridwidthValidator":7175,"Ġautomotive":7176,"Ġ100000":7177,"texttemplatesrc":7178,"busc":7179,"ĠEndValidator":7180,"ĠRichText":7181,"FORMAT":7182,"Agg":7183,"uguel":7184,"iffuse":7185,"restrictions":7186,"ispyError":7187,"Ġcloudinary":7188,"ĠDecimal":7189,"periodalignmentValidator":7190,"({'":7191,"@{":7192,"ALT":7193,"Clo":7194,"Legacy":7195,"RI":7196,"Sp":7197,"We":7198,"bud":7199,"}@{":7200,"ÐĶ":7201,"Ġ},<":7202,"Ġroom":7203,"second":7204,"names":7205,"otenv":7206,"Ġpub":7207,"Ġtutorial":7208,"ctor":7209,"expat":7210,"expr":7211,"tracker":7212,"ĠSnack":7213,"Ġaut":7214,"strip":7215,"vember":7216,"ĠBBBBBBBBB":7217,"etree":7218,"agenda":7219,"Ġservice":7220,"ĠRudge":7221,"Ġecommerce":7222,"ĠMembers":7223,"Ġpyexpat":7224,"ribut":7225,"INT":7226,"storefront":7227,"Ġallowed":7228,"CreateAPIView":7229,"Member":7230,"Ġjoin":7231,"ĠNovember":7232,"record":7233,"ĠAlbum":7234,"contacts":7235,"ĠÐ¿Ð°":7236,"Ð½Ñĭ":7237,"BACK":7238,"toolz":7239,"zero":7240,"ĠCategorical":7241,"Flag":7242,"Ġpolls":7243,"ĠCloudinary":7244,",\"":7245,"Direct":7246,"ES":7247,"Min":7248,"aint":7249,"gress":7250,"long":7251,"uction":7252,"yntax":7253,"Ġage":7254,"meetup":7255,"role":7256,"anime":7257,"otos":7258,"edu":7259,"ope":7260,"Ġ'-":7261,"Ġaf":7262,"ĠisPath":7263,"patient":7264,"ickname":7265,"ĠPants":7266,"ĠFla":7267,"boolean":7268,"herit":7269,"quiz":7270,"quantity":7271,"ĠOAuth":7272,"Ġhandler":7273,"labelfont":7274,"sync":7275,"Ġuniv":7276,"Ġunpacked":7277,"Ġ327":7278,"ideo":7279,"Default":7280,"Ġprepopulated":7281,"ĠÐ¼":7282,"ĠNotes":7283,"history":7284,"helloworld":7285,"Ġhomepage":7286,"TokenGenerator":7287,"arguments":7288,"Ġtemp":7289,"mernote":7290,"ĠAll":7291,"todolist":7292,"phonemetadata":7293,"DeleteView":7294,"PHONE":7295,"Ġmethods":7296,"-####\",<":7297,"ĠIsAuthenticated":7298,"Company":7299,"}}\",<":7300,"wikipedia":7301,"Ġcryptogr":7302,"PasswordInput":7303,"tickets":7304,"ĠActiveSessionViewSet":7305,"Ð¾Ð±Ð°Ð²ÑĮÑĤÐµ":7306,"Ġsecret":7307,"ĠAutomotiveProvider":7308,"yperlinked":7309,"ÑĢÐ°Ð¼ÐµÑĤÑĢ":7310,"ĠRichTextUploading":7311,"ĠÐ¿Ð°ÑĢÐ°Ð¼ÐµÑĤÑĢ":7312,"FlaglistValidator":7313,"Ġcryptography":7314,"([\"":7315,"52":7316,";\"<":7317,"Lo":7318,"RING":7319,"Ver":7320,"]))<":7321,"auctions":7322,"bind":7323,"choice":7324,"fact":7325,"has":7326,"ian":7327,"kp":7328,"ng":7329,"sleep":7330,"uz":7331,"yam":7332,"}\"":7333,"Ġple":7334,"Ġ64":7335,"rome":7336,"anies":7337,"department":7338,"__\"":7339,"ionError":7340,"receitas":7341,"star":7342,"ctions":7343,"ĠSp":7344,"cepth":7345,"thumb":7346,"formular":7347,"Ġnow":7348,"Ġwin":7349,"stripe":7350,"ĠPhoto":7351,"ixed":7352,"quot":7353,"DELETE":7354,"Ġ128":7355,"NumberFormat":7356,"UserChangeForm":7357,"Proyecto":7358,"Entry":7359,"Ġpyflakes":7360,"256":7361,"Ð¸ÑĤ":7362,"Ġcompany":7363,"companies":7364,"signin":7365,"Ġgenerics":7366,"Ð¾Ð½":7367,"vali":7368,"gedItem":7369,"Ġsources":7370,"raise":7371,"digit":7372,"ĠJson":7373,"partial":7374,"ĠCommentForm":7375,"FIELD":7376,"compatible":7377,"Ð¿Ð¾Ð»ÑĮÐ·":7378,"Ġcolumn":7379,"airo":7380,"aised":7381,"Ġtodolist":7382,"Ġgraphene":7383,"Ð°Ð·Ð²":7384,"OPTIONS":7385,"Ð°ÑĨÐ¸Ð¸":7386,"rottle":7387,"Ġcategories":7388,"quires":7389,"Ġafter":7390,"yperlinkedModelSerializer":7391,"Ġplease":7392,"cepthook":7393,":%":7394,":\\":7395,"ADIS":7396,"DATE":7397,"ENUM":7398,"FF":7399,"RowValidator":7400,"_<":7401,"blob":7402,"birth":7403,"ci":7404,"gh":7405,"score":7406,"titulo":7407,"Ġext":7408,"Ġupdate":7409,"ĠÐ¸Ñģ":7410,"ĠÑĢÐµÐ":7411,"dest":7412,"Ġ='":7413,"reuniao":7414,"Ġpaypal":7415,"Ġsent":7416,"odeValidator":7417,"isfileobj":7418,"oproject":7419,"Ġschema":7420,"adline":7421,"Ġbban":7422,"Ġam":7423,"loop":7424,"together":7425,"Ġdrf":7426,"colorway":7427,"ĠBankProvider":7428,"char":7429,"lain":7430,"ĠReport":7431,"arrays":7432,"STRING":7433,"OpacitysrcValidator":7434,"CELERY":7435,"ĠRowValidator":7436,"shortener":7437,"ĠĠĠĠĠĠĠĠĠĠĠĠĠĠ":7438,"ffff":7439,"asket":7440,"BackendQT":7441,"rangeselect":7442,"ĠToDo":7443,"Ġgeneric":7444,"tains":7445,"Ġspace":7446,"Ġ512":7447,"ColumnValidator":7448,"ĠLabels":7449,"wrap":7450,"Ġmodify":7451,"###)":7452,"ĠSubplot":7453,"ĠOpacitysrcValidator":7454,"hicknessmodeValidator":7455,"FilterSet":7456,"offValidator":7457,"ĠAccountConfig":7458,"credentials":7459,"categoria":7460,"ĠMyappConfig":7461,"projeto":7462,"???":7463,"courses":7464,"Ġstorefront":7465,"ĠColumnValidator":7466,"ĠRecipe":7467,"configured":7468,"studio":7469,"symbol":7470,"Divider":7471,"miosplatzi":7472,"activate":7473,"nombre":7474,"normalize":7475,"iponaxisValidator":7476,"below":7477,"Ġpersonal":7478,"ĠAnchored":7479,">{<":7480,"opacitysrc":7481,"ĠFlake":7482,"rangeselector":7483,"Like":7484,"ROU":7485,"Social":7486,"currency":7487,"dy":7488,"eer":7489,"fl":7490,"game":7491,"nan":7492,"wait":7493,"Ð¡":7494,"ÐĴ":7495,"Ðĺ":7496,"Ñī":7497,"orum":7498,"inja":7499,"ametr":7500,"decode":7501,"oteca":7502,"click":7503,"Ġ''<":7504,"trial":7505,"ĠApplication":7506,"('-":7507,"illa":7508,"this":7509,"ĠCity":7510,"loc":7511,"ized":7512,"ĠMater":7513,"ĠDi":7514,"Ġdf":7515,"irror":7516,"polic":7517,"ones":7518,"osConfig":7519,"Serializers":7520,"Ġ--":7521,"ModelFactory":7522,"BaseProvider":7523,"ĠBaseProvider":7524,"Ops":7525,"Ġunknown":7526,"Ġserv":7527,"Select":7528,"Ġoption":7529,"Ġchannels":7530,"'])]<":7531,"ventory":7532,"origin":7533,"Ð°Ð½Ð¸Ñı":7534,"ĠBookmark":7535,"Ġsoft":7536,"ĠTokenObtainPairView":7537,"ĠCategoryAdmin":7538,"Products":7539,"merge":7540,"2018":7541,"Ġ80":7542,"Help":7543,"ĠArticlesConfig":7544,"attachment":7545,"greg":7546,".\".":7547,"Ġrecipe":7548,"Ð¾ÑģÑĤÐ¸":7549,"Ġprivate":7550,"Throttle":7551,"ĠÑĦÐ¸Ð»ÑĮÑĤÑĢ":7552,"ssertionError":7553,"onenumber":7554,"ametrize":7555,">\"<":7556,"Buff":7557,"CurrencyProvider":7558,"Job":7559,"Veh":7560,"Wor":7561,"Zeroline":7562,"]|":7563,"bingroup":7564,"cum":7565,"ee":7566,"haz":7567,"ium":7568,"lator":7569,"nunique":7570,"qrt":7571,"xp":7572,"±Ñĥ":7573,"Ġ()<":7574,"attribute":7575,"device":7576,"deprecated":7577,"plates":7578,"itor":7579,"igure":7580,"Ġtho":7581,"Ġ\".\".":7582,"urt":7583,"urve":7584,"Ġfalse":7585,"Ġshared":7586,"Ġ':":7587,"excepthook":7588,"Content":7589,"Ġcor":7590,"ĠCurrencyProvider":7591,"ĠMax":7592,"Ġ####\",<":7593,"veal":7594,"gistic":7595,"ĠPos":7596,"ĠPassword":7597,"iness":7598,"ĠGo":7599,"quote":7600,"ĠOffer":7601,"ĠInc":7602,"ĠUSER":7603,"Ġstd":7604,"dates":7605,"shares":7606,"State":7607,"Start":7608,"dition":7609,"Ġlogout":7610,"Ticks":7611,"groupby":7612,"Ġ...<":7613,"LDER":7614,"Ġparsing":7615,"filterwarnings":7616,"'].":7617,"Ġalready":7618,"Ġinstallation":7619,"ĠDepartment":7620,"resolve":7621,"Headers":7622,"ĠFlatBuff":7623,"rawler":7624,"Ġshutil":7625,"ĠZeroline":7626,"Ð¸Ð½":7627,"Ġpricetag":7628,"GroupBy":7629,"greet":7630,"frontend":7631,"zeroline":7632,"Ġrecipes":7633,"PRI":7634,"browse":7635,"News":7636,"Ġaccounts":7637,"Labels":7638,"FromTicks":7639,"Ġsorted":7640,"Ġconsumers":7641,"ĠGenericForeignKey":7642,"CRUD":7643,"GenericViewSet":7644,"numerify":7645,"202109":7646,"ĠÐ¸ÑģÐ¿Ð¾Ð»ÑĮÐ·":7647,"policy":7648,"Vehicle":7649,"hazmat":7650,"ĠFlatBuffers":7651,"'}<":7652,"((\"":7653,"66":7654,"=\"\"":7655,">[":7656,"Access":7657,"Node":7658,"Please":7659,"Role":7660,"Rich":7661,"Topic":7662,"Wheel":7663,"XT":7664,"dt":7665,"eco":7666,"ised":7667,"language":7668,"ron":7669,"Ġot":7670,"Ġcomment":7671,"Ġabstract":7672,"Ġarchive":7673,"eria":7674,"mean":7675,"inp":7676,"installed":7677,"lean":7678,"state":7679,"Ġtotal":7680,"isual":7681,"Ġrevision":7682,"Ġsignal":7683,"Ġ')<":7684,"ersity":7685,"Ġchoices":7686,"ĠCat":7687,"ending":7688,"ĠFigure":7689,"Ġlanding":7690,"versioneer":7691,"parametrize":7692,"ĠRef":7693,"ĠObject":7694,"Ġyear":7695,"ĠEND":7696,"CES":7697,"dirty":7698,"FormField":7699,"icios":7700,"UserView":7701,"Ġ%}":7702,"Ġsubscrib":7703,"Ġraised":7704,"Ġnever":7705,"cars":7706,"048":7707,"Ġtarbal":7708,"Ġhost":7709,"ĠProducts":7710,"Ġunicodedata":7711,"ATCH":7712,"available":7713,"Ġwords":7714,"Ð°Ð»":7715,"ĠAdminSite":7716,"PageNumberPagination":7717,"ĠExp":7718,"ĠTaggedItem":7719,"toolbar":7720,"servation":7721,"publish":7722,"ĠLearn":7723,"matches":7724,"Teacher":7725,"MyApp":7726,"Script":7727,"usuario":7728,"Ġmerge":7729,"challenges":7730,"ĠJsonResponse":7731,"Ġtarballs":7732,"(['":7733,"56":7734,"Cairo":7735,"Hook":7736,"Haz":7737,"Long":7738,"Models":7739,"PUT":7740,"Tz":7741,"YADIS":7742,"ajax":7743,"cur":7744,"capture":7745,"driver":7746,"favor":7747,"gaps":7748,"gredient":7749,"nail":7750,"scale":7751,"schedule":7752,"ui":7753,"çĶ":7754,"Ġattrs":7755,"sections":7756,"ined":7757,"plic":7758,"reset":7759,"reveal":7760,"idx":7761,"Ġpadding":7762,"icul":7763,"Ġtag":7764,"Ġtuple":7765,"Ġmon":7766,"Ġfhand":7767,"Ġsal":7768,"Ġ'.":7769,"comentario":7770,"acion":7771,"upper":7772,"Ġthem":7773,"ntity":7774,"ĠAutor":7775,"ĠAbstract":7776,"NGTH":7777,"uno":7778,"ther":7779,"ĠCalc":7780,"Ġdone":7781,"Registration":7782,"Ġwant":7783,"LENGTH":7784,"ĠPublic":7785,"textpositions":7786,"requested":7787,"lamb":7788,"calendar":7789,"Ġstock":7790,"Ġ[\"#":7791,"Ġhmac":7792,"estate":7793,"TextpositionsrcValidator":7794,"pendency":7795,"##\"]<":7796,"Ġ<=":7797,"pagewebsite":7798,"ardous":7799,"EnPh":7800,"ListableAPIResource":7801,"ioValidator":7802,"ĠTextpositionsrcValidator":7803,"ĠĠĠĠĠĠĠĠĠĠĠĠĠ":7804,"Ġreadonly":7805,"ĠListing":7806,"#######\",<":7807,"compress":7808,"compose":7809,"ĠSafeText":7810,"uploader":7811,"eneValidator":7812,"market":7813,"showline":7814,"Logout":7815,"PostList":7816,"Unit":7817,"ĠEnPh":7818,"ĠShowlineValidator":7819,"labelsValidator":7820,"ShowlineValidator":7821,"Position":7822,"tzwin":7823,"00000000":7824,"LinecolorValidator":7825,"LinewidthValidator":7826,"Ġproduction":7827,"ĠPolicy":7828,"ADER":7829,"ĠLinecolorValidator":7830,"ĠLinewidthValidator":7831,"FormatWarning":7832,"ĠCourseSerializer":7833,"ĠSecurity":7834,"Ġplugin":7835,"collector":7836,"fehome":7837,"Ġ#######\",<":7838,"google":7839,"ymbol":7840,"ternetProvider":7841,"rinks":7842,"Ġperiods":7843,"Ġkeep":7844,"Attachment":7845,"ĠÑĩÐ¸Ñģ":7846,"Ġprojeto":7847,"bothify":7848,"ĠDetailView":7849,"Ġactual":7850,"Ð°Ð·Ð²Ð°Ð½Ð¸Ðµ":7851,"ĠMaterials":7852,"Ġsoftware":7853,"Hazardous":7854,"TzFormatWarning":7855,"textpositionsrc":7856,"lambda":7857,"'}),<":7858,"/?":7859,">):<":7860,"AIN":7861,"BIN":7862,"Document":7863,"GB":7864,"MULT":7865,"OAuth":7866,"Pol":7867,"PATCH":7868,"ble":7869,"dd":7870,"dr":7871,"duration":7872,"fake":7873,"pics":7874,"rule":7875,"sw":7876,"tst":7877,"ÐĲ":7878,"ÑĦ":7879,"Ġ})<":7880,"ĠÑģÑĤ":7881,"Ġitems":7882,"onal":7883,"arget":7884,"mplab":7885,"implement":7886,"rough":7887,"enum":7888,"Ġportfolio":7889,"lyph":7890,"Ġtst":7891,"Ġsyntax":7892,"ability":7893,"ĠTod":7894,"('^":7895,"mentarios":7896,"Ġbot":7897,"Ġblogs":7898,"ĠCORS":7899,"ĠCount":7900,"hook":7901,"Ġexc":7902,"ĠLo":7903,"='__":7904,"ĠGame":7905,"ODE":7906,"authenticated":7907,"answer":7908,"derr":7909,"filebrowser":7910,"pense":7911,"ough":7912,"CHAR":7913,"TEN":7914,"Ġeven":7915,"workers":7916,"pyasn":7917,"validate":7918,"ĠProfiles":7919,"ĠCreateView":7920,"Ġatt":7921,"legram":7922,"Ġtypes":7923,"1234":7924,"openssl":7925,"complex":7926,"ĠProductConfig":7927,"graph":7928,"practice":7929,"ĠEntry":7930,"expected":7931,"~~~~~~~<":7932,"ĠBlogPost":7933,"ĠAttributeGetter":7934,"CURITY":7935,"ĠQuerySet":7936,"respon":7937,"Ġshop":7938,"('.',":7939,"topic":7940,"Ð¸Ð²":7941,"ĠPoll":7942,"gistry":7943,"cremental":7944,"ĠÑį":7945,"skills":7946,"cases":7947,"snack":7948,"snmplab":7949,"locations":7950,"Ġoffsets":7951,"Photo":7952,"Categoria":7953,"countries":7954,"symbols":7955,"ĠBoard":7956,"diagonal":7957,"Ġfollowing":7958,"protocols":7959,"ROUP":7960,"ĠPosition":7961,"snmplabs":7962,"\"']<":7963,"/#":7964,"/'<":7965,"822":7966,"Abstract":7967,"BValidator":7968,"CL":7969,"Card":7970,"City":7971,"Dest":7972,"END":7973,"FT":7974,"First":7975,"Hidden":7976,"OSM":7977,"Public":7978,"SO":7979,"Some":7980,"SizerefValidator":7981,"Welcome":7982,"Your":7983,"br":7984,"banner":7985,"basket":7986,"ced":7987,"dnt":7988,"ders":7989,"employees":7990,"fn":7991,"final":7992,"gn":7993,"signal":7994,"sIndex":7995,"sizeref":7996,"wd":7997,"ÐĹ":7998,"ĠField":7999,"ora":8000,"atient":8001,"inspect":8002,"depth":8003,"dependency":8004,"__='":8005,"ply":8006,"itter":8007,"rect":8008,"icon":8009,"icros":8010,"Ġtk":8011,"Ġ\"??":8012,"Ġfeature":8013,"Ġrepo":8014,"Ġresol":8015,"export":8016,"aced":8017,"Ġinfer":8018,"Ġindividual":8019,"ulate":8020,"ĠSizerefValidator":8021,"Ġcy":8022,"Ġcors":8023,"Ġbus":8024,"there":8025,"ĠCors":8026,"ĠDa":8027,"ĠDrink":8028,"pool":8029,"Ġnumer":8030,"Ġdecor":8031,"ĠPl":8032,"ĠPeriod":8033,"ĠFR":8034,"bolt":8035,"ĠBValidator":8036,"ĠBol":8037,"ĠNOTE":8038,"ERY":8039,"MET":8040,"olsite":8041,"All":8042,"ĠRole":8043,"ĠRoll":8044,"Ġthen":8045,"sizemode":8046,"Store":8047,"licit":8048,"iaTemplate":8049,"~~~~~~~~~~~~~~~<":8050,"csrftoken":8051,"Timestamp":8052,"Ġschool":8053,"Ġdirectly":8054,"uthy":8055,"playground":8056,"ĠĠĠĠĠĠĠĠĠ":8057,"ÐµÑĢÐµÐ":8058,"ĠRegisterView":8059,"ĠRegisterForm":8060,"ĠPytest":8061,"firstproject":8062,"compare":8063,"staticmethod":8064,"background":8065,"ĠPostViewSet":8066,"ĠTruthy":8067,"Exit":8068,"Ð¾Ð¿":8069,"ĠDevice":8070,"Ġ\"%.###":8071,"theblog":8072,"Ġheaders":8073,"########\",<":8074,"connectgaps":8075,"Ð°ÑĤÐ°":8076,"raintreeError":8077,"ĠMovies":8078,"ĠContactForm":8079,"ĠValueError":8080,"QUERY":8081,"hellActivator":8082,"ĠCliente":8083,"upported":8084,"Ġphones":8085,"ConnectgapsValidator":8086,"escapes":8087,"bershop":8088,"Coun":8089,"Write":8090,"corsheaders":8091,"ĠQuiz":8092,"ResetTokenGenerator":8093,"Ġndim":8094,"ĠÐ½ÐµÐ¾Ð±":8095,"irtual":8096,"ĠConnectgapsValidator":8097,"thumbnail":8098,"miosplatziapp":8099,"Ġthose":8100,"HeadersAppConfig":8101,"Ġattached":8102,"OSMGeoAdmin":8103,"icrosoft":8104,"Ġcorsheaders":8105,"ĠCorsHeadersAppConfig":8106,"boltops":8107,"iaTemplateActivator":8108,"/__":8109,"6749":8110,"86":8111,"HyperlinkedModelSerializer":8112,"Max":8113,"Na":8114,"RuntimeError":8115,"Spec":8116,"Us":8117,"_,":8118,"aio":8119,"css":8120,"cri":8121,"dx":8122,"em":8123,"feature":8124,"gin":8125,"hi":8126,"png":8127,"ru":8128,"ties":8129,"va":8130,"xff":8131,"±Ð»":8132,"Ġplatform":8133,"members":8134,"anc":8135,"named":8136,"enu":8137,"ita":8138,"reviews":8139,"constant":8140,"Ġregex":8141,"Ġsocial":8142,"Ġ'{":8143,"Ġ'':<":8144,"cola":8145,"editable":8146,"ados":8147,"Ġinvalid":8148,"Ġincompatible":8149,"Ġthese":8150,"ibli":8151,"ĠDocument":8152,"ird":8153,"Retrieve":8154,"oney":8155,"Ġdeal":8156,"ĠPY":8157,"ĠPr":8158,"ĠPlay":8159,"defaults":8160,"ourses":8161,"party":8162,"barbershop":8163,"ĠUrl":8164,"etch":8165,"Ġ{})<":8166,"discount":8167,"Ġseries":8168,"lecture":8169,"Demo":8170,"Search":8171,"Tester":8172,"ĠProyecto":8173,"'],<":8174,"\")],<":8175,"nox":8176,"ĠTool":8177,"SIONS":8178,"uploads":8179,"Authentication":8180,"ĠTodoView":8181,"urso":8182,"XXX":8183,"Posts":8184,"boards":8185,">~~~~~~~~~~~~~~~~~~~~~~~<":8186,"joser":8187,"Ġasyncio":8188,"Ġposs":8189,"infura":8190,"iversity":8191,"recent":8192,"2016":8193,"follow":8194,"FilterBackend":8195,"ÑĭÐµ":8196,"empt":8197,"runner":8198,"categor":8199,"Ġdictionary":8200,"ĠRestaurant":8201,"678":8202,"EXTEN":8203,"download":8204,"ApplicationClient":8205,"Ġconsuming":8206,"Ġpublished":8207,"Canvas":8208,"ĠSECURITY":8209,"walker":8210,"Ġautodiscover":8211,"ÐĴÐ²ÐµÐ´Ð¸ÑĤÐµ":8212,"=\"\")<":8213,"Destroy":8214,"iblioteca":8215,"EXTENSIONS":8216,"'}":8217,".')<":8218,".##\",":8219,"97":8220,"=%":8221,"AY":8222,"CB":8223,"Cre":8224,"Empty":8225,"FC":8226,"HO":8227,"RValidator":8228,"Sparse":8229,"Spike":8230,"TZ":8231,"ZER":8232,"].":8233,"]]<":8234,"caps":8235,"dotenv":8236,"eep":8237,"fence":8238,"fli":8239,"mid":8240,"mbox":8241,"pass":8242,"pay":8243,"smoot":8244,"sqrt":8245,"tqdm":8246,"vat":8247,"wild":8248,"window":8249,"welcome":8250,"Ġable":8251,"Ġend":8252,"Ġattr":8253,"atos":8254,"inue":8255,"increasing":8256,"roken":8257,"ante":8258,"decreasing":8259,"reserved":8260,"iditys":8261,"ots":8262,"icip":8263,"Ġtables":8264,"Ġturt":8265,"apes":8266,"Ġ\"##":8267,"gevent":8268,"height":8269,"ising":8270,"opfli":8271,"tract":8272,"getables":8273,"getTable":8274,"terator":8275,"adi":8276,"added":8277,"Ġincremental":8278,"ttLib":8279,"ĠTSI":8280,"ntil":8281,"andoffValidator":8282,"ĠSpike":8283,"ĠCode":8284,"ĠCard":8285,"ĠMail":8286,"Ġ####":8287,"ific":8288,"setitem":8289,"colorsValidator":8290,"strain":8291,"umath":8292,"ĠPart":8293,"ĠPortfolio":8294,"Ġlab":8295,"ĠBackend":8296,"ĠBasic":8297,"spike":8298,"ipro":8299,"ignValidator":8300,"():":8301,"pens":8302,"portal":8303,"ĠHook":8304,"Ġcour":8305,"CHA":8306,"CHO":8307,"artist":8308,"ĠBasePermission":8309,"ientValidator":8310,"titlefont":8311,"ĠRValidator":8312,"libs":8313,"acter":8314,"Ġmail":8315,"sizemin":8316,"ĠWh":8317,"Ġglyph":8318,"ARY":8319,"flake":8320,"styleValidator":8321,"Ġbound":8322,"0012":8323,"DICT":8324,"Ġwhy":8325,"Ð¾Ñĩ":8326,"Ð°Ñĩ":8327,"Ġcompleted":8328,"Ġimplementations":8329,"TypeRouter":8330,"\"):":8331,"asyncgen":8332,"ĠÐĶ":8333,"tesIO":8334,"Ġlock":8335,"ularValidator":8336,"ĠDefault":8337,"QuerySet":8338,"bookstore":8339,"bookinstance":8340,"UUIDField":8341,"ĠOpenType":8342,"ĠOpenSSL":8343,"202208":8344,"ĠBooks":8345,"divider":8346,"docstring":8347,"nessValidator":8348,"Ġweather":8349,"HoverformatValidator":8350,"ĠHoverformatValidator":8351,"whl":8352,"LayerValidator":8353,"Display":8354,"ashboard":8355,"LineValidator":8356,"ĠSimpleRouter":8357,"ĠLineValidator":8358,"ĠServer":8359,"Ġdjongo":8360,"mbientValidator":8361,"ĠCourseFilter":8362,"radient":8363,"Ð¿Ð¾ÑĢ":8364,"ĠÐ²Ñĭ":8365,"unittest":8366,"Ð¾Ð´Ð¸Ð¼":8367,"NBitInt":8368,"contato":8369,"ĠCountry":8370,"ĠComentario":8371,"ĠttFont":8372,"NotFoundError":8373,"School":8374,"stocks":8375,"SizemodeValidator":8376,"SizeminValidator":8377,"ĠSizemodeValidator":8378,"ĠSizeminValidator":8379,"ĠOpenIdAuth":8380,"lesson":8381,"OpenIdAuth":8382,"ĠÐ·Ð°Ð":8383,"CrispyError":8384,"ĠNaT":8385,"ĠSchool":8386,"snippets":8387,"ignmentgroupValidator":8388,"emails":8389,"Ġcontinue":8390,"ĠLayerValidator":8391,"WindowIndexer":8392,"uffixValidator":8393,"auctionlisting":8394,"picture":8395,"ĠProtocolTypeRouter":8396,"resnelValidator":8397,"displayedValidator":8398,"iffuseValidator":8399,"heritance":8400,"Ġ32768":8401,"ĠDivider":8402,"cumcount":8403,"urvey":8404,"ĠotFont":8405,"ĠFigureCanvas":8406,"BINARY":8407,"oughnessValidator":8408,"ĠProfilesConfig":8409,"Ġdecorate":8410,"ĠPytestTester":8411,"ĠÐ½ÐµÐ¾Ð±Ñħ":8412,"aiohttp":8413,"ZERO":8414,"smooth":8415,"Ġturtle":8416,"getTableClass":8417,"5678":8418,"98":8419,"Action":8420,"Brand":8421,"DOM":8422,"Game":8423,"GROUP":8424,"Management":8425,"NY":8426,"Rel":8427,"Socket":8428,"With":8429,"ade":8430,"azy":8431,"crawler":8432,"due":8433,"eople":8434,"fd":8435,"fg":8436,"fetch":8437,"js":8438,"mor":8439,"pc":8440,"udo":8441,"vh":8442,"vot":8443,"zmin":8444,"}-":8445,"³Ð¾":8446,"Ð¢":8447,"ÑĬ":8448,"Ġle":8449,"Ġass":8450,"inst":8451,"inel":8452,"arange":8453,"alf":8454,"ason":8455,"itude":8456,"Ġport":8457,"Ġ\"/":8458,"Ġ\")<":8459,"Ġmath":8460,"Ġmypy":8461,"enth":8462,"iso":8463,"Ġfold":8464,"Ġresp":8465,"Ġrepr":8466,"trics":8467,"adv":8468,"Context":8469,"Ġcss":8470,"Ġforce":8471,"tems":8472,"Ġdesc":8473,"ĠPessoa":8474,"Ġlon":8475,"()).":8476,"ĠImport":8477,"prod":8478,"BaseUser":8479,"ĠUserFactory":8480,"cope":8481,"nsupported":8482,"Listing":8483,"ookie":8484,"ĠHttpRequest":8485,"untu":8486,"ÑĤÐ¾ÑĢ":8487,"Ð¾Ð¹":8488,"ivery":8489,"ĠBookAdmin":8490,"ĠBooksConfig":8491,"bounds":8492,"Ġowner":8493,"MessagesConfig":8494,"datrie":8495,"ĠAnswer":8496,"ĠModelAdmin":8497,"zones":8498,"Mark":8499,"ĠIndexView":8500,"366":8501,"ĠWebApp":8502,"ĠÑĨ":8503,"ApiView":8504,"utcnow":8505,"PACK":8506,"Ġposition":8507,"ĠRecipes":8508,"ÐĿÐ°Ð·Ð²Ð°Ð½Ð¸Ðµ":8509,"populate":8510,"----------------":8511,"uristico":8512,"ÐµÐºÑģÑĤ":8513,"sdk":8514,"ĠÐ¾Ð±ÑĬ":8515,"valiacao":8516,"ĠUSERNAME":8517,"ĠCatalog":8518,"Ġnumeric":8519,"ĠFROM":8520,"DOMAIN":8521,",##\"]<":8522,":-":8523,"AA":8524,"Active":8525,"Blacklist":8526,"Ext":8527,"Fil":8528,"HORIZONTAL":8529,"IST":8530,"JW":8531,"MAL":8532,"Manage":8533,"Publ":8534,"SH":8535,"SymbolsrcValidator":8536,"SymmetricValidator":8537,"TC":8538,"UM":8539,"ZhoverformatValidator":8540,"[<":8541,"braintree":8542,"cq":8543,"fname":8544,"fhand":8545,"gunicorn":8546,"iment":8547,"ivo":8548,"jor":8549,"lte":8550,"mt":8551,"mun":8552,"nz":8553,"pf":8554,"pm":8555,"rent":8556,"rag":8557,"tk":8558,"went":8559,"zhoverformat":8560,"åĲ":8561,"ĠQ":8562,"Ġer":8563,"Ġ:<":8564,"Ġup":8565,"Ġes":8566,"sen":8567,"inx":8568,"arat":8569,"always":8570,"Ġmult":8571,"geek":8572,"clar":8573,"aser":8574,"ypro":8575,"condition":8576,"Ġsum":8577,"Ġsrc":8578,"Ġsleep":8579,"acc":8580,"Ġvalidators":8581,"ĠTabularInline":8582,"ĠSupport":8583,"ĠSpec":8584,"ĠSymbolsrcValidator":8585,"ĠSymmetricValidator":8586,"Ġaxes":8587,"ĠDict":8588,"Ġeditable":8589,"Ġconstr":8590,"Ġna":8591,"ialist":8592,"Ġ2048":8593,"verage":8594,"userprofile":8595,"Ġuid":8596,"imeter":8597,"ĠImp":8598,"esNot":8599,"portunity":8600,"ĠHORIZONTAL":8601,"DES":8602,"##)":8603,"Ġ</":8604,"BigIntegerField":8605,"arrayminu":8606,"arrayminus":8607,"perimeter":8608,"StripeObject":8609,"fixed":8610,"Ġbeh":8611,"valueminus":8612,"ĠRating":8613,"shipping":8614,"egroup":8615,"srs":8616,"ĠStart":8617,"ĠVe":8618,"ĠMember":8619,"Ġrunning":8620,"Sites":8621,"ListAPIView":8622,"Ġclosed":8623,"INCRE":8624,"ĠSitesConfig":8625,"UNSIG":8626,"Ð¾Ðµ":8627,"ArraysrcValidator":8628,"ArrayminusValidator":8629,"ArrayminussrcValidator":8630,"Ġcompress":8631,"ĠGeometries":8632,"ĠArrayValidator":8633,"ĠArraysrcValidator":8634,"ĠArrayminusValidator":8635,"ĠArrayminussrcValidator":8636,"DjangoModelFactory":8637,"signout":8638,"ĠXXXXX":8639,"Exist":8640,"ĠCACHES":8641,"byte":8642,"Method":8643,"CACHES":8644,"avi":8645,"connections":8646,"Ð°Ðº":8647,"ÐµÐ½Ð¸Ñı":8648,"Ġfirstproject":8649,"diameter":8650,"Unique":8651,"why":8652,"ĠTokenBackend":8653,"NED":8654,"BBBBB":8655,"Ġpatterns":8656,"financ":8657,"ĠInterval":8658,"ĠGeoModelAdmin":8659,"1017":8660,"assertIs":8661,"ĠOSMGeoAdmin":8662,"ÑıÐ²":8663,"ĠZhoverformatValidator":8664,"##########\",<":8665,"#########\",<":8666,"ĠTomlError":8667,"ĠProfileAdmin":8668,"ĠStackedInline":8669,"ĠStudentAdmin":8670,"ĠArticleAdmin":8671,"Ġwebdriver":8672,"FILL":8673,"384":8674,"ĠClass":8675,"ĠMyProfile":8676,"Ġ16384":8677,"CreateModelMixin":8678,"]+)/":8679,"ĠValueminusValidator":8680,"ĠAnything":8681,"ãģ®":8682,"Ġ655":8683,"-######\",<":8684,"ValueminusValidator":8685,"OpenLayersWidget":8686,"ÐºÐ°":8687,"ĠEvento":8688,"ĠVERTICAL":8689,"standingToken":8690,"Teams":8691,"aptor":8692,"GeoModelAdmin":8693,"Online":8694,"20171017":8695,"feedback":8696,"ĠStripeObject":8697,"transports":8698,"Ġadaptor":8699,"Ġquote":8700,"oftware":8701,"IPLE":8702,"study":8703,"Ġ\"%#,##\",":8704,"Ġ\"%#.###":8705,"ĠOutstandingToken":8706,"lookups":8707,"tracerefminus":8708,"ĠTracerefValidator":8709,"ĠTracerefminusValidator":8710,"TracerefValidator":8711,"TracerefminusValidator":8712,"invoice":8713,"ontoT":8714,"Ġagenda":8715,"Ġ\"%##,##\",":8716,"ÐĶÐ°ÑĤÐ°":8717,"Ġstdout":8718,"RichTextField":8719,"Ġ[\"#,##\",":8720,"MULTIPLE":8721,"Policy":8722,"12345678":8723,"ĠÑįÑĤ":8724,"symbolsrc":8725,"Ġ\"%.###,##\",":8726,"Ġpossible":8727,"ZEROFILL":8728,"Ġlonger":8729,"BlacklistConfig":8730,"esNotExist":8731,"arrayminussrc":8732,"INCREMENT":8733,"UNSIGNED":8734,"financial":8735,"Ġ65536":8736,"Ġ\"%#.###,##\"]<":8737,"\"})<":8738,"88":8739,">')<":8740,"AC":8741,"Call":8742,"CMeta":8743,"Fl":8744,"Im":8745,"Main":8746,"NPY":8747,"Single":8748,"Top":8749,"Two":8750,"free":8751,"hortener":8752,"next":8753,"nickname":8754,"pri":8755,"pair":8756,"sa":8757,"smart":8758,"tip":8759,"uar":8760,"vocation":8761,"women":8762,"·Ñĥ":8763,"ä¸":8764,"Ġutils":8765,"Ġzones":8766,"sequence":8767,"erec":8768,"invalid":8769,"placed":8770,"reload":8771,"Ġtorn":8772,"Ġtrio":8773,"Ġfeed":8774,"Ġfaker":8775,"Ġrequires":8776,"Ġreplaced":8777,"Ġ',":8778,"exempt":8779,"updat":8780,"Ġ_('":8781,"abac":8782,"ando":8783,"ĠShop":8784,"ĠSnippet":8785,"Ġcsv":8786,"locallibrary":8787,"ĠDirect":8788,"hooks":8789,"ssue":8790,"autor":8791,"teacher":8792,"Ġdev":8793,"ĠFoo":8794,"ĠBy":8795,"ialized":8796,"inema":8797,"uble":8798,"chant":8799,"ourite":8800,"ĠRefresh":8801,"Ġoper":8802,"()]<":8803,"()],<":8804,"DECI":8805,"JSONCodec":8806,"ower":8807,"Ġproxy":8808,"ĠStorage":8809,"Ġunderstand":8810,"MiddlewareStack":8811,"ĠConnection":8812,"ĠURLRouter":8813,"']),":8814,"sume":8815,"Ġlocallibrary":8816,"Together":8817,"Ġmoved":8818,"Ġmovies":8819,"ĠProducto":8820,"ĠOpenID":8821,"avourite":8822,"ÑģÑı":8823,"Animal":8824,"ĠGeneratorConfig":8825,"webapp":8826,"ĠJob":8827,"=[(":8828,"OrderItem":8829,"ĠTestP":8830,"ĠCommonConfig":8831,"ÑıÐ´":8832,"crm":8833,"ĠTaskForm":8834,"ĠTasksConfig":8835,"iked":8836,"ĉĉĉ":8837,"photos":8838,"FIX":8839,"Ð°ÑĤÐµÐ»":8840,"DoesNotExist":8841,"Ġoffset":8842,"HEADER":8843,"Team":8844,"Ġcrud":8845,"Ġ{}'.":8846,"ĠPageNumberPagination":8847,"musica":8848,"EXIST":8849,"('/')<":8850,"Ð»ÑĮÑĤÐ°ÑĤ":8851,"ĠBootstrap":8852,"________________":8853,"ÑĥÐ¹ÑĤÐµ":8854,"SignUp":8855,"PTCHA":8856,"RateThrottle":8857,"buscar":8858,"BACKEND":8859,"Ġservices":8860,"Worker":8861,"ĠGoogle":8862,"20210913":8863,"LogoutView":8864,"Ġtkinter":8865,"Ġresolve":8866,"ĠÐ½ÐµÐ¾Ð±ÑħÐ¾Ð´Ð¸Ð¼":8867,"·ÑĥÐ»ÑĮÑĤÐ°ÑĤ":8868,"erecord":8869,"Ġtornado":8870,"updaterecord":8871,"DECIMAL":8872,")),":8873,")[:":8874,"-##-":8875,"128":8876,"421":8877,";<":8878,"Count":8879,"DxValidator":8880,"DyValidator":8881,"DashValidator":8882,"GRES":8883,"LA":8884,"Loc":8885,"PK":8886,"PhoneNumber":8887,"Range":8888,"SmoothingValidator":8889,"US":8890,"UAGE":8891,"Xperiod":8892,"XperiodValidator":8893,"][":8894,"bid":8895,"billing":8896,"cc":8897,"dur":8898,"etag":8899,"ko":8900,"kta":8901,"manage":8902,"oot":8903,"rstrip":8904,"sreg":8905,"smoothing":8906,"tmp":8907,"tre":8908,"tap":8909,"via":8910,"}\\":8911,"åĪ":8912,"Ġcom":8913,"Ġrow":8914,"ĠÐ¾ÑĤ":8915,"Ġcomments":8916,"iner":8917,"inventory":8918,"alth":8919,"plus":8920,"Ġimports":8921,"reader":8922,"Ġtdi":8923,"Ġtwo":8924,"aper":8925,"Ġ\"-":8926,"Ġ\"################":8927,"clio":8928,"closed":8929,"hem":8930,"Ġfix":8931,"Ġfree":8932,"Ġreplaces":8933,"Ġsay":8934,"Ġsmart":8935,"tracao":8936,"cos":8937,"adValidator":8938,"ersist":8939,"ĠSmoothingValidator":8940,"('='":8941,"allax":8942,"Ġbad":8943,"Ġback":8944,"thproject":8945,"ĠCourses":8946,"endpoints":8947,"ĠDxValidator":8948,"ĠDyValidator":8949,"ĠDashValidator":8950,"Ġdriver":8951,"ptp":8952,"Ġnam":8953,"ĠLoc":8954,"ĠLookup":8955,"Ġdeclar":8956,"LECT":8957,"='')<":8958,"ĠPhoneNumber":8959,"ĠPayment":8960,"ĠPizza":8961,"Ġlimit":8962,"Ġ2000":8963,"yshop":8964,"ANGUAGE":8965,"ouse":8966,"ights":8967,"ightValidator":8968,"DEX":8969,"querysets":8970,"confirm":8971,"linecolorValidator":8972,"linewidthValidator":8973,"aggreg":8974,"LTK":8975,"InLine":8976,"issu":8977,"issue":8978,"worker":8979,"valuessrc":8980,"Ġproviding":8981,"neg":8982,"ĠRu":8983,"ĠRuntimeError":8984,"ĠRFC":8985,"libro":8986,"Ġemployees":8987,"Theta":8988,"posted":8989,"TINY":8990,"ĠUserRegister":8991,"Deprecated":8992,"director":8993,"direction":8994,"pylint":8995,"colorm":8996,"ĠTextInput":8997,"groups":8998,"subplot":8999,"Ġoptional":9000,"INDEX":9001,"ĠTheta":9002,"######\",<":9003,"routes":9004,"Ð°ÐµÑĤ":9005,"ÑĤÐ°":9006,"overlay":9007,"Ġ['-":9008,"']]<":9009,"Ġ2016":9010,"firstapp":9011,"newyear":9012,"suario":9013,"anagers":9014,"rangebreak":9015,"ĠXperiod":9016,"ĠXperiodValidator":9017,"sliding":9018,"Ð¾Ð¶":9019,"ÑĢÐ°":9020,"Ġlines":9021,"generate":9022,"todoapp":9023,"TokenGrant":9024,"startswith":9025,"Ġstarts":9026,"Ġjob":9027,"ursive":9028,"encod":9029,"customs":9030,"NEW":9031,"categoryarray":9032,"categoryarraysrc":9033,"leton":9034,"ĠCategoryarrayValidator":9035,"ĠCategoryarraysrcValidator":9036,"ĠInteger":9037,"0909":9038,"howspikes":9039,"1621":9040,"fillpattern":9041,"ÑģÑĤÐ²":9042,"CategoryarrayValidator":9043,"CategoryarraysrcValidator":9044,"thicknessValidator":9045,"ĠWebsite":9046,"POSTGRES":9047,"phones":9048,"snProvider":9049,"ropa":9050,"ĠValuesValidator":9051,"ĠValuessrcValidator":9052,"obtain":9053,"ĠNoteSerializer":9054,"ValuesValidator":9055,"ValuessrcValidator":9056,"Ġcolumns":9057,"ĠSystemExit":9058,"ChoiceField":9059,"goclio":9060,"20190909":9061,"Ġ{}\".":9062,"europa":9063,"versation":9064,"standoff":9065,"UTC":9066,"ĠRichTextField":9067,"Writer":9068,"construct":9069,"people":9070,"USED":9071,"Ġsliding":9072,"clusive":9073,"taxation":9074,"ributions":9075,"Directory":9076,"ĠRichTextUploadingField":9077,"formulario":9078,"colorwayValidator":9079,"irrorValidator":9080,"Scripts":9081,"ymbolValidator":9082,"HiddenInput":9083,"ĠDavid":9084,"8628":9085,"Ġlabels":9086,"CHOI":9087,"}-[":9088,"Ġfolder":9089,"EXISTS":9090,"howspikesValidator":9091,"#-":9092,".\",":9093,"60":9094,">========":9095,"About":9096,"Bound":9097,"Bear":9098,"CODE":9099,"DR":9100,"Del":9101,"Function":9102,"GO":9103,"MIN":9104,"SN":9105,"Used":9106,"ause":9107,"band":9108,"dab":9109,"four":9110,"gender":9111,"ienda":9112,"lw":9113,"mul":9114,"pur":9115,"say":9116,"shared":9117,"zilla":9118,"Ã¡":9119,"Ð¹":9120,"Ġio":9121,"Ġplay":9122,"Ġabc":9123,"ĠÐ¸Ð·":9124,"ats":9125,"erminal":9126,"mes":9127,"inym":9128,"inheritance":9129,"ari":9130,"arge":9131,"alys":9132,"depart":9133,"itution":9134,"stu":9135,"stderr":9136,"stitution":9137,"uted":9138,"icals":9139,"Ġ\"*":9140,"geom":9141,"enticate":9142,"Ġreceita":9143,"Ġscore":9144,"exchange":9145,"(\"^":9146,"Ġdefined":9147,"ador":9148,"ingredient":9149,"absp":9150,"ĠAssertionError":9151,"Ġcar":9152,"major":9153,"unch":9154,"Ġbirth":9155,"istema":9156,"Ġai":9157,"ingsConfig":9158,"ĠNU":9159,"Ġconf":9160,"Ġnode":9161,"Rest":9162,"ĠLike":9163,"ĠLanguage":9164,"ĠPontoT":9165,"ĠBBBBB":9166,"ĠBBBB":9167,"ialization":9168,"Ġrating":9169,"ĠUTC":9170,"eticao":9171,"Ġhint":9172,"ĠHe":9173,"mobile":9174,"Ġnote":9175,"Instance":9176,"sqlplus":9177,"Ġsupported":9178,"Ġprofiles":9179,"ĠRaised":9180,"Ġeth":9181,"lectron":9182,"shad":9183,"tokens":9184,"song":9185,"ĠUsers":9186,"ifier":9187,"Seed":9188,"aft":9189,"ĠProxy":9190,"ĠProduto":9191,"ards":9192,"Proj":9193,"Proxy":9194,"0013":9195,"Ġwhat":9196,"Ð¾Ñģ":9197,"DataFrame":9198,"complain":9199,"lenium":9200,"KEN":9201,"videos":9202,"Exp":9203,"ĠHttpResponseRedirect":9204,"ĠDemo":9205,"Ġwriter":9206,"Ð°Ð¹ÑĤÐµ":9207,"umpyVersion":9208,"ursos":9209,"Ġkeyword":9210,"Ġsuite":9211,"Ġ255":9212,"ĠAuthMiddlewareStack":9213,"Ġexpired":9214,"ĠItemForm":9215,"tzinfo":9216,"ordin":9217,"ĠÐ¿Ð¾Ð»":9218,"week":9219,"1918":9220,"½Ð¸ÑĨ":9221,"encies":9222,"ĠServ":9223,"ApiConfig":9224,"]+)":9225,"metaclass":9226,"ÑĢÐ°Ð½Ð¸ÑĨ":9227,"ĠIsOwner":9228,"ãĤĴ":9229,"chemy":9230,"sales":9231,"buck":9232,"ĠÐºÐ¾Ð½":9233,"Ġmatching":9234,"checkoutsdk":9235,"Ġpublish":9236,"CategoricalFilter":9237,"CONTE":9238,"ChatConsumer":9239,"ĠEmptyResultSet":9240,"ĠLogoutViewSet":9241,"Ġrepresentation":9242,"ĠÑĢÐµÐ·ÑĥÐ»ÑĮÑĤÐ°ÑĤ":9243,"Ġpaypalcheckoutsdk":9244,"Ð¡ÑĤ":9245,"Ġ':'.":9246,"irtualenv":9247,"Ġdealing":9248,"EmptyResultSet":9249,"ĠRecipesConfig":9250,"ĠCatalogConfig":9251,"negative":9252,"CHOICES":9253,"lwgeom":9254,"inymce":9255,"alysis":9256,"abspath":9257,"!')<":9258,"(\\.":9259,")[":9260,"96":9261,"=\"\",":9262,"?|\\.":9263,"EN":9264,"EW":9265,"Fixture":9266,"IE":9267,"LV":9268,"LValidator":9269,"LonValidator":9270,"LatValidator":9271,"MIT":9272,"Pen":9273,"RST":9274,"Schema":9275,"TValidator":9276,"UB":9277,"UFO":9278,"UDES":9279,"VTT":9280,"World":9281,"Za":9282,"ZminValidator":9283,"ZmaxValidator":9284,"ZmidValidator":9285,"ZautoValidator":9286,"[...":9287,"cmap":9288,"cff":9289,"dave":9290,"flow":9291,"gable":9292,"hor":9293,"hot":9294,"ians":9295,"ling":9296,"mate":9297,"money":9298,"rb":9299,"raph":9300,"tp":9301,"target":9302,"ux":9303,"upl":9304,"uous":9305,"xbins":9306,"ybins":9307,"yacc":9308,"zmax":9309,"zmid":9310,"}'":9311,"}')<":9312,"Ġarticle":9313,"ĠÐ¾Ð¿":9314,"atural":9315,"erred":9316,"infer":9317,"rot":9318,"route":9319,"dependencies":9320,"enfold":9321,"asci":9322,"requ":9323,"idkey":9324,"Ġph":9325,"iguous":9326,"Ġseparator":9327,"isode":9328,"opportunity":9329,"concat":9330,"Ġsingle":9331,"Ġskip":9332,"(\"/":9333,"coin":9334,"getpath":9335,"acert":9336,"ĠTValidator":9337,"ĠTrio":9338,"ĠSSS":9339,"Ġclean":9340,"minder":9341,"elif":9342,"unchanged":9343,"Ġawait":9344,"ĠMicrosoft":9345,"formance":9346,"ĠNull":9347,"ĠNumpyVersion":9348,"colorssrc":9349,"Ġisort":9350,"ĠLValidator":9351,"ĠLonValidator":9352,"ĠLatValidator":9353,"Ġdel":9354,"ĠPort":9355,"ĠParent":9356,"ĠPet":9357,"ĠPLY":9358,"Ġlength":9359,"Ġlru":9360,"ĠBar":9361,"ĠBeaz":9362,"rueba":9363,"ORTE":9364,"Forward":9365,"autocontour":9366,"dereco":9367,"Ġstaff":9368,"Ġ[\"-":9369,"scope":9370,"ModelMixin":9371,"##-####":9372,"ĠTrueType":9373,"fontTools":9374,"templatetags":9375,"STDI":9376,"InternetProvider":9377,"Allow":9378,"Album":9379,"ĠRun":9380,"addrecord":9381,"share":9382,"argin":9383,"optional":9384,"icia":9385,"ĠWomen":9386,"ĠWord":9387,"ĠUserModelSerializer":9388,"Ġrenderer":9389,"Department":9390,"ĠVisual":9391,"ĠMeasurement":9392,"pyarrow":9393,"Ġ%(":9394,"Timeout":9395,"Ġsqlite":9396,"0015":9397,"Ġconnect":9398,"Ġpara":9399,"Ġparsed":9400,"ĠURLPattern":9401,"ĠRegisterViewSet":9402,"ferent":9403,"blogapp":9404,"123":9405,"binsy":9406,"ĠÐ±":9407,"pkg":9408,"ĠPostList":9409,"properties":9410,"rangemode":9411,"Ġdiag":9412,"Ġlogistic":9413,"CreateForm":9414,"CreateableAPIResource":9415,"ĠTagsConfig":9416,"SERVI":9417,"Metrics":9418,"RANS":9419,"1000000":9420,"]])<":9421,"Ġxml":9422,"localzone":9423,"NUMEXPR":9424,"ĠTokenGenerator":9425,"Ġtextwrap":9426,"stdin":9427,"Ġindices":9428,"Ð»ÐµÐ½":9429,"pointPen":9430,"ĠZminValidator":9431,"ĠZmaxValidator":9432,"ĠZmidValidator":9433,"ĠZautoValidator":9434,"ModuleAttribute":9435,"ProductAdmin":9436,"Datetime":9437,"Ġmyapp":9438,"iki":9439,"contacto":9440,"ĠCommentAdmin":9441,"phonenumber":9442,"Commun":9443,"Ð¾Ð²Ð¾ÑģÑĤÐ¸":9444,"Ð¾Ð²Ð°ÑĤÐµÐ»":9445,"TOKEN":9446,"locationssrc":9447,"ĠTagAdmin":9448,"ShapeValidator":9449,"??\",<":9450,"ãĥ¼":9451,"ãĥĪ":9452,"Groupby":9453,"Ġtokenize":9454,"Ġ60":9455,"ambiguous":9456,"ĠRoomSerializer":9457,"ĠRoomView":9458,"Ð¾Ð´ÐµÐ»":9459,"accesslog":9460,"({!":9461,"LocationsValidator":9462,"LocationssrcValidator":9463,"elform":9464,"ĠLocationsValidator":9465,"ĠLocationssrcValidator":9466,"ÐŁÑĢ":9467,"ĠShapeValidator":9468,"vertisements":9469,"OffsetValidator":9470,"threads":9471,"ĠÐ¿ÑĢÐ¸":9472,"ĠStockViewSet":9473,"ĠFeedback":9474,"usuarios":9475,"pem":9476,"ĠLabelValidator":9477,"ÑĥÐ±Ð»":9478,"********":9479,"ĠLogoutView":9480,"ĠÑĥÐ¿Ð¾ÑĢ":9481,"<<<<<<<<":9482,"LabelValidator":9483,"Ð¸ÐºÐ°ÑĨÐ¸Ð¸":9484,"PARTY":9485,"invoices":9486,"ABCMeta":9487,"plugins":9488,"ĠFront":9489,"ranchvalues":9490,"ĠOffsetValidator":9491,"Ġ'-'<":9492,"uzzy":9493,"yaml":9494,"Ġamount":9495,"ĠToDoList":9496,"ĠÐ¸ÑģÐ¿Ð¾Ð»ÑĮÐ·ÑĥÐ¹ÑĤÐµ":9497,"Accessor":9498,"ĠÑģÑĤÑĢÐ°Ð½Ð¸ÑĨ":9499,"Ð¸Ð²Ð°Ð½Ð¸Ñı":9500,"CLUDES":9501,"ĠRolling":9502,"NaT":9503,"Ġcourse":9504,"Ð¾ÑĩÐ¸Ð²Ð°Ð½Ð¸Ñı":9505,"ĠÐĶÐ¾Ð±Ð°Ð²ÑĮÑĤÐµ":9506,"ĠÐ¾Ð±ÑĬÑıÐ²":9507,"senger":9508,"UniqueTogether":9509,"ĠÑįÑĤÐ¾ÑĤ":9510,"ĠBytesIO":9511,"ÑıÐ´Ð¾ÑĩÐ¸Ð²Ð°Ð½Ð¸Ñı":9512,"duracao":9513,"issuing":9514,"dabeaz":9515,"Ġaiogram":9516,"ĠNUMEXPR":9517,"ĠÑĢÐµÐ·ÑĥÐ»ÑĮÑĤÐ°ÑĤÐ¾Ð²":9518,"ĠBeazley":9519,"STDIN":9520,"Ð»ÐµÐ½Ð¸Ð¹":9521,"Communicator":9522,"ÑĥÐ±Ð»Ð¸ÐºÐ°ÑĨÐ¸Ð¸":9523,"ĠÑĥÐ¿Ð¾ÑĢÑıÐ´Ð¾ÑĩÐ¸Ð²Ð°Ð½Ð¸Ñı":9524,"ĠÐ¾Ð±ÑĬÑıÐ²Ð»ÐµÐ½Ð¸Ð¹":9525,">\")<":9526,"ENT":9527,"Employees":9528,"IF":9529,"LC":9530,"Nested":9531,"Score":9532,"Sta":9533,"Swagger":9534,"ShellActivator":9535,"`<":9536,"aw":9537,"cs":9538,"cursor":9539,"dp":9540,"flex":9541,"gan":9542,"gra":9543,"glob":9544,"lv":9545,"mult":9546,"pd":9547,"rls":9548,"so":9549,"sid":9550,"tseries":9551,"ugi":9552,"å®":9553,"Ġ}}":9554,"internet":9555,"aris":9556,"alt":9557,"eno":9558,"Ġ=\"":9559,"itch":9560,"reet":9561,"lev":9562,"leet":9563,"ido":9564,"Ġphoto":9565,"icos":9566,"ctx":9567,"Ġfinal":9568,"Ġsize":9569,"getter":9570,"abi":9571,"ĠAp":9572,"ĠAtracao":9573,"ibo":9574,"',]<":9575,"ĠSal":9576,"Ġcur":9577,"Ġcity":9578,"Ġcatch":9579,"Ġbig":9580,"endswith":9581,"ĠDynamic":9582,"ĠNum":9583,"posed":9584,"Ġwarn":9585,"teen":9586,"team":9587,"teast":9588,"teenth":9589,"ĠLLC":9590,"__(__":9591,"ĠPar":9592,"ĠPlugin":9593,"ĠBanner":9594,"loglevel":9595,"arefa":9596,"ĠUsed":9597,"Ġ[\"__":9598,"porter":9599,"provid":9600,"translate":9601,"imm":9602,"TEST":9603,"testcases":9604,"riend":9605,"duce":9606,"AlterUniqueTogether":9607,"interval":9608,"Ġanchor":9609,"ĠUserForm":9610,"UserForm":9611,"Ġlogger":9612,"updates":9613,"Ġtimestamp":9614,"listings":9615,"202101":9616,"Ġwhile":9617,"ĠConstants":9618,"Ġattemp":9619,"ampus":9620,"scriptions":9621,"suite":9622,"DjangoProject":9623,"ĠXXXXXXXXX":9624,"tainer":9625,"Tool":9626,"Ġmobile":9627,"ĠDelete":9628,"....":9629,"5005":9630,"Mem":9631,"CAPTCHA":9632,"1111":9633,"ÑģÐ»":9634,"starting":9635,"Tracker":9636,"docker":9637,"Routes":9638,"pires":9639,"ainer":9640,"udy":9641,"stdio":9642,"âĢĻ":9643,"forum":9644,"Ġsecond":9645,"HttpResponse":9646,"atering":9647,"Producto":9648,"ĠÐ¿ÑĥÐ±Ð»Ð¸ÐºÐ°ÑĨÐ¸Ð¸":9649,"evento":9650,"ĠAppSeed":9651,"Comments":9652,"numbers":9653,"ĠWebSocket":9654,"connector":9655,"=['[":9656,"Shop":9657,"Shape":9658,"Shipping":9659,"'^$',":9660,"ÑĢÐ°Ð½":9661,"ĠReviewAdmin":9662,"ÑĢÐµÐ±Ñĥ":9663,"Ġplt":9664,"Ġtasks":9665,"!</":9666,"ĠTeam":9667,"Ġlinks":9668,"AttributeGetter":9669,"ĠChatConfig":9670,"cards":9671,"Ġzeep":9672,"scribe":9673,"ĠÑĩÑĤ":9674,"Lead":9675,"ĠÑĤÑĢÐµÐ±Ñĥ":9676,"monthly":9677,"Box":9678,"ĠThread":9679,"ÐµÐ¼ÑĭÐµ":9680,"ĠStringIO":9681,"clusion":9682,"UserProfileInfo":9683,"Counter":9684,"'}))<":9685,"ĠPortfolioConfig":9686,"ĠBasicAppConfig":9687,"Ð¡ÑĤÐ°ÑĤÑĮ":9688,"providers":9689,"ĠÑĤÑĢÐµÐ±ÑĥÐµÐ¼ÑĭÐµ":9690,"({}":9691,"/',<":9692,"80":9693,"Ac":9694,"Area":9695,"Bel":9696,"DF":9697,"Items":9698,"Length":9699,"Language":9700,"ModeValidator":9701,"Pl":9702,"Parent":9703,"Player":9704,"Sal":9705,"Song":9706,"Tables":9707,"ThicknessmodeValidator":9708,"Views":9709,"Yperiod":9710,"YperiodValidator":9711,"YstyleValidator":9712,"chex":9713,"dummy":9714,"fsl":9715,"fgcolor":9716,"gop":9717,"hn":9718,"kill":9719,"mapping":9720,"mypy":9721,"nltk":9722,"ten":9723,"uding":9724,"urop":9725,"vin":9726,"wcode":9727,"xx":9728,"ya":9729,"zoom":9730,"Ðŀ":9731,"è¿":9732,"Ġhtml":9733,"Ġcommerce":9734,"Ġimg":9735,"Ġabove":9736,"attrib":9737,"atsrcValidator":9738,"inclusion":9739,"ortValidator":9740,"importors":9741,"__()<":9742,"planner":9743,"react":9744,"reference":9745,"otation":9746,"Ġpayment":9747,"Ġpayload":9748,"iculo":9749,"Ġmans":9750,"Ġmock":9751,"argspec":9752,"clipon":9753,"cluding":9754,"edid":9755,"edora":9756,"lds":9757,"Ġfname":9758,"consum":9759,"Ġreq":9760,"Ġreal":9761,"gium":9762,"Ġ'',":9763,"experi":9764,"comentarios":9765,"Ġdeferred":9766,"Ġinfo":9767,"Ġinvocation":9768,"ingleton":9769,"ĠTqdm":9770,"ĠThicknessmodeValidator":9771,"appable":9772,"ĠAccess":9773,"ĠAvaliacao":9774,"andy":9775,"agem":9776,"Ġcv":9777,"iline":9778,"eline":9779,"uns":9780,"unos":9781,"unnel":9782,"Ġbu":9783,"Ġbroken":9784,"ĠCan":9785,"locat":9786,"izer":9787,"endance":9788,"ĠModeValidator":9789,"ptime":9790,"ircle":9791,"ĠNLTK":9792,"Ġnext":9793,"ĠisDirectory":9794,"Ġexit":9795,"ĠLib":9796,"ĠLikes":9797,"ĠLtd":9798,"Ġdemo":9799,"='').":9800,"ĠFixture":9801,"ĠBlogs":9802,"paration":9803,"ĠReceita":9804,"ĠReserved":9805,"ORM":9806,"oliditys":9807,"Service":9808,"022":9809,"0225":9810,"ĠON":9811,"esk":9812,"ythonize":9813,"Viewset":9814,"ĠElement":9815,"ĠEurop":9816,"linesValidator":9817,"ĠDjangoFilterBackend":9818,"perty":9819,"ĠsetUp":9820,"trydjango":9821,"fixValidator":9822,"ĠRights":9823,"FormView":9824,"distance":9825,"distributions":9826,"identity":9827,"CliponaxisValidator":9828,"tokenize":9829,"Ġguar":9830,"cessing":9831,"ĠVer":9832,"axislines":9833,"pyflakes":9834,"EditorWidget":9835,"specMarker":9836,"Ticket":9837,"iteral":9838,"groupgapValidator":9839,"grouptitlefont":9840,"UNT":9841,"Ġparasite":9842,"ĠContext":9843,"ĠAPIView":9844,"284":9845,"voice":9846,"ĠIngredient":9847,"Ġcompare":9848,"summernote":9849,"ĠPyChar":9850,"scriptor":9851,"ĠYperiod":9852,"ĠYperiodValidator":9853,"ĠTraceback":9854,"rangeValidator":9855,"APIException":9856,"Ġaccept":9857,"Ð¾Ð·":9858,"pipeline":9859,"ÑĢÑĥ":9860,"ĠDef":9861,"ĠDelet":9862,"(\"--":9863,"racoes":9864,"10000":9865,"Traceback":9866,"Ġspecial":9867,"ÐµÐ¹":9868,"marks":9869,"div":9870,".*`":9871,"ĠEndereco":9872,"[:]<":9873,"implMarker":9874,"Header":9875,"forward":9876,"ĠInvalidToken":9877,"Ġopenid":9878,"ineno":9879,"tagged":9880,"Ġshort":9881,"ĠContentType":9882,"ĠRangemodeValidator":9883,"Ġpoor":9884,"ÑĥÑĩ":9885,"zoneinfo":9886,"ĠLinks":9887,"recaptcha":9888,"([[":9889,"ĠImageGrid":9890,"ĠAluno":9891,"ftp":9892,"partments":9893,"[[[[":9894,"ailure":9895,"ĠProjectsConfig":9896,"Ġwebsocket":9897,"thicknessmode":9898,"ĠCliponaxisValidator":9899,"ĠÐ´Ð¾Ð±Ð°Ð²ÑĮÑĤÐµ":9900,"todict":9901,"Books":9902,"SubplotValidator":9903,"UpdateAPIView":9904,"generators":9905,"Double":9906,"Website":9907,"CommentView":9908,"unitValidator":9909,"tipo":9910,"trawcode":9911,"PATH":9912,"ĠTimedelta":9913,"modified":9914,"NBitLong":9915,"({<":9916,"groundConfig":9917,"learner":9918,"tutorials":9919,"development":9920,"ĠSources":9921,"adastr":9922,"ÐĿÐ¾Ð²Ð¾ÑģÑĤÐ¸":9923,"ĠShort":9924,"Country":9925,"Ġzopfli":9926,"shiftValidator":9927,"SourceCode":9928,"Ð¾Ð»ÑĮÐ·Ð¾Ð²Ð°ÑĤÐµÐ»":9929,"ĠChecks":9930,"Recursive":9931,"SupportsIndex":9932,"business":9933,"terminalwriter":9934,"poseValidator":9935,"ĠBooleanWidget":9936,"liercolorValidator":9937,"Price":9938,"ĠFIELD":9939,"LegacyTest":9940,"Space":9941,"ĠÐ¼Ð¾Ð´ÐµÐ»":9942,"Ġtempdir":9943,"ixedrangeValidator":9944,"quoted":9945,"ĠReportLab":9946,"ĠSubplotValidator":9947,"ĠSubplotDivider":9948,"flush":9949,"clickValidator":9950,"bingroupValidator":9951,"Ġsubscriber":9952,"AttachmentView":9953,"GBAxes":9954,"ĠTodolist":9955,"ĠLoad":9956,"ĠPlaygroundConfig":9957,"anteed":9958,"apesrcValidator":9959,"adiu":9960,"straintextValidator":9961,"iprocessing":9962,"ĠFigureCanvasQT":9963,"smoothValidator":9964,"Ġmultiprocessing":9965,"ĠImplicit":9966,"Ġbehavi":9967,"CallError":9968,"-##-##\",<":9969,"Locator":9970,"RangemodeValidator":9971,"Ġnaming":9972,"erminalWriter":9973,"Ġ\"*\"":9974,"unchpad":9975,"[...]<":9976,"rotation":9977,"requencies":9978,"ĠNumPy":9979,"fslineno":9980,"gopacityValidator":9981,"importorskip":9982,"cliponaxis":9983,"ĠTqdmDeprecationWarning":9984,"locatable":9985,"oliditysrcValidator":9986,"022501":9987,"ĠEurope":9988,"Ġguaranteed":9989,"ĠPyCharm":9990,"ĠDeletableAPIResource":9991,",**":9992,"/'":9993,"/\",<":9994,"358":9995,"78":9996,"87":9997,":')<":9998,"Bind":9999,"Brow":10000,"Button":10001,"Cine":10002,"CAL":10003,"DV":10004,"Det":10005,"Down":10006,"Fa":10007,"GORI":10008,"LINE":10009,"Mode":10010,"Maint":10011,"PER":10012,"Poll":10013,"Patient":10014,"Snack":10015,"VAL":10016,"WARE":10017,"ZE":10018,"[^":10019,"buntu":10020,"cap":10021,"dynamic":10022,"drinks":10023,"djoser":10024,"fb":10025,"fi":10026,"fy":10027,"fast":10028,"ipo":10029,"ioc":10030,"ivid":10031,"lider":10032,"many":10033,"nos":10034,"pa":10035,"pDjango":10036,"pdf":10037,"pessoa":10038,"rd":10039,"ricao":10040,"twist":10041,"your":10042,"åĨ":10043,"æĪ":10044,"æĹ":10045,"æľ":10046,"Ġplot":10047,"Ġip":10048,"Ġcommon":10049,"ĠÑģÑĤÑĢ":10050,"onation":10051,"online":10052,"alone":10053,"itap":10054,"relev":10055,"utation":10056,"otes":10057,"igil":10058,"Ġtz":10059,"Ġmany":10060,"urname":10061,"Ġfun":10062,"Ġfood":10063,"Ġval":10064,"Connection":10065,"appointment":10066,"ĠASN":10067,"ĠSo":10068,"ĠSum":10069,"ĠSwagger":10070,"Ġreturned":10071,"Ġactive":10072,"forma":10073,"Ġonline":10074,"Ġwait":10075,"Ġwiki":10076,"questions":10077,"SELECT":10078,"gisters":10079,"ĠFL":10080,"osp":10081,"take":10082,"ĠRemove":10083,"eatured":10084,"()))<":10085,"quir":10086,"0222":10087,"oke":10088,"ĠUnsupported":10089,"ets":10090,"eshop":10091,"calculator":10092,"ĠHous":10093,"progress":10094,"BaseModel":10095,"ionality":10096,"keyp":10097,"Ġelement":10098,"icio":10099,"Settings":10100,"Ġfunctionality":10101,"FOLDER":10102,"ĠVigil":10103,"pybo":10104,"iacoes":10105,"Provide":10106,"0014":10107,"Ġsubclass":10108,"Ġ2005":10109,"Ġraising":10110,"ĠĠĠĠĠĠĠĠĠĠĠĠĠĠĠĠĠĠĠĠĠĠĠ":10111,"ĠURLConf":10112,"Ġtrydjango":10113,"ÑĤÑĭ":10114,"\").<":10115,"nose":10116,"ĠPostDetail":10117,"ĠPostListView":10118,"modelf":10119,"configobj":10120,"Ð¾Ð³Ð¾":10121,"ToDo":10122,"clientes":10123,"valiacoes":10124,"Members":10125,"ĠhomePageView":10126,"ĠComments":10127,"Vari":10128,"[::-":10129,"customuser":10130,"taggit":10131,"1446":10132,"185":10133,"ĠCategoryViewSet":10134,"2015":10135,"reenlet":10136,"particip":10137,"ĠÐ¿ÐµÑĢÐµÐ":10138,"pha":10139,"ObjectIdentifier":10140,"CodeGrant":10141,"mbed":10142,"QUI":10143,"ĠÑģÐ¿Ð¸Ñģ":10144,"sale":10145,"cleaned":10146,"9999":10147,"Ġtodos":10148,"ĠNewType":10149,"ĠOpenIdConnect":10150,"################################":10151,"ĉĉĉĉĉĉĉĉ":10152,"Empresa":10153,"Ġkept":10154,"ĠÐ·Ð°Ð´":10155,"activation":10156,"Recipe":10157,"CSV":10158,"RESULT":10159,"multiple":10160,"ĠAuthorizationCodeGrant":10161,"Weather":10162,"budget":10163,"ributed":10164,"Verify":10165,"ffffffff":10166,"ContentType":10167,"iculos":10168,"Ġboth":10169,"Ġ'{%":10170,"HOLDER":10171,"Images":10172,"aggregator":10173,"ĠRuss":10174,">================":10175,"raphQL":10176,"ĠFrontend":10177,"lvl":10178,"consumers":10179,"Maintainer":10180,"ĠHousley":10181,"'})":10182,")).":10183,")###":10184,"-###":10185,"-###\",<":10186,"95":10187,"ATION":10188,"BI":10189,"CQA":10190,"Db":10191,"Desk":10192,"Element":10193,"High":10194,"IC":10195,"Lec":10196,"Non":10197,"OLS":10198,"PSS":10199,"PTO":10200,"Period":10201,"Padding":10202,"RD":10203,"Raised":10204,"Root":10205,"Section":10206,"ScaleValidator":10207,"SsnProvider":10208,"TODO":10209,"Wh":10210,"Word":10211,"aware":10212,"aurs":10213,"big":10214,"cv":10215,"cfehome":10216,"ea":10217,"ew":10218,"easter":10219,"ezer":10220,"false":10221,"flower":10222,"factor":10223,"hit":10224,"hip":10225,"hotel":10226,"half":10227,"ka":10228,"mapp":10229,"mmetric":10230,"mcq":10231,"nu":10232,"nft":10233,"pag":10234,"pisode":10235,"rrule":10236,"wb":10237,"watch":10238,"without":10239,"yAnimal":10240,"{\"":10241,"Ã©":10242,"Ã³":10243,"ä»":10244,"åĩ":10245,"è¡":10246,"Ġknow":10247,"orp":10248,"atist":10249,"ativo":10250,"inos":10251,"aria":10252,"aly":10253,"aluguel":10254,"alchemy":10255,"ament":10256,"__\"]<":10257,"eneration":10258,"plan":10259,"Ġ=[<":10260,"otify":10261,"Ġpet":10262,"Ġpoll":10263,"icular":10264,"Ġtick":10265,"Ġmost":10266,"Ġmines":10267,"entest":10268,"odeezer":10269,"isher":10270,"Ġfake":10271,"Ġref":10272,"Ġreason":10273,"Ġshar":10274,"Ġ'{}":10275,"exer":10276,"exam":10277,"expires":10278,"ypes":10279,"gettext":10280,"gettz":10281,"getRoutes":10282,"ups":10283,"Ġinp":10284,"ĠAsymmetric":10285,"orem":10286,"oreJSONCodec":10287,"atest":10288,"ĠSome":10289,"ĠScaleValidator":10290,"Ġcfehome":10291,"macos":10292,"GIST":10293,"unities":10294,"ĠCD":10295,"ĠCre":10296,"ĠCreationForm":10297,"Ġautors":10298,"tozero":10299,"izont":10300,"ĠMake":10301,"ĠDB":10302,"ĠDel":10303,"Ġdig":10304,"Ġdoc":10305,"Ġdados":10306,"Ġdrag":10307,"Ġdinos":10308,"ĠNft":10309,"Ġnormally":10310,"ĠLec":10311,"vels":10312,"veiculos":10313,"ĠPa":10314,"ĠPre":10315,"ĠPattern":10316,"ĠFeature":10317,"ĠFood":10318,"Ġland":10319,"Ġlaser":10320,"ĠBand":10321,"Ġ250":10322,"Ġ()":10323,"Ġ(('":10324,"logo":10325,"Ġufunc":10326,"child":10327,"ĠGraphQL":10328,"ĠRegistration":10329,"oku":10330,"ĠIO":10331,"ĠUpload":10332,"ĠUntil":10333,"Autor":10334,"portunities":10335,"amc":10336,"produto":10337,"BaseCodec":10338,"ĠEmployees":10339,"ĠBaseCodec":10340,"ĠBaseTransport":10341,"DatabaseTests":10342,"loadCodec":10343,"acebook":10344,"testapp":10345,"fra":10346,"Ġeg":10347,"\"]:<":10348,"Ġnocover":10349,"uggable":10350,"ĠUserView":10351,"ĠUserInfo":10352,"Ġguns":10353,"Stream":10354,"ĠVideo":10355,"Ġprepare":10356,"hoveron":10357,"pypro":10358,"Ġtested":10359,"Ġinterpreter":10360,"lista":10361,"listar":10362,"Ġdoing":10363,"TimeField":10364,"shortt":10365,"Ġclose":10366,"ĠTextCodec":10367,"Ġloader":10368,"ĠLista":10369,"Ġparty":10370,"RED":10371,"RECT":10372,"']},<":10373,"Ġabsolutely":10374,"Ġcompile":10375,"ĠYorum":10376,"dictionary":10377,"RequestParser":10378,"ĠDeprecate":10379,"Ġdisplay":10380,"...,":10381,"currentvalue":10382,"RATION":10383,"dence":10384,"Ġwrap":10385,"ensity":10386,"Ġpractice":10387,"]]]]":10388,"Ð°Ð¹":10389,"TokenObtainPairView":10390,"Ġtranslation":10391,"Track":10392,"HoveronValidator":10393,"ĠHoveronValidator":10394,"included":10395,"ĠRequestParser":10396,"PyCQA":10397,"Ġhelpers":10398,"customers":10399,"suffixes":10400,"ĠBlogDetailView":10401,"Ġcoreschema":10402,"ĠWindow":10403,"ĠĠĠĠĠĠĠĠĠĠĠĠĠĠĠĠĠĠĠĠ":10404,"Ġaccessible":10405,"ĠIntersection":10406,"Ġasymmetric":10407,"assertFalse":10408,"Ġmultiple":10409,"Ġbytestring":10410,"ĠFilterSet":10411,"agina":10412,"joined":10413,"tzstr":10414,"tzfile":10415,"tzrange":10416,"tzical":10417,"tzlocal":10418,"tzutc":10419,"tzoffset":10420,"wee":10421,"vious":10422,"ĠREQUI":10423,"ColorsValidator":10424,"ColorssrcValidator":10425,"abstractproperty":10426,"Ġ###-####\",<":10427,"ĠAppUser":10428,"ĠAppointment":10429,"ĠExclusive":10430,"crease":10431,"crete":10432,"categorical":10433,"Ð¾Ð±ÑĢÐ°Ð":10434,"Short":10435,"ĠContactConfig":10436,"ĠColorsValidator":10437,"ĠColorssrcValidator":10438,"Ġelif":10439,"attle":10440,"TodoAPIView":10441,"UploadModel":10442,"Completed":10443,"Ġpluggable":10444,"rlwrap":10445,"fea":10446,"weets":10447,"ĠĠĠĠĠĠĠĠĠĠĠĠĠĠĠĠĠĠĠĠĠĠĠĠĠĠĠĠĠĠĠĠĠĠĠĠĠ":10448,"201902":10449,"escape":10450,"publicada":10451,"LIC":10452,"BLOG":10453,"relativedelta":10454,"ĠColumn":10455,"SceneValidator":10456,"euro":10457,"Ġquiz":10458,"lessons":10459,"ĠDeprecatedTzFormatWarning":10460,"landingpagewebsite":10461,"something":10462,"ĠWeather":10463,"ĠSceneValidator":10464,"Ð¾ÐºÑĥ":10465,"+)/$',":10466,"+)/$\",":10467,"ĠLayout":10468,"Ð°Ð´Ð°Ñĩ":10469,"folder":10470,"nonnegative":10471,"ĠBBBBBBBBBBBBBBBBB":10472,"ĠRichTextUploadingFormField":10473,"Loop":10474,"Ð¸ÑĤÑĮ":10475,"destroy":10476,"character":10477,"SocialAuth":10478,"Ġlandingpagewebsite":10479,"ĠRefSpace":10480,"favorite":10481,"ĠCalculator":10482,"Ġstocks":10483,"tzwinlocal":10484,"ĠÑĩÐ¸ÑģÐ»Ð°":10485,"swappable":10486,"responce":10487,"FTWARE":10488,"SOFTWARE":10489,"icontains":10490,"Ġcycle":10491,"iversityC":10492,"CBV":10493,"fdv":10494,"åĲį":10495,"ĠDirector":10496,"PKCS":10497,"ĠUserRegisterForm":10498,"DeprecatedTzFormatWarning":10499,"purch":10500,"ordinate":10501,"hotmail":10502,"Ġ[\"-\",":10503,"AllowAny":10504,"IFY":10505,"({},":10506,"ĠLikesConfig":10507,"ĠONLY":10508,"ĠDefinition":10509,"[^@":10510,"NonUploadModel":10511,"ĠAsymmetricPadding":10512,"Ġdragons":10513,"Ġdinosaurs":10514,"ĠExclusiveUnion":10515,"!!":10516,"'m":10517,"(\"\"\"<":10518,")])<":10519,"+'":10520,"79":10521,">}":10522,"Ap":10523,"Back":10524,"BLE":10525,"BraintreeError":10526,"Copy":10527,"Cookie":10528,"Dr":10529,"Feature":10530,"Genre":10531,"Host":10532,"IM":10533,"ISS":10534,"MS":10535,"MITE":10536,"PO":10537,"Port":10538,"PON":10539,"Part":10540,"Su":10541,"Sum":10542,"Sample":10543,"TRANS":10544,"VA":10545,"VO":10546,"ViaTemplateActivator":10547,"XML":10548,"acl":10549,"aded":10550,"bb":10551,"bat":10552,"bul":10553,"best":10554,"bio":10555,"biblioteca":10556,"cd":10557,"cpf":10558,"dc":10559,"dog":10560,"dicated":10561,"emplo":10562,"flock":10563,"gue":10564,"hr":10565,"ier":10566,"lif":10567,"mixins":10568,"pont":10569,"pizza":10570,"payload":10571,"pending":10572,"rator":10573,"sage":10574,"sil":10575,"survey":10576,"ted":10577,"tOps":10578,"vatar":10579,"wide":10580,"³Ð¸":10581,"³Ð¾ÑĢ":10582,"Ð¤":10583,"çļ":10584,"è®":10585,"Ġab":10586,"Ġctx":10587,"orl":10588,"ority":10589,"atches":10590,"onym":10591,"sens":10592,"erat":10593,"meeting":10594,"ination":10595,"alhes":10596,"__\",":10597,"astype":10598,"asConfig":10599,"registry":10600,"Ġping":10601,"lya":10602,"apro":10603,"urare":10604,"oded":10605,"Ġfail":10606,"Ġreview":10607,"Ġregistry":10608,"uevo":10609,"Ġsistema":10610,"Ġ'\"']<":10611,"exact":10612,"tri":10613,"trl":10614,"coolsite":10615,"getenv":10616,"ĠTemp":10617,"Ġtheir":10618,"nte":10619,"ĠAss":10620,"ĠActor":10621,"ersConfig":10622,"ĠSAFE":10623,"ĠSample":10624,"ĠSong":10625,"Ġcms":10626,"serial":10627,"GING":10628,"Ġbet":10629,"third":10630,"ĠCurso":10631,"005":10632,"wsgiapp":10633,"Ġdrinks":10634,"ataforma":10635,"comm":10636,"Ġnickname":10637,"ĠLegacy":10638,"ĠLazy":10639,"ĠLiteral":10640,"Ġdevelop":10641,"Ġdedicated":10642,"='-":10643,"ĠParse":10644,"ĠFake":10645,"ĠFloat":10646,"ĠBlacklist":10647,"ĠBraintreeError":10648,"ĠGenre":10649,"ĠReg":10650,"omi":10651,"ĠIP":10652,"ĠIterator":10653,"ĠIssue":10654,"ĠUsage":10655,"Ġ\"\"\")<":10656,"premiosplatziapp":10657,"Ġverify":10658,"echo":10659,"urlshortener":10660,"etings":10661,"ERE":10662,"ports":10663,"Ġ{%":10664,"ĠHex":10665,"TextChoices":10666,"Ġcoolsite":10667,"META":10668,"ĠEdit":10669,"ĠEditor":10670,"transform":10671,"pute":10672,"Ġbeing":10673,"Ġbecome":10674,"ride":10675,"Ġthread":10676,"Ġthrows":10677,"option":10678,"Ġviewset":10679,"ĠWor":10680,"ĠOriginal":10681,"isease":10682,"ĠUsername":10683,"Ġgh":10684,"Ġgenre":10685,"Description":10686,"ĠViaTemplateActivator":10687,"Ġpremiosplatziapp":10688,"Ġtemplatetags":10689,"ĠMemo":10690,"Ġinterested":10691,"listed":10692,"Ġincluded":10693,"ListCreateAPIView":10694,"Ġsubstitution":10695,"ĠĠĠĠĠĠĠĠĠĠĠĠ":10696,"LOG":10697,"Ġparameter":10698,"######":10699,"notification":10700,"SubFactory":10701,"RECAPTCHA":10702,"REGIST":10703,"Ġ['\\":10704,"']].":10705,"Ġauthenticate":10706,"Ġitertools":10707,"CreateSerializer":10708,"cliente":10709,"using":10710,"ĠDebug":10711,"processor":10712,"ĠDisplay":10713,"Ġcases":10714,"avg":10715,"monkey":10716,"Ð°Ð¶":10717,"ÑģÑģ":10718,"ĠArt":10719,"ĠArrow":10720,"Arrow":10721,"anks":10722,"060000":10723,"aphic":10724,"Ġsoon":10725,"ĠOnline":10726,"{})":10727,"expired":10728,"Ġbuilding":10729,"03060000":10730,"Administrator":10731,"Ġheader":10732,"Ġheadline":10733,"ROP":10734,"merchant":10735,"ĠTaskSerializer":10736,"aginator":10737,"})'.":10738,"ĠStudentSerializer":10739,"RunSQL":10740,"Ð²Ð²ÐµÐ´Ð¸ÑĤÐµ":10741,"Ð²ÑĤÐ¾ÑĢ":10742,"ÑĭÐ²":10743,"ĠOrderSerializer":10744,"ween":10745,"emplead":10746,"196":10747,"1990":10748,"ĠAuthority":10749,"ĠWebConfig":10750,"numberOf":10751,"sentinel":10752,"Ð°ÑĤÐ¾ÑĢ":10753,"TomlError":10754,"servicios":10755,"atten":10756,"COMP":10757,"Ġtokens":10758,"ĠClientes":10759,"Ġ'\\\"']<":10760,"HomeView":10761,"good":10762,"LIMITE":10763,"Ġ{}):":10764,"PasswordResetTokenGenerator":10765,"presents":10766,"Ġcounts":10767,"ĠNewsConfig":10768,"FURA":10769,"ĠCompanyView":10770,"tsOps":10771,"Agent":10772,"Level":10773,"Record":10774,"numero":10775,"ĠCryptogr":10776,"helpers":10777,"PLA":10778,"ĠÐ½Ð°ÑģÑĤÑĢ":10779,"',)}<":10780,"ĠSSSSSSSSS":10781,"istry":10782,"Ð°Ð½Ð½Ñĭ":10783,"Ġndarray":10784,"ĠFrame":10785,"pictures":10786,"addrinfo":10787,"Spodeezer":10788,"yamdb":10789,"formularios":10790,"Helpers":10791,"Ġcorrect":10792,"ĠPasswordResetTokenGenerator":10793,"ĠOfferAdmin":10794,"Ġsubscribers":10795,"snacks":10796,"ÐĹÐ°Ð´Ð°Ñĩ":10797,"ĠBoltOps":10798,"ĠBoltsOps":10799,"ĠWhat":10800,"PACKAGE":10801,"wenty":10802,"shippingaddress":10803,"hemas":10804,"Ġlimited":10805,"ingredients":10806,"CONTENT":10807,"Ġphonenumber":10808,"ugify":10809,"arison":10810,"immutable":10811,"ShippingAddress":10812,"022400":10813,"taggeditem":10814,"ĠÐ¼Ð¾Ð´ÐµÐ»Ð¸":10815,"Desktop":10816,"Ġsharing":10817,"Ġ'{}({},":10818,"ĠGraphQLView":10819,"amcrest":10820,"Ð¾Ð±ÑĢÐ°Ð¶":10821,"pontot":10822,"çļĦ":10823,"urareceita":10824,"ĠAssume":10825,"LIMITED":10826,"ĠCryptographic":10827,"$\"<":10828,"'',":10829,",###":10830,"1202":10831,"402":10832,"69":10833,"ASE":10834,"And":10835,"Ans":10836,"AssertionError":10837,"AmbientValidator":10838,"Blogs":10839,"Callable":10840,"Called":10841,"Currency":10842,"CFF":10843,"Ctrl":10844,"DT":10845,"Da":10846,"Driver":10847,"DiffuseValidator":10848,"EB":10849,"EAR":10850,"Foo":10851,"Food":10852,"FresnelValidator":10853,"Failure":10854,"GH":10855,"Gradient":10856,"Highlight":10857,"Miss":10858,"Menu":10859,"Over":10860,"Okta":10861,"Per":10862,"RUD":10863,"RoughnessValidator":10864,"Sec":10865,"\\<":10866,"_):<":10867,"aol":10868,"dia":10869,"dns":10870,"dAgg":10871,"diffuse":10872,"disease":10873,"ekt":10874,"fc":10875,"fw":10876,"fresnel":10877,"featured":10878,"ga":10879,"gui":10880,"hide":10881,"hape":10882,"highlight":10883,"hinx":10884,"liv":10885,"mad":10886,"mace":10887,"mask":10888,"moproject":10889,"npt":10890,"padding":10891,"pwd":10892,"rshift":10893,"spl":10894,"squ":10895,"suse":10896,"sDatetime":10897,"tile":10898,"tasrcValidator":10899,"tshift":10900,"turist":10901,"was":10902,"wart":10903,"xis":10904,"ç®":10905,"Ġå":10906,"Ġenviron":10907,"Ġimages":10908,"Ġlearn":10909,"Ġrole":10910,"Ġ???":10911,"ĠĠčĊ":10912,"ored":10913,"atracoes":10914,"onsrcValidator":10915,"seUrl":10916,"ero":10917,"measurement":10918,"inset":10919,"integer":10920,"arm":10921,"mped":10922,"ortran":10923,"ortunity":10924,"rol":10925,"anValidator":10926,"deadline":10927,"__:<":10928,"ionValidator":10929,"plar":10930,"astr":10931,"itfinder":10932,"itcoin":10933,"retrieve":10934,"requires":10935,"stats":10936,"anger":10937,"utri":10938,"othes":10939,"Ġpiv":10940,"icro":10941,"Ġtd":10942,"Ġturn":10943,"Ġtlds":10944,"apis":10945,"Ġmi":10946,"geshape":10947,"ential":10948,"edi":10949,"ury":10950,"ctrl":10951,"Ġregisters":10952,"Ġssn":10953,"Ġscope":10954,"Ġ'[":10955,"expense":10956,"getMessages":10957,"acandy":10958,"upon":10959,"typesrc":10960,"ĠTT":10961,"ĠTop":10962,"ĠTwo":10963,"ector":10964,"ĠAmbientValidator":10965,"ulation":10966,"ĠST":10967,"ĠSent":10968,"ĠSens":10969,"ĠSSL":10970,"ĠSwart":10971,"Ġchoice":10972,"Ġcurrency":10973,"Ġcars":10974,"('%":10975,"('__":10976,"minorgrid":10977,"ableOffset":10978,"ĠCopy":10979,"ĠCertificate":10980,"ĠCRUD":10981,"002":10982,"006":10983,"toself":10984,"pportunity":10985,"ĠMace":10986,"ĠMusic":10987,"ĠMenu":10988,"ĠDiffuseValidator":10989,"hosp":10990,"Ġdatos":10991,"hisker":10992,"autif":10993,"Ġconcat":10994,"commit":10995,"colorsrcValidator":10996,"ĠisCFF":10997,"ialMo":10998,"telegram":10999,"ĠLiked":11000,"Ġdeco":11001,"Ġdecompile":11002,"Ġdepartment":11003,"Ġdeleted":11004,"__()":11005,"resum":11006,"ĠPlease":11007,"ĠPubl":11008,"ĠFresnelValidator":11009,"ĠFavourite":11010,"Ġlatter":11011,"ĠBel":11012,"ĠBbox":11013,"ĠBrand":11014,"textangle":11015,"verification":11016,"mailbox":11017,"defaultAxes":11018,"ipValidator":11019,"ipient":11020,"ipboard":11021,"Ġufo":11022,"latable":11023,"chsp":11024,"parallax":11025,"ĠGradient":11026,"TType":11027,"ombre":11028,"Ġopportunities":11029,"calegroup":11030,"autobin":11031,"quential":11032,"oki":11033,"okta":11034,"Ġru":11035,"Ġrate":11036,"ĠOne":11037,"ĠIlya":11038,"Ġorient":11039,"outlier":11040,"escola":11041,"maxdisplayed":11042,"Ġhandlers":11043,"Ġhamcrest":11044,"ĠHighlight":11045,"margin":11046,"TextangleValidator":11047,"\":\"":11048,"Ġ(\"???":11049,"prop":11050,"artists":11051,"ĠEdu":11052,"ĠEmploye":11053,"ĠEting":11054,"transformation":11055,"Inada":11056,"StringDtype":11057,"Ġ31446":11058,"AlignValidator":11059,"AlignmentgroupValidator":11060,"ĠRout":11061,"ĠRoughnessValidator":11062,"Ġever":11063,"duplic":11064,"ides":11065,"idesValidator":11066,"Ġitself":11067,"Ġitfinder":11068,"codestar":11069,"Clio":11070,"FileReader":11071,">@_":11072,"checkview":11073,"sizeValidator":11074,"ĠStandoffValidator":11075,"ndarray":11076,"nditer":11077,"angeValidator":11078,"StandoffValidator":11079,"after":11080,"ĠVault":11081,"Cliente":11082,"ĠMeetup":11083,"indexer":11084,"indexers":11085,"ĠdateFormat":11086,"EditorUploading":11087,"specular":11088,"ĠProperty":11089,"Process":11090,"listdir":11091,"jsonValidator":11092,"ListItem":11093,"Ġdoctest":11094,"playlist":11095,"Ġcli":11096,"ĠTextarea":11097,"ĠTextangleValidator":11098,"subprocess":11099,"Ġraises":11100,"funcValidator":11101,"Ġmenu":11102,"Ġmedia":11103,"Ġ{\"^":11104,"Ð°Ñı":11105,"dataclass":11106,"VERIFY":11107,"283":11108,"overview":11109,"RESS":11110,"ĠTypesrcValidator":11111,"Ġcomplain":11112,"')),":11113,"TypesrcValidator":11114,"ĠPylint":11115,"competicao":11116,"counts":11117,"contourValidator":11118,"contoursValidator":11119,"binxValidator":11120,"binyValidator":11121,"ĠYour":11122,"])),<":11123,"ĠNotSupport":11124,"pkix":11125,"rangement":11126,"petValidator":11127,"petstagram":11128,"Ideally":11129,"slots":11130,"Ġalong":11131,"domains":11132,"original":11133,"mysock":11134,"Ġprovides":11135,"vingWindow":11136,"URLCON":11137,"dena":11138,"ĠCustomBackend":11139,"Ġcodestar":11140,"Interval":11141,"starts":11142,"grant":11143,"grams":11144,"Ġfirstname":11145,"pract":11146,"ĠBookForm":11147,"Arr":11148,"heater":11149,"loggingTools":11150,"Ġgeek":11151,"PostDetail":11152,"urationValidator":11153,"cater":11154,"PyTest":11155,"PyTables":11156,"PREFIX":11157,"boundsValidator":11158,"labelssrc":11159,"2007":11160,"ratioValidator":11161,"serverCommand":11162,"ĠBlogListView":11163,"rangeslider":11164,"Projects":11165,"ĠFlatPage":11166,"###-####\",<":11167,"onentialMo":11168,"ĠTestModels":11169,"MultiWidget":11170,"ĠModelState":11171,"adioSelect":11172,"LookupError":11173,"CustomBackend":11174,"ofacandy":11175,"dividers":11176,"Ġlastname":11177,"Ġvalidated":11178,"2013":11179,"tiling":11180,"Ġblogapp":11181,"ĠAluguel":11182,"ĠAlignValidator":11183,"ĠAlignmentgroupValidator":11184,"Ð²ÐµÑĢ":11185,"ĠOrderItem":11186,"simpleAction":11187,"alignValidator":11188,"ColorlistValidator":11189,"newshape":11190,"Ġ###-##-##\",<":11191,"ADMIN":11192,"axeslabelsValidator":11193,"ĠdeprecatedModuleAttribute":11194,"radar":11195,"notebook":11196,"Shift":11197,"ĠContactAdmin":11198,"ÑĢÐ°Ð±":11199,"ÑĢÐ°Ð²":11200,"COUNT":11201,"randn":11202,"ãģĤ":11203,"gression":11204,"greeting":11205,"ambient":11206,"ĠCars":11207,"PackageSupport":11208,"ãĤĭ":11209,"tienda":11210,"PhProvider":11211,"since":11212,"UploadUrl":11213,"ÑĩÐ¸Ðº":11214,"etingof":11215,"ÑĢÐµÐ´":11216,"personas":11217,"Ġ#####\",<":11218,"Ġ########\",<":11219,"Ġnumbers":11220,"accessor":11221,"HomePageView":11222,"renderer":11223,"Ġcrypto":11224,"offsetgroup":11225,"673":11226,"groundcolorValidator":11227,"ĠĠĠĠĠĠĠĠĠĠĠĠĠĠĠĠĠĠĠĠĠĠĠĠĠĠĠĠĠĠĠĠĠĠĠĠĠĠĠĠ":11228,"20191202":11229,"buf":11230,"publicado":11231,"ĠFormHelpers":11232,"COMMIT":11233,"\",)}<":11234,"ÐµÐ½Ð½":11235,"alignmentgroup":11236,"Ġtoolz":11237,"Ġtoolkit":11238,"rgb":11239,"rowsizeValidator":11240,"OffsetgroupValidator":11241,"fills":11242,"ĠExtensionArray":11243,"Division":11244,"Transaction":11245,"ĠÐ¿ÑĢÐ¾":11246,"Ġperform":11247,"ĠCompanyProvider":11248,"ĠStockSerializer":11249,"Ġdifferent":11250,"uristco":11251,"binsxValidator":11252,"miosapp":11253,"constrain":11254,"pikesidesValidator":11255,"OfBound":11256,"ingroupValidator":11257,"ĠNaoki":11258,"ĠCrispyError":11259,"Ġfollowed":11260,"SIGNING":11261,"ĠMinorgrid":11262,"Ġcontato":11263,"balance":11264,"ĠSSSSSS":11265,"ĠSSSSSSS":11266,"thetaValidator":11267,"ĠTeacherAdmin":11268,"ontos":11269,"BuildPath":11270,"asiteAxes":11271,"ĠSparseArray":11272,"ĠSparseDtype":11273,"ĠOffsetgroupValidator":11274,"busca":11275,"Minorgrid":11276,"educa":11277,"patients":11278,"DefaultTable":11279,"CompanyProvider":11280,"ĠÐ¿Ð°ÑĢÐ°Ð¼ÐµÑĤÑĢÑĭ":11281,"ĠSpace":11282,"ixedForward":11283,"quotes":11284,"BackendQTAgg":11285,"BackendQTCairo":11286,"ÐĺÐ·":11287,"ĠÑĦÐ¸Ð»ÑĮÑĤÑĢÐ°ÑĨÐ¸Ð¸":11288,"Ġcorrespon":11289,"ĠMaxdisplayedValidator":11290,"Ð°Ð»Ð¸Ð·":11291,"ĠExpanding":11292,"ĠExponentialMo":11293,"Ġmonkeyp":11294,"markets":11295,"PositionValidator":11296,"draft":11297,"roughness":11298,"ĠCountValidator":11299,"filebrowserBrow":11300,"filebrowserUploadUrl":11301,"graphql":11302,"ĠPositionValidator":11303,"Something":11304,"depthValidator":11305,"Ġcytoolz":11306,"ĠPlace":11307,"ĠPeriodIndex":11308,"backgroundValidator":11309,"MaxdisplayedValidator":11310,"SpecularValidator":11311,"categoricals":11312,"TZDtype":11313,"ĠPartyAnimal":11314,"ĠSpecularValidator":11315,"ĠVegetables":11316,"Ġcompressor":11317,"]+)/$\",":11318,"ĠEventoAdmin":11319,"Ġoperator":11320,"ĠÐ½ÐµÐ¾Ð±ÑħÐ¾Ð´Ð¸Ð¼Ð¾ÑģÑĤÐ¸":11321,"CountValidator":11322,"ĠLookupError":11323,"colormapValidator":11324,"encodings":11325,"constructor":11326,"Ġplays":11327,"Ġhinting":11328,"shadingValidator":11329,"songofacandy":11330,"ĠÐ¿Ð¾Ð»Ñı":11331,"ĠIsOwnerOrReadOnly":11332,"UFOLibError":11333,"uxTrans":11334,"idkeyValidator":11335,"ORTED":11336,"##-#######\",<":11337,"arginValidator":11338,"binsyValidator":11339,"elformatValidator":11340,"ranchvaluesValidator":11341,"sidered":11342,"å®ļ":11343,"ĠDynamicError":11344,"ĠÑĩÑĤÐ¾":11345,"otationValidator":11346,"adiusValidator":11347,"Ġbehavior":11348,"ividad":11349,"ĠÑģÑĤÑĢÐ¾ÐºÑĥ":11350,"ĠFLAG":11351,"participants":11352,"ĠÑģÐ¿Ð¸ÑģÐ¾Ðº":11353,"ĠFrontendConfig":11354,"RootS":11355,"atistics":11356,"ĠCDP":11357,"ĠPaul":11358,"feaLib":11359,"PONSE":11360,"VOLT":11361,"lifLibError":11362,"ĠFloatModel":11363,"Mission":11364,"fwf":11365,"spline":11366,"turisticos":11367,"Ġpivot":11368,"ĠTwoConfig":11369,"ĠSwartz":11370,"ableOffsetWindowIndexer":11371,"ĠLikedItem":11372,"defaultAxesClass":11373,"ĠufoLib":11374,"calegroupValidator":11375,"ĠEtingof":11376,"duplicating":11377,"EditorUploadingWidget":11378,"ĠNotSupportedError":11379,"URLCONF":11380,"PackageSupportBuildPath":11381,"ĠFormHelpersException":11382,"OfBoundsDatetime":11383,"ixedForwardWindowIndexer":11384,"Ġcorrespond":11385,"ĠExponentialMovingWindow":11386,"filebrowserBrowseUrl":11387,"!\"<":11388,"\"}":11389,"\"><":11390,"'}),":11391,")?":11392,"+\")":11393,".')":11394,"/$\",":11395,"2000":11396,"208":11397,"3000":11398,"65":11399,"75":11400,"84":11401,"91":11402,"92":11403,":/":11404,"At":11405,"BO":11406,"Bot":11407,"BIT":11408,"Day":11409,"DOU":11410,"DROP":11411,"FLO":11412,"GU":11413,"Go":11414,"IMP":11415,"KIP":11416,"MO":11417,"Mater":11418,"Music":11419,"Normal":11420,"OL":11421,"Sens":11422,"Sale":11423,"Scheduler":11424,"Software":11425,"Temp":11426,"UER":11427,"Video":11428,"]\")<":11429,"]'])]<":11430,"avel":11431,"adena":11432,"bd":11433,"bn":11434,"bike":11435,"baz":11436,"battle":11437,"circle":11438,"eth":11439,"foc":11440,"foto":11441,"frequencies":11442,"gf":11443,"gateway":11444,"hao":11445,"iro":11446,"jav":11447,"lin":11448,"land":11449,"mi":11450,"mock":11451,"nnotes":11452,"px":11453,"persist":11454,"rst":11455,"tinymce":11456,"uses":11457,"uck":11458,"validator":11459,"witter":11460,"yb":11461,"you":11462,"zure":11463,"Ð¶":11464,"äº":11465,"åĽ":11466,"è·":11467,"Ġir":11468,"Ġ404":11469,"ĠÐµ":11470,"Ġplace":11471,"Ġextensions":11472,"Ġroll":11473,"Ġzero":11474,"ins":11475,"inical":11476,"instagram":11477,"arily":11478,"alendar":11479,"ana":11480,"annel":11481,"asset":11482,"assets":11483,"asics":11484,"lear":11485,"stuff":11486,"otp":11487,"Ġput":11488,"Ġtmp":11489,"Ġtweet":11490,"apon":11491,"Ġ\"{}":11492,"Ġmanag":11493,"Ġmusic":11494,"Ġselenium":11495,"opulate":11496,"contains":11497,"Ġret":11498,"Ġrece":11499,"Ġsk":11500,"Ġshell":11501,"Ġsale":11502,"exc":11503,"coding":11504,"getNotes":11505,"terhouse":11506,"Ġvirtualenv":11507,"ĠTweet":11508,"ĠAut":11509,"ĠSend":11510,"ĠSocial":11511,"ĠSingleton":11512,"Ġcart":11513,"Ġcast":11514,"('/<":11515,"mails":11516,"allow":11517,"Ġbuilt":11518,"that":11519,"ĠCK":11520,"008":11521,"istas":11522,"Ġaware":11523,"Ġforward":11524,"ĠME":11525,"hour":11526,"Ġdat":11527,"Ġdotenv":11528,"Ġconsumer":11529,"Ġconvert":11530,"Ġnet":11531,"ĠLANGUAGE":11532,"LEEW":11533,"ĠFunction":11534,"Ġlarge":11535,"ĠButton":11536,"Ġ(%":11537,"Ġoscar":11538,"defaultfilters":11539,"ipc":11540,"heroku":11541,"lated":11542,"chrome":11543,"laugh":11544,"Ġvariant":11545,"hard":11546,"ĠUSE":11547,"ĠUrls":11548,"ĠUbuntu":11549,"Ġstyle":11550,"pression":11551,"prefetch":11552,"ecute":11553,"marca":11554,"014":11555,"ĠEpisode":11556,"ĠBaseUser":11557,"imiter":11558,"performance":11559,"AUDI":11560,"eggs":11561,"ALL":11562,"ALGORI":11563,"Files":11564,"Pool":11565,"endereco":11566,"ĠWr":11567,"UserViewSet":11568,"ĠValid":11569,"ĠMethod":11570,"Profiles":11571,"ancel":11572,"Timedelta":11573,"ĠTicket":11574,"Ġsubclasses":11575,"DIRECT":11576,"subs":11577,"Ġraw":11578,"INSTAL":11579,"venue":11580,"ffice":11581,"Ð¸Ð°Ð»Ð¸Ð·":11582,"THM":11583,"Submit":11584,"'])":11585,"ĠInternet":11586,"')()<":11587,"')},<":11588,"Ġoutstanding":11589,"Ġbutton":11590,"ĠÐĴ":11591,"ĠPostConfig":11592,"ulario":11593,"ushes":11594,"valor":11595,"0400":11596,"ĠDeprecationWarning":11597,"booking":11598,"rain":11599,"processors":11600,"Ġwrite":11601,"Ġsphinx":11602,"Ġcodecs":11603,"Ġtopics":11604,"ĠTodoList":11605,"ÑģÐµ":11606,"TokenBlacklistConfig":11607,"diu":11608,"ĠMarca":11609,"ĠTokenBlacklistConfig":11610,"udget":11611,"Ġcoverage":11612,"DetailAPIView":11613,"ĠTranslator":11614,"rower":11615,">/',<":11616,"precio":11617,"ĠTestF":11618,"Multiple":11619,"ashActivator":11620,"rawl":11621,"Ð»Ð¾":11622,"ĠZone":11623,"ĠCategorySerializer":11624,"ÑĥÑİ":11625,"ROW":11626,"ĠItemSerializer":11627,"Ġbuiltins":11628,"canvas":11629,"ĠOrderViewSet":11630,"empresa":11631,"offsets":11632,"ADATA":11633,"Ġsignature":11634,"Ġhttpie":11635,"ĠÐ´Ð°Ð½Ð½Ñĭ":11636,"Ð¾Ð²ÐµÑĢ":11637,"={('":11638,"UpdateDestroy":11639,"Shim":11640,"ãĥ«":11641,"Domain":11642,"verters":11643,"ishActivator":11644,"anguages":11645,"ambre":11646,"ĠCarSerializer":11647,"ÐµÑĤÐ°":11648,"ÐµÑĤÑģÑı":11649,"ÐºÐ¸":11650,"ÐºÐ°Ð¶":11651,"Ġrecord":11652,"ĠHelloConfig":11653,"ĠCategories":11654,"ĠÑģÐ¾":11655,"ĠAboutView":11656,"libreria":11657,"Ġcatalog":11658,"imagen":11659,"salary":11660,"SimpleRouter":11661,"ĠCoun":11662,"icycle":11663,"ÐµÑĢÐ¸Ð°Ð»Ð¸Ð·":11664,"ÐŁÐ¾ÑģÑĤ":11665,"slice":11666,"izzas":11667,"Translation":11668,"Ġkeys":11669,"albums":11670,"headline":11671,"Ġcuts":11672,"ĠCategoriaAdmin":11673,"cessed":11674,"VARCHAR":11675,"ĠÐ¾Ð±ÑĢÐ°Ð±":11676,"Close":11677,"Cloud":11678,"ĠMembersConfig":11679,"INTER":11680,"meetups":11681,"factories":11682,"FIELDS":11683,"DATETIME":11684,"Ġpaypalhttp":11685,"Ġ%}.',<":11686,"0000000000000000":11687,"switch":11688,"ÐĲÐ²ÑĤÐ¾ÑĢ":11689,"SOCK":11690,"METADATA":11691,"criacao":11692,"ĠToolkit":11693,"recently":11694,"ĠÐ·Ð°Ð³":11695,"ĠÐ·Ð°Ð¿":11696,"Related":11697,"WithRe":11698,"Extension":11699,"JWK":11700,"JWT":11701,"Ġerr":11702,"assertIsInstance":11703,"Flushes":11704,"Ġfeedback":11705,"owerShellActivator":11706,"ineraries":11707,"confirmation":11708,"Bearer":11709,"ĠPontoTuristico":11710,"lectronic":11711,"ĠÐºÐ¾Ð½ÑĤ":11712,"ENCE":11713,"UBLIC":11714,"SERVICE":11715,"ÐŁÑĢÐ¾Ð²ÐµÑĢ":11716,"ganization":11717,"Toolbar":11718,"edidos":11719,"ĠLibro":11720,"nosis":11721,"æĹ¥":11722,"ospital":11723,"quiry":11724,"ĠOpenIdConnectAuth":11725,"ĠÐ·Ð°Ð´Ð°Ð¹ÑĤÐµ":11726,"åĩº":11727,"ĠDelivery":11728,"ĠIOError":11729,"ĠCalculatorConfig":11730,"ISSUER":11731,"³Ð¸ÑģÑĤÑĢ":11732,"onymous":11733,"Ġbetween":11734,"='-'),<":11735,"hospital":11736,"ĠEducation":11737,"VERIFYING":11738,"ĠSpaceobjects":11739,"DOUBLE":11740,"FLOAT":11741,"Ġmanaging":11742,"LEEWAY":11743,"laughterhouse":11744,"AUDIENCE":11745,"ALGORITHM":11746,"INSTALL":11747,"ÐµÑĢÐ¸Ð°Ð»Ð¸Ð·Ð°ÑĤÐ¾ÑĢ":11748,"$',<":11749,"(-":11750,"(('":11751,")},<":11752,",):<":11753,"->":11754,".\")":11755,"/\\":11756,"/><":11757,"214":11758,"512":11759,"70":11760,"950":11761,":\"))<":11762,"=_":11763,"As":11764,"ACT":11765,"Auction":11766,"Band":11767,"Bank":11768,"Cat":11769,"DO":11770,"Done":11771,"Dashboard":11772,"Edit":11773,"ENC":11774,"Faker":11775,"GEO":11776,"Hist":11777,"Hide":11778,"Hotel":11779,"HERE":11780,"Import":11781,"Lazy":11782,"Med":11783,"Mand":11784,"Mail":11785,"MORE":11786,"MirrorValidator":11787,"Offer":11788,"Opportunity":11789,"PG":11790,"Pay":11791,"Plat":11792,"Press":11793,"Panel":11794,"PadValidator":11795,"RF":11796,"SOR":11797,"Split":11798,"SymbolValidator":11799,"ShowspikesValidator":11800,"TK":11801,"TXT":11802,"Wild":11803,"WEB":11804,"XperiodalignmentValidator":11805,"YEAR":11806,"]']),":11807,"builtin":11808,"cy":11809,"curr":11810,"cfg":11811,"cinema":11812,"eid":11813,"fv":11814,"fon":11815,"fcm":11816,"fleet":11817,"gpl":11818,"hproject":11819,"hub":11820,"high":11821,"iac":11822,"ius":11823,"jup":11824,"kk":11825,"kEditor":11826,"lue":11827,"lata":11828,"live":11829,"male":11830,"mirror":11831,"ned":11832,"nuevo":11833,"ov":11834,"oup":11835,"ool":11836,"pend":11837,"paypal":11838,"qs":11839,"sat":11840,"sim":11841,"tm":11842,"uation":11843,"wers":11844,"yter":11845,"zen":11846,"zod":11847,"}'.":11848,"¡ç":11849,"¯çĶ":11850,"åĬ":11851,"è¯":11852,"Ġæ":11853,"ĲĨ":11854,"atype":11855,"separator":11856,"ince":11857,"inBo":11858,"implicit":11859,"amel":11860,"anie":11861,"desk":11862,"asi":11863,"asury":11864,"Ġ=>":11865,"itWild":11866,"ster":11867,"djangochat":11868,"djangocrud":11869,"Ġpgen":11870,"atory":11871,"icec":11872,"Ġdjangochat":11873,"Ġdjangocrud":11874,"Ġ\"?":11875,"Ġ\"###":11876,"health":11877,"isol":11878,"bases":11879,"Ġregistr":11880,"Ġreactor":11881,"Ġreceitas":11882,"Ġson":11883,"Ġsafe":11884,"Ġsitemap":11885,"exclude":11886,"coast":11887,"aci":11888,"ingConfig":11889,"Ġnames":11890,"ĠTIN":11891,"ĠTutorial":11892,"ĠAv":11893,"Ġgetaddrinfo":11894,"iblog":11895,"andint":11896,"ĠSO":11897,"ĠSTA":11898,"ĠSymbolValidator":11899,"ĠShowspikesValidator":11900,"mins":11901,"allery":11902,"allticks":11903,"Ġocc":11904,"unregister":11905,"Ġbabel":11906,"ĠChar":11907,"ĠCash":11908,"ĠCookie":11909,"isti":11910,"ĠMOD":11911,"ĠMirrorValidator":11912,"formset":11913,"hoo":11914,"hola":11915,"Ġdt":11916,"Ġdjoser":11917,"ĠNatural":11918,"autom":11919,"comme":11920,"Real":11921,"Reporter":11922,"Represents":11923,"Ġexact":11924,"strptime":11925,"Ġdes":11926,"Ġdest":11927,"SENT":11928,"='/":11929,"~~<":11930,"ĠPlayer":11931,"ĠPadValidator":11932,"ĠPinBo":11933,"Ġtoo":11934,"ĠBad":11935,"ĠBASE":11936,"Ġ2001":11937,"Ġ249":11938,"Ġ246":11939,"Ġ247":11940,"Ġ248":11941,"Ġ245":11942,"spikes":11943,"Ġ(###)":11944,"htm":11945,"Ġuntil":11946,"Ġusuario":11947,"Ġugettext":11948,"ĠGitWild":11949,"ANGED":11950,"Ġconfigobj":11951,"ĠReservation":11952,"arehouse":11953,"imeiro":11954,"registered":11955,"Ġruntime":11956,"Ġrandint":11957,"ĠUsu":11958,"Ġstudy":11959,"andlerView":11960,"schemas":11961,"etc":11962,"etlist":11963,"Ġhor":11964,"amo":11965,"ĠHandlerView":11966,"prog":11967,"Ġcoer":11968,"Ġcookie":11969,"CHANGED":11970,"PED":11971,"PES":11972,"ĠENUM":11973,"pathspec":11974,"ĠBaseEndpoint":11975,"keys":11976,"iming":11977,"conftest":11978,"JSONRenderer":11979,"perm":11980,"Information":11981,"Include":11982,"syntax":11983,"need":11984,"ĠRO":11985,"ĠRender":11986,"ithual":11987,"apiConfig":11988,"apisettings":11989,"Ġeb":11990,"ident":11991,"Clipboard":11992,"egin":11993,"FilePath":11994,"ĠState":11995,"TIT":11996,"Ġtransport":11997,"ĠWHERE":11998,"ĠOrders":11999,"Commands":12000,"EmailInput":12001,"ĠUserRegistration":12002,"Ġgender":12003,"Debug":12004,"Stand":12005,"ĠVis":12006,"Ġpreparation":12007,"Testing":12008,"Ġinteract":12009,"specific":12010,"PDF":12011,"columns":12012,"TimeDel":12013,"ordered":12014,"orderitem":12015,"visors":12016,"icture":12017,"0017":12018,"SIZE":12019,"Ġsubmodule":12020,"playlists":12021,"groupgap":12022,"DIA":12023,"Ġ2004":12024,"subscriptions":12025,"Names":12026,"myblog":12027,"mytodo":12028,"myworld":12029,"mynotes":12030,"ĠKitap":12031,"ĠErrors":12032,"LOCAL":12033,"#######":12034,"eye":12035,"ĠRegisterAPIView":12036,"Ð°ÑĢ":12037,"nothing":12038,"Ð¸ÑĪ":12039,"ĠAPIException":12040,"ookies":12041,"Ġchars":12042,"Arrayterator":12043,"Ġparticular":12044,"ĠInternetProvider":12045,"Ġcomponent":12046,"')))<":12047,"'))\"<":12048,"apscheduler":12049,"ĠMultiIndex":12050,"tours":12051,"firstname":12052,"Ġcannot":12053,"such":12054,"ĠÐŁ":12055,"ĠPostDetailView":12056,"ĠXperiodalignmentValidator":12057,"Implementation":12058,"Ġloop":12059,"Ġaluguel":12060,"ÑĢÐ¸Ð":12061,"Ġaddition":12062,"0423":12063,"PYTZ":12064,"../":12065,"URLs":12066,"CAPES":12067,"Templates":12068,"monitor":12069,"ĠTodoViewSet":12070,"Ð°Ð¼":12071,"TokenEndpoint":12072,"Ġjs":12073,"Ġjwt":12074,"ĠBookSerializer":12075,"IdField":12076,"Ġ251":12077,"Ġ252":12078,"Ġ253":12079,"Ġ254":12080,"[:-":12081,">~~~~~~~~~~~~~~~~~~~~~~~~":12082,">~~~~~~~~~~<":12083,"2005":12084,"Layout":12085,"APPO":12086,"HeightValidator":12087,"ĠĠĠĠĠĠĠĠĠĠĠĠĠĠĠĠĠĠ":12088,"ĠĠĠĠĠĠĠĠĠĠĠĠĠĠĠĠĠĠĠĠĠĠĠĠĠ":12089,"letion":12090,"CURSOR":12091,"Ġshape":12092,"channels":12093,"MatchPattern":12094,"{}\".":12095,"ĠSubscription":12096,"ivar":12097,"ivro":12098,"########\",)<":12099,"Ġmytodo":12100,"Ġmyworld":12101,"Ġmynotes":12102,"within":12103,"ManagerMission":12104,"MEDIUM":12105,"ĠHomepage":12106,"ĠHomePage":12107,"Pickler":12108,"ÑĭÐ¹":12109,"ĠÐ¿Ð¾":12110,"ĠÐ¿Ð¾Ð»ÑĮÐ·Ð¾Ð²Ð°ÑĤÐµÐ»":12111,"ĠÐ¿ÑĢÐ°Ð²":12112,"phinx":12113,"offline":12114,"credit":12115,"chats":12116,"ĠCling":12117,"ĠWebsocket":12118,"ĠÐ´Ð¾Ð±Ð°Ð²":12119,"ApiViewSet":12120,"sentiment":12121,"warns":12122,"covery":12123,"Ð½Ð¾":12124,"Ð½Ð¾Ðµ":12125,"deleted":12126,"Generated":12127,"Ð¾Ð»Ð°":12128,"Ð¾Ð»Ð½":12129,"Ð¾Ð»ÑĥÑĩ":12130,"Shortener":12131,"ĠContactView":12132,"ResultView":12133,"crudproject":12134,"attendance":12135,"randint":12136,"ãģ«":12137,"Ġbookstore":12138,"gretting":12139,"-####-###\",<":12140,"ĠIsAdmin":12141,"Permissions":12142,"ãĤ¿":12143,"travel":12144,"ĠCompress":12145,"ĠLevel":12146,"ĠTimeFromTicks":12147,"ĠTimeSta":12148,"Compiler":12149,"Compatibility":12150,"reports":12151,"PROJECT":12152,"NBitBase":12153,"scalar":12154,"showspikes":12155,"jobs":12156,"ChoiceFilter":12157,"elements":12158,"sala":12159,"Ġavatar":12160,"Ġsimplejson":12161,"LICENSE":12162,"foobar":12163,"ĠPersona":12164,"ĠCollection":12165,"Ġknox":12166,"ollar":12167,"gitwild":12168,"ĠAddressViewSet":12169,"examples":12170,"exampleapp":12171,"ĠChatConsumer":12172,"QUEST":12173,"IPT":12174,"Ġgrab":12175,"ĠEmpresa":12176,"Ġsnippets":12177,"anually":12178,"Ġpriority":12179,"Contacto":12180,"OpenIdConnect":12181,"ĠFeedSource":12182,"dentialsGrant":12183,"xperiodalignment":12184,"CRIPT":12185,"corp":12186,"Ð°ÑĨÐ¸Ñı":12187,"CONFI":12188,"ĠCrypto":12189,"ĠDateFromTicks":12190,"ĠÑĥÐºÐ°Ð¶":12191,"rottling":12192,"gramm":12193,"lonaxis":12194,"LONGLONG":12195,"Ġslugify":12196,"Ġgreeting":12197,"Ġgreentest":12198,"Ġlocaltime":12199,"ĠTimestampFromTicks":12200,"Feedback":12201,"AUTOCOMMIT":12202,"Ð»Ð°ÑģÑģ":12203,"ĠFIRST":12204,"BACKSLASH":12205,"ESCAPES":12206,"Ġ32767":12207,"ĠLabelsValidator":12208,"ĠLabelssrcValidator":12209,"ZerolineValidator":12210,"ZerolinecolorValidator":12211,"ZerolinewidthValidator":12212,"ĠZerolineValidator":12213,"ĠZerolinecolorValidator":12214,"ĠZerolinewidthValidator":12215,"zerolinecolor":12216,"zerolinewidth":12217,"LabelsValidator":12218,"LabelssrcValidator":12219,"leanup":12220,"Ġmonkey":12221,"ĠAbstractDistribution":12222,"Ġactually":12223,"blem":12224,"implementations":12225,"ĠTodosConfig":12226,"AbstractDistribution":12227,"gnu":12228,"__='''":12229,"METRY":12230,"itamins":12231,"ĠPrice":12232,"CredentialsGrant":12233,"SpikecolorValidator":12234,"SpikethicknessValidator":12235,"wildcard":12236,"ĠSpikecolorValidator":12237,"ĠSpikethicknessValidator":12238,"spikecolor":12239,"spikethickness":12240,"ĠSchoolConfig":12241,"Ð¢ÐµÐºÑģÑĤ":12242,"Extend":12243,"Film":12244,"SHORT":12245,"geeks":12246,"geekshop":12247,"ĠSupportsIndex":12248,"ĠIntervalIndex":12249,"ĠClassroom":12250,"ACCOUNT":12251,"ĠSnippetsConfig":12252,"ĠRefreshTokenGrant":12253,"ĠTestPickle":12254,"LAST":12255,"treasury":12256,"ĠLocal":12257,"TokenGrantDispatcher":12258,"Ġjoblib":12259,"NEWDATE":12260,"NEWDECIMAL":12261,"ĠWebsiteSection":12262,"GOOD":12263,"ĠHeightValidator":12264,"Expired":12265,"ascii":12266,"ĠRunner":12267,"ENTRY":12268,"SwaggerError":12269,"grade":12270,"Ġattempts":12271,"ĠElemental":12272,"ĠVerify":12273,"ĠTimedeltaIndex":12274,"ĠImplicitGrant":12275,"ToDoList":12276,"mbedded":12277,"RESULTS":12278,">====================":12279,"ElementInclude":12280,"è¡¨":12281,"amento":12282,"ĠCredit":12283,"izontal":12284,"ĠUserInfoEndpoint":12285,"ĠREQUIRED":12286,"creteModel":12287,"wideuk":12288,"Ð¤Ð¸Ð»ÑĮÑĤÑĢ":12289,"Ġdevelopers":12290,"REGISTRATION":12291,"pontoturistico":12292,"Overview":12293,"Ġ???\",<":12294,"itcoinrate":12295,"Ġturned":12296,"Ġruamel":12297,"Ġgeekshop":12298,"DROPPED":12299,"IMPORTED":12300,"ybrid":12301,"è·¯çĶ":12302,"Ġtmpdir":12303,"ĠMEDIA":12304,"ĠÐ´Ð°Ð½Ð½ÑĭÑħ":12305,"INTERVAL":12306,"ĠÐºÐ¾Ð½ÑĤÐµÐºÑģÑĤ":12307,"ÐŁÑĢÐ¾Ð²ÐµÑĢÑĮÑĤÐµ":12308,"GEOMETRY":12309,"cytoolz":12310,"jupyter":12311,"lataxis":12312,"zodiac":12313,"isolation":12314,"ĠTINY":12315,"ĠPinBoards":12316,"ĠGitWildMatchPattern":12317,"FilePathField":12318,"Ġtransports":12319,"TimeDelta":12320,"gitwildmatch":12321,"è·¯çĶ±":12322,"\"(\\.":12323,"'(-":12324,")$\"<":12325,"*'<":12326,"-]+":12327,".\"),<":12328,"/.<":12329,"/([":12330,"216":12331,"359":12332,"429":12333,"74":12334,":])<":12335,"=<":12336,"='<":12337,">%":12338,">(":12339,">})<":12340,"ACCE":12341,"Assert":12342,"BLA":12343,"Cream":12344,"Catering":12345,"Cookies":12346,"DLI":12347,"FS":12348,"LANGUAGE":12349,"MB":12350,"Num":12351,"Pet":12352,"Plan":12353,"Sender":12354,"Small":12355,"Stock":12356,"SCRIPT":12357,"TP":12358,"Tod":12359,"TLS":12360,"Validation":12361,"avaliacoes":12362,"bf":12363,"bine":12364,"bill":12365,"bye":12366,"bundle":12367,"block":12368,"cce":12369,"cine":12370,"cresource":12371,"cursos":12372,"cacert":12373,"ete":12374,"fotos":12375,"gu":12376,"gol":12377,"hort":12378,"han":12379,"hapro":12380,"iend":12381,"ived":12382,"ience":12383,"iography":12384,"je":12385,"jk":12386,"kb":12387,"kr":12388,"ky":12389,"lst":12390,"lap":12391,"mant":12392,"mangle":12393,"managers":12394,"mistry":12395,"pull":12396,"paper":12397,"pizzas":12398,"pedidos":12399,"sair":12400,"tl":12401,"uc":12402,"ufact":12403,"vtk":12404,"wj":12405,"who":12406,"|_":12407,"|__":12408,"}.":12409,"¨Ðº":12410,"»é":12411,"Ðĵ":12412,"Ðļ":12413,"Ðł":12414,"Ð¨Ðº":12415,"ä½":12416,"åı":12417,"æķ":12418,"ï¼":12419,"Ġ,<":12420,"Ġ\",":12421,"Ġest":12422,"Ġ}),<":12423,"ĠViewSet":12424,"Ġ})":12425,"Ġãĥ":12426,"orias":12427,"atche":12428,"sell":12429,"inch":12430,"insecure":12431,"aleria":12432,"anne":12433,"annot":12434,"analysis":12435,"dept":12436,"__)/":12437,"plataforma":12438,"romot":12439,"itable":12440,"reeting":12441,"remental":12442,"leave":12443,"lebr":12444,"ida":12445,"idade":12446,"stors":12447,"uting":12448,"ota":12449,"otote":12450,"Ġpatch":12451,"Ġdjangoproject":12452,"Ġ\"$":12453,"Ġmapp":12454,"Ġmigr":12455,"Ġmatrix":12456,"Ġmanually":12457,"ental":12458,"ently":12459,"entic":12460,"Ġsep":12461,"Ġsens":12462,"urer":12463,"hether":12464,"isdigit":12465,"Ġfod":12466,"conte":12467,"conch":12468,"container":12469,"Ġregistration":12470,"Ġsample":12471,"Ġsnack":12472,"Ġscheduler":12473,"Ġsurname":12474,"Ġsorl":12475,"=\"{":12476,"=\"__":12477,"exist":12478,"tras":12479,"Ġvideo":12480,"figure":12481,"advertisements":12482,"Ġinte":12483,"Ġinline":12484,"Ġinner":12485,"abs":12486,"ĠTk":12487,"ĠTax":12488,"ĠTarefa":12489,"ectedError":12490,"ĠAction":12491,"ĠApartments":12492,"ores":12493,"atever":12494,"ĠSphinx":12495,"Ġcpf":12496,"Ġcacert":12497,"ceCream":12498,"('\\":12499,"oder":12500,"serialize":12501,"Ġoauth":12502,"Ġsupposed":12503,"una":12504,">##":12505,"Ġbio":12506,"Ġblock":12507,"then":12508,"ĠCython":12509,"ĠCkEditor":12510,"itest":12511,"itespace":12512,"Ġaff":12513,"look":12514,"tox":12515,"ĠMode":12516,"ĠMPL":12517,"ĠDateTime":12518,"acks":12519,"ackages":12520,"Ġconstant":12521,"Resol":12522,"Resolver":12523,"Receitas":12524,"Reservation":12525,"Ġextras":12526,"admins":12527,"administr":12528,"ocr":12529,"Ġdeprecate":12530,"reshold":12531,"ickstart":12532,"ĠPick":12533,"ĠPub":12534,"ĠPRE":12535,"ĠPatient":12536,"ĠFil":12537,"Ġlater":12538,"Ġlxml":12539,"ĠBranch":12540,"Ġ24":12541,"versed":12542,"intro":12543,"spr":12544,"mailing":12545,"ipment":12546,"ipyn":12547,"urlencode":12548,"logy":12549,"chno":12550,"chron":12551,"ĠGPL":12552,"ĠNONE":12553,"ĠRetrieve":12554,"ĠResume":12555,"ĠRegression":12556,"ODER":12557,"quit":12558,"quipment":12559,"0223":12560,"okeh":12561,"ĠOID":12562,"ĠIPython":12563,"filepath":12564,"ncoded":12565,"Ġstable":12566,"Ġstatistics":12567,"ecca":12568,"esa":12569,"esome":12570,"viewset":12571,"Ġhapp":12572,"ĠHotel":12573,"AdminConfig":12574,"mozilla":12575,"Ġnotes":12576,"ĠEd":12577,"ĠEASY":12578,"CKEditorWidget":12579,"ĠBaseModel":12580,"TECT":12581,"indices":12582,"Invoice":12583,"dish":12584,"ĠSettings":12585,"CEHOLDER":12586,"antic":12587,"BUFF":12588,"direnv":12589,"atters":12590,"Ġproduto":12591,"Already":12592,"Ġename":12593,"Ġemac":12594,"formatting":12595,"orgot":12596,"Click":12597,"ship":12598,"Ġformulario":12599,"Point":12600,"ĠStatus":12601,"postal":12602,"Ġdistributed":12603,"ĠWatch":12604,"Ġgame":12605,"Ġgreenlet":12606,"Ġgeneration":12607,"Device":12608,"NDING":12609,"UserRateThrottle":12610,"TestPlugin":12611,"pypackages":12612,"ĠMeeting":12613,"pyw":12614,"Ġtesttools":12615,"Ġcollection":12616,"special":12617,"specialist":12618,"undo":12619,"unding":12620,"ListModelMixin":12621,"Ġrestaurant":12622,"509":12623,"Ġdomain":12624,"0018":12625,"iterator":12626,"shortcode":12627,"shortner":12628,"20201":12629,"Ġnullcontext":12630,"Ġcommands":12631,"INCLUDES":12632,"ĠThese":12633,"Ġnecess":12634,"Setup":12635,"Ġinternally":12636,"Ġparses":12637,"ĠConf":12638,"ÐµÑģÑĤÐ²":12639,"Ġatexit":12640,"ĠListTodo":12641,"#####":12642,"0700":12643,"Ð¸Ñı":12644,"entries":12645,"ÑĤÐ¸":12646,"ÑĤÑĮ":12647,"Ġcompat":12648,"Ġcompute":12649,"Ġ2017":12650,"')[":12651,"doctor":12652,"component":12653,"readonly":12654,"DjangoConfig":12655,"DjangoApp":12656,"ĠPosts":12657,"ĠTransport":12658,"signUp":12659,"slack":12660,"dicts":12661,"Expose":12662,"readed":12663,"ĠDetails":12664,"Ġdiscount":12665,"rava":12666,"processa":12667,"Memo":12668,"ĠProductImage":12669,"Ġwrit":12670,"ĠNameForm":12671,"redoc":12672,"uploadfile":12673,"Ġcodes":12674,"ĠTodoForm":12675,"ĠTodoUser":12676,"Ð°Ð³":12677,"Ð°Ð¿":12678,"digo":12679,"markdown":12680,"ĠArmy":12681,"ĠBookConfig":12682,"ĠBookListView":12683,"restapi":12684,"Ġutilities":12685,"TURE":12686,"returned":12687,"delitem":12688,"==<":12689,"faker":12690,"Column":12691,"expectedError":12692,"rater":12693,"ratings":12694,"BBBBBB":12695,"formed":12696,"rowser":12697,"letter":12698,"ĠTestModel":12699,"MultiError":12700,"ĠModelB":12701,"ĠMainAppConfig":12702,"Ġtelegram":12703,"ĠAPP":12704,"Ġhead":12705,"ProductDetail":12706,"...)":12707,"records":12708,"DateConverter":12709,"Ġ88":12710,"ĠProfileSerializer":12711,"ĠTaskAdmin":12712,"Ġjsonify":12713,"648":12714,"studentatten":12715,"ĠLoginConfig":12716,"RunserverCommand":12717,"partner":12718,"ĠCommentsConfig":12719,"placement":12720,"'),)},<":12721,"ObjectType":12722,"ĠAuthorAdmin":12723,"ipped":12724,"Noticia":12725,"encia":12726,"ADDR":12727,"Ġsignup":12728,"FILES":12729,"ĠÐ´ÐµÐ¹":12730,"ĠSerializer":12731,"Ð¾Ð²Ð°ÑĤÑĮ":12732,"carts":12733,"ĠMozilla":12734,"celular":12735,"Ð¾Ð»Ð¾Ð²":12736,"Ġordered":12737,"Ġcredentials":12738,"servations":12739,"ãģĻ":12740,"Websocket":12741,"ĠChrome":12742,"ĠÐ²ÑģÐµ":12743,"ValueError":12744,"ãĤ¹":12745,"Authorization":12746,"chemistry":12747,"ĠLearning":12748,"Ġcustomized":12749,"PROTECT":12750,"avorite":12751,"AlterModelTable":12752,"Ð¾Ð´Ð¿Ð¸Ñģ":12753,"ĠMovieSerializer":12754,"svn":12755,"ĠGroupSerializer":12756,"\"/(\\.":12757,"676":12758,"ÐµÐ»ÑĮ":12759,"arket":12760,"ÐµÐ½ÑĤÐ°":12761,"\"^(?":12762,"Ð´Ñĥ":12763,"EXCLUDES":12764,"closest":12765,"FUTURE":12766,"AttributeError":12767,"ÐŁÐ¾Ð»ÑĥÑĩ":12768,"Ġadvertisements":12769,"Ġquantity":12770,"Ġcopyreg":12771,"ĠUpdateView":12772,"Diag":12773,"Ġmarket":12774,"ĠClose":12775,"Ġperf":12776,"FORCE":12777,"ĠFeeding":12778,"Ġmetaclass":12779,"kitap":12780,"nomarket":12781,"Versions":12782,"correct":12783,"FILENAME":12784,"Ġsecure":12785,"ĠAdvertisementsConfig":12786,"ĠAdvertisementFilter":12787,"ĠDetailTodo":12788,"brands":12789,"ĠThreaded":12790,"Character":12791,"Ġrepresenting":12792,"ĠBBBBBBBBBB":12793,"INTMENT":12794,"Ð½ÑĭÐ¹":12795,"uzzer":12796,"Ġ='__":12797,"ĠÑĦÐ¸Ð»ÑĮÑĤÑĢÑĭ":12798,"çĶ¨":12799,"ĠAbstractBaseUser":12800,"ĠListingAdmin":12801,"RetrieveUpdateDestroy":12802,"20160423":12803,"categorias":12804,"payments":12805,"ĠÐ²ÑĭÐ²":12806,"Ġmypyc":12807,"Ġconstruct":12808,"MethodField":12809,"ializedNested":12810,"Ġdeclaration":12811,"Ġdeclarations":12812,"ausente":12813,"ĠBBBBBBB":12814,"bucketlist":12815,"ĠMeasurementConfig":12816,"altor":12817,"teenthCRUD":12818,"ĠParser":12819,"Memory":12820,"ÑģÐ»Ð¸":12821,"Ð¡ÑĤÐ°ÑĤÑĮÐ¸":12822,"Accept":12823,"Place":12824,"adastrar":12825,"paid":12826,"relevant":12827,"Ġelements":12828,"ĠÐ¿ÐµÑĢÐµÐ´":12829,"VerifyView":12830,"BINDING":12831,"RDPARTY":12832,"Ã³n":12833,"weeter":12834,"ĠWork":12835,"COMPRESS":12836,"PLACEHOLDER":12837,"GHG":12838,"ç®¡ç":12839,"rolls":12840,"resumo":12841,"Ġmonkeypatch":12842,")?$',":12843,"Ġirrelevant":12844,"ĠBaseUserManager":12845,"ĠÐ¾Ð±ÑĢÐ°Ð±Ð¾ÑĤ":12846,"RelatedField":12847,"ENCODER":12848,"Mandatory":12849,"icecream":12850,"ĠSTATIC":12851,"ĠCookieStand":12852,"Ġcookiecutter":12853,"Ð¸ÑĪÐ¸ÑĤÐµ":12854,"APPOINTMENT":12855,"ĠÑĥÐºÐ°Ð¶Ð¸ÑĤÐµ":12856,"Ð¤Ð¸Ð»ÑĮÑĤÑĢÑĭ":12857,"BLACK":12858,"DLIB":12859,"SmallIntegerField":12860,"haproxy":12861,"mangled":12862,"ufacturer":12863,"Ð¨ÐºÐ¾Ð»Ð°":12864,"selling":12865,"annotate":12866,"__)/\"":12867,"romotion":12868,"lebrity":12869,"ototech":12870,"Ġfodder":12871,"lookfor":12872,"ĠPubDateConverter":12873,"ĠPREFIX":12874,"ipynb":12875,"022300":12876,"ĠOIDC":12877,"eccak":12878,"Ġemacs":12879,"studentattendence":12880,"ĠÐ´ÐµÐ¹ÑģÑĤÐ²":12881,"ÐŁÐ¾Ð»ÑĥÑĩÐµÐ½Ð¸Ðµ":12882,"ĠThreadedResolver":12883,"ç®¡çĲĨ":12884,"!\",":12885,"\"'":12886,"\"(":12887,"(...)":12888,")\")<":12889,")##":12890,")(__":12891,"+<":12892,".##":12893,"/\")<":12894,"032":12895,"1404":12896,"108":12897,"240":12898,"455":12899,"564":12900,"607":12901,"76":12902,"::<":12903,";__":12904,"={}":12905,"=âĢĻ":12906,">)":12907,"AN":12908,"Av":12909,"AValidator":12910,"Air":12911,"ATT":12912,"AsrcValidator":12913,"Async":12914,"AuxTrans":12915,"Bu":12916,"Ban":12917,"BsrcValidator":12918,"Builtin":12919,"Current":12920,"Cover":12921,"Created":12922,"Cmd":12923,"Cadastro":12924,"DK":12925,"Dot":12926,"DFU":12927,"Danie":12928,"El":12929,"ECU":12930,"ENV":12931,"FgcolorValidator":12932,"FgcolorsrcValidator":12933,"Funnel":12934,"FixedrangeValidator":12935,"FgopacityValidator":12936,"Gest":12937,"Has":12938,"Hold":12939,"Half":12940,"Ima":12941,"Issue":12942,"JJ":12943,"Jar":12944,"KS":12945,"Low":12946,"Less":12947,"Lexer":12948,"Mace":12949,"Missing":12950,"Misc":12951,"NN":12952,"NEP":12953,"PAGE":12954,"Patch":12955,"Pending":12956,"Paper":12957,"RT":12958,"RGBAxes":12959,"Surface":12960,"SHI":12961,"SUSE":12962,"SuffixValidator":12963,"Survey":12964,"Skill":12965,"SortValidator":12966,"SoliditysrcValidator":12967,"SKIP":12968,"Tk":12969,"Tienda":12970,"TerminalWriter":12971,"Ut":12972,"Util":12973,"Unsupported":12974,"Vi":12975,"VID":12976,"YF":12977,"YperiodalignmentValidator":12978,"ZstyleValidator":12979,"ZsmoothValidator":12980,"[...,":12981,"_\")":12982,"_]]":12983,"aView":12984,"average":12985,"aunchpad":12986,"bor":12987,"bsrc":12988,"bank":12989,"brec":12990,"brain":12991,"cis":12992,"cho":12993,"cvar":12994,"captcha":12995,"cythonize":12996,"dtickValidator":12997,"donation":12998,"dwithin":12999,"fs":13000,"fedora":13001,"gas":13002,"gnt":13003,"gray":13004,"ggle":13005,"hv":13006,"hab":13007,"hall":13008,"junction":13009,"mue":13010,"math":13011,"nb":13012,"norm":13013,"napValidator":13014,"nasci":13015,"oce":13016,"ominValidator":13017,"omaxValidator":13018,"pong":13019,"pyshop":13020,"rics":13021,"rdtypes":13022,"raria":13023,"si":13024,"sug":13025,"tally":13026,"tures":13027,"timing":13028,"uint":13029,"vt":13030,"vag":13031,"vied":13032,"vinfo":13033,"vstring":13034,"vado":13035,"war":13036,"wise":13037,"xtrans":13038,"xri":13039,"xsd":13040,"ystyle":13041,"ymarkets":13042,"zA":13043,"ze":13044,"zopfli":13045,"zsmooth":13046,"|(?":13047,"§å":13048,"½®":13049,"¾ç":13050,"Ð³":13051,"Ðľ":13052,"æ³":13053,"æį":13054,"Ġque":13055,"Ġim":13056,"Ġhoverlabel":13057,"Ġ500":13058,"ĠÐ°ÑĤ":13059,"ĠÐ¸Ð¼":13060,"Ġrooms":13061,"Ġistr":13062,"ĠÐ¸Ð½":13063,"Ġ??\",<":13064,"ĠÃ©":13065,"Ġecho":13066,"īĪ":13067,"ĵģ":13068,"atal":13069,"atan":13070,"atars":13071,"atingsConfig":13072,"onaut":13073,"></":13074,"sena":13075,"selenium":13076,"erence":13077,"erman":13078,"erfence":13079,"medi":13080,"infra":13081,"aristas":13082,"aliz":13083,"alance":13084,"alpha":13085,"roMessage":13086,"important":13087,"delay":13088,"degre":13089,"dedent":13090,"__']<":13091,"__'])<":13092,"__=%":13093,"enk":13094,"enido":13095,"plicate":13096,"plain":13097,"Ġimporting":13098,"asof":13099,"asons":13100,"itions":13101,"itbit":13102,"region":13103,"reasing":13104,"reservation":13105,"rearat":13106,"stions":13107,"storages":13108,"ango":13109,"utapp":13110,"oth":13111,"djangojob":13112,"Ġpay":13113,"Ġpanel":13114,"Ġpape":13115,"Ġpeople":13116,"Ġpypro":13117,"Ġpyshop":13118,"lyx":13119,"lynom":13120,"lyrics":13121,"gsConfig":13122,"ational":13123,"plotlyjs":13124,"icing":13125,"Ġtqdm":13126,"Ġtinymce":13127,"apsValidator":13128,"Ġdjangopy":13129,"Ġmar":13130,"Ġmiddleware":13131,"getrawcode":13132,"assignment":13133,"clo":13134,"cloc":13135,"entymarkets":13136,"defmatrix":13137,"edScore":13138,"kwise":13139,"classroom":13140,"ields":13141,"Ġfa":13142,"Ġfour":13143,"Ġfact":13144,"ypography":13145,"baseline":13146,"conta":13147,"convert":13148,"Ġreset":13149,"Ġreport":13150,"Ġrequirements":13151,"Ġreasons":13152,"Ġsn":13153,"Ġsil":13154,"Ġ'')<":13155,"Ġ'\\\\":13156,"Ġ'+'":13157,"(\"+\")":13158,"track":13159,"Ġdefmatrix":13160,"getvalue":13161,"getNote":13162,"getfslineno":13163,"Ġ__<":13164,"Ġ__('":13165,"acient":13166,"Ġvotes":13167,"uprava":13168,"Ġinspection":13169,"Ġinsert":13170,"Fields":13171,"FieldError":13172,"ingArea":13173,"apply":13174,"Constr":13175,"Constant":13176,"Container":13177,"ConstraintextValidator":13178,"ĠTerminalWriter":13179,"ĠAValidator":13180,"ĠAsrcValidator":13181,"ĠACCESS":13182,"ĠAuction":13183,"ĠAsync":13184,"ership":13185,"Ġgetargspec":13186,"Ġgetfslineno":13187,"ibl":13188,"ibir":13189,"ĠSS":13190,"ĠScore":13191,"ĠSql":13192,"ĠSurface":13193,"ĠStra":13194,"ĠSuffixValidator":13195,"ĠSortValidator":13196,"ĠSoliditysrcValidator":13197,"Ġcash":13198,"Ġcaptcha":13199,"Ġcythonize":13200,"('\\\\":13201,"odcast":13202,"serialized":13203,"allback":13204,"ilities":13205,"elicul":13206,"union":13207,"unconfigure":13208,"mento":13209,"Ġbel":13210,"Ġbug":13211,"Ġbrand":13212,"throttling":13213,"threshold":13214,"ĠCO":13215,"ĠCatering":13216,"los":13217,"toggle":13218,"izzer":13219,"izingValidator":13220,"endian":13221,"pperfence":13222,"ĠMon":13223,"ĠDb":13224,"ĠDown":13225,"ĠDashboard":13226,"formBox":13227,"formatters":13228,"parents":13229,"ayer":13230,"Ġdns":13231,"Ġdupl":13232,"(_(\"":13233,"ption":13234,"posValidator":13235,"polynom":13236,"autos":13237,"Ġconsidered":13238,"Ġisfileobj":13239,"ĠisMandatory":13240,"Region":13241,"Required":13242,"Receita":13243,"Ġexposed":13244,"Ġwatch":13245,"Ġwindow":13246,"Ġwelcome":13247,"ĠLeg":13248,"structions":13249,"Ġdecompress":13250,"SETU":13251,"=';":13252,"sesrcValidator":13253,"ĠPad":13254,"ĠPrint":13255,"ĠPOP":13256,"ĠPeople":13257,"ĠFlo":13258,"ĠFgcolorValidator":13259,"ĠFgcolorsrcValidator":13260,"ĠFunnel":13261,"ĠFixedrangeValidator":13262,"ĠFgopacityValidator":13263,"Ġtools":13264,"ĠBsrcValidator":13265,"ĠBilling":13266,"ĠBalance":13267,"textutils":13268,"textanchorValidator":13269,"projecttracker":13270,"ubuntu":13271,"chimp":13272,"paro":13273,"parasite":13274,"launchpad":13275,"atualiz":13276,"ĠReal":13277,"calerat":13278,"barAxes":13279,"();\"<":13280,"ansrcValidator":13281,"0244":13282,"ĠOkta":13283,"ĠIS":13284,"ĠINT":13285,"Ġstate":13286,"Ġstep":13287,"Ġ\"\"\"\\<":13288,"preco":13289,"preparo":13290,"etadata":13291,"ModelMultiple":13292,"maxdepth":13293,"ĠWSGIRequest":13294,"ĠHigh":13295,"ĠHyperlinkedModelSerializer":13296,"ĠHouse":13297,"0149":13298,"Ġ(\"__":13299,"Ġcould":13300,"BaseAttribute":13301,"BaseLegacyTest":13302,"warehouse":13303,"Ġ('-":13304,"ĠEcommerce":13305,"ĠEXT":13306,"paths":13307,"transpose":13308,"ĠBaseLegacyTest":13309,"ĠcheckPath":13310,"ĠcheckRecursive":13311,"conference":13312,"oleValidator":13313,"ĠDjangoModelFactory":13314,"perf":13315,"perfil":13316,"Insert":13317,"Ingredient":13318,"Indirection":13319,"discover":13320,"antilla":13321,"BUTE":13322,"owoo":13323,"Ġ`~":13324,"fixsrcValidator":13325,"teste":13326,"tester":13327,"Ġservers":13328,"valueValidator":13329,"ĠRel":13330,"ĠRGBAxes":13331,"ĠRadioSelect":13332,"ĠRatingsConfig":13333,"ithms":13334,"fru":13335,"addition":13336,"labelValidator":13337,"labelmodeValidator":13338,"mainloop":13339,"Ġearn":13340,"Ġemails":13341,"PIC":13342,"codeProvider":13343,"shapes":13344,"argapValidator":13345,"interp":13346,"interpo":13347,"ALU":13348,"ustome":13349,"sonValidator":13350,"infoValidator":13351,"ullValidator":13352,"checkPath":13353,"checkRecursive":13354,"Ġlista":13355,"Ġlistings":13356,"sizemodeValidator":13357,"ĠStd":13358,"ĠStore":13359,"ĠStream":13360,"posta":13361,"loginf":13362,"ĠWard":13363,"ĠWheel":13364,"ĠUserModelViewSet":13365,"ĠUserSocialAuth":13366,"':\"":13367,"Descriptor":13368,"FOO":13369,"ĠVALU":13370,"axisartist":13371,"Ġprecis":13372,"ertex":13373,"updateItem":13374,"updateNote":13375,"pyx":13376,"pyOpen":13377,"Ġtestapp":13378,"ĠtestCase":13379,"ĠProcess":13380,"ĠProgress":13381,"Progress":13382,"MPTT":13383,"~~~~~~~~~~~~":13384,"prefixed":13385,"soliditys":13386,"anceValidator":13387,"ancestors":13388,"BooleanFilter":13389,"ĠDELETE":13390,"Ġscrap":13391,"orderValidator":13392,"orderpadValidator":13393,"Ġboard":13394,"NSERT":13395,"iterSourceCode":13396,"Ġsubplot":13397,"Ġsubset":13398,"Ġsubparsers":13399,"player":13400,"submodules":13401,"myweb":13402,"mywebsite":13403,"suppDjango":13404,"Ġparallax":13405,"ĠConsumer":13406,"ĠConstraintextValidator":13407,"filterset":13408,"bugfix":13409,"259":13410,"ĠListCreateAPIView":13411,"ĠListando":13412,"ĠRegisterSerializer":13413,"ExceptionInfo":13414,"Ð¸Ð¸":13415,"Ð¸ÑĦ":13416,"2849":13417,"THON":13418,"Ġidade":13419,"Ġparts":13420,"Subject":13421,"']['":13422,"geolocation":13423,"deleteNote":13424,"Ġcomparison":13425,"ĠFileResponse":13426,"');\"<":13427,"ĠiterSourceCode":13428,"DataFla":13429,"opensuse":13430,"countValidator":13431,"ĠYperiodalignmentValidator":13432,"Keyboard":13433,"succe":13434,"Ġbaseline":13435,"ParasiteAxes":13436,"Ġallauth":13437,"pkid":13438,"DjangoFilterBackend":13439,"ĠPostCreateView":13440,"production":13441,"aboutus":13442,"Ġformatargspec":13443,"ĠXML":13444,"ĠXXXX":13445,"venthproject":13446,"Ġdivisors":13447,"Export":13448,"CreateApi":13449,"Ġalunos":13450,"Ð¾Ð³":13451,"Ð¾Ð¹ÑĤÐµ":13452,"usiness":13453,"Ġfilterset":13454,"Ġ:]<":13455,"Ġolder":13456,"sideValidator":13457,"bookmark":13458,"ĠDispatcher":13459,"ĠDispute":13460,"Ġhours":13461,"ĠNames":13462,"ĠPoint":13463,"taskmanager":13464,"ĠCustomProductAdmin":13465,"ava":13466,"avatars":13467,"Ġotherwise":13468,"ongapsValidator":13469,"ĠTodoappConfig":13470,"TokenView":13471,"Ġtranslatable":13472,"ÐµÐ³Ð¾":13473,"profilepic":13474,"showexponent":13475,"division":13476,"Art":13477,"Ġgetrawcode":13478,"Ġweibo":13479,"Hoverlabel":13480,"ĠHoverlabel":13481,"PostForm":13482,"PostListView":13483,"PostDetailView":13484,"PostIndex":13485,"PostDelete":13486,"PostUpdate":13487,"PostCreateApi":13488,"372":13489,"pik":13490,"ĠEncounter":13491,"retweets":13492,"ĠExceptionInfo":13493,"Ġtextutils":13494,"boundssrcValidator":13495,"ĠShowexponentValidator":13496,"ShowexponentValidator":13497,"Ġclients":13498,"expand":13499,"owsrcValidator":13500,"smtp":13501,"BBBBBBB":13502,"Ġreferenced":13503,"ChBankProvider":13504,"ĠTransposeValidator":13505,"ĠModuleNotFoundError":13506,"],[":13507,"###-######\",<":13508,"033":13509,"ĠTestDot":13510,"ashsrcValidator":13511,"assertTrue":13512,"rawingArea":13513,"Ġshortener":13514,"ĠMainappConfig":13515,"PrefixValidator":13516,"ĠMAX":13517,"voked":13518,"ĠMessages":13519,"topics":13520,"ĠZsmoothValidator":13521,"ÑĥÐ½":13522,"cachedRenderer":13523,"Ġlastmod":13524,"pytesttester":13525,"#########":13526,"cron":13527,"callers":13528,"spectTo":13529,
[...]
