{"<s>":0,"<pad>":1,"</s>":2,"<unk>":3,"<mask>":4,"!":5,"\"":6,"#":7,"$":8,"%":9,"&":10,"'":11,"(":12,")":13,"*":14,"+":15,",":16,"-":17,".":18,"/":19,"0":20,"1":21,"2":22,"3":23,"4":24,"5":25,"6":26,"7":27,"8":28,"9":29,":":30,";":31,"<":32,"=":33,">":34,"?":35,"@":36,"A":37,"B":38,"C":39,"D":40,"E":41,"F":42,"G":43,"H":44,"I":45,"J":46,"K":47,"L":48,"M":49,"N":50,"O":51,"P":52,"Q":53,"R":54,"S":55,"T":56,"U":57,"V":58,"W":59,"X":60,"Y":61,"Z":62,"[":63,"\\":64,"]":65,"^":66,"_":67,"`":68,"a":69,"b":70,"c":71,"d":72,"e":73,"f":74,"g":75,"h":76,"i":77,"j":78,"k":79,"l":80,"m":81,"n":82,"o":83,"p":84,"q":85,"r":86,"s":87,"t":88,"u":89,"v":90,"w":91,"x":92,"y":93,"z":94,"{":95,"|":96,"}":97,"~":98,"¡":99,"¢":100,"£":101,"¤":102,"¥":103,"¦":104,"§":105,"¨":106,"©":107,"ª":108,"«":109,"¬":110,"®":111,"¯":112,"°":113,"±":114,"²":115,"³":116,"´":117,"µ":118,"¶":119,"·":120,"¸":121,"¹":122,"º":123,"»":124,"¼":125,"½":126,"¾":127,"¿":128,"À":129,"Á":130,"Â":131,"Ã":132,"Ä":133,"Å":134,"Æ":135,"Ç":136,"È":137,"É":138,"Ê":139,"Ë":140,"Ì":141,"Í":142,"Î":143,"Ï":144,"Ð":145,"Ñ":146,"Ò":147,"Ó":148,"Ô":149,"Õ":150,"Ö":151,"×":152,"Ø":153,"Ù":154,"Ú":155,"Û":156,"Ü":157,"Ý":158,"Þ":159,"ß":160,"à":161,"á":162,"â":163,"ã":164,"ä":165,"å":166,"æ":167,"ç":168,"è":169,"é":170,"ê":171,"ë":172,"ì":173,"í":174,"î":175,"ï":176,"ð":177,"ñ":178,"ò":179,"ó":180,"ô":181,"õ":182,"ö":183,"÷":184,"ø":185,"ù":186,"ú":187,"û":188,"ü":189,"ý":190,"þ":191,"ÿ":192,"Ā":193,"ā":194,"Ă":195,"ă":196,"Ą":197,"ą":198,"Ć":199,"ć":200,"Ĉ":201,"ĉ":202,"Ċ":203,"ċ":204,"Č":205,"č":206,"Ď":207,"ď":208,"Đ":209,"đ":210,"Ē":211,"ē":212,"Ĕ":213,"ĕ":214,"Ė":215,"ė":216,"Ę":217,"ę":218,"Ě":219,"ě":220,"Ĝ":221,"ĝ":222,"Ğ":223,"ğ":224,"Ġ":225,"ġ":226,"Ģ":227,"ģ":228,"Ĥ":229,"ĥ":230,"Ħ":231,"ħ":232,"Ĩ":233,"ĩ":234,"Ī":235,"ī":236,"Ĭ":237,"ĭ":238,"Į":239,"į":240,"İ":241,"ı":242,"Ĳ":243,"ĳ":244,"Ĵ":245,"ĵ":246,"Ķ":247,"ķ":248,"ĸ":249,"Ĺ":250,"ĺ":251,"Ļ":252,"ļ":253,"Ľ":254,"ľ":255,"Ŀ":256,"ŀ":257,"Ł":258,"ł":259,"Ń":260,"//":261,"==":262,"st":263,"in":264,"ĠĠ":265,"><":266,"====":267,">//":268,"de":269,"oo":270,"oost":271,"////":272,"or":273,"on":274,"Ġa":275,"ht":276,"ĠL":277,"ion":278,"re":279,"boost":280,"co":281,"er":282,"ri":283,">#":284,"CE":285,"SE":286,";<":287,"py":288,"cl":289,"ICE":290,"NSE":291,"ICENSE":292,"========":293,"te":294,"clu":295,"inclu":296,"include":297,"Ġ<":298,"ww":299,"en":300,"se":301,"xt":302,"Ġ(":303,"txt":304,"le":305,"an":306,"pp":307,"20":308,"Ġt":309,"ic":310,"ĠĠĠ":311,"////////":312,"Ġf":313,"mp":314,"ĠB":315,"hpp":316,")<":317,"ĠS":318,"int":319,"ĠD":320,"ing":321,"he":322,"sion":323,"201":324,"čĊ":325,"tp":326,"http":327,"://":328,"org":329,"ile":330,"Ġhttp":331,"Ġ1":332,"wa":333,"::":334,"ĠC":335,"ght":336,"Ġthe":337,"ist":338,"of":339,"}<":340,"ee":341,"at":342,"un":343,"Ġm":344,"comp":345,"ĠV":346,"Ġco":347,"Ġfile":348,"ĠBoost":349,"bu":350,"Ġat":351,"right":352,"pyright":353,"opyright":354,"ersion":355,"icen":356,"ware":357,"oft":358,"icense":359,"ĠLicense":360,"ĠSoft":361,"ĠSoftware":362,"ribu":363,"istribu":364,"ĠVersion":365,"LICENSE":366,"any":367,"ĠCopyright":368,"Ġac":369,"Ġor":370,"Ġcopy":371,"ĠLICENSE":372,"company":373,"Ġaccompany":374,"Ġaccompanying":375,".<":376,"{<":377,"--":378,"www":379,"der":380,"================":381,"See":382,"ĠĠĠĠ":383,"ted":384,"Ġun":385,"Ġ\"":386,"Ġunder":387,"istributed":388,"ĠDistributed":389,"Ġ201":390,"ain":391,"()":392,"ct":393,"////////////////":394,"Ġmain":395,"\"<":396,"test":397,"ST":398,"if":399,"pe":400,"Ġ=":401,"is":402,");<":403,"li":404,"me":405,"al":406,"ce":407,">}<":408,"ur":409,">//<":410,"ut":411,">{<":412,"do":413,"----":414,"Ġ}<":415,"it":416,"as":417,"lib":418,"Ġs":419,"ar":420,"han":421,"Ġ{<":422,"OO":423,"Ġc":424,"def":425,"hana":426,"ation":427,"OOST":428,"md":429,"Ġ{":430,"200":431,"Ġn":432,"ĠĠĠĠĠĠĠ":433,"Ġan":434,"Ġre":435,"Ġboost":436,"ect":437,"ub":438,"tur":439,"turn":440,"()<":441,"std":442,"Ġp":443,"ou":444,"Ġ*":445,"tion":446,"ame":447,"================================":448,"tr":449,"libs":450,"dif":451,"ĠBOOST":452,"ne":453,"ine":454,"2017":455,"sp":456,"ype":457,"Ġand":458,"Ġ2013":459,"doc":460,"Ġ200":461,"Ġd":462,"ad":463,"Ġ0":464,"Ġto":465,"define":466,"ĠLou":467,"ionne":468,"ĠDionne":469,"ĠLouis":470,"ace":471,"lo":472,"Ġi":473,"ject":474,"ul":475,"uto":476,"con":477,"mpl":478,"////////////////////////////////":479,"Ġreturn":480,"ĠM":481,"ĠT":482,"id":483,"vo":484,"ĠU":485,"Ġmo":486,"ication":487,"str":488,"space":489,"amespace":490,"ti":491,"Ġmodif":492,"ĠE":493,"istribution":494,"Ġsub":495,"Ġdistribution":496,"ĠUse":497,"Ġmodification":498,"Ġsubject":499,"ai":500,"Ġare":501,"ge":502,"auto":503,"Ġstd":504,"--------":505,"TE":506,"pec":507,"/<":508,"ĠSee":509,"Ġfor":510,"ass":511,"spec":512,"Ġint":513,"ĠJ":514,"ate":515,").<":516,"ĠDi":517,"us":518,"ision":519,"Ġ\"_":520,"Ġ2011":521,"specs":522,"um":523,"ex":524,"ert":525,"ho":526,"();<":527,"ĠJo":528,"$<":529,"Ġ$":530,"void":531,"ptr":532,"Ġ<<":533,"cpp":534,",<":535,"type":536,"pre":537,"ov":538,"Ġb":539,"IN":540,"am":541,"ulti":542,">}":543,"ch":544,"ener":545,"ĠA":546,"ig":547,"el":548,"th":549,"Ġtest":550,"ak":551,"ON":552,"rd":553,"multi":554,"using":555,"uct":556,"qu":557,"ter":558,"ward":559,"err":560,"struct":561,"ap":562,"dward":563,"ĠEdward":564,"ĠDiener":565,"Ġnamespace":566,"hn":567,"assert":568,"ĠJohn":569,"ro":570,"ent":571,"dock":572,"addock":573,"ĠMaddock":574,"prec":575,"precision":576,"xx":577,"multiprecision":578,"loat":579,"Ġ>":580,"MP":581,"/*":582,"PR":583,"Ġx":584,"tu":585,"In":586,"error":587,"TEST":588,"ĠP":589,"dex":590,"ĠG":591,"Ġw":592,"Ġ2012":593,"to":594,"Ġcon":595,"ĠN":596,"++":597,"NA":598,"Ġif":599,"ail":600,"io":601,"============":602,"2015":603,"ĠĠĠĠĠĠĠĠĠĠĠ":604,"================================================================":605,"============================================================================":606,"ev":607,"vmd":608,"Ġth":609,"cxx":610,"ĠH":611,"Ġin":612,"Ġhana":613,"Ġy":614,"stat":615,"float":616,"Ġ+":617,"Ġ==":618,"ction":619,"RA":620,"ĠR":621,"ption":622,"ll":623,"we":624,"static":625,"**":626,"//<":627,"ck":628,"ot":629,"return":630,"Ġdo":631,"ake":632,"are":633,"MPL":634,"Ġ//":635,"ort":636,"unction":637,"namespace":638,"ector":639,"----------------":640,"HA":641,"ĠĠĠĠĠ":642,"DE":643,"SS":644,"ve":645,"sh":646,"ath":647,"Ġ2":648,"\");<":649,"si":650,"em":651,"ue":652,"////////////":653,"ME":654,"mov":655,"Ġ-":656,"Ġ{}<":657,"Type":658,"*/<":659,"mplate":660,"[]":661,"est":662,"oai":663,"ase":664,"ol":665,"ĉĉ":666,"index":667,"ple":668,"vector":669,"Ġis":670,"end":671,"Ġpx":672,"ared":673,"LE":674,"BOOST":675,"fig":676,"template":677,"endif":678,"//////////////":679,"////////////////////////////////////////////////////////////////":680,"///////////////<":681,"TI":682,"tra":683,"ast":684,"ode":685,"Ġlib":686,"ab":687,"ml":688,"string":689,"Ġ>>":690,"(\"":691,"html":692,"tuple":693,"ary":694,"Ġconst":695,"),":696,"ception":697,"iti":698,"CON":699,"ER":700,">};<":701,"ver":702,"its":703,"config":704,"MO":705,"ong":706,"///////////////////////////////////////////////////////////////////////////////<":707,"ze":708,"see":709,"shared":710,"et":711,"has":712,"il":713,"ty":714,"ĠĠĠĠĠĠĠĠ":715,"__":716,"make":717,"no":718,"ie":719,"zo":720,"Ġj":721,"ore":722,"ĠLor":723,"Ġl":724,"initi":725,"CESS":726,"enzo":727,"ĠCam":728,"ĠLorenzo":729,"ĠCaminiti":730,"ING":731,"Ġ&":732,"ĠW":733,"ument":734,"));<":735,"Ġ);<":736,"..":737,"ss":738,"cout":739,"get":740,"age":741,"Ġ2006":742,"ler":743,"const":744,"OCESS":745,"RT":746,"ra":747,"PRE":748,"PROCESS":749,"Id":750,"file":751,"ix":752,"Ġe":753,"Ġhe":754,"ĠAle":755,"->":756,"function":757,"ly":758,"Ġ3":759,"Ġdoc":760,"exception":761,"Ġthat":762,"umentation":763,"Ġdocumentation":764,"TRA":765,"for":766,"seq":767,"Ġ\"\");<":768,"uble":769,"ĠPe":770,"evision":771,"rary":772,"val":773,"Ġ'":774,"Ġ2008":775,"PROCESSING":776,"ata":777,"ith":778,"endl":779,"2004":780,"ĠTest":781,"ĠDimov":782,"=============================================================================":783,"ĠPeter":784,"Date":785,"PE":786,"Revision":787,"cal":788,"ight":789,"kse":790,"urto":791,"voy":792,"ĠGurto":793,"ĠAlekse":794,"ĠGurtovoy":795,"ĠAleksey":796,"PREPROCESSING":797,"nt":798,"MODE":799,"00":800,"lic":801,"ool":802,"Ġcpp":803,"==============================================================================":804,"ader":805,"ĠF":806,"class":807,"/*=============================================================================":808,"weight":809,"Ġheader":810,"/*=============================================================================<":811,"ome":812,"our":813,"[]>":814,">==============================================================================":815,"op":816,"ĠX":817,"ory":818,">==============================================================================*/<":819,"har":820,"STA":821,"Ġans":822,"))":823,"CT":824,"core":825,"list":826,"Ġ*<":827,"Ġ2002":828,"HANA":829,"Ġlibrary":830,"value":831,"RE":832,"mas":833,"Ġr":834,"EN":835,"mple":836,"ator":837,"ĠHel":838,"pho":839,"Ġar":840,"2018":841,"size":842,">::":843,"gr":844,"enix":845,"Ġma":846,"Ġ2016":847,"Ġnot":848,"ĠTho":849,"phoenix":850,"ĠThomas":851,"PA":852,"ĠHeller":853,"Node":854,"};<":855,"Ġinclude":856,"dec":857,"and":858,"Ġcin":859,"****":860,":<":861,"af":862,"ber":863,"Ġho":864,"stre":865,"Ġchar":866,"stream":867,"port":868,"ums":869,"CONTRA":870,"CONTRACT":871,"CK":872,"po":873,"Ġauto":874,"Ġpage":875,"Ġ2003":876,"defined":877,"((":878,"Ġv":879,"Ġfoo":880,"be":881,"ust":882,"tract":883,"Ġhome":884,"NT":885,"es":886,"ir":887,"else":888,"ack":889,"ĠO":890,"ublic":891,"contract":892,"au":893,"dio":894,"tail":895,"Ġ:":896,"sy":897,"Ġ!":898,"detail":899,"com":900,"set":901,"Ġyou":902,"CH":903,"MA":904,"ample":905,"wh":906,"read":907,"lease":908,"errors":909,">(":910,"fail":911,"oz":912,"ry":913,"Ġ4":914,"ĠIn":915,"Ġtype":916,"arg":917,"TER":918,"weak":919,"AS":920,"Map":921,"ma":922,"ASSE":923,"pt":924,"Ġde":925,"release":926,"Ġ2017":927,"mem":928,"spon":929,"able":930,"ial":931,"Ġg":932,"report":933,"light":934,"Ġ*/<":935,"ult":936,"ASSERT":937,"LL":938,"fr":939,"ob":940,"od":941,"compile":942,"Ġwh":943,"Ġarg":944,"50":945,"ey":946,"la":947,"tain":948,"Ġ2015":949,"Ġthis":950,"lightweight":951,"',":952,"main":953,"math":954,"heck":955,"ity":956,"example":957,"que":958,"../":959,"sponse":960,"equ":961,"fo":962,"mpty":963,"asic":964,"ull":965,"NAME":966,"form":967,"NO":968,"TY":969,"Ġbe":970,"/*<":971,"Ġdot":972,"--------------------------------":973,"noth":974,"OR":975,"];<":976,"ed":977,"ure":978,"Ġk":979,"double":980,"iostream":981,"BLE":982,"TH":983,"erator":984,"adi":985,"uce":986,"equal":987,"DA":988,"UN":989,"nie":990,"ĠK":991,"Ġvoid":992,"Ġoai":993,"stem":994,"innie":995,"alco":996,"art":997,"thread":998,"++)":999,"afx":1000,"AR":1001,"bal":1002,"ive":1003,"ĠLo":1004,"Ġcout":1005,"lobal":1006,"\";<":1007,"che":1008,"cast":1009,"ff":1010,"long":1011,"pen":1012,"ran":1013,"Ġ#":1014,"Ġ<=":1015,"Ġpro":1016,"Ġ2009":1017,"ari":1018,"ach":1019,"empty":1020,"ique":1021,"pl":1022,"Ġ%":1023,"Ġ)<":1024,"info":1025,"atch":1026,"uth":1027,"ever":1028,"ĠHome":1029,"move":1030,"ill":1031,"ant":1032,"alse":1033,"Ġpre":1034,"Ġyour":1035,"traits":1036,"beast":1037,"\",":1038,"(<":1039,"Copyright":1040,"Distributed":1041,"En":1042,"OL":1043,"ated":1044,"ndef":1045,"ĠI":1046,"ifndef":1047,"over":1048,"Ġ&&":1049,"Set":1050,"juce":1051,"ki":1052,"~~":1053,"Ġof":1054,"Ġerror":1055,"Ġ\"../":1056,"char":1057,"TYPE":1058,">*/<":1059,"Data":1060,"aqu":1061,"ld":1062,"pr":1063,"path":1064,"ration":1065,"ws":1066,"Ġst":1067,"ren":1068,"inter":1069,"unoz":1070,"ĠĠĠĠĠĠĠĠĠĠĠĠĠĠĠ":1071,"pez":1072,"arame":1073,"ĠMunoz":1074,"ĠJoaqu":1075,"HAS":1076,"TION":1077,"ĠLopez":1078,"arameter":1079,"ĠJoaquin":1080,"AI":1081,"OU":1082,"ali":1083,"bits":1084,"back":1085,"pch":1086,"Ġ_":1087,"Ġit":1088,"lete":1089,"met":1090,"stdc":1091,"++.":1092,"Ġlong":1093,"Ġmax":1094,"compiled":1095,"ib":1096,"ĠZ":1097,"stan":1098,"ten":1099,"Ġfloat":1100,"system":1101,"lobalMap":1102,"rational":1103,"ECK":1104,"ag":1105,"nov":1106,"pro":1107,"usion":1108,"ifdef":1109,"ition":1110,"Ġnums":1111,"local":1112,"contain":1113,"thon":1114,"RAME":1115,"ray":1116,"PARAME":1117,"nova":1118,"PARAMETER":1119,"(__":1120,"AD":1121,"GEN":1122,"TO":1123,"bool":1124,"ds":1125,"his":1126,"Ġ|":1127,"ign":1128,"Ġinv":1129,"64":1130,"IT":1131,"KE":1132,"ave":1133,"data":1134,"ext":1135,"fusion":1136,"ime":1137,"map":1138,"om":1139,"ski":1140,"yap":1141,"ans":1142,"unique":1143,"Ġcheck":1144,"Ġresponse":1145,"Ġdouble":1146,"ĠInc":1147,"ps":1148,"sc":1149,"Ġh":1150,"Ġu":1151,"Ġex":1152,"ink":1153,"ern":1154,"rit":1155,"python":1156,"CHECK":1157,"32":1158,"AP":1159,"Con":1160,"Ex":1161,"dre":1162,"gin":1163,"min":1164,"mil":1165,"Ġ)":1166,"Ġ__":1167,"ers":1168,"Ġne":1169,"Ġres":1170,"Ġpublic":1171,"pres":1172,"row":1173,"Index":1174,"Ġwill":1175,"********":1176,">{":1177,"OPE":1178,"vski":1179,"ĠStu":1180,"ĠDot":1181,"2012":1182,"Ġcom":1183,"ĠEmil":1184,"umber":1185,"ĠRever":1186,"ource":1187,"dios":1188,"chevski":1189,"ritten":1190,"ĠStudios":1191,"ĠDotchevski":1192,"ĠReverge":1193,"<<":1194,"Key":1195,"PP":1196,"TTI":1197,"VER":1198,"fun":1199,"ment":1200,"ser":1201,"one":1202,"Ġall":1203,"complete":1204,"(),":1205,"2009":1206,"ĠThis":1207,"TIC":1208,"STATIC":1209,"pos":1210,"fron":1211,"API":1212,"\")":1213,"\"))":1214,"TA":1215,"]<":1216,"gener":1217,"mat":1218,"nums":1219,"wor":1220,"Ġ};<":1221,"Ġelse":1222,"ind":1223,"Ġtime":1224,"cess":1225,"Ġsu":1226,"ations":1227,"gex":1228,"INV":1229,"Ġ+=":1230,"hash":1231,"Ġincludes":1232,"ORT":1233,"auth":1234,"option":1235,"public":1236,"rue":1237,"Ġse":1238,"Ġll":1239,"erType":1240,"Ġtrue":1241,"cept":1242,"ution":1243,"iterator":1244,"++;<":1245,"audio":1246,"while":1247,"adiy":1248,"front":1249,"AL":1250,"AType":1251,"FUN":1252,"VE":1253,"act":1254,"foo":1255,"lf":1256,"null":1257,"Ġ/":1258,"Ġdefined":1259,"Ġover":1260,"res":1261,"regex":1262,"Ġ2014":1263,"ard":1264,"array":1265,"olution":1266,"(_":1267,"ANT":1268,"CA":1269,"EST":1270,"FOL":1271,"MI":1272,"ULL":1273,"aa":1274,"fol":1275,"mail":1276,"sert":1277,"take":1278,"Ġop":1279,"ics":1280,"Ġnee":1281,"idget":1282,"ember":1283,"templates":1284,"KEY":1285,">,":1286,">()":1287,"AU":1288,"Anoth":1289,"CTION":1290,"DU":1291,"IVE":1292,"cc":1293,"cin":1294,"ize":1295,"name":1296,"per":1297,"put":1298,"Ġ}":1299,"Ġendl":1300,"inte":1301,"remove":1302,"rix":1303,"ice":1304,"Ġhttps":1305,"undef":1306,"buil":1307,"Ġno":1308,"stdafx":1309,"ĠTEST":1310,">};":1311,"ĠAb":1312,"MPORT":1313,"tual":1314,"SSIVE":1315,"[])<":1316,"MODU":1317,"filesystem":1318,"FUNCTION":1319,"MODULE":1320,"){<":1321,"56":1322,"CD":1323,"MCD":1324,"SI":1325,"TU":1326,"Test":1327,"UI":1328,"eren":1329,"false":1330,"feren":1331,"gith":1332,"tool":1333,"with":1334,"ys":1335,"Ġusing":1336,"incomplete":1337,"boostorg":1338,"cope":1339,"ence":1340,"asure":1341,"liboai":1342,"Ġsource":1343,"stdio":1344,"air":1345,"ovics":1346,"Ġwor":1347,"Ġdoes":1348,"Ġliboai":1349,"lyweight":1350,"ĠOpen":1351,"SetKey":1352,"inkovics":1353,"ference":1354,"github":1355,"ĠOpenAI":1356,"!<":1357,"dd":1358,"mon":1359,"parameter":1360,"sig":1361,"scope":1362,"insert":1363,"decl":1364,"Ġfunction":1365,"ĠSolution":1366,"ĠĠĠĠĠĠĠĠĠ":1367,"all":1368,"arse":1369,"try":1370,"rop":1371,"NAI":1372,"sive":1373,"verse":1374,"ĠĠĠĠĠĠĠĠĠĠĠĠĠĠĠĠ":1375,"Ġrat":1376,"irtual":1377,"Ġ!=":1378,"memory":1379,"Ġargc":1380,"Env":1381,"stance":1382,"OPENAI":1383,"AnotherType":1384,"\"]":1385,")(":1386,">));<":1387,"An":1388,"GlobalMap":1389,"LO":1390,"MB":1391,"[\"":1392,"drop":1393,"uint":1394,"vert":1395,"vinnie":1396,"Ġdefine":1397,"copy":1398,"Ġ();<":1399,"icial":1400,"Ġfalco":1401,"ĠVinnie":1402,"itory":1403,"Ġsum":1404,"ark":1405,"Ġrepos":1406,"ned":1407,"expr":1408,"Ġby":1409,"ĠFalco":1410,"NodeData":1411,"ĠOff":1412,"what":1413,"Ġgmail":1414,"Ġwhile":1415,"laws":1416,"Exception":1417,"optional":1418,"SION":1419,"tools":1420,"SetKeyEnv":1421,"signed":1422,"Ġrepository":1423,"ĠOfficial":1424,"11":1425,"100":1426,"GE":1427,"ault":1428,"nc":1429,"pair":1430,"sum":1431,"Ġstatic":1432,">//[":1433,"sequ":1434,"ative":1435,"ĠNULL":1436,"CONSTA":1437,"ERMI":1438,"call":1439,"max":1440,"range":1441,"contained":1442,"Ġself":1443,"CASE":1444,"sequence":1445,"CONSTANT":1446,"ERMISSIVE":1447,"Function":1448,"SPA":1449,"_<":1450,"im":1451,"ipp":1452,"yy":1453,"Ġo":1454,"Ġon":1455,"Ġits":1456,"Ġ));<":1457,"indo":1458,">//]<":1459,"ors":1460,"Ġal":1461,"code":1462,"2013":1463,"hange":1464,"default":1465,"Ġany":1466,"typedef":1467,"Ġconte":1468,"ĉĉĉ":1469,"MAX":1470,"NAMESPA":1471,"formation":1472,"ĠKo":1473,"Ġproject":1474,">{}":1475,"matrix":1476,"Ġsupp":1477,"NAMESPACE":1478,");":1479,">();<":1480,"Ar":1481,"Multi":1482,"RY":1483,"WOR":1484,"basic":1485,"hou":1486,"iali":1487,"line":1488,"rc":1489,"ron":1490,"ule":1491,"written":1492,"zation":1493,"Ġ5":1494,"ree":1495,"ene":1496,"enn":1497,"ĠBasic":1498,"Ġ2010":1499,"());<":1500,"Ġsave":1501,"Ġchange":1502,"Ġpo":1503,"add":1504,"Ġstdafx":1505,"ush":1506,"aph":1507,"ĠPr":1508,"Ġeach":1509,"nts":1510,"Ġheaders":1511,"graph":1512,"Ġmay":1513,"sync":1514,"odule":1515,"ĠIMPORT":1516,"Ġnew":1517,"generated":1518,"Ġoverwritten":1519,"MBER":1520,"Ġalter":1521,"Ġcontents":1522,"MultiIndex":1523,"Ġchanges":1524,"ĠIMPORTANT":1525,"('":1526,"))<":1527,")->":1528,"10":1529,"12":1530,"OF":1531,"ROR":1532,"du":1533,"ele":1534,"gative":1535,"len":1536,"ladi":1537,"mir":1538,"Ġ\\":1539,"Ġcomp":1540,"erasure":1541,"Ġtry":1542,"::~":1543,"unc":1544,"ĠVladi":1545,"();":1546,"Ġcatch":1547,"loc":1548,"load":1549,"tie":1550,"except":1551,"ams":1552,"ĠAn":1553,"aparse":1554,"calar":1555,"andard":1556,"common":1557,"MATH":1558,"metaparse":1559,"nullptr":1560,"AUTO":1561,"build":1562,"ĠPrus":1563,"ĠVladimir":1564,"ATE":1565,"DO":1566,"Hel":1567,"IC":1568,"ID":1569,"LON":1570,"PLE":1571,"bler":1572,"ger":1573,"ias":1574,"lat":1575,"qv":1576,"ĠY":1577,"Ġmp":1578,"Ġev":1579,"oot":1580,"Ġadd":1581,"ric":1582,"cli":1583,"text":1584,"ĠDa":1585,"unit":1586,"Ġmust":1587,"ason":1588,"construct":1589,"ĠEric":1590,"this":1591,"ental":1592,"ĠGenn":1593,"ĠNie":1594,"++)<":1595,"Ġinformation":1596,"ĠRe":1597,"ĠRoz":1598,"MEMBER":1599,"now":1600,"rypt":1601,"Ġdecl":1602,"pename":1603,"ariant":1604,"~~~~":1605,"ible":1606,"Ġinvariant":1607,"extern":1608,"psb":1609,"Ġexist":1610,"erson":1611,"Ġ\\<":1612,"ĠGennadiy":1613,"ĠNiebler":1614,"ĠRozental":1615,").":1616,"Member":1617,"PT":1618,"WIN":1619,"XIT":1620,"ec":1621,"gn":1622,"impl":1623,"push":1624,"uid":1625,"ven":1626,"Ġq":1627,"instance":1628,"Ġfalse":1629,"ature":1630,"Ġsign":1631,"Ġsize":1632,"Ġreference":1633,"TEMPL":1634,"amal":1635,"ERROR":1636,"iew":1637,"pointer":1638,"Ġwhen":1639,"DABLE":1640,"Ġstandard":1641,"FOLDABLE":1642,"TUPLE":1643,"Ġwork":1644,"LONG":1645,"Ġeven":1646,"ĠResponse":1647,"Ġsignature":1648,"TEMPLATE":1649,"AT":1650,"EQ":1651,"GR":1652,"cre":1653,"cing":1654,"ide":1655,"rong":1656,"tag":1657,"virtual":1658,"xpres":1659,"repe":1660,"reverse":1661,"rite":1662,"cle":1663,"teven":1664,"secon":1665,"ani":1666,"anab":1667,"Ġfunc":1668,"ĠSteven":1669,"wap":1670,"atanab":1671,"ĠĠĠĠĠĠ":1672,"Ġ2018":1673,"log":1674,"lock":1675,"ĠThe":1676,"ĠAr":1677,"igen":1678,"qui":1679,"ĠNode":1680,"Ġjust":1681,"ĠWatanab":1682,"TRACE":1683,"gral":1684,"CKTRACE":1685,"argv":1686,"obj":1687,"pression":1688,"integral":1689,"ialization":1690,"rono":1691,"client":1692,"xpressive":1693,"ĠWatanabe":1694,"(&":1695,"256":1696,">&":1697,">;<":1698,"Base":1699,"Er":1700,"File":1701,"LD":1702,"LI":1703,"Path":1704,"RCE":1705,"SOU":1706,"UC":1707,"_(":1708,"gl":1709,"know":1710,"number":1711,"sort":1712,"tw":1713,"ugin":1714,"zi":1715,"Ġexample":1716,"Ġass":1717,"included":1718,"led":1719,"lex":1720,"ĠCo":1721,"dom":1722,"2008":1723,"true":1724,"ĠTO":1725,"ĠEXIT":1726,"types":1727,"thing":1728,"termin":1729,"errinfo":1730,"Ġcontain":1731,"abel":1732,"typename":1733,"Ġlist":1734,"constant":1735,"functions":1736,"STACKTRACE":1737,"Ġversion":1738,"begin":1739,"Ġ42":1740,"Ġargv":1741,"++){<":1742,"plugin":1743,"OUP":1744,"ĠZI":1745,"Ġ||":1746,"scri":1747,"****************":1748,">{},":1749,"WORD":1750,"elem":1751,"qvm":1752,"GROUP":1753,"SOURCE":1754,">);<":1755,"CX":1756,"CHA":1757,"Com":1758,"FX":1759,"PERMISSIVE":1760,"TDA":1761,"app":1762,"ape":1763,"face":1764,"ful":1765,"gen":1766,"gth":1767,"ili":1768,"iver":1769,"mer":1770,"os":1771,"oin":1772,"ote":1773,"root":1774,"some":1775,"windo":1776,"Ġstruct":1777,"Ġhas":1778,"state":1779,"ook":1780,"Ġab":1781,"erations":1782,"ical":1783,"Ġmy":1784,"STR":1785,"Ġnum":1786,"trace":1787,"convert":1788,"ĠMA":1789,"timer":1790,"special":1791,"exit":1792,"chrono":1793,"Int":1794,"ĠGlobalMap":1795,"Ġwith":1796,"...<":1797,"ssage":1798,"Ġfooz":1799,"ryp":1800,"object":1801,"ARI":1802,"process":1803,"itional":1804,"Ġresult":1805,"ĠAndre":1806,"Ġadditional":1807,"Ġinvariants":1808,"ĠTODO":1809,"terminal":1810,"CXX":1811,"%=":1812,"'t":1813,"BE":1814,"BUI":1815,"CU":1816,"EX":1817,"Get":1818,"OID":1819,"PTO":1820,"St":1821,"Score":1822,"Sys":1823,"Vector":1824,"VOID":1825,"Widget":1826,"aile":1827,"base":1828,"cs":1829,"fact":1830,"flyweight":1831,"hams":1832,"join":1833,"key":1834,"man":1835,"mut":1836,"pol":1837,"su":1838,"Ġct":1839,"Ġvector":1840,"Ġclass":1841,"Ġset":1842,"input":1843,"col":1844,"erm":1845,"Ġ<%=":1846,"Ġ(!":1847,"anity":1848,"ĠSinkovics":1849,"ĠSTDA":1850,"Ġmet":1851,"Ġfiles":1852,"------":1853,"Ġshou":1854,"Ġparameter":1855,"trans":1856,"spot":1857,"Ġ2000":1858,"Ġ2007":1859,"adget":1860,"volat":1861,"expression":1862,"Ġbar":1863,"Init":1864,"ĠPol":1865,"ĠGe":1866,"RABLE":1867,"short":1868,"eml":1869,"ies":1870,"ĠWrong":1871,"READ":1872,"END":1873,"sizeof":1874,"acktrace":1875,"Ġtypedef":1876,"odr":1877,"TYPEOF":1878,"stanti":1879,"container":1880,"<<\"":1881,"VERSION":1882,"Ġneed":1883,"Ġneeds":1884,"ĠAbel":1885,"Ġsupport":1886,"RYPTO":1887,"length":1888,"Ġcompil":1889,"constructible":1890,"Ġdeclared":1891,"BUILD":1892,"ailed":1893,"poly":1894,"ĠSTDAFX":1895,"Ġshould":1896,"spots":1897,"volatile":1898,"RYPTOPP":1899,"42":1900,">)":1901,"App":1902,"Cl":1903,"FLO":1904,"IS":1905,"ITE":1906,"LU":1907,"Ser":1908,"Un":1909,"USE":1910,"_/":1911,"bin":1912,"cstd":1913,"ep":1914,"ier":1915,"kh":1916,"lace":1917,"lication":1918,"vc":1919,"Ġ?":1920,"Ġ++":1921,"inal":1922,"only":1923,"ĠLain":1924,"reg":1925,"includes":1926,"Ġtag":1927,"Ġfail":1928,"ĠBote":1929,"ĠSem":1930,"hev":1931,"Ġ10":1932,"ĠCon":1933,"ĠVicen":1934,"ifest":1935,"ashev":1936,"Ġsanity":1937,"Ġname":1938,"chive":1939,"Ġ>=":1940,"Inst":1941,"Ġindex":1942,"Ġdomain":1943,"ĠĠĠĠĠĠĠĠĠĠĠĠ":1944,"__)":1945,"ops":1946,"ENCE":1947,"andle":1948,"irst":1949,"aux":1950,"lay":1951,"achary":1952,"ĠZachary":1953,"world":1954,"PTR":1955,"ident":1956,"second":1957,"fully":1958,"windows":1959,"ĠMAX":1960,"rypto":1961,"ĠAndrey":1962,"transform":1963,"laced":1964,"ĠLaine":1965,"ĠBotet":1966,"ĠSemashev":1967,"ĠVicente":1968,"')":1969,"(!":1970,"./":1971,"Failed":1972,"GI":1973,"Gamal":1974,"List":1975,"Lib":1976,"MIN":1977,"Pro":1978,"Sa":1979,"Str":1980,"car":1981,"case":1982,"essage":1983,"fast":1984,"first":1985,"gma":1986,"hu":1987,"lGamal":1988,"my":1989,"match":1990,"rt":1991,"ror":1992,"sinkovics":1993,"ute":1994,"vid":1995,"zer":1996,"Ġ6":1997,"Ġ8":1998,"Ġ~":1999,"ĠIN":2000,"Ġstring":2001,"Ġdefault":2002,"stacktrace":2003,">//#":2004,"tesi":2005,"sed":2006,"pper":2007,"Ġft":2008,"ĠDLL":2009,"ings":2010,"unt":2011,"Ġmin":2012,"Ġmid":2013,"--)<":2014,"Ġunsigned":2015,"Ġ\"./":2016,"ifier":2017,"ask":2018,"Ġplaced":2019,"ames":2020,"////////////////////////////////////////////////":2021,"assign":2022,"iginal":2023,"rom":2024,"xxxx":2025,"ĠPerson":2026,"ĠNe":2027,"ĠRene":2028,"ĠRiver":2029,"vec":2030,"old":2031,"Ġconstexpr":2032,"CONST":2033,"ĠWal":2034,"rahams":2035,"ragma":2036,"operator":2037,"REGI":2038,"----------------------------------------------------------------":2039,"nothing":2040,"nothrow":2041,"THREAD":2042,"DATA":2043,"render":2044,"meta":2045,"omic":2046,"result":2047,"ĠAbrahams":2048,"ĠDavid":2049,"repeated":2050,"LIB":2051,"identifier":2052,"cartesi":2053,"ĠRivera":2054,"REGIST":2055,"cartesian":2056,"#{":2057,"*)":2058,"*)(":2059,"CO":2060,"Co":2061,"Crypto":2062,"FT":2063,"Flyweight":2064,"GN":2065,"GS":2066,"GIN":2067,"Ms":2068,"MON":2069,"Mark":2070,"Ne":2071,"No":2072,"Null":2073,"QApp":2074,"SUC":2075,"Var":2076,"ZE":2077,"bind":2078,"cur":2079,"date":2080,"ft":2081,"ite":2082,"just":2083,"kadiy":2084,"mode":2085,"og":2086,"ph":2087,"so":2088,"son":2089,"swap":2090,"vice":2091,"wn":2092,"xit":2093,"yb":2094,"Ġen":2095,"Ġ::":2096,"Ġend":2097,"Ġauth":2098,"ĠaVar":2099,"rent":2100,"river":2101,"CExit":2102,"Ġ((":2103,"Ġ()":2104,"leyb":2105,"ich":2106,"ices":2107,"ĠSch":2108,"ĠDani":2109,"Ġ100":2110,"::_":2111,"atern":2112,"unsigned":2113,"ĠVert":2114,"())<":2115,"iter":2116,"Ġser":2117,"Ġcv":2118,"Ġcnt":2119,"2002":2120,"Ġnumber":2121,"Ġ*=":2122,"Ġieml":2123,"time":2124,"INTER":2125,"vers":2126,"constexpr":2127,"Ġ')":2128,"aud":2129,"Ġwhich":2130,"ARGS":2131,"plus":2132,"dress":2133,"fold":2134,"Ġoperations":2135,"GET":2136,"128":2137,"Hello":2138,"ĠArkadiy":2139,"Comm":2140,"ility":2141,"BEGIN":2142,"Saver":2143,"String":2144,"///////////////////////////////////////////////////////////////<":2145,"ĠNegative":2146,"CryptoPP":2147,"MONAD":2148,"QApplication":2149,"SUCCESS":2150,"ĠDaniel":2151,"aternion":2152,"ĠVertleyb":2153,"!\\":2154,"30":2155,"<>":2156,"<#{":2157,"BU":2158,"CV":2159,"For":2160,"FAI":2161,"Hook":2162,"Handle":2163,"IZE":2164,"Module":2165,"NG":2166,"Not":2167,"UE":2168,"])<":2169,"bH":2170,"ba":2171,"ble":2172,"catch":2173,"ei":2174,"gor":2175,"ke":2176,"lh":2177,"llo":2178,"mm":2179,"mo":2180,"pragma":2181,"pdate":2182,"slic":2183,"ukh":2184,"vk":2185,"version":2186,"vis":2187,"wer":2188,"Ġ,":2189,"Ġ^":2190,"Ġget":2191,"Ġgr":2192,"Ġcompile":2193,"Ġvolatile":2194,"ony":2195,"requi":2196,"erg":2197,"rist":2198,"temp":2199,"lean":2200,"levk":2201,"Ġfrom":2202,"mpf":2203,"ĠDai":2204,"Ġ12":2205,"ways":2206,"ĠCh":2207,"ĠmbH":2208,"Ġacknow":2209,"algor":2210,"utility":2211,"itor":2212,"Ġ{}":2213,"Ġ{};<":2214,"Ġ2001":2215,"Ġ2005":2216,"ĠMath":2217,"--------------":2218,"ĠJames":2219,"atefully":2220,"ĠJoerg":2221,"Ġbase":2222,"ĠAnt":2223,"igh":2224,"aka":2225,"quaternion":2226,"Ġwritten":2227,"Ġthrow":2228,"DEF":2229,"DEBU":2230,"emory":2231,"ĠWei":2232,"functional":2233,"ithm":2234,"ntity":2235,"Ġarr":2236,"afe":2237,"ĠKG":2238,"Ġprodu":2239,"extra":2240,"Ġuuid":2241,"generator":2242,"FOLD":2243,"integer":2244,"yyyy":2245,"ĠKoch":2246,"instances":2247,"create":2248,"two":2249,"ledge":2250,"ĠPolukh":2251,"ĠGeNe":2252,"ITERABLE":2253,"cstdlib":2254,"zero":2255,"ĠWalter":2256,"Ġauthors":2257,"Command":2258,"slice":2259,"Ġgratefully":2260,"Ġacknowledge":2261,"algorithm":2262,"ĠMathias":2263,"ĠAntony":2264,"DEBUG":2265,"Ġproducing":2266,"ĠPolukhin":2267,"ĠGeNeSys":2268,"'s":2269,"'),":2270,"(',":2271,",(":2272,">/*<":2273,"BOO":2274,"ElGamal":2275,"ILE":2276,"IAL":2277,"NTI":2278,"OVER":2279,"PH":2280,"POL":2281,"Re":2282,"Sy":2283,"Scalar":2284,"\\\\":2285,"bo":2286,"can":2287,"cro":2288,"di":2289,"each":2290,"fs":2291,"gmp":2292,"lder":2293,"mage":2294,"mod":2295,"nam":2296,"not":2297,"part":2298,"run":2299,"ton":2300,"tings":2301,"var":2302,"yee":2303,"ynam":2304,"zy":2305,"Ġ7":2306,"Ġ]":2307,"Ġbu":2308,"Ġstr":2309,"Ġver":2310,"Ġpython":2311,"Ġtemp":2312,"ded":2313,"orld":2314,"ertion":2315,"seph":2316,"lection":2317,"anifest":2318,"mplo":2319,"mpfr":2320,"tput":2321,"off":2322,"Ġunique":2323,"().":2324,"alloc":2325,"always":2326,"itho":2327,"Ġnull":2328,"Ġpath":2329,"Ġ2004":2330,"Ġdh":2331,"Ġign":2332,"ĠJason":2333,"holder":2334,"ther":2335,"Ġwitho":2336,"ĠRice":2337,"////////////////////////////////////////////////////////////////////////////":2338,"...":2339,"Ġran":2340,"NodeType":2341,"point":2342,"uster":2343,"esc":2344,"argc":2345,"member":2346,"lazy":2347,"Ġkey":2348,"random":2349,"Ġ%><":2350,"Entry":2351,"Ġchecked":2352,"Ġnegative":2353,"word":2354,"aaaa":2355,"folder":2356,"Ġnoexcept":2357,"Archive":2358,"ICY":2359,"ryptor":2360,"clear":2361,"ializationCl":2362,"glm":2363,"Ġassertion":2364,"CHAR":2365,"faces":2366,"statement":2367,"collection":2368,"FLOW":2369,"LURE":2370,"layer":2371,"FAILURE":2372,"ĠChrist":2373,"NTITY":2374,"OVERFLOW":2375,"POLICY":2376,"ynamic":2377,"mployee":2378,"Ġnullptr":2379,"Ġignore":2380,"Ġwithout":2381,"ializationCluster":2382,"!\"<":2383,")*":2384,",\"":2385,"Ad":2386,"Basic":2387,"BIT":2388,"CRYPTOPP":2389,"CIAL":2390,"De":2391,"Dv":2392,"ED":2393,"ENA":2394,"IX":2395,"Line":2396,"LIN":2397,"OM":2398,"OW":2399,"OEN":2400,"PCH":2401,"PVOID":2402,"Qu":2403,"Sp":2404,"SPE":2405,"ULONG":2406,"XM":2407,"]);<":2408,"ac":2409,"ax":2410,"aDv":2411,"boo":2412,"cp":2413,"duct":2414,"gt":2415,"gre":2416,"ico":2417,"iers":2418,"kC":2419,"ls":2420,"men":2421,"ning":2422,"none":2423,"par":2424,"sq":2425,"same":2426,"sho":2427,"safe":2428,"tin":2429,"tal":2430,"uz":2431,"uuid":2432,"utput":2433,"view":2434,"{};<":2435,"Ġtemplate":2436,"Ġodr":2437,"init":2438,">//!":2439,"orted":2440,"Ġapp":2441,"ĠList":2442,"red":2443,"reject":2444,"reak":2445,"cover":2446,"erf":2447,"erse":2448,"ang":2449,"anu":2450,"Ġtu":2451,"icit":2452,"ĠSt":2453,"intf":2454,"hei":2455,"atomic":2456,"une":2457,"unfol":2458,"Ġmm":2459,"compare":2460,"ctNode":2461,"STOM":2462,"ifies":2463,"isable":2464,"issive":2465,"urrent":2466,"Ġcall":2467,"Ġcrc":2468,"Ġnever":2469,"Ġreverse":2470,"Ġpr":2471,"Ġport":2472,"Ġperm":2473,"oup":2474,"span":2475,"sperse":2476,"Ġtotal":2477,"low":2478,"ĠMember":2479,"ĠTaka":2480,"exec":2481,"hod":2482,"ĠJoseph":2483,"Ġbg":2484,"ĠAd":2485,"Inter":2486,"Info":2487,"Input":2488,"ĠPERMISSIVE":2489,"DENTITY":2490,"__)<":2491,"ĠFor":2492,"ometry":2493,"gram":2494,"group":2495,"after":2496,"ĠIndex":2497,"TERMIN":2498,"------------------------------------------------":2499,"BLED":2500,"arison":2501,"intersperse":2502,"product":2503,"scans":2504,"TACH":2505,"hashi":2506,"permut":2507,"Ġ}.":2508,"TUS":2509,"\"].":2510,"\"][":2511,"AnInt":2512,"ĠKohei":2513,"ĠBasicType":2514,"graphical":2515,"dump":2516,"Error":2517,"zip":2518,"zips":2519,"lexico":2520,"CUSTOM":2521,"factory":2522,"Ġmeta":2523,"stantiations":2524,"SerializationCluster":2525,"LibX":2526,"rtree":2527,"audit":2528,"extract":2529,"BOOL":2530,"PHOEN":2531,"System":2532,"partition":2533,"Ġverifies":2534,"BasicType":2535,"CIALIZE":2536,"ENABLED":2537,"SPECIALIZE":2538,"boolean":2539,"unfolds":2540,"Ġpermissive":2541,"ĠTakahashi":2542,"TERMINAL":2543,"permutations":2544,"AnIntType":2545,"lexicographical":2546,"PHOENIX":2547,"\")<":2548,")%":2549,"*[])<":2550,"21":2551,"40":2552,"Core":2553,"CRE":2554,"DR":2555,"Dart":2556,"EA":2557,"ES":2558,"Find":2559,"Hun":2560,"Image":2561,"Mode":2562,"Memory":2563,"Ob":2564,"On":2565,"One":2566,"Po":2567,"Player":2568,"QU":2569,"Thou":2570,"USION":2571,"VARI":2572,"With":2573,"Windo":2574,"YES":2575,"][\"":2576,"_;<":2577,"bot":2578,"cerr":2579,"cassert":2580,"dScore":2581,"eigen":2582,"her":2583,"ited":2584,"mi":2585,"ms":2586,"mid":2587,"mark":2588,"module":2589,"ose":2590,"plic":2591,"rg":2592,"rat":2593,"sand":2594,"scalar":2595,"vi":2596,"xs":2597,"Ġ[":2598,"Ġwa":2599,"Ġ[]":2600,"Ġval":2601,"Ġvalue":2602,"Ġ...<":2603,"stl":2604,">//----------------------------------------------------------------":2605,"deque":2606,"orre":2607,"reference":2608,"ride":2609,"SEQU":2610,"tect":2611,"Ġ(*":2612,"less":2613,"Ġfact":2614,"ĠBem":2615,"ĠStr":2616,"ĠSet":2617,"intmax":2618,"ĠDe":2619,"ingle":2620,"hello":2621,"2016":2622,"ĠCheck":2623,"eed":2624,"und":2625,"union":2626,"comparison":2627,"Ġcode":2628,"bug":2629,"--;<":2630,"(){<":2631,"lient":2632,"utD":2633,"uter":2634,"arr":2635,"Ġcat":2636,"Ġcase":2637,"Ġcorre":2638,"Ġrequi":2639,"difiers":2640,"adj":2641,"conver":2642,"ĠUn":2643,"tial":2644,"tible":2645,"ĠEscri":2646,"ĠEmployee":2647,"Ġinter":2648,"predef":2649,"Ġbool":2650,"INT":2651,"INAPI":2652,"amma":2653,"throw":2654,"entity":2655,"Ġ>));<":2656,"Instance":2657,"Instantiations":2658,"ĠGuz":2659,"Ġconfig":2660,"wes":2661,"simple":2662,"MENT":2663,"olli":2664,"ĠWorld":2665,"ĠWINAPI":2666,"rapper":2667,"[]>()":2668,"[]>();<":2669,"REF":2670,"Ġmac":2671,"MAKE":2672,"ialog":2673,"frame":2674,"iveHun":2675,"place":2676,"Settings":2677,"ADIC":2678,"dredScore":2679,"service":2680,"INVARI":2681,"ANTS":2682,"UIRE":2683,"Anim":2684,"LOCK":2685,"callable":2686,"Array":2687,"Helper":2688,"ĠDawes":2689,"~~~~~~~~":2690,"TEMPLATES":2691,"PathSaver":2692,"scription":2693,"apply":2694,"osition":2695,"STRING":2696,"Ġcompilation":2697,"REGISTER":2698,"Nothing":2699,"Forcing":2700,"modifiers":2701,"CommandBase":2702,"Ġrandom":2703,"Thousand":2704,"VARIADIC":2705,"ratio":2706,"SEQUENCE":2707,"ĠBeman":2708,"convertible":2709,"ĠEscriba":2710,"ĠGuzman":2711,"iveHundredScore":2712,"INVARIANTS":2713,"ThousandScore":2714,"!\"":2715,"\",<":2716,"&)":2717,"&>":2718,"'))":2719,")>::":2720,".\"<":2721,"05":2722,"90":2723,"='":2724,">\"":2725,">*":2726,">>;<":2727,"Al":2728,"As":2729,"ALL":2730,"CL":2731,"CR":2732,"Cmd":2733,"Cvar":2734,"Current":2735,"Colli":2736,"DH":2737,"Fr":2738,"Fov":2739,"Ge":2740,"Gadget":2741,"IMPORT":2742,"LT":2743,"Lo":2744,"Lap":2745,"Mon":2746,"Main":2747,"Message":2748,"Mask":2749,"ND":2750,"Name":2751,"Number":2752,"Position":2753,"QWORD":2754,"RNG":2755,"RUE":2756,"Sh":2757,"SMember":2758,"UAL":2759,"Update":2760,"].":2761,"][":2762,"auter":2763,"cho":2764,"check":2765,"crc":2766,"cryptor":2767,"da":2768,"ding":2769,"dynamic":2770,"emplate":2771,"fw":2772,"find":2773,"gamal":2774,"gamma":2775,"hlh":2776,"high":2777,"lm":2778,"mxx":2779,"mart":2780,"mute":2781,"nd":2782,"pare":2783,"pop":2784,"sf":2785,"she":2786,"source":2787,"smart":2788,"uff":2789,"vices":2790,"wing":2791,"wit":2792,"write":2793,"wrapper":2794,"xy":2795,"xan":2796,"{}":2797,"}>\"":2798,"Ġz":2799,"Ġ20":2800,"Ġsee":2801,"Ġ:<":2802,"Ġhash":2803,"Ġ[])<":2804,"ĠCExit":2805,"Ġlevk":2806,"Ġ------------------------------------------------":2807,"===":2808,"start":2809,"deSystem":2810,"oop":2811,"orter":2812,"original":2813,"oraDv":2814,"Ġad":2815,"ĠLib":2816,"ref":2817,"clos":2818,"enu":2819,"ses":2820,"self":2821,"ance":2822,"ick":2823,"Ġff":2824,"mporter":2825,"ĠSer":2826,"ĠSize":2827,"::*)(":2828,"ĠCRYPTOPP":2829,"ater":2830,"uns":2831,"Ġmessage":2832,"Ġoriginal":2833,"--)":2834,"Ġunknow":2835,"Ġ\"<<":2836,"())":2837,"ift":2838,"asio":2839,"Ġspec":2840,"Ġsome":2841,"Ġsregex":2842,"Ġswap":2843,"arget":2844,"hand":2845,"Ġcan":2846,"Ġps":2847,"Ġdisable":2848,"address":2849,"ulong":2850,"ĠMask":2851,"ĠTob":2852,"ĠUti":2853,"ĠEigen":2854,"ĠJe":2855,"ĠJoel":2856,"Ġbreak":2857,"elgamal":2858,"thmet":2859,"struction":2860,"tup":2861,"ĠGC":2862,"ĠGMP":2863,"ĠGauter":2864,"tour":2865,"ĠNason":2866,"ĠNDEBUG":2867,"NAL":2868,"iom":2869,"ĠREQ":2870,"ved":2871,"Ġ-=":2872,"TypeEr":2873,"olve":2874,"LEFT":2875,"ERENCE":2876,"illi":2877,"ilter":2878,"Ġlen":2879,"ĠWidget":2880,"ĠWilli":2881,"ssit":2882,"ĠAlexan":2883,"ĠTests":2884,"000":2885,"ĠFunction":2886,"[]>(":2887,"PACK":2888,"Ġview":2889,"when":2890,"ĠInter":2891,"args":2892,"macro":2893,"Ġdescription":2894,"lag":2895,"../../":2896,"format":2897,"THR":2898,"UNPACK":2899,"ches":2900,"rans":2901,"arity":2902,"Ġ%=":2903,"Encryptor":2904,"ĠICvar":2905,"Ġmaxi":2906,"ITS":2907,"scene":2908,"Convers":2909,"Ġ);":2910,"OPEN":2911,"Ġcomment":2912,"func":2913,"Ġoverride":2914,"Ġopen":2915,"TestLibX":2916,"TestInstantiations":2917,"decltype":2918,"ĠĠĠĠĠĠĠĠĠĠĠĠĠĠĠĠĠĠĠĠĠĠĠĠ":2919,"imbot":2920,"Ġout":2921,"Ġother":2922,"Ġmpf":2923,"gnof":2924,"Ġsizeof":2925,"riteAnim":2926,"logger":2927,"ĠNodeType":2928,"BaseException":2929,"ĠComp":2930,"********************************":2931,"aped":2932,"something":2933,"Ġabc":2934,"Ġabs":2935,"converter":2936,"IntFunction":2937,"processors":2938,"Stat":2939,"suite":2940,"Ġmethod":2941,"Ġparameters":2942,"stantiate":2943,"<<\"\\":2944,"Ġcompiler":2945,"ListNodeData":2946,"Protect":2947,"fastcall":2948,"ĠINF":2949,"assignable":2950,"LIBS":2951,"GNU":2952,"MarkException":2953,"NullRNG":2954,"model":2955,"ĠSchwing":2956,"INTERNAL":2957,"--------------<":2958,"ElGamalEncryptor":2959,"Read":2960,"Ġbut":2961,"deduce":2962,"//////////////////////////////////////////////////////////////////////////////<":2963,"escaped":2964,"LINK":2965,"Quad":2966,"partial":2967,"coverity":2968,"DartHelper":2969,"Object":2970,">//------------------------------------------------------------------------------<":2971,"REFERENCE":2972,"Geometry":2973,"IMPORTS":2974,"fwd":2975,"hlhoff":2976,"mutex":2977,"shell":2978,"witch":2979,"ĠLibrary":2980,"closing":2981,"Ġoriginally":2982,"Ġunknown":2983,"ĠTobias":2984,"thmetic":2985,"ĠGauterin":2986,"ĠNasonov":2987,"ĠREQUIRE":2988,"TypeErasure":2989,"ĠAlexander":2990,"Conversation":2991,"riteAnimation":2992,"ĠSchwinger":2993,"+=":2994,"-<":2995,"36":2996,"65":2997,":/":2998,">>":2999,">=============================================================================":3000,"AGE":3001,"Abo":3002,"ActNode":3003,"By":3004,"Client":3005,"FS":3006,"Fine":3007,"FiveHundredScore":3008,"Have":3009,"MS":3010,"Manifest":3011,"PL":3012,"Py":3013,"Sample":3014,"TW":3015,"Th":3016,"The":3017,"Tune":3018,"UD":3019,"Version":3020,"XY":3021,"[(":3022,"])":3023,"],":3024,"]=":3025,"ay":3026,"bob":3027,"bso":3028,"cy":3029,"fus":3030,"gu":3031,"gine":3032,"iment":3033,"ken":3034,"last":3035,"mult":3036,"nar":3037,"num":3038,"ogl":3039,"pool":3040,"rin":3041,"rning":3042,"sFunction":3043,"ua":3044,"uri":3045,"widget":3046,"}>{}":3047,"ĠSE":3048,"Ġet":3049,"Ġrow":3050,"ĠQApplication":3051,"onical":3052,"Ġai":3053,"Ġaaaaa":3054,"ret":3055,"count":3056,"erne":3057,"clo":3058,"least":3059,"left":3060,"Ġtp":3061,"ĠSTA":3062,"intrin":3063,"ĠData":3064,"2010":3065,"2014":3066,"atrix":3067,"Ġmark":3068,"Ġcol":3069,"ĠfilePath":3070,"()>::":3071,"());":3072,"ctx":3073,"tests":3074,"STD":3075,"isited":3076,"down":3077,"Ġsi":3078,"Ġsnar":3079,"ara":3080,"next":3081,"Ġdfs":3082,"Ġimpl":3083,"context":3084,"ĠMS":3085,"ĠTape":3086,"ĠTRUE":3087,"TEN":3088,"Ġforty":3089,"exper":3090,"INDE":3091,"INCRE":3092,"els":3093,"quer":3094,"apac":3095,"rok":3096,"Ġxs":3097,"ĠPro":3098,"ĠGadget":3099,"Ġconvert":3100,"eval":3101,"ĠHan":3102,"Ġinput":3103,"RATION":3104,"ĠRE":3105,"webso":3106,"cket":3107,"MPLE":3108,"track":3109,"(\"%":3110,"iler":3111,"ixed":3112,"ixels":3113,"Ġempty":3114,"ĠFoo":3115,"ĠFile":3116,"open":3117,"opher":3118,"))(":3119,"PAR":3120,"Ġvirtual":3121,"Ġvisited":3122,"ause":3123,"Ġgrok":3124,"obfus":3125,"Ġargument":3126,"Ġ\"../../../":3127,"alid":3128,"proto":3129,"Ġuint":3130,"Ġused":3131,"Context":3132,"words":3133,"iterators":3134,"Ġ/=":3135,"Ġoperator":3136,"cceed":3137,"builtin":3138,"ĠĠĠĠĠĠĠĠĠĠĠĠĠĠĠĠĠĠĠĠĠĠ":3139,"Ġonly":3140,"WORK":3141,"basics":3142,"linear":3143,"Ġpost":3144,"Ġpower":3145,"addr":3146,"latform":3147,"Ġmpfr":3148,"repeat":3149,"locking":3150,"regist":3151,"Process":3152,"ĠINT":3153,"xxxxxxxx":3154,"REGISTRATION":3155,"GNUC":3156,"Msg":3157,"Ġenclosing":3158,"DEFIN":3159,"ScalarNodeData":3160,"canonical":3161,"allocator":3162,"ĠChristopher":3163,"SpriteAnimation":3164,"greater":3165,"utputArchive":3166,"Intercept":3167,"OneThousandScore":3168,"Point":3169,"WithMarkException":3170,"Window":3171,"utDialog":3172,"ArraySerializationCluster":3173,"Alloc":3174,"CollideSystem":3175,"NDLE":3176,"addressof":3177,"THROW":3178,"ReadFile":3179,">=============================================================================*/<":3180,"AboutDialog":3181,"FineTune":3182,"Thread":3183,"imental":3184,"}>{}\"":3185,"ernel":3186,"Ġsnarf":3187,"experimental":3188,"INDEX":3189,"INCREMENT":3190,"apacity":3191,"websocket":3192,"obfusc":3193,"\"),":3194,"*<":3195,"*,\"":3196,",*,\"":3197,"03":3198,"09":3199,"16":3200,"78":3201,"80":3202,":\"":3203,";}<":3204,"<'":3205,">(),":3206,">>{},":3207,"AG":3208,"ACE":3209,"AST":3210,"ABLE":3211,"ANG":3212,"Aimbot":3213,"BY":3214,"BLOCK":3215,"CC":3216,"CY":3217,"Cho":3218,"Code":3219,"Char":3220,"CSTR":3221,"Dun":3222,"Dif":3223,"DLL":3224,"DWORD":3225,"DSMember":3226,"Eigen":3227,"Entity":3228,"Fn":3229,"FOO":3230,"FILE":3231,"FUSION":3232,"Filter":3233,"FACE":3234,"GL":3235,"Game":3236,"GMP":3237,"GWIN":3238,"Is":3239,"IDENTITY":3240,"LV":3241,"LInput":3242,"MH":3243,"Max":3244,"NE":3245,"NULL":3246,"OD":3247,"PS":3248,"PY":3249,"Pre":3250,"Ptr":3251,"PTION":3252,"Parse":3253,"Person":3254,"PLU":3255,"Qt":3256,"Ran":3257,"SD":3258,"Sc":3259,"Sec":3260,"Tag":3261,"This":3262,"Template":3263,"UU":3264,"Uti":3265,"XPRE":3266,"]]":3267,"ale":3268,"ait":3269,"aMember":3270,"aches":3271,"bg":3272,"bit":3273,"bar":3274,"bod":3275,"block":3276,"cv":3277,"cTest":3278,"capacity":3279,"dl":3280,"dron":3281,"esh":3282,"fic":3283,"fake":3284,"fort":3285,"fab":3286,"gmail":3287,"gPtr":3288,"hs":3289,"hen":3290,"hal":3291,"hook":3292,"ian":3293,"iel":3294,"kiew":3295,"loo":3296,"link":3297,"mixed":3298,"nct":3299,"nect":3300,"node":3301,"own":3302,"pass":3303,"pbo":3304,"pixels":3305,"rx":3306,"rst":3307,"ras":3308,"rror":3309,"rhs":3310,"sg":3311,"sub":3312,"ssi":3313,"sign":3314,"switch":3315,"tor":3316,"ux":3317,"uau":3318,"update":3319,"vari":3320,"wi":3321,"wind":3322,"wMon":3323,"zlib":3324,"zMsg":3325,"âĢ":3326,"ĉĠ":3327,"Ġ.":3328,"Ġ;":3329,"Ġ;<":3330,"Ġ/*":3331,"Ġerrors":3332,"Ġone":3333,"Ġtemplates":3334,"Ġquaternion":3335,"Ġ...":3336,"Ġlogger":3337,"inc":3338,"inline":3339,"den":3340,"destruct":3341,"order":3342,"Ġali":3343,"ĠLod":3344,"reate":3345,"ress":3346,"reated":3347,"reason":3348,"erCon":3349,"riv":3350,">#<":3351,"CEPTION":3352,"SEAR":3353,"setup":3354,"leep":3355,"icz":3356,"icData":3357,"Ġfs":3358,"Ġfre":3359,"Ġfast":3360,"Ġfree":3361,"ĠBe":3362,"ĠScalar":3363,"ĠDFS":3364,"hest":3365,"hedron":3366,"sions":3367,"https":3368,"ĠCON":3369,"ĠCreated":3370,"istory":3371,"ofele":3372,"unwind":3373,"Ġmas":3374,"Ġmulti":3375,"Ġmem":3376,"Ġmore":3377,"complex":3378,"buff":3379,"Ġatomic":3380,"Ġ\",":3381,"Ġ\"\\":3382,"Ġ\":\"":3383,"()+":3384,"tester":3385,"peated":3386,"isUn":3387,"lity":3388,"like":3389,"mesh":3390,"util":3391,"ĠskC":3392,"arch":3393,"2003":3394,"Ġnon":3395,"Ġnode":3396,"Ġreg":3397,"Ġread":3398,"Ġrepeated":3399,"Ġpch":3400,"trol":3401,"Ġdata":3402,"adic":3403,"adap":3404,"ĠtoString":3405,"aceSys":3406,"Ġimporter":3407,"ulkiew":3408,"utoDif":3409,"cond":3410,"connect":3411,"idth":3412,"ĠEn":3413,"ĠEcho":3414,"ĠError":3415,"geon":3416,"----------":3417,"ĠJanu":3418,"ateg":3419,"exe":3420,"exten":3421,"exact":3422,"how":3423,"hocTest":3424,"Ġbo":3425,"IND":3426,"ĠALL":3427,"ĠAuth":3428,"ĠAutoDif":3429,"ighest":3430,"Ġtestset":3431,"ros":3432,"round":3433,"ents":3434,"MPF":3435,"ĠPy":3436,"ĠPath":3437,"Ġwe":3438,"tossit":3439,"token":3440,"Ġconstruct":3441,"events":3442,"Ġthrd":3443,"Ġthread":3444,"ĠHol":3445,"Ġincomplete":3446,"Ġinstantiate":3447,"ĠRevision":3448,"**)":3449,"HANDLE":3450,"DERABLE":3451,"DETACH":3452,"six":3453,"META":3454,"[],":3455,"ĉĉĉĉ":3456,"indexing":3457,"abort":3458,"itial":3459,"itiali":3460,"ĠĠĠĠĠĠĠĠĠĠĠĠĠĠĠĠĠĠĠ":3461,"nop":3462,"Ġlm":3463,"Ġ&=":3464,"ĠWhen":3465,"ĠWulkiew":3466,"0000":3467,"ĠFIND":3468,"omeStat":3469,"operations":3470,"hard":3471,"STATUS":3472,"REE":3473,"Ġroot":3474,"decrypt":3475,"Ġvari":3476,"ustom":3477,"ĠInitial":3478,"Ġderi":3479,"Ġdelete":3480,"sponding":3481,"Ġglm":3482,"obser":3483,"hecker":3484,"ORDERABLE":3485,"THON":3486,"UNREFERENCE":3487,"ARM":3488,"ARCH":3489,"ĠLog":3490,"lobals":3491,"ransp":3492,"Ġprogram":3493,"OLD":3494,"ĠIDENTITY":3495,"overity":3496,"DataMember":3497,"print":3498,"printf":3499,"proc":3500,"localPlayer":3501,"Ġchecking":3502,"scan":3503,"Ġhave":3504,"ĠhModule":3505,"Ġhigh":3506,"Ġhistory":3507,"Ġui":3508,"Ġuse":3509,"Config":3510,"Exist":3511,"minus":3512,"Ġnecess":3513,"Indexable":3514,">{}<":3515,"PPC":3516,"seriali":3517,"serialization":3518,"\")(":3519,"\").":3520,"work":3521,"Ġsucceed":3522,"KEYWORD":3523,">());<":3524,"Ġword":3525,"Ġworld":3526,"monitor":3527,"declspec":3528,"And":3529,"Anti":3530,"LOutputArchive":3531,"Ġbyte":3532,"10005":3533,"Ġsupported":3534,"DOXY":3535,"Ġdecltype":3536,"implicit":3537,"ATTACH":3538,"EQUAL":3539,"seconds":3540,"lexport":3541,"CHABLE":3542,"processor":3543,"EXTEN":3544,"keyword":3545,"manifest":3546,"mutable":3547,"supp":3548,"Ġctx":3549,"ĠPoland":3550,"Class":3551,"FLOAT":3552,"Service":3553,"epi":3554,"regress":3555,"oldProtect":3556,"Comp":3557,"Count":3558,"Ġservices":3559,"INTERFACE":3560,"NotExist":3561,"lhs":3562,"requires":3563,"required":3564,"Ġ123":3565,"yyyyyyyy":3566,"Ġkeywords":3567,"ĠChristian":3568,"Admin":3569,"AdhocTest":3570,"Detour":3571,"XMLInput":3572,"XMLOutputArchive":3573,"axiom":3574,"kChecker":3575,"shot":3576,"show":3577,"uuids":3578,"Ġapply":3579,"ĠListNode":3580,"ĠListNodeData":3581,"Ġtuple":3582,"ĠStart":3583,"ĠAdam":3584,"ĠIndexable":3585,"OnMap":3586,"plicit":3587,"Ġcorresponding":3588,"ĠUnit":3589,"Ġinterfaces":3590,"placeholder":3591,"CurrentFr":3592,"LapRan":3593,"PositionOnMap":3594,"parent":3595,"Ġfftw":3596,"ĠServer":3597,"Ġpsb":3598,"ĠUtility":3599,"ĠĠĠĠĠĠĠĠĠĠĠĠĠĠĠĠĠĠĠĠĠĠĠĠĠĠĠĠĠĠ":3600,"Bye":3601,"gui":3602,"urity":3603,"ĠSER":3604,"ĠaiProcess":3605,"clock":3606,"ĠSTATUS":3607,"Ġimplicit":3608,"queries":3609,"ĠProject":3610,"PARSE":3611,"DEFINED":3612,"InterceptEntry":3613,"THROWS":3614,"ReadFileException":3615,"obfuscator":3616,"CYGWIN":3617,"Dungeon":3618,"PYTHON":3619,"PLUS":3620,"Security":3621,"Utils":3622,"XPRESSIVE":3623,"bgi":3624,"body":3625,"dllexport":3626,"forty":3627,"ield":3628,"loor":3629,"pboard":3630,"signal":3631,"wMonitor":3632,"ĠLodz":3633,"SEARCHABLE":3634,"ĠScalarNodeData":3635,"ĠCONST":3636,"Ġmultiple":3637,"utils":3638,"ĠskCrypt":3639,"ĠJanuary":3640,"extensions":3641,"ĠAuthor":3642,"ĠAutoDiff":3643,"ĠPathSaver":3644,"METAPARSE":3645,"ĠWulkiewicz":3646,"omeStaticData":3647,"UNREFERENCED":3648,"Ġnecessary":3649,"serialize":3650,"DOXYGEN":3651,"XMLInputArchive":3652,"CurrentFrame":3653,"LapRankChecker":3654,"!=":3655,"!\");<":3656,"%%":3657,")>":3658,"),<":3659,"*(":3660,"*>":3661,"*(_":3662,"-//<":3663,"14":3664,"22":3665,"26":3666,"34":3667,"66":3668,"75":3669,"<=":3670,"<>,":3671,"=(":3672,">><":3673,">/*":3674,">__":3675,"AF":3676,"AH":3677,"ATO":3678,"AClass":3679,"Bo":3680,"Bat":3681,"Bool":3682,"Case":3683,"Dec":3684,"DIS":3685,"Dep":3686,"Driver":3687,"Empty":3688,"ECU":3689,"FI":3690,"FL":3691,"Foo":3692,"FOR":3693,"FAL":3694,"Func":3695,"FREE":3696,"GA":3697,"GT":3698,"Gx":3699,"GRA":3700,"Jua":3701,"JAH":3702,"KT":3703,"LC":3704,"Log":3705,"LoraDv":3706,"Mak":3707,"Mgr":3708,"Mapp":3709,"Menu":3710,"Matrix":3711,"NV":3712,"NY":3713,"Nm":3714,"OB":3715,"OUN":3716,"Output":3717,"Org":3718,"Pack":3719,"QT":3720,"Rq":3721,"Ren":3722,"Run":3723,"RON":3724,"Ret":3725,"Res":3726,"RaceSys":3727,"SQ":3728,"Sor":3729,"Size":3730,"SFunction":3731,"Single":3732,"SIntFunction":3733,"Show":3734,"TT":3735,"To":3736,"Ton":3737,"TAR":3738,"Tree":3739,"Tape":3740,"Trans":3741,"TSFunction":3742,"US":3743,"Val":3744,"Vol":3745,"WI":3746,"Wo":3747,"Wait":3748,"Xj":3749,"XOPEN":3750,"\\\"":3751,"_);<":3752,"_(\"":3753,"_->":3754,"aFunction":3755,"ahedron":3756,"aJAH":3757,"bi":3758,"bt":3759,"bda":3760,"cation":3761,"cmath":3762,"categ":3763,"custom":3764,"df":3765,"dh":3766,"dt":3767,"dge":3768,"driver":3769,"dgt":3770,"ead":3771,"empf":3772,"fi":3773,"fin":3774,"fine":3775,"fet":3776,"fore":3777,"free":3778,"flag":3779,"gate":3780,"gument":3781,"globals":3782,"hof":3783,"iL":3784,"imp":3785,"ieml":3786,"iaud":3787,"iJua":3788,"jill":3789,"kernel":3790,"lan":3791,"lation":3792,"lam":3793,"lush":3794,"lgamma":3795,"lift":3796,"mor":3797,"nan":3798,"nap":3799,"nCon":3800,"nDetour":3801,"nbt":3802,"oc":3803,"out":3804,"ovo":3805,"osi":3806,"ound":3807,"ohlhoff":3808,"pend":3809,"qrt":3810,"rn":3811,"sl":3812,"sic":3813,"sur":3814,"sity":3815,"src":3816,"solve":3817,"sleep":3818,"tate":3819,"tree":3820,"tune":3821,"tgamma":3822,"uNm":3823,"vinc":3824,"win":3825,"xor":3826,"ypr":3827,"ypename":3828,"yield":3829,"{}<":3830,"Ġ@":3831,"Ġ`":3832,"Ġ--":3833,"Ġus":3834,"Ġqu":3835,"Ġro":3836,"Ġent":3837,"Ġever":3838,"Ġgraph":3839,"Ġ~~~~~~~~":3840,"Ġelgamal":3841,"//===":3842,"stit":3843,"stern":3844,"stead":3845,"inl":3846,"decomp":3847,"delete":3848,"orial":3849,"onv":3850,"onent":3851,"Ġas":3852,"Ġari":3853,"ĠLuau":3854,"remy":3855,"erved":3856,"ris":3857,"riev":3858,"ription":3859,"enovo":3860,"enstern":3861,"sec":3862,"xtime":3863,"let":3864,"leted":3865,"lemen":3866,"Ġtypename":3867,"icros":3868,"iconv":3869,"Ġfloor":3870,"ĠBar":3871,"ĠBare":3872,"ĠBase":3873,"ĠSie":3874,"ĠSIntFunction":3875,"ĠDH":3876,"ĠDem":3877,"ĠDriver":3878,"hex":3879,"heat":3880,"heory":3881,"2011":3882,"orgenstern":3883,"Ġ13":3884,"way":3885,"ĠCar":3886,"ists":3887,"ofit":3888,"atth":3889,"Ġmat":3890,"Ġmap":3891,"Ġmake":3892,"Ġcount":3893,"Ġunit":3894,"Ġundef":3895,"Ġ\"[":3896,"Ġ\";<":3897,"ify":3898,"ific":3899,"iss":3900,"message":3901,"alone":3902,"asn":3903,"libx":3904,"Ġsh":3905,"Ġsame":3906,"Ġsure":3907,"Ġslow":3908,"Ġsolve":3909,"arche":3910,"arrange":3911,"arcs":3912,"archive":3913,"Ġcid":3914,"Ġcore":3915,"defg":3916,"Ġng":3917,"Ġnxt":3918,"Ġremove":3919,"Ġrecur":3920,"Ġpq":3921,"Ġpart":3922,"Ġperson":3923,"Ġpcre":3924,"Ġplatform":3925,"ous":3926,"Ġ*(":3927,"Ġ**":3928,"Ġ*[])<":3929,"diff":3930,"new":3931,"negate":3932,"Ġdynamic":3933,"Ġdgt":3934,"adv":3935,"Ġimple":3936,"concur":3937,"contin":3938,"ĠMPL":3939,"ĠMorgenstern":3940,"ĠMatth":3941,"ĠTransp":3942,"voSample":3943,"Ġmod":3944,"Ġmode":3945,"ties":3946,"ĠEx":3947,"ĠEOF":3948,"ĠElGamal":3949,"ĠEntity":3950,"TEGRA":3951,"Ġforward":3952,"assimp":3953,"Ġintptr":3954,"Ġinterm":3955,"ates":3956,"exists":3957,"pret":3958,"prepend":3959,"ovide":3960,"Ġbasic":3961,">}}<":3962,"chris":3963,"ĠActNode":3964,"tery":3965,"errno":3966,"api":3967,"Ġ>::":3968,"MPILE":3969,"/*==============================================================================":3970,"PRAG":3971,"Inte":3972,"Insert":3973,"Initiali":3974,"ĠPVOID":3975,"ĠGener":3976,"ĠGerm":3977,"Ġwidget":3978,"Ġwrite":3979,"tom":3980,"top":3981,"ailway":3982,"ĠHub":3983,"ĠHandle":3984,"Ġinit":3985,"Ġyes":3986,"stats":3987,"status":3988,"Ġ==<":3989,"RATI":3990,"ĠRaf":3991,"ĠRailway":3992,"SSL":3993,"SSAGE":3994,"shift":3995,"Ġ256":3996,"MESSAGE":3997,"Ġ->":3998,"LEA":3999,"abc":4000,"abi":4001,"(\"'":4002,"(\".":4003,"CONFI":4004,"veral":4005,"ilis":4006,"tyom":4007,"nom":4008,"ied":4009,"Ġlp":4010,"Ġline":4011,"Ġlink":4012,"ĠloraDv":4013,"Ġ&<":4014,"ĠWith":4015,"getNodeType":4016,"Ġedge":4017,"Ġhere":4018,"Ġhello":4019,"Ġ30":4020,"Ġ32":4021,"Ġ'\")":4022,"ĠFC":4023,"ĠFOO":4024,"ĠFUSION":4025,"STAN":4026,"))(<":4027,"values":4028,"Ġrun":4029,"ĠHello":4030,"Ġmapper":4031,"Ġnotice":4032,"Ġincluded":4033,"andalone":4034,"power":4035,"posix":4036,"Ġva":4037,"bedd":4038,"ĠOper":4039,"CHRON":4040,"ĠInit":4041,"ĠInstit":4042,"Ġtypes":4043,"argument":4044,"odd":4045,"Ġwhat":4046,"NOK":4047,"Ġkohlhoff":4048,"ĠKempf":4049,"ĠKlemen":4050,"arithmetic":4051,"Ġ%>;<":4052,"Ġpreorder":4053,"overload":4054,"SetOrg":4055,"kikh":4056,"DataException":4057,"prg":4058,"Ġstate":4059,"Ġstill":4060,"rency":4061,"inters":4062,"intermodule":4063,"interpret":4064,"AIL":4065,"OUT":4066,"ality":4067,"alignof":4068,"ĠmaxCount":4069,"ĠmaxDep":4070,"thony":4071,"Ġ|=":4072,"Ġhighest":4073,"Ġexport":4074,"Ġexpression":4075,"Ġexplicit":4076,"328":4077,"Const":4078,"Convert":4079,"Conso":4080,"minim":4081,"funs":4082,"position":4083,"Ġsuite":4084,"resolution":4085,"MIC":4086,"AUD":4087,"AULT":4088,"Ġ})":4089,"Ġnote":4090,"5678":4091,"TestA":4092,"TestCase":4093,"Ġdoesn":4094,"scoped":4095,"ĠĠĠĠĠĠĠĠĠĠĠĠĠĠĠĠĠĠĠĠĠĠĠĠĠĠĠĠ":4096,"copyable":4097,"SIONS":4098,"Ġoc":4099,"ĠKohlhoff":4100,"Ġpoint":4101,"Ġpossi":4102,"Ġpointers":4103,"location":4104,"locale":4105,"ĠAnthony":4106,"Ġaddr":4107,"crement":4108,"cleanu":4109,"anip":4110,"anization":4111,"ĠArtyom":4112,"(&)(":4113,"Ġassert":4114,"Ġassign":4115,"ComnCon":4116,"append":4117,"ilities":4118,"iversity":4119,"Ġnumofele":4120,"ĠnumTestCase":4121,"BEAST":4122,"EXCEPTION":4123,"EXECU":4124,"GetGlobalMap":4125,"Ġctre":4126,"Ġctti":4127,"color":4128,"------===":4129,"InitA":4130,"polymor":4131,"Unload":4132,"Unregist":4133,"binary":4134,"ĠConstruction":4135,"ĠControl":4136,"FailedParse":4137,"FailedReadFileException":4138,"FailedConvert":4139,"Library":4140,"ĠPersonTag":4141,"----------------------------------------------------------------------===":4142,"THREADS":4143,"results":4144,"COMPLE":4145,"NullNodeData":4146,"current":4147,"Ġentry":4148,"ĠSchabel":4149,"Ġ1005":4150,"versal":4151,"Modules":4152,"moke":4153,"Ġ^=":4154,"--------------//<":4155,"DEFAULT":4156,"ElGamalDec":4157,"div":4158,"...)>::":4159,"escription":4160,"Ġkeyword":4161,"cpu":4162,"sqc":4163,"erfc":4164,"Ġprintf":4165,"Ġprovide":4166,"ĠFormat":4167,"ErrorMode":4168,"FindNode":4169,"FindCommandBase":4170,"Model":4171,"MemoryMgr":4172,"msvc":4173,"rgb":4174,"vider":4175,"Ġwarning":4176,"Ġ(*(":4177,"ĠSetErrorMode":4178,"Ġcorrect":4179,"Ġrequires":4180,"Ġrequired":4181,"ĠUniversity":4182,"INTMAX":4183,"MessageBo":4184,"davinc":4185,"{},":4186,"Ġaddress":4187,"Ġspecial":4188,"handle":4189,"Ġdisables":4190,"ĠJeff":4191,"ĠJeremy":4192,"ĠWilliam":4193,"ĠWilliams":4194,"ĠInterval":4195,"OPENSSL":4196,"Ġopened":4197,"362":4198,"65328":4199,"HaveThe":4200,"MSC":4201,"TWO":4202,"UDT":4203,"lastPoint":4204,"ĠrowIndex":4205,"retriev":4206,"intrinsic":4207,"Ġcolor":4208,"Ġsimple":4209,"ĠHanover":4210,"tracking":4211,"))(*(_":4212,"WORKING":4213,"Allocator":4214,"0965328":4215,"LVM":4216,"ficiaud":4217,"half":4218,"nodeType":4219,"variable":4220,"Ġalignof":4221,"erConCommand":4222,"Ġfreq":4223,"ĠBeilis":4224,"Ġmemfuns":4225,"buffer":4226,"ĠEnficiaud":4227,"**)(__":4228,"hardware":4229,"Ġvariadic":4230,"ĠLogName":4231,"EXTENSIONS":4232,"support":4233,"ATOMIC":4234,"AClassType":4235,"Battery":4236,"DISABLE":4237,"EmptyLine":4238,"FORM":4239,"FALSE":4240,"GxS":4241,"KTG":4242,"Maker":4243,"Mapper":4244,"NVType":4245,"OUND":4246,"OutputHandle":4247,"Rqd":4248,"Render":4249,"Sorry":4250,"Tonkikh":4251,"TARGET":4252,"TreeNode":4253,"Value":4254,"WoRqd":4255,"XjGxS":4256,"aJAHsqc":4257,"category":4258,"fetch":4259,"gumentPack":4260,"lambda":4261,"napshot":4262,"nbtheory":4263,"osite":4264,"uNmNOK":4265,"Ġuser":4266,"Ġrotate":4267,"//===----------------------------------------------------------------------===":4268,"decompose":4269,"Ġarithmetic":4270,"enovoMemoryMgr":4271,"icrosoft":4272,"ĠSiek":4273,"Ġrecurs":4274,"concurrency":4275,"continue":4276,"ĠMatthias":4277,"ĠTransport":4278,"TEGRAL":4279,"Ġintermodule":4280,"/*==============================================================================<":4281,"PRAGMA":4282,"InsertNode":4283,"Initialize":4284,"ĠGermany":4285,"RATIO":4286,"ĠRaffi":4287,"CONFIG":4288,"ĠloraDvService":4289,"bedding":4290,"ĠOperation":4291,"CHRONO":4292,"ĠInstitute":4293,"ĠKlemens":4294,"SetOrganization":4295,"ĠmaxDepth":4296,"Console":4297,"Ġpossible":4298,"cleanup":4299,"ComnConvoSample":4300,"ĠnumTestCases":4301,"EXECUTE":4302,"UnregisterConCommand":4303,"FailedParseException":4304,"FailedConvertDataException":4305,"COMPLETE":4306,"ElGamalDecryptor":4307,"MessageBox":4308,"davinci":4309,"HaveTheSIntFunction":4310,"retrieve":4311,"//===----------------------------------------------------------------------===//<":4312,"\"+":4313,"##":4314,"'.<":4315,"');<":4316,"'>);<":4317,"(-":4318,"(::":4319,")/":4320,"):":4321,")?":4322,")));<":4323,")>(":4324,")>));<":4325,"*'":4326,"*/":4327,"+\");<":4328,".%":4329,"13":4330,"24":4331,"2100":4332,"37":4333,"86":4334,";;":4335,"<-":4336,">=":4337,">`":4338,">->":4339,">>()":4340,"ARE":4341,"BA":4342,"Be":4343,"Bone":4344,"Cal":4345,"COPE":4346,"Call":4347,"CRY":4348,"Chams":4349,"Caches":4350,"Create":4351,"Coverity":4352,"Cheat":4353,"DI":4354,"Dis":4355,"Del":4356,"Des":4357,"DOU":4358,"EM":4359,"Ext":4360,"Eas":4361,"Equ":4362,"ECT":4363,"EXIT":4364,"Employee":4365,"ECRY":4366,"FNAME":4367,"From":4368,"FFT":4369,"GB":4370,"Goo":4371,"Global":4372,"Hi":4373,"Hid":4374,"HType":4375,"HECK":4376,"HDR":4377,"HEA":4378,"HwMonitor":4379,"If":4380,"IME":4381,"IRT":4382,"IEN":4383,"ITER":4384,"IVER":4385,"Importer":4386,"IMPLE":4387,"IEM":4388,"JU":4389,"JECT":4390,"KL":4391,"Kernel":4392,"LGA":4393,"LenovoMemoryMgr":4394,"MQ":4395,"MU":4396,"Min":4397,"Man":4398,"Must":4399,"NK":4400,"NU":4401,"Oth":4402,"ODE":4403,"OAD":4404,"PC":4405,"PO":4406,"Parameter":4407,"PLI":4408,"PDR":4409,"Pause":4410,"Platform":4411,"PCSTR":4412,"PIEN":4413,"RV":4414,"Rest":4415,"RRE":4416,"RTION":4417,"RITE":4418,"RGB":4419,"SY":4420,"Sur":4421,"Spre":4422,"Sel":4423,"Send":4424,"Sequ":4425,"SUI":4426,"SOF":4427,"Scan":4428,"Sorted":4429,"SomeStaticData":4430,"Snapshot":4431,"SCOPE":4432,"SRGB":4433,"Tra":4434,"Tpl":4435,"TRY":4436,"Target":4437,"TSTATUS":4438,"UT":4439,"UCT":4440,"VST":4441,"VAR":4442,"Virtual":4443,"VMs":4444,"VIRT":4445,"Werror":4446,"WRE":4447,"Wave":4448,"WID":4449,"Wrong":4450,"Write":4451,"Wep":4452,"World":4453,"WOW":4454,"WRITE":4455,"]\"":4456,"]*":4457,"]>":4458,"]==":4459,"]++;<":4460,"]])<":4461,"])%":4462,"_.":4463,"ae":4464,"aw":4465,"aco":4466,"ais":4467,"aul":4468,"action":4469,"big":4470,"bol":4471,"bet":4472,"bla":4473,"break":4474,"cpy":4475,"cid":4476,"cert":4477,"cent":4478,"czo":4479,"cali":4480,"ccess":4481,"cdecl":4482,"crypto":4483,"cLap":4484,"caches":4485,"db":4486,"dat":4487,"dll":4488,"disable":4489,"empl":4490,"eans":4491,"eps":4492,"fra":4493,"fset":4494,"filter":4495,"go":4496,"gtest":4497,"gal":4498,"game":4499,"gra":4500,"gerType":4501,"glen":4502,"gger":4503,"gled":4504,"gba":4505,"gsl":4506,"hat":4507,"hOutputHandle":4508,"ima":4509,"jor":4510,"jof":4511,"json":4512,"jaco":4513,"ktop":4514,"kIf":4515,"ling":4516,"lum":4517,"land":4518,"lso":4519,"lang":4520,"lua":4521,"mal":4522,"mass":4523,"miti":4524,"mits":4525,"mbol":4526,"ng":4527,"nal":4528,"nipp":4529,"noop":4530,"nRet":4531,"ow":4532,"osed":4533,"other":4534,"pc":4535,"pri":4536,"pan":4537,"pat":4538,"play":4539,"pause":4540,"pnop":4541,"pTarget":4542,"pgra":4543,"rz":4544,"rator":4545,"rand":4546,"sv":4547,"smoke":4548,"srgb":4549,"snipp":4550,"ts":4551,"tt":4552,"tx":4553,"tab":4554,"tick":4555,"target":4556,"uit":4557,"uar":4558,"uage":4559,"used":4560,"uHook":4561,"upgra":4562,"vt":4563,"vir":4564,"vInstance":4565,"valid":4566,"wm":4567,"wo":4568,"wstring":4569,"width":4570,"ybe":4571,"yes":4572,"yAnti":4573,"yAdhocTest":4574,"zz":4575,"{-":4576,"||":4577,"})":4578,"},":4579,"Ġ9":4580,"Ġcl":4581,"Ġinclu":4582,"Ġxt":4583,"Ġul":4584,"Ġ----------------":4585,"Ġexception":4586,"Ġstream":4587,"Ġ50":4588,"Ġlocal":4589,"Ġcomplete":4590,"Ġoption":4591,"Ġbuil":4592,"Ġbuild":4593,"Ġvec":4594,"Ġlow":4595,"Ġentity":4596,"Ġ90":4597,"ĠoldProtect":4598,"Ġiconv":4599,"Ġdiff":4600,"Ġstatus":4601,"Ġodd":4602,"//#":4603,"//----------------------------------------------------------------":4604,"stic":4605,"stdo":4606,"stub":4607,"inary":4608,"inser":4609,"information":4610,"instantiate":4611,"increment":4612,"inae":4613,">///":4614,">//~":4615,">//////////////////////////////////////////////////////////////////":4616,">//////////////////////////////////////////////////////////////////////////////":4617,"des":4618,"dest":4619,"deman":4620,"dentity":4621,"debug":4622,"devices":4623,"deleted":4624,"onment":4625,"Ġara":4626,"Ġaaa":4627,"ĠaMember":4628,"ĠaTestLibX":4629,"ĠLPVOID":4630,"ĠLANG":4631,"ĠLLC":4632,"ĠLNK":4633,"rey":4634,"reme":4635,"real":4636,"reet":4637,"reset":4638,"replace":4639,"rearrange":4640,"reEmptyLine":4641,"cois":4642,"coil":4643,"codec":4644,"ersp":4645,"erive":4646,"rime":4647,"ries":4648,"ript":4649,"rigger":4650,"CEPT":4651,"clang":4652,"close":4653,"clude":4654,"enum":4655,"enth":4656,"engine":4657,"envir":4658,"secs":4659,"search":4660,"several":4661,"Ġ()<":4662,"Ġ(((":4663,"leave":4664,"leux":4665,"legal":4666,"andes":4667,"ppc":4668,"ppSettings":4669,"Ġtc":4670,"Ġtable":4671,"Ġtarget":4672,"Ġtrans":4673,"Ġtrigger":4674,"ictor":4675,"Ġfx":4676,"Ġfy":4677,"Ġfz":4678,"Ġfake":4679,"Ġfab":4680,"Ġfusion":4681,"Ġfind":4682,"ĠfSp":4683,"Ġflag":4684,"ĠfChar":4685,"ĠfWep":4686,"mpc":4687,"ĠBlum":4688,"ĠSD":4689,"ĠSqu":4690,"ĠSomeStaticData":4691,"ĠDis":4692,"ĠDll":4693,"ĠDWORD":4694,"ĠDSMember":4695,"ĠDescription":4696,"ĠDerive":4697,"ingNumber":4698,"ingCho":4699,"heli":4700,"head":4701,"hess":4702,"height":4703,"Ġ11":4704,"Ġ175":4705,"warning":4706,"::*":4707,"::*)":4708,"ĠCO":4709,"ĠCli":4710,"ĠCApp":4711,"ĠClean":4712,"ĠClient":4713,"ĠCoverity":4714,"ĠCModules":4715,"ĠCHECK":4716,"ĠClang":4717,"Ġthem":4718,"istrator":4719,"ats":4720,"atus":4721,"unused":4722,"Ġmany":4723,"Ġmut":4724,"Ġmix":4725,"Ġmember":4726,"Ġmqv":4727,"Ġmanifest":4728,"Ġmatrix":4729,"Ġmesh":4730,"Ġmsg":4731,"Ġmiss":4732,"Ġmeans":4733,"compute":4734,"compiler":4735,"composite":4736,"ĠVMs":4737,"Ġcopyright":4738,"Ġfilesystem":4739,"buf":4740,"but":4741,"Ġaccess":4742,"Ġactual":4743,"Ġunits":4744,"Ġunreference":4745,"Ġ\"\";<":4746,"ainWindow":4747,"()]":4748,"().<":4749,"()->":4750,"()){<":4751,"ctti":4752,"\"<<":4753,"testogl":4754,"pefully":4755,"Ġ=<":4756,"isnan":4757,"lipt":4758,"liant":4759,"limits":4760,"alread":4761,"alance":4762,"ceil":4763,"url":4764,"utdown":4765,"----//<":4766,"ash":4767,"asses":4768,"library":4769,"Ġsy":4770,"Ġsig":4771,"Ġsort":4772,"ĠsFunction":4773,"Ġsrc":4774,"Ġske":4775,"Ġsafe":4776,"Ġsingle":4777,"Ġswitch":4778,"Ġsrx":4779,"Ġsqrt":4780,"arc":4781,"arge":4782,"arable":4783,"around":4784,"OOP":4785,"Ġcr":4786,"Ġcap":4787,"Ġcryp":4788,"Ġcurrent":4789,"Ġcras":4790,"Ġcreate":4791,"defs":4792,"ational":4793,"2006":4794,"Ġnct":4795,"Ġnsecs":4796,"Ġanal":4797,"Ġref":4798,"Ġreport":4799,"Ġrelease":4800,"Ġregex":4801,"Ġregre":4802,"Ġreinterpret":4803,"Ġrecent":4804,"Ġpool":4805,"Ġpack":4806,"Ġpragma":4807,"Ġplayer":4808,"Ġpersp":4809,"Ġ*)":4810,"Ġ*,":4811,"Ġ*/":4812,"Ġ*********************************":4813,"amese":4814,"neThousandScore":4815,"sparc":4816,"Ġdon":4817,"Ġdir":4818,"Ġdriver":4819,"Ġdrx":4820,"admath":4821,"Ġtossit":4822,"ĠtoBool":4823,"acement":4824,"ĠiFov":4825,"ĠiAimbot":4826,"ĠiBone":4827,"Ġidentity":4828,"jection":4829,"conio":4830,"concept":4831,"ĠMake":4832,"ĠMemory":4833,"ĠManifest":4834,"ĠMenu":4835,"ĠMOD":4836,"ĠMesh":4837,"ĠMsg":4838,"ĠMicrosoft":4839,"ĠMainWindow":4840,"ĠTH":4841,"ĠType":4842,"ĠTemplate":4843,"ĠTIME":4844,"idle":4845,"ĠUri":4846,"ĠUCC":4847,"Ġmost":4848,"tiers":4849,"Ġmodify":4850,"Ġmodified":4851,"ĠELGA":4852,"airy":4853,"aimass":4854,"TED":4855,"Ġformal":4856,"assoc":4857,"specialization":4858,"ĠDivider":4859,"Ġ\"__":4860,"umb":4861,"host":4862,"typeof":4863,"typeid":4864,"typeindex":4865,"preprocessor":4866,"Ġbat":4867,"Ġbacktrace":4868,"ĠbRe":4869,"ĠbSh":4870,"ĠbAimbot":4871,"ĠbMenu":4872,"ĠbChams":4873,"ĠbSpre":4874,"INER":4875,"INSTAN":4876,"INTEGRAL":4877,"cher":4878,"ĠAType":4879,"ĠApr":4880,"ĠAimbot":4881,"ĠAUD":4882,"ĠAPIEN":4883,"ĠAlso":4884,"ellipt":4885,"then":4886,"thumb":4887,"Ġtests":4888,"Ġtestogl":4889,"quadmath":4890,"structure":4891,"hname":4892,"Ġ>(":4893,"Ġ>;<":4894,"Ġ>);<":4895,"Include":4896,"ĠPNA":4897,"ĠPort":4898,"ĠPUN":4899,"ĠPCRE":4900,"ĠPAGE":4901,"ĠPaul":4902,"ĠGar":4903,"ĠGlen":4904,"ĠGGL":4905,"Ġwid":4906,"Ġwho":4907,"Ġwidth":4908,"totype":4909,"Ġcontract":4910,"Ġconversion":4911,"ĠName":4912,"ĠNot":4913,"ĠNull":4914,"ĠNative":4915,"ĠNCR":4916,"ĠNTSTATUS":4917,"++,":4918,"++;":4919,"++]":4920,"Ġthus":4921,"ĠHart":4922,"ĠHans":4923,"ĠHMODULE":4924,"ĠHwMonitor":4925,"ĠHKL":4926,"Ġinline":4927,"Ġ+_;<":4928,"RAPP":4929,"ĠRed":4930,"ĠRvalues":4931,"ĠRgba":4932,"ĠRational":4933,"llong":4934,"Ġdown":4935,"MPLEX":4936,"Ġ//...<":4937,"DED":4938,"DER":4939,"DECL":4940,"ves":4941,"shuff":4942,"emi":4943,"embedding":4944,"METH":4945,"[]<":4946,"Ġisn":4947,"TIVE":4948,"trac":4949,"traversal":4950,"Ġlibra":4951,"Ġlibtool":4952,"abilities":4953,"stringstream":4954,"(\"/":4955,"(\":":4956,"tuples":4957,"CONTA":4958,"CONDI":4959,"CONCEPT":4960,"hasInit":4961,"illegal":4962,"ĠĠĠĠĠĠĠĠĠĠ":4963,"__;<":4964,"__();<":4965,"nogram":4966,"nostic":4967,"ĠLoraDv":4968,"Ġlk":4969,"Ġlast":4970,"Ġlang":4971,"Ġlarge":4972,"ĠWritten":4973,"ssl":4974,"ssmod":4975,"racle":4976,"PREDEF":4977,"PRECONDI":4978,"Ġec":4979,"Ġhead":4980,"Ġheight":4981,"TRAITS":4982,"forward":4983,"ĠPeder":4984,"Ġ'('":4985,"ĠTestLibX":4986,"calPlayer":4987,"calcLap":4988,"001":4989,"003":4990,"ĠFran":4991,"ĠFill":4992,"ĠFern":4993,"ĠFiveHundredScore":4994,"ĠFlet":4995,")))<":4996,"))))<":4997,"CTOR":4998,"REVER":4999,"Ġrvalue":5000,"Ġarray":5001,"grams":5002,"Ġhost":5003,"Ġhopefully":5004,"Ġvalid":5005,"ustnogram":5006,"NTSTATUS":5007,"NTHType":5008,"ĠOK":5009,"ĠOneThousandScore":5010,"ĠOracle":5011,"setzero":5012,"MAL":5013,"MAIN":5014,"MACR":5015,">('":5016,">(*":5017,"Ġ4100":5018,"macs":5019,"maybe":5020,"ASSERTION":5021,"pts":5022,"Ġden":5023,"Ġdebug":5024,"ables":5025,"Ġgm":5026,"Ġgame":5027,"Ġgener":5028,"Ġglobal":5029,"Ġgadget":5030,"Ġguar":5031,"Ġgreet":5032,"obvi":5033,"Ġargs":5034,"mainwindo":5035,"formance":5036,"Ġbeing":5037,"/*<-<":5038,"Ġkill":5039,"erators":5040,"ĠKais":5041,"artAs":5042,"threads":5043,"AROUND":5044,"cheats":5045,"ffix":5046,"ffft":5047,"rank":5048,"Ġprop":5049,"Ġprocess":5050,"Ġprototype":5051,"Ġprograms":5052,"Ġpreprocessor":5053,"Engine":5054,"ĠIt":5055,"overwrite":5056,"SetString":5057,"~~<":5058,"Ġoffset":5059,"Ġstart":5060,"ĠstTestLibX":5061,"Ġstandalone":5062,"intermod":5063,"interfaces":5064,"TIONS":5065,"align":5066,"backFilter":5067,"Ġiter":5068,"Ġiterators":5069,"method":5070,"ager":5071,"agnostic":5072,"prog":5073,"proxy":5074,"projection":5075,"dso":5076,"6432":5077,"aveSt":5078,"pszMsg":5079,"Ġhf":5080,"Ġudt":5081,"Ġexpo":5082,"Ġexec":5083,"inkuHook":5084,"321":5085,"APPLI":5086,"Exc":5087,"minima":5088,"IndexError":5089,">{};<":5090,"VERGE":5091,"serCmd":5092,"frontiers":5093,"Ġsuccess":5094,"ORTY":5095,"ALUE":5096,"FUNCTOR":5097,"actor":5098,"Ġoverload":5099,"CAppSettings":5100,"CATIVE":5101,"MIPS":5102,"Ġopt":5103,">(),<":5104,"performance":5105,"Ġ});<":5106,"Ġ},<":5107,"Ġ}\";<":5108,"Ġnow":5109,"FUNCTIONS":5110,"UIRRE":5111,"enceExt":5112,"Ġfunctions":5113,"MBOL":5114,"1000":5115,"GEX":5116,"maxi":5117,"_<>,":5118,"imer":5119,"Ġos":5120,"Ġoar":5121,"Ġsupposed":5122,");}<":5123,"ArgPtr":5124,"ArgumentPack":5125,"graphics":5126,"1234":5127,"duplic":5128,"Ġcompliant":5129,"();\\":5130,"ICODE":5131,"Ġmpz":5132,"clipboard":5133,"constructor":5134,"construction":5135,"MemberTemplate":5136,"Ġqcl":5137,"Ġworks":5138,"ATFORM":5139,"locked":5140,"ĠArgPtr":5141,"Err":5142,"constants":5143,"scripts":5144,"someDataMember":5145,"ĠhasInit":5146,"stateless":5147,"Ġabi":5148,"ĠmyFunc":5149,"STRUCT":5150,"converts":5151,"CUserCmd":5152,"EXPR":5153,"GetCurrent":5154,"Start":5155,"suffix":5156,"ĠGeometry":5157,"READWRITE":5158,"polynom":5159,"4221":5160,"binski":5161,"assignment":5162,"CONSTEXPR":5163,"ĠWalton":5164,"CORE":5165,"COMPILE":5166,"COMPLEX":5167,"NoType":5168,"curl":5169,"phic":5170,"Ġending":5171,"ĠSchmid":5172,"Ġ10000":5173,"Ġserialization":5174,"Ġ')'":5175,"ForMP":5176,"visited":5177,"Ġcompiles":5178,"require":5179,"Ġ128":5180,"algorithms":5181,"crossmod":5182,"dimacs":5183,"diagnostic":5184,"gmpxx":5185,"modP":5186,"runtime":5187,"Ġbug":5188,"allocate":5189,"pointlike":5190,"EntryPoint":5191,"Ġassertions":5192,"faceslog":5193,"EDG":5194,"Linear":5195,"LINE":5196,"menu":5197,"mented":5198,"Ġapplication":5199,"covery":5200,"ĠStandard":5201,"ĠStatus":5202,"Ġcallable":5203,"ĠAdair":5204,"ĠAddress":5205,"Internal":5206,"InfoCode":5207,"InputSystem":5208,"extractors":5209,"EAEntryPoint":5210,"Windows":5211,"herit":5212,"mips":5213,"Ġwarn":5214,"Ġ[](":5215,"ĠSettings":5216,"ĠDebug":5217,"ĠDetour":5218,"ĠDefine":5219,"helloworld":5220,"utDown":5221,"Ġcatches":5222,"Ġinterface":5223,"~~~~~~~~~~<":5224,"STRINGIZE":5225,"ĠrandomNumber":5226,"='*'":5227,"AskIf":5228,"CLANG":5229,"CRC":5230,"CmdLine":5231,"CmdShow":5232,"Frames":5233,"Load":5234,"Location":5235,"LocalPlayer":5236,"Shutdown":5237,"choices":5238,"checkpoint":5239,"highlight":5240,"ndKey":5241,"sfinae":5242,"Ġ2022":5243,"Ġ--------------------------------------------------------------//<":5244,"Ġ----------------------------------------------------//<":5245,"starts":5246,"oopDel":5247,"Ġadj":5248,"Ġfflush":5249,"Ġspecify":5250,"Ġsomething":5251,"ĠsomeDataMember":5252,"handler":5253,"ĠpszMsg":5254,"ĠUtils":5255,"iomanip":5256,"macros":5257,"formats":5258,"formatter":5259,"ĠCompile":5260,"ĠComponent":5261,"****************************************":5262,"Ġabcdefg":5263,"Status":5264,"REFERENCES":5265,"ConversationInstance":5266,"ConversationAnd":5267,"ClientCho":5268,"MSG":5269,"PLATFORM":5270,"PyExc":5271,"SampleConversationInstance":5272,"TWARE":5273,"ayMs":5274,"cycle":5275,"multictor":5276,"Ġaaaaaaa":5277,"rett":5278,"STDLIB":5279,"STDInclude":5280,"download":5281,"Ġsiamese":5282,"ĠMSG":5283,"ĠHana":5284,"ĠRELEA":5285,"ĠREVERGE":5286,"ĠFilesystem":5287,"WORKAROUND":5288,"Ġposts":5289,"registration":5290,"ĠINTMAX":5291,"xxxxxxxxxxxxxxxx":5292,"Allocate":5293,"Charts":5294,"IsAdmin":5295,"MaxFrames":5296,"PrevInstance":5297,"QtCharts":5298,"SDK":5299,"SDL":5300,"Scene":5301,"Script":5302,"TemplateNotExist":5303,"fakeproxy":5304,"fabs":5305,"fabsq":5306,"hooks":5307,"ownload":5308,"rstar":5309,"wiki":5310,"âĢĻ":5311,"inlined":5312,"denDes":5313,"destructor":5314,"destructible":5315,"rivate":5316,"isUnlocking":5317,"isUnlocked":5318,"adaptor":5319,"condition":5320,"connection":5321,"-----------//<":5322,"Ġboth":5323,"Ġboard":5324,"MPFR":5325,"ĠPyObject":5326,"ĠPyErr":5327,"Ġconstructor":5328,"Ġconstructible":5329,"ĠHolt":5330,"ĠHolin":5331,"Ġderive":5332,"Ġderived":5333,"observer":5334,"observers":5335,"localPlayerIndex":5336,"scanf":5337,"Ġuseful":5338,"workaround":5339,"AndWait":5340,"AntiVMs":5341,"Compiler":5342,"Comparable":5343,"ĠStartAndWait":5344,"Ġimplicitly":5345,"signals":5346,"2656":5347,"DriverMapper":5348,"OBJECT":5349,"RunCore":5350,"Reserved":5351,"SQUIRRE":5352,"Singleton":5353,"Transaction":5354,"USING":5355,"WITH":5356,"lanczo":5357,"surde":5358,"Ġquick":5359,"Ġevery":5360,"Ġgraphs":5361,"Ġ~~~~~~~~~~~~~~~~~~<":5362,"steady":5363,"ĠBarrett":5364,"ĠBarel":5365,"ĠDembinski":5366,"ĠDriverEntry":5367,"Ġshort":5368,"archetypes":5369,"ously":5370,"advance":5371,"Ġimplemented":5372,"Ġmodeling":5373,"ĠExample":5374,"Ġforwarding":5375,"IntegerType":5376,"ĠGeneric":5377,"tommath":5378,"ĠHubert":5379,"(\"'\"))":5380,"(\".+\");<":5381,"ĠlpReserved":5382,"Ġhelloworld":5383,"ĠFCB":5384,"Ġrunning":5385,"ĠHelloWorld":5386,"powerpc":5387,"alityComparable":5388,"minimum":5389,"AUDITS":5390,"567890":5391,"Ġassignable":5392,"EXCEPTIONS":5393,"InitAll":5394,"polymorphic":5395,"UnloadSel":5396,"FindCommandBaseFn":5397,"Ġcorrectly":5398,"ĠJeffrey":5399,"LVMType":5400,"BatteryMon":5401,"UnregisterConCommandFn":5402,"):(":5403,")?(":5404,"21006":5405,">->*/<":5406,"Display":5407,"DOUBLE":5408,"EasyAnti":5409,"EqualityComparable":5410,"ECRYPT":5411,"HiddenDes":5412,"HEADER":5413,"IMPLEMENT":5414,"IEML":5415,"MQV":5416,"MinHook":5417,"Manager":5418,"NUMBER":5419,"OtherType":5420,"Parameters":5421,"PDRIVER":5422,"PauseConversationAnd":5423,"RVALUE":5424,"RestartAs":5425,"SYMBOL":5426,"Surface":5427,"SendClientCho":5428,"SequenceExt":5429,"SUITE":5430,"SOFTWARE":5431,"VirtualProtect":5432,"VIRTUAL":5433,"WREGEX":5434,"WrongParameters":5435,"WriteConsole":5436,"beta":5437,"blah":5438,"certific":5439,"cryptopp":5440,"emplacement":5441,"fraction":5442,"goto":5443,"glenjof":5444,"jsonl":5445,"jacobi":5446,"mitives":5447,"primitives":5448,"panic":5449,"rzemi":5450,"svn":5451,"snippet":5452,"ticket":5453,"upgrade":5454,"Ġclasses":5455,"Ġbuilt":5456,"stdout":5457,"insertion":5458,">///////////////////////////////////////////////////////////////////<":5459,"demangled":5460,"remez":5461,"codecvt":5462,"enthal":5463,"environment":5464,"Ġtranslation":5465,"Ġfabsq":5466,"ĠfSpeed":5467,"ĠfCharFov":5468,"ĠfWepFov":5469,"ĠBlumenthal":5470,"ĠSquash":5471,"ĠDiscovery":5472,"ĠDllMain":5473,"ĠDerived":5474,"ingChoice":5475,"helix":5476,"ĠClipboard":5477,"ĠCAppSettings":5478,"ĠCleanCaches":5479,"ĠClientMessage":5480,"ĠCModulesContext":5481,"Ġmutable":5482,"Ġmixing":5483,"ĠmissingNumber":5484,"Ġactually":5485,"Ġunreferenced":5486,"already":5487,"alanced":5488,"Ġskew":5489,"Ġcapabilities":5490,"Ġcryptest":5491,"Ġcrash":5492,"Ġregress":5493,"Ġ*************************************************************************":5494,"ĠMemoryAllocator":5495,"ĠTemplateNotExist":5496,"ĠTIMEOUT":5497,"ĠELGAMAL":5498,"aimassist":5499,"ĠbRecoil":5500,"ĠbShutDown":5501,"ĠbSpread":5502,"INSTANCE":5503,"ĠAUDITS":5504,"ĠAPIENTRY":5505,"elliptic":5506,"structures":5507,"ĠPUNICODE":5508,"Ġcontracts":5509,"ĠNullNodeData":5510,"ĠNCRmodP":5511,"ĠHartmut":5512,"ĠHKLM":5513,"RAPPER":5514,"DECLTYPE":5515,"shuffle":5516,"METHOD":5517,"Ġlibraries":5518,"CONTAINER":5519,"Ġlanguage":5520,"Ġlargest":5521,"PRECONDITIONS":5522,"calcLapPosition":5523,"ĠFrancois":5524,"ĠFernandes":5525,"ĠFletcher":5526,"REVERSE":5527,"MACRO":5528,"Ġguards":5529,"obviously":5530,"mainwindow":5531,"ĠKaiser":5532,"EngineClient":5533,"alignr":5534,"aveStub":5535,"APPLICATIVE":5536,"Ġoverloads":5537,"1234567890":5538,"duplicate":5539,"polynomial":5540,"COMPILER":5541,"ĠSchmidt":5542,"EAEntryPointMain":5543,"Ġwarnings":5544,"ĠDetours":5545,"AskIfConst":5546,"oopDelayMs":5547,"ĠRELEASE":5548,"IsAdministrator":5549,"ScriptSequenceExt":5550,"SQUIRRELVMType":5551,"lanczos":5552,"UnloadSelf":5553,"DisplayInfo":5554,"EasyAntiCheat":5555,"HiddenDesktop":5556,"PauseConversationAndSendClientCho":5557,"RestartAsAdmin":5558,"glenjofe":5559,"ScriptSequenceExtras":5560,"PauseConversationAndSendClientChoices":5561}