{"<s>":0,"<pad>":1,"</s>":2,"<unk>":3,"<mask>":4,"!":5,"\"":6,"#":7,"$":8,"%":9,"&":10,"'":11,"(":12,")":13,"*":14,"+":15,",":16,"-":17,".":18,"/":19,"0":20,"1":21,"2":22,"3":23,"4":24,"5":25,"6":26,"7":27,"8":28,"9":29,":":30,";":31,"<":32,"=":33,">":34,"?":35,"@":36,"A":37,"B":38,"C":39,"D":40,"E":41,"F":42,"G":43,"H":44,"I":45,"J":46,"K":47,"L":48,"M":49,"N":50,"O":51,"P":52,"Q":53,"R":54,"S":55,"T":56,"U":57,"V":58,"W":59,"X":60,"Y":61,"Z":62,"[":63,"\\":64,"]":65,"^":66,"_":67,"`":68,"a":69,"b":70,"c":71,"d":72,"e":73,"f":74,"g":75,"h":76,"i":77,"j":78,"k":79,"l":80,"m":81,"n":82,"o":83,"p":84,"q":85,"r":86,"s":87,"t":88,"u":89,"v":90,"w":91,"x":92,"y":93,"z":94,"{":95,"|":96,"}":97,"~":98,"¡":99,"¢":100,"£":101,"¤":102,"¥":103,"¦":104,"§":105,"¨":106,"©":107,"ª":108,"«":109,"¬":110,"®":111,"¯":112,"°":113,"±":114,"²":115,"³":116,"´":117,"µ":118,"¶":119,"·":120,"¸":121,"¹":122,"º":123,"»":124,"¼":125,"½":126,"¾":127,"¿":128,"À":129,"Á":130,"Â":131,"Ã":132,"Ä":133,"Å":134,"Æ":135,"Ç":136,"È":137,"É":138,"Ê":139,"Ë":140,"Ì":141,"Í":142,"Î":143,"Ï":144,"Ð":145,"Ñ":146,"Ò":147,"Ó":148,"Ô":149,"Õ":150,"Ö":151,"×":152,"Ø":153,"Ù":154,"Ú":155,"Û":156,"Ü":157,"Ý":158,"Þ":159,"ß":160,"à":161,"á":162,"â":163,"ã":164,"ä":165,"å":166,"æ":167,"ç":168,"è":169,"é":170,"ê":171,"ë":172,"ì":173,"í":174,"î":175,"ï":176,"ð":177,"ñ":178,"ò":179,"ó":180,"ô":181,"õ":182,"ö":183,"÷":184,"ø":185,"ù":186,"ú":187,"û":188,"ü":189,"ý":190,"þ":191,"ÿ":192,"Ā":193,"ā":194,"Ă":195,"ă":196,"Ą":197,"ą":198,"Ć":199,"ć":200,"Ĉ":201,"ĉ":202,"Ċ":203,"ċ":204,"Č":205,"č":206,"Ď":207,"ď":208,"Đ":209,"đ":210,"Ē":211,"ē":212,"Ĕ":213,"ĕ":214,"Ė":215,"ė":216,"Ę":217,"ę":218,"Ě":219,"ě":220,"Ĝ":221,"ĝ":222,"Ğ":223,"ğ":224,"Ġ":225,"ġ":226,"Ģ":227,"ģ":228,"Ĥ":229,"ĥ":230,"Ħ":231,"ħ":232,"Ĩ":233,"ĩ":234,"Ī":235,"ī":236,"Ĭ":237,"ĭ":238,"Į":239,"į":240,"İ":241,"ı":242,"Ĳ":243,"ĳ":244,"Ĵ":245,"ĵ":246,"Ķ":247,"ķ":248,"ĸ":249,"Ĺ":250,"ĺ":251,"Ļ":252,"ļ":253,"Ľ":254,"ľ":255,"Ŀ":256,"ŀ":257,"Ł":258,"ł":259,"Ń":260,"ĠĠ":261,"ĠĠĠĠ":262,"ĠĠĠ":263,"or":264,"at":265,"on":266,"><":267,"se":268,"in":269,"er":270,"ĠĠĠĠĠĠĠ":271,"me":272,"mp":273,"ar":274,"ort":275,"de":276,"imp":277,"ro":278,"al":279,"import":280,"__":281,"en":282,",<":283,"ame":284,"an":285,"Ġ=":286,"name":287,"re":288,")<":289,"st":290,"ion":291,":<":292,"Ġp":293,"fro":294,"it":295,"from":296,"Ġimport":297,"as":298,"le":299,"lo":300,"id":301,"ut":302,"čĊ":303,"\"\"":304,"ic":305,"ĠĠĠĠĠĠĠĠĠĠĠ":306,"):<":307,"ls":308,"Ġt":309,"ly":310,"ator":311,"Ġd":312,"alid":313,"gs":314,"ang":315,"alidator":316,"lot":317,"fi":318,"lotly":319,"ation":320,"Ġ\"":321,"ed":322,"jang":323,"ase":324,"jango":325,"\",":326,"ap":327,"co":328,"mo":329,"def":330,"ge":331,"el":332,"cl":333,"ent":334,"args":335,"ass":336,"ur":337,"sel":338,"self":339,"he":340,"kw":341,"Ġ'":342,"base":343,"kwargs":344,"\"<":345,"class":346,"Ġdjango":347,"is":348,"yp":349,"Ġre":350,"Validator":351,"Ġs":352,"ct":353,"op":354,"app":355,"ue":356,"),<":357,"Ġ*":358,"plotly":359,"con":360,"arent":361,"ig":362,"ils":363,"(<":364,"ype":365,"(\"":366,"Ġin":367,"ac":368,"ex":369,"utils":370,"up":371,"for":372,"mode":373,"ad":374,"=\"":375,"tr":376,"Ġdef":377,"Ġ__":378,"ing":379,"Ġ.":380,"eld":381,"es":382,"\"\"\"<":383,"type":384,".<":385,"init":386,"Ġm":387,"ter":388,"gi":389,"Ġ**":390,"Ġself":391,"get":392,"',":393,"ab":394,"lic":395,"edit":396,"un":397,"fig":398,"ver":399,"Ġ[":400,"Fi":401,"ĠT":402,"Ġparent":403,"validator":404,"Ġ_":405,"validators":406,"Ġplotly":407,"basevalidators":408,">#":409,"ser":410,"set":411,"and":412,"ul":413,"Ġthe":414,"Ġn":415,"models":416,"tur":417,"age":418,"]<":419,"Ġc":420,"turn":421,"Ġb":422,"Ġo":423,"nt":424,"th":425,"ĠA":426,"vi":427,"ĠS":428,"ect":429,"Ġreturn":430,"Con":431,"Ġname":432,"int":433,"Field":434,"ib":435,"ht":436,"ate":437,"ma":438,"ict":439,"('":440,"pop":441,"__(<":442,"ws":443,"lication":444,"um":445,"()<":446,"application":447,"ack":448,"Ġfor":449,"'<":450,"ch":451,"ore":452,"ist":453,"='":454,"all":455,"00":456,"Ġas":457,"Ġa":458,"sion":459,"Ġget":460,"ult":461,"ce":462,"igr":463,"igration":464,"ext":465,"il":466,"ĠC":467,").":468,"ath":469,"du":470,"Config":471,"py":472,"if":473,"file":474,"min":475,"ment":476,"lor":477,"iz":478,"to":479,"Ġsup":480,"\"),<":481,"Ġ)<":482,"one":483,"ay":484,"str":485,"Ġ#":486,"ject":487,"able":488,"\",<":489,"po":490,"end":491,"te":492,"ĠM":493,"Ġw":494,"ault":495,"ĠD":496,"et":497,"res":498,"Ġsuper":499,"dule":500,"pt":501,"ite":502,"ho":503,"db":504,"ata":505,"NG":506,"vie":507,").__":508,"form":509,"parent":510,"Ġ2":511,"Ġcon":512,"(_":513,"module":514,"Ġfrom":515,"ĠN":516,"))<":517,"',<":518,"GI":519,"Ġde":520,"Ġedit":521,"Ġis":522,"ĠL":523,"Ġ[<":524,"rc":525,"que":526,"Ġf":527,"com":528,"django":529,"trib":530,"his":531,"//":532,"version":533,"Ġv":534,"pp":535,"Ġ-":536,"ĠP":537,">__":538,">\"\"\"<":539,"roject":540,"rue":541,"dict":542,"rint":543,"ers":544,"://":545,"ror":546,"SGI":547,"color":548,"aut":549,"ings":550,"Ġto":551,"field":552,"Ġ(":553,"Ġ1":554,"Ġl":555,"ot":556,"``":557,"\")<":558,"ck":559,"tp":560,"__(":561,"igrations":562,"')<":563,"ppConfig":564,"core":565,"contrib":566,"do":567,"ys":568,"ses":569,"Ġr":570,"ve":571,"Ġfile":572,"ĠR":573,"Ġex":574,"--":575,"01":576,"ial":577,"wsgi":578,"model":579,"sett":580,"bo":581,"ĠB":582,"sp":583,"http":584,"SE":585,"Ġon":586,"settings":587,"~~":588,"Ġmodule":589,"ol":590,"ster":591,"Ġco":592,"ick":593,"Ġse":594,"quest":595,"ime":596,"ĠF":597,"asgi":598,"text":599,"ages":600,"\"\"\"":601,"Ġpath":602,"ip":603,"admin":604,"cept":605,"ight":606,"ine":607,"lat":608,"Ġmodels":609,"os":610,"./":611,"atter":612,"ain":613,"ub":614,"Ġh":615,"ING":616,"https":617,"Er":618,"._":619,"user":620,"LE":621,"Ġof":622,"Ġst":623,"ss":624,"gister":625,"Ġos":626,"la":627,"our":628,"log":629,"est":630,"ode":631,"qu":632,"ĠI":633,"alue":634,"par":635,"ĠĠĠĠĠĠĠĠ":636,"di":637,"Error":638,"ction":639,"views":640,"Ġ\"\"\"<":641,"cal":642,"Ġdict":643,"ize":644,"For":645,"default":646,"Ġ):<":647,"der":648,"om":649,"am":650,"cs":651,"im":652,"Ġ<":653,"heck":654,"url":655,"Ġ]<":656,"pre":657,"Ġif":658,"mail":659,"ense":660,"ĠO":661,"rcValidator":662,"atabase":663,"Ġsys":664,"ron":665,"ĠG":666,"put":667,"Ġ0":668,"Ġand":669,"load":670,"Ġmigrations":671,"ns":672,"Ġthis":673,"us":674,"Ġop":675,"02":676,"Ġconfig":677,"test":678,"ok":679,"ies":680,"ans":681,"Ġdefault":682,"True":683,"len":684,"Ġprint":685,"dep":686,"viron":687,"how":688,"sc":689,"eration":690,"ray":691,"WSGI":692,"right":693,"50":694,"Ġstr":695,"ax":696,"bar":697,"ive":698,"project":699,"ializ":700,"auth":701,"Ġsee":702,"environ":703,"ĠRe":704,"Ġ{":705,"Ġvar":706,"lab":707,"vel":708,"are":709,"request":710,"path":711,"use":712,"nc":713,"andl":714,"OR":715,"level":716,"umb":717,"mand":718,"/<":719,"view":720,"Ġ3":721,"Ġ+":722,"ta":723,"ĠU":724,"ign":725,"atic":726,"out":727,"allable":728,"ure":729,"apps":730,"art":731,"TT":732,"thon":733,"ke":734,"ER":735,"Ġy":736,"ated":737,"Ġint":738,"Ġ``":739,"Ġ\"\"\"":740,"loy":741,"ri":742,"ception":743,"Ad":744,"ec":745,"AppConfig":746,"OD":747,"Ġor":748,"##":749,"har":750,"Ġpass":751,"pro":752,"umber":753,"Ġ==":754,"ith":755,"ĠNO":756,"()":757,"ew":758,"odel":759,"Ġ[\"":760,"ĠAppConfig":761,"ere":762,"Ġvari":763,"Ġ'.":764,"li":765,"ANG":766,"ĠTrue":767,"print":768,"Ġviews":769,"alse":770,"eat":771,"patter":772,"colorbar":773,"JANG":774,"JANGO":775,"Ġvariable":776,"olor":777,"auto":778,"code":779,"Ġdep":780,"register":781,"Ġcallable":782,"formation":783,"Ġmore":784,"mess":785,"Ġ'../":786,"'),<":787,"setdefault":788,"lter":789,"setup":790,"Ġproject":791,"rapp":792,"Ġe":793,"Model":794,"mpl":795,"ache":796,"MOD":797,"101":798,"DJANGO":799,"Ġinformation":800,"poses":801,"ĠE":802,"docs":803,"Ser":804,"site":805,"deploy":806,"QA":807,"ures":808,"port":809,"ont":810,"deployment":811,"ackend":812,"``.<":813,"time":814,"ULE":815,"erations":816,"patterns":817,"ĠNOQA":818,"MODULE":819,"INGS":820,"TTINGS":821,"SETTINGS":822,"max":823,"ON":824,"\":":825,"Ġexposes":826,"io":827,"Ġpy":828,"eatures":829,"==":830,"----":831,"ql":832,"num":833,"mar":834,"Base":835,"Ġnamed":836,"It":837,"djangoproject":838,"Aut":839,"ag":840,"Ġmodel":841,"howto":842,"ms":843,">]<":844,"Ġnot":845,"Ġby":846,"main":847,"else":848,"Ġ._":849,"ĠH":850,"__,":851,"urls":852,"andler":853,"urlpatterns":854,"Ġg":855,"Ġ\"__":856,"lay":857,"EN":858,"ener":859,"_/":860,"calc":861,"Ġ),<":862,"ange":863,"Ġcheck":864,"~~~~":865,"gth":866,"ts":867,"Ġ->":868,"Ġ'../_":869,"ory":870,"ace":871,"ces":872,"verbo":873,"verbose":874,"Ġun":875,"array":876,"Ġfield":877,"mplate":878,"ende":879,"olorValidator":880,"length":881,"Ġno":882,"ire":883,"fo":884,"arn":885,"dir":886,"Ġverbose":887,"ĠNone":888,"ializer":889,"12":890,"():<":891,"Ġtest":892,"add":893,"Ġtyp":894,"Ġrelat":895,"Ġvalue":896,"inter":897,"ved":898,"gr":899,"ne":900,"DE":901,"Ġuse":902,"*-":903,"40":904,"IT":905,"Ġ-*-":906,"error":907,"net":908,"migrations":909,"oField":910,"opy":911,"zy":912,"ask":913,"dle":914,"opyright":915,"In":916,"per":917,"IC":918,"line":919,"ES":920,"Ġtyping":921,"lib":922,"wor":923,"ource":924,"ker":925,"itle":926,"rapper":927,"none":928,"__,<":929,"harField":930,"ĠThis":931,"license":932,"atch":933,"map":934,"ind":935,"command":936,"fix":937,"ery":938,"AutoField":939,"api":940,"Ġ(\"":941,"ĠWSGI":942,"endenc":943,"son":944,"Serializer":945,"tick":946,"Ġadmin":947,"Admin":948,"ai":949,"attr":950,".\"\"\"<":951,"pack":952,"endencies":953,"ole":954,"Ġ*<":955,"Migration":956,"ĠMigration":957,"font":958,"Ġoperations":959,"Ġdependencies":960,"())<":961,"Vi":962,"ackb":963,"act":964,"unction":965,"ĠBase":966,"ude":967,"\"]<":968,"train":969,"fg":970,"ĠSe":971,"Ġsettings":972,"ding":973,"ackbone":974,"dex":975,"CH":976,"ute":977,"point":978,"Ġ('":979,">@":980,"bject":981,"date":982,"backend":983,">)<":984,"icense":985,"data":986,"head":987,"Ġpro":988,"tent":989,"les":990,"ols":991,"ug":992,"Ġ`":993,"Ġpip":994,"input":995,"ste":996,"Ġth":997,"Ġrelative":998,"trans":999,"Number":1000,"AT":1001,"Ġbackbone":1002,"ware":1003,"ection":1004,"ption":1005,"config":1006,"View":1007,"Ġbe":1008,"pn":1009,"}<":1010,"Ġtype":1011,"try":1012,"Ġsetup":1013,"reate":1014,"open":1015,"messages":1016,"Ġmin":1017,"Ġ'./":1018,"xception":1019,"])<":1020,"isp":1021,"cfg":1022,"Ġi":1023,"value":1024,"Ġ(<":1025,"roup":1026,"__\",<":1027,"info":1028,"')":1029,"dist":1030,"PI":1031,"ary":1032,"stan":1033,"Str":1034,"Features":1035,"Re":1036,"Ġtr":1037,"ull":1038,"parse":1039,"iddle":1040,"ERR":1041,"ĠDatabase":1042,"iter":1043,"ml":1044,"ĠASGI":1045,"Ġ202":1046,"ERROR":1047,"arg":1048,"NumberValidator":1049,"format":1050,"Ġan":1051,"EC":1052,"Ġwh":1053,"AG":1054,"coco":1055,"ST":1056,"title":1057,"ĠĠĠĠĠĠĠĠĠĠĠĠĠĠĠ":1058,"files":1059,"idth":1060,"label":1061,"forms":1062,"mple":1063,"uture":1064,"append":1065,"ken":1066,"sert":1067,"=[":1068,"ty":1069,"iddleware":1070,"arning":1071,"Ġmax":1072,"vis":1073,"lazy":1074,"eg":1075,"String":1076,"size":1077,"backends":1078,"Ġpre":1079,"email":1080,"ignal":1081,"ColorValidator":1082,"ix":1083,"],":1084,"author":1085,"Ġ4":1086,"':":1087,"scatter":1088,"sh":1089,"trained":1090,"nn":1091,"ny":1092,"CharField":1093,"Ġlist":1094,"ĠDjango":1095,"ash":1096,"ĠFalse":1097,"Big":1098,"Ġser":1099,"000":1100,"list":1101,"uil":1102,"BigAutoField":1103,"query":1104,"=(":1105,"fpn":1106,"ll":1107,"Ġpack":1108,"JS":1109,"LT":1110,"ard":1111,"YP":1112,"JSON":1113,"ĠCopyright":1114,"De":1115,"marker":1116,"None":1117,"opt":1118,"Ġ|":1119,"irect":1120,"BU":1121,"no":1122,"ity":1123,"cess":1124,"Ġut":1125,"Ġinter":1126,"tails":1127,"Database":1128,"ide":1129,"Ġlog":1130,"json":1131,"asses":1132,"srcValidator":1133,"ĠPy":1134,"Op":1135,"Ġdo":1136,"),":1137,"ĠLicense":1138,"ump":1139,"QL":1140,"org":1141,"fr":1142,"lation":1143,"run":1144,"ID":1145,"Ġnum":1146,"sql":1147,"SD":1148,"ĠW":1149,"ust":1150,"tools":1151,"ECK":1152,"lan":1153,"orch":1154,"CHECK":1155,"Ġapp":1156,"AU":1157,"Form":1158,"plot":1159,"ution":1160,"nal":1161,"/',":1162,"val":1163,"Ġx":1164,"translation":1165,"AL":1166,"qa":1167,"-.":1168,"ESS":1169,"Ġclass":1170,"Ġwith":1171,"check":1172,"Ġbo":1173,"Ġnoqa":1174,"YPE":1175,"ĠV":1176,"upload":1177,"Ġ_<":1178,"Ġyour":1179,"cation":1180,"ched":1181,"Ġgettext":1182,"32":1183,"af":1184,"ASGI":1185,"Ġsupport":1186,"ENSE":1187,"moved":1188,"Ġ%":1189,"Ġdetails":1190,"sy":1191,"unc":1192,"ICENSE":1193,"SrcValidator":1194,"Ġ_(\"":1195,"vision":1196,"Ġ@":1197,"ĠÐ":1198,"key":1199,"tro":1200,"ĠGener":1201,"Res":1202,"],<":1203,"Ġ7":1204,"disp":1205,"item":1206,"orm":1207,"Handler":1208,">#<":1209,"FAU":1210,"FAULT":1211,"gis":1212,"False":1213,"ĠSignal":1214,"rcnn":1215,"lit":1216,"static":1217,"ĠLICENSE":1218,"vid":1219,"The":1220,"Ġtime":1221,"und":1222,"Bo":1223,"Ġhttps":1224,"clude":1225,"ument":1226,"CHECKING":1227,"ĠTYPE":1228,"unt":1229,"getattr":1230,"ĠSt":1231,"sched":1232,"mm":1233,"Ġused":1234,"face":1235,"LS":1236,"Ġ[]<":1237,"nels":1238,"fields":1239,"Ġthat":1240,"ily":1241,"env":1242,"ommand":1243,"classes":1244,"Ġdist":1245,"queue":1246,"Text":1247,"token":1248,"chan":1249,"Ð¾":1250,"Ġversion":1251,"St":1252,"Ġmain":1253,"--------":1254,"Ġlicense":1255,"atase":1256,"Ġhere":1257,"emplate":1258,"ĠSee":1259,"SQL":1260,"ient":1261,"html":1262,"Ġab":1263,"Ġout":1264,"ifi":1265,"schedu":1266,"Ġcoding":1267,"Ð°":1268,"future":1269,"sed":1270,"work":1271,"Alter":1272,"IN":1273,"Po":1274,"mis":1275,"Ġit":1276,"Ġunder":1277,"layout":1278,"umpy":1279,"####":1280,"ou":1281,"Ġ.-.":1282,"Ġ`-":1283,"pyright":1284,"od":1285,"20":1286,"handler":1287,"cor":1288,"colorbars":1289,"Test":1290,"Ġrun":1291,"lle":1292,"template":1293,"Ġutf":1294,"read":1295,"che":1296,"olean":1297,"Ġro":1298,"ice":1299,"80":1300,"BUG":1301,"Ġstatic":1302,"Ðµ":1303,"Ġrange":1304,"====":1305,"Ġ:":1306,"izeValidator":1307,"ender":1308,"Que":1309,"ĠUser":1310,"lient":1311,"rray":1312,"ome":1313,"AlterField":1314,"Ġinit":1315,"conf":1316,"ializers":1317,"Pro":1318,"mmlab":1319,"ner":1320,"post":1321,"content":1322,"ĠFi":1323,"Ġ\"._":1324,"eta":1325,"low":1326,"Ġassert":1327,"Ġpo":1328,"filter":1329,"amily":1330,"UN":1331,"sValidator":1332,"Ġ2022":1333,"string":1334,"rib":1335,"axis":1336,"Ġlen":1337,"Ġare":1338,"Ġpython":1339,"box":1340,"Ġ-*-<":1341,"Ġdate":1342,"AR":1343,"Wrapper":1344,"Int":1345,"Ġme":1346,"yle":1347,"Ġregister":1348,"Lo":1349,".__":1350,"ĠĠĠĠĠĠĠĠĠĠĠĠĠĠĠĠ":1351,"index":1352,"imple":1353,"ĠAny":1354,"wh":1355,"urr":1356,"sum":1357,"sol":1358,"message":1359,"User":1360,"Ġupload":1361,"my":1362,"pon":1363,"ptional":1364,"width":1365,"Command":1366,"Ġ['":1367,"errors":1368,"512":1369,"except":1370,"Ġbase":1371,"wn":1372,"channels":1373,"ySQL":1374,"apter":1375,"Ġfunction":1376,"Ġview":1377,"ctions":1378,"Ġvalues":1379,"ff":1380,"64":1381,"'s":1382,"\")":1383,"hover":1384,"ĠList":1385,"Ġ..":1386,"bin":1387,"inders":1388,"Ġnumpy":1389,"Ġrequest":1390,"Ġnp":1391,"lied":1392,"This":1393,"Ġelse":1394,"Ġ{<":1395,"Queue":1396,"sue":1397,"List":1398,"ĠGenerated":1399,"Ġch":1400,"Ġsc":1401,"nd":1402,"object":1403,"Ġcolle":1404,"ĠBSD":1405,"group":1406,"AS":1407,"FO":1408,"duct":1409,"ert":1410,"optim":1411,"Ġ>":1412,"StringValidator":1413,"Ġsupports":1414,"Ġpar":1415,"ra":1416,"Client":1417,"AGE":1418,"Ġsub":1419,"qd":1420,"lank":1421,"pyp":1422,"])":1423,"rst":1424,"frame":1425,"acle":1426,"ake":1427,"sub":1428,"ript":1429,"resnet":1430,"']<":1431,"solute":1432,"order":1433,"16":1434,"Pre":1435,"~~~~~~~~":1436,"NA":1437,"stall":1438,"ger":1439,"Ġrai":1440,"idget":1441,"10":1442,"Ð¸":1443,"ML":1444,"ence":1445,"client":1446,"ĠOptional":1447,"uth":1448,"ync":1449,"spection":1450,"rf":1451,"Ġres":1452,"vo":1453,"Ġargs":1454,"last":1455,"importers":1456,"ors":1457,"sit":1458,"Py":1459,"Ġdistutils":1460,"rospection":1461,"fla":1462,"Ġload":1463,"ens":1464,"page":1465,"pg":1466,"Ġrender":1467,"ĠOr":1468,"urrent":1469,"DEFAULT":1470,"icio":1471,"so":1472,"lease":1473,"ade":1474,"25":1475,"RL":1476,"Ġal":1477,"exception":1478,"usp":1479,"wrapper":1480,"ĠMySQL":1481,"spec":1482,"Email":1483,"ep":1484,"ions":1485,"endor":1486,"vider":1487,"DEBUG":1488,"col":1489,"fqd":1490,"fqdn":1491,"Ġraise":1492,"icious":1493,"precation":1494,"uspicious":1495,"vendor":1496,"alter":1497,"ModelAdmin":1498,"datase":1499,"dit":1500,"vent":1501,"ME":1502,"ging":1503,"Ġla":1504,"Ġ[\"._":1505,"IText":1506,"ual":1507,"ÑĤ":1508,"ree":1509,"torch":1510,"ĠIn":1511,"cit":1512,"orage":1513,"gram":1514,"Boolean":1515,"valid":1516,"thod":1517,"andas":1518,"Warning":1519,"pl":1520,"cap":1521,"implied":1522,"count":1523,"ags":1524,"edits":1525,"trol":1526,"MP":1527,"Exception":1528,"ateg":1529,"Ġabsolute":1530,"update":1531,"mport":1532,"Tick":1533,"ich":1534,"PD":1535,"uild":1536,"login":1537,"Ġadd":1538,"Ġinclude":1539,".\"<":1540,"202":1541,"Ġfields":1542,"values":1543,"().":1544,"comp":1545,"Ġopt":1546,"source":1547,"colorValidator":1548,"Ġcommand":1549,"ĠPro":1550,"mask":1551,"arch":1552,"ĠK":1553,"ĠTick":1554,"JSONField":1555,"ustom":1556,"util":1557,"dire":1558,"prefix":1559,"ribution":1560,"Ġmo":1561,"':<":1562,"Case":1563,"pache":1564,"split":1565,"function":1566,"Ġdirect":1567,"uration":1568,"ulti":1569,"ader":1570,"sl":1571,"En":1572,"(__":1573,"flags":1574,"stem":1575,"ob":1576,"uple":1577,"copyright":1578,"Ġlo":1579,"Ġ'__":1580,"src":1581,"UT":1582,"Ġuser":1583,"ION":1584,"fer":1585,"andom":1586,"framework":1587,"home":1588,"Time":1589,"sions":1590,"ach":1591,"Ġpandas":1592,"Ġdata":1593,"ĠCon":1594,"ello":1595,"package":1596,"Ġid":1597,"chema":1598,"ponse":1599,"Ġsql":1600,"Ġ\"<":1601,"poch":1602,"Ġel":1603,"ublic":1604,"ld":1605,"anag":1606,"ave":1607,"eb":1608,"sg":1609,"Ġhas":1610,"packages":1611,"18":1612,"Ġdepth":1613,"Ġhash":1614,"Ġbool":1615,"lates":1616,"np":1617,"ile":1618,"xt":1619,"ĠSPD":1620,"ĠSPDX":1621,"Ġnumber":1622,"Ġ200":1623,"Ġcollections":1624,"ments":1625,"cale":1626,"(*":1627,"first":1628,"Data":1629,"Ġ201":1630,"staticfiles":1631,"Ġdatetime":1632,"Name":1633,"['":1634,"mplates":1635,"Ġmsg":1636,"mportError":1637,"sole":1638,"Ġdi":1639,"sues":1640,"))":1641,"Operation":1642,"syco":1643,"sycopg":1644,"EO":1645,"Ġpackage":1646,"ĠTo":1647,"Ð¾Ð":1648,"ication":1649,"Ġrest":1650,"ä¸":1651,"Ġyou":1652,"finders":1653,"28":1654,"uspiciousOperation":1655,"ĠText":1656,"CC":1657,"tin":1658,"Ġarg":1659,"ĠColorValidator":1660,"ĠGEO":1661,"ional":1662,"ven":1663,"0001":1664,"ickle":1665,"Ġexcept":1666,"ÑĢ":1667,"ĠDatabaseFeatures":1668,"func":1669,"Ġform":1670,"ant":1671,"File":1672,"style":1673,"..":1674,"Set":1675,"ources":1676,"ĠOracle":1677,"Array":1678,"parser":1679,"ey":1680,"ĠPo":1681,"Ġcheckpoint":1682,"ĠĠĠĠĠ":1683,"Ġonly":1684,"ĠDE":1685,"(),":1686,"sup":1687,"ĠRemoved":1688,"Ġj":1689,"internal":1690,"TestCase":1691,"\"]":1692,"Edit":1693,"mpty":1694,"word":1695,"Pretrained":1696,"Ġread":1697,"Ġ5":1698,"ĠImportError":1699,"ithub":1700,"Ġso":1701,"Type":1702,"27":1703,"ible":1704,"ĠAPI":1705,"stants":1706,"Ġopen":1707,"Ġrequ":1708,"dispatch":1709,"LO":1710,"back":1711,"GIS":1712,"CCESS":1713,"Ġdecode":1714,"Ġ+=":1715,"python":1716,"izer":1717,"Site":1718,"ill":1719,"Ġwhere":1720,"cket":1721,"VE":1722,"Editor":1723,"flat":1724,"sets":1725,"tocol":1726,"ĠPython":1727,"Sp":1728,"bug":1729,"day":1730,"Ġstring":1731,"Ġcode":1732,"lete":1733,"Ġarray":1734,"Ġinput":1735,"Ġat":1736,"ATE":1737,"Ġtry":1738,"mon":1739,"features":1740,"direct":1741,"401":1742,"UCCESS":1743,"ĠThe":1744,"NING":1745,"Ġpublic":1746,"Ġ{\"":1747,"datasets":1748,"Middleware":1749,"Ġobject":1750,"ĠMeta":1751,"pol":1752,"404":1753,"middleware":1754,"ription":1755,"chemaEditor":1756,"github":1757,"icode":1758,"zip":1759,"BooleanValidator":1760,"dent":1761,"DatabaseFeatures":1762,"001":1763,"rout":1764,"Ġle":1765,"Ġnull":1766,"NO":1767,"Ġscript":1768,"afe":1769,"\":<":1770,"ux":1771,"Ġsp":1772,"ak":1773,"det":1774,"andlers":1775,"uld":1776,"ices":1777,"AN":1778,"ress":1779,"Ġen":1780,"csrf":1781,"DI":1782,"ĠReturn":1783,"Ġsetuptools":1784,"Ġcan":1785,"ĠOp":1786,"loat":1787,"Se":1788,"not":1789,"ĠLo":1790,"acheCon":1791,"ess":1792,"gine":1793,"Ġconn":1794,"stance":1795,"short":1796,"Enum":1797,"__':<":1798,"100":1799,"handlers":1800,"over":1801,"Ġall":1802,"LEVE":1803,"edirect":1804,"Ġ\\":1805,"69":1806,"'t":1807,"oken":1808,"Ġdirectory":1809,"wine":1810,"apsed":1811,"VER":1812,"ystem":1813,"stages":1814,"Ġtemplate":1815,"ESSAGE":1816,"('',":1817,"MESSAGE":1818,"CommandError":1819,"ĠRemovedCommandError":1820,"entr":1821,"ft":1822,"chor":1823,"corator":1824,"ttp":1825,"scription":1826,"requests":1827,"cre":1828,"Ġimportlib":1829,"')))<":1830,"rap":1831,"ili":1832,"Copyright":1833,"ates":1834,"pi":1835,"Ġrelease":1836,"LEVELS":1837,"initial":1838,"Ġnorm":1839,"posit":1840,"image":1841,"Ġcontext":1842,"ĠApache":1843,"150":1844,"CIText":1845,"Ġinterface":1846,")),<":1847,"served":1848,"Ġ/":1849,"capes":1850,"Ġpytest":1851,"ateTime":1852,"runtime":1853,"Ġpart":1854,"schedule":1855,"Ġroot":1856,"Ġstage":1857,"Python":1858,"by":1859,"udent":1860,"Ġgi":1861,"session":1862,"permis":1863,"Ġsqlparse":1864,"Ñģ":1865,"To":1866,"ĠY":1867,"Ġsource":1868,"display":1869,"ound":1870,"RE":1871,"tes":1872,"ink":1873,"Ġdoes":1874,"Ġ10":1875,"method":1876,"ance":1877,"Ġchar":1878,"templates":1879,"quence":1880,"yscapes":1881,"ear":1882,"fa":1883,"Par":1884,"Ġauth":1885,"username":1886,"contents":1887,"egg":1888,"cut":1889,"implement":1890,"resources":1891,"cityscapes":1892,"anage":1893,"grad":1894,"ateTimeField":1895,"ĠCreate":1896,"geo":1897,"itz":1898,"ecut":1899,"Ġoutput":1900,"tain":1901,"neth":1902,"ample":1903,"Ġbdist":1904,"Ġ`-'":1905,"book":1906,"schedules":1907,"start":1908,"Server":1909,"eger":1910,"Run":1911,"serializers":1912,"Ġu":1913,"Ġgiven":1914,"Adapter":1915,"ertifi":1916,"new":1917,"Ġblank":1918,"Ġimplement":1919,"}),<":1920,")))<":1921,"ĠDe":1922,"Ġinternal":1923,"']":1924,"oin":1925,"Ġ}<":1926,"([":1927,"Ġpackages":1928,"mb":1929,"#!":1930,"SizeValidator":1931,"ĠSizeValidator":1932,"Sub":1933,"ud":1934,"tribut":1935,"depth":1936,"move":1937,"process":1938,"support":1939,"Ġwe":1940,"lr":1941,"hoverlabel":1942,"with":1943,"pr":1944,"delete":1945,"Ġdefaults":1946,"win":1947,"shortcut":1948,"inder":1949,"leg":1950,"ires":1951,"ia":1952,"usr":1953,"anager":1954,"anges":1955,"anagement":1956,"md":1957,"ometry":1958,"Ġitem":1959,"range":1960,"msg":1961,"__\":<":1962,"licy":1963,"ves":1964,"EMP":1965,"Ġmessage":1966,"Ð½":1967,"where":1968,"22":1969,"Ġwas":1970,"async":1971,"Ġorig":1972,"sys":1973,"UID":1974,"cn":1975,"Ġne":1976,"API":1977,"als":1978,"Ġwor":1979,"Ġtorch":1980,"kg":1981,"engine":1982,"lock":1983,"car":1984,"ersion":1985,"__<":1986,"ĠType":1987,"Ġte":1988,"mark":1989,"ategory":1990,"#!/":1991,"ARNING":1992,"ĠError":1993,".%":1994,"shortcuts":1995,"Ġemail":1996,"pypi":1997,"tour":1998,"Ġac":1999,"store":2000,"Ġelapsed":2001,"Ġpr":2002,"sConfig":2003,"ĠRegister":2004,"Key":2005,"erated":2006,"ached":2007,"Files":2008,"07":2009,"Ġ[],":2010,"vide":2011,"Ġserializers":2012,"Enumerated":2013,"EnumeratedValidator":2014,"inal":2015,"Ex":2016,"Ġgener":2017,"arget":2018,"ENT":2019,"context":2020,"ixin":2021,"mage":2022,"ds":2023,"ĠStatic":2024,"cache":2025,"Ġstaticfiles":2026,"IL":2027,"host":2028,"769":2029,"Ġline":2030,"EMPL":2031,"ĠSite":2032,"red":2033,"----------------":2034,"mary":2035,"**":2036,"hould":2037,"EMPLATE":2038,"Ġdivision":2039,"doo":2040,"Ġlazy":2041,"Any":2042,"hist":2043,"403":2044,"Ð»":2045,"Or":2046,"ĠURL":2047,"Ġcontent":2048,"ptr":2049,"modules":2050,"iveServer":2051,"ape":2052,"types":2053,"Backend":2054,"pretrained":2055,"ifier":2056,"iveServerTestCase":2057,"========":2058,"ĠNot":2059,"SuspiciousOperation":2060,"ĠX":2061,"JSONSerializer":2062,"pip":2063,"ical":2064,"ther":2065,"Pointer":2066,"PointerBase":2067,"Ġquery":2068,"contour":2069,"Integer":2070,"family":2071,"Ġnew":2072,"storage":2073,"Ġprotocol":2074,"ĠOpen":2075,"ViewSet":2076,"Ġtop":2077,"router":2078,"step":2079,"hr":2080,"lass":2081,"amp":2082,"stead":2083,"join":2084,"ession":2085,">]":2086,"instance":2087,"CI":2088,"su":2089,"precationWarning":2090,"ints":2091,"ĠCacheCon":2092,"SION":2093,"odule":2094,"sing":2095,"Ġpkg":2096,"preter":2097,"ĠRes":2098,"\"]),<":2099,"[\"":2100,"uri":2101,"KE":2102,"ast":2103,"Ġiter":2104,"Ġstack":2105,"cument":2106,"Ġjson":2107,"TO":2108,"Widget":2109,"Ġgroup":2110,"Ġresult":2111,"Ġone":2112,"stop":2113,"tail":2114,"Ġlicensed":2115,"Ġcreate":2116,"ights":2117,"NAME":2118,"exceptions":2119,"ORS":2120,"Ġk":2121,"legend":2122,"Ġempty":2123,"ĠUn":2124,"ĠHttp":2125,"Ġrequires":2126,"parate":2127,"setuptools":2128,"Ġremoved":2129,"Ġhasher":2130,"summary":2131,"create":2132,"mplement":2133,"Ġindex":2134,"nel":2135,"Operations":2136,"Ġinstall":2137,"ArrayValidator":2138,"only":2139,"perty":2140,"database":2141,"ogram":2142,"Cla":2143,"Ġter":2144,"\"],<":2145,"points":2146,"interpreter":2147,"Clause":2148,"Implement":2149,"gres":2150,"gener":2151,"rie":2152,"Ġfull":2153,"[:":2154,"tle":2155,"########":2156,"DataArrayValidator":2157,"DeprecationWarning":2158,"11":2159,"Ġsession":2160,"''":2161,"gments":2162,"EmailField":2163,"histogram":2164,"ww":2165,"ĠDatabaseWrapper":2166,"DatabaseWrapper":2167,"tests":2168,"SchemaEditor":2169,"Introspection":2170,"GISSchemaEditor":2171,"apping":2172,"49":2173,"rite":2174,"Ġbut":2175,"pages":2176,"result":2177,")\"<":2178,">}<":2179,"enc":2180,"troll":2181,"ĠConfig":2182,"pet":2183,"ong":2184,"çļ":2185,"next":2186,"ĠAll":2187,"ResN":2188,"Ġset":2189,"product":2190,"tribute":2191,"çļĦ":2192,"ir":2193,"Ġclasses":2194,"Ġconsole":2195,"ALE":2196,"top":2197,"KEY":2198,"ĠIN":2199,"Mixin":2200,"Ġcontain":2201,"Ġdebug":2202,"undle":2203,"side":2204,"els":2205,"mplete":2206,"Ġformat":2207,"adapter":2208,"atial":2209,"qual":2210,"ular":2211,"description":2212,"epoch":2213,"ify":2214,"ĠTest":2215,"Auth":2216,"04":2217,"figs":2218,"SUCCESS":2219,"txt":2220,"Ġtoday":2221,"sqlite":2222,"ie":2223,"Cache":2224,"Ġurl":2225,"conn":2226,"Ġfound":2227,"Ġimplementation":2228,"Ġterms":2229,"blog":2230,"ĠDist":2231,"__.":2232,"Cre":2233,"0002":2234,"ickleSerializer":2235,"Ġconnection":2236,"andle":2237,"/\",":2238,"Ġfuture":2239,"ĠEmail":2240,"ĠMulti":2241,"Ġimplied":2242,"dirs":2243,"Ġchecks":2244,"pository":2245,"Ġunicode":2246,"uiltin":2247,"Ġrelated":2248,"asc":2249,"ines":2250,"acity":2251,"Ġready":2252,"Ident":2253,"ĠVersion":2254,"distutils":2255,"#<":2256,"Response":2257,"formatstop":2258,"property":2259,"Ġerrors":2260,"ĠGe":2261,"Co":2262,"License":2263,"edError":2264,"Log":2265,"ĠFor":2266,"users":2267,"stract":2268,"clo":2269,"used":2270,"amilyValidator":2271,"Qu":2272,"show":2273,"Ġmay":2274,"lename":2275,"void":2276,"Identifier":2277,"Add":2278,"Ġwhen":2279,"objects":2280,"permission":2281,"constants":2282,"thing":2283,"Ġfunctions":2284,"Ġsix":2285,"SER":2286,"Ġstart":2287,"pytest":2288,"vice":2289,"ĠName":2290,").<":2291,"ĠDEFAULT":2292,"13":2293,"configs":2294,"ream":2295,"ĠCA":2296,"BN":2297,"carpet":2298,"coder":2299,"detail":2300,"lob":2301,"Ġtext":2302,"Ġdecorator":2303,"Ġhel":2304,"install":2305,"atement":2306,"local":2307,"ĠNotImplement":2308,"liter":2309,"task":2310,"year":2311,"Invalid":2312,"lect":2313,"olution":2314,"Ġbuild":2315,"Decode":2316,"ations":2317,"Ġexception":2318,"Class":2319,"Ġurlpatterns":2320,"ĠQueue":2321,"runner":2322,"ecutable":2323,"ĠNotImplementedError":2324,"uman":2325,"Tags":2326,"cer":2327,"Ġfilter":2328,"ĠAUT":2329,"Runner":2330,"Ġsearch":2331,"Ġargparse":2332,"Ġkey":2333,"ameter":2334,"isible":2335,"Ġcurrent":2336,"prep":2337,"ĠAUTH":2338,"obj":2339,"ĠUnion":2340,"ĠArray":2341,"Ġpolicy":2342,"den":2343,"extend":2344,"literals":2345,"DecodeError":2346,"postgres":2347,"pk":2348,"indo":2349,"Ġaux":2350,"Ġnameprep":2351,"enneth":2352,"ypo":2353,"Un":2354,"Ġ|-":2355,"ĠReitz":2356,"MLDecodeError":2357,"2728":2358,"Ġ6":2359,"VI":2360,"polar":2361,"checks":2362,"Ġdb":2363,"iliary":2364,"ving":2365,"Ġparser":2366,"bot":2367,"Ġdon":2368,"the":2369,"ĠJ":2370,"issues":2371,"Ġ2021":2372,"','":2373,"exten":2374,"ITE":2375,"Ġbundle":2376,"Ġfinder":2377,"ĠAUTHORS":2378,">_":2379,"orig":2380,"options":2381,"Ġauxiliary":2382,"fe":2383,"redirect":2384,"15":2385,"led":2386,"troller":2387,"param":2388,"flatpages":2389,">\"\"\"":2390,"ics":2391,"Ġvary":2392,"Ġlogging":2393,"Ax":2394,"exit":2395,"ĠPart":2396,"Ġcomplete":2397,"Provider":2398,"Ġnums":2399,"BSD":2400,"ĠDO":2401,"ĠRedirect":2402,"aix":2403,"TEMPLATE":2404,"blank":2405,"ook":2406,"gzip":2407,"rans":2408,"ĠStaticFiles":2409,"del":2410,"Ġforms":2411,"TAG":2412,"safe":2413,"rop":2414,"extr":2415,"ĠPost":2416,"faster":2417,"Ġ19":2418,"latform":2419,"LiveServerTestCase":2420,"any":2421,"ĠLar":2422,"sign":2423,"Ġexp":2424,"ĠGD":2425,"Ġissues":2426,"agment":2427,"ndication":2428,"ise":2429,"Ġob":2430,"AnyValidator":2431,"Ġlic":2432,"fragment":2433,"umanize":2434,"]]":2435,"ell":2436,"ĠAd":2437,"TAGS":2438,"ias":2439,"assert":2440,"SException":2441,"sche":2442,"ĠGEOS":2443,"ĠGEOSException":2444,"08":2445,"500":2446,"He":2447,"cr":2448,"ish":2449,"FileCopyright":2450,"Ġlicens":2451,"FileCopyrightText":2452,"widget":2453,"Ġaddit":2454,"PP":2455,"eval":2456,"ummy":2457,"bool":2458,"filename":2459,"URL":2460,"().__":2461,"doc":2462,"iv":2463,"17":2464,"torchvision":2465,"ascade":2466,"ted":2467,"Ġrepository":2468,"Eric":2469,"UND":2470,"ĠLarson":2471,"ique":2472,"urs":2473,"Ġdual":2474,"Ġcomp":2475,"domain":2476,"Ġpretrained":2477,"ene":2478,"ired":2479,"Ġrights":2480,"749":2481,"Ġ9":2482,"ĠMIT":2483,"scale":2484,"ibr":2485,"Ġbeen":2486,"024":2487,"Ġtrans":2488,"DatabaseClient":2489,"prec":2490,"ï¼":2491,"Ġcopyright":2492,"VERSION":2493,"Ġ8":2494,"ĠTh":2495,"Ġold":2496,"ĠOdoo":2497,"rapped":2498,"BB":2499,"board":2500,"Ġlicensing":2501,"build":2502,"indices":2503,"lask":2504,"Ġscripts":2505,"pass":2506,"Request":2507,"\"])<":2508,"Django":2509,"urface":2510,"FOUND":2511,"mapbox":2512,"slash":2513,"Based":2514,"about":2515,"ables":2516,"ypoints":2517,"current":2518,"Ġlearning":2519,"atus":2520,"(\"-":2521,"pytorch":2522,"environment":2523,"BasedRunner":2524,"Do":2525,"icle":2526,"Ġoptions":2527,"Ġadditional":2528,"åı":2529,"):":2530,"fun":2531,"hello":2532,"raw":2533,"save":2534,"Ġtarget":2535,"optimizer":2536,"coun":2537,"Ġreserved":2538,"misc":2539,"strain":2540,"ispatch":2541,"rup":2542,"Ġus":2543,"verse":2544,"output":2545,"root":2546,"cls":2547,"zen":2548,"ush":2549,"ignore":2550,"olver":2551,"rg":2552,"arr":2553,"entrypoints":2554,"ĠSp":2555,"ugin":2556,"pypa":2557,"7498":2558,"schema":2559,"Ġwill":2560,"Ġmon":2561,"da":2562,"we":2563,"').":2564,"Ġstyle":2565,"Ġchange":2566,"ĠSolution":2567,"Ġside":2568,"idthValidator":2569,"ffect":2570,"ĠSequence":2571,"Ġsocket":2572,"ail":2573,"chard":2574,"arnings":2575,"lanchard":2576,"Ġchardet":2577,"web":2578,"frozen":2579,"alidation":2580,"Font":2581,"Ġprovide":2582,"action":2583,"mstrain":2584,"abled":2585,"DateTimeField":2586,"Ġmake":2587,"issing":2588,"Ġsubprocess":2589,"old":2590,"testing":2591,"Ð¼":2592,"ank":2593,"Ġday":2594,"Ġ[],<":2595,"gl":2596,"ected":2597,"epochs":2598,"rich":2599,"ark":2600,"åĪ":2601,"textfont":2602,"Ġobjects":2603,"Ġother":2604,"common":2605,"06":2606,"unce":2607,"Query":2608,"server":2609,"img":2610,"03":2611,"Ġmust":2612,"uct":2613,"wer":2614,"Ch":2615,"lt":2616,"]:<":2617,"write":2618,"Ġfrozen":2619,"Ġpost":2620,"dy":2621,"tributors":2622,"ĠCacheControl":2623,"loads":2624,"now":2625,"Token":2626,"actor":2627,"rame":2628,"Inter":2629,"You":2630,"Ġreleased":2631,"deep":2632,"__)<":2633,"stant":2634,"ĠĠĠĠĠĠĠĠĠĠĠĠĠĠĠĠĠĠĠĠĠ":2635,"Session":2636,"ative":2637,"Ġcase":2638,"cascade":2639,"Ġlevel":2640,"ists":2641,"ensor":2642,"izes":2643,"ResNe":2644,"Ġfiles":2645,"platform":2646,"Ð²":2647,"asy":2648,"grid":2649,"nounce":2650,"cat":2651,"certifi":2652,">>":2653,"cle":2654,"ĠDo":2655,"Ġany":2656,"Ġprefix":2657,"ataset":2658,"ĠConfiguration":2659,"Ġsh":2660,"Ġ16":2661,"Former":2662,"App":2663,"ded":2664,"ĠPyPI":2665,"37":2666,"gistr":2667,"fault":2668,"instead":2669,"announce":2670,"ĠPath":2671,"INFO":2672,")(":2673,"EP":2674,"row":2675,"twine":2676,"Ġtwine":2677,"tickformatstop":2678,"ffects":2679,"Formerly":2680,"24":2681,"Ġfirst":2682,"æķ":2683,"see":2684,"[-":2685,"ĠCustom":2686,"sm":2687,"its":2688,"Ġ20":2689,"Ġsen":2690,"rappers":2691,"RO":2692,"xy":2693,"Ġsu":2694,"space":2695,"AF":2696,"aph":2697,"let":2698,"Ġmissing":2699,"umn":2700,"ĠHttpResponse":2701,"Ġgetattr":2702,"number":2703,"anchor":2704,"21":2705,"ssrcValidator":2706,"anet":2707,"Ġdatabase":2708,"Ġgroups":2709,"rea":2710,"Ġtm":2711,"Ġeffects":2712,"random":2713,"via":2714,"Ġcontributors":2715,"ĠRequest":2716,"graph":2717,"gcolor":2718,"coding":2719,"Ġisinstance":2720,"Types":2721,"AND":2722,"Ðº":2723,"Ġwork":2724,"ET":2725,"ĠSer":2726,"\"):<":2727,"enses":2728,"0000":2729,"ĠCallable":2730,"Ġ25":2731,"Ġspec":2732,"setting":2733,"Ġrandom":2734,"olorsrcValidator":2735,"Stack":2736,"argv":2737,"255":2738,"Enter":2739,"Xt":2740,"ionally":2741,"'))<":2742,"commands":2743,"av":2744,"ged":2745,"nums":2746,"Ġobj":2747,"Ñĥ":2748,"Ġmonth":2749,"tern":2750,"mys":2751,"lowed":2752,"PickleSerializer":2753,"cmd":2754,"Ġ\"%":2755,"aces":2756,"resnext":2757,"Loader":2758,"ResNeXt":2759,"ampl":2760,"licenses":2761,"AddField":2762,"Ġcre":2763,"MENT":2764,"Ġbackend":2765,"Epoch":2766,"dat":2767,"widgets":2768,"ow":2769,"outer":2770,"actory":2771,"Line":2772,"Ġmanagement":2773,"Ġaut":2774,"EpochBasedRunner":2775,"Ġapi":2776,"ĠNOT":2777,"Template":2778,"return":2779,"sitemap":2780,"{}":2781,"df":2782,"logging":2783,"TTP":2784,"LOW":2785,"Ġtitle":2786,"mat":2787,"ameters":2788,"fore":2789,"ĠException":2790,".,":2791,"abc":2792,"14":2793,"ous":2794,"reen":2795,"allback":2796,"Spatial":2797,"Ġauthors":2798,"ĠFilter":2799,"2022":2800,"event":2801,"men":2802,"stream":2803,"Ġover":2804,"angle":2805,"SpatialFeatures":2806,"An":2807,"equal":2808,"Ġcolor":2809,"Ñı":2810,"ĠPY":2811,"axes":2812,"shape":2813,"Var":2814,"Ġper":2815,"netv":2816,"widthValidator":2817,"æķ°":2818,"ee":2819,"DIR":2820,"Parser":2821,"formatValidator":2822,"ĠFont":2823,"Ġbytes":2824,"hostname":2825,"ILS":2826,"way":2827,"ero":2828,"ĠTags":2829,"PY":2830,"remove":2831,"todo":2832,"height":2833,"ĠAuth":2834,"produ":2835,"1024":2836,"distribution":2837,"ture":2838,"opensource":2839,"')),<":2840,"Module":2841,"rt":2842,"Col":2843,"block":2844,"sites":2845,"CA":2846,"rid":2847,"Ġ{}),<":2848,"ccess":2849,"stack":2850,"rix":2851,"Dist":2852,"Ġbefore":2853,"ĠCl":2854,"lyg":2855,"Ġclient":2856,"Ġhome":2857,"ĠTemplate":2858,"Ġ23":2859,"raps":2860,"Id":2861,"std":2862,"UTILS":2863,"sitemaps":2864,"gmail":2865,"ĠDis":2866,">/',":2867,"STUTILS":2868,"lygon":2869,"KT":2870,"ittest":2871,"arm":2872,"!=":2873,"\"))<":2874,"precated":2875,"idValidator":2876,"Mess":2877,"ĠCom":2878,"requ":2879,"EST":2880,"ĠProduct":2881,"ampler":2882,"ĠTO":2883,"dirname":2884,"place":2885,"password":2886,"19":2887,"pad":2888,"Ġpd":2889,"Net":2890,"layer":2891,"bytes":2892,"og":2893,"ĠMapping":2894,"05":2895,"Router":2896,"KTAdapter":2897,"ph":2898,"ization":2899,"labels":2900,"tags":2901,"Te":2902,"US":2903,"Func":2904,"Ġshould":2905,"400":2906,"ĠWARNING":2907,"ALLOW":2908,"extension":2909,"UUID":2910,"abel":2911,"STOR":2912,"hook":2913,"iod":2914,"hrnetv":2915,"Ġ'<":2916,"48":2917,"ecute":2918,"profile":2919,"Ġvia":2920,"Ġpas":2921,"affe":2922,"UR":2923,"Ġ\"\"":2924,"Sitemap":2925,"enter":2926,"ition":2927,"Logger":2928,"deeplab":2929,"Ġmak":2930,"ĠNo":2931,"caffe":2932,"match":2933,"Ġhasattr":2934,"201":2935,"ternary":2936,"binary":2937,"ific":2938,"scene":2939,"ĠUUID":2940,"null":2941,"ume":2942,"Ġ,":2943,"256":2944,"iver":2945,"uk":2946,"ĠDEBUG":2947,"STORAGE":2948,"account":2949,"ursor":2950,"deeplabv":2951,"gest":2952,"ĠImage":2953,"TextValidator":2954,"ĠTextValidator":2955,"AFE":2956,"FR":2957,"Ġdis":2958,"Redirect":2959,"uid":2960,"heat":2961,"ĠEn":2962,"Split":2963,"Ġpassed":2964,"allowed":2965,"AD":2966,"2020":2967,"ĠCharField":2968,"ĠDateTimeField":2969,"imer":2970,"functional":2971,"slug":2972,"AB":2973,"control":2974,"geojson":2975,"Ġtests":2976,"Tuple":2977,"Up":2978,"Ġexecutable":2979,"26":2980,"IM":2981,"cto":2982,"logged":2983,"imal":2984,"float":2985,"psycopg":2986,"ĠOR":2987,"WARNING":2988,"include":2989,"argument":2990,"ffix":2991,"tal":2992,"ModelSerializer":2993,"Ġusing":2994,"ĠFiles":2995,"ĠKM":2996,"Ġexpected":2997,"={":2998,"ĠERROR":2999,"ĠCo":3000,"gion":3001,"ĠMiddleware":3002,"reaField":3003,"Zip":3004,"Ġcertifi":3005,"itemap":3006,"response":3007,"EmailBackend":3008,"ities":3009,"ĠLicensed":3010,"extras":3011,"ĠLine":3012,"ategor":3013,"Ġoptim":3014,"flatpage":3015,"Ġchanges":3016,"ĠLoader":3017,"Ġhelp":3018,"Dns":3019,"ople":3020,"('<":3021,"Ġwhich":3022,"unk":3023,"Ġasync":3024,"down":3025,"Ġsending":3026,"Lite":3027,"osname":3028,"redirects":3029,".\",<":3030,"200":3031,"essions":3032,"nown":3033,"(**":3034,"bdist":3035,"ystemLoader":3036,"ĠINFO":3037,"Image":3038,"NC":3039,"Ġfeatures":3040,"ĠGeometry":3041,"IZ":3042,"ZSitemap":3043,"table":3044,"getfqdn":3045,"ĠCached":3046,"ĠPsycopg":3047,"ĠWSGIHandler":3048,"=[<":3049,"LSitemap":3050,"ĠStaticFilesHandler":3051,"dec":3052,"encode":3053,"true":3054,"ĠSafe":3055,"agesConfig":3056,"entry":3057,"Ġconnections":3058,"ĠMultiPo":3059,"]))<":3060,"ield":3061,"ĠSUCCESS":3062,"Ġfinders":3063,"128":3064,"Ġ2009":3065,"Splitter":3066,"KM":3067,"Ġsum":3068,"Ġnon":3069,"subject":3070,"voids":3071,"Ġmaking":3072,"ike":3073,"yndication":3074,"ĠSuspiciousOperation":3075,"ĠPEP":3076,"ĠBaseJSONSerializer":3077,"AGMENT":3078,"StringField":3079,"TextField":3080,"ĠSpat":3081,"ĠDisallowed":3082,"FRAGMENT":3083,"ZipMiddleware":3084,"DnsName":3085,"ĠCachedDnsName":3086,"ĠDisallowedModelAdmin":3087,"link":3088,"Ġhave":3089,"ĠStudent":3090,"ĠTextField":3091,"ĠUUIDField":3092,"CPointerBase":3093,"SAFE":3094,"lc":3095,"of":3096,"dev":3097,"ally":3098,"intField":3099,"ĠCPointerBase":3100,"pointsValidator":3101,"ignals":3102,"ASY":3103,"ĠMySQLOperations":3104,"ĠMySQLIntrospection":3105,"ĠMySQLGISSchemaEditor":3106,"anceField":3107,"iaLite":3108,"ALException":3109,"ĠGDALException":3110,"lygonField":3111,"ĠSpatiaLite":3112,"Filter":3113,"...":3114,">~~~~~~~~":3115,"Ġpsycopg":3116,"citext":3117,"custom":3118,"Ġfloat":3119,"ĠCIText":3120,"ĠHTTP":3121,"ICharField":3122,"socket":3123,"ĠEmailField":3124,"acityValidator":3125,"Ġwraps":3126,"Ġextr":3127,"heatmap":3128,"fcn":3129,"ward":3130,"funnel":3131,"dTuple":3132,"ross":3133,"tem":3134,"Ġreturns":3135,"ĠEx":3136,"Ġge":3137,"Hover":3138,"ord":3139,"Ġ\"))<":3140,"ĠHover":3141,"sqlparse":3142,"atementSplitter":3143,"ÑĮ":3144,"Ġdistribution":3145,"compat":3146,"Ġmoves":3147,"bbox":3148,"gn":3149,"åħ":3150,"ĠDatabaseClient":3151,"ĠAvoids":3152,"Ġmy":3153,"Ġcache":3154,"Create":3155,"HI":3156,"ama":3157,"Ġcontents":3158,"çĶ":3159,"Axis":3160,"operations":3161,"logger":3162,"ĠInc":3163,"Ġencode":3164,"âĢ":3165,"Ġpun":3166,"conv":3167,"rgument":3168,"oss":3169,"Ġdatabases":3170,"36":3171,"loader":3172,"align":3173,"hout":3174,"ordercolor":3175,"ĠTodo":3176,"Ġend":3177,"Ġ!=":3178,"sent":3179,"series":3180,"ĠFile":3181,"ĠTypeVar":3182,"\"{":3183,"rad":3184,"wist":3185,"Ġwhile":3186,"armup":3187,"gcolorValidator":3188,"ycode":3189,"ater":3190,"ĠASGIHandler":3191,"ĠSafeString":3192,"Ġpunycode":3193,"SITE":3194,"ttribute":3195,"Ġimported":3196,"ĠToken":3197,"ĠSQL":3198,"ĠInter":3199,"cumentation":3200,"norm":3201,"})<":3202,"items":3203,"Ġlocation":3204,"while":3205,"indows":3206,"stanti":3207,"Al":3208,"Ġerror":3209,"impl":3210,"ĠSet":3211,"ithout":3212,"introspection":3213,"TOMLDecodeError":3214,"fol":3215,"Ġfun":3216,"oml":3217,"pattern":3218,"84":3219,"ĠJSONField":3220,"ialize":3221,"Ġserver":3222,"ĠGenerator":3223,"'''<":3224,"Ġ\"_":3225,"Ġaf":3226,"LES":3227,"gistry":3228,"tree":3229,"inition":3230,"Ġwrapped":3231,"rupted":3232,"UNSAFE":3233,"ASYNC":3234,"ä»":3235,"Ġconfiguration":3236,"ALL":3237,"Ġinstanti":3238,"ickn":3239,"ï¼Į":3240,"Lay":3241,"Ġresp":3242,"ĠInt":3243,"Ġunique":3244,"uiltinJSONField":3245,"Ġinte":3246,"adRequest":3247,"should":3248,"urtle":3249,"Ġits":3250,"Ġwithin":3251,"ctools":3252,"Ġ\".":3253,"wisted":3254,"ĠClasses":3255,")]<":3256,"()),<":3257,"Ġops":3258,"Ġ{'":3259,"ATCH":3260,"Resource":3261,"management":3262,"rest":3263,"0005":3264,"loss":3265,"ification":3266,"~~~~~~":3267,"Ġinstantiated":3268,"OM":3269,"manager":3270,"160":3271,"\"\",":3272,"IntegerField":3273,"left":3274,"trie":3275,"linear":3276,"ĠĠĠĠĠĠĠĠĠĠĠĠĠĠĠĠĠĠĠ":3277,"Ġ30":3278,"select":3279,"Ġpl":3280,"\",\"":3281,"tric":3282,"andard":3283,"Ġboolean":3284,"Ġloads":3285,"('.":3286,"ĠZ":3287,"ĠSchemaEditor":3288,"__().<":3289,"Ġintrospection":3290,"INE":3291,"ukk":3292,"ĠSchemaEditorClass":3293,"tickfont":3294,"six":3295,"chemy":3296,"find":3297,"decorator":3298,"ferred":3299,"},<":3300,"Ġcontaining":3301,"var":3302,"Ġaction":3303,"Ġexists":3304,"ASE":3305,"suffix":3306,"utf":3307,"Index":3308,"www":3309,"gree":3310,"UP":3311,"pu":3312,"okup":3313,"Ġway":3314,"ĠLog":3315,"((":3316,"è¿":3317,"Ġ2015":3318,")):<":3319,"vert":3320,"Ġneed":3321,"FI":3322,"aug":3323,"debug":3324,"Ġlibr":3325,"Ġ2020":3326,"blocks":3327,"NOT":3328,"irc":3329,"edo":3330,"tact":3331,"Ġpygments":3332,"asrcValidator":3333,"ished":3334,"Frame":3335,"Ġmode":3336,"codec":3337,"Ġqueue":3338,"mploy":3339,"Ð´":3340,"Order":3341,"counts":3342,"Ġ100":3343,"0004":3344,"Dataset":3345,"cial":3346,"ley":3347,"fill":3348,"moves":3349,"ĠTuple":3350,"amb":3351,"readth":3352,"ym":3353,"idden":3354,"ility":3355,"clear":3356,"serve":3357,"ĠExt":3358,"Ġprocess":3359,"DIT":3360,"au":3361,"draw":3362,"edocs":3363,"ait":3364,"Ġ.__":3365,"Ġtrain":3366,"Ġrequests":3367,"readthedocs":3368,"Argument":3369,"PRE":3370,"Ġrefer":3371,"Ġmat":3372,"Ġcount":3373,"active":3374,"ĠDistribution":3375,"ä½":3376,"ĠShow":3377,"\"],":3378,"Show":3379,"buil":3380,"itemname":3381,"Ġhashlib":3382,"Parse":3383,"Ġoriginal":3384,"lection":3385,"area":3386,"ĠTheme":3387,"MML":3388,"orator":3389,"inux":3390,"izesrcValidator":3391,"MMLab":3392,"can":3393,"ertific":3394,"unused":3395,"ĠFore":3396,"directory":3397,"cur":3398,"tz":3399,"Ġwithout":3400,"Ġsecon":3401,"category":3402,"mer":3403,"ticks":3404,"STY":3405,"opleth":3406,"ĠĠĠĠĠĠ":3407,"Ġcover":3408,"ĠThere":3409,"aps":3410,"choropleth":3411,"Deta":3412,"Ġdf":3413,"elper":3414,"STAT":3415,"isibleValidator":3416,"STYLES":3417,"Ġdefinition":3418,"Ġmanag":3419,"Ġwarnings":3420,"LED":3421,"ĠWindows":3422,"Post":3423,"caleValidator":3424,"'.":3425,"Ġissue":3426,"ĠEDIT":3427,"30":3428,"Dec":3429,"ĠEric":3430,"Ġwarmup":3431,"Ġseparate":3432,"ĠProvider":3433,"CN":3434,"FamilyValidator":3435,"dis":3436,"\",)<":3437,"ĠFamilyValidator":3438,"unknown":3439,"~~~~~~<":3440,"Ġpickle":3441,"exp":3442,"ĠSub":3443,"aging":3444,"tyle":3445,"Ġignore":3446,">:":3447,"cel":3448,"ertificate":3449,"Ñĭ":3450,"ename":3451,"Ġ{}":3452,"ways":3453,"Hello":3454,"RA":3455,"dic":3456,"ĠModule":3457,"ILD":3458,"Ġcs":3459,"erson":3460,"agma":3461,"Ġcharact":3462,"Check":3463,"riter":3464,"relat":3465,"Ġlr":3466,"Ġstride":3467,"Ġpragma":3468,"ĠArrayField":3469,"Ġ<=":3470,"irevision":3471,"Ġcreated":3472,"decorators":3473,"sk":3474,"Path":3475,"status":3476,"Ġcore":3477,"ĠMS":3478,"notations":3479,"greement":3480,"-'":3481,"WN":3482,"part":3483,"lines":3484,"cho":3485,"Ġlong":3486,"axpointsValidator":3487,"datetime":3488,"Ġ2013":3489,"CII":3490,"Unicode":3491,"ĠBook":3492,"Ġ2008":3493,"Dict":3494,"ĉĉ":3495,"ĠTrans":3496,"ĠBasePickleSerializer":3497,"Subquery":3498,"Date":3499,"If":3500,"Value":3501,"Ġq":3502,"enabled":3503,"configuration":3504,"229":3505,"Apache":3506,"Ġhttp":3507,"ĠAns":3508,"Fore":3509,"execute":3510,"ĠDefault":3511,"Ġgenerated":3512,"(\"<":3513,"ASCII":3514,"370":3515,"ĠâĢ":3516,"leet":3517,"Ġaccess":3518,"ĠOpenMMLab":3519,"ANA":3520,"empty":3521,"igrate":3522,"ĠValue":3523,"ĠOracleOperations":3524,"ĠOracleIntrospection":3525,"ĠOracleGISSchemaEditor":3526,"Ġqueryset":3527,">~~~~~~~~~~~~~~<":3528,"Ġapplication":3529,"ĠCommand":3530,"aged":3531,"ference":3532,"Not":3533,"reak":3534,"Ġwarning":3535,"Ġmanaged":3536,"reg":3537,"Ġtk":3538,"ilise":3539,"TH":3540,"deque":3541,"anel":3542,"sumer":3543,"cake":3544,"Ġpos":3545,"ĠTHI":3546,"Ġcollect":3547,"`.":3548,"her":3549,"rand":3550,"hex":3551,"ceiver":3552,"textValidator":3553,"ignKey":3554,"Ġutilise":3555,"getLogger":3556,"ATION":3557,"IDNA":3558,"ĠKenneth":3559,"ĠToUnicode":3560,"ĠToASCII":3561,".|":3562,"APP":3563,"Kenneth":3564,"ĠLinux":3565,"permissions":3566,"-.<":3567,"`-'":3568,"wo":3569,"inf":3570,"reitz":3571,"Ġ.-.<":3572,"umans":3573,"Ġ12":3574,"ĠHumans":3575,"Ġ`-.":3576,"kenneth":3577,"Ġ|(":3578,"Ġ|.|":3579,"Ġ`-.<":3580,"Ġ`-'<":3581,"Ġ`-`.":3582,"certs":3583,"Head":3584,"hooks":3585,"kennethreitz":3586,"Ġ`-`.`-'":3587,"Me":3588,"ND":3589,"go":3590,"Ġ\"--":3591,"spect":3592,"ĠRequests":3593,"Ġcolorama":3594,"Ġextra":3595,"Ġseparately":3596,"bgcolor":3597,"ito":3598,"Ġhandle":3599,"resh":3600,"retin":3601,"fied":3602,"Ġcertificate":3603,"tom":3604,"Ġstill":3605,"legendgroup":3606,"EL":3607,"ĠLif":3608,"fixture":3609,"Ġpreferred":3610,"Ġpackaging":3611,">',":3612,"Ġder":3613,"console":3614,"ĠStyle":3615,"ĠâĢĶ":3616,"Sh":3617,"Ñĩ":3618,"Ġ_):<":3619,"packaged":3620,"Ġannotations":3621,"oQueue":3622,"Ġ\")<":3623,"edis":3624,"dataset":3625,"(\"\",":3626,"search":3627,"ants":3628,"gex":3629,"ube":3630,"ArgumentParser":3631,"OK":3632,"qsize":3633,"arker":3634,"Ġdeprecation":3635,"ERS":3636,"Ġlogin":3637,"smith":3638,"retinanet":3639,"ĠLifoQueue":3640,"Project":3641,"SF":3642,"controller":3643,"ĠBack":3644,"olume":3645,"Ġsend":3646,"price":3647,"Ġfunctools":3648,"Ġans":3649,"eric":3650,"ĠMess":3651,"TU":3652,"ock":3653,"ĠAttribute":3654,"dump":3655,"Ġ14":3656,"textsrcValidator":3657,"attern":3658,"Storage":3659,"Ġ...":3660,"NOWN":3661,"ble":3662,"è¡":3663,"deprecation":3664,"bound":3665,"================":3666,"alidationError":3667,"\".":3668,"34":3669,"KNOWN":3670,"surface":3671,"Win":3672,"ationForm":3673,"Ġown":3674,"ponent":3675,"Ġlast":3676,"ĠInvalid":3677,"Ġweight":3678,"ĠAdmin":3679,"student":3680,"ORT":3681,"Tr":3682,"atio":3683,"met":3684,"logout":3685,"leetcode":3686,"ITY":3687,"close":3688,"Ġrespon":3689,"Ġreferenc":3690,"resource":3691,"BUILD":3692,"ived":3693,"åŃ":3694,"script":3695,"Manager":3696,"Object":3697,"Ġfla":3698,"umbers":3699,"NV":3700,"UNKNOWN":3701,"ÑĢÐ°":3702,"VIR":3703,"Ġturtle":3704,"Ġeasy":3705,"--------------------------------":3706,"Group":3707,"ĠTrie":3708,"ĠIT":3709,"ansi":3710,"Ġ36":3711,"ordercolorValidator":3712,"SS":3713,"Trie":3714,"ĠModel":3715,"Ġhello":3716,"Ġserialize":3717,"Ġtemp":3718,"loop":3719,"gen":3720,"ĠAgreement":3721,"Ġrad":3722,"Ġyield":3723,"Ġsubmodules":3724,"Loss":3725,"MATCH":3726,"colorscale":3727,"ature":3728,"Ġflask":3729,"Ġz":3730,"round":3731,"athan":3732,"onathan":3733,"Ġunittest":3734,"Ġreferencing":3735,"ating":3736,"icon":3737,"Ġpreserved":3738,"ĠÐ¿":3739,"lower":3740,"ForeignKey":3741,"Ge":3742,"xaxis":3743,"Ġbbox":3744,"ĠAr":3745,"ĠData":3746,"scattergl":3747,"ĠKey":3748,"ispatcher":3749,"inary":3750,"ĠCursor":3751,"csv":3752,"Ġintent":3753,"voc":3754,"æĸ":3755,"CreationForm":3756,"dan":3757,"velo":3758,"ipe":3759,"Ġaddress":3760,"cli":3761,"dified":3762,"world":3763,"egend":3764,"ÑĤÐµ":3765,"initialise":3766,"eed":3767,"iTo":3768,"req":3769,"ret":3770,"node":3771,"uff":3772,"fili":3773,"Ġreinit":3774,"Ġdeinit":3775,"ĠOn":3776,"ansito":3777,"artley":3778,"ĠHartley":3779,"Ġdown":3780,"ĠJonathan":3781,"implify":3782,"ĠAnsiTo":3783,"ansitowin":3784,"ĠAnsiToWin":3785,"bl":3786,"Ġ22":3787,"mbed":3788,"GD":3789,"avi":3790,"Ġstandard":3791,"divid":3792,"pas":3793,"ector":3794,"Context":3795,"Ġmodules":3796,"ĠAttributeError":3797,"ton":3798,"æĺ":3799,"functions":3800,"Ġelif":3801,"created":3802,"OUS":3803,"fin":3804,"Ġ40":3805,"Ġretrie":3806,"Ġstrings":3807,"tag":3808,"Ġalways":3809,"Ġargument":3810,"Ġsuch":3811,"çĶ¨":3812,"wrappers":3813,"modeValidator":3814,"PREVI":3815,"Ġresponse":3816,"]):<":3817,"ners":3818,"uptools":3819,"VIRTU":3820,"late":3821,"rank":3822,"angu":3823,"ALENV":3824,"MATCHES":3825,"Ġintentionally":3826,"PREVIOUS":3827,"VIRTUALENV":3828,"Ġdtype":3829,"Ġvisible":3830,"Ġbyte":3831,"Ð¾Ð²":3832,"\\\\":3833,"amilysrcValidator":3834,"ik":3835,"ĠDan":3836,"Ġ>=":3837,"IntegerValidator":3838,"Ġ],<":3839,"ref":3840,"ĠUT":3841,"ĠTHIS":3842,"æľ":3843,"encoding":3844,"asic":3845,"tool":3846,"Ġjust":3847,"################":3848,"Detail":3849,"filiates":3850,"Ġdp":3851,"ASCA":3852,"dtype":3853,"96":3854,"OST":3855,"Trans":3856,"turtle":3857,"spaces":3858,"Ġmethod":3859,"Subpackage":3860,"Ġinteger":3861,"][":3862,"inen":3863,"tributor":3864,"Ġaffiliates":3865,"ASCADE":3866,"Ġ80":3867,"__).":3868,"ĠMain":3869,"ĠPSF":3870,"Ġpathlib":3871,"ĠIf":3872,"anchorValidator":3873,"SM":3874,"dig":3875,"Ġloss":3876,"Custom":3877,"OT":3878,"Ð·":3879,"adata":3880,"ĠSetuptools":3881,"EX":3882,"anged":3883,"Ġthan":3884,"decay":3885,"Make":3886,"ickw":3887,"Ġsimplify":3888,"Ġ1000":3889,"``<":3890,"Ġusers":3891,".'<":3892,"ucture":3893,"Ġheight":3894,"ultip":3895,"checkpoint":3896,"Ġchan":3897,"ĠContributor":3898,"Ġrequired":3899,"Ġsubpackages":3900,"Ġinstead":3901,"ailed":3902,"Ġattribute":3903,"ĠInterface":3904,"-%":3905,"mit":3906,"details":3907,"heel":3908,"Ġfunc":3909,"corners":3910,"Ġalso":3911,"AxisTypes":3912,"clearAxisTypes":3913,"pascal":3914,"'\\":3915,"uation":3916,"abstract":3917,"dividual":3918,"CASCADE":3919,"}\")<":3920,"åĲ":3921,"Ġdescription":3922,"AMP":3923,"mesh":3924,"Ġmulti":3925,"Ġderived":3926,"pay":3927,"opacity":3928,"exponent":3929,"mployee":3930,"Ġretrieving":3931,"blanchard":3932,"full":3933,"simple":3934,"ĠBlanchard":3935,"ugins":3936,"Get":3937,"til":3938,"='',":3939,"``,":3940,"Ġdeprecations":3941,"ĠSetuptoolsDeprecationWarning":3942,"Out":3943,"lst":3944,"åĩ":3945,"orn":3946,"480":3947,"XX":3948,"aries":3949,"Ġ\",":3950,"AC":3951,"Dtype":3952,"ories":3953,"tries":3954,"Ġweb":3955,"ALLED":3956,"Sequence":3957,"TML":3958,"bstract":3959,"STALLED":3960,"Ð½Ð¸":3961,"Ġentry":3962,"ĠAB":3963,"%(":3964,"rock":3965,"chat":3966,"ĠValidationError":3967,"migrate":3968,"warning":3969,"proxy":3970,"volume":3971,"wait":3972,"Ġsystem":3973,"verses":3974,"Ġbreak":3975,"Ġsplit":3976,"sort":3977,"END":3978,"psp":3979,"colorsrc":3980,"ModelForm":3981,"sin":3982,"Ġtags":3983,"Ġsame":3984,"Ġexec":3985,"today":3986,"Ġmeant":3987,"raph":3988,"Comp":3989,"ĠAuthor":3990,"pe":3991,"ctiv":3992,"ĠCacheControlAdapter":3993,"è¯":3994,"Ġnamespaces":3995,"Ġval":3996,"Ġ15":3997,"later":3998,"ticklabels":3999,"padValidator":4000,"Ġimage":4001,"iler":4002,"mentum":4003,"parator":4004,"params":4005,"Ġcharacters":4006,"CacheCon":4007,"SGD":4008,"ionrock":4009,"Ġport":4010,"groups":4011,"See":4012,"ĠCacheController":4013,"lobal":4014,"Ġcachecontrol":4015,"CacheControl":4016,"cv":4017,"ule":4018,"å¯":4019,"angular":4020,"success":4021,"seg":4022,"thous":4023,"ackage":4024,"YPY":4025,"CO":4026,"yaxis":4027,"ĠApp":4028,"0008":4029,"ĠIndex":4030,"paratethous":4031,"cloud":4032,"paratethousand":4033,"Multi":4034,"flow":4035,"xes":4036,"section":4037,"meta":4038,"lement":4039,"lows":4040,"ĠSession":4041,"Ġbytearray":4042,"å®":4043,"hash":4044,"changed":4045,"ĠLINE":4046,"nsure":4047,"Ġdeprecated":4048,"question":4049,"Encoder":4050,"ALLY":4051,"serializer":4052,"ĠMAN":4053,"loading":4054,"ASH":4055,"signup":4056,"iters":4057,"igns":4058,"imary":4059,"Reader":4060,"ribut":4061,"Ġneck":4062,"Ġ96":4063,"Meta":4064,"stamp":4065,"mod":4066,"ssrc":4067,"png":4068,"Page":4069,"actions":4070,"ian":4071,"ranges":4072,"Ġpoint":4073,"pth":4074,"ended":4075,"inally":4076,"TIM":4077,"Ġcal":4078,"queryset":4079,"pspnet":4080,"Pos":4081,"warn":4082,"Ġsetting":4083,"Ġsm":4084,"Ġbump":4085,"resolver":4086,"hows":4087,"ĠRandom":4088,"imit":4089,"ILITY":4090,"mysql":4091,"ĠMANU":4092,"Http":4093,"sun":4094,"ĠQuery":4095,"ĠLET":4096,"comment":4097,"Ġthings":4098,"ĠTOMLDecodeError":4099,"Ġseconds":4100,"ĠUTILITY":4101,"ĠMANUALLY":4102,">\",":4103,"hidden":4104,"vok":4105,"Ġup":4106,"ĠTe":4107,"ĠTanel":4108,"ĠBlog":4109,"digest":4110,"ĠHukk":4111,"social":4112,"ĠTaneli":4113,"ĠHukkinen":4114,"09":4115,"PN":4116,"be":4117,"ĠToml":4118,"strs":4119,"ĠDummy":4120,"=['":4121,"Ġchannels":4122,"ĠFlat":4123,"Ġpattern":4124,"Ġalias":4125,"generic":4126,"graphy":4127,"legendgrouptitle":4128,"ç»":4129,"Ġstorage":4130,"postgresql":4131,"Message":4132,"Ġtkinter":4133,"edisCache":4134,"ĠÑģ":4135,"Ġmys":4136,"ä¸ª":4137,"STATIC":4138,"Map":4139,"depende":4140,"ĠHTML":4141,"Ġparse":4142,"cret":4143,"Ġtemplates":4144,"Ġprovided":4145,"treemap":4146,"ColorsrcValidator":4147,"Match":4148,"gpu":4149,"handle":4150,"ĠColorsrcValidator":4151,"Ġwidth":4152,"maxpoints":4153,"TIC":4154,"Ġdispatch":4155,"consumer":4156,"pare":4157,"ECT":4158,"2021":4159,"Ġenum":4160,"bad":4161,"Ġconstants":4162,"eature":4163,"ideValidator":4164,"pied":4165,">/":4166,"Lib":4167,"RUN":4168,"Ġhooks":4169,"Ġtable":4170,"Ġavoid":4171,"Example":4172,":.":4173,"Sampler":4174,"ĠDI":4175,"plus":4176,"ui":4177,"eries":4178,"Ġreceiver":4179,"ĠTr":4180,"Ġexclude":4181,"Ġcopied":4182,"Ġuses":4183,"NS":4184,"ĠClient":4185,"Ġ11":4186,"'])<":4187,"stride":4188,"Ġfind":4189,"Return":4190,"0009":4191,"Collection":4192,"game":4193,"å¼":4194,"leep":4195,"icicle":4196,"classmethod":4197,"isos":4198,"acy":4199,"Ġbased":4200,"indow":4201,"isosurface":4202,"Ġap":4203,"ĠCategory":4204,"ĠFace":4205,"msra":4206,"ä¸Ģ":4207,"windo":4208,"related":4209,"ED":4210,"jsonb":4211,"Ġmomentum":4212,"ĠMe":4213,"ĠTypeError":4214,"('.')<":4215,"Dummy":4216,"Th":4217,"hstore":4218,"than":4219,"Ġcol":4220,"Ġ{}<":4221,"ĠContent":4222,"selected":4223,"Ġpur":4224,"ĠAl":4225,"Ġvalid":4226,"Layers":4227,"ambda":4228,"Ġarguments":4229,"ĠMYPY":4230,"river":4231,"ao":4232,"seed":4233,"igh":4234,"Ġcv":4235,"andling":4236,"Ð¾Ð»":4237,"Ġhelper":4238,"Color":4239,"istr":4240,"provid":4241,"TICAL":4242,"usage":4243,"ĠĠĠĠĠĠĠĠĠĠĠĠĠĠĠĠĠĠĠĠĠĠĠĠ":4244,"backport":4245,"ĠResource":4246,"Ġanything":4247,"stdlib":4248,"air":4249,"ĠMark":4250,"ĠWKTAdapter":4251,"ĠGeo":4252,"LayersWidget":4253,"IAL":4254,"oauth":4255,"essValidator":4256,"headers":4257,"Author":4258,"].":4259,"oo":4260,"ote":4261,"plotlib":4262,"Ġexceptions":4263,"ĠDefaultRouter":4264,"off":4265,"sample":4266,"Ġtake":4267,"Ġ320":4268,"BaseSpatialFeatures":4269,"aceback":4270,"ĠBaseSpatialFeatures":4271,"Ġhandling":4272,"Ġtyper":4273,"scattergeo":4274,"amples":4275,"ESTAMP":4276,"RUNNING":4277,"59":4278,"Dispatcher":4279,"SL":4280,"zone":4281,"Ġindic":4282,"Ġwants":4283,"Ġapplied":4284,"contenttypes":4285,"redis":4286,"VS":4287,"Ġmessages":4288,"Ġtoken":4289,"dispatcher":4290,"Ġauthor":4291,"Gener":4292,"bur":4293,"finder":4294,"hoto":4295,"keys":4296,"proble":4297,"scatterpolar":4298,"FileCache":4299,"results":4300,"ĠSeries":4301,"APPS":4302,"anguage":4303,"TIMESTAMP":4304,"Mapping":4305,"[[":4306,"ench":4307,"dumps":4308,"ĠCol":4309,"former":4310,"images":4311,"Ġlibraries":4312,"bordercolor":4313,"onical":4314,"alchemy":4315,"ĠReturns":4316,"Ro":4317,"Ġisn":4318,"Ġrout":4319,"minValidator":4320,"=[\"":4321,"system":4322,"connect":4323,"ailable":4324,"itemnameValidator":4325,"ĠFacebook":4326,"CUR":4327,"PR":4328,"xml":4329,"ials":4330,"ams":4331,"direction":4332,"Many":4333,"case":4334,"factory":4335,"Ġvalidation":4336,"queries":4337,"parameters":4338,"Ġparameters":4339,"ĠTransaction":4340,"Flat":4341,"Ġ18":4342,"Ġ384":4343,"Info":4344,"which":4345,"DAT":4346,"period":4347,"folio":4348,"usic":4349,"lide":4350,"23":4351,"numpy":4352,"tection":4353,"entication":4354,"barpolar":4355,"LOOK":4356,"ĠArgs":4357,"dependent":4358,"vironment":4359,"Modules":4360,"infos":4361,"window":4362,"burst":4363,"LOOKUP":4364,"GEN":4365,"sal":4366,"Ġpages":4367,"clip":4368,"validation":4369,"USER":4370,"edDict":4371,"ĠAND":4372,"ĠCurrent":4373,"arraydraw":4374,"visible":4375,"scattersmith":4376,"Ġserve":4377,"DISTUTILS":4378,"matrix":4379,"ĠDISTUTILS":4380,"YY":4381,"legram":4382,"Decoder":4383,"Product":4384,"ĠFirst":4385,"254":4386,"BooleanField":4387,"position":4388,"Ġgeneral":4389,"alias":4390,"ĠCache":4391,"ometries":4392,"Ġcsrf":4393,"QT":4394,"light":4395,"statement":4396,"Ġcopy":4397,"textsrc":4398,"templateValidator":4399,"Ġmodified":4400,"started":4401,"Ġ192":4402,"hexdigest":4403,"sessions":4404,"Lookup":4405,"ĠProfile":4406,"Orig":4407,"Axes":4408,"ibrary":4409,",'":4410,"nam":4411,"Ð¿":4412,"sen":4413,"ered":4414,"lom":4415,"Ġ''":4416,"ĠStr":4417,"Ġstructure":4418,"Input":4419,"Ġloading":4420,"ĠOrder":4421,"polls":4422,"VERTICAL":4423,"äº":4424,"Ġsignals":4425,"executable":4426,"ĠRange":4427,"Static":4428,"Ġ517":4429,"built":4430,"sunburst":4431,"Ġenv":4432,"Ġfilename":4433,"utton":4434,"Ġreverse":4435,"Ġmap":4436,"ĠCI":4437,"ends":4438,"ĠOut":4439,"ĠOSM":4440,"Ġdirectories":4441,"Ġacross":4442,"irevisionValidator":4443,"Wrappers":4444,"dal":4445,"failed":4446,"decode":4447,"Ġregistered":4448,"~~~~~~~~~~~~~~~~":4449,"ĠOpenLayersWidget":4450,"Decorator":4451,"Rename":4452,"cauto":4453,"target":4454,"hoverformatValidator":4455,"\"}),<":4456,".\")<":4457,"MySQL":4458,"mory":4459,"Ġreprodu":4460,"conversion":4461,"Ġmeans":4462,"super":4463,"ency":4464,"mysite":4465,"ĠIntended":4466,"Float":4467,"Ġwell":4468,"ĠLab":4469,"Ġstep":4470,"lamb":4471,"provider":4472,"Individual":4473,"Protocol":4474,"Ġdir":4475,"]+":4476,"Ġappend":4477,"ords":4478,"Ġindependent":4479,"Ġcrop":4480,"bol":4481,"splom":4482,"iterable":4483,"scattercarpet":4484,"0011":4485,"Ġexecution":4486,"cached":4487,"ĀĀ":4488,"regex":4489,"Ġ\"*":4490,"Ġbuiltin":4491,"'),":4492,"filters":4493,"compile":4494,"theme":4495,"({":4496,"]])":4497,"gress":4498,"~<":4499,"ism":4500,"opts":4501,"ado":4502,"Invok":4503,"BBBB":4504,"'):<":4505,"Ġhostname":4506,"Ġcfg":4507,"make":4508,"ĠIANA":4509,"icknessValidator":4510,"tube":4511,"pyx":4512,"'.<":4513,"got":4514,"Ġdeploy":4515,"transactions":4516,"RENT":4517,"slide":4518,"__.__":4519,"trics":4520,"scatterternary":4521,"Ġimplemented":4522,"ImageField":4523,"IZERS":4524,"ributed":4525,"onicalize":4526,"AreaField":4527,"dcn":4528,"tty":4529,"Ġadapter":4530,"Ġenvironment":4531,"Def":4532,"note":4533,"Ġsmall":4534,"Ġpurposes":4535,"Ġthey":4536,"Reverse":4537,"Quest":4538,"antic":4539,"****":4540,"delta":4541,"MA":4542,"Ġmath":4543,"ĠTime":4544,"Ġav":4545,"cord":4546,"streamtube":4547,"ĠExtend":4548,"finished":4549,"Bit":4550,"Use":4551,"Ġzip":4552,"Ġsort":4553,"Ġnode":4554,"ĠFlask":4555,"Administr":4556,"ĠCustomUser":4557,"Activ":4558,"Ġsets":4559,"Constants":4560,"spatial":4561,"SEP":4562,"Ġgzip":4563,"Ġgeometry":4564,"CURRENT":4565,"man":4566,"na":4567,"',)<":4568,"ĠHelper":4569,"colle":4570,"Ġwrapper":4571,"agin":4572,"RAND":4573,"cone":4574,"Ġmigration":4575,"Ġodoo":4576,"ĠCh":4577,"ĠFunc":4578,"ĠEnsure":4579,"Ġnothing":4580,"chanism":4581,"generator":4582,"\">":4583,"99":4584,"dcontour":4585,"found":4586,"argl":4587,"scatterpol":4588,"Ġrestart":4589,"problems":4590,"scatterpolargl":4591,"CON":4592,"total":4593,"###":4594,"ĠSitemap":4595,"ĠCommon":4596,"Ġradio":4597,"ĠOnly":4598,"ILT":4599,"strip":4600,"ĠPages":4601,"Ġchecking":4602,"ĠÐ²":4603,"Ġmechanism":4604,"SERIAL":4605,"signing":4606,"ĠDocumentation":4607,"returns":4608,"producer":4609,"Code":4610,"typ":4611,"elif":4612,"temp":4613,"present":4614,"filesystem":4615,"BUILT":4616,"raster":4617,"Geometry":4618,"Item":4619,"factor":4620,"ĠQ":4621,"elp":4622,"ĠTEMPLATE":4623,"admindocs":4624,"ĠÐ¸":4625,"Docs":4626,"Ġmysite":4627,"spatialite":4628,"RANDOM":4629,"BUILTIN":4630,"\").":4631,"Pick":4632,"geometries":4633,"Ġinspect":4634,"BaseDatabaseFeatures":4635,"ĠSeparator":4636,"splitter":4637,"NamedTuple":4638,"Ġiterables":4639,"ĠINSTALLED":4640,"Creates":4641,"ĠKMZSitemap":4642,"ĠKMLSitemap":4643,"DNS":4644,"Now":4645,"Sessions":4646,"Ġnamespace":4647,"Ġassets":4648,"Ġaix":4649,"Remove":4650,"optimize":4651,"MiddlewareMixin":4652,"ĠEmailBackend":4653,"safestring":4654,"ĠORM":4655,"ĠMiddlewareMixin":4656,"Ġapart":4657,"lambda":4658,"SERIALIZERS":4659,"Per":4660,"kml":4661,"Ġarr":4662,"replace":4663,"Ġtree":4664,"Ġcirc":4665,"ĠSessions":4666,"formsets":4667,"BaseEmailBackend":4668,"ĠBaseDatabaseFeatures":4669,"ĠBaseEmailBackend":4670,"syndication":4671,"Profile":4672,"Ġoptionally":4673,"ĠResolver":4674,"ĠStaticFilesConfig":4675,"Question":4676,"35":4677,"CVS":4678,"KEN":4679,"zily":4680,"ãģ":4681,"Ġar":4682,"ĠSuspicious":4683,"ĠMaps":4684,"fixer":4685,"fixup":4686,"Ġserving":4687,"Result":4688,"Ġlazily":4689,"Ġquerystring":4690,"Ġoverlay":4691,"ĠNoReverse":4692,"Ġaccessing":4693,"Ġcollectstatic":4694,"æĺ¯":4695,"ĠNoReverseMatch":4696,"cing":4697,"humanize":4698,"Ġtamp":4699,"geos":4700,"conform":4701,"=\"{}":4702,"Ġfol":4703,"Ġcouple":4704,"Prepare":4705,"Exceptions":4706,"ĠConsole":4707,"products":4708,"ĠLogin":4709,"ParseError":4710,"Invokes":4711,">'''<":4712,"GZipMiddleware":4713,"PagesConfig":4714,"Syndication":4715,"ToField":4716,"gdal":4717,"hone":4718,"sa":4719,"wrapped":4720,"Ġqu":4721,"ĠGIS":4722,"ĠJSONSerializer":4723,"Ġslows":4724,"forward":4725,"ĠSyndication":4726,"parently":4727,"ĠLiveServerTestCase":4728,"ĠPickleSerializer":4729,"ĠGZipMiddleware":4730,"WSGIHandler":4731,"Ġevent":4732,"Ġpydispatch":4733,"subqueries":4734,"PyDispatcher":4735,"SiteMiddleware":4736,"middlewaretoken":4737,"csrfmiddlewaretoken":4738,"FilesystemLoader":4739,"ĠStaticLiveServerTestCase":4740,"ĠSiteAdmin":4741,"ĠSiteMap":4742,"Ġcontenttypes":4743,"ĠMultiLine":4744,"ĠGDAL":4745,"Heavi":4746,"Ġtransparently":4747,"SessionKey":4748,"TemplateCommand":4749,"ĠTemplateCommand":4750,"ĠFilesystemLoader":4751,"Ġoptimizer":4752,"ĠGeometryCollection":4753,"ĠDisallowedModelAdminLookup":4754,"ĠDisallowedModelAdminToField":4755,"boundfield":4756,"ĠInvalidSessionKey":4757,"ĠAdminDocs":4758,"ĠDummyDatabaseFeatures":4759,"ĠFlatPagesConfig":4760,"Ġdispatching":4761,"ĠContentTypes":4762,"Ġindicates":4763,"ĠCurrentSiteMiddleware":4764,"Originally":4765,"Administrative":4766,"Ġgzips":4767,"ĠSessionsConfig":4768,"ĠSuspiciousSession":4769,"Ġtampered":4770,"PrepareProtocol":4771,"ĠGISConfig":4772,"ĠSyndicationConfig":4773,"ĠSiteMapsConfig":4774,"Heavily":4775,"ĠAdminDocsConfig":4776,"Humanize":4777,"WKTAdapter":4778,"ipython":4779,"warnings":4780,"},":4781,"rep":4782,"ĠAPP":4783,"ĠAreaField":4784,"ĠHumanize":4785,"ĠBaseGeometry":4786,"ĠStack":4787,"SQLite":4788,"Tests":4789,"ĠMySQLDatabaseWrapper":4790,"ĠPointField":4791,"ĠPolygonField":4792,"ĠDistanceField":4793,"ĠRedirectAdmin":4794,"ĠRedirectsConfig":4795,"ĠGEOSBase":4796,"DistanceField":4797,"Redirects":4798,"ĠLineStringField":4799,"ĠGeometryField":4800,"ĠMultiPointField":4801,"ĠMultiPolygonField":4802,"KMZSitemap":4803,"KMLSitemap":4804,"ĠSpatiaLiteClient":4805,"ĠSpatiaLiteAdapter":4806,"ĠRandomUUID":4807,"ĠTransactionNow":4808,"ĠOSMWidget":4809,"MySQLDatabaseWrapper":4810,"ĠMultiLineStringField":4811,"ĠGDALBase":4812,"ĠGeometryCollectionField":4813,"ĠHumanizeConfig":4814,"ĠBaseGeometryWidget":4815,"cc":4816,"mac":4817,"ĠTask":4818,"ĠSign":4819,"angleValidator":4820,"CICharField":4821,"ĠCICharField":4822,"grouping":4823,"CITextField":4824,"CIEmailField":4825,"savepoints":4826,"ĠCITextField":4827,"ĠCIEmailField":4828,"\">',<":4829,"=\"{}\">',<":4830,"san":4831,"ĠDJANGO":4832,"ety":4833,"Ġ2019":4834,"NameValidator":4835,"databases":4836,"ĠNameValidator":4837,"Ġdecorators":4838,"ould":4839,"Ġmanager":4840,"ftware":4841,"Ġgrouping":4842,";<":4843,"aw":4844,"location":4845,"ĠLink":4846,"ĠRanges":4847,"Ġhist":4848,"åŃĹ":4849,"ĠKeyboard":4850,"Hook":4851,"ĠAn":4852,"BaseSerializer":4853,"ĠBaseSerializer":4854,"ĠÐ´":4855,"ĠStatementSplitter":4856,"StatementSplitter":4857,"ĠFilterStack":4858,"FilterStack":4859,"ĠSQLParseError":4860,"ĠRangeSerializer":4861,"lint":4862,"ids":4863,"Ġmatch":4864,"ĠAc":4865,"Ġwould":4866,"sym":4867,"templatesrcValidator":4868,"tilities":4869,"So":4870,"Ġlike":4871,"Ġbasename":4872,"velop":4873,"tuple":4874,"Ġ--":4875,"ied":4876,"verter":4877,"strict":4878,"intersection":4879,"callback":4880,"rai":4881,"service":4882,"Ġorder":4883,"()))<":4884,"Ġscreen":4885,"Ġ2006":4886,"Com":4887,"æĪ":4888,"ĠSimple":4889,"ĠMy":4890,"ĠComment":4891,"Ġreproducing":4892,"Ġ'\\":4893,"ĠĠĠĠĠĠĠĠĠĠ":4894,"BaseDatabaseClient":4895,"ĠBaseDatabaseClient":4896,"OpacityValidator":4897,"ĠOpacityValidator":4898,"call":4899,"Ġcached":4900,"char":4901,"ĠNamedTuple":4902,"SLASH":4903,"NBit":4904,"scattermapbox":4905,"0003":4906,"ASGIHandler":4907,"Ġcontextlib":4908,"ResNet":4909,"]),<":4910,"water":4911,"Ġsrc":4912,"Ġnn":4913,"ubl":4914,"afety":4915,"extensions":4916,"Ġmatplotlib":4917,"metric":4918,"Ġfl":4919,"Ġlambda":4920,"Ġ'''<":4921,"45":4922,"NU":4923,"Optional":4924,"ypto":4925,"appConfig":4926,"traceback":4927,"maxValidator":4928,"Ġprotection":4929,"':'":4930,"cmdline":4931,"(),<":4932,"accounts":4933,"unsafe":4934,"ĠMo":4935,"Ġlst":4936,"Ġ32":4937,"Ġproduct":4938,"Ag":4939,"demo":4940,"after":4941,"vote":4942,"FPN":4943,"other":4944,"pc":4945,"Ġ//":4946,"Ġdebugging":4947,"Ġdisables":4948,"metadata":4949,"RemoveField":4950,"Event":4951,"ones":4952,"Ġsafety":4953,"tickval":4954,"valsValidator":4955,"valssrcValidator":4956,"Ġteam":4957,"ĠResponse":4958,"BuiltinJSONField":4959,"XValidator":4960,"yles":4961,"iff":4962,"ĠBuiltinJSONField":4963,"ĠBadRequest":4964,"ĠID":4965,"pretty":4966,"ĠXValidator":4967,"Ġoptimization":4968,"Ġposition":4969,"Activator":4970,"BgcolorValidator":4971,"BadRequest":4972,"\\.":4973,"ius":4974,"æī":4975,"icer":4976,"unique":4977,"lenValidator":4978,"MEDI":4979,"prefixValidator":4980,"ecutor":4981,"={'":4982,"Ġ512":4983,"Ġrect":4984,"aml":4985,"Ġpassword":4986,"addHandler":4987,"Default":4988,"Ġshim":4989,"Ġexcluded":4990,"Block":4991,"å¤":4992,"Ġcom":4993,"Ġ50":4994,"Ġpick":4995,"minus":4996,"address":4997,"video":4998,"Change":4999,"ategorical":5000,"suffixValidator":5001,"å¯¹":5002,"Factory":5003,"access":5004,"poly":5005,"ĠItem":5006,"Ġinterrupted":5007,"Ġ72":5008,"Defines":5009,"60":5010,"Sync":5011,"Ġsy":5012,"ĠNorm":5013,"tickValidator":5014,"mission":5015,"geography":5016,"contextmanager":5017,"(\"-\"":5018,"rupt":5019,"abledValidator":5020,"Interrupted":5021,"gcolorsrcValidator":5022,"ickwidthValidator":5023,"ĠSessionInterrupted":5024,"HR":5025,"YValidator":5026,"sn":5027,"ension":5028,"Ġpush":5029,"Ġredirection":5030,"Ġnicer":5031,"ĠSITE":5032,"posts":5033,"ĠYValidator":5034,"ĠCommonMiddleware":5035,"ĠAPPEND":5036,"__()<":5037,"interval":5038,"contourcarpet":5039,"denied":5040,"ĠABC":5041,"pyxl":5042,")\"\"\"<":5043,"*\",":5044,"asrc":5045,"ingle":5046,"nsity":5047,"Ġprevent":5048,"Timer":5049,"fall":5050,"signals":5051,"struct":5052,"eref":5053,"ĠPygments":5054,"Interrupt":5055,"DCN":5056,"Equal":5057,"WidthValidator":5058,"å°":5059,"styles":5060,"Ġsk":5061,"())":5062,"ĠWidthValidator":5063,"SI":5064,"Version":5065,"az":5066,"Ġblog":5067,").\"\"\"<":5068,"ĠÐº":5069,"Ġsqlalchemy":5070,"sankey":5071,":`":5072,"ros":5073,"Ġregion":5074,"cats":5075,"oracle":5076,"annot":5077,"ĠBgcolorValidator":5078,"ĠUtilities":5079,"Box":5080,"ÑģÑĤ":5081,"RAY":5082,"exponentValidator":5083,"ĠKeyboardInterrupt":5084,"ç¬":5085,"Ġawait":5086,"ĠMat":5087,"Ġoff":5088,"foo":5089,"Ð°ÑĤ":5090,"è¡Į":5091,"Min":5092,"density":5093,"uto":5094,"Conv":5095,"Conn":5096,"contextlib":5097,"MEDIA":5098,"sw":5099,"tensor":5100,"Ġ~~~~~~~~~~~~~~~~":5101,"inside":5102,"coords":5103,"pygments":5104,"ĠId":5105,"ticksValidator":5106,"typing":5107,"Ġdcn":5108,"very":5109,"serv":5110,"dim":5111,"Ġauto":5112,"IO":5113,"Len":5114,"Null":5115,"midValidator":5116,"vt":5117,"orical":5118,"revision":5119,"Ġtimer":5120,"pos":5121,"autoValidator":5122,"Ġabc":5123,"pie":5124,"versescaleValidator":5125,"oU":5126,"APIView":5127,"namic":5128,"67":5129,"Node":5130,"nx":5131,"ps":5132,"sizes":5133,"sleep":5134,"rec":5135,"ÑĢÐµ":5136,"Messages":5137,"Tester":5138,"ticklabelsValidator":5139,"Ð¹":5140,"ĠSc":5141,"Ġexample":5142,"Api":5143,"EAD":5144,"Push":5145,"git":5146,"room":5147,"copy":5148,"Ġfallback":5149,"groupValidator":5150,"Tools":5151,"FontValidator":5152,"ĠFontValidator":5153,"Ġ&":5154,"ĠÑ":5155,"Ġsome":5156,"Ġtotal":5157,"Ġlabel":5158,"ListView":5159,"Ġword":5160,"ĠColumn":5161,"Ġcircular":5162,"(-":5163,"1000":5164,"Ġ:<":5165,"ĠRegion":5166,"Inline":5167,"Ġdocumentation":5168,"Format":5169,"axisValidator":5170,"heatmapgl":5171,"paratethousandsValidator":5172,"agination":5173,"DB":5174,"Le":5175,"clature":5176,"herit":5177,"ãĢ":5178,"elapsed":5179,"Ġ\\<":5180,"Ġ~~~~~~~~~~~~~~~~~<":5181,"By":5182,"Tensor":5183,"wt":5184,"ĠHome":5185,"Ġlogger":5186,"sync":5187,"envs":5188,"NullHandler":5189,"38":5190,"SizesrcValidator":5191,"tt":5192,"learn":5193,"ĠSizesrcValidator":5194,"etasrcValidator":5195,"dataValidator":5196,"ixel":5197,"datasrcValidator":5198,"menclature":5199,"sizesrc":5200,"90":5201,"904":5202,"Web":5203,"ipp":5204,"ario":5205,"ront":5206,"Ġ>>>":5207,"Ð¾Ð´":5208,"rticle":5209,"waterfall":5210,"Ġdeform":5211,"master":5212,"urlconf":5213,"ATH":5214,"Body":5215,"ĠComp":5216,"ĠFileCache":5217,"è®":5218,"onent":5219,"strument":5220,"ĠRedisCache":5221,"ĠPytest":5222,"VisibleValidator":5223,"ats":5224,"stal":5225,"icator":5226,"ctest":5227,"upport":5228,"Ġfast":5229,"Ġ13":5230,"Ġgo":5231,"Ġnomenclature":5232,"ĠVisibleValidator":5233,"ĠUserCreationForm":5234,"download":5235,"...)<":5236,"ä¹":5237,"åĬ":5238,"removed":5239,"Ð¾ÑĢ":5240,"Ġrectangular":5241,"Char":5242,"Marker":5243,"Sc":5244,"contact":5245,"viewsets":5246,"tickmode":5247,"soft":5248,"weight":5249,"Ð²Ðµ":5250,"toolk":5251,"åĽ":5252,"Ġfont":5253,"(%(":5254,"55":5255,"batch":5256,"ning":5257,"zer":5258,"mot":5259,"('/":5260,"Ġserializer":5261,"words":5262,"Oracle":5263,"ĠNormally":5264,"ĠPytestTester":5265,"center":5266,"score":5267,"mount":5268,"Ġ')]<":5269,"Ġ(...)<":5270,"Ġeval":5271,"Ġpylint":5272,"ĠÐ½":5273,"assertEqual":5274,"Ġhistorical":5275,"hint":5276,"Ġ]))<":5277,"alle":5278,"Ġsign":5279,"Auto":5280,"detection":5281,"non":5282,"state":5283,"omatic":5284,"subpackage":5285,"detect":5286,"Ġencoding":5287,"ChangeForm":5288,"densitymapbox":5289,"stand":5290,"loud":5291,"Ġnumbers":5292,"ntax":5293,"projects":5294,"Ð¸Ñģ":5295,"evaluation":5296,"ignsrcValidator":5297,"MaxpointsValidator":5298,"Ġage":5299,"route":5300,"click":5301,"ĠMaxpointsValidator":5302,"ARRAY":5303,"Ġ160":5304,"DetailView":5305,"aaxis":5306,"baxis":5307,"ores":5308,"release":5309,"elery":5310,"outside":5311,"()\"<":5312,"BaseModel":5313,"ĠWeb":5314,"subquery":5315,"ĠArraySubquery":5316,"ĠSubquery":5317,"egendrank":5318,"abstractmethod":5319,"ĠString":5320,"egendrankValidator":5321,"fp":5322,"mid":5323,"Ġtask":5324,"ĠColor":5325,"ized":5326,"ĠEnum":5327,"\":\")<":5328,"Ġprimary":5329,"Ġ\"\"<":5330,"Ġflake":5331,"300":5332,"oh":5333,"err":5334,"connection":5335,">{":5336,"~\"]<":5337,"secret":5338,"logs":5339,"verage":5340,"ibility":5341,"Ġ\"__\"<":5342,"ĠOracleDatabaseWrapper":5343,"Ġopenpyxl":5344,"ickness":5345,"Ġ\".*\",":5346,"choroplethmapbox":5347,"Ġ\"*~\"]<":5348,"OracleDatabaseWrapper":5349,"Category":5350,"IP":5351,"Task":5352,"ov":5353,"Ð±":5354,"åº":5355,"Ġad":5356,"ĠSh":5357,"Ġimg":5358,"mber":5359,"Ġprice":5360,"compatible":5361,"curity":5362,"29":5363,"Bot":5364,"Package":5365,"PATH":5366,"})":5367,"Ġhead":5368,"insert":5369,"Ġplt":5370,"Ġ')<":5371,"Ġinstance":5372,"spath":5373,"Ġident":5374,"CT":5375,"{'":5376,"yper":5377,"Fix":5378,"Ġallauth":5379,"ather":5380,"Ġtodo":5381,"ause":5382,"åĨ":5383,"éĩ":5384,"send":5385,"routers":5386,"tasks":5387,"lue":5388,"icorn":5389,"uler":5390,"ĠIPython":5391,"lengthsrcValidator":5392,"Ġcontains":5393,"ABASE":5394,"ordercolorsrcValidator":5395,"'],<":5396,"Ġgenerate":5397,"è¾":5398,"viol":5399,"ĠCre":5400,"parcats":5401,"indicator":5402,"\")]<":5403,"ĠAdd":5404,"Ġautomatic":5405,"tings":5406,"ABC":5407,"basic":5408,"dantic":5409,"olo":5410,"Read":5411,"Ġstacklevel":5412,"parateBody":5413,"enchmark":5414,"sender":5415,"parateBodyFileCache":5416,"parcoords":5417,"news":5418,"providers":5419,"RenameField":5420,"mean":5421,"Ġ\"\\":5422,"absolute":5423,"ift":5424,"uob":5425,"transform":5426,"Users":5427,"stalled":5428,"eded":5429,"patch":5430,"Ġmd":5431,"linecolorValidator":5432,"Ġfilters":5433,"socialaccount":5434,"CRE":5435,"Found":5436,"Ġidx":5437,"TOKEN":5438,"ĠMessage":5439,"!\")<":5440,"\"),":5441,"security":5442,"arse":5443,"itch":5444,"Ġdump":5445,"ssl":5446,"isplay":5447,"Grid":5448,"ĠDict":5449,"Ġ17":5450,"plt":5451,"2701":5452,"website":5453,"BordercolorValidator":5454,"dr":5455,"driver":5456,"ful":5457,"rpn":5458,"icro":5459,"Ġmask":5460,"unittest":5461,"ĠBordercolorValidator":5462,"Ġroi":5463,"normal":5464,"Ġautomatically":5465,":%":5466,">/\",":5467,"Of":5468,"bu":5469,"ĠLen":5470,"Ġlib":5471,"TokenValidator":5472,"ĠTokenValidator":5473,"On":5474,"ca":5475,"ler":5476,"Ġutils":5477,"ĠProject":5478,"orderwidthValidator":5479,"åħ¥":5480,"ĠMessagesConfig":5481,"memory":5482,"minal":5483,"Open":5484,"Ð»Ñı":5485,"PL":5486,"Ã©":5487,"ider":5488,"ural":5489,"based":5490,"Ġpoints":5491,"*.":5492,"br":5493,"report":5494,"Ġmm":5495,"Ġprogram":5496,"staticmethod":5497,"ĠDataFrame":5498,"My":5499,"pen":5500,"ratio":5501,"Ġstatus":5502,"quare":5503,"company":5504,"required":5505,"infosrcValidator":5506,"gor":5507,"ipy":5508,"kt":5509,"reshape":5510,"ci":5511,"Ġ)":5512,"Ġ\"+":5513,"Ġbot":5514,"SERVER":5515,"violin":5516,"cart":5517,"dp":5518,"uper":5519,"('_":5520,"ĠBo":5521,"Ġ['./":5522,"Ġurllib":5523,"SyncBN":5524,"toolkits":5525,"uobi":5526,"-<":5527,"CE":5528,"Ġmultip":5529,"abspath":5530,"Ġact":5531,"022701":5532,"Ġ[\".":5533,"Ġbook":5534,"320":5535,"books":5536,"bottom":5537,"ogle":5538,"emp":5539,"render":5540,"Ġmpl":5541,"real":5542,"ulator":5543,"Ġcustom":5544,"ĠAxes":5545,"duce":5546,"ets":5547,"ĠUsersConfig":5548,"velopment":5549,"31":5550,"One":5551,"Pl":5552,"dout":5553,"mplex":5554,"APIResource":5555,"Ġ...]<":5556,"End":5557,"FamilysrcValidator":5558,"GN":5559,"ga":5560,"ãĤ":5561,"ason":5562,"cos":5563,"Ġsize":5564,"thread":5565,"ĠAbstract":5566,"ĠMin":5567,"ĠFamilysrcValidator":5568,"ĠĠĠĠĠĠĠĠĠĠĠĠĠ":5569,"fast":5570,"familysrc":5571,"ä¸Ģä¸ª":5572,"/'":5573,"QU":5574,"cent":5575,"ĠĠĠĠčĊ":5576,"sec":5577,"icles":5578,"cost":5579,"unch":5580,"canonicalize":5581,"Ġavailable":5582,"No":5583,"em":5584,"Ġkwargs":5585,"inherit":5586,"rect":5587,"Ġnet":5588,"nome":5589,"Mo":5590,"lip":5591,"shar":5592,"ãĥ":5593,"unter":5594,"ĠTwisted":5595,"Ġcur":5596,"Ġexist":5597,"Student":5598,"urrency":5599,"plugins":5600,"annotation":5601,"pa":5602,"Ġ'))<":5603,"riv":5604,"Ġglobal":5605,"ä¸Ń":5606,"ĠRemovedIn":5607,"dated":5608,"gc":5609,"job":5610,"åľ":5611,"utor":5612,"eline":5613,"Ġlang":5614,"Ġdirname":5615,"ĠRemovedInDjango":5616,"513":5617,"nest":5618,"ĠApi":5619,"ÑĢÐ¾Ð":5620,"raises":5621,"gap":5622,"help":5623,"roll":5624,"Ġsave":5625,"ableAPIResource":5626,"Ġstages":5627,"Ġstudent":5628,"ĠUserAdmin":5629,"[']":5630,"ä¸º":5631,"Ġtranslate":5632,"FILE":5633,"colorscaleValidator":5634,"46":5635,"TYPE":5636,"example":5637,"esc":5638,"Ġgraph":5639,"ROOT":5640,"enable":5641,"Ġpydantic":5642,"ĠÐŁ":5643,"Ġneeded":5644,"skip":5645,"POST":5646,"Ġcr":5647,"Ġ769":5648,"Ġ513":5649,"Ð»Ð°":5650,"stdin":5651,"ValueValidator":5652,"card":5653,"}/":5654,"åĢ":5655,"atibility":5656,"Ġpage":5657,"Converter":5658,"versions":5659,"Ġyear":5660,"Column":5661,"+=":5662,"Option":5663,"cud":5664,"rient":5665,"iou":5666,"layers":5667,"ĠBaseModel":5668,"LI":5669,"Simple":5670,"rot":5671,"Ġmark":5672,"todict":5673,"ĠPret":5674,"otstr":5675,"ĠGH":5676,"labelstep":5677,"ĠVER":5678,"funnelarea":5679,")/":5680,"TR":5681,"limit":5682,"irement":5683,"ä½¿":5684,"Ġcalc":5685,"otstrap":5686,"WS":5687,"sampler":5688,"Ġæ":5689,"mentation":5690,"ĠNumber":5691,"body":5692,"Ġhuobi":5693,"Update":5694,"math":5695,"Ġfi":5696,"____":5697,"Ġversions":5698,"2019":5699,",\"":5700,"bb":5701,"gle":5702,"exists":5703,"cha":5704,"Ġ128":5705,"ourse":5706,"ĠRegistry":5707,"CHE":5708,"legendValidator":5709,"Distribution":5710,"æĸĩ":5711,"$',":5712,"39":5713,"bit":5714,"dd":5715,"(\"/":5716,"Ġ-=":5717,"ĠUse":5718,"ModelViewSet":5719,"Ġabout":5720,"Ġmod":5721,"Ġ256":5722,"PageView":5723,"detectron":5724,"Bar":5725,"categor":5726,"lex":5727,"come":5728,"entic":5729,"Ġ[(\"":5730,"ĠRun":5731,"Ġlocal":5732,"ircle":5733,"rientation":5734,"'{":5735,"dash":5736,"ari":5737,"stock":5738,"Ġright":5739,"dio":5740,"NotFound":5741,"!<":5742,"Di":5743,"FF":5744,"OL":5745,"gre":5746,"ython":5747,"Ġho":5748,"moo":5749,"ĠSec":5750,"ĠMarker":5751,"Ġtesting":5752,"Alchemy":5753,"black":5754,"Ac":5755,"photo":5756,"rome":5757,"Ġsal":5758,"track":5759,"attrs":5760,"hoverformat":5761,"menu":5762,"Ġplugins":5763,"digits":5764,"gorith":5765,"ä½¿çĶ¨":5766,"IoU":5767,"pickle":5768,"rl":5769,"uplic":5770,"editor":5771,"Ġframe":5772,"ĠĠĠĠĠĠĠĠčĊ":5773,"IDI":5774,"ä¸į":5775,"Ġuuid":5776,"egendgroupValidator":5777,"}\"<":5778,"onnx":5779,"olve":5780,"Boto":5781,"ifiers":5782,"ART":5783,"ensure":5784,"ĠTOML":5785,"Iter":5786,"Toml":5787,"Window":5788,"city":5789,"rate":5790,"Ġcommon":5791,"thickness":5792,"ĠAuto":5793,"hoice":5794,"linewidthValidator":5795,"qdm":5796,"Ġallow":5797,"compiler":5798,"ĠExtension":5799,"howscaleValidator":5800,".*":5801,"33":5802,"97":5803,"Dig":5804,"mut":5805,"}')<":5806,"Ñħ":5807,"åį":5808,"Ġwidget":5809,"sparse":5810,"Requ":5811,"readline":5812,"phone":5813,"ACK":5814,"DATABASE":5815,"Abstract":5816,"_=":5817,"ah":5818,"scal":5819,"ti":5820,"Ġdig":5821,"unicorn":5822,"Ġcar":5823,"policy":5824,"UserAdmin":5825,"Ġ1996":5826,"Ġsorted":5827,"ĠPretend":5828,"uuid":5829,"cover":5830,"Ġlil":5831,"Ð»ÑĮ":5832,"Ġ60":5833,"requires":5834,"DateField":5835,"wd":5836,"Ġtf":5837,"outline":5838,"ParseFloat":5839,"tomli":5840,"HOST":5841,"æİ":5842,"æĹ":5843,"los":5844,"Ġtt":5845,"Ġtwo":5846,"power":5847,"Ġratio":5848,"ĠRo":5849,"MODEL":5850,"Ð¸ÑĤÐµ":5851,"Subplot":5852,"PRO":5853,"Sum":5854,"½æķ°":5855,"registry":5856,"stick":5857,"Ġremove":5858,"Ġlength":5859,"Ġ2018":5860,"033":5861,"../":5862,"43":5863,"jpg":5864,"person":5865,"ting":5866,"Ġmer":5867,"Ġwt":5868,"åĩº":5869,"åĩ½æķ°":5870,"ĠBlogConfig":5871,"Mask":5872,"aj":5873,"åĮ":5874,"ins":5875,"Fill":5876,"è¡¨":5877,"rivate":5878,"backbone":5879,"names":5880,"clar":5881,"localhost":5882,"Ġlibrary":5883,"ĠValueValidator":5884,"ç¬¦":5885,"ĠMatrix":5886,"GH":5887,"SC":5888,"two":5889,"metrics":5890,"roi":5891,"Ġsl":5892,"document":5893,"Book":5894,"Ġ144":5895,"collect":5896,"è¾ĵ":5897,"aker":5898,"itys":5899,"less":5900,"ICE":5901,"Ġrow":5902,"Ġaccount":5903,"ContextBlock":5904,"payment":5905,"Ġwtforms":5906,"Norm":5907,"SideValidator":5908,"ground":5909,"assword":5910,"ĠSideValidator":5911,"change":5912,"eting":5913,"Ġglob":5914,"ugh":5915,"Ġabstract":5916,"Environment":5917,"OC":5918,"nb":5919,"ĠQuestion":5920,"ropy":5921,"Ġdj":5922,"htoken":5923,"ĠDAT":5924,"authtoken":5925,"sport":5926,"ODO":5927,"portfolio":5928,"Ġidentifiers":5929,"DS":5930,"Det":5931,"]]<":5932,"front":5933,"kes":5934,"idx":5935,"hot":5936,"Ġ1024":5937,"veal":5938,"Ġdoc":5939,"ĠWor":5940,"Settings":5941,"contours":5942,"small":5943,"rientationValidator":5944,"58":5945,"dj":5946,"xx":5947,"éĹ":5948,"Ġinto":5949,"Ġcor":5950,"vies":5951,"oll":5952,"mainloop":5953,"Ġleft":5954,"ublished":5955,"Link":5956,"itive":5957,"(\"\\":5958,"Ġstripe":5959,"'''":5960,"(?":5961,"bal":5962,"employee":5963,"starts":5964,"iment":5965,"repr":5966,"lements":5967,"Ġshow":5968,"Ġsimple":5969,"='').":5970,"bols":5971,"Ġdocument":5972,"minusValidator":5973,"AM":5974,"ftime":5975,"freq":5976,"va":5977,"Ġrepresent":5978,"export":5979,"ĠArticle":5980,"ĠGroup":5981,"scrib":5982,"ches":5983,"å®ļ":5984,"HRFPN":5985,")+":5986,"kit":5987,"ost":5988,"edia":5989,"commen":5990,"Ġutil":5991,"ĠWe":5992,"])))<":5993,"builder":5994,"ĠVERSION":5995,")-":5996,"crop":5997,"æ³":5998,"sequence":5999,"ina":6000,"Ġssl":6001,"ĠTestCase":6002,"Ġmethods":6003,"digit":6004,"å¯¹è":6005,"=\"\"":6006,"pvt":6007,"Ġtuple":6008,"cour":6009,"assign":6010,"Ġ10000":6011,"ainer":6012,"article":6013,"oratories":6014,"ĠLaboratories":6015,"æĪĲ":6016,"convert":6017,"exe":6018,"inputs":6019,"column":6020,"Ð²Ð°":6021,"Table":6022,"button":6023,"±¡":6024,"aceref":6025,"Ġcategory":6026,"strings":6027,"templateitemname":6028,"ĠFill":6029,"Ġ...<":6030,"ï¼ļ":6031,"counter":6032,"TemplateitemnameValidator":6033,"ĠTemplateitemnameValidator":6034,"ĠSQLAlchemy":6035,"ãĢĤ":6036,"å¯¹è±¡":6037,"\"}<":6038,"Label":6039,"Size":6040,"dtypes":6041,"hi":6042,"ka":6043,"ose":6044,"ze":6045,"terminal":6046,"oreConfig":6047,"ĠLe":6048,"ĠConn":6049,"Ġnetwork":6050,"WOR":6051,"ten":6052,"}:":6053,"upper":6054,"Delete":6055,"links":6056,"ĠfontTools":6057,"ohlc":6058,"gleValidator":6059,"rit":6060,"tcha":6061,"writer":6062,"erate":6063,"__))<":6064,"timezone":6065,"configure":6066,"Ġtypes":6067,"ffset":6068,"Ġusername":6069,"Ġcompiler":6070,"gistration":6071,"blue":6072,"'^":6073,"lvis":6074,"æł":6075,"ĠÑĩ":6076,"reveal":6077,"ĠDate":6078,"liance":6079,"Ġtrack":6080,"Ġdataclasses":6081,"Ġworld":6082,"icrosoft":6083,"Batch":6084,"play":6085,"asite":6086,"ceit":6087,"formats":6088,"Exp":6089,">>>>":6090,"Ġrouters":6091,"Ġfollow":6092,"candle":6093,"éĢ":6094,"Ġscore":6095,"trip":6096,"Ġcls":6097,"mag":6098,"Ġforward":6099,"dia":6100,"Ġsoftware":6101,"Ġresults":6102,"generated":6103,"æľī":6104,"Ġfastapi":6105,"PORT":6106,"RY":6107,"Title":6108,"ha":6109,"Ġrecommen":6110,"htc":6111,"duction":6112,"ĠBot":6113,"ĠYYY":6114,"Extr":6115,"Ġasyncio":6116,"Layer":6117,"macros":6118,"ĠYYYY":6119,":\",":6120,"UirevisionValidator":6121,"cd":6122,"element":6123,"ii":6124,"numbers":6125,"uirevision":6126,"ametr":6127,"Ġrec":6128,"ctive":6129,"Ġfreq":6130,"Ġlink":6131,"ĠUirevisionValidator":6132,"Address":6133,"AngleValidator":6134,"ä»¶":6135,"/'},<":6136,"Ar":6137,"Qt":6138,"Writer":6139,"`.<":6140,"easy":6141,"tab":6142,"vas":6143,"yaml":6144,"__'<":6145,"Ġplayer":6146,"Ġtag":6147,"Ġwheel":6148,"etch":6149,"Ġvinfo":6150,"diag":6151,"imum":6152,"Ġstrict":6153,"ĠEvent":6154,"Ġ440":6155,"MPORT":6156,"[:-":6157,"precate":6158,"OrderedDict":6159,"Ġrecommended":6160,"At":6161,"music":6162,"sq":6163,"Ġ$":6164,"secon":6165,"ars":6166,"bootstrap":6167,"Ġstore":6168,"ĠGet":6169,"ecause":6170,"Ġnome":6171,"åĪĹ":6172,"ĠNote":6173,"merge":6174,">{<":6175,"åľ¨":6176,"'],":6177,":-":6178,"Wor":6179,"fn":6180,"Ġext":6181,"ann":6182,"Ġ\"/":6183,"articles":6184,"ĠFix":6185,"legacy":6186,"Application":6187,"rowser":6188,"ĠTeam":6189,":\"))<":6190,"IANA":6191,"æį":6192,"att":6193,"rom":6194,"Ġincompatible":6195,"ĠSo":6196,"Ġdel":6197,"ĠRights":6198,"pretrain":6199,"neck":6200,"Ġinterval":6201,"Ġcompatibility":6202,"CreateModel":6203,"ukki":6204,"merce":6205,"ĀĀĀĀ":6206,"done":6207,"mi":6208,"ÑĨ":6209,"å½":6210,"Ġke":6211,"device":6212,"strftime":6213,"Ġwin":6214,"ysis":6215,"omb":6216,"ĠReserved":6217,"dentials":6218,"Ġtransform":6219,"Ð²ÐµÐ´":6220,"Ġdumps":6221,"ametrize":6222,"gau":6223,"Ġes":6224,"Ġsite":6225,"Ġdefine":6226,"pose":6227,"Ġcontrol":6228,"ĠPer":6229,"ĠUp":6230,"Ġthread":6231,"ATED":6232,"ixins":6233,"Ordered":6234,"randint":6235,"candlestick":6236,"XConverter":6237,"more":6238,"Ġarch":6239,"med":6240,"Ġembed":6241,"INT":6242,"Ð¾Ð»ÑĮ":6243,"startswith":6244,"54":6245,"Yukki":6246,"circle":6247,"Ġitems":6248,"__(_":6249,"Ġ'%":6250,"exec":6251,"Ġour":6252,"Ġ###":6253,"TTXConverter":6254,"Ġgre":6255,"dataclass":6256,"Ġruntime":6257,"Ġresources":6258,"ĠTomlOrdered":6259,"51":6260,"66":6261,"drop":6262,"kward":6263,"ackward":6264,"ulate":6265,"ild":6266,"ĠLabel":6267,"timestamp":6268,"AUTH":6269,"ĠÐ¾":6270,"ĠUserChangeForm":6271,"Ġgevent":6272,"ĠAccount":6273,"Blog":6274,"wkt":6275,"Ãº":6276,"ĠTag":6277,"Ġcall":6278,"ĠLibrary":6279,"Ġgunicorn":6280,"([\"":6281,"ĠTemplateView":6282,"ĠSignup":6283,"Comment":6284,"Agg":6285,"cuda":6286,"Gr":6287,"middle":6288,"Ġhost":6289,"mpy":6290,"edu":6291,"(\".":6292,"Ġwant":6293,"=[]<":6294,"ÐµÑĤ":6295,"ĠEnvironment":6296,"AxisError":6297,"folder":6298,"ä»¥":6299,"RoI":6300,"42":6301,"All":6302,"Wh":6303,"tc":6304,"ç±":6305,"ansport":6306,"Ġdataset":6307,"urity":6308,"Ġ''<":6309,"icks":6310,"timeError":6311,"activ":6312,"header":6313,"Ġthere":6314,"ÐµÐ½":6315,"ategy":6316,"åĢ¼":6317,"fit":6318,"glob":6319,"td":6320,"³ÑĢÐ°":6321,"inst":6322,"verify":6323,"ipes":6324,"Ġeach":6325,"Vide":6326,"missions":6327,"CNN":6328,".')<":6329,":\\":6330,"??":6331,"Function":6332,"Render":6333,"çĽ":6334,"stuff":6335,"ĠCheck":6336,"notes":6337,"Ð»Ð¸":6338,"upernet":6339,"/%":6340,"Can":6341,"Is":6342,"bind":6343,"ews":6344,"ja":6345,"jwt":6346,"ops":6347,"uess":6348,"ada":6349,"ĠIs":6350,"ĠĠĠĠĠĠĠĠĠĠĠĠĠĠ":6351,"ĠGrid":6352,"aded":6353,"################################":6354,"Ð½Ð¸Ðµ":6355,"Generator":6356,"ĠLoginViewSet":6357,"/{":6358,"/'<":6359,"Ġimports":6360,"acitys":6361,"ĠSparse":6362,"ĠPackage":6363,"parametrize":6364,"autocolorscale":6365,"Ġadmins":6366,"ready":6367,"acher":6368,"crud":6369,"Ð¼Ð°":6370,"events":6371,"endswith":6372,"allel":6373,"384":6374,"GET":6375,"Mode":6376,"multi":6377,"rm":6378,"Ġ}":6379,"Ġum":6380,"ara":6381,"ĠTitle":6382,"olls":6383,"ident":6384,"single":6385,"clean":6386,"GB":6387,"bn":6388,"åĿ":6389,"anal":6390,"ters":6391,"Ġtool":6392,"ialis":6393,"speed":6394,"ĠIMPORT":6395,"Ġpygame":6396,"BackendQT":6397,"symbol":6398,"Options":6399,"Max":6400,"eq":6401,"nms":6402,"ĠCourse":6403,"ĠIt":6404,"rong":6405,"irements":6406,"Ġinitial":6407,"Process":6408,"templatesrc":6409,"scaleValidator":6410,"ĠThicknessValidator":6411,"dflt":6412,"Ġdflt":6413,"scripts":6414,"ThicknessValidator":6415,"åŃĹç¬¦":6416,"ĠAnchor":6417,"SubplotidValidator":6418,"ĠIMPORTATION":6419,"JECT":6420,"rule":6421,"sv":6422,"Ġupdate":6423,"delet":6424,"ionary":6425,"ĠTODO":6426,"ptim":6427,"ĠPerson":6428,"SET":6429,"Install":6430,"Ġprovider":6431,"Start":6432,"))),<":6433,"æĸ¹":6434,"sco":6435,"some":6436,"å»":6437,"å¾":6438,"Ġapps":6439,"seq":6440,"Ġtensor":6441,"Ġtwisted":6442,"cook":6443,"telegram":6444,"adding":6445,"kernels":6446,"ĠValueError":6447,"offset":6448,"AP":6449,"wheel":6450,"Ġ64":6451,"__\":":6452,"pool":6453,"ĠREAD":6454,"ĠForm":6455,"Ġnow":6456,"Executor":6457,"Login":6458,"åı¯":6459,"ĠExp":6460,"strumentor":6461,"ĠCreated":6462,"Digite":6463,"Video":6464,"ialisable":6465,".',<":6466,"ATT":6467,"Sy":6468,"erator":6469,"(\"~":6470,"abs":6471,"Ġbecause":6472,"Policy":6473,"Ġmemo":6474,"Ġusage":6475,"TokenConfig":6476,"Ġdfs":6477,"ç±»":6478,"green":6479,"rary":6480,"uator":6481,"Ġredirect":6482,"Ġaio":6483,"pyi":6484,"Ġ21":6485,"lista":6486,"students":6487,"saved":6488,"Plugin":6489,"RS":6490,"_.":6491,"fl":6492,"feature":6493,"lder":6494,"ood":6495,"ynamic":6496,"æĿ":6497,"clu":6498,"Ġreplace":6499,"Ġnext":6500,"('*.":6501,"fileobj":6502,"ÑĢÐ¸":6503,"orders":6504,"findall":6505,"XXXX":6506,"COL":6507,"deletion":6508,"å»º":6509,"ru":6510,"ites":6511,"loc":6512,"Ġta":6513,"movie":6514,"Ġag":6515,"doctest":6516,"imen":6517,"Series":6518,"agent":6519,"IDIA":6520,",-":6521,"/__":6522,"blob":6523,"ä¼":6524,"ç½":6525,"stdout":6526,"heet":6527,"umns":6528,"ĠNV":6529,"ĠBe":6530,"imshow":6531,"ORM":6532,"pointcloud":6533,"0006":6534,"Stream":6535,"flag":6536,"TickvalsValidator":6537,"TickvalssrcValidator":6538,"ĠTickvalsValidator":6539,"ĠTickvalssrcValidator":6540,"ĠContact":6541,"åıĸ":6542,"2017":6543,"decimal":6544,"tickvals":6545,"tickvalssrc":6546,")}":6547,"yolo":6548,"æŀ":6549,"mob":6550,"Ġconvert":6551,"packed":6552,"idthsrcValidator":6553,"State":6554,"voice":6555,"ÑĩÐµ":6556,"mbedding":6557,"Ð¾Ð²Ð°":6558,"ĠREADME":6559,"ĠNVIDIA":6560,":',":6561,"Library":6562,"OP":6563,"bs":6564,"cast":6565,"ram":6566,"ÑĦ":6567,"ypt":6568,"untry":6569,"Ġclo":6570,"ĠClass":6571,"answer":6572,"scm":6573,"tention":6574,"Ġpreserve":6575,"rgb":6576,"88":6577,">'''":6578,"MIN":6579,"TickwidthValidator":6580,"aT":6581,"cnt":6582,"cursor":6583,"dtick":6584,"tickw":6585,"ĠJSON":6586,"orp":6587,"ĠTickwidthValidator":6588,"Ġback":6589,"shop":6590,"\")),<":6591,"20220":6592,"EnabledValidator":6593,"Ġloop":6594,"trollers":6595,"ĠEnabledValidator":6596,"={<":6597,"latest":6598,"lueprint":6599,"Ð²ÐµÐ´Ð¸ÑĤÐµ":6600,"tickwidth":6601,"Num":6602,"Rec":6603,"wise":6604,"Ã¡":6605,"ĠField":6606,"SECRE":6607,"umba":6608,"Ġ34":6609,"proj":6610,"Ġepoch":6611,"tickcolor":6612,"ticklen":6613,"tickformat":6614,"Ġdocs":6615,"aff":6616,"Ġpower":6617,"TickcolorValidator":6618,"TickformatValidator":6619,"TicklenValidator":6620,"ĠTickcolorValidator":6621,"ĠTickformatValidator":6622,"ĠTicklenValidator":6623,"Method":6624,"Ġmerge":6625,"Ġabstractmethod":6626,"SECRET":6627,"nl":6628,"alog":6629,"Ġrevision":6630,"Ġshar":6631,"tract":6632,"like":6633,"ticksuffix":6634,"pyplot":6635,"TicksuffixValidator":6636,"ĠTicksuffixValidator":6637,"generate":6638,"({\"":6639,"44":6640,"Pr":6641,"border":6642,"rb":6643,"war":6644,"å¹":6645,"alo":6646,"reverse":6647,"ĠCOR":6648,"ayer":6649,"commerce":6650,"__(*":6651,"Ġchat":6652,"Ġscipy":6653,"crypto":6654,"Ġdisable":6655,"77":6656,"pec":6657,"xel":6658,"ÐĴ":6659,"Ġct":6660,"ined":6661,"mpt":6662,"anim":6663,"iding":6664,"Ġmail":6665,"Ġmixins":6666,"ĠSystem":6667,"Ġdec":6668,"ĠĠĠĠĠĠĠĠĠ":6669,"ticktext":6670,"tickprefix":6671,"ticktextsrc":6672,"Ġmetric":6673,"TicktextValidator":6674,"TicktextsrcValidator":6675,"TickprefixValidator":6676,"ĠTicktextValidator":6677,"ĠTicktextsrcValidator":6678,"ĠTickprefixValidator":6679,"tinue":6680,"switch":6681,"labelstepValidator":6682,"Like":6683,"aint":6684,"gui":6685,"mq":6686,"¨¡":6687,"Ġhe":6688,"ences":6689,"reverses":6690,"ĠFast":6691,"plugin":6692,"RunPython":6693,"ÐºÐ°":6694,"Ġafter":6695,"è¿Ľ":6696,"Decimal":6697,"AA":6698,"DtickValidator":6699,"NticksValidator":6700,"dot":6701,"lon":6702,"oc":6703,"çİ":6704,"deprecate":6705,"Ġdif":6706,"constant":6707,"(\"%":6708,"anding":6709,"nticks":6710,"ĠDtickValidator":6711,"ĠNticksValidator":6712,"Ġservice":6713,"10000":6714,"ToMany":6715,"Ġcontained":6716,"åĪĽ":6717,"Ġ\"\"]),<":6718,"chool":6719,"å¼ı":6720,"enticated":6721,"Ġfollowing":6722,"ĠSignupViewSet":6723,"56":6724,":\")<":6725,"srid":6726,"tmp":6727,"zaxis":6728,"ĠView":6729,"Ġ},<":6730,"chart":6731,"istory":6732,"ĠReversescaleValidator":6733,"ERN":6734,"kernel":6735,"tickangle":6736,"heads":6737,"ReversescaleValidator":6738,"channel":6739,"ASS":6740,"TickangleValidator":6741,"ĠTickangleValidator":6742,"Todo":6743,"ä½ľ":6744,"disable":6745,"celery":6746,"ManyToMany":6747,"ĠÐ´Ð»Ñı":6748,"Ġactual":6749,"utorial":6750,"course":6751,"reversescale":6752,"åĪĽå»º":6753,">=":6754,"AWS":6755,"ier":6756,"language":6757,"rocess":6758,"anual":6759,"apy":6760,"unet":6761,"allauth":6762,"Ġexecute":6763,"dims":6764,"scores":6765,"authentication":6766,"Ġviewsets":6767,"Ġparam":6768,"))))<":6769,"showticklabels":6770,"lected":6771,"åĪ°":6772,"Ġsender":6773,"ĠShowticklabelsValidator":6774,"ShowticklabelsValidator":6775,"********":6776,"ManyToManyField":6777,"UD":6778,"lar":6779,"mult":6780,"Ġip":6781,"elcome":6782,"Ġregistry":6783,"Ġmid":6784,"ĠTk":6785,"ayment":6786,"ODE":6787,"library":6788,"Ġbody":6789,"Pool":6790,"ird":6791,"Union":6792,"================================":6793,")#":6794,"Optim":6795,"ZValidator":6796,"helper":6797,"long":6798,"multip":6799,"rename":6800,"separatethousand":6801,"Ġreason":6802,"upy":6803,"toml":6804,"ĠSeparatethousandsValidator":6805,"Tickfont":6806,"ĠTickfont":6807,"SeparatethousandsValidator":6808,"primary":6809,"ĠZValidator":6810,"vars":6811,"Ġsecond":6812,"EXT":6813,"Ġsympy":6814,"clarative":6815,"separatethousands":6816,"!!":6817,"POR":6818,"_(":6819,"bum":6820,"benchmark":6821,"dt":6822,"djang":6823,"lin":6824,"Ġio":6825,"asn":6826,"lead":6827,"Ġbet":6828,"ĠMicrosoft":6829,"Ġsecret":6830,"Ġgreen":6831,"acter":6832,"Ġ%(":6833,"raint":6834,"Ð½Ð°":6835,"relative":6836,"Ġenumerate":6837,"Ġrouter":6838,"æĸĩä»¶":6839,"IterBasedRunner":6840,"ĠRoom":6841,"Extractor":6842,"upyter":6843,"BgcolorsrcValidator":6844,"From":6845,"MetasrcValidator":6846,"PH":6847,"player":6848,"alt":6849,"ĠMetasrcValidator":6850,"ĠBgcolorsrcValidator":6851,"pred":6852,"ĠHello":6853,"optic":6854,"scheduler":6855,"captcha":6856,"TicksValidator":6857,"ĠTicksValidator":6858,"ĠMetaValidator":6859,"ltk":6860,"ĠCustomdataValidator":6861,"ĠCustomdatasrcValidator":6862,"datasrc":6863,"IZE":6864,"customdata":6865,"customdatasrc":6866,"bgcolorsrc":6867,"metasrc":6868,"CustomdataValidator":6869,"CustomdatasrcValidator":6870,"payload":6871,"MetaValidator":6872,"honeNumber":6873,"æİ¥":6874,"raintree":6875,"Build":6876,"Password":6877,"TI":6878,"bon":6879,"fresh":6880,"mt":6881,"mas":6882,"pal":6883,"pep":6884,"wik":6885,"Ġfix":6886,"ĠÑĥ":6887,"erc":6888,"licit":6889,"unit":6890,"Ġcelery":6891,"orest":6892,"Ġrand":6893,"Created":6894,"bboxes":6895,"----------------------------------------------------------------":6896,"ĠÑĩÐ¸Ñģ":6897,"ĠCORPOR":6898,"ĠCORPORATION":6899,"Access":6900,"BBox":6901,"PU":6902,"With":6903,"diff":6904,"pix":6905,"pandas":6906,"Ġ',":6907,"ĠRest":6908,"ĠBar":6909,"ORE":6910,"Env":6911,"DataFrame":6912,"Ġ2010":6913,"Ð½Ñĭ":6914,"ongo":6915,"ĠDistributed":6916,"dashboard":6917,"CL":6918,"GR":6919,"ImportError":6920,"LL":6921,"UidValidator":6922,"_<":6923,"ä¿":6924,"inference":6925,"inspect":6926,"arange":6927,"argspec":6928,"Ġsn":6929,"ĠUidValidator":6930,"AlterModel":6931,"ĠĠĠĠĠĠĠĠĠĠĠĠĠĠĠĠĠĠĠĠĠĠĠĠĠĠĠĠĠĠĠĠ":6932,"])[":6933,"tributes":6934,"legendonly":6935,"providing":6936,"æĹ¶":6937,"æ³ķ":6938,"orestframework":6939,"Ent":6940,"Please":6941,"eu":6942,"uate":6943,"|\\.":6944,"ĠÃ©":6945,"ons":6946,"complex":6947,"minexponent":6948,"ĠDec":6949,"holder":6950,"Ġcontinue":6951,"ĠPar":6952,"coloraxis":6953,"ialaxis":6954,"amer":6955,"Tickformatstop":6956,"ĠTickformatstop":6957,"Ġjoin":6958,"LOC":6959,"extractor":6960,"ĠDocument":6961,"ĠĠĠĠĠĠĠĠĠĠĠĠĠĠĠĠĠĠĠĠĠĠĠĠĠ":6962,"MinexponentValidator":6963,"ĠMinexponentValidator":6964,"Grant":6965,"araco":6966,"ç½®":6967,"djangorestframework":6968,")*":6969,"47":6970,"?)":6971,"aster":6972,"ek":6973,"lu":6974,"encoder":6975,"Ġ'_":6976,"ĠnÃº":6977,"ĠCar":6978,"Ġexit":6979,"uble":6980,"screen":6981,"Instrumentor":6982,"åıĤ":6983,"radialaxis":6984,"ornado":6985,"motive":6986,"rocessing":6987,")),":6988,"Support":6989,"ran":6990,"wb":6991,"ç®":6992,"Ġé":6993,"aligns":6994,"ital":6995,"idssrc":6996,"acao":6997,"Ġcmd":6998,"dbot":6999,"ĠRel":7000,"ndarray":7001,")))))<":7002,"Ġworkers":7003,"IdsValidator":7004,"IdssrcValidator":7005,"AlignsrcValidator":7006,"Transformer":7007,"ĠAlignsrcValidator":7008,"Connection":7009,"ĠIdsValidator":7010,"ĠIdssrcValidator":7011,"normalize":7012,"alignsrc":7013,"LegendrankValidator":7014,"Tag":7015,"We":7016,"tables":7017,"uch":7018,"Ġpprint":7019,"Ġdil":7020,"ypass":7021,"ĠCoreConfig":7022,"ĠLegendrankValidator":7023,"ĠBlueprint":7024,"Textfont":7025,"ĠTextfont":7026,"legendrank":7027,"ResourceReader":7028,"è¿Ļ":7029,"partment":7030,"ĠResourceReader":7031,">\\":7032,"Schema":7033,"Ð³":7034,"Ġ~":7035,"Ġextend":7036,"alth":7037,"ading":7038,"abels":7039,"uni":7040,"oline":7041,"rapy":7042,"dynamic":7043,"radius":7044,"Ġcolumn":7045,"Permission":7046,"Ġsigning":7047,"limited":7048,"!')<":7049,"\"/":7050,"Eval":7051,"Seg":7052,"browser":7053,"namelength":7054,"yproject":7055,"Ġbu":7056,"ĠCloud":7057,"arrays":7058,"0007":7059,"ĠÐ¼":7060,"ä¸²":7061,"Ġengine":7062,"224":7063,"ween":7064,"ordin":7065,"Ġcsv":7066,"Ġflag":7067,"Ġportfolio":7068,"ĠApiConfig":7069,"imension":7070,"85":7071,"89":7072,"RedisCache":7073,"XPR":7074,"gym":7075,"pan":7076,"æ¨¡":7077,"Ġest":7078,"restrict":7079,"unselected":7080,"mak":7081,"Ġsent":7082,"Ġgame":7083,"listdir":7084,"MEXPR":7085,"Codec":7086,"800":7087,"DP":7088,"EM":7089,"RCNN":7090,"Top":7091,"builtin":7092,"fcos":7093,"oser":7094,"ç§":7095,"ç´":7096,"Ġsources":7097,"Ġnx":7098,"Ġbias":7099,"Conf":7100,"ĠLO":7101,"ĠEasy":7102,"\":\"":7103,"Ġlogic":7104,"Location":7105,"places":7106,"routes":7107,"irs":7108,"bots":7109,"(\"-\",":7110,"uffer":7111,"angularaxis":7112,"Ġmmcv":7113,"gauge":7114,"Optimizer":7115,"(.*":7116,"BordercolorsrcValidator":7117,"Ġcl":7118,"Ġ)),<":7119,"namespace":7120,"itor":7121,"asing":7122,"Ġtri":7123,"Ġinstalled":7124,"Ġbatch":7125,"Ġbypass":7126,"hold":7127,"ĠBordercolorsrcValidator":7128,"network":7129,"NamelengthsrcValidator":7130,"Ġ\\\\":7131,"ĠNamelengthsrcValidator":7132,"Ġtraining":7133,"choice":7134,"bordercolorsrc":7135,"ĠAnchored":7136,"namelengthsrc":7137,"'re":7138,"wrong":7139,"ÐŁ":7140,"alf":7141,"Ġdisplay":7142,"apes":7143,"Ġsure":7144,"Ġcnt":7145,"ĠActive":7146,"004":7147,"minor":7148,"Ġ27":7149,"colors":7150,"Ġ09":7151,"Status":7152,"Engine":7153,"ĠInteger":7154,"ceita":7155,"75":7156,">..":7157,"AY":7158,"COM":7159,"Import":7160,"]])<":7161,"numba":7162,"public":7163,"wrap":7164,"zz":7165,"Ġque":7166,"Ġ])<":7167,"roy":7168,"Ġpe":7169,"ĠST":7170,"ĠSeparateBodyFileCache":7171,"UserCreationForm":7172,"SeparateBodyFileCache":7173,"pytestmark":7174,"ĠServer":7175,"TemplateView":7176,"pha":7177,"Telegram":7178,"choices":7179,"Ġaround":7180,"Only":7181,"ĠWorld":7182,"Note":7183,"wal":7184,"wner":7185,"Ñİ":7186,"Ġensure":7187,"Ġdrop":7188,"isdir":7189,"constr":7190,"maj":7191,"Ġfp":7192,"dists":7193,"Ġnumero":7194,"ĠYou":7195,"Chat":7196,"Ġpermissions":7197,"Ġtaken":7198,"82":7199,"Home":7200,"dummy":7201,"shows":7202,"oration":7203,"rows":7204,"Ġplease":7205,"Ġwide":7206,"ialog":7207,"Ġord":7208,"Ġcheckov":7209,"endency":7210,"Ġconnect":7211,"STATUS":7212,"Ġ{}'.":7213,"categories":7214,"lectedpointsValidator":7215,"Attribute":7216,"Clip":7217,"HTTP":7218,"Offset":7219,"cmax":7220,"global":7221,"ives":7222,"ping":7223,"deprecated":7224,"icial":7225,"ases":7226,"ĠCategorical":7227,"Ġrunning":7228,"DIS":7229,"Ð»Ðµ":7230,"={\"":7231,"reppoints":7232,"ĠAccounts":7233,"Defaults":7234,"ixelSampler":7235,"Endpoint":7236,"Ð»ÑĮÑĤ":7237,"(['":7238,"8000":7239,">-":7240,"Sl":7241,"UL":7242,"dice":7243,"gin":7244,"plan":7245,"tk":7246,"udio":7247,"æĶ":7248,"ĠAli":7249,"ĠPl":7250,"bout":7251,"boto":7252,"Ġcost":7253,"Ġhandler":7254,"ĠReview":7255,"ĠEmployee":7256,"120":7257,"Ġpresent":7258,"Ġxml":7259,"Ġmet":7260,"compare":7261,"Ġdataclass":7262,"rowdbot":7263,"ĠService":7264,"customer":7265,"åĲį":7266,"ĠSignUp":7267,"DCNv":7268,"revisionid":7269,"ĠSecret":7270,"rowdbotics":7271,"BorderwidthValidator":7272,"CminValidator":7273,"CmaxValidator":7274,"RM":7275,"SH":7276,"Single":7277,"cmin":7278,"gan":7279,"}.":7280,"descript":7281,"Ġplatform":7282,"igure":7283,"ĠSize":7284,"ĠCminValidator":7285,"ĠCmaxValidator":7286,"ĠBorderwidthValidator":7287,"Ġeven":7288,"Ġelements":7289,"1234":7290,"airo":7291,"Ġpredict":7292,"Ġ480":7293,"fraction":7294,"Ð»Ð¾":7295,"Down":7296,"available":7297,"Team":7298,"Ð´Ð°":7299,"Transform":7300,"ĠOrderedDict":7301,"shares":7302,"ÑĢÐ¾Ð³ÑĢÐ°":7303,"NotFoundError":7304,"åŃĹç¬¦ä¸²":7305,"borderwidth":7306,"pixels":7307,"major":7308,"ÑĢÐ¾Ð³ÑĢÐ°Ð¼":7309,"Pagination":7310,"blogs":7311,"isfileobj":7312,"Ġcap":7313,"this":7314,"Ġwrite":7315,"Ġdelete":7316,"comments":7317,"127":7318,"detector":7319,"owValidator":7320,"Indexer":7321,"veloper":7322,"åºı":7323,"Button":7324,"CS":7325,"Car":7326,"mn":7327,"nan":7328,"pub":7329,"æŃ":7330,"member":7331,"__),":7332,"enu":7333,"review":7334,"apple":7335,"Ġinfo":7336,"ĠSource":7337,"ĠCr":7338,"ĠCelery":7339,"Ġsep":7340,"Instance":7341,"Ġmeta":7342,"hoverinfos":7343,"Ġlocale":7344,"Ð¾Ð±":7345,"month":7346,"REG":7347,"ĠDevelopment":7348,"[::-":7349,"helloapp":7350,")(\\\\":7351,"ÐºÐ¸":7352,"HoverinfosrcValidator":7353,"ĠHoverinfosrcValidator":7354,"åĨħ":7355,"hoverinfosrc":7356,"\"[-":7357,"CmidValidator":7358,"CautoValidator":7359,"Dice":7360,"Desc":7361,"FC":7362,"aur":7363,"amount":7364,"cmid":7365,"hu":7366,"uit":7367,"uction":7368,"}\\":7369,"atient":7370,"ited":7371,"tri":7372,"ĠCmidValidator":7373,"ĠCautoValidator":7374,"Ġ24":7375,"ĠPolls":7376,"predict":7377,"123":7378,"PIO":7379,"ĠÐ·":7380,"ĠStart":7381,")))),<":7382,"Search":7383,"'].":7384,"country":7385,"åħĥ":7386,"Ġanswer":7387,"Ġfolder":7388,"insidetextfont":7389,"sqrt":7390,"rag":7391,"ĥ½":7392,"enet":7393,"stats":7394,"moment":7395,"hes":7396,"Ġwindow":7397,"SES":7398,"ssign":7399,"quant":7400,"depends":7401,"LOG":7402,"Tool":7403,"mploye":7404,"Ð·Ñĥ":7405,"Component":7406,"structor":7407,"syncbn":7408,"ĠÐ½Ð°":7409,"ombre":7410,"86":7411,"aa":7412,"sim":7413,"swin":7414,"Ġfig":7415,"Ġcli":7416,"utes":7417,"endar":7418,"Ġvis":7419,"ĠFI":7420,"():":7421,"Reference":7422,"Ġprev":7423,"ship":7424,"Ġtimedelta":7425,"readlines":7426,"dition":7427,"mbers":7428,"Ġworks":7429,"Ġ503":7430,"æį®":7431,"æŀľ":7432,"ĠAccountsConfig":7433,"ĠPollsConfig":7434,"\"\\":7435,"TS":7436,"zero":7437,"ale":7438,"Ġdat":7439,"edi":7440,"Ġsingle":7441,"expr":7442,"umath":7443,"chase":7444,"Ġaws":7445,"ĠCorp":7446,"endpoint":7447,"resnest":7448,"autif":7449,"boolean":7450,"Ġevery":7451,"Ġunpacked":7452,"ĠBaseCommand":7453,"hovertemplate":7454,"compliance":7455,"Ġcanonicalize":7456,"HovertemplateValidator":7457,"ĠHovertemplateValidator":7458,"Geo":7459,"]+\")<":7460,"Agent":7461,"Ġskip":7462,"Ġsklearn":7463,"_.]+\")<":7464,"ĠFastAPI":7465,"ĠEasyInstall":7466,"TelegramObject":7467,"\"[-_.]+\")<":7468,")]":7469,"<<":7470,"Long":7471,"SIZE":7472,"Twisted":7473,"ban":7474,"mero":7475,"pic":7476,"æĮ":7477,"Ġassign":7478,"registration":7479,"utc":7480,"Ġreport":7481,"unicode":7482,"ĠSym":7483,"Ġlimit":7484,"Ġhr":7485,"Ġstub":7486,"ĠIma":7487,"ĠĠĠĠĠĠĠĠĠĠĠĠĠĠĠĠĠĠĠĠĠĠĠ":7488,"LOB":7489,"Ġperiod":7490,"Framework":7491,"ublish":7492,"Required":7493,"Renderer":7494,"Ġdecimal":7495,"åıĤæķ°":7496,"(.*?)":7497,"ĠCorporation":7498,"57":7499,"LICENSE":7500,"UM":7501,"ç¨":7502,"Ġvalidators":7503,"__'":7504,"deform":7505,"Ġ'''":7506,"getenv":7507,"BaseCommand":7508,"transforms":7509,"Ð¾ÑĤ":7510,"######":7511,"methods":7512,"Ġformats":7513,"171":7514,"Document":7515,"åĪ¶":7516,"('/')<":7517,"Ġmetadata":7518,"\"[']":7519,"832":7520,"LU":7521,"XanchorValidator":7522,"caxis":7523,"dm":7524,"gers":7525,"tion":7526,"xanchor":7527,"å¸":7528,"è½":7529,"onal":7530,"aris":7531,"Ġdefined":7532,"ecto":7533,"Ġ##":7534,"ĠNum":7535,"Ġtools":7536,"Ġ{!":7537,"Ġelement":7538,"ĠHistory":7539,"Ġnote":7540,"hovertext":7541,"rade":7542,"ripts":7543,"rfc":7544,"slider":7545,"obile":7546,"Ġ2017":7547,"ĠXanchorValidator":7548,"encnet":7549,"feed":7550,"websocket":7551,"Linear":7552,"Ġpermission":7553,"HovertextValidator":7554,"ĠHovertextValidator":7555,"AutocolorscaleValidator":7556,"[']\",":7557,"Account":7558,"ĠAutocolorscaleValidator":7559,"outlinecolor":7560,"ãĢĤ<":7561,"ÐĴÐ²ÐµÐ´Ð¸ÑĤÐµ":7562,"AlterModelOptions":7563,"(.*?)[']\",":7564,"\"['](.*?)[']\",":7565,".)<":7566,">`":7567,"Categorical":7568,"Ext":7569,"FT":7570,"RI":7571,"TECT":7572,"bundle":7573,"kip":7574,"è¦":7575,"inja":7576,"Ġthem":7577,"maker":7578,"Ġfn":7579,"ĠFigure":7580,"Ġhigh":7581,"Ġstor":7582,"ĠGo":7583,"Service":7584,"Ġboto":7585,"ĠUserSerializer":7586,"Ġsqlite":7587,"php":7588,"PREC":7589,"ippet":7590,"second":7591,"ÑĨÐ¸":7592,"åĿĹ":7593,"Ġaiogram":7594,"Ġbetween":7595,"amera":7596,"REGEX":7597,"$<":7598,"53":7599,"RES":7600,"ĠÑĤ":7601,"reduce":7602,"mote":7603,"entity":7604,"Ġrepr":7605,"ĠCode":7606,"ĠGPL":7607,"lier":7608,"Ġmen":7609,"Ġparameter":7610,"Ġ2002":7611,"ĠDeep":7612,"Ġcreating":7613,"CACHE":7614,"Ġstrides":7615,"Positive":7616,"standing":7617,"mooth":7618,"è¾ĵåĩº":7619,"Ġnetworkx":7620,"Ġarchive":7621,"ç¨ĭ":7622,")[":7623,"BASE":7624,"Choice":7625,"YanchorValidator":7626,"cy":7627,"qt":7628,"yanchor":7629,"})(\\\\":7630,"Ġfixer":7631,"orient":7632,"Ġsym":7633,"acc":7634,"izeref":7635,"enda":7636,"quar":7637,"Ġgrad":7638,"Ġguess":7639,"food":7640,"periment":7641,"stances":7642,"shift":7643,"Ġlista":7644,"uilder":7645,"TextsrcValidator":7646,"Ġmean":7647,"hovertemplatesrc":7648,"ä¸Ĭ":7649,"2801":7650,"ĠTextsrcValidator":7651,"100000":7652,"ĠYanchorValidator":7653,"gradient":7654,"HovertemplatesrcValidator":7655,"ĠHovertemplatesrcValidator":7656,"ĠShowValidator":7657,"ShowValidator":7658,"refresh":7659,"Output":7660,"OutlinecolorValidator":7661,"ColorscaleValidator":7662,"ĠOutlinecolorValidator":7663,"collection":7664,"services":7665,"nonlocal":7666,"frontend":7667,"Area":7668,"PE":7669,"Tab":7670,"dates":7671,"lack":7672,"samples":7673,"usion":7674,"vf":7675,"za":7676,"atar":7677,"record":7678,"coin":7679,"Ġ'+":7680,"ypad":7681,"Ġscal":7682,"Ġcity":7683,"tock":7684,"Ġlines":7685,"ssian":7686,"022801":7687,"------":7688,"ĠPyTrie":7689,"groupby":7690,"ä¸ĭ":7691,"Ġlet":7692,"ÑģÑģ":7693,"([[":7694,"Ġplace":7695,"discover":7696,"Ġcharacter":7697,"ĠQt":7698,"åĽ¾":7699,"éĩı":7700,"ĠDATrie":7701,"Dis":7702,"imag":7703,"ocr":7704,"ĠčĊ":7705,"Ġkeys":7706,"dest":7707,"rogram":7708,"cod":7709,"cogn":7710,"Ġrep":7711,"Ġinside":7712,"accept":7713,"excel":7714,"updated":7715,"esso":7716,"pydev":7717,"Ġstate":7718,"ĠĠĠĠĠĠĠĠĠĠĠĠ":7719,"rik":7720,"ĠEND":7721,"percent":7722,"libs":7723,"cheduler":7724,"filterwarnings":7725,"ferent":7726,"creation":7727,"ĠDeprecated":7728,"TOP":7729,"Cost":7730,"showlegend":7731,"URI":7732,"ĠShowlegendValidator":7733,"ShowlegendValidator":7734,"Ġqs":7735,"Ġdilations":7736,"::":7737,"MIT":7738,"PO":7739,"VAL":7740,"¦Ĥ":7741,"åĴ":7742,"å¦Ĥ":7743,"çī":7744,"ĠQu":7745,"edge":7746,"vers":7747,"allen":7748,"Ġfactory":7749,"Ġseg":7750,"paths":7751,"##\",":7752,"DEPREC":7753,"Ġ2005":7754,"ĠLocation":7755,"tainer":7756,"Ġwords":7757,"pipeline":7758,"ĠOpenAPI":7759,"Ġ255":7760,"datalo":7761,"CreateView":7762,"alignment":7763,"segment":7764,"LenValidator":7765,"ĠHomePageView":7766,"ĠLenValidator":7767,"secure":7768,"Ġstudents":7769,"balls":7770,"Slug":7771,"ÑĢÐ¾Ð³ÑĢÐ°Ð¼Ð¼Ð°":7772,"Pack":7773,"Your":7774,"danet":7775,"ling":7776,"mun":7777,"}}":7778,"éĻ":7779,"moj":7780,"movies":7781,"Ġnltk":7782,"Ġbackward":7783,"Ġ-----------------------------------------------------------------":7784,"ĠGame":7785,"Ġ08":7786,"artist":7787,"Ġunit":7788,"transformer":7789,"Ġanim":7790,"mpleted":7791,"Ġparams":7792,"Ð¼Ð¸":7793,"GroupBy":7794,"Ġvalidate":7795,"ĠLabs":7796,"ĠMovie":7797,"ĠÑĦ":7798,"Ġmultiprocessing":7799,"scribe":7800,"descriptors":7801,"68":7802,"LegendgroupValidator":7803,"cross":7804,"fs":7805,"vices":7806,"yield":7807,"ÐĿ":7808,"è§":7809,"ico":7810,"geometry":7811,"elf":7812,"Ġcle":7813,"ateway":7814,"ĠLegendgroupValidator":7815,"Ġfactor":7816,"Ġstock":7817,"ONE":7818,"lineValidator":7819,"ĠÐķ":7820,"INSTALLED":7821,"ÐµÑĢ":7822,"plural":7823,"Ġopenbb":7824,"ĠLocal":7825,"market":7826,"ascii":7827,"åıĺ":7828,"Ġposts":7829,"ccnet":7830,"psanet":7831,"recipes":7832,"gcnet":7833,"gorithm":7834,"gorithms":7835,"Ġframework":7836,"ĠImaging":7837,"<=":7838,">[":7839,"ShowscaleValidator":7840,"XpadValidator":7841,"YpadValidator":7842,"tor":7843,"twisted":7844,"xpad":7845,"Ġmoved":7846,"Ġpagination":7847,"ĠTensor":7848,"Ġbinary":7849,"ĠShowscaleValidator":7850,"ĠMax":7851,"Ġ</":7852,"ALI":7853,"Proxy":7854,"hovertextsrc":7855,"Ġelt":7856,"ĠYpadValidator":7857,"ĠXpadValidator":7858,"catable":7859,"HovertextsrcValidator":7860,"ĠHovertextsrcValidator":7861,"çĶŁ":7862,"Generic":7863,"MarkerValidator":7864,"outsidetextfont":7865,"ythonize":7866,"ĠMarkerValidator":7867,"Ġkeep":7868,"ĠUpdate":7869,"showscale":7870,"250":7871,">)":7872,"?')<":7873,"Ob":7874,"ba":7875,"eer":7876,"iecut":7877,"tf":7878,"ÑĪ":7879,"å·":7880,"Ġenter":7881,"enk":7882,"Ġperson":7883,"ura":7884,"Ġredistribution":7885,"Ġthese":7886,"ilenet":7887,"ĠMedia":7888,"ĠLund":7889,"ĠPre":7890,"ĠFred":7891,"ĠGeneric":7892,"Ġlookup":7893,"Ġ1997":7894,"ĠAdded":7895,"vari":7896,"Ġ...,<":7897,"Ð½Ð¸Ñı":7898,"metaclass":7899,"###\",<":7900,"blacklist":7901,"Ġdigits":7902,"DEPRECATED":7903,"iecutter":7904,"ĠLundh":7905,"ĠFredrik":7906,"\"^":7907,"*(":7908,"Assign":7909,"Music":7910,"Source":7911,"Sym":7912,"Tree":7913,"VT":7914,"cum":7915,"slic":7916,"ç¤":7917,"developer":7918,"Ġbasic":7919,"commit":7920,"Ġ07":7921,"Ġyaml":7922,"calculator":7923,"grade":7924,"distance":7925,"],[":7926,"PDATE":7927,"Ġcommands":7928,"ĠDef":7929,"functools":7930,"leton":7931,"192":7932,"FIX":7933,"Shell":7934,"ĠÐŁÑĢÐ¾Ð³ÑĢÐ°Ð¼Ð¼Ð°":7935,"diagonal":7936,"scope":7937,"Syntax":7938,"è¦ģ":7939,"orientation":7940,"imaginary":7941,"allenge":7942,")).":7943,";\"<":7944,"=<":7945,"BACK":7946,"Builder":7947,"HEAD":7948,"TA":7949,"TION":7950,"bank":7951,"migration":7952,"ĠCart":7953,"Ġfalse":7954,"Ġfeature":7955,"ĠPlease":7956,"Ġstem":7957,"ĠOB":7958,"Ġ06":7959,"ĠSearch":7960,"Ġprofile":7961,"Ġroll":7962,"ĠUserProfile":7963,"Ġalready":7964,"installation":7965,"weather":7966,"Ġcalled":7967,"periodValidator":7968,"lighting":7969,"Divider":7970,"=\"\")<":7971,"Ġthreading":7972,"Ġtensorflow":7973,"honeNumberProvider":7974,"arison":7975,"vfnet":7976,"SlugField":7977,"OH":7978,"Sec":7979,"TE":7980,"bus":7981,"free":7982,"final":7983,"ove":7984,"square":7985,"Ġplot":7986,"idade":7987,"Ġret":7988,"Ġreduce":7989,"Ġsamples":7990,"exer":7991,"ando":7992,"Ġndim":7993,"Ġcontrollers":7994,"Ġutility":7995,"These":7996,"missing":7997,"parsers":7998,"ĠAPIRouter":7999,"creen":8000,"todos":8001,"FloatField":8002,"Ġofficial":8003,"Charm":8004,"ĠPeriod":8005,"ĠDecimal":8006,"åĴĮ":8007,"ULT":8008,"greg":8009,"pixel":8010,"sheet":8011,"Ġimp":8012,"media":8013,"ropo":8014,"Ġtar":8015,"edirs":8016,"mock":8017,"Ġsleep":8018,"apply":8019,"examples":8020,"ĠMon":8021,"ĠDi":8022,"resolve":8023,"Ġfinal":8024,"Ġ-<":8025,"ĠPIL":8026,"attering":8027,"derr":8028,"fonts":8029,"shapes":8030,"Ġsubject":8031,"Classifier":8032,"ĠNOTICE":8033,"æķ°æį®":8034,"Ġ{}\".":8035,"partial":8036,"RenameModel":8037,"ropout":8038,"=-":8039,"Cairo":8040,"PASS":8041,"fb":8042,"ios":8043,"nom":8044,"sd":8045,"tils":8046,"yb":8047,"å±":8048,"Ġim":8049,"Ġhtml":8050,"alc":8051,"enum":8052,"receiver":8053,"Ġtornado":8054,"Ġdim":8055,"Ġbenchmark":8056,"ĠAbout":8057,"reshold":8058,"Ġfav":8059,"ĠPage":8060,"Ġstop":8061,"Ġ05":8062,"ordering":8063,"Ð¾Ð¼":8064,"Exit":8065,"Count":8066,"regnet":8067,"modification":8068,"Ġupdated":8069,"æīĢ":8070,"å°Ĩ":8071,"GHT":8072,"RoIExtractor":8073,"ç¤º":8074,"OrientationValidator":8075,"PC":8076,"_%":8077,"ber":8078,"currency":8079,"dimension":8080,"hand":8081,"private":8082,"èİ":8083,"annel":8084,"reset":8085,"Ġphone":8086,"Ġschema":8087,"ulation":8088,"Ġblock":8089,"chain":8090,"ĠNew":8091,"qui":8092,"ĠOrientationValidator":8093,"rappe":8094,"ĠEnd":8095,"Ġbeh":8096,"Ġseries":8097,"ĠDeprecationWarning":8098,"Ð½Ð¾":8099,"Authenticated":8100,"gridValidator":8101,"Ġshutil":8102,"Ġcoreapi":8103,"LibError":8104,"superclass":8105,"GNORE":8106,"moothing":8107,"scaled":8108,"ĠttLib":8109,"Ġwiden":8110,"95":8111,"NE":8112,"Sparse":8113,"TRA":8114,"USE":8115,"fact":8116,"fetch":8117,"pri":8118,"tic":8119,"role":8120,"Ġpublished":8121,"complete":8122,"Ġinfer":8123,"force":8124,"ados":8125,"Ġna":8126,"Ġamount":8127,"teams":8128,"ĠMode":8129,"Ġwarn":8130,"Ġpyrogram":8131,"dirty":8132,"shell":8133,"byte":8134,"extra":8135,"Ġprovides":8136,"ĠDoes":8137,"owner":8138,"ĠLogger":8139,"fillcolor":8140,"Ġmatrix":8141,"BBBBBBBB":8142,"powertools":8143,"WORD":8144,"ĠnÃºmero":8145,"èİ·":8146,"HASH":8147,"MY":8148,"has":8149,"jo":8150,"nch":8151,"xValidator":8152,"yValidator":8153,"Ġheaders":8154,"allow":8155,"__)":8156,"acci":8157,"adget":8158,"('\\":8159,"respon":8160,"protocol":8161,"BaseFix":8162,"Ġboxes":8163,"ARE":8164,"Ġoption":8165,"Ġjob":8166,"creasing":8167,"Ġui":8168,"ĠXOR":8169,"...\")<":8170,"äºİ":8171,"Level":8172,"zeros":8173,"éĹ´":8174,"acitysrcValidator":8175,"ĠAliases":8176,"mployees":8177,"bp":8178,"eto":8179,"mr":8180,"ris":8181,"sIndex":8182,"Ġgs":8183,"Ġhow":8184,"Ġsampler":8185,"vious":8186,"inte":8187,"hoices":8188,"versioneer":8189,"program":8190,"ĠHe":8191,"Ġraised":8192,"ularInline":8193,"catalog":8194,"Ġsuccess":8195,"NUM":8196,"ä¹ī":8197,"ABCMeta":8198,"makedirs":8199,"Ġtarballs":8200,"regnetx":8201,")])<":8202,",)<":8203,">\"":8204,"MM":8205,"Mat":8206,"OUT":8207,"OLO":8208,"aws":8209,"fc":8210,"live":8211,"ring":8212,"}'<":8213,"Ð¶":8214,"Ġmp":8215,"Ġcomment":8216,"ana":8217,"Ġind":8218,"ador":8219,"Ġnames":8220,"modulepath":8221,"ĠNews":8222,"otor":8223,"ĠIO":8224,"Ġoperator":8225,"option":8226,"Ġlock":8227,"requirements":8228,"ogen":8229,"ambig":8230,"åŃĺ":8231,"sorted":8232,"Ġvalor":8233,"segmentation":8234,"ĠTimestamp":8235,"ĠChat":8236,"releases":8237,"Ġcrypto":8238,"Ġwidgets":8239,"}:{":8240,"æĿ¥":8241,"Entropy":8242,"ĠÐ·Ð°":8243,"ĠOBJECT":8244,"Be":8245,"Su":8246,"]=":8247,"cb":8248,"duplic":8249,"Ġurls":8250,"learning":8251,"Ġtmp":8252,"entropy":8253,"(\".\")<":8254,"ability":8255,"Ġcat":8256,"vii":8257,"minu":8258,"Ġconsum":8259,"ested":8260,"ĠUPDATE":8261,"optional":8262,"Ġinstallation":8263,"gression":8264,"avg":8265,"Ġautogen":8266,"simplejwt":8267,"ĠÑģÑĤ":8268,"superuser":8269,"ĠAbstractUser":8270,"AbstractUser":8271,"aurant":8272,"::<":8273,"Bear":8274,"Direct":8275,"Hidden":8276,"TEST":8277,"UB":8278,"matic":8279,"mantic":8280,"pd":8281,"published":8282,"Ġ00":8283,"instrument":8284,"installed":8285,"arrow":8286,"__\"<":8287,"Ġput":8288,"asure":8289,"Ġtho":8290,"Ġ'*":8291,"ternal":8292,"ports":8293,"iods":8294,"ĠPyCharm":8295,"component":8296,"RuntimeError":8297,"history":8298,"irth":8299,"ĠThread":8300,"Ġworking":8301,"rossEntropy":8302,"cells":8303,"Connect":8304,"åĬł":8305,"nested":8306,"analysis":8307,"TIME":8308,"164":8309,"As":8310,"Element":8311,"Fla":8312,"Sal":8313,"lator":8314,"æ¯":8315,"desc":8316,"edIn":8317,"Ġ'-":8318,"ision":8319,"Ġ[[":8320,"ĠREST":8321,"ĠBy":8322,"divider":8323,"numero":8324,"indings":8325,"Ġproxy":8326,"STR":8327,"Ġtimezone":8328,"Point":8329,"bins":8330,"utilities":8331,"Ġdoesn":8332,"Ġprices":8333,"Ġurlconf":8334,"dence":8335,"Ġcompute":8336,"åĪĨ":8337,"Ġshape":8338,"trieve":8339,"goto":8340,"SSSS":8341,"Ġwebsite":8342,"Ð¾Ð»Ñı":8343,"notebook":8344,"ĠAddress":8345,"../_":8346,"nchron":8347,"BIN":8348,"hin":8349,"pkg":8350,"onValidator":8351,"sees":8352,"staff":8353,"Ġpal":8354,"Content":8355,"pot":8356,"urlresolver":8357,"lenmode":8358,"addr":8359,"ARD":8360,"Entry":8361,"ĠTool":8362,"Ġattributes":8363,"eech":8364,"OutlinewidthValidator":8365,"å¯¼":8366,"ç»Ħ":8367,"oauthlib":8368,"ĠOutlinewidthValidator":8369,"servation":8370,"LenmodeValidator":8371,"ĠLenmodeValidator":8372,"outlinewidth":8373,"bonacci":8374,"Ġstorages":8375,"seesaw":8376,"Public":8377,"Rel":8378,"high":8379,"nunique":8380,"çł":8381,"Ġerr":8382,"Ġpatch":8383,"elines":8384,"lict":8385,"Ġck":8386,"Ġbar":8387,"Ġax":8388,"ĠMock":8389,"Ġdeclarative":8390,"Ġfoo":8391,"ĠImport":8392,"ĠIGNORE":8393,"Via":8394,"Ġdoctest":8395,"ĠWh":8396,"ĠÐĴ":8397,"xture":8398,"Chart":8399,"ĠStudentSerializer":8400,"partner":8401,"Ġflags":8402,"generators":8403,"Ġordering":8404,"Ġsyntax":8405,"ipping":8406,"åĽŀ":8407,"Detection":8408,"Ġrepresents":8409,"å®ļä¹ī":8410,"mobilenet":8411,"BBoxHead":8412,"/\"<":8413,"Ver":8414,"ais":8415,"dar":8416,"ium":8417,"jaraco":8418,"mIoU":8419,"rd":8420,"èĢ":8421,"fil":8422,"firm":8423,"aced":8424,"exist":8425,"Ġcallback":8426,"Ġbraintree":8427,"ĠBE":8428,"openid":8429,"Ġarea":8430,"capture":8431,"compute":8432,"Ġdiag":8433,"URLField":8434,"weet":8435,"rtual":8436,"Ġgeom":8437,"ĠAuthorization":8438,"ĠModified":8439,"HRNet":8440,"ĠABCMeta":8441,"Ġshared":8442,"hinx":8443,"'}<":8444,"41":8445,"</":8446,"LY":8447,"Main":8448,"Mark":8449,"aio":8450,"cator":8451,"ele":8452,"ema":8453,"hub":8454,"ycle":8455,"}\".":8456,"acer":8457,"transport":8458,"ĠSum":8459,"formatter":8460,"dependency":8461,"argin":8462,"axislines":8463,"subprocess":8464,"ĠOpenId":8465,"[:,":8466,"ä½į":8467,"Details":8468,"å¼Ģ":8469,"ç¬¬":8470,"åı¯ä»¥":8471,"PositiveIntegerField":8472,"Action":8473,"Article":8474,"DER":8475,"IST":8476,"Manual":8477,"Range":8478,"bert":8479,"sage":8480,"tqdm":8481,"uint":8482,"åŀ":8483,"æı":8484,"èĥ½":8485,"éĶ":8486,"éĿ":8487,"alie":8488,"ellow":8489,"urn":8490,"Ġreset":8491,"Ġ*=":8492,"contin":8493,"forsecurity":8494,"ulated":8495,"Ġcurr":8496,"formance":8497,"Ġdictionary":8498,"ĠGraph":8499,"Ġgen":8500,"egvii":8501,"ĠÐļ":8502,"umpyVersion":8503,"Ð¾Ð³":8504,"credentials":8505,"tains":8506,"Ġperiods":8507,"ĠSubplot":8508,"Shape":8509,"DATA":8510,"MAIL":8511,"ĠConnection":8512,"DeleteModel":8513,"åĪĹè¡¨":8514,"ĀĀĀĀĀĀĀĀ":8515,"Ð¾Ð»ÑĮÐ·":8516,"ĠLOAD":8517,"ocrnet":8518,"ALIAS":8519,"PASSWORD":8520,"èİ·åıĸ":8521,"And":8522,"Cascade":8523,"Screen":8524,"XOR":8525,"imin":8526,"rating":8527,"uel":8528,"Ġlow":8529,"itude":8530,"Ġindividual":8531,"Ġbro":8532,"thr":8533,"dbm":8534,"ĠNode":8535,"Ġdemo":8536,"ĠLanguage":8537,"otBase":8538,"Ġseed":8539,"quote":8540,"Ġ<<":8541,"TrueType":8542,"Ġ{{":8543,"Ġyap":8544,"BaseTTXConverter":8545,"ĠBaseTTXConverter":8546,"noop":8547,"Loop":8548,"Ġchart":8549,"Ġdirectly":8550,"...,":8551,"mongo":8552,"Ġurlresolver":8553,"usedforsecurity":8554,"crypt":8555,"Chap":8556,"google":8557,"Track":8558,"ĠOnConf":8559,"ĠApplication":8560,"å®ŀ":8561,"ĠTomlEncoder":8562,"ĠTomlDecoder":8563,"sale":8564,"Ð¿Ð¸Ñģ":8565,"}/\"<":8566,"TomlEncoder":8567,"TomlDecoder":8568,"è¾ĵåħ¥":8569,"ĠTomlOrderedEncoder":8570,"ĠTomlOrderedDecoder":8571,"Canvas":8572,"Ġgreenlet":8573,"ç´ł":8574,"Clipboard":8575,"Ġscales":8576,"dataloader":8577,"ĠOnConflict":8578,"((\"":8579,"79":8580,"BLOB":8581,"FL":8582,"MO":8583,"OUR":8584,"cu":8585,"lp":8586,"mc":8587,"sity":8588,"ÐĲ":8589,"åī":8590,"attribute":8591,"eroline":8592,"Ġ\"-":8593,"ypy":8594,"Ġreg":8595,"esh":8596,"integer":8597,"otes":8598,"Ġstd":8599,"ĠObject":8600,"Ġvarious":8601,"keras":8602,"\")[":8603,"Ġmock":8604,"Spec":8605,"overwrite":8606,"Ġiterable":8607,"TemplateActivator":8608,"Ġplugin":8609,"ĠStringField":8610,"gapValidator":8611,"FillValidator":8612,"ĠFillValidator":8613,"What":8614,"DecimalField":8615,"LOCATION":8616,"panoptic":8617,"TeamYukki":8618,"ViaTemplateActivator":8619,"'])":8620,"65":8621,">\"<":8622,"CrossEntropy":8623,"Ph":8624,"Pair":8625,"ced":8626,"nce":8627,"sur":8628,"zmq":8629,"èĩ":8630,"Ġenviron":8631,"inject":8632,"alpha":8633,"__=":8634,"anime":8635,"Ġpk":8636,"Ġconf":8637,"ĠLayer":8638,"ĠBlock":8639,"Ġcounter":8640,"Ġstruct":8641,"ONT":8642,"agram":8643,"Register":8644,"REGI":8645,"ROM":8646,"IZER":8647,"linked":8648,"ĠTodoSerializer":8649,"FIG":8650,"Ġmatches":8651,"ĠModules":8652,"Room":8653,"ĠÐ½Ðµ":8654,"OCK":8655,"ç®Ĺ":8656,"autiful":8657,"ĠFigureCanvas":8658,"$\",":8659,",##\",":8660,"2000":8661,">|":8662,"Back":8663,"CK":8664,"FUN":8665,"Word":8666,"Wheel":8667,"ae":8668,"gt":8669,"ped":8670,"pend":8671,"ä¾":8672,"uter":8673,"ators":8674,"edInline":8675,"ents":8676,"ential":8677,"Ġsa":8678,"ctor":8679,"ĠStock":8680,"0010":8681,"izard":8682,"Ġ((":8683,"Ġstream":8684,"Ġ04":8685,"ĠRec":8686,"prod":8687,"porter":8688,"trainer":8689,"distributed":8690,"egacy":8691,"Ġparasite":8692,"ĠInput":8693,"Ġinputs":8694,"Ġitertools":8695,"Network":8696,"ĠInterval":8697,"selector":8698,"randn":8699,"nodes":8700,"pem":8701,"ç»ĵ":8702,"reply":8703,"åĨĻ":8704,"QUE":8705,"Ġtagname":8706,"ä¼ļ":8707,"wiki":8708,"Ð·ÑĥÐ»ÑĮÑĤ":8709,"ĠNumPy":8710,"Extension":8711,"Security":8712,"Ġbehavi":8713,">/<":8714,"Core":8715,"cp":8716,"even":8717,"patient":8718,"ĠVideo":8719,"inner":8720,"Ġsay":8721,"Ġsample":8722,"gist":8723,"ĠTop":8724,"Consumer":8725,"magen":8726,"('%":8727,"istic":8728,"poll":8729,"ĠDataset":8730,"Ġlon":8731,"ĠRequ":8732,"()[":8733,"Ġpyasn":8734,"ENV":8735,"openmmlab":8736,"visual":8737,"ĠWrite":8738,"Ġmost":8739,"achment":8740,"Ġspace":8741,"Ġsuite":8742,"ĠNOTE":8743,"NetV":8744,"Ġqt":8745,"NBitInt":8746,"678":8747,"buf":8748,"ĠSecurity":8749,"mutable":8750,"ÑħÐ¾Ð´":8751,"åĮĸ":8752,"Ġctx":8753,"dotenv":8754,"Ð·ÑĥÐ»ÑĮÑĤÐ°ÑĤ":8755,"/(?":8756,"ENG":8757,"Host":8758,"Over":8759,"System":8760,"Turtle":8761,"cwd":8762,"eh":8763,"known":8764,"press":8765,"uous":8766,"Ã³":8767,"__',":8768,"Ġpay":8769,"Ġprivate":8770,"concat":8771,"ypes":8772,"escap":8773,"('./":8774,"ĠDynamic":8775,"ĠRegex":8776,"margin":8777,"interface":8778,"ĠVis":8779,"ified":8780,"axisartist":8781,"FileField":8782,"Ġspeed":8783,"Ġpkgutil":8784,"Checks":8785,"skill":8786,"åĲİ":8787,"Ġavg":8788,"________":8789,"ATTERN":8790,"è¿Ľè¡Į":8791,"ĠRestFramework":8792,"Lexer":8793,"NN":8794,"New":8795,"`<":8796,"best":8797,"cell":8798,"camera":8799,"mix":8800,"rpc":8801,"vit":8802,"alized":8803,"lets":8804,"fidence":8805,"Ġ'{":8806,"Ġsco":8807,"Ġnb":8808,"Ġbit":8809,"Ġosp":8810,"ĠAug":8811,"('-":8812,"ĠMegvii":8813,"Ġisfile":8814,"latforms":8815,"ĠOAuth":8816,"ENSION":8817,"Ġwhat":8818,"Ġbound":8819,"Ð¾ÑģÑĤ":8820,"workspace":8821,"Ġfunctional":8822,"fav":8823,"Ġauthentication":8824,"Unrestrict":8825,"ĠPostAdmin":8826,"ĠAuthTokenConfig":8827,"Ġextract":8828,"Short":8829,"Ġoffsets":8830,"ĠÑĨ":8831,"BatchNorm":8832,"ĠGoogle":8833,"edIngress":8834,"çłģ":8835,"ĠRestFrameworkConfig":8836,"UnrestrictedIngress":8837,"Anal":8838,"CR":8839,"PT":8840,"agi":8841,"cnet":8842,"dnl":8843,"jti":8844,"mul":8845,"mDice":8846,"wraps":8847,"zh":8848,"§è¡Į":8849,"åĳ":8850,"åĻ":8851,"aling":8852,"recor":8853,"ido":8854,"apcnet":8855,"Ġsquare":8856,"Ġ204":8857,"ĠNaT":8858,"Ġfeat":8859,"Ġlabels":8860,"ĠIter":8861,"div":8862,"labs":8863,"autodiscover":8864,"'))))<":8865,"tokenizer":8866,"Local":8867,"widthsrc":8868,"validate":8869,"Ġspecial":8870,"expected":8871,"Train":8872,"ĠModelForm":8873,"positionsrcValidator":8874,"symbols":8875,"æī§è¡Į":8876,"OpenId":8877,"Ġbooks":8878,"gapsValidator":8879,"tracker":8880,"WindowIndexer":8881,"Requirement":8882,"æ¨¡åĿĹ":8883,"dmnet":8884,"ShellActivator":8885,"Ġfavor":8886,"åŀĭ":8887,"åĻ¨":8888,"/')<":8889,"Graph":8890,"Help":8891,"Sort":8892,"fd":8893,"rp":8894,"venv":8895,"çŃ":8896,"itter":8897,"Ġresol":8898,"(\"./":8899,"tra":8900,"ĠSy":8901,"izza":8902,"Ġthen":8903,"')]<":8904,"Strategy":8905,"Repository":8906,"sqlalchemy":8907,"Ġtimestamp":8908,"Locator":8909,"ĠPoint":8910,"Ġaccounts":8911,"Ġprime":8912,"ĠJson":8913,"Interval":8914,"Ġcases":8915,"ĠTOKEN":8916,"ĠCounter":8917,"ĠMainConfig":8918,"MAX":8919,"ĠRelation":8920,"segmentor":8921,"Ġindices":8922,"darwin":8923,"-####":8924,"BOT":8925,"Ensure":8926,"Flask":8927,"Gen":8928,"IPython":8929,"Url":8930,"\\<":8931,"]*":8932,"mg":8933,"own":8934,"å§":8935,"çĲ":8936,"è°":8937,"star":8938,"aper":8939,"cont":8940,"Ġaxes":8941,"ilar":8942,"ĠCO":8943,"oney":8944,"ĠMask":8945,"house":8946,"ĠPATTERN":8947,"Ġhand":8948,"Ġ'../../_":8949,"authorization":8950,"ALCHE":8951,"voxel":8952,"Ġalt":8953,"Ġallowed":8954,"METH":8955,"ÑĤÑĮ":8956,"Ð¾Ð½":8957,"overl":8958,"AuthTokenConfig":8959,"ÐºÑĥ":8960,"00000000":8961,"LoggerHook":8962,"Ġradius":8963,"æľ¬":8964,"cloudinary":8965,"äºĨ":8966,"gressor":8967,"ĠIDs":8968,"ĠÐŁÐ¾Ð»Ñı":8969,"Ð»Ð°ÑģÑģ":8970,"GBAxes":8971,"æĸ¹æ³ķ":8972,"Ġreplacement":8973,"yolox":8974,"essoa":8975,"ĠMediaStorage":8976,"quival":8977,"Ġthose":8978,"ALCHEMY":8979,"METHOD":8980,"ĠÐŁÐ¾Ð»ÑıÐº":8981,"98":8982,">*":8983,"EMAIL":8984,"Game":8985,"Pen":8986,"Sign":8987,"WidthsrcValidator":8988,"embedding":8989,"zauto":8990,"µĭ":8991,"åİ":8992,"Ġable":8993,"Ġquestion":8994,"Ġ'':<":8995,"Ġsin":8996,"ingleton":8997,"gether":8998,"unts":8999,"serving":9000,"ĠSupport":9001,"aystack":9002,"poss":9003,"Ġconv":9004,"ĠNet":9005,"Ġdet":9006,"Ġfact":9007,"Ġ((\"":9008,"Ġlanguage":9009,"Ġrich":9010,"quit":9011,"Ġ300":9012,"rio":9013,"ĠWidthsrcValidator":9014,"ARCH":9015,"ĠĠĠĠĠĠĠĠĠĠĠĠĠĠĠĠĠ":9016,"TypeValidator":9017,"Ġoutputs":9018,"udge":9019,"ĠTypeValidator":9020,"localtime":9021,"Tokenizer":9022,"ĠAuthentication":9023,"Position":9024,"raise":9025,"NUMEXPR":9026,"Ð°ÑĤÑĮ":9027,"ãĢģ":9028,"secdev":9029,"cookiecutter":9030,"Ġdifferent":9031,"ĠÑĩÐ¸ÑģÐ»Ð¾":9032,"TECTORS":9033,"Ġckeditor":9034,"Ġ2048":9035,"!\"<":9036,":])<":9037,"Crowdbotics":9038,"Lab":9039,"PUT":9040,"Rate":9041,"eck":9042,"iro":9043,"mk":9044,"å¿":9045,"Ġcolorbar":9046,"łÐµ":9047,"erature":9048,"lookup":9049,"Ġtqdm":9050,"most":9051,"isanet":9052,"='')<":9053,"sess":9054,"Ġraw":9055,"Ġcountry":9056,"ĠFunction":9057,"profiles":9058,"Ġfieldsets":9059,"Ġproper":9060,"Ġ42":9061,"Ġdistributed":9062,"tokens":9063,"Ġrole":9064,"ĠListableAPIResource":9065,"Ġpara":9066,"background":9067,"processor":9068,"suite":9069,"TOCOL":9070,"ankProvider":9071,"ĠExecutor":9072,"Ġintegers":9073,"ĠModulesConfig":9074,"Ġwebdriver":9075,"Ġquote":9076,"Soup":9077,"Ġproducts":9078,"å¤§":9079,"ĠRuntimeError":9080,"PROTOCOL":9081,"Ġcorrect":9082,"aiohttp":9083,"Ð¾Ð»ÑĮÐ·Ð¾Ð²Ð°":9084,"autifulSoup":9085,"å§ĭ":9086,":]<":9087,"=\"\",":9088,">):<":9089,"Embed":9090,"La":9091,"Motor":9092,"OAuth":9093,"bench":9094,"kze":9095,"pus":9096,"qr":9097,"ÃŃ":9098,"æĢ":9099,"Ġsel":9100,"Ġ()<":9101,"region":9102,"receita":9103,"Ġ'',":9104,"igen":9105,"ĠSw":9106,"ĠDesc":9107,"Ġcontact":9108,"ĠFeature":9109,"launch":9110,"ORIZ":9111,"Ġir":9112,"Ġbox":9113,"Ð°Ð½":9114,"ffff":9115,"ventory":9116,"theta":9117,"Interface":9118,"ĠCustomer":9119,"letter":9120,"radient":9121,"ĉĉĉĉ":9122,"Ġdownload":9123,"({'":9124,"Results":9125,"å°ı":9126,"tensorrt":9127,"åĮħ":9128,"Ġutilities":9129,"cluster":9130,"ĠPlugin":9131,"æĮĩ":9132,"ENGINE":9133,"è°ĥ":9134,"kzeug":9135,"*',":9136,"Att":9137,"BO":9138,"DA":9139,"Employee":9140,"LR":9141,"Language":9142,"TSI":9143,"XsrcValidator":9144,"gh":9145,"rstrip":9146,"vector":9147,"xsrc":9148,"yellow":9149,"éĥ":9150,"ato":9151,"medi":9152,"Ġpadding":9153,"Ġ\"{":9154,"Ġreduction":9155,"ĠAs":9156,"=''),<":9157,"Ġwriter":9158,"etree":9159,"fieldsets":9160,"Ġli":9161,"ysrc":9162,"ĠRoll":9163,"Init":9164,"ticklabelstep":9165,"Regressor":9166,"lists":9167,"checkout":9168,"cors":9169,"Ġrunner":9170,"lled":9171,"\"):":9172,"TicklabelstepValidator":9173,"ĠTicklabelstepValidator":9174,"Ġtele":9175,"ĠXsrcValidator":9176,"avatar":9177,"ategoria":9178,"HIGH":9179,"curacy":9180,"CONST":9181,"Socket":9182,"pcg":9183,"CTION":9184,"helpers":9185,"Ġrepresentation":9186,"EXTENSION":9187,"ordinates":9188,"OptimizerHook":9189,"izerefValidator":9190,"Assigner":9191,"æīĢæľī":9192,"'})<":9193,")?":9194,"640":9195,"DR":9196,"cri":9197,"many":9198,"signal":9199,"yecto":9200,"å¥":9201,"Ġverify":9202,"inp":9203,"gio":9204,"Ġcut":9205,"ibly":9206,"challenge":9207,"ĠCH":9208,"Ġvo":9209,"Ġtoml":9210,"Ġstdout":9211,"ssd":9212,"quiz":9213,"ĠEX":9214,"Ġprob":9215,"Ġanother":9216,"chedule":9217,"unds":9218,"special":9219,"days":9220,"iao":9221,"Widgets":9222,"Double":9223,"ĠExample":9224,"362":9225,"ASETS":9226,"bounds":9227,"Trainer":9228,"Ġbboxes":9229,"Ġquant":9230,"ĠÑį":9231,"ĠCompany":9232,"Ġdigit":9233,"ĠConnect":9234,"Attention":9235,"å¦Ĥæŀľ":9236,"TIONS":9237,"87":9238,"Mobile":9239,"PVT":9240,"Some":9241,"cip":9242,"half":9243,"pes":9244,"âķ":9245,"è·":9246,"mem":9247,"gevent":9248,"Ġsq":9249,"Ġmiddleware":9250,"setitem":9251,"Ġbin":9252,"Ġwait":9253,"resize":9254,"Ġcont":9255,"ĠPos":9256,"ĠFeed":9257,"ips":9258,"gration":9259,"Ġ400":9260,"Ġservices":9261,"Deprecated":9262,"Ġutc":9263,"Ġrows":9264,"whai":9265,"\")],<":9266,"ftmax":9267,"EMPixelSampler":9268,"asyncio":9269,"extract":9270,"åı·":9271,"2600":9272,"('.',":9273,"IndexView":9274,"è¿Ķ":9275,"oost":9276,"ĠÐ²Ñĭ":9277,"chars":9278,"Ġmodify":9279,"tablename":9280,"large":9281,"motiveProvider":9282,"Ġletter":9283,"cumcount":9284,"CrossEntropyLoss":9285,"Owner":9286,"Ste":9287,"break":9288,"oi":9289,"push":9290,"tutorial":9291,"xperiod":9292,"}\"":9293,"Ñī":9294,"è´":9295,"Ġclick":9296,"sep":9297,"basename":9298,"Ġref":9299,"Ġslow":9300,"ĠArgument":9301,"icture":9302,"tester":9303,"ĠNU":9304,"ĠPublic":9305,"vea":9306,"Ġsequence":9307,"quential":9308,"dependencies":9309,"BasePermission":9310,"Ġnamedtuple":9311,"Ġgt":9312,"fovea":9313,"indrome":9314,"transaction":9315,"Review":9316,"listing":9317,"updatemenu":9318,"ĠProxy":9319,"encies":9320,"Ġshort":9321,"Ġspecification":9322,"è¯Ń":9323,"NULL":9324,"ĠÐºÐ»Ð°ÑģÑģ":9325,"drive":9326,"realaxis":9327,"ARTY":9328,"Ġesp":9329,"ĠBeautifulSoup":9330,"Ġclose":9331,"Ġestim":9332,"åıĺéĩı":9333,"å¯¼åħ¥":9334,"Person":9335,"SU":9336,"Welcome":9337,"here":9338,"ira":9339,"nombre":9340,"ry":9341,"ulo":9342,"warmup":9343,"æĭ":9344,"Ġvideo":9345,"ormed":9346,"enium":9347,"reload":9348,"stit":9349,"Ġdiff":9350,"mos":9351,"moid":9352,"igmoid":9353,"acert":9354,"=\"/":9355,"Ġnd":9356,"Ġneg":9357,"threshold":9358,"struction":9359,"Ġdevice":9360,"defaults":9361,"amma":9362,"ĠGPIO":9363,"Ġ03":9364,"riend":9365,"codecs":9366,"ĠEdit":9367,"sertion":9368,"ĠState":9369,"Store":9370,"reader":9371,"UNI":9372,"crement":9373,"prime":9374,"wins":9375,"connector":9376,"requency":9377,"ifications":9378,"Ġ100000":9379,"å¼ķ":9380,"losses":9381,"Masks":9382,"SCR":9383,"activate":9384,"slices":9385,"Ġyapf":9386,"Ġbehavior":9387,"ĠRequirement":9388,"EXTENSIONS":9389,"$$":9390,")//":9391,"Feature":9392,"YA":9393,"false":9394,"lang":9395,"pair":9396,"Ġent":9397,"Ġvi":9398,"instances":9399,"development":9400,"Ġdriver":9401,"Ġscale":9402,"condition":9403,"extern":9404,"verted":9405,"ĠMake":9406,"Ġdev":9407,"ĠLambda":9408,"Ġtoo":9409,"ĠRole":9410,"()]<":9411,"portun":9412,"Ġgrid":9413,"ĠWindow":9414,"ÐµÑĢÐµ":9415,"ĠĠĠĠĠĠĠĠĠĠĠĠĠĠĠĠĠĠ":9416,"Ġoptional":9417,"Ġrequirement":9418,"routing":9419,"Select":9420,"READ":9421,"Parallel":9422,"ĠDeferred":9423,"ILL":9424,"hrase":9425,"ĠSpec":9426,"2018":9427,"Upload":9428,"ĠLinear":9429,"ossible":9430,"expat":9431,"Datetime":9432,"character":9433,"ReadOnly":9434,"penup":9435,"rotation":9436,"stocks":9437,"æłĩ":9438,"å½ĵ":9439,"Ġclosed":9440,"Ġepochs":9441,"çİ¯":9442,"ĠDivider":9443,"åīį":9444,"ĠDeferredError":9445,"Bindings":9446,"DO":9447,"Embedding":9448,"FE":9449,"UI":9450,"YsrcValidator":9451,"[...":9452,"cpu":9453,"duration":9454,"faces":9455,"pur":9456,"pace":9457,"vg":9458,"æģ":9459,"çº":9460,"é¡":9461,"ĵį":9462,"imports":9463,"relation":9464,"icient":9465,"cols":9466,"Ġ'/":9467,"ingroup":9468,"Ġam":9469,"Ġaverage":9470,"ills":9471,"ĠChoice":9472,"straint":9473,"ression":9474,"ĠNumpyVersion":9475,"ĠPr":9476,"ĠPlatforms":9477,"Ġlar":9478,"vels":9479,"ĠRule":9480,"mailsender":9481,"Ġ{})<":9482,"outube":9483,"prob":9484,"()'<":9485,"')],":9486,"),)":9487,"Ġboth":9488,"Ġabs":9489,"Ġitself":9490,"Ġroom":9491,"ARY":9492,"what":9493,"ĠProtocol":9494,"Ġ'__'<":9495,"Ð¾Ðº":9496,"\"].":9497,"Ġsoma":9498,"DIM":9499,"ÑģÐ¿":9500,"ToOne":9501,"ĠYsrcValidator":9502,"ĠINT":9503,"Authentication":9504,"155":9505,"]]:<":9506,"Collect":9507,"ĠStudentAdmin":9508,"ikes":9509,"æľĢ":9510,"Length":9511,"recipe":9512,"bran":9513,"OneToOne":9514,"paa":9515,"Ġheap":9516,"ercise":9517,"Download":9518,"åħĥç´ł":9519,"è½¬":9520,"Ġcryptography":9521,"Flag":9522,"UNIQUE":9523,"501":9524,"Bu":9525,"Helper":9526,"NaT":9527,"fname":9528,"ming":9529,"pdf":9530,"slow":9531,"tw":9532,"~']<":9533,"Ġass":9534,"Ġ})<":9535,"Ġimages":9536,"des":9537,"stat":9538,"lsj":9539,"club":9540,"Ġrecord":9541,"upon":9542,"uno":9543,"pygame":9544,"ĠMan":9545,"ckeditor":9546,"ĠBinary":9547,"ipeline":9548,"osx":9549,"scapy":9550,"outstanding":9551,"Ġ'.*',":9552,"autogui":9553,"MODE":9554,"neg":9555,"egin":9556,"facebook":9557,"Ġmetrics":9558,"myapp":9559,"20210":9560,"ĠYield":9561,"ĠDevice":9562,"ically":9563,"generics":9564,"Ġsessionmaker":9565,"crm":9566,"Ð¼ÐµÐ½":9567,"ava":9568,"Anchor":9569,"Ġ{})":9570,"blem":9571,"ĠCustomUserCreationForm":9572,"ĠÐ¸Ð½":9573,"DefaultRouter":9574,"Ġgood":9575,"ĠStringIO":9576,"Ġmultiple":9577,"ä¸ŃçļĦ":9578,"Ġglobals":9579,"WORDS":9580,"TabularInline":9581,"Ġ'*~']<":9582,"possibly":9583,"SCRIP":9584,"OneToOneField":9585,"\".<":9586,"(('":9587,"+)/":9588,"MS":9589,"Pickle":9590,"RDP":9591,"SP":9592,"TZ":9593,"Tz":9594,"dc":9595,"dns":9596,"gf":9597,"ks":9598,"rs":9599,"Ðĺ":9600,"invoice":9601,"rough":9602,"Ġph":9603,"utation":9604,"\",)}":9605,"ĠSchema":9606,"Contact":9607,"structure":9608,"ĠMenu":9609,"ĠDispatcher":9610,"ĠNa":9611,"ĠisPath":9612,"both":9613,"Ġstar":9614,"quir":9615,"ĠIS":9616,"parallel":9617,"imread":9618,"ialization":9619,"rios":9620,"likes":9621,"ĠEmpty":9622,"aised":9623,"=[('":9624,"ĠPyQt":9625,"ĠGenerate":9626,"ÐµÐ¼":9627,"ĠĠĠĠĠĠĠĠĠĠĠĠĠĠĠĠĠĠĠĠĠĠĠĠĠĠĠĠĠĠĠĠĠĠĠĠĠĠĠĠ":9628,"Ġloader":9629,"ÑĢÐ¾Ð²":9630,"Ġjina":9631,"Ġatt":9632,"inalg":9633,"ĠsetUp":9634,"Counter":9635,"origin":9636,"Align":9637,"è¿Ĳ":9638,"tzwin":9639,"ELD":9640,"è¯ķ":9641,"ĠTomlError":9642,"shared":9643,"FillcolorValidator":9644,"ĠFillcolorValidator":9645,"Ġthereof":9646,"COMPI":9647,"######\",<":9648,"Ġmenu":9649,"STRING":9650,"continuation":9651,"outstandingtoken":9652,"GF":9653,"Job":9654,"Live":9655,"_,":9656,"nail":9657,"publish":9658,"say":9659,"uan":9660,"ino":9661,"metry":9662,"loor":9663,"Ġ\")":9664,"contract":9665,"inite":9666,"Ġmany":9667,"Ġbig":9668,"Ġbuil":9669,"ĠSn":9670,"djangoProject":9671,"ĠPhoto":9672,"otation":9673,"__(**":9674,"ĠRE":9675,"ĠRich":9676,"texttemplate":9677,"ĠGreg":9678,"nsupport":9679,"022600":9680,"umbnail":9681,"ĠUSER":9682,"()],<":9683,"NumberPagination":9684,"STRY":9685,"listValidator":9686,"Ġxp":9687,"aft":9688,"Ġsupported":9689,"Textarea":9690,"TexttemplateValidator":9691,"layoutstyle":9692,"Ġscrapy":9693,"subplot":9694,"capy":9695,"Ġincludes":9696,"sliding":9697,"ĠTexttemplateValidator":9698,"Ġreadonly":9699,"ĠYOLO":9700,"closed":9701,"ĠDefaults":9702,"Thread":9703,"Ġcolumns":9704,"Fixer":9705,"seconds":9706,"Description":9707,"FCBBoxHead":9708,"ĠGPLv":9709,"lacklist":9710,"imaginaryaxis":9711,"ilarity":9712,"quivalent":9713,"\",)}),)":9714,"\"+":9715,"#\",<":9716,"({}":9717,"bul":9718,"fed":9719,"fli":9720,"hop":9721,"eros":9722,"Ġpiv":9723,"locatable":9724,"Ġdraw":9725,"coll":9726,"serials":9727,"Ġnone":9728,"ĠSEC":9729,"(''))<":9730,"Ġforce":9731,"ĠBbox":9732,"ĠBasic":9733,"LECT":9734,"Ġgc":9735,"ĠBaseConfig":9736,"---------<":9737,"Ġabove":9738,"Ġsubset":9739,"achine":9740,"tesIO":9741,"Ġnews":9742,"marks":9743,"topic":9744,"ĠJob":9745,"aussian":9746,"mernote":9747,"ĉĉĉ":9748,"ĠAlign":9749,"decoded":9750,"ãģ®":9751,"rooms":9752,"FormatWarning":9753,"Ġheader":9754,"ĠBoolean":9755,"ĠNumberFormat":9756,"Ġslug":9757,"bolsrcValidator":9758,"World":9759,"analy":9760,"Ġrandint":9761,"å¸¸":9762,"quares":9763,"Ġclean":9764,"çĶŁæĪĲ":9765,"éĿ¢":9766,"ĠRegexObject":9767,"Ġfunctionality":9768,"çĲĨ":9769,"HIGHEST":9770,"è¿ĶåĽŀ":9771,"æģ¯":9772,"TzFormatWarning":9773,"COMPILED":9774,"nsupported":9775,".),":9776,"180":9777,"=\",":9778,"Display":9779,"ValidationError":9780,"Windows":9781,"]:":9782,"buffer":9783,"cpp":9784,"npy":9785,"osp":9786,"æ¬":9787,"Ġ01":9788,"ati":9789,"iness":9790,"memo":9791,"encod":9792,"stage":9793,"adv":9794,"Ġ[]":9795,"ĠSTOP":9796,"ĠCalc":9797,"boost":9798,"ĠBad":9799,"ĠBASE":9800,"osa":9801,"calls":9802,"proto":9803,"Ġprojects":9804,"ĠEmp":9805,"Formatter":9806,"tokenize":9807,"odd":9808,"fficient":9809,"columns":9810,"']['":9811,"processing":9812,"Ġobtain":9813,"Channel":9814,">~~~~~~~~~~~~~~~~":9815,"Ġ\".\".":9816,"ValueError":9817,"anguages":9818,"å¼Ĥ":9819,"Ġtokens":9820,"Ġbuiltins":9821,"Ġgoes":9822,"ä¹ĭ":9823,"åĬ¨":9824,"éĩĮ":9825,"Ġhours":9826,"collector":9827,"cleanup":9828,"peps":9829,"rago":9830,"METHODS":9831,"/'),<":9832,"52":9833,"Call":9834,"Del":9835,"Feed":9836,"GAN":9837,"IS":9838,"Port":9839,"Parent":9840,"Part":9841,"Press":9842,"XhoverformatValidator":9843,"YhoverformatValidator":9844,"fw":9845,"jour":9846,"linalg":9847,"ness":9848,"ties":9849,"tars":9850,"xhoverformat":9851,"yhoverformat":9852,"Ġarticles":9853,"Ĩæĺ":9854,"Ĳâķ":9855,"sens":9856,"decoder":9857,"album":9858,"recv":9859,"Ġduplic":9860,"Ġ\"(":9861,"Ġsolve":9862,"cond":9863,"converter":9864,"traceref":9865,"versed":9866,"First":9867,"Ġbad":9868,"ĠScapy":9869,"ending":9870,"ĠMA":9871,"ĠDep":9872,"ĠFROM":9873,"Ġ02":9874,"Ġyolo":9875,"ONS":9876,"aggreg":9877,"Ġgrade":9878,"interactive":9879,"ĠSelectedpointsValidator":9880,"CHES":9881,"Ġsubmodule":9882,"ĠProcess":9883,"SelectedpointsValidator":9884,"ĠYhoverformatValidator":9885,"mbic":9886,"Ġgeneric":9887,"ILI":9888,"ĠXhoverformatValidator":9889,"Ġjsonify":9890,"evaluator":9891,"Ġ85":9892,"Traceref":9893,"SSL":9894,"ĠIndexError":9895,"ĠTraceref":9896,"selectedpoints":9897,"ColorBar":9898,"symmetric":9899,"metricValidator":9900,"ĠColorBar":9901,"Ġgraphene":9902,"scalar":9903,"Ġdocstring":9904,"asiteAxes":9905,"ÑĦÐ¾ÑĢ":9906,"TextfontValidator":9907,"ĠTextfontValidator":9908,"GeoAdmin":9909,"çīĩ":9910,"minussrcValidator":9911,"Directory":9912,"èĩª":9913,"ONTAL":9914,"ORIZONTAL":9915,"RDPARTY":9916,")}<":9917,".\"":9918,">================":9919,"Cap":9920,"GRA":9921,"Photo":9922,"Random":9923,"Write":9924,"]),":9925,"embed":9926,"fpg":9927,"lm":9928,"lif":9929,"ªĨæĺ":9930,"Ġls":9931,"ľĢ":9932,"ernel":9933,"named":9934,"stderr":9935,"Ġdone":9936,"health":9937,"ĠdjangoProject":9938,"ups":9939,"gies":9940,"Ġcythonize":9941,"Ġbus":9942,"ĠArt":9943,"Ġconcat":9944,"cker":9945,"ĠBuit":9946,"LERY":9947,"calendar":9948,"scnet":9949,"performance":9950,"Release":9951,"valor":9952,"ĠStives":9953,"ĠĠĠĠĠĠĠĠĠĠĠĠĠĠĠĠĠĠĠĠĠĠ":9954,"Ð¾Ð¹":9955,"Ġnormal":9956,"[:]<":9957,"åıĳ":9958,"ĠSergio":9959,"ĠProductSerializer":9960,"ategories":9961,"ĠSQLite":9962,"ä»£":9963,"ĠLogout":9964,"åŃĲ":9965,"Ġtempdir":9966,"airseq":9967,"Ġsale":9968,"åįķ":9969,"ORMAT":9970,"çİ°":9971,"ĠBarrios":9972,"Ġfactorial":9973,"enkins":9974,"REGISTRY":9975,"ĠFigureCanvasQT":9976,"è°ĥçĶ¨":9977,"ªĨæĺĬ":9978,"ĠBuitrago":9979,"Bert":9980,"CB":9981,"CD":9982,"Cloud":9983,"Face":9984,"GO":9985,"PATCH":9986,"Pattern":9987,"RowValidator":9988,"SORT":9989,"Valid":9990,"fold":9991,"js":9992,"rink":9993,"tseries":9994,"twins":9995,"{<":9996,"}.<":9997,"mes":9998,"road":9999,"eng":10000,"Ġpys":10001,"Ġtdi":10002,"isr":10003,"Ġsw":10004,"apper":10005,"constructor":10006,"(\"--":10007,"exchange":10008,"Ġmyproject":10009,"Ġtheir":10010,"Ġcard":10011,"Ġcloud":10012,"there":10013,"chrome":10014,"ĠCython":10015,"ĠMater":10016,"Ġwrit":10017,"Ġrate":10018,"ĠRowValidator":10019,"ĠRemove":10020,"Ġgu":10021,"Ġinterpreter":10022,"SQLALCHEMY":10023,"Ð°Ð²":10024,"INST":10025,"ĠĠĠĠĠĠĠĠĠĠĠĠĠĠĠĠĠĠĠĠ":10026,"ĠListView":10027,"Namespace":10028,"irror":10029,"Ġ90":10030,"arguments":10031,"ĠModelViewSet":10032,"toolz":10033,"Company":10034,"Ġautomotive":10035,"ĠColumnValidator":10036,"è®¡":10037,"ColumnValidator":10038,"ĠRunner":10039,"Ġsliding":10040,"Work":10041,"globals":10042,"COLOR":10043,"ĠHelloappConfig":10044,"Accessor":10045,"quantity":10046,"ĠFILE":10047,"Ð¾Ð³Ð¾":10048,"łÐµÐ·ÑĥÐ»ÑĮÑĤÐ°ÑĤ":10049,"ĠRolling":10050,"SCRIPT":10051,"ĲâķĲâķ":10052,"AME":10053,"Des":10054,"Dto":10055,"IE":10056,"LC":10057,"Legacy":10058,"NPY":10059,"Print":10060,"SN":10061,"Shar":10062,"bise":10063,"ef":10064,"hor":10065,"haz":10066,"ply":10067,"pag":10068,"rent":10069,"tax":10070,"æ±":10071,"é¢":10072,"éľĢ":10073,"Ġ><":10074,"recogn":10075,"assets":10076,"fish":10077,"filer":10078,"issue":10079,"Ġinvalid":10080,"updat":10081,"Ġodd":10082,"Control":10083,"='\\\\":10084,"ĠCODE":10085,"mentario":10086,"resp":10087,"combin":10088,"ĠPrint":10089,"Ġexc":10090,"LETE":10091,"ĠIP":10092,"ĠGPU":10093,"usu":10094,"Adam":10095,"ither":10096,"==<":10097,"arraysrc":10098,"ICT":10099,"linewidth":10100,"Reg":10101,"ashboard":10102,"ĠVari":10103,"Ġ%%":10104,"ĠÐ±":10105,"mmcls":10106,"white":10107,"ffer":10108,"Timestamp":10109,"RED":10110,"ĠURLs":10111,"steps":10112,"astro":10113,"Ġdbm":10114,"Ġbackends":10115,"placeholder":10116,"Ġ\"\")<":10117,"ĠDistributionNotFound":10118,"Ġhelloapp":10119,"Ġzero":10120,"æľº":10121,"Period":10122,"è®¤":10123,"è®¾":10124,"åĬ¡":10125,"realpath":10126,"jobs":10127,"educa":10128,"ĠéªĨæĺĬ":10129,"éĥ¨":10130,"ĠÐºÐ»Ð°ÑģÑģÐ°":10131,"Ġpivot":10132,"/$',":10133,"AE":10134,"High":10135,"Math":10136,"VAR":10137,"brand":10138,"csp":10139,"myproject":10140,"oom":10141,"same":10142,"without":10143,"»ĺ":10144,"atural":10145,"infer":10146,"rel":10147,"idual":10148,"icip":10149,"icnet":10150,"hether":10151,"Ġ''.":10152,"ctime":10153,"cons":10154,"(\"__":10155,"acion":10156,"exclude":10157,">##":10158,">#################################":10159,"Ġ#####":10160,"Ġseu":10161,"imeter":10162,"ĠFrame":10163,"ĠFaker":10164,"()).":10165,"agger":10166,"Reset":10167,"ĠVo":10168,"Ð°Ð¹":10169,"Power":10170,"ribe":10171,"Ġparsed":10172,"Ġincluded":10173,"Ġmovie":10174,"ĠContext":10175,"Ð¾Ð¶":10176,"caches":10177,"OrReadOnly":10178,"Ġbutton":10179,"ypoint":10180,"åĪĻ":10181,"ANDARD":10182,"vertise":10183,"PREFIX":10184,"åĲĮ":10185,"cases":10186,"ĠTimedelta":10187,"Software":10188,"ĠSimpleTestCase":10189,"Events":10190,"ĠScene":10191,"Ġtasks":10192,"erry":10193,"basicConfig":10194,"bucket":10195,"skipif":10196,"Ġcorrespon":10197,"balance":10198,"éĢļ":10199,"YukkiMusic":10200,"longest":10201,"Ġsnippet":10202,"uniform":10203,"Ġbucket":10204,"escaped":10205,"Ġproperly":10206,"Embedded":10207,"branch":10208,"YukkiMusicBot":10209,"(\"\"":10210,".,<":10211,"Cart":10212,"Jenkins":10213,"LM":10214,"Payment":10215,"Rule":10216,"SV":10217,"Typer":10218,"UE":10219,"VICE":10220,"]{":10221,"begin":10222,"dl":10223,"iven":10224,"px":10225,"si":10226,"vot":10227,"vol":10228,"ority":10229,"separator":10230,"ardo":10231,"itect":10232,"lsx":10233,"Ġtables":10234,"(\"_":10235,"Ġcast":10236,"Ġok":10237,"ifar":10238,"ĠMail":10239,"Ġdetail":10240,"Ġlater":10241,"otal":10242,"ĠFla":10243,"ĠOffset":10244,"ĠRead":10245,"fra":10246,"syntax":10247,"TextInput":10248,"Pose":10249,"Ġround":10250,"ĠUserViewSet":10251,"Ġscapy":10252,"Ð¸ÐºÐ¸":10253,"placed":10254,"))[":10255,"Ġnullable":10256,"============":10257,"Ġdiscord":10258,"åħ³":10259,"ĠSettings":10260,"~~~~~~~<":10261,"345":10262,"Groupby":10263,"genre":10264,"è¯·":10265,"ĠCustomUserChangeForm":10266,"å°±":10267,"Script":10268,"Ġcalculator":10269,"enticate":10270,"arios":10271,"DATABASES":10272,"Methods":10273,"Segmentation":10274,"Ġrepeat":10275,"éĻ¤":10276,"ĠModels":10277,"ĠSubplotDivider":10278,"ĠÐ¸Ð½ÑĦÐ¾ÑĢ":10279,"»ĺè®¤":10280,"(\\\\":10281,");<":10282,"4000":10283,"DATE":10284,"Empty":10285,"IF":10286,"MIDI":10287,"OF":10288,"PER":10289,"Solver":10290,"Usage":10291,"XaxisValidator":10292,"YaxisValidator":10293,"elements":10294,"pin":10295,"smooth":10296,"xp":10297,"xff":10298,"æĵį":10299,"Ġ]":10300,"atValidator":10301,"always":10302,"repository":10303,"standard":10304,"lose":10305,"loaded":10306,"Ġscor":10307,"Ġsafe":10308,"exc":10309,"trade":10310,"typeValidator":10311,"Ġmk":10312,"Ġmade":10313,"Ġmypy":10314,"aboost":10315,"andid":10316,"ĠSpi":10317,"Ġactiv":10318,"minmax":10319,"posed":10320,"posix":10321,"tech":10322,"team":10323,"ĠDisplay":10324,"ette":10325,"etag":10326,"Ġfe":10327,"ĠPassword":10328,"ĠBM":10329,"ĠFoo":10330,"Ġhaystack":10331,"parameter":10332,"progress":10333,"times":10334,"ĠHook":10335,"ENER":10336,"arrayValidator":10337,"arraysrcValidator":10338,"irection":10339,"actice":10340,"ATORS":10341,"PIS":10342,"Report":10343,"ashValidator":10344,"Device":10345,"BUFF":10346,"Ops":10347,"Ð¾Ðµ":10348,"nditer":10349,"pgserials":10350,"Ġloaded":10351,"homepage":10352,"ĠOracleDatabaseFeatures":10353,"ĠYaxisValidator":10354,"markdown":10355,"ĠXaxisValidator":10356,"Ġkar":10357,"Ġexplicit":10358,"avig":10359,"matplotlib":10360,"Vari":10361,"ĠTHIRDPARTY":10362,"æĸ°":10363,"Ġmysql":10364,"USERS":10365,"9999":10366,"CONFIG":10367,"repeat":10368,"æīĵ":10369,"å¤ļ":10370,"ĠScripts":10371,"Scattering":10372,"yperiod":10373,"CELERY":10374,"mplexity":10375,"urrencyProvider":10376,"Ġcarl":10377,"lesson":10378,"xxxx":10379,"æł¼":10380,"instaboost":10381,"warns":10382,"ERNAL":10383,"****************":10384,"Ġtriangle":10385,"ĠCrypto":10386,"securetransport":10387,"Obtain":10388,"HEADER":10389,"moothingValidator":10390,"pendown":10391,"MobileNetV":10392,"Ġespnet":10393,"hazmat":10394,"escapedchars":10395,"\"})<":10396,">}":10397,"AIN":10398,"CODE":10399,"Dest":10400,"Dialog":10401,"Patch":10402,"Target":10403,"]==":10404,"gal":10405,"ku":10406,"pagination":10407,"udo":10408,"ÐĶ":10409,"æĬ":10410,"Ġattr":10411,"inet":10412,"alance":10413,"asctime":10414,"lyph":10415,"Ġdt":10416,"Ġdot":10417,"Ġdmoj":10418,"heapp":10419,"Ġreal":10420,"opacitys":10421,"adastro":10422,"gif":10423,"getcwd":10424,"unpack":10425,"figure":10426,"ĠAsync":10427,"='(\\\\":10428,"illa":10429,"pyarrow":10430,"Ġwrap":10431,"ĠDB":10432,"ĠDense":10433,"ĠDeta":10434,"Ġ224":10435,"Ġfrappe":10436,"ĠPlayer":10437,"Ġtouch":10438,"__(__":10439,"ĠBackend":10440,"Ġhmac":10441,"immutable":10442,"ĠON":10443,"ĠRemote":10444,"Deform":10445,"AUTO":10446,"atasets":10447,"workflow":10448,"ĠUserConfig":10449,"solver":10450,"PyT":10451,"Ġidle":10452,"....":10453,"LONG":10454,"ĠYour":10455,"Ġuma":10456,"Ġgenerates":10457,"Classification":10458,"ursive":10459,"ampling":10460,"sklearn":10461,"Shim":10462,"ĠModelSerializer":10463,"ĠTrain":10464,"salary":10465,"Ġsteps":10466,"Scene":10467,"})',":10468,"Movie":10469,"itespace":10470,"ranch":10471,"ĠActiveLink":10472,"ĠSTANDARD":10473,"æĶ¹":10474,"Ġaxis":10475,"Ġselenium":10476,"sertionError":10477,"ĠLambdaContext":10478,"'m":10479,"=('":10480,"Bad":10481,"DF":10482,"FOR":10483,"Fail":10484,"LIM":10485,"PACK":10486,"PhoneNumberProvider":10487,"aux":10488,"dge":10489,"ecommerce":10490,"fused":10491,"imagen":10492,"rams":10493,"sho":10494,"tre":10495,"ynam":10496,"}'":10497,"ora":10498,"orange":10499,"invalid":10500,"erkzeug":10501,"ament":10502,"Ġpub":10503,"Ġplay":10504,"Ġpossible":10505,"iders":10506,"Ġ\"#":10507,"ypted":10508,"Ġrecor":10509,"container":10510,"Ġindent":10511,"Ġ[-":10512,"three":10513,"ĠAss":10514,"ĠSent":10515,"ĠLtd":10516,"ĠPagesConfig":10517,"Ġexport":10518,"Ġcols":10519,"ickname":10520,"Ġsection":10521,"Forward":10522,"Ġvariables":10523,"Ġemployee":10524,"linecolor":10525,"ticket":10526,"Registry":10527,"------------":10528,"flakes":10529,"ensors":10530,"ÑĤÐ°":10531,"Ġjupyter":10532,"Ġjedi":10533,"Ġleap":10534,"ĠCreateableAPIResource":10535,"prices":10536,"Ð¼Ð°ÑĤ":10537,"gridcolor":10538,"gridwidth":10539,"ĠDown":10540,"Ġshell":10541,"StackedInline":10542,"Ġ\"%#":10543,"datrie":10544,"æķ°ç»Ħ":10545,"requencies":10546,"iversity":10547,"ABLE":10548,"è¿ĩ":10549,"people":10550,"Common":10551,"NBitLong":10552,"Ġoffset":10553,"ĠHomeConfig":10554,"Scripts":10555,"Division":10556,"ceitas":10557,"å¹¶":10558,"SupportsIndex":10559,"builtins":10560,"ĠAboutPageView":10561,"Ġconsuming":10562,"çŃī":10563,"ĠPosition":10564,"[...]<":10565,"bisenetv":10566,"'}":10567,"6749":10568,":'":10569,"?|\\.":10570,"AV":10571,"Cle":10572,"Course":10573,"Day":10574,"How":10575,"Haz":10576,"Last":10577,"Mon":10578,"Mix":10579,"Sw":10580,"bro":10581,"dil":10582,"drf":10583,"fut":10584,"four":10585,"hort":10586,"school":10587,"watch":10588,"your":10589,"åŁ":10590,"Ġextension":10591,"increasing":10592,"mplabs":10593,"anner":10594,"Ġtick":10595,"coes":10596,"geode":10597,"iss":10598,"operator":10599,"igger":10600,"Ġmanual":10601,"termin":10602,"abe":10603,"verson":10604,"Ġbank":10605,"='__":10606,"pyError":10607,"pyasn":10608,"etc":10609,"etina":10610,"ptp":10611,"Ġdes":10612,"ĠPort":10613,"://{":10614,"lav":10615,"ĠGENER":10616,"projection":10617,"tair":10618,"Ġemp":10619,"ModelFactory":10620,"song":10621,"Ġprod":10622,"Ġthree":10623,"Refresh":10624,"iteral":10625,"Ð¾Ñģ":10626,"Program":10627,"Load":10628,"raform":10629,"Ġraises":10630,"ÑĤÐ¾ÑĢ":10631,"plain":10632,"tiny":10633,"Ġleading":10634,"faq":10635,"']:<":10636,"Ġaccept":10637,"astype":10638,"Ġcompare":10639,"ResNeSt":10640,"ALLOWED":10641,"Ġradix":10642,"CONT":10643,"snmplabs":10644,"posals":10645,"ĠÐ¾ÑĤ":10646,"12345":10647,"FUNCTION":10648,"ĠNUMEXPR":10649,"ĠINTERNAL":10650,"Ġheapq":10651,"æ¬¡":10652,"geodetic":10653,"versonator":10654,"(\",":10655,"70":10656,"AI":10657,"Cal":10658,"FUL":10659,"Labels":10660,"MB":10661,"aid":10662,"categorical":10663,"gb":10664,"ience":10665,"tn":10666,"xS":10667,"èī":10668,"Ġâ":10669,"department":10670,"__:":10671,"ane":10672,"reviews":10673,"stor":10674,"Ġpayment":10675,"anger":10676,"Ġ'{}":10677,"upb":10678,"trace":10679,"Ġmusic":10680,"getitem":10681,"unchanged":10682,"serialisable":10683,"Ġcross":10684,"Ġowner":10685,"Controller":10686,"ducer":10687,"endian":10688,"ĠDa":10689,"ĠDirect":10690,"Ġfin":10691,"Ġfinally":10692,"Ġlay":10693,"vey":10694,"ialect":10695,"aming":10696,"Ġoperation":10697,"ialized":10698,"take":10699,"ERE":10700,"Ġorient":10701,"proposals":10702,"Serialisable":10703,"Ġtra":10704,"ĠVer":10705,"INET":10706,"DataRequired":10707,"Ġ500":10708,"akov":10709,"Ġparty":10710,"ÑģÐº":10711,"ParasiteAxes":10712,"Coder":10713,"rawler":10714,"xyz":10715,"ĠSerialisable":10716,"ĠAnswer":10717,"Metric":10718,"Memory":10719,"ĠÐ¿Ð°":10720,"ĠTrack":10721,"[[[[":10722,"Ġarupb":10723,"locations":10724,"accessor":10725,"polyakov":10726,"åºĶ":10727,"Ġhour":10728,"configured":10729,"ĠÐ¾Ð±":10730,"ç±»åŀĭ":10731,"Price":10732,"ĠSignUpView":10733,"Ð¾Ð±Ð°Ð²":10734,"ÑĨÐ¸Ð¸":10735,"components":10736,"Ġqtpy":10737,"ĠVisual":10738,"ĠMasked":10739,"Ġndarray":10740,"YADIS":10741,">~~~~~~~~~~~~~~~~~~~~~~~<":10742,"Ġyolox":10743,"ĠMaterials":10744,"ardous":10745,"æĵįä½ľ":10746,"BUFFER":10747,"ObtainPair":10748,"Hazardous":10749,"90000":10750,"?\")<":10751,"Abs":10752,"FORMAT":10753,"IG":10754,"LINE":10755,"MULT":10756,"Player":10757,"PixelSampler":10758,"Role":10759,"Sample":10760,"Yes":10761,"big":10762,"curr":10763,"pers":10764,"pick":10765,"qq":10766,"tile":10767,"timer":10768,"you":10769,"ĠQA":10770,"ħį":10771,"ĵÐ»Ð°":10772,"semantic":10773,"meter":10774,"arily":10775,"algorithms":10776,"stro":10777,"Ġpa":10778,"Ġdummy":10779,"Ġ\"'":10780,"Ġson":10781,"Ġinlines":10782,"Ġmi":10783,"Ġbeta":10784,"ĠAg":10785,"ĠSingle":10786,"('__":10787,"pyw":10788,"resume":10789,"Ġdesc":10790,"ĠRad":10791,"Ġexamples":10792,"ĠButton":10793,"SELECT":10794,"Ġcould":10795,"Ġselect":10796,"ipedia":10797,"Ġ327":10798,"cessed":10799,"addons":10800,"Ġpipeline":10801,"ATES":10802,"tryK":10803,"openssl":10804,"Ġprevious":10805,"ĠWriter":10806,"ÐµÐ»":10807,"Ġpool":10808,"whl":10809,"ASSES":10810,"Ġalgorithms":10811,"20200":10812,"Ġdepths":10813,"Ġrequirements":10814,"LEVEL":10815,"positions":10816,"processors":10817,"Creator":10818,"Ġcompile":10819,"0382":10820,"Ġspecific":10821,"Distributed":10822,"ĠTodoConfig":10823,"audio":10824,"cancel":10825,"GroupUnrestrictedIngress":10826,"Customer":10827,"ĠTelegram":10828,"Ġevaluate":10829,"ohn":10830,"cudnn":10831,"SimpleTestCase":10832,"TRAN":10833,"mutations":10834,"ApplicationClient":10835,"æį¢":10836,"cluding":10837,"mobile":10838,"Ġdifference":10839,"æŃ£":10840,"destroy":10841,"Ð¼Ð¸Ð½Ð°":10842,"sdk":10843,"journal":10844,"xStryK":10845,"\"},<":10846,"'(-":10847,"(',":10848,"-##":10849,"5000":10850,"91":10851,"Bin":10852,"Card":10853,"DD":10854,"Emp":10855,"Ide":10856,"Mod":10857,"Maker":10858,"Menu":10859,"NT":10860,"Pay":10861,"Score":10862,"ZsrcValidator":10863,"hy":10864,"kp":10865,"kill":10866,"tx":10867,"tures":10868,"tts":10869,"xtype":10870,"ytype":10871,"zsrc":10872,"}')":10873,"Ð®":10874,"Ħĸ":10875,"declarative":10876,"reference":10877,"idi":10878,"completed":10879,"Ġreplaced":10880,"Ġsignal":10881,"uest":10882,"acing":10883,"modebar":10884,"added":10885,"trl":10886,"trust":10887,"serial":10888,"Ġcursor":10889,"Ġot":10890,"ateclub":10891,"='/":10892,"ĠCard":10893,"resnel":10894,"ptime":10895,"ĠLa":10896,"Ġ---":10897,"texttemplatesrc":10898,"Ġstable":10899,"party":10900,"testutils":10901,"pathbar":10902,"levelname":10903,"Ġ31":10904,"ĠUtils":10905,"Ġvariant":10906,"Ġproj":10907,"Ġtraces":10908,"ĠÐ°":10909,"ĠÐĵÐ»Ð°":10910,"TexttemplatesrcValidator":10911,"ĠUsers":10912,"archive":10913,"ĠTexttemplatesrcValidator":10914,"displayed":10915,"REEN":10916,"KeyBindings":10917,"Ġaddition":10918,"Ġcompany":10919,"ĠZsrcValidator":10920,"discount":10921,"Transport":10922,"Ð½Ð¸ÐºÑĥ":10923,"ĠTrainer":10924,"periodalignment":10925,"lightposition":10926,"CONF":10927,"Social":10928,"ÑĢÐµÐ¼Ð¸Ð½Ð°":10929,"ĠColorscaleValidator":10930,"Ð±Ð½Ð¸ÐºÑĥ":10931,"EndValidator":10932,"}/{":10933,"ĠWork":10934,"StartValidator":10935,"LoginView":10936,"ÑĩÐµÐ±Ð½Ð¸ÐºÑĥ":10937,"å¹´":10938,"ĠSystemExit":10939,"ĠÑĥÑĩÐµÐ±Ð½Ð¸ÐºÑĥ":10940,"ä¿®":10941,"ĠActiveSession":10942,"ĠStartValidator":10943,"ĠÐķÑĢÐµÐ¼Ð¸Ð½Ð°":10944,"variable":10945,"OHEMPixelSampler":10946,"ybrid":10947,"ĠEndValidator":10948,"asurement":10949,"BINARY":10950,"gistic":10951,"ĠÐŁÐ¾Ð»ÑıÐºÐ¾Ð²Ð°":10952,")?$',":10953,"ĠSQLiteDatabaseFeatures":10954,"ĠÐ¸Ð½ÑĦÐ¾ÑĢÐ¼Ð°ÑĤ":10955,"andidate":10956,"ĠâĦĸ":10957,"ĠÐĵÐ»Ð°Ð²Ð°":10958,"periodalignmentValidator":10959,"ĠÐ¸Ð½ÑĦÐ¾ÑĢÐ¼Ð°ÑĤÐ¸ÐºÐ¸":10960,".\",":10961,"78":10962,"CM":10963,"GER":10964,"HE":10965,"SK":10966,"SOCK":10967,"XML":10968,"bill":10969,"cf":10970,"cmap":10971,"feat":10972,"gm":10973,"hide":10974,"ko":10975,"uck":10976,"wind":10977,"wild":10978,"{\"":10979,"¢«":10980,"Ð¡":10981,"è¢«":10982,"orb":10983,"ini":10984,"rolled":10985,"reserved":10986,"icals":10987,"Ġdic":10988,"covery":10989,"Ġred":10990,"Ġrepo":10991,"const":10992,"experiment":10993,"Ġmult":10994,"filepath":10995,"izers":10996,"teacher":10997,"Ġcook":10998,"ĠImp":10999,"()])<":11000,"maximum":11001,"Ġgui":11002,"Ġglyph":11003,"Ġuseful":11004,"ticker":11005,">@_":11006,"Ġproperty":11007,"Ġproduction":11008,"translate":11009,"Ġbeing":11010,"Ġmaximum":11011,"Ġprepare":11012,"ixpath":11013,"Depth":11014,"Ġdomain":11015,"ĠGeneral":11016,"ĠStandard":11017,"Ġruns":11018,"Ġrunshell":11019,"ĠFixture":11020,"Ð¸Ð¼":11021,"soup":11022,"Ð¾Ð·":11023,"monitor":11024,"crete":11025,"1111":11026,"assertIs":11027,"2015":11028,"ĠImageGrid":11029,"restaurant":11030,"Ġposixpath":11031,"ĠMethod":11032,"PRI":11033,"äºĮ":11034,"MAP":11035,"ĠMatt":11036,"Ġsomething":11037,"wtf":11038,"å½¢":11039,"IsAuthenticated":11040,"ĠDocumentArray":11041,"ĠÐ¼Ð¾Ð´":11042,"versation":11043,"nomial":11044,"Matrix":11045,"rtualenv":11046,"CascadeRCNN":11047,"ĠRecipe":11048,"µĭè¯ķ":11049,"Ġkarateclub":11050,"Destroy":11051,"opacitysrc":11052,"(...":11053,")\")<":11054,"ACC":11055,"CY":11056,"Cr":11057,"COD":11058,"Future":11059,"Global":11060,"HO":11061,"Redis":11062,"TC":11063,"Total":11064,"average":11065,"dings":11066,"fect":11067,"lite":11068,"tit":11069,"vin":11070,"é»ĺè®¤":11071,"Ġkernel":11072,"Ġè¾ĵåĩº":11073,"ĹÐ°":11074,"atz":11075,"selection":11076,"alone":11077,"Ġpen":11078,"asset":11079,"utdown":11080,"Ġda":11081,"heap":11082,"isk":11083,"iso":11084,"ypedDict":11085,"ctree":11086,"controllers":11087,"terraform":11088,"getTable":11089,"abi":11090,"lick":11091,"ĠTSI":11092,"Ġnested":11093,"that":11094,"ĠAnd":11095,"chil":11096,"istics":11097,"Ġgetargspec":11098,"ĠCORS":11099,"ĠMOD":11100,"resa":11101,"Ġdeep":11102,"Ġfree":11103,"ĠPin":11104,"Ġlat":11105,"ĠBit":11106,"Ġcounts":11107,"Ġhi":11108,"Ġstat":11109,"ĠGradient":11110,"using":11111,"ĠReport":11112,"ANGE":11113,"Ġequivalent":11114,"workers":11115,"8080":11116,"Provide":11117,"UNT":11118,"Ġparsing":11119,"Predict":11120,"Ġdivis":11121,")))":11122,"akes":11123,"ĠLoad":11124,"ENTRY":11125,"ĠOpenID":11126,"ĠOpenType":11127,"producto":11128,"showgrid":11129,"Unit":11130,"original":11131,"Ġ800":11132,"rowse":11133,"æķ´":11134,"distributions":11135,"ridge":11136,"ĠClip":11137,"ĠShowgridValidator":11138,"ShowgridValidator":11139,"Trip":11140,"AMPLE":11141,"Getter":11142,"è¯»":11143,"ĠTech":11144,"ç»ĺ":11145,"ĠLabels":11146,"velopers":11147,"Byte":11148,"ttLib":11149,"ippets":11150,"GridcolorValidator":11151,"GridwidthValidator":11152,"Ġfib":11153,"(\"/\")<":11154,"HOSTS":11155,"ĠttFont":11156,"Ġgreater":11157,"çĽ®":11158,"çĽ¸":11159,"ĠGridcolorValidator":11160,"ĠGridwidthValidator":11161,"Ð½ÑĭÐ¹":11162,"ĠSignUpForm":11163,"Ġpredictor":11164,"Ġnotebook":11165,"å·¥":11166,"Bearer":11167,"favor":11168,"Ġnonebot":11169,"éľĢè¦ģ":11170,"è®¾ç½®":11171,"ĠActiveLinkManager":11172,"ĠGENERATED":11173,"èī²":11174,"ĠotFont":11175,"getTableClass":11176,"'},<":11177,"->":11178,"-{":11179,"72":11180,"=__":11181,"Active":11182,"BM":11183,"Choices":11184,"Failed":11185,"Man":11186,"SO":11187,"birth":11188,"ders":11189,"fri":11190,"just":11191,"landing":11192,"pid":11193,"tup":11194,"tweet":11195,"uz":11196,"udit":11197,"wave":11198,"Ġfill":11199,"inv":11200,"inset":11201,"anies":11202,"stations":11203,"studio":11204,"Ġpi":11205,"look":11206,"Ġrev":11207,"Ġremain":11208,"Ġregex":11209,"Ġsan":11210,"(\"{":11211,"Ġinner":11212,"abet":11213,"Ġ[('":11214,"tura":11215,"ĠCON":11216,"ĠCity":11217,"ĠCARE":11218,"strategy":11219,"pow":11220,"endpoints":11221,"Ġvat":11222,"ĠBU":11223,"ĠBatch":11224,"ĠBert":11225,"span":11226,"LENG":11227,"Ġstatement":11228,"Ġ+<":11229,"Ġ==================================":11230,"perties":11231,"AdminSite":11232,"labelfont":11233,"ega":11234,"authors":11235,"OpacitysrcValidator":11236,"ĠWrap":11237,"afka":11238,"Ġ70":11239,"ĠĠĠĠĠĠĠĠĠĠĠĠĠĠĠĠĠĠĠĠĠĠĠĠĠĠĠĠĠĠĠĠĠĠĠĠĠ":11240,"Prefix":11241,"Ð¸ÑĩÐµ":11242,"Ġaltair":11243,"UTC":11244,"Space":11245,"dential":11246,"ĠOpacitysrcValidator":11247,"Too":11248,"Ġtorchmeta":11249,"Keyboard":11250,"Logout":11251,"lobpcg":11252,"]]]]":11253,"BBB":11254,"rglob":11255,"letters":11256,"Ġoverload":11257,"ĠProductsConfig":11258,"auction":11259,"auctions":11260,"Notes":11261,"ÑĩÐ¸":11262,"below":11263,"ĠOutput":11264,"ĠFlaskForm":11265,"ĠCustomUserAdmin":11266,"ĠLoginView":11267,"ĠLinksConfig":11268,"SIDE":11269,"softmax":11270,"åº¦":11271,"centage":11272,"Ġcalculate":11273,"ĠUseful":11274,"ĠFixed":11275,"Models":11276,"cookie":11277,"OPTIONS":11278,"ordinate":11279,"SingleRoIExtractor":11280,"<<<<":11281,"pydevd":11282,"ĠDefinition":11283,"Ġsince":11284,"FlaglistValidator":11285,"negative":11286,"INSTALL":11287,"posixpath":11288,"ĠCAREFUL":11289,"-=":11290,".###":11291,"Cell":11292,"Mis":11293,"News":11294,"Sim":11295,"Scor":11296,"Utils":11297,"WT":11298,"awn":11299,"gu":11300,"hg":11301,"ki":11302,"slot":11303,"yes":11304,"zon":11305,"æŁ":11306,"ç©":11307,"ç¼":11308,"çĤ":11309,"éĽ":11310,"orio":11311,"atility":11312,"inel":11313,"inline":11314,"__\"]<":11315,"amel":11316,"anh":11317,"uty":11318,"iclass":11319,"Ġtutorial":11320,"Ġrece":11321,"Ġsolution":11322,"Ġ___":11323,"ĠTree":11324,"Ġbs":11325,"ibli":11326,"ĠCrowdbotics":11327,"Ġwizard":11328,"ĠLike":11329,"Ġfeed":11330,"Ġfetch":11331,"ĠPhone":11332,"ĠPhoneNumberProvider":11333,"Ġ(-":11334,"Ġexecut":11335,"divisible":11336,"amon":11337,"ERY":11338,"()[:":11339,"Ġpyexpat":11340,"fixed":11341,"Ġwhitespace":11342,"ĠÐłÐµÐ·ÑĥÐ»ÑĮÑĤÐ°ÑĤ":11343,"ĠStoreConfig":11344,"Ġdistance":11345,"Ġinitialize":11346,"Ġsubclass":11347,"ÑĤÐ¾":11348,"ĠPrompt":11349,"Ġidade":11350,"Ġjaraco":11351,"initialize":11352,"LogInfo":11353,"ï¼Ī":11354,"ï¼ī":11355,"Domain":11356,"ĠSpace":11357,"Ġdays":11358,"Ð²Ð¾Ð´":11359,"avra":11360,"Distance":11361,"Temp":11362,"2016":11363,"ĠEntry":11364,"studentapi":11365,"uffers":11366,"ACE":11367,"waitKey":11368,"Compatibility":11369,"segformer":11370,"å®¹":11371,"ĠAlbum":11372,"Connector":11373,"renderer":11374,"UpdateView":11375,"Worker":11376,"ĠSoftware":11377,"INTER":11378,"(\".\").":11379,"å¾ª":11380,"ä¼ł":11381,"ç§°":11382,"-------<":11383,"ĠÐĴÑħÐ¾Ð´":11384,"æıĲ":11385,"ä¾ĭ":11386,"Ġscoped":11387,"Ð¾Ð»ÑĮÐ·Ð¾Ð²Ð°ÑĤÐµ":11388,"è·¯":11389,"å¼Ĥå¸¸":11390,"GRAM":11391,"ĠDetail":11392,"RefreshView":11393,"ObtainPairView":11394,"ä¿®æĶ¹":11395,"çĤ¹":11396,")==":11397,"92":11398,":\"":11399,">(":11400,"BL":11401,"Frequency":11402,"GPIO":11403,"LP":11404,"LAY":11405,"Pass":11406,"PAR":11407,"Rout":11408,"SY":11409,"WH":11410,"]],":11411,"bat":11412,"cus":11413,"jupyter":11414,"ough":11415,"paper":11416,"squares":11417,"tg":11418,"xlsx":11419,"zoo":11420,"éħį":11421,"Ġed":11422,"Ġextensions":11423,"ĠÑĢÐµ":11424,"describe":11425,"Ġ='":11426,"reed":11427,"urize":11428,"Ġ')":11429,"isdigit":11430,"Ġredis":11431,"operation":11432,"expi":11433,"',{'":11434,"ĠTqdm":11435,"thumbnail":11436,"Confidence":11437,"ibo":11438,"Ġagreement":11439,"ifest":11440,"izont":11441,"hour":11442,"livery":11443,"Ġnose":11444,"grama":11445,"worker":11446,"Ġprovid":11447,"Ġtruth":11448,"Ġwhy":11449,"=[(":11450,"ĠVAT":11451,"ĠStorage":11452,"boxes":11453,"Ġ>>":11454,"Ġresource":11455,"compress":11456,"comparison":11457,"ĠToDo":11458,"nota":11459,"fail":11460,"Params":11461,"cars":11462,"Exist":11463,"pytesttester":11464,"Header":11465,"åıª":11466,"graphic":11467,"144":11468,"ä»İ":11469,"THON":11470,"uffle":11471,"ineno":11472,"CustomUser":11473,"Ġports":11474,"ĠfindAt":11475,"Ġtokenize":11476,"manual":11477,"presents":11478,"ĠÐ¸Ð·":11479,"WebApp":11480,"contacts":11481,"reportlab":11482,"Ġactive":11483,"ÑĢÐ¾Ðº":11484,"éĹ®":11485,"attachment":11486,"çĽ´":11487,"Record":11488,"linspace":11489,"wikipedia":11490,"ĠIntegerField":11491,"mnist":11492,"åĨħå®¹":11493,"LUE":11494,"Ġsymbol":11495,"ĠQuiz":11496,"ĠPrefix":11497,"ĠUserProfileInfo":11498,"Ġlonger":11499,"Ġresolve":11500,"ĠJsonResponse":11501,"ĠAuthenticationConfig":11502,"æĮĩå®ļ":11503,"crimin":11504,"LENGTH":11505,"å¾ªçİ¯":11506,"BER":11507,"BankProvider":11508,"El":11509,"GRO":11510,"Hyper":11511,"Ins":11512,"Kernel":11513,"Management":11514,"Normed":11515,"OLS":11516,"PM":11517,"cadastro":11518,"don":11519,"eart":11520,"eep":11521,"vicorn":11522,"wa":11523,"ç«":11524,"èµ":11525,"Ġattrs":11526,"Ġä½¿çĶ¨":11527,"ķ¿":11528,"onaxisValidator":11529,"ortran":11530,"alk":11531,"ante":11532,"Ġpair":11533,"\"\"\",<":11534,"apis":11535,"enty":11536,"uring":11537,"ctx":11538,"abl":11539,"union":11540,"ĠAut":11541,"umm":11542,"0012":11543,"ĠCat":11544,"tos":11545,"Ġ26":11546,"Ġdealing":11547,"pplication":11548,"colorway":11549,"Ġ150":11550,"ĠRGBAxes":11551,"osal":11552,"quot":11553,"usdt":11554,"ĠRecaptcha":11555,"tacto":11556,"Ġpylav":11557,"ENUM":11558,"Ġunknown":11559,"training":11560,"Ġproto":11561,"transformation":11562,"Ġanchor":11563,"':')<":11564,"ĠWerkzeug":11565,"Bounds":11566,"Ð°Ð·":11567,"Lock":11568,"UserProfile":11569,"\"))":11570,"Ġchr":11571,"lastic":11572,"ensity":11573,"sound":11574,"ÑĢÑĥ":11575,"ÑĢÑĭ":11576,"LOAD":11577,"Ġless":11578,"Ġleast":11579,"Ġspiders":11580,"rangeselector":11581,"Cook":11582,"criter":11583,"Ġcomponent":11584,"weights":11585,"deepen":11586,"æķ°åŃĹ":11587,"åħ¨":11588,"CreateAPIView":11589,"sentence":11590,"ĠFileNotFoundError":11591,"expand":11592,"Ġpositive":11593,"Metrics":11594,"GroupSampler":11595,"Ġtempeart":11596,"ĠÐ¿ÑĢ":11597,"ĠMarket":11598,"offValidator":11599,"Ġsignature":11600,"icknessmodeValidator":11601,"fully":11602,"OfBounds":11603,"ĠLength":11604,".*`":11605,"Normal":11606,"Ġ###\",<":11607,"ĠSparseArray":11608,"palette":11609,"Ġsymbols":11610,"moji":11611,"Tracker":11612,"Ġpayload":11613,"FlaskForm":11614,"ResultsView":11615,"ĠTqdmDeprecationWarning":11616,"NormedConv":11617,"Ġtempearture":11618,"OfBoundsDatetime":11619,"(...,":11620,"={}":11621,">')<":11622,"DOM":11623,"Duplic":11624,"FP":11625,"GREEN":11626,"Rich":11627,"Redu":11628,"_):<":11629,"bine":11630,"cm":11631,"dropout":11632,"hal":11633,"hib":11634,"hero":11635,"ior":11636,"iel":11637,"mages":11638,"pect":11639,"tun":11640,"wat":11641,"ye":11642,"Ġimshow":11643,"reet":11644,"stagram":11645,"icular":11646,"Ġtw":11647,"Ġturn":11648,"Ġduration":11649,"Ġdatasets":11650,"bases":11651,"ypal":11652,"Ġreq":11653,"Ġreader":11654,"Ġsim":11655,"ctrl":11656,"Ġinference":11657,"executor":11658,"Ġmigrate":11659,"anda":11660,"Ġbuffer":11661,"vised":11662,"ĠSu":11663,"Constraint":11664,"ictor":11665,"('--":11666,"populated":11667,"='_":11668,"ifference":11669,"NGO":11670,"Ġconstant":11671,"Ġconstruct":11672,"ĠPick":11673,"ĠFused":11674,"ĠGen":11675,"Ġopportun":11676,"authenticated":11677,"ĠUnsupported":11678,"TType":11679,"Ġem":11680,"Ġgateway":11681,"cesses":11682,"itlets":11683,"Ġprompt":11684,"')()<":11685,"Retrieve":11686,"START":11687,"nox":11688,"ÐµÐ½Ð¸Ðµ":11689,"indexer":11690,"implements":11691,"ĠAnything":11692,"ASK":11693,"frames":11694,"Prem":11695,"Ġmob":11696,"notification":11697,"==========<":11698,"ĠNotes":11699,"Ġknow":11700,"ĠNamed":11701,"TokenGrant":11702,"Ġcreation":11703,"matches":11704,"DIRECT":11705,"ĠProductViewSet":11706,"Uploading":11707,"IMAGE":11708,"ĠCountry":11709,"FilterSet":11710,"åħ¸":11711,"follow":11712,"ä»»":11713,"UPER":11714,"vertex":11715,"ocks":11716,"since":11717,"ĠCliente":11718,"ĠĠĠĠĠĠĠĠĠĠĠĠĠĠĠĠĠĠĠĠĠĠĠĠĠĠ":11719,"({!":11720,"ĠCommentForm":11721,"Ð¹ÑĤÐµ":11722,"Ġgoogle":11723,"QUERY":11724,"photos":11725,"ĠExtensionArray":11726,"ajax":11727,"ĠQuestionAdmin":11728,"éĹŃ":11729,"ĠLead":11730,"activation":11731,"ĠIsAuthenticated":11732,"Ġtoolkit":11733,"Processor":11734,"Ġsharing":11735,"multiple":11736,"ĠÑĩÐ¸ÑģÐ»Ð°":11737,"prediction":11738,"Ġplaceholder":11739,"åĽ¾çīĩ":11740,"å±Ģ":11741,"Ġjoblib":11742,"ĠBytesIO":11743,"ehicle":11744,"records":11745,"({},":11746,"itecture":11747,"ĠDavid":11748,"DOMAIN":11749,"++":11750,"/',<":11751,"402":11752,"94":11753,">\")<":11754,"Binary":11755,"Callable":11756,"Driver":11757,"Sent":11758,"Scal":11759,"Sta":11760,"Two":11761,"VO":11762,"ails":11763,"bel":11764,"cythonize":11765,"gray":11766,"hv":11767,"jhu":11768,"ocal":11769,"tu":11770,"}@":11771,"æĦ":11772,"éķ¿":11773,"onen":11774,"sections":11775,"incip":11776,"aly":11777,"importors":11778,"ancial":11779,"anced":11780,"Ġ=\",":11781,"Ġpop":11782,"Ġpri":11783,"lopen":11784,"Ġtrue":11785,"Ġbr":11786,"ĠAFF":11787,"ĠSal":11788,"ĠSolver":11789,"Convert":11790,"Container":11791,"ĠCR":11792,"Ġcontrib":11793,"pper":11794,"pprint":11795,"ĠPere":11796,"ĠRedis":11797,"ĠRating":11798,"ĠRef":11799,"ĠUrl":11800,"ecess":11801,"())):<":11802,"ModelMixin":11803,"portal":11804,"ĠHero":11805,"Ġgcd":11806,"perimeter":11807,"')[":11808,"Ġlistdir":11809,"Ġdoing":11810,"ĠWang":11811,"INK":11812,"correct":11813,"Ġsubplot":11814,"Ġresnet":11815,"ditional":11816,"ĠContributors":11817,"suppress":11818,"Second":11819,"1000000":11820,"ĠJose":11821,"ĠPostForm":11822,"Ð¼ÐµÑĤ":11823,"ĠProductAdmin":11824,"Teacher":11825,"Ġsummary":11826,"ÑĮÑĤÐµ":11827,"Ġzmq":11828,"Ġchannel":11829,"Ġcircle":11830,"ResultSet":11831,"ccxt":11832,"OnPrem":11833,"Ġmmdet":11834,"Ġsalary":11835,"Detector":11836,"æ³¨":11837,"BatchSampler":11838,"ĠAccountConfig":11839,"å¾Ĺ":11840,"Prime":11841,"Topic":11842,"ĠServiceMaker":11843,"fbv":11844,"èĢħ":11845,"ĠTopic":11846,"Analysis":11847,"ĠCOCO":11848,"stitution":11849,"ĠManosal":11850,"ĠGregorio":11851,"ILIATES":11852,"ĠVariable":11853,"Ġmanually":11854,"ç»ĺåĪ¶":11855,"importorskip":11856,"ĠAFFILIATES":11857,"ĠPerez":11858,"ĠManosalva":11859,")%":11860,"/_":11861,"?<":11862,"Aug":11863,"AST":11864,"Basic":11865,"City":11866,"Dynamic":11867,"DICT":11868,"EB":11869,"Hi":11870,"Hard":11871,"IGHT":11872,"MAND":11873,"Multip":11874,"Non":11875,"PK":11876,"Plan":11877,"Tk":11878,"Zeroline":11879,"aware":11880,"dconv":11881,"fake":11882,"flip":11883,"hift":11884,"ians":11885,"mu":11886,"npt":11887,"sat":11888,"uc":11889,"vm":11890,"zi":11891,"Ġhex":11892,"ĠViaTemplateActivator":11893,"iny":11894,"meters":11895,"detr":11896,"anna":11897,"loved":11898,"icao":11899,"Ġ\").":11900,"ento":11901,"entities":11902,"urlopen":11903,"appro":11904,"igma":11905,"(\"[":11906,"Ġinvo":11907,"execut":11908,"updates":11909,"initions":11910,"Ġmanage":11911,"uns":11912,"='./":11913,"Ġast":11914,"ilities":11915,"tems":11916,"Ġlayer":11917,"vember":11918,"Ġsematic":11919,"osine":11920,"Ġhard":11921,"Ġhandlers":11922,"Ġhidden":11923,"ĠOne":11924,"scre":11925,"hard":11926,"()))":11927,"codes":11928,"Ġele":11929,"Serializers":11930,"focus":11931,"Ġtested":11932,"DEX":11933,"Ġprogress":11934,"mmsegmentation":11935,"omen":11936,"\")#":11937,"Ġscrap":11938,"ordered":11939,"soma":11940,"specific":11941,"companies":11942,"ĠProgress":11943,"masks":11944,"Ġmove":11945,"Ġdiv":11946,"TypeError":11947,"credit":11948,"pikes":11949,"startup":11950,"ĠDepartment":11951,"udy":11952,"Ġnever":11953,"videos":11954,"Implementation":11955,"Ġkeyword":11956,"Ġkeyboard":11957,"signin":11958,"ï¼ģ":11959,"arry":11960,"Ġpostgres":11961,"Ġshop":11962,"1446":11963,"ĠEnter":11964,"ĠEngine":11965,"360":11966,"Ġintegration":11967,"ĠZeroline":11968,"è¿ŀ":11969,"apshot":11970,"expired":11971,"344":11972,"ponential":11973,"iki":11974,"DATASETS":11975,"Pickler":11976,"ĠLinkSerializer":11977,"456":11978,"pcpvt":11979,"zeroline":11980,"dren":11981,"ãĤĴ":11982,"Ġmarks":11983,"categoricals":11984,"Ġlocals":11985,"PROJECT":11986,"è¡¨ç¤º":11987,"ĠDATABASE":11988,"blueprint":11989,"Ġgreet":11990,"ĠSparseDtype":11991,"XXXXXXXX":11992,"masah":11993,"uniq":11994,"Evaluator":11995,"wallet":11996,"Ġ'+'":11997,"ĠDefine":11998,"å¼Ģå§ĭ":11999,"ĀĀĀĀĀĀĀĀĀĀĀĀĀĀĀĀ":12000,"linkedModelSerializer":12001,"ĠÑĨÐ¸":12002,"ghm":12003,"TZDtype":12004,"è®¡ç®Ĺ":12005,"Ġ%%<":12006,"Failure":12007,"Clear":12008,"loveda":12009,"#-":12010,"(\\":12011,"+'":12012,".'":12013,".\"),<":12014,"332":12015,"Draw":12016,"Go":12017,"Imp":12018,"Json":12019,"Pal":12020,"Rad":12021,"[...,":12022,"bre":12023,"berry":12024,"cis":12025,"gender":12026,"ham":12027,"ji":12028,"micro":12029,"mAP":12030,"ple":12031,"sampling":12032,"vcr":12033,"yam":12034,"}\")":12035,"oris":12036,"arsh":12037,"robot":12038,"almost":12039,"__\"":12040,"recaptcha":12041,"relu":12042,"Ġps":12043,"Ġtd":12044,"Ġsur":12045,"Ġshows":12046,"(\"+":12047,"forwar":12048,"esson":12049,"getpath":12050,"Ġcc":12051,"viz":12052,"endance":12053,"etup":12054,"Ġ2000":12055,"Ġdecor":12056,"ĠLast":12057,"Ġvan":12058,"Ġlxml":12059,"docker":12060,"Ġra":12061,"ĠRFC":12062,"Ġexperiment":12063,"speech":12064,"Ġcour":12065,"Ġsec":12066,"Ġhint":12067,"defaultAxes":12068,"imize":12069,"ĠOK":12070,"ĠGithub":12071,"ĠRefresh":12072,"Ġorm":12073,"ĠEASY":12074,"Ġpyautogui":12075,"agenda":12076,"Ġgr":12077,"DELETE":12078,"Ingre":12079,"ICES":12080,"StringDtype":12081,"Ġlogout":12082,"ĠÐĶ":12083,"until":12084,"UNIT":12085,"Ġcollection":12086,"masked":12087,"Ġlos":12088,"Ġ2016":12089,"Ġcannot":12090,"ĠLookup":12091,"Ġparts":12092,"ĠResNet":12093,"encr":12094,"Ġimplementations":12095,"showline":12096,"Ġtextwrap":12097,"ĠAdvertise":12098,"assertTrue":12099,"countries":12100,"week":12101,"writeV":12102,"ĠTokenRefreshView":12103,"ĠShowlineValidator":12104,"ShowlineValidator":12105,"discord":12106,"Member":12107,"ipeObject":12108,"financial":12109,"ĠTemp":12110,"ĠBlogPost":12111,"ĠÑģÐ¿Ð¸Ñģ":12112,"zoneinfo":12113,"bolts":12114,"({<":12115,"ãģĤ":12116,"Ġmatching":12117,"polynomial":12118,"ĠHomeView":12119,"Place":12120,"threads":12121,"paste":12122,"tracking":12123,"identity":12124,"ĠExpanding":12125,"relativedelta":12126,"ä¿¡":12127,"ä¿Ŀ":12128,"italize":12129,"åºıåĪĹ":12130,"8628":12131,"kipTest":12132,"Ġ------------------------------------------------------------------<":12133,"HostAxes":12134,"Ġmkdir":12135,"auxtrans":12136,"etinaHead":12137,"ĠBUILD":12138,"Ġproviding":12139,"Ġpostgresql":12140,"defaultAxesClass":12141,"\"}":12142,"'\"<":12143,")**":12144,"600":12145,"ALT":12146,"Buffers":12147,"Cl":12148,"CAL":12149,"Db":12150,"Fp":12151,"Fast":12152,"John":12153,"MQ":12154,"OS":12155,"WD":12156,"]-":12157,"easter":12158,"gatz":12159,"land":12160,"pw":12161,"rrule":12162,"ya":12163,"yml":12164,"Ðŀ":12165,"Ġver":12166,"Ġeduca":12167,"alg":12168,"alib":12169,"__:<":12170,"readed":12171,"stu":12172,"ston":12173,"Ġpad":12174,"Ġplan":12175,"Ġphoto":12176,"icios":12177,"lso":12178,"Ġtz":12179,"Ġ\"{}":12180,"entele":12181,"Ġretain":12182,"exemp":12183,"terator":12184,"undo":12185,"Ġnombre":12186,"Ġcats":12187,"Ġchoices":12188,"ĠSong":12189,"chunk":12190,"Ġaug":12191,"minutes":12192,"stron":12193,"ĠMatch":12194,"ĠMobile":12195,"etary":12196,"Ġ250":12197,"Ġcons":12198,"Ġdedic":12199,"ĠLEX":12200,"Ġvega":12201,"ĠPRO":12202,"vec":12203,"Ġexternal":12204,"bold":12205,"userprofile":12206,"ĠIoU":12207,"scrapy":12208,"outs":12209,"Ġeither":12210,"MODULES":12211,"numer":12212,"Ġgit":12213,"Ġuna":12214,"Ġpropri":12215,"stems":12216,"STD":12217,"shipping":12218,"LTK":12219,"nose":12220,"INY":12221,"INDEX":12222,"Ġ::":12223,"Ġscene":12224,"FOL":12225,"168":12226,"Ð¸Ð»ÑĮÑĤ":12227,"firstApp":12228,"ä¸ī":12229,"FileReader":12230,"Arrayterator":12231,"polate":12232,"Seq":12233,"ÑģÑı":12234,"Ġuvicorn":12235,"newman":12236,"Exporter":12237,"ĠResult":12238,"ularizer":12239,"Credentials":12240,"ĠPostsConfig":12241,"helloworld":12242,"iversal":12243,"ĠCount":12244,"ĠExponential":12245,"åħ¶":12246,"canvas":12247,"partition":12248,"Ġaccessible":12249,"good":12250,"Ġhelloworld":12251,"ĠÐ¿ÑĢÐ¸":12252,"ika":12253,"ĠCategoryAdmin":12254,"æĪ·":12255,"NBitBase":12256,"SIGN":12257,"Website":12258,"motor":12259,"Ġcurdir":12260,"greet":12261,"scriber":12262,"scopes":12263,"Ġreasons":12264,"æĹ¶éĹ´":12265,"BACKEND":12266,"ĠÑģÑĤÑĢÐ¾Ðº":12267,"potify":12268,"CRUD":12269,"ĠSupportsIndex":12270,"å¿ħ":12271,"Ġduplicated":12272,"avigation":12273,"ĠAssume":12274,"strogatz":12275,"izontal":12276,"watts":12277,"}@{":12278,"entelemetry":12279,"Ġdedicated":12280,",**":12281,"/\")<":12282,"74":12283,"93":12284,":]":12285,"=%":12286,"=',":12287,">'":12288,"Ab":12289,"Cris":12290,"Ctrl":12291,"OB":12292,"Pipeline":12293,"Sm":12294,"Self":12295,"cms":12296,"dialog":12297,"ea":12298,"echo":12299,"frequencies":12300,"gy":12301,"gaps":12302,"lis":12303,"manag":12304,"native":12305,"tip":12306,"onic":12307,"inventory":12308,"ares":12309,"arpack":12310,"rev":12311,"sta":12312,"asics":12313,"defmatrix":12314,"geom":12315,"elist":12316,"entest":12317,"baselines":12318,"Ġschool":12319,"Ġinp":12320,"Ġdefmatrix":12321,"Ġmachine":12322,"Ġ[(":12323,"Fixture":12324,"ĠSE":12325,"ĠSort":12326,"ĠSUPER":12327,"cean":12328,"ĠCan":12329,"ĠCategoria":12330,"etf":12331,"Ġisort":12332,"Ġcoin":12333,"Ġcomplexity":12334,"ĠFood":12335,"textpositions":12336,"dient":12337,"prem":12338,"Ġ31446":12339,"Ġequal":12340,"ĠEval":12341,"ioc":12342,"Ġpytorch":12343,"Ġnota":12344,"Ġuniv":12345,"Ġuntil":12346,"DETECTORS":12347,"ITH":12348,"fixtures":12349,"Ġproblem":12350,"Ġprograma":12351,"'))":12352,"ReLU":12353,"Regression":12354,"Ġprepopulated":12355,"ashion":12356,"ashActivator":12357,"Ġtimeit":12358,"TextpositionsrcValidator":12359,"TextLoggerHook":12360,"conftest":12361,"Property":12362,"ĠĠĠĠĠĠĠĠĠĠĠĠĠĠĠĠĠĠĠĠĠĠĠĠĠĠĠ":12363,"indexers":12364,"UserChangeForm":12365,"ĠListing":12366,"]))":12367,"ĠInit":12368,"Ticks":12369,"ĠTextpositionsrcValidator":12370,"\"][\"":12371,"aki":12372,"Ġufunc":12373,"']]<":12374,"ĠXML":12375,"Ġfullapi":12376,"topics":12377,"Ġformatargspec":12378,"clos":12379,"ishActivator":12380,"åı£":12381,"Ġsuffix":12382,"LinecolorValidator":12383,"LinewidthValidator":12384,"Ġhomepage":12385,"stdc":12386,"labelsValidator":12387,"ĠLinecolorValidator":12388,"ĠLinewidthValidator":12389,"FILES":12390,"Ġlru":12391,"genapi":12392,"ĠDataRequired":12393,"fullapi":12394,"ĠTeacher":12395,"ĠFlatBuffers":12396,"problem":12397,"matrixlib":12398,"äºº":12399,"namo":12400,"ĠChart":12401,"callibrary":12402,"å¤Ħ":12403,"ĠScattering":12404,"AutomotiveProvider":12405,"ĠWebappConfig":12406,"OpenStack":12407,"ĠAbstractInstrumentor":12408,"personal":12409,"ritic":12410,"gaussian":12411,"ATTRS":12412,"FromTicks":12413,"PasswordInput":12414,"ĠCloudinary":12415,"constraint":12416,"OffsetWindowIndexer":12417,"Ġ##\",<":12418,"ambiguate":12419,"duplicating":12420,"instrumentation":12421,"ĠMockConnection":12422,"emails":12423,"éĶ®":12424,"ç»ĵæŀľ":12425,"Step":12426,"ingroupValidator":12427,"æ±Ĥ":12428,"updater":12429,"usuario":12430,"Ġcorrespond":12431,"Ġdotenv":12432,"Ġrecorder":12433,"ForwardWindowIndexer":12434,"Ġlayers":12435,"Ideally":12436,"Ġopportunities":12437,"Ġproprietary":12438,"textpositionsrc":12439,"62":12440,"73":12441,":{":12442,"Ans":12443,"Async":12444,"BLUE":12445,"Dot":12446,"Github":12447,"Gadget":12448,"Gaussian":12449,"Lon":12450,"MF":12451,"Mail":12452,"Rest":12453,"Scheduler":12454,"XT":12455,"]}":12456,"backward":12457,"dx":12458,"employees":12459,"guess":12460,"jax":12461,"laps":12462,"mic":12463,"money":12464,"ng":12465,"wx":12466,"Ãª":12467,"åĥ":12468,"æĽ":12469,"atom":12470,"ination":12471,"deit":12472,"allet":12473,"Ġpin":12474,"leted":12475,"\",\",":12476,"Ġ':":12477,"Ġ'')<":12478,"Ġschedule":12479,"Ġinsert":12480,"lice":12481,"edited":12482,"ĠTurtle":12483,"ula":12484,"Ġblogs":12485,"ĠAbs":12486,"Ġreturned":12487,"('='":12488,"istant":12489,"hood":12490,"Ġdest":12491,"dictionary":12492,"ĠRO":12493,"ĠFind":12494,"park":12495,"omation":12496,"previous":12497,"mailing":12498,"ĠUsed":12499,"prop":12500,"ANGU":12501,"autogen":12502,"maxdepth":12503,"Ġpyflakes":12504,"Ġtrip":12505,"mln":12506,"noise":12507,"mmdetection":12508,"Ġiterations":12509,"Ġmedia":12510,"Ġchain":12511,"ĠInline":12512,"compose":12513,"Ġpartial":12514,"Ġparticular":12515,"mble":12516,"Ġtem":12517,"Ġgenerics":12518,"pipe":12519,"Ġstarts":12520,"152":12521,"ĠPostSerializer":12522,"AFPN":12523,"Ġcredentials":12524,"ĠPYSIDE":12525,"phabet":12526,">~~~~~~~~~~":12527,"Layout":12528,"ĠForeignKey":12529,"Ġlastname":12530,"Ġzones":12531,"ĠKeyError":12532,"åĲĪ":12533,"ĠÑģÐ»":12534,"ĠMetric":12535,"Generalized":12536,"notebooks":12537,"Ġquiz":12538,"åŃĹåħ¸":12539,"stricted":12540,"Ġcomments":12541,"åĬŁ":12542,"Ġadap":12543,"ĠShim":12544,"ĠShape":12545,"ipynb":12546,"Moving":12547,"rotated":12548,"mutation":12549,"Arch":12550,"å½ķ":12551,"omber":12552,"???":12553,"Ġagent":12554,"agents":12555,"ĠParser":12556,"Ġpeople":12557,"walker":12558,"Ġvisit":12559,"Ð½Ð¾Ðµ":12560,"ĠIOLoop":12561,"Ġconsumers":12562,"Ã³n":12563,"ĠDescription":12564,"purchase":12565,"çº¿":12566,"Ġlargest":12567,"Ġcloudinary":12568,"separators":12569,"Ġexplicitly":12570,"Variable":12571,"ynamics":12572,"friends":12573,"GROUP":12574,"FOLDER":12575,"ĠExponentialMoving":12576,"\"']<":12577,"(\"\"\"<":12578,"/?":12579,"426":12580,"83":12581,">----------------":12582,"Bbox":12583,"Hash":12584,"Raised":12585,"TP":12586,"bf":12587,"css":12588,"cnn":12589,"dra":12590,"eth":12591,"flask":12592,"hh":12593,"nas":12594,"pies":12595,"pics":12596,"phrase":12597,"sreg":12598,"uy":12599,"welcome":12600,"ÐĹÐ°":12601,"åģ":12602,"éģ":12603,"attention":12604,"members":12605,"delay":12606,"algorithm":12607,"enfold":12608,"itions":12609,"loomber":12610,"Ġtel":12611,"Ġdin":12612,"Ġdns":12613,"angka":12614,"baseline":12615,"classification":12616,"Ġresize":12617,"Ġincrement":12618,"trial":12619,"tracer":12620,"inger":12621,"escapes":12622,"Ġmuch":12623,"serialize":12624,"setLevel":12625,"Ġnor":12626,"Ġomn":12627,"ĠSSSSS":12628,"('{}":12629,"ĠCore":12630,"ĠCook":12631,"Ġ#<":12632,"Ġwho":12633,"Ġconfigs":12634,"Ġflat":12635,"Ġ1344":12636,"ĠRudge":12637,"bole":12638,"spike":12639,"questions":12640,"ĠFake":12641,"texto":12642,"Ġhor":12643,"Forms":12644,"ĠGit":12645,"Ġintel":12646,"ride":12647,"Ġecho":12648,"ĠElement":12649,"Ġgh":12650,"Ġground":12651,"tickets":12652,"ĠBaseSettings":12653,"ĠSeg":12654,"Ġpipelines":12655,"Ġthrough":12656,"transfer":12657,"running":12658,"IDTH":12659,"ĠÐµ":12660,"Ġtimes":12661,"Stage":12662,"Ġrot":12663,"iceSyntax":12664,"Timedelta":12665,"Ġhashed":12666,"...<":12667,"0013":12668,"Ġgive":12669,"Parameter":12670,"Ġtopics":12671,"astic":12672,"Ġindexes":12673,"Ġdebugger":12674,"SERVICE":12675,"locals":12676,"Ġ655":12677,"Ġcomparison":12678,"Ġ99":12679,"Ġ80000":12680,"webapp":12681,"glish":12682,"ĠfirstApp":12683,"Ġ\"%##":12684,"1990":12685,"ĠNovember":12686,"...')<":12687,"Ġextras":12688,"Ġdistributions":12689,"ĠTodoAdmin":12690,"implMarker":12691,"FIELD":12692,"ä½ł":12693,"Ġ{}):":12694,"Ġtemperature":12695,"ĠÐ¿ÐµÑĢÐµ":12696,"EXIST":12697,"åĲĳ":12698,"PageNumberPagination":12699,"Ġupgrade":12700,"offsets":12701,"factorial":12702,"charge":12703,"})'.":12704,"Fixed":12705,"pensize":12706,"utorials":12707,"Ġmodifications":12708,"TomlError":12709,"åį°":12710,"pvtv":12711,"Ġrecbole":12712,"QtWidgets":12713,"Ġstrictly":12714,"RoIPool":12715,"ĠChecks":12716,"Ġagain":12717,"doctestcompare":12718,"ĠSymbol":12719,"RESULT":12720,"ĠUpdateableAPIResource":12721,"ambiguous":12722,"nchronized":12723,"Overlaps":12724,"Ġquantity":12725,">====================":12726,"Ġscores":12727,"Ġ'{}({},":12728,"Ġ32768":12729,"idiap":12730,"SKIP":12731,"Scoring":12732,"ç©º":12733,"æĦı":12734,"è¿ŀæİ¥":12735,"forwarded":12736,"closure":12737,"ĠExponentialMovingWindow":12738,")[:-":12739,"-\")<":12740,".'''<":12741,"60000":12742,"Aux":12743,"BValidator":12744,"CV":12745,"Callback":12746,"EW":12747,"Full":12748,"Hub":12749,"JOR":12750,"Missing":12751,"Pe":12752,"RValidator":12753,"SOL":12754,"SizerefValidator":12755,"UFO":12756,"VTT":12757,"WR":12758,"WARE":12759,"bic":12760,"ball":12761,"cff":12762,"every":12763,"hell":12764,"jk":12765,"kar":12766,"odoo":12767,"pm":12768,"padding":12769,"rain":12770,"sac":12771,"sizeref":12772,"xiv":12773,"ĠVi":12774,"arxiv":12775,"reas":12776,"reducer":12777,"lembic":12778,"lov":12779,"utable":12780,"Ġti":12781,"Ġtab":12782,"Ġ'[":12783,"classifier":12784,"confirm":12785,"above":12786,"licies":12787,"ĠTable":12788,"Ġ_('":12789,"Ġcy":12790,"Ġcategories":12791,"Ġbg":12792,"ĠAlembic":12793,"ĠSizerefValidator":12794,"chr":12795,"child":12796,"ĠMongo":12797,"Ġwx":12798,"Ġfr":12799,"Ġfail":12800,"commun":12801,"Ġ(\",\",":12802,"Ġ101":12803,"dom":12804,"ĠRValidator":12805,"ĠRouter":12806,"ĠRamon":12807,"Ġexact":12808,"ĠBY":12809,"ĠBValidator":12810,"sphinx":12811,"olt":12812,"ssue":12813,"parasite":12814,"imb":12815,"nccl":12816,"ĠTrueType":12817,"Ġecommerce":12818,"Ġgym":12819,"Ġglue":12820,"need":12821,"neigh":12822,"fontTools":12823,"pointPen":12824,"ATOR":12825,"Ġminutes":12826,"PIPE":12827,"Ġann":12828,"sizemode":12829,"Ġpred":12830,"Ġnumeric":12831,"ĠWink":12832,"ĠÐ³ÑĢÐ°":12833,"untu":12834,"mmy":12835,"Stand":12836,"odis":12837,"Ġ:\"))<":12838,"ĠUserFactory":12839,"Progress":12840,"why":12841,"Ġlaunch":12842,"caps":12843,"Ġadds":12844,"ĠControl":12845,"ĠPolicy":12846,"ĠDETECTORS":12847,"\"]:<":12848,"Ġ5000":12849,"flatten":12850,"ĠThese":12851,"Ġlevels":12852,"ANT":12853,"Ġenable":12854,"shortener":12855,"Ġauthenticate":12856,"booking":12857,"ĠDelete":12858,"Ġweather":12859,"Ġgenerator":12860,"çļĦæĺ¯":12861,"Cog":12862,"ĠJupyter":12863,"Ġotherwise":12864,"TokenGenerator":12865,"graphs":12866,"LineValidator":12867,"Ġautodis":12868,"URITY":12869,"ĠLineValidator":12870,"âĢĿ":12871,"ĠZh":12872,"Headers":12873,"Shift":12874,"ĠAdminSite":12875,"dependence":12876,"oteca":12877,"connectgaps":12878,"ĠFirstappConfig":12879,"Ġordered":12880,"ĠMyUser":12881,"rontend":12882,"ä¹Ł":12883,"toolkit":12884,"errno":12885,"connections":12886,"éĩį":12887,"DeleteView":12888,"Ġrecipe":12889,"Ġtransformers":12890,"è¿Ľç¨ĭ":12891,"leads":12892,"CLASSES":12893,"EvalHook":12894,"planner":12895,"}.{":12896,"DiceLoss":12897,"POINT":12898,"cbv":12899,"ConnectgapsValidator":12900,"addrinfo":12901,"Ġcharts":12902,"overlaps":12903,"ĠConnectgapsValidator":12904,"Ġsqrt":12905,"ĠSECURITY":12906,"fwf":12907,"æīĵåį°":12908,"wildcard":12909,"ĠImplicit":12910,"slots":12911,"iblioteca":12912,"çĽ´æİ¥":12913,"Reducer":12914,"ä¿¡æģ¯":12915,"åĥı":12916,"ĠWinkel":12917,"!\")":12918,"'+":12919,"822":12920,":/":12921,">])<":12922,"Av":12923,"ACCESS":12924,"HTML":12925,"RF":12926,"Ray":12927,"RST":12928,"URE":12929,"Vis":12930,"](":12931,"]>":12932,"bay":12933,"browse":12934,"dark":12935,"fusion":12936,"finite":12937,"ktop":12938,"mapping":12939,"mallow":12940,"pio":12941,"panel":12942,"tl":12943,"tics":12944,"who":12945,"writ":12946,"yacc":12947,"youtube":12948,"å¢":12949,"æ¶":12950,"Ġlower":12951,"Ġè¿Ļ":12952,"ony":12953,"erred":12954,"__(\"":12955,"Ġpolls":12956,"fire":12957,"aser":12958,"coordinates":12959,"hest":12960,"Ġdjangobench":12961,"isode":12962,"formed":12963,"ingValidator":12964,"units":12965,"Ġ_,":12966,"andy":12967,"Ġnms":12968,"Ġcurrency":12969,"Ġcycle":12970,"ĠAp":12971,"ĠALL":12972,"toy":12973,"together":12974,"pointer":12975,"ĠMD":12976,"ĠMay":12977,"hours":12978,"Ġdeque":12979,"quee":12980,"Ġfailed":12981,"Ġlight":12982,"otonic":12983,"ĠRender":12984,"LEASE":12985,"Ġstderr":12986,"quotes":12987,"diameter":12988,"scan":12989,"())))<":12990,"mplain":12991,"agtail":12992,"Ġgm":12993,"tshift":12994,"endence":12995,"fox":12996,"maps":12997,"Ġprohib":12998,"Ġboard":12999,"Ġrob":13000,"ĠUserInfo":13001,"ĠUserAgent":13002,"rak":13003,"riptor":13004,"Ġrenderer":13005,"lds":13006,"Speed":13007,"ANN":13008,"mbient":13009,"ĠHttpRequest":13010,"Ġsetattr":13011,"ĠTestClient":13012,"Creating":13013,"lectual":13014,"fea":13015,"Ġexpress":13016,"Height":13017,"Ġlicensors":13018,"Ġcomposer":13019,"DjangoModelFactory":13020,"Chrome":13021,"matmul":13022,"ĠProducts":13023,"Ġdisclosure":13024,"Ð´Ðµ":13025,"ÑĭÐµ":13026,"ÑĢÐ°Ð¼ÐµÑĤ":13027,"SSH":13028,"ĠÐ¿Ð¾":13029,"ĠÐ¿Ð¾Ð»ÑĮÐ·Ð¾Ð²Ð°ÑĤÐµ":13030,"EncoderDecoder":13031,"ĠQuerySet":13032,"ĠMetrics":13033,"Ġreproduction":13034,"MAJOR":13035,"ĠÐ¸ÑģÐ¿":13036,"awberry":13037,"æĪĸ":13038,"ĠSimpleRouter":13039,"polys":13040,"Ġcrud":13041,"rottle":13042,"æĹ¥":13043,"MaskScoring":13044,"ĠLearn":13045,"ĠLearning":13046,"Ġthereto":13047,"installable":13048,"Ġtoolz":13049,"svg":13050,"æĸ¹å¼ı":13051,"flush":13052,"ocus":13053,"ç´¢":13054,"utcnow":13055,"Ġclear":13056,">[<":13057,"ĠPeriodIndex":13058,"Salary":13059,"éĶĻ":13060,"Ġ\"{{":13061,"aggregator":13062,"ĠArticles":13063,"Ġguar":13064,"recognition":13065,"combined":13066,"Ġ######\",<":13067,"PyTables":13068,"Ġtraitlets":13069,"ĠÐ¿Ð°ÑĢÐ°Ð¼ÐµÑĤ":13070,"è¯»åıĸ":13071,"ĠTechno":13072,"ç¼ĸ":13073,"Ġexecuted":13074,"criminator":13075,"ocalLoss":13076,"Ġinvocation":13077,"Ġcourse":13078,"exempt":13079,"stronaut":13080,"CrispyError":13081,">~~~~~~~~~~<":13082,"Ġintellectual":13083,"Ġprohibited":13084,"*\"":13085,".\")":13086,"609":13087,"==\"":13088,">%":13089,"IVE":13090,"NET":13091,"OSM":13092,"Panel":13093,"Side":13094,"Square":13095,"Smooth":13096,"ZER":13097,"_|":13098,"bio":13099,"cacert":13100,"dam":13101,"dave":13102,"dabe":13103,"floor":13104,"gg":13105,"gfl":13106,"iform":13107,"lap":13108,"mapper":13109,"ni":13110,"nickname":13111,"oy":13112,"oci":13113,"tm":13114,"tst":13115,"tls":13116,"wr":13117,"ĠÑĢÐ°":13118,"sex":13119,"erminal":13120,"mega":13121,"decreasing":13122,"ropp":13123,"repos":13124,"Ġpyp":13125,"Ġping":13126,"Ġpixel":13127,"Ġploomber":13128,"asse":13129,"lour":13130,"uted":13131,"Ġtst":13132,"lya":13133,"Ġ\":\"))<":13134,"cola":13135,"gear":13136,"isation":13137,"Ġreload":13138,"Ġscheduler":13139,"exper":13140,"exact":13141,"external":13142,"=\"__":13143,"Ġmis":13144,"gettz":13145,"editable":13146,"une":13147,"uniao":13148,"ĠTab":13149,">#:":13150,"Ġcacert":13151,"Ġoauth":13152,"Ġocc":13153,"ĠActor":13154,"ĠSte":13155,"ĠSample":13156,"Constructor":13157,"ibanna":13158,"acks":13159,"ĠCannot":13160,"ĠCLI":13161,"tele":13162,"ĠMusic":13163,"ĠDrink":13164,"coming":13165,"ĠPattern":13166,"ĠPLY":13167,"Ġ()":13168,"ĠFol":13169,"ĠFloat":13170,"latzi":13171,"atterns":13172,"Ġhig":13173,"Ġstats":13174,"amis":13175,"ĠGr":13176,"Ġstrips":13177,"requested":13178,"Ġ\"\"\"\\<":13179,"lik":13180,"BaseSettings":13181,"Ġgot":13182,"interpolate":13183,"aily":13184,"actJSON":13185,"uggest":13186,"BUT":13187,"ĠWord":13188,"lane":13189,"uploader":13190,"ientModel":13191,"INCRE":13192,"Ġ:\",":13193,"Proyecto":13194,"ĠdateFormat":13195,"Ġmemory":13196,"UserView":13197,"UserWarning":13198,"Ġ['-":13199,"flake":13200,"ÑĤÑĭ":13201,"ferences":13202,"Ġsoup":13203,"LOAT":13204,"Ġattemp":13205,"Selection":13206,"positories":13207,"udget":13208,"depthwise":13209,"Ð½Ðº":13210,"storefront":13211,"general":13212,"Ġunicodedata":13213,"localzone":13214,"dense":13215,"ledge":13216,"schemas":13217,"Ġcompat":13218,"Ġcompliance":13219,"Ġtranslation":13220,"åĪł":13221,"060000":13222,"gedItem":13223,"Animal":13224,"Ġperform":13225,"todolist":13226,"366":13227,"Allow":13228,"tzlocal":13229,"skills":13230,"CompactJSON":13231,"ĠApple":13232,"å®Į":13233,"ĠMembers":13234,"Ġcopying":13235,"æĪĳ":13236,"azley":13237,"ApiView":13238,"Tensorboard":13239,"allest":13240,"reports":13241,"ĠBoard":13242,"inheritance":13243,"Ġcrm":13244,"Ġyears":13245,"categoria":13246,"IoUAssigner":13247,"Ġkept":13248,"tcp":13249,"ĠBeazley":13250,"202207":13251,"Segment":13252,"åĲįç§°":13253,"Descriptor":13254,"ç¨ĭåºı":13255,"TOPIC":13256,"è§£":13257,"integr":13258,"Training":13259,"Ġnegative":13260,"ĠSpecial":13261,"ĠVoxel":13262,"pxd":13263,"è¯·è¾ĵåħ¥":13264,"ĠQApplication":13265,"anteed":13266,"åħ¨å±Ģ":13267,"Ġguaranteed":13268,"dabeaz":13269,"!\",":13270,"\"])":13271,":')<":13272,">---------<":13273,"Calc":13274,"Fin":13275,"Food":13276,"GPL":13277,"HORIZONTAL":13278,"Mar":13279,"Pin":13280,"PECT":13281,"RGB":13282,"Sa":13283,"Solution":13284,"Style":13285,"SAMPLE":13286,"USD":13287,"cifar":13288,"have":13289,"hape":13290,"iÃ³n":13291,"lxml":13292,"mor":13293,"ned":13294,"nessValidator":13295,"smoothing":13296,"uo":13297,"yol":13298,"yzer":13299,"¿éĹ®":13300,"æ¸":13301,"éļ":13302,"Ġentr":13303,"Ġangle":13304,"Ġfixture":13305,"Ġèİ·åıĸ":13306,"Ġimplements":13307,"orgrid":13308,"></":13309,"inha":13310,"infra":13311,"rott":13312,"__('":13313,"___/":13314,"__)))<":13315,"eno":13316,"Ġ=[":13317,"remain":13318,"reason":13319,"Ġpil":13320,"iditys":13321,"\"\"\")<":13322,"Ġdrf":13323,"Ġdispatcher":13324,"Ġ\"./":13325,"apValidator":13326,"Ġrefresh":13327,"Ġsol":13328,"opfli":13329,"Ġml":13330,"Filename":13331,"ander":13332,"Ġnecess":13333,"Ġbirth":13334,"ĠAnal":13335,"ĠCascade":13336,"mentgroupValidator":13337,"tood":13338,"ĠManager":13339,"Ġwhether":13340,"ĠDel":13341,"ĠDiff":13342,"Ġ28":13343,"ĠNe":13344,"ĠLiteral":13345,"Ġfname":13346,"colorsValidator":13347,"Ġland":13348,"bow":13349,"estate":13350,"ĠIlya":13351,"paration":13352,"imator":13353,"504":13354,"useValidator":13355,"ODU":13356,"profit":13357,"properties":13358,"codebase":13359,"ĠEting":13360,"agraph":13361,"interp":13362,"asket":13363,"CHO":13364,"uguel":13365,"titlefont":13366,"sizemin":13367,"Dep":13368,"Ġ%}":13369,"Ġ768":13370,"IND":13371,"Ġunderstand":13372,"Ġbasestring":13373,"fft":13374,"Ġchild":13375,"software":13376,"ÑĤÐ¸":13377,"DataLoader":13378,"))#":13379,"styleValidator":13380,"Ġrequire":13381,"Spike":13382,"Ġattention":13383,"Ġlex":13384,"ANCE":13385,"ularValidator":13386,"ĠTestF":13387,"signed":13388,"signature":13389,"170":13390,"seek":13391,"smart":13392,"matr":13393,"ADMIN":13394,"ffixValidator":13395,"HoverformatValidator":13396,"ĠHoverformatValidator":13397,"Algorithm":13398,"ĠZero":13399,"aucer":13400,"Notification":13401,"NotExist":13402,"æĺ¾":13403,"Transaction":13404,"sales":13405,"ĠChannel":13406,"CodeGrant":13407,"ĠMyappConfig":13408,"å¯¹åºĶ":13409,"Left":13410,"è®¿éĹ®":13411,"ĠWebsite":13412,"IPLE":13413,"PackageSupport":13414,"pencolor":13415,"ãĥ¼":13416,"LIST":13417,"æİĴ":13418,"etingof":13419,"ughnessValidator":13420,"SizemodeValidator":13421,"SizeminValidator":13422,"ĠDatetime":13423,"LayerValidator":13424,"Ġrecipes":13425,"MINOR":13426,"BuildPath":13427,"ç®¡":13428,"Ġbuf":13429,"restrictions":13430,"ĠPlace":13431,"ĠSizemodeValidator":13432,"ĠSizeminValidator":13433,"SESSION":13434,"------<":13435,"Ġpersonal":13436,"TRAIN":13437,"ĠIOError":13438,"Success":13439,"duplicates":13440,"æ¯ı":13441,"ĠAuthorizationCodeGrant":13442,"Markup":13443,"ĠOpenIdAuth":13444,"ä½įç½®":13445,"'])]<":13446,"ĠLayerValidator":13447,"Ġlongest":13448,"OpenIdAuth":13449,"Ġdetect":13450,"Ġdetector":13451,"Downloadable":13452,"Ġbuilding":13453,"ĠRichText":13454,"ĠUSERNAME":13455,"osaic":13456,"ĠSpike":13457,"imagenet":13458,"trustregion":13459,"resnelValidator":13460,"displayedValidator":13461,"ĠActiveSessionViewSet":13462,"(...)":13463,"lookfor":13464,"HyperlinkedModelSerializer":13465,"ĠPickler":13466,"onenumber":13467,">=====================<":13468,"ĠÐ³ÑĢÐ°ÑĦ":13469,"mbientValidator":13470,"OSMGeoAdmin":13471,"INCREMENT":13472,"TensorboardLoggerHook":13473,"ĠEtingof":13474,"PackageSupportBuildPath":13475,"*<":13476,"+)":13477,"/\",<":13478,"1101":13479,"CP":13480,"Cosine":13481,"GL":13482,"GNU":13483,"HERE":13484,"Mike":13485,"Oper":13486,"Pad":13487,"PON":13488,"PART":13489,"Padding":13490,"PAFPN":13491,"SA":13492,"Sn":13493,"Scale":13494,"SAC":13495,"TODO":13496,"Val":13497,"Vehicle":13498,"YES":13499,"Year":13500,"]\")<":13501,"bd":13502,"dop":13503,"eigen":13504,"fv":13505,"gunicorn":13506,"hing":13507,"href":13508,"jpu":13509,"kta":13510,"manage":13511,"nume":13512,"nltk":13513,"oint":13514,"pwd":13515,"picture":13516,"tensors":13517,"uses":13518,"}'.":13519,"ÑĬ":13520,"æĥ":13521,"Ġkw":13522,"Ġï¼ļ":13523,"enant":13524,"another":13525,"anoptic":13526,"Ġ=>":13527,"Ġpwd":13528,"iterations":13529,"asi":13530,"ational":13531,"ury":13532,"isol":13533,"igo":13534,"adrad":13535,"ingre":13536,"gettext":13537,"Ġcert":13538,"('[":13539,"('')<":13540,"cepth":13541,"minder":13542,"izart":13543,"ays":13544,"strptime":13545,"ĠDraw":13546,"Ġdevelopment":13547,"Ġve":13548,"ĠPR":13549,"Ġlit":13550,"ĠBBBBBBBBB":13551,"Ġonline":13552,"olatility":13553,"ĠFL":13554,"ĠFuture":13555,"admins":13556,"inema":13557,"ĠIdent":13558,"preprocess":13559,"ĠOption":13560,"scrap":13561,"Ġstrategy":13562,"ĠReg":13563,"Ġ'.'":13564,"ENCE":13565,"ENCOD":13566,"Ġtypically":13567,"DEV":13568,"packet":13569,"Ġthird":13570,"share":13571,"vali":13572,"uploads":13573,"Resolver":13574,"chant":13575,"corpus":13576,"UNSIGN":13577,"Ġmealie":13578,"ListAPIView":13579,"Ð¸ÑĤ":13580,"capitalize":13581,"Ticket":13582,"Ġspatial":13583,"ÑģÐµ":13584,"Ġtorchvision":13585,"sudo":13586,"Quant":13587,"crit":13588,"Ð²Ð¾":13589,"Ð²Ð²ÐµÐ´Ð¸ÑĤÐµ":13590,"Ġ16384":13591,"ÑĥÐ½Ðº":13592,"CACHES":13593,"Ġhelpers":13594,"Ġendpoint":13595,"ĠTokenObtainPairView":13596,"tzfile":13597,"tzstr":13598,"tzrange":13599,"tzical":13600,"tzoffset":13601,"tzutc":13602,"ĠBooks":13603,"æĸŃ":13604,"TransientModel":13605,"Ġwebbrowser":13606,"ç»Ł":13607,"strides":13608,"ĠĠĠĠĠĠĠĠĠĠĠĠĠĠĠĠĠĠĠĠĠĠĠĠĠĠĠĠĠĠ":13609,"å¤į":13610,"Ġcombin":13611,"Ð°ÑĤÐ°":13612,"ä¹Ī":13613,"Character":13614,"ĠShop":13615,"Ġtodolist":13616,"Ġlibfut":13617,"ĠBox":13618,"åľ°":13619,"LIKE":13620,"Ġfibonacci":13621,"../../":13622,"Ġdjongo":13623,"courses":13624,"activity":13625,"bindings":13626,"Ġaiohttp":13627,"202203":13628,"UDA":13629,"============================================":13630,"PHONE":13631,"Ġlimited":13632,">`_":13633,"}}\",<":13634,"GenericViewSet":13635,"NEW":13636,"Ġmpmath":13637,"nchronize":13638,"ĠToolkit":13639,"åİŁ":13640,"Launch":13641,"mediate":13642,"Ġtelebot":13643,"è¿Ĳè¡Į":13644,"tzwinlocal":13645,"ä»£çłģ":13646,"pagation":13647,">#################################################################":13648,"éĢļè¿ĩ":13649,"ĠModelsNamespace":13650,"Ð¾Ð±Ð°Ð²ÑĮÑĤÐµ":13651,"MULTIPLE":13652,"KeyboardMarkup":13653,"reedy":13654,"executors":13655,"ĠAdvertisement":13656,"ĠSUPERUSER":13657,"åĪłéĻ¤":13658,"cepthook":13659,"UNSIGNED":13660,"Ġlibfuturize":13661,".{":13662,"/#":13663,"102":13664,"81":13665,"BE":13666,"Done":13667,"Diff":13668,"Edge":13669,"FA":13670,"GE":13671,"Neck":13672,"Rating":13673,"RGBAxes":13674,"Used":13675,"Vo":13676,"VID":13677,"`,":13678,"bg":13679,"cribe":13680,"crawler":13681,"gop":13682,"hat":13683,"hdf":13684,"king":13685,"lata":13686,"languages":13687,"oid":13688,"sms":13689,"taxes":13690,"zilla":13691,"åķ":13692,"æ·":13693,"Ġ^":13694,"Ġhook":13695,"ĠÑĤÐµ":13696,"Ġentity":13697,"Ġetc":13698,"Ĥ¨":13699,"alive":13700,"__='":13701,"enario":13702,"Ġpackb":13703,"lev":13704,"logies":13705,"Ġdynamic":13706,"momentum":13707,"clib":13708,"Ġsche":13709,"(\"{}":13710,"adam":13711,"Ġdeferred":13712,"ingArea":13713,"Ġmag":13714,"Ġmai":13715,"',)":13716,"unconfigure":13717,"ĠTw":13718,"Ġninja":13719,"Ġcenter":13720,"ĠAccess":13721,"ĠSome":13722,"ĠSingleton":13723,"Ġgetenv":13724,"iline":13725,"ĠChar":13726,"ifferent":13727,"tol":13728,"stripe":13729,"ĠMod":13730,"ĠMigrate":13731,"ĠMultip":13732,"Ġwang":13733,"etadata":13734,"pts":13735,"ĠNLTK":13736,"Ġeditable":13737,"ĠisDirectory":13738,"ĠPants":13739,"ĠPayment":13740,"Ġlint":13741,"spawn":13742,"Ġcompleted":13743,"ssh":13744,"logy":13745,"called":13746,"ĠOper":13747,"Ġdefaultdict":13748,"Ġstrs":13749,"ĠRep":13750,"ĠUSE":13751,"ĠElastic":13752,"===<":13753,"ĠHigh":13754,"Ġunagi":13755,"DECI":13756,"ICATION":13757,"Ġprofiler":13758,"transpose":13759,"sha":13760,"nnPolicy":13761,"Deep":13762,"organ":13763,"SDHead":13764,"Residual":13765,"Ġ:]<":13766,"Ġinitialization":13767,"ARetinaHead":13768,"Intel":13769,"Ġsubclasses":13770,"Ġlob":13771,"ĠConv":13772,"ĠConstants":13773,"Ġ2014":13774,"Ġdivide":13775,"Ġsocial":13776,"Ġopenid":13777,"monic":13778,"monkey":13779,"aky":13780,"Seed":13781,"overlay":13782,"crew":13783,"Ġpartition":13784,"winTransformer":13785,"Ð½Ñı":13786,"Ġacc":13787,"ĠRegisterView":13788,"TOOLS":13789,"Ġkv":13790,"Country":13791,"ITED":13792,"evaluate":13793,"ivy":13794,"Does":13795,"åı¥":13796,"Ġmonkey":13797,"anks":13798,"03060000":13799,"numberOf":13800,"Anne":13801,"2012":13802,"ĠSafeText":13803,"çĶ±":13804,"partments":13805,"ĠModelAdmin":13806,"çĶ¨äºİ":13807,"ĠAuthority":13808,"Ġcalls":13809,"voke":13810,"Throttle":13811,"Ġcopyreg":13812,"]+)/":13813,"Ġ\"*\"":13814,"ĠChange":13815,"swap":13816,"oULoss":13817,"ApiConfig":13818,"Ġadded":13819,"ĠAxesDivider":13820,"ĠAxesLocator":13821,"OLD":13822,"Accept":13823,"ĠAutomotiveProvider":13824,"phonemetadata":13825,"Ġdocarray":13826,"Ġstorefront":13827,"SETUP":13828,"something":13829,"å¾Ħ":13830,"greenlet":13831,"yptContext":13832,"8888":13833,"Ġctypes":13834,"AAA":13835,"Ġgreenlets":13836,"Ð½ÑĭÐµ":13837,"Ġsentence":13838,"ĠAnchoredSize":13839,"TransformBox":13840,"ĠCryptContext":13841,"similarity":13842,"ĠSymbolsrcValidator":13843,"ĠDeprecatedTzFormatWarning":13844,"ĠGenericForeignKey":13845,"SymbolsrcValidator":13846,"Relation":13847,"existent":13848,"å®ŀçİ°":13849,"MONGO":13850,"SecurityGroupUnrestrictedIngress":13851,"åĳ½":13852,"symbolsrc":13853,"-####\",<":13854,"æĢ§":13855,"challenges":13856,"ĠEXPECT":13857,"DeprecatedTzFormatWarning":13858,"Ġestimate":13859,"$$$$":13860,"Ġattached":13861,"ĠBboxConnector":13862,"Desktop":13863,"icipants":13864,"OFILL":13865,"ĠCryptographic":13866,"LIMITED":13867,"titulo":13868,"ridgecrew":13869,"Ġ==============================================================================":13870,"LogoutView":13871,"Routes":13872,"ä»»åĬ¡":13873,"yamdb":13874,"arshmallow":13875,"Ingrese":13876,"Answer":13877,"Ġomnizart":13878,"Ġ65536":13879,"SOLVER":13880,"queeze":13881,"ZEROFILL":13882,"rottling":13883,"ç®¡çĲĨ":13884,"ĠRichTextUploading":13885,"ĠEXPECTED":13886,"'d":13887,"'}),<":13888,")[:":13889,">==========<":13890,"Age":13891,"Aware":13892,"Amount":13893,"Average":13894,"BS":13895,"Blacklist":13896,"Fol":13897,"Hist":13898,"Img":13899,"Images":13900,"RPC":13901,"SPE":13902,"Singleton":13903,"TV":13904,"TOR":13905,"Torch":13906,"WIDTH":13907,"ZhoverformatValidator":13908,"_\")":13909,"band":13910,"bet":13911,"cstor":13912,"dnt":13913,"dnd":13914,"dialect":13915,"male":13916,"nils":13917,"night":13918,"rls":13919,"sil":13920,"tutorials":13921,"uv":13922,"ulso":13923,"vs":13924,"zmin":13925,"zhoverformat":13926,"Ðļ":13927,"æµ":13928,"éĥ½":13929,"Ġkeras":13930,"attrib":13931,"inplace":13932,"erm":13933,"ernet":13934,"meimin":13935,"aria":13936,"desk":13937,"Ġ=\"":13938,"reid":13939,"repo":13940,"receitas":13941,"Ġpet":13942,"Ġpatterns":13943,"lood":13944,"Ġtx":13945,"lothes":13946,"coverage":13947,"clare":13948,"basedir":13949,"Ġrem":13950,"Ġsac":13951,"acquir":13952,"setter":13953,"Ġcatch":13954,"Ġchoice":13955,"Ġbles":13956,"Ġbasics":13957,"Contains":13958,"ĠCall":13959,"ĠCors":13960,"Configuration":13961,"ĠMosaic":13962,"formular":13963,"Ġdeclar":13964,"Ġdescribe":13965,"ĠLay":13966,"Ġfed":13967,"Ġface":13968,"Ġfhand":13969,"Ġvolume":13970,"ĠPet":13971,"ĠPlay":13972,"ĠPessoa":13973,"__():<":13974,"dog":13975,"Ġru":13976,"ĠFinal":13977,"division":13978,"oman":13979,"imiter":13980,"oke":13981,"barAxes":13982,"()#":13983,"1017":13984,"BaseUser":13985,"arrayminus":13986,"arrayminu":13987,"interfaces":13988,"acters":13989,"ĠBasePermission":13990,"ĠBasePixelSampler":13991,"NumberFormat":13992,"valueminus":13993,"')[-":13994,"Registration":13995,"Ġtrail":13996,"STRE":13997,"Demo":13998,"Testing":13999,"summernote":14000,"solve":14001,"ffee":14002,"uspend":14003,"ĠInstance":14004,"ĠProgram":14005,"ĠKit":14006,"firstname":14007,"))]<":14008,"ä¸¤":14009,"ArraysrcValidator":14010,"ArrayminusValidator":14011,"ArrayminussrcValidator":14012,"ĠPool":14013,"Ġpric":14014,"0700":14015,"hrs":14016,"KET":14017,"ĠArrayValidator":14018,"ĠArraysrcValidator":14019,"ĠArrayminusValidator":14020,"ĠArrayminussrcValidator":14021,"Ġobserve":14022,"lette":14023,"dfs":14024,"Ġperm":14025,"ĠProducto":14026,"UUIDField":14027,"ĠEncoder":14028,"devices":14029,"convs":14030,"ĠZhoverformatValidator":14031,"meros":14032,"ValueminusValidator":14033,"Ġqr":14034,"ĠValueminusValidator":14035,"SFORM":14036,"åĲ«":14037,"Compute":14038,"Ġupdates":14039,"ĠMeimin":14040,"GENER":14041,"factories":14042,"ĠComposer":14043,"motion":14044,"ĠWebApp":14045,"ĠWebSocket":14046,"ĠAxesGrid":14047,"ddl":14048,"IoULoss":14049,"(?:":14050,"AMB":14051,"5432":14052,"BackendQTAgg":14053,"BackendQTCairo":14054,"Ġbackground":14055,"Ġhealth":14056,"ĠnÃºmeros":14057,"Weight":14058,"æĶ¾":14059,"Ġmetaclass":14060,"autifulso":14061,"ĠSymmetricValidator":14062,"enko":14063,"SymmetricValidator":14064,"æ¯į":14065,"alieModel":14066,"CKV":14067,"________________":14068,"corsheaders":14069,"é¡»":14070,"Ġbuilt":14071,"advance":14072,"tracerefminus":14073,"TracerefValidator":14074,"TracerefminusValidator":14075,"ĠTracerefValidator":14076,"ĠTracerefminusValidator":14077,"Capture":14078,"Shared":14079,"ĠFlake":14080,"Ġactivation":14081,"ĠDensePose":14082,"Ġidlelib":14083,"DivisionError":14084,"Ġcrosswind":14085,"ÑģÐºÐ¾Ð³Ð¾":14086,"persist":14087,"ĠAgent":14088,"BLACK":14089,"ĠGenre":14090,"Ġhardware":14091,"ĠArticlesConfig":14092,"Ġwangmeimin":14093,"Ġblessed":14094,"arrayminussrc":14095,"autifulsoup":14096,")\",":14097,">`.<":14098,"Cor":14099,"Factor":14100,"Hex":14101,"Limit":14102,"LINK":14103,"Mesh":14104,"Sites":14105,"VES":14106,"Words":14107,"]|":14108,"]})<":14109,"_{":14110,"bridgecrew":14111,"clock":14112,"das":14113,"due":14114,"ese":14115,"ever":14116,"emb":14117,"fmt":14118,"ky":14119,"lw":14120,"lush":14121,"mx":14122,"mal":14123,"rat":14124,"rdtypes":14125,"sigmoid":14126,"tar":14127,"tim":14128,"uada":14129,"eria":14130,"mpmath":14131,"delivery":14132,"__'])<":14133,"reward":14134,"reversed":14135,"reuniao":14136,"stab":14137,"coupon":14138,"mous":14139,"clark":14140,"enth":14141,
[...]
