{"<s>":0,"<pad>":1,"</s>":2,"<unk>":3,"<mask>":4,"!":5,"\"":6,"#":7,"$":8,"%":9,"&":10,"'":11,"(":12,")":13,"*":14,"+":15,",":16,"-":17,".":18,"/":19,"0":20,"1":21,"2":22,"3":23,"4":24,"5":25,"6":26,"7":27,"8":28,"9":29,":":30,";":31,"<":32,"=":33,">":34,"?":35,"@":36,"A":37,"B":38,"C":39,"D":40,"E":41,"F":42,"G":43,"H":44,"I":45,"J":46,"K":47,"L":48,"M":49,"N":50,"O":51,"P":52,"Q":53,"R":54,"S":55,"T":56,"U":57,"V":58,"W":59,"X":60,"Y":61,"Z":62,"[":63,"\\":64,"]":65,"^":66,"_":67,"`":68,"a":69,"b":70,"c":71,"d":72,"e":73,"f":74,"g":75,"h":76,"i":77,"j":78,"k":79,"l":80,"m":81,"n":82,"o":83,"p":84,"q":85,"r":86,"s":87,"t":88,"u":89,"v":90,"w":91,"x":92,"y":93,"z":94,"{":95,"|":96,"}":97,"~":98,"¡":99,"¢":100,"£":101,"¤":102,"¥":103,"¦":104,"§":105,"¨":106,"©":107,"ª":108,"«":109,"¬":110,"®":111,"¯":112,"°":113,"±":114,"²":115,"³":116,"´":117,"µ":118,"¶":119,"·":120,"¸":121,"¹":122,"º":123,"»":124,"¼":125,"½":126,"¾":127,"¿":128,"À":129,"Á":130,"Â":131,"Ã":132,"Ä":133,"Å":134,"Æ":135,"Ç":136,"È":137,"É":138,"Ê":139,"Ë":140,"Ì":141,"Í":142,"Î":143,"Ï":144,"Ð":145,"Ñ":146,"Ò":147,"Ó":148,"Ô":149,"Õ":150,"Ö":151,"×":152,"Ø":153,"Ù":154,"Ú":155,"Û":156,"Ü":157,"Ý":158,"Þ":159,"ß":160,"à":161,"á":162,"â":163,"ã":164,"ä":165,"å":166,"æ":167,"ç":168,"è":169,"é":170,"ê":171,"ë":172,"ì":173,"í":174,"î":175,"ï":176,"ð":177,"ñ":178,"ò":179,"ó":180,"ô":181,"õ":182,"ö":183,"÷":184,"ø":185,"ù":186,"ú":187,"û":188,"ü":189,"ý":190,"þ":191,"ÿ":192,"Ā":193,"ā":194,"Ă":195,"ă":196,"Ą":197,"ą":198,"Ć":199,"ć":200,"Ĉ":201,"ĉ":202,"Ċ":203,"ċ":204,"Č":205,"č":206,"Ď":207,"ď":208,"Đ":209,"đ":210,"Ē":211,"ē":212,"Ĕ":213,"ĕ":214,"Ė":215,"ė":216,"Ę":217,"ę":218,"Ě":219,"ě":220,"Ĝ":221,"ĝ":222,"Ğ":223,"ğ":224,"Ġ":225,"ġ":226,"Ģ":227,"ģ":228,"Ĥ":229,"ĥ":230,"Ħ":231,"ħ":232,"Ĩ":233,"ĩ":234,"Ī":235,"ī":236,"Ĭ":237,"ĭ":238,"Į":239,"į":240,"İ":241,"ı":242,"Ĳ":243,"ĳ":244,"Ĵ":245,"ĵ":246,"Ķ":247,"ķ":248,"ĸ":249,"Ĺ":250,"ĺ":251,"Ļ":252,"ļ":253,"Ľ":254,"ľ":255,"Ŀ":256,"ŀ":257,"Ł":258,"ł":259,"Ń":260,"ĠĠ":261,"in":262,";<":263,"><":264,"de":265,"ĠĠĠĠ":266,"Ġ<":267,"st":268,"ĠĠĠ":269,"en":270,"on":271,"at":272,">#":273,"er":274,"lu":275,"re":276,"Ġ<<":277,"//":278,"int":279,");<":280,"or":281,"Ġ\"":282,"{<":283,"inc":284,"lude":285,"include":286,"ut":287,"Ġc":288,"am":289,"ce":290,"::":291,"Ġm":292,"end":293,"čĊ":294,"}<":295,"Ġ=":296,"es":297,"ar":298,"ri":299,"def":300,"le":301,"()":302,"Ġi":303,"Ġn":304,"ct":305,"se":306,"co":307,"an":308,"ĠĠĠĠĠĠĠ":309,"ing":310,"Ġt":311,"al":312,"Ġ{<":313,"pa":314,"if":315,"endl":316,"ic":317,"id":318,"\"<":319,"std":320,"ion":321,"Ġv":322,"pp":323,"Ġf":324,"Ġ*":325,"ine":326,"it":327,"pace":328,"Ġendl":329,"ames":330,"amespace":331,"ra":332,"atri":333,"Ġs":334,"atrix":335,"ur":336,"Ġp":337,"define":338,"oid":339,"Ġb":340,"Ġre":341,"ss":342,">}<":343,"Ġa":344,"he":345,"la":346,"--":347,"lo":348,"ect":349,"ro":350,")<":351,"ate":352,"Ġstd":353,">}":354,"cout":355,"et":356,"str":357,"();<":358,"ig":359,"un":360,"ub":361,"Ġ0":362,"Ġco":363,">{<":364,"urn":365,"Ġint":366,"turn":367,"onst":368,"mp":369,"lic":370,"ma":371,"ent":372,">//":373,"Ġo":374,"ex":375,"us":376,"Ġ1":377,"Matrix":378,"um":379,"do":380,"void":381,"ĠA":382,"Ġ}<":383,"ER":384,"Ġ(":385,"Ġnamespace":386,"iz":387,"Ġma":388,"**":389,"ĠS":390,"is":391,"ector":392,"endif":393,"Ġ//":394,"ol":395,"Ġreturn":396,"Ġg":397,"Ġis":398,"hpp":399,"ĠC":400,"++":401,"lass":402,"ize":403,"Ġon":404,"Ġthe":405,"IN":406,"using":407,"el":408,":<":409,"yp":410,"ublic":411,"Ġmain":412,"ed":413,"ĠE":414,"ck":415,"tr":416,"ĠĠĠĠĠĠĠĠ":417,"__":418,"ch":419,"ile":420,"class":421,"namespace":422,"ter":423,"rag":424,"Ġconst":425,"string":426,"////":427,"ragma":428,"igen":429,"ver":430,"pragma":431,"ĠT":432,"ĠM":433,"io":434,"il":435,"ĠP":436,"..":437,"im":438,"Ġonce":439,"Ġ2":440,"----":441,"Ġd":442,"Ġcout":443,"ul":444,"EN":445,"Ġw":446,"Ġ{":447,"arg":448,"op":449,"Ġin":450,"ream":451,"te":452,"ation":453,"Ġfor":454,"Ġvoid":455,"AL":456,":\"":457,"ON":458,"Ġ:":459,"sp":460,"Ġof":461,"In":462,"ist":463,"ĠĠĠĠĠĠĠĠĠĠĠ":464,"ame":465,"()<":466,"ve":467,"Ġ&":468,"Ġ-":469,"00":470,"32":471,"Ġl":472,"loat":473,"../":474,"Co":475,"ont":476,"const":477,"LE":478,">};<":479,"RE":480,"ext":481,"Ġh":482,"ST":483,"der":484,"/<":485,"MatrixX":486,",<":487,"ĠG":488,"ndef":489,"bo":490,"ad":491,"ifndef":492,"ge":493,"stream":494,".<":495,"ĠD":496,"eg":497,"Ġif":498,"<<":499,"Ġch":500,"ype":501,"ir":502,"Ġ>":503,"ĠN":504,"ere":505,"ow":506,"AR":507,"ment":508,"public":509,"Ġj":510,"AT":511,"PL":512,"pre":513,"ata":514,"ec":515,"as":516,"/*":517,"Ġmatrix":518,"****":519,"and":520,"all":521,"Ġ_":522,"ot":523,"ef":524,"Ġ\"../":525,"vector":526,"Ġpublic":527,"Ġby":528,"ated":529,"){<":530,"OR":531,"uint":532,"ener":533,"Ġ4":534,"uto":535,"Here":536,"DE":537,"iostream":538,"Ġchar":539,"dom":540,"==":541,"St":542,"set":543,"andom":544,"ray":545,"size":546,"alu":547,"ĠF":548,"ĉĉ":549,"ht":550,"IM":551,"ort":552,"(\"":553,"mpl":554,"Ġnum":555,"IL":556,"Vector":557,"put":558,"Ġ+":559,"Ġ3":560,"ĠL":561,"else":562,"tion":563,"Ġst":564,"ase":565,"ĠR":566,"ble":567,"Ġe":568,"};<":569,"Ġ*/<":570,"for":571,"ack":572,"son":573,"his":574,"ction":575,"Random":576,"////////":577,"ap":578,"get":579,"];<":580,"ial":581,"ĠQ":582,"Ġx":583,"PP":584,"ĠI":585,"ifdef":586,"Ġ@":587,"Ġto":588,"->":589,"li":590,"ode":591,"Ġ__":592,"uct":593,"ew":594,"ĠB":595,"ssion":596,"og":597,"yn":598,"Eigen":599,"ject":600,"float":601,"AN":602,"ĠU":603,"pper":604,"--------":605,"ult":606,"pression":607,"ĠĠĠĠĠ":608,"its":609,"Ġar":610,"ag":611,"ue":612,"IT":613,"lus":614,"Ġfile":615,"AP":616,"em":617,"return":618,"ĠEigen":619,"enerated":620,"atic":621,"per":622,"AC":623,"ual":624,"os":625,"lusp":626,"lusplus":627,"ator":628,"struct":629,"ign":630,"uble":631,"Ġcin":632,"().":633,"Ġ'":634,"Ġauto":635,"FI":636,"double":637,"od":638,"cpp":639,"Ġarg":640,"Ex":641,"ans":642,"th":643,"ern":644,"tern":645,"ang":646,"sh":647,"ĠMatrix":648,"10":649,"comp":650,"rapper":651,"UL":652,"Ġr":653,"lay":654,"///":655,"om":656,"tt":657,"\";<":658,"ool":659,"SE":660,"up":661,"ĠW":662,"dow":663,"ME":664,"ĠK":665,"est":666,"olu":667,"red":668,"alue":669,"Ġy":670,"Ġget":671,"Ġsize":672,"Ġ==":673,"ERN":674,"mm":675,"ĠH":676,"lm":677,"num":678,"Ġ/*":679,"),":680,"unt":681,"16":682,"ride":683,"Ġk":684,"lication":685,"CT":686,"\",":687,"QU":688,"indow":689,"pplication":690,"The":691,"irt":692,"con":693,">>":694,"ĠMatrixX":695,"rint":696,"Str":697,"par":698,"type":699,"bject":700,"ens":701,"oint":702,"irtual":703,"bool":704,"extern":705,"ptr":706,"wrapper":707,"_<":708,"mat":709,"MO":710,"Ġover":711,"itor":712,"AB":713,"aa":714,"ity":715,"Ġde":716,"ION":717,"olution":718,">//<":719,"pyp":720,"pyplusplus":721,"Ġfloat":722,"20":723,"IMPL":724,"idget":725,"Ġvector":726,"ith":727,"<<\"":728,"of":729,"ime":730,"EX":731,"ĠKERN":732,"ber":733,"ong":734,"ALI":735,"RO":736,"ise":737,"64":738,"able":739,"Pro":740,"ute":741,"col":742,"unction":743,"fo":744,"ror":745,"://":746,"nt":747,"\");<":748,"vent":749,"vi":750,"Ġbool":751,"pro":752,").":753,"ser":754,"********":755,"kern":756,"Ġoverride":757,"Ġ>>":758,"row":759,"wise":760,"FIER":761,"istr":762,"gin":763,"back":764,"ive":765,"ard":766,"ister":767,"String":768,"QUALI":769,"QUALIFIER":770,"art":771,"ition":772,"ref":773,"ĠO":774,"pri":775,"ED":776,");":777,"IC":778,"lugin":779,"Ġ{}<":780,"ose":781,"TO":782,"IG":783,"SH":784,"ele":785,"Ġ->":786,"ann":787,"cep":788,"uns":789,"BU":790,"ĠĠĠĠĠĠ":791,"hile":792,"py":793,"ĠV":794,"ensor":795,"[]":796,"++)<":797,"));<":798,"ta":799,"Ġ!":800,"List":801,"data":802,"Ġbe":803,"Ġres":804,"ader":805,"Core":806,"dd":807,"defined":808,"Ġgenerated":809,"impl":810,"vate":811,"lib":812,"bits":813,"ff":814,"HPP":815,"En":816,"ense":817,"ll":818,"amic":819,"Expression":820,"age":821,"Ġout":822,"ynamic":823,"Type":824,"isitor":825,"Ġglm":826,"lock":827,"ansp":828,"TE":829,"ess":830,"reate":831,"our":832,"CO":833,"ĠVector":834,"Ar":835,"++.":836,"ain":837,"stdc":838,"GL":839,"json":840,"ty":841,"Ġpro":842,"istry":843,"Ġarray":844,"ID":845,"anspose":846,"use":847,"qu":848,"ure":849,"ph":850,"UN":851,"ull":852,">};":853,"char":854,"igned":855,">(":856,"sc":857,"ABLE":858,"////////////////":859,"ind":860,"Ġjson":861,"mplate":862,"Ġ5":863,"matrix":864,"AD":865,"ule":866,"12":867,"und":868,"Ġans":869,"PE":870,"Widget":871,"Ġuint":872,"eng":873,"IGEN":874,"Ġ10":875,"oo":876,"alues":877,"ush":878,"MODE":879,"Ġmax":880,"DI":881,"ary":882,"Ġmat":883,"alse":884,"Ġlong":885,"ault":886,"out":887,":\\":888,"Ġreg":889,"ath":890,"ac":891,"FA":892,"transpose":893,"bu":894,"top":895,"ĠSolution":896,"ight":897,"ps":898,"ud":899,"Ġelse":900,"Base":901,"ĠCV":902,"ĠThis":903,"layer":904,"SC":905,"hw":906,"ĠĠĠĠĠĠĠĠĠĠĠĠĠĠĠ":907,"lement":908,"af":909,"ner":910,"Ġdefined":911,"reg":912,"----------------":913,"yst":914,"ast":915,"Dynamic":916,"orm":917,"Application":918,"ĠEIGEN":919,"egin":920,"CE":921,"Node":922,"Ġtr":923,"unsigned":924,"Ġhe":925,"Ġse":926,"Ġset":927,"Ġwhile":928,"ystem":929,"ILD":930,"nums":931,"rc":932,"Ġ};<":933,"Ġcomp":934,"act":935,"file":936,"to":937,"Ġex":938,"ents":939,"Ġdata":940,"BUILD":941,"Ġ,":942,"inl":943,"cess":944,"Window":945,"dex":946,"Ġnums":947,"iv":948,"Ġth":949,"ke":950,"VER":951,"hm":952,"root":953,"Ġargc":954,"Ġstatic":955,"Ġvalue":956,"Object":957,"ree":958,"Ġdef":959,"FAIL":960,"template":961,"CH":962,"atement":963,"ant":964,"mmon":965,"arr":966,"atch":967,"SS":968,"nn":969,"ton":970,"ĠX":971,"ory":972,"====":973,"YPE":974,"Ġand":975,"stdio":976,"ib":977,"Stream":978,"());<":979,"lohm":980,"compute":981,"lohmann":982,"eff":983,"LO":984,"ab":985,"Ġstring":986,"Ġ'\\":987,"SHO":988,"di":989,"DN":990,"Ġ\"\\":991,"ULD":992,"SHOULD":993,"Ġthis":994,"fig":995,"private":996,"ho":997,"Bo":998,"UP":999,"EXT":1000,"Size":1001,"ink":1002,"static":1003,"/**":1004,"Xf":1005,"emp":1006,"res":1007,"Ġinput":1008,"STR":1009,"Event":1010,"(),":1011,"Ġhtt":1012,"++)":1013,"map":1014,"odule":1015,"Ġfalse":1016,"ace":1017,"Ġnot":1018,"ITY":1019,"DNN":1020,"Ġdouble":1021,"ĠEx":1022,"++){<":1023,"rintf":1024,"ING":1025,">&":1026,"//<":1027,"ero":1028,"Ġargv":1029,"CV":1030,"ĠĠĠĠĠĠĠĠĠĠĠĠĠĠĠĠ":1031,"verse":1032,"cept":1033,"CL":1034,"log":1035,"ORT":1036,"test":1037,"GDNN":1038,"rig":1039,"form":1040,"De":1041,"MatrixXf":1042,"auto":1043,"(){<":1044,"rom":1045,"ww":1046,"Ġhas":1047,"rt":1048,"Ġdefault":1049,"Ġsum":1050,"AM":1051,"pec":1052,"sol":1053,"/**<":1054,"./":1055,"UT":1056,"Ġvirtual":1057,"CON":1058,"read":1059,"ly":1060,"sum":1061,"Ġ\\":1062,"ork":1063,"Box":1064,"ui":1065,"LEM":1066,"ĉĠĠĠ":1067,"ob":1068,"TEST":1069,"Re":1070,"font":1071,"nd":1072,"virtual":1073,"++;<":1074,"name":1075,"API":1076,"Ġ*/":1077,"ender":1078,">*":1079,"Ġå":1080,"afx":1081,"();":1082,"Ġnumber":1083,"vel":1084,"vec":1085,"stri":1086,"Ġclass":1087,"Ġoutput":1088,"iew":1089,"dnn":1090,"Ġ&&":1091,"Ġ%":1092,"com":1093,"cl":1094,"val":1095,"YS":1096,"push":1097,"strict":1098,"UE":1099,"ALAR":1100,"rror":1101,"ti":1102,"ĠMatrixXf":1103,"ource":1104,"gr":1105,"egdnn":1106,"MatrixXd":1107,"ers":1108,"Ġ\"../../":1109,"Ġcall":1110,"Con":1111,"util":1112,"ANT":1113,"Ġrestrict":1114,"typedef":1115,"ĠIn":1116,"raph":1117,"aram":1118,"Ġcore":1119,"Ġno":1120,"IB":1121,"';<":1122,"Ġ}":1123,"Ġ<=":1124,"ontext":1125,"right":1126,"onal":1127,"Ġ\"./":1128,"Ġgen":1129,"Name":1130,"Data":1131,"PORT":1132,"dent":1133,"Ġ+=":1134,"ENABLE":1135,"PAR":1136,"htt":1137,"11":1138,"Ġ\";<":1139,"Ġ100":1140,"Ġnew":1141,"Zero":1142,"error":1143,"ĠPy":1144,"ger":1145,"Ġarr":1146,"Cor":1147,"Ġ7":1148,"ACE":1149,"ip":1150,"vice":1151,"ms":1152,"Ġ~":1153,"ill":1154,"utton":1155,"Ġport":1156,"OL":1157,"On":1158,"ĠJ":1159,"perty":1160,"aaaa":1161,"Row":1162,"que":1163,"Sc":1164,"enu":1165,"ffer":1166,"Corner":1167,"SL":1168,"ux":1169,"heck":1170,"ET":1171,"GIN":1172,"Ġinclude":1173,"typ":1174,"Ġ6":1175,"low":1176,"args":1177,"Ġare":1178,"View":1179,"ĠMatrixXd":1180,"INT":1181,"To":1182,"ance":1183,"Ġ|":1184,"amp":1185,"ey":1186,"REG":1187,"ft":1188,"irst":1189,"Array":1190,"WStream":1191,"tter":1192,"Ġ>&":1193,"Ġtrue":1194,"Lo":1195,"DL":1196,"Ġpa":1197,"ename":1198,"AME":1199,"Of":1200,"Reg":1201,"are":1202,"cin":1203,"loc":1204,"gen":1205,"ync":1206,"osition":1207,"cp":1208,"Ġ/":1209,"(<":1210,"]);<":1211,"pd":1212,"info":1213,"ialog":1214,"ULL":1215,"max":1216,"__<":1217,"mn":1218,"values":1219,"Ġports":1220,"open":1221,"Ġdt":1222,"Ġit":1223,"andle":1224,"Plugin":1225,"SION":1226,"cb":1227,"lutter":1228,"rib":1229,"Ġbu":1230,"Ch":1231,"<=":1232,"mage":1233,"Col":1234,"Test":1235,"VAL":1236,"imp":1237,"OD":1238,"common":1239,"anag":1240,"ĠPro":1241,"mb":1242,"add":1243,"tail":1244,"Now":1245,"ay":1246,"Ġun":1247,"Ġcount":1248,"ress":1249,"ĠME":1250,"code":1251,"Ġ#":1252,"Ġnull":1253,"gram":1254,"))":1255,"ĠExpression":1256,"][":1257,"ĠGet":1258,"ä»":1259,"VALUE":1260,"Function":1261,"NEXT":1262,"Ġcl":1263,"rect":1264,"MA":1265,"array":1266,"Ġ\"<<":1267,"ĠSt":1268,"erial":1269,"ision":1270,"****************":1271,"anager":1272,"mo":1273,"argv":1274,"agonal":1275,"Ġstr":1276,"OB":1277,"Ġ++":1278,"elem":1279,"Ġ!=":1280,"Text":1281,"rame":1282,"Ġtest":1283,"WI":1284,"Ġend":1285,"base":1286,"ark":1287,"enum":1288,"core":1289,"face":1290,"Ġes":1291,"APS":1292,"cond":1293,">()":1294,"ert":1295,"/*<":1296,"Ġregister":1297,"WIN":1298,"pen":1299,"ERAT":1300,"Ġbeen":1301,"essage":1302,"Def":1303,"units":1304,"For":1305,"Ġfoo":1306,"ĠCo":1307,"Comp":1308,"Get":1309,"PIN":1310,"GLSL":1311,"NO":1312,"_;<":1313,"ĠCre":1314,"prec":1315,"parse":1316,"REGI":1317,"Un":1318,"begin":1319,"solve":1320,"25":1321,"this":1322,"opt":1323,"Ġcon":1324,"igenvalues":1325,"ength":1326,">///":1327,"plugin":1328,"ting":1329,"rip":1330,"ĠMEGDNN":1331,"ak":1332,"Ġcb":1333,"ach":1334,"ust":1335,"Ġle":1336,"ari":1337,"main":1338,"AV":1339,"Ġ8":1340,"Dense":1341,"terator":1342,"File":1343,"Ġunsigned":1344,"org":1345,"ĠSYS":1346,"Info":1347,"Manager":1348,"Ġresult":1349,"Ref":1350,"],":1351,"elemwise":1352,"01":1353,"ost":1354,"PLU":1355,"Menu":1356,"Ġname":1357,"++.<":1358,"argc":1359,"ĠGL":1360,"Ġan":1361,"ELEM":1362,"sync":1363,"Ġmin":1364,"roup":1365,"ĠGenerated":1366,"Set":1367,"Visitor":1368,"ix":1369,"Ġoff":1370,"CTYPE":1371,"Player":1372,"Res":1373,"TER":1374,"ä¸":1375,"Ġ9":1376,"utho":1377,"uthored":1378,"SON":1379,"ild":1380,"ENERAT":1381,"itial":1382,"ATION":1383,"me":1384,"100":1385,"ECT":1386,"ld":1387,"exp":1388,"impls":1389,"SP":1390,"emory":1391,"KE":1392,"ARITY":1393,"WISE":1394,"ELEMWISE":1395,"44":1396,"LIN":1397,"iro":1398,"Ġal":1399,"urr":1400,"precision":1401,"CK":1402,"YER":1403,"Ġ*<":1404,"PLUGIN":1405,"line":1406,"work":1407,"parent":1408,"Map":1409,"Point":1410,"Ġdp":1411,"ENT":1412,"ĠAr":1413,"cplusplus":1414,"Ġcreate":1415,"ENERATED":1416,"!<":1417,"lob":1418,"arget":1419,"ore":1420,"lumn":1421,"setZero":1422,"ception":1423,"Ġ||":1424,"Ġnullptr":1425,"Ġq":1426,"FOR":1427,"count":1428,"ou":1429,")<<":1430,"sizeof":1431,"isp":1432,"rows":1433,"VERSION":1434,"ĠCreated":1435,"Bu":1436,"Button":1437,"ccept":1438,"æĸ":1439,"perator":1440,"with":1441,"rite":1442,"Ġpri":1443,"upp":1444,"ged":1445,"REGISTR":1446,"////////////////////////////////":1447,"MM":1448,"olver":1449,"Sh":1450,"bott":1451,"bottom":1452,"ĠGENERATED":1453,"printf":1454,"Ġhttp":1455,"ĠRE":1456,"eft":1457,"ersion":1458,"mer":1459,"src":1460,"input":1461,"MP":1462,"SY":1463,"tem":1464,"ĠReg":1465,"upport":1466,"Ident":1467,"Dialog":1468,"Ġnlohmann":1469,"registry":1470,"ä»¶":1471,"Left":1472,"ific":1473,"REGISTRANT":1474,"ass":1475,"ĩä»¶":1476,"Ġdi":1477,"æĸĩä»¶":1478,"new":1479,"Statement":1480,"ys":1481,"ĠPRO":1482,"State":1483,"Property":1484,"Ġu":1485,"one":1486,"...":1487,"Ġwith":1488,"Ġprint":1489,"Ġheader":1490,"tie":1491,"Right":1492,"ide":1493,"tect":1494,"Ġcont":1495,"merged":1496,"',":1497,"LIB":1498,"stdint":1499,"format":1500,"min":1501,"ĠAP":1502,"ĠArray":1503,"lur":1504,"Ġfrom":1505,"http":1506,"nlohmann":1507,"Ġstruct":1508,"ymb":1509,"ymbol":1510,"create":1511,"ov":1512,"Ġdo":1513,"ative":1514,"allback":1515,"AS":1516,"NAME":1517,"ound":1518,"ene":1519,"ormal":1520,"ĠRegister":1521,"next":1522,"Ġtype":1523,"Ġll":1524,"alls":1525,"Ġexp":1526,"AG":1527,"UR":1528,"sm":1529,"Ġsolution":1530,"Add":1531,"Hel":1532,"ULE":1533,"point":1534,"ces":1535,"ask":1536,"cv":1537,"qrt":1538,"ĠSC":1539,"Ġwill":1540,"bug":1541,"RT":1542,"Ġvisitor":1543,"(\"%":1544,"========":1545,"TR":1546,"Ġmy":1547,"application":1548,"cf":1549,"Ġvalues":1550,"rack":1551,"AND":1552,"Ġusing":1553,"iles":1554,"upd":1555,"colwise":1556,"Ġthat":1557,"inition":1558,"OP":1559,"xy":1560,"ĠZ":1561,"Ġfirst":1562,"roll":1563,">*/<":1564,"Id":1565,"list":1566,"value":1567,"onent":1568,"Ġmegdnn":1569,"Ġpre":1570,"):\"":1571,"WR":1572,"glm":1573,"ouse":1574,"load":1575,"Ġstdafx":1576,"JECT":1577,"KUP":1578,"window":1579,"raw":1580,"TD":1581,"app":1582,"ktop":1583,"Ġadd":1584,"lag":1585,"ignment":1586,"Error":1587,"ici":1588,"Index":1589,"init":1590,"Ġsub":1591,"exec":1592,"END":1593,"OT":1594,"Ġcolumn":1595,"effici":1596,">::":1597,"ry":1598,"Ġ);<":1599,"ord":1600,"Cont":1601,"ES":1602,"Ġyou":1603,"www":1604,"block":1605,"flutter":1606,"Mode":1607,"Ġvec":1608,"WKUP":1609,"Ġones":1610,"Value":1611,"((":1612,"Num":1613,"chur":1614,"typename":1615,">/*":1616,"Pack":1617,"wo":1618,"ower":1619,"ĠJSON":1620,"ification":1621,"My":1622,"SO":1623,"ai":1624,"ĠDo":1625,"Ġfunction":1626,"Ġspec":1627,"proble":1628,"kn":1629,"ya":1630,"PARAM":1631,"lobal":1632,"erator":1633,"Ġoperator":1634,"config":1635,"AKE":1636,"Path":1637,"cc":1638,"sed":1639,"Ġgener":1640,"stance":1641,"orld":1642,"Ġed":1643,"Ġelement":1644,"SCALAR":1645,"Ġhttps":1646,"ared":1647,"pi":1648,"Ġtri":1649,"Ġ{};<":1650,"CPP":1651,"Įħ":1652,"esh":1653,"undle":1654,"ĠSCALAR":1655,"Item":1656,"Spec":1657,"event":1658,"0000":1659,"tected":1660,"Log":1661,"pe":1662,"Ġclang":1663,"ler":1664,"pch":1665,"Ġsyn":1666,"show":1667,"\"),":1668,"512":1669,"tor":1670,"tes":1671,"wap":1672,"dered":1673,"left":1674,"lient":1675,"DK":1676,"Frame":1677,"yer":1678,"onents":1679,"READ":1680,"Ġbegin":1681,"ros":1682,"OS":1683,"Ġsh":1684,"Lay":1685,"PRO":1686,"detail":1687,"256":1688,">@":1689,"Iterator":1690,"inter":1691,"Ġtemp":1692,"lose":1693,"Ġcol":1694,"ilter":1695,"sert":1696,"tax":1697,"DIO":1698,"tings":1699,"joint":1700,"tk":1701,"Ġil":1702,"unc":1703,"OfA":1704,"parseMatrix":1705,"'s":1706,"Impl":1707,"ique":1708,"\"<<":1709,"Ġbundle":1710,"older":1711,"=\"":1712,"dim":1713,"path":1714,"Ġas":1715,"mmand":1716,"--------------------------------":1717,"diagonal":1718,"Registry":1719,"ingle":1720,"PLIC":1721,"ĉĉĉ":1722,"fontinfo":1723,"uxg":1724,"lat":1725,"ics":1726,"Code":1727,"UNT":1728,"Ġregistry":1729,"Module":1730,"Ġat":1731,"licit":1732,"Ġor":1733,"Time":1734,"Inter":1735,"Ġyour":1736,"åĮħ":1737,"ized":1738,"ĠNya":1739,"Ġeach":1740,"ACK":1741,"ĠNyaan":1742,"TYPE":1743,"inary":1744,"river":1745,"Ġvim":1746,"ĠHWStream":1747,"Ġsyntax":1748,"_(":1749,"fer":1750,"ordered":1751,"isplay":1752,"ee":1753,"lex":1754,"Int":1755,"RightCorner":1756,"PLICATION":1757,"FF":1758,"Identity":1759,"LeftCorner":1760,"SER":1761,"no":1762,"vm":1763,"Ġid":1764,"Ġcode":1765,"Ġobject":1766,"ĠĠĠĠĠĠĠĠĠĠ":1767,"xygen":1768,"Main":1769,"graph":1770,"stdafx":1771,"Ġprintf":1772,"ATE":1773,"[])<":1774,"Element":1775,"QWidget":1776,"bs":1777,"oc":1778,"lete":1779,"ange":1780,"doxygen":1781,"ash":1782,"pos":1783,"Ġios":1784,"Ġpart":1785,"ĠError":1786,"ACT":1787,"Ġedit":1788,"Th":1789,"WAKE":1790,"]=":1791,"untime":1792,"ribut":1793,"WAKEUP":1794,"megdnn":1795,"EL":1796,"Ma":1797,"undef":1798,"Ġcoeffici":1799,"ĠPWR":1800,"ave":1801,"ias":1802,"doc":1803,"IMPORT":1804,"Definition":1805,"Ptr":1806,"ssignment":1807,"so":1808,"while":1809,"yam":1810,"zz":1811,"erver":1812,"uth":1813,"Ġval":1814,"Ġ>=":1815,"Ġnumbers":1816,"OBJECT":1817,"Game":1818,"He":1819,"Render":1820,"til":1821,"lab":1822,"Ġeigenvalues":1823,"kernel":1824,"Ġcomponents":1825,"cy":1826,"cast":1827,"ning":1828,"iled":1829,"EM":1830,"Xd":1831,"Sensor":1832,"classes":1833,"Ġlib":1834,"DECL":1835,"lace":1836,">}//":1837,"TH":1838,"]]":1839,"arch":1840,"ATA":1841,"ĠIm":1842,"abel":1843,"OW":1844,"generated":1845,"Ġupd":1846,"imum":1847,"13":1848,">().":1849,"Image":1850,"context":1851,"Ġroot":1852,"ĠNC":1853,"ĠID":1854,"urrent":1855,"function":1856,"oriz":1857,"make":1858,"Ġ[":1859,"///<":1860,"99":1861,"ĠGLM":1862,"orizont":1863,"ARE":1864,"BO":1865,"FLO":1866,"HWStream":1867,"Lin":1868,"UDIO":1869,"by":1870,"engl":1871,"orizontal":1872,"Context":1873,"SDL":1874,"uce":1875,"ical":1876,"time":1877,"utex":1878,"opengl":1879,"Init":1880,"otal":1881,"ages":1882,"PluginRegistry":1883,"WOR":1884,"kr":1885,"ARCH":1886,"udio":1887,"Par":1888,"uzz":1889,"see":1890,"ract":1891,"Ġapp":1892,"etwork":1893,"LINE":1894,"An":1895,"])":1896,"tog":1897,"Ġ?":1898,"::~":1899,"boj":1900,"MEM":1901,"ariable":1902,"length":1903,"Handle":1904,"OK":1905,"ove":1906,"ick":1907,"VectorXf":1908,"oft":1909,"ample":1910,"pdate":1911,"FUN":1912,"NULL":1913,"ctor":1914,"Ġtime":1915,"Ġ**":1916,"Ġcopy":1917,"Vis":1918,"jor":1919,"port":1920,"ally":1921,"(&":1922,"Cpp":1923,"Solver":1924,"ward":1925,"Ġlog":1926,"REF":1927,"ĠVectorXf":1928,"obj":1929,"86":1930,"QApplication":1931,"çĶ":1932,"license":1933,"Config":1934,"kht":1935,"unter":1936,"STUDIO":1937,"ndim":1938,"utils":1939,"ĠAPSTUDIO":1940,"yamov":1941,"khtyamov":1942,"App":1943,"ts":1944,"ĠĠĠĠĠĠĠĠĠ":1945,"ations":1946,"Ġkey":1947,"15":1948,"ASS":1949,"av":1950,"ges":1951,"ILITY":1952,"Ġ101":1953,"dims":1954,"Param":1955,"UC":1956,"pact":1957,"MatrixXi":1958,"types":1959,"Ġprivate":1960,"!=":1961,"Horizontal":1962,"bl":1963,"close":1964,"ifi":1965,"ĠCO":1966,"Ġprocess":1967,"upported":1968,"</":1969,"Ġsort":1970,"Ġ16":1971,"ization":1972,"pdf":1973,"ription":1974,"\">":1975,"ml":1976,"sqrt":1977,"Ġ)<":1978,"anf":1979,"Ġ20":1980,"ĠNULL":1981,"ĠQString":1982,"Ġ@}<":1983,"param":1984,"Enter":1985,"DIS":1986,"Ġsection":1987,"GLSLang":1988,"é¢":1989,"amer":1990,"Ġhref":1991,"Ġ@{<":1992,"Ġdefaultp":1993,"addtog":1994,"Ġspecification":1995,"GLSLangSpec":1996,"addtogroup":1997,"IP":1998,"andler":1999,"Ġrandom":2000,"(__":2001,"FX":2002,"];":2003,"çļ":2004,"ular":2005,"MOD":2006,"formation":2007,"Rows":2008,"long":2009,"ence":2010,"Ġparam":2011,"ĠSet":2012,"output":2013,"result":2014,"latform":2015,"Key":2016,"second":2017,"ENSE":2018,"Ġwe":2019,"Di":2020,"Tree":2021,"ä½":2022,"exception":2023,"Ġstart":2024,"Class":2025,"GR":2026,"LS":2027,"System":2028,"ryp":2029,"Ġsc":2030,"Ġptr":2031,"Ġ(!":2032,"prite":2033,"udge":2034,"(-":2035,"MB":2036,"Sco":2037,"gine":2038,"les":2039,"Ġ...":2040,"try":2041,"imer":2042,"IME":2043,"api":2044,"Ġsizeof":2045,"protected":2046,"ODO":2047,"small":2048,"knob":2049,"çļĦ":2050,"mid":2051,"ster":2052,"Ġreverse":2053,"Ġ(\"":2054,"Common":2055,"EXPORT":2056,"Ones":2057,"GET":2058,"LL":2059,"PC":2060,"Te":2061,"bind":2062,"holder":2063,"åĲ":2064,"Ġsource":2065,"Number":2066,"Util":2067,"ies":2068,"pop":2069,"tri":2070,"ĠTODO":2071,"eger":2072,"APPLICATION":2073,"https":2074,"FLOAT":2075,"DISABLE":2076,"amera":2077,"(_":2078,"CC":2079,"Space":2080,"ep":2081,"ĉĠĠĠĠĠĠĠ":2082,"Ġfont":2083,"Ġ*=":2084,"unique":2085,"cols":2086,"MY":2087,"matic":2088,"MEGDNN":2089,"SPACE":2090,"MSC":2091,"UI":2092,"authored":2093,"bj":2094,"als":2095,"ĠAuthored":2096,"ĠQApplication":2097,"ĠBase":2098,"Cols":2099,"MyApplication":2100,"Check":2101,"game":2102,"å¤":2103,"inal":2104,"eth":2105,"COMM":2106,"pacto":2107,"\")<":2108,"rary":2109,"space":2110,"ature":2111,"reak":2112,"ĠMat":2113,"Ġinit":2114,"ĠOpen":2115,"ICENSE":2116,"çĶ¨":2117,"Xi":2118,"ric":2119,"istribut":2120,"rackknob":2121,"{{":2122,"Ġz":2123,"lider":2124,"opencv":2125,"Ġexplicit":2126,"Rule":2127,"Se":2128,"sktop":2129,"head":2130,"Command":2131,"FIG":2132,"thread":2133,"actor":2134,"Filter":2135,"Label":2136,"Piv":2137,"tra":2138,"ĠSystem":2139,"Ġindex":2140,"Ġproject":2141,"WORD":2142,">;<":2143,">/**<":2144,"Ed":2145,"MIN":2146,"PER":2147,"sg":2148,"Ġcla":2149,"Engine":2150,"buffer":2151,"24":2152,"gb":2153,"md":2154,"normal":2155,"ĠY":2156,"CODE":2157,"inline":2158,"+=":2159,"Bar":2160,"judge":2161,"mark":2162,"sub":2163,"ĠCont":2164,"view":2165,"Ġpage":2166,"Ġbuild":2167,"expr":2168,"torch":2169,"ACTOR":2170,"Af":2171,"Op":2172,"Ġ-<":2173,"ĠDe":2174,"ome":2175,"ĠWindow":2176,"used":2177,"MAX":2178,"Accept":2179,"Font":2180,"Ġ=\\":2181,"Ġschur":2182,"igh":2183,"old":2184,"Ġsecond":2185,"Color":2186,"BIT":2187,"Graph":2188,"Wrapper":2189,"gui":2190,"the":2191,"visitor":2192,"resize":2193,"Ġcnt":2194,"())<":2195,"ĠMap":2196,"ape":2197,"ĠImpacto":2198,"Hiro":2199,"Message":2200,"Symbol":2201,"[\"":2202,"è¯":2203,"())":2204,"idth":2205,"Ġreturns":2206,"Ġhiro":2207,"annel":2208,"Ġgenerate":2209,"HE":2210,"last":2211,"--){<":2212,"Ġinformation":2213,"composition":2214,"compiled":2215,"VI":2216,"Version":2217,"nect":2218,"Ġrow":2219,"Ġmid":2220,"Ġrep":2221,"expression":2222,"Input":2223,"Coeff":2224,"direct":2225,">=":2226,"Al":2227,"Ġtext":2228,"etry":2229,"CONFIG":2230,"ĠStatement":2231,"Ġlu":2232,"Ġdefine":2233,"Ġblur":2234,"except":2235,"ĠAccept":2236,"ĠDec":2237,"Ġautomatic":2238,"Action":2239,"Ġ)":2240,"Ġ--":2241,"Ħç":2242,"cos":2243,"ĠCPP":2244,"Entry":2245,"Hello":2246,"ethod":2247,"14":2248,"NT":2249,"]==":2250,"ock":2251,"Ġ32":2252,"Ġrows":2253,"hel":2254,"åĮħåĲ":2255,"åĮħåĲ«":2256,"SB":2257,"Tensor":2258,"UM":2259,"lin":2260,"°Ĩ":2261,"ĠIN":2262,"Ġright":2263,"Ġpoint":2264,"izer":2265,"problems":2266,"é¢Ħç":2267,"Ad":2268,"BE":2269,"IO":2270,"Link":2271,"OST":2272,"ale":2273,"duct":2274,"ĠFile":2275,"ĠUn":2276,"ĠWidget":2277,"ABILITY":2278,"uthor":2279,"bri":2280,"eigenvalues":2281,"tensor":2282,"¼ĸ":2283,"pavel":2284,"Ġakhtyamov":2285,"boost":2286,"EigenSolver":2287,"solver":2288,"Ġå°Ĩ":2289,"MODULE":2290,"è¯ĳ":2291,"é¢Ħç¼ĸ":2292,"Ġakhtyamovpavel":2293,"é¢Ħç¼ĸè¯ĳ":2294,"Handler":2295,"tx":2296,"vk":2297,"Ġcheck":2298,"Ġwh":2299,"ĠFL":2300,"ĠList":2301,"shared":2302,"TESTABILITY":2303,"NAMESPACE":2304,"REFACTOR":2305,"REFACTORING":2306,"dp":2307,"ous":2308,"object":2309,"page":2310,"chw":2311,"ĠUi":2312,"ntity":2313,"import":2314,"URCE":2315,"Model":2316,"å¤´":2317,"))<":2318,"EYER":2319,"Le":2320,"mod":2321,"node":2322,"ľ¨":2323,"Ġpar":2324,"vers":2325,"operator":2326,"Ġnoexcept":2327,"EB":2328,"iny":2329,"ond":2330,"ĠEyer":2331,"ĠFlutter":2332,"Ġcompute":2333,"ä¸Ń":2334,"33":2335,"fc":2336,"run":2337,"},":2338,"ervice":2339,"Ġserial":2340,"andard":2341,"ĠRow":2342,"Process":2343,"empty":2344,"):":2345,"AFX":2346,"Line":2347,"mv":2348,"iler":2349,"CA":2350,"NS":2351,"gor":2352,"¼ķ":2353,"Ġen":2354,"insert":2355,"resh":2356,"icros":2357,"Ġapplication":2358,"eta":2359,"ĠSTD":2360,"Ġdelete":2361,"move":2362,"Visit":2363,"¼ķçĶ¨":2364,"Dec":2365,"Mat":2366,"Py":2367,"ä¿":2368,"pac":2369,"ĠAdd":2370,"ONN":2371,"asic":2372,"Gener":2373,"Sub":2374,"false":2375,"system":2376,"att":2377,"Ġmod":2378,"ingD":2379,"ĠMain":2380,"temp":2381,"(\"\");<":2382,"ĠIl":2383,"ĠUse":2384,"ĠWIN":2385,"Debug":2386,"Ġcols":2387,"IR":2388,"UDE":2389,"ery":2390,"Ġini":2391,"[],":2392,"CLUDE":2393,"Format":2394,"SOURCE":2395,"),<":2396,"Lib":2397,"PAT":2398,"runtime":2399,"}}<":2400,"start":2401,"Ġ\"]":2402,"arning":2403,"Ġne":2404,"Ġfind":2405,"Ġhere":2406,"MatrixXcf":2407,"ache":2408,"normalized":2409,"Sum":2410,"nc":2411,"yle":2412,"index":2413,"ank":2414,"Ġtarget":2415,">{":2416,"Att":2417,"By":2418,"module":2419,"pack":2420,"ĠSparseMatrix":2421,"Initial":2422,"Instance":2423,"ĠOn":2424,"ook":2425,"key":2426,"ĠPROG":2427,"closeBox":2428,"Ġautomatically":2429,"icrosoft":2430,".\"":2431,"Or":2432,"Rect":2433,"TRO":2434,"fs":2435,"lang":2436,"ULT":2437,"rowwise":2438,"RowVector":2439,"roller":2440,"FIN":2441,"Task":2442,"])<":2443,"vc":2444,"register":2445,"abs":2446,"pow":2447,"Ġus":2448,"Ġlicense":2449,"uture":2450,"ĠMOD":2451,"FILE":2452,"scanf":2453,"Packet":2454,"LinSpace":2455,"LinSpaced":2456,"gate":2457,"Ġerror":2458,"rep":2459,"etric":2460,"elf":2461,"ension":2462,"Arg":2463,"Windows":2464,"brief":2465,"Qu":2466,"ha":2467,"ible":2468,"jp":2469,"memory":2470,"led":2471,"level":2472,"alloc":2473,"buf":2474,"ribute":2475,"imple":2476,"ĠPROGMEM":2477,"ono":2478,"pages":2479,"Ġsrc":2480,"--;<":2481,"angular":2482,"CI":2483,"SI":2484,"ZE":2485,"gener":2486,"hom":2487,"text":2488,"Ġ=\"":2489,"Ġnode":2490,"ify":2491,"imd":2492,"imation":2493,"Device":2494,"OLS":2495,"assert":2496,"Ġheaders":2497,"Mesh":2498,"Out":2499,"Upper":2500,"hnormalized":2501,"oog":2502,"atus":2503,"coeff":2504,"Ġ12":2505,"Ġlang":2506,"Ġlink":2507,"adjoint":2508,"ĠLo":2509,"ogene":2510,"conv":2511,"quare":2512,"topLeftCorner":2513,"UTTER":2514,"Ġ\\<":2515,"bottomRightCorner":2516,"ĠFLUTTER":2517,"homogene":2518,"homogeneous":2519,"Memory":2520,"Ġper":2521,"board":2522,"own":2523,"ĠIRT":2524,"ĠWEB":2525,"itional":2526,"Ġhead":2527,"Buffer":2528,"oogle":2529,"LY":2530,"cur":2531,"cont":2532,"dl":2533,"ken":2534,"we":2535,"decl":2536,"ĠSize":2537,"ĠNode":2538,"ithub":2539,"Ġincludes":2540,"*)":2541,"ML":2542,"gtest":2543,"len":2544,"eter":2545,"ERR":2546,"ĠLICENSE":2547,"math":2548,"BUG":2549,"Ġheight":2550,"Component":2551,"Des":2552,"Ġtotal":2553,"alar":2554,"verti":2555,"ĠFunction":2556,"Ġfloating":2557,"Register":2558,"openHorizontal":2559,"Ġbuffer":2560,"AVE":2561,"Ġupdated":2562,"GN":2563,"tree":2564,"Ġpush":2565,"unordered":2566,"ĠAn":2567,"Ġinline":2568,"Ġlen":2569,"ITEM":2570,"fonts":2571,"linux":2572,"ĠWEBPP":2573,"Sp":2574,"UD":2575,"cstd":2576,"Ġro":2577,"Ġfuture":2578,"Ġ((":2579,"Count":2580,"================":2581,"Layout":2582,"rackknobr":2583,"BLEM":2584,"FE":2585,"LU":2586,"QString":2587,"Vert":2588,"Ġmp":2589,"CTION":2590,"Plugins":2591,"********************************":2592,"ĠPROBLEM":2593,"Ġlangu":2594,"50":2595,"Update":2596,"blur":2597,"cul":2598,"eval":2599,"null":2600,"qual":2601,"widget":2602,"icense":2603,"unk":2604,"ĠEX":2605,"ĠĠĠĠĠĠĠĠĠĠĠĠĠĠĠĠĠĠĠ":2606,"ADER":2607,"Ġserialize":2608,"DOW":2609,"Fact":2610,"GE":2611,"Tra":2612,"bin":2613,"Ġplugin":2614,"--)<":2615,"__)<":2616,"ACED":2617,"vider":2618,"maxCoeff":2619,"Ġprocessing":2620,"ĠSTDAFX":2621,"Match":2622,"seg":2623,"ĠTest":2624,"ALL":2625,"Ġstate":2626,"ometry":2627,"ithm":2628,"scription":2629,"Texture":2630,"label":2631,"holderQ":2632,"vertible":2633,"cwise":2634,"handle":2635,"pr":2636,"ware":2637,"ino":2638,"ĠĠĠĠĠĠĠĠĠĠĠĠ":2639,"ansform":2640,"Ġdecomposition":2641,"proto":2642,"ainer":2643,"matrixT":2644,"oost":2645,"uda":2646,"Interface":2647,"Thread":2648,"COMMAND":2649,"Level":2650,"21":2651,"Run":2652,"ccess":2653,"find":2654,"github":2655,"Ġuxg":2656,"lear":2657,"Ġiterator":2658,"ĠSc":2659,"ĠCom":2660,"ĠMC":2661,"PLACED":2662,"allfont":2663,"share":2664,"Ġrun":2665,"server":2666,"Ġgenallfont":2667,"genpages":2668,"ĠREPLACED":2669,"uxggenpages":2670,"Ġobjects":2671,"ĠContents":2672,"Ġbuildroot":2673,"Ġlanguages":2674,"03":2675,"OG":2676,"Tr":2677,"juce":2678,"sys":2679,"err":2680,"itmap":2681,"INCLUDE":2682,"ĠModule":2683,"ONLY":2684,"spec":2685,"off":2686,"Team":2687,"Edit":2688,"Qt":2689,"Que":2690,"SDK":2691,"nchw":2692,"lease":2693,"lour":2694,"ĠCD":2695,"ENCV":2696,"Ġexpression":2697,"Ġits":2698,"Functions":2699,"ĠRegisterPlugins":2700,"\")":2701,"Const":2702,"Client":2703,"].":2704,"bpa":2705,"ding":2706,"player":2707,"Ġfast":2708,"Ġfinal":2709,"lare":2710,"licate":2711,"master":2712,"ĠACE":2713,"ĠStr":2714,"INV":2715,"DEP":2716,"Unit":2717,"AGE":2718,"ĠMODULE":2719,"first":2720,"target":2721,"ĠONN":2722,"lect":2723,"Ġbreak":2724,"loop":2725,"etcode":2726,"RESOURCE":2727,"aped":2728,"ĠUSB":2729,"ernal":2730,"pybind":2731,"registr":2732,"aaaaaa":2733,"ĠProperty":2734,"Ġcolumns":2735,"Header":2736,"APP":2737,"FG":2738,"With":2739,"fuzz":2740,"hs":2741,"rr":2742,"ded":2743,"Ġcase":2744,"leetcode":2745,"eturn":2746,"isual":2747,"Ġinverse":2748,"unsupported":2749,"ingleton":2750,"Per":2751,"dis":2752,"gl":2753,"desktop":2754,"Ġstandard":2755,"odel":2756,"Ġcoefficient":2757,"EntryPoint":2758,"*>":2759,"Entity":2760,"IV":2761,"TT":2762,"cd":2763,"ok":2764,"ump":2765,"Ġent":2766,"Ġqu":2767,"ates":2768,"Ġsolver":2769,"ĠParam":2770,"ĠRe":2771,"ĠBaaaa":2772,"engine":2773,"arkingD":2774,"Layer":2775,"ĠListNode":2776,"aaaaaaarkingD":2777,"ĠBaaaaaaaaaaarkingD":2778,"ĠBaaaaaaaaaaarkingDog":2779,"22":2780,"GEN":2781,"cro":2782,"gi":2783,"mi":2784,"den":2785,"Ġversion":2786,"ĠCh":2787,"ĠQWidget":2788,"ernel":2789,"element":2790,"ĠWindows":2791,"-<":2792,">,":2793,"FO":2794,"mit":2795,"ced":2796,"lean":2797,"Ġic":2798,"Ġtwo":2799,"Ġfound":2800,"Ġswap":2801,"ĠTele":2802,"Env":2803,"Scroll":2804,"istribution":2805,"ĠDeclare":2806,"ĠMainWindow":2807,"Ġplugins":2808,">);<":2809,"Actor":2810,"Draw":2811,"ake":2812,"fast":2813,"my":2814,"man":2815,"Ġlast":2816,"ines":2817,"ampa":2818,"ite":2819,"ument":2820,"Ġdst":2821,"ĠDense":2822,"ĠmatA":2823,"Ġcoefficients":2824,"rypto":2825,"Ġ\"]^":2826,"TROL":2827,"coeffRef":2828,"segment":2829,"ĠTelegram":2830,"ved":2831,"xx":2832,"stract":2833,"ales":2834,"Ġap":2835,"ateg":2836,"chr":2837,"ĠMY":2838,"ĠFON":2839,"ROOT":2840,"GLOB":2841,"Controller":2842,"ĠRowVector":2843,"HY":2844,"Mod":2845,"Ġfunc":2846,"ĠCon":2847,"Ġline":2848,"ĠOut":2849,"Ġdirect":2850,"windows":2851,"ifier":2852,"PCFG":2853,"BEGIN":2854,"ĠCDPCFG":2855,"Ġicalls":2856,"02":2857,"55":2858,"Dele":2859,"SIM":2860,"VM":2861,"image":2862,"link":2863,"orage":2864,"ich":2865,"stdbool":2866,"Ġsu":2867,"uration":2868,"blem":2869,"ĠVisual":2870,"Ġ/=":2871,"ĠCOUNT":2872,"GLOBAL":2873,"AYER":2874,"Group":2875,"Typ":2876,"US":2877,"]+":2878,"audio":2879,"Ġ.":2880,"Ġ;":2881,"Ġui":2882,"Ġimp":2883,"isc":2884,"INLINE":2885,"ĠEn":2886,"ĠDynamic":2887,"Ġchang":2888,"Stride":2889,"tions":2890,"ĠBlock":2891,"ĠUsed":2892,"CESS":2893,"Max":2894,"bytes":2895,"Global":2896,"Not":2897,"Pri":2898,"Pass":2899,"glib":2900,"swap":2901,"Ġfl":2902,"Ġpy":2903,"ĠCreate":2904,"number":2905,"ĠVectors":2906,"lementation":2907,"////////////////////////////////////////////////////////////////":2908,"SYMB":2909,"TDATA":2910,"problem":2911,"After":2912,"ĠFONTDATA":2913,"18":2914,"ci":2915,"mt":2916,"Ġter":2917,"itle":2918,"atrices":2919,"Ġpos":2920,"Ġ{\"":2921,"0001":2922,"ĠRender":2923,"artial":2924,"Ġproduct":2925,"BaseIterator":2926,"Read":2927,"amples":2928,"interface":2929,"OKED":2930,"Assignment":2931,"Ver":2932,"hp":2933,"lim":2934,"Ġtop":2935,"Ġvfuzz":2936,"Ġsquare":2937,"Ġread":2938,"opr":2939,"RES":2940,"ĠBO":2941,"UTIL":2942,"CONTROL":2943,"plugins":2944,"Result":2945,"ĠRegisters":2946,"registrant":2947,"09":2948,"DATA":2949,"IX":2950,"SparseMatrix":2951,"lan":2952,"word":2953,"lable":2954,"Ġconstexpr":2955,"ilename":2956,"Colour":2957,"ĠDes":2958,"Ġequ":2959,"serial":2960,"ĠVec":2961,"local":2962,"FORM":2963,"INCLUDED":2964,"This":2965,"ven":2966,"wer":2967,"èĢ":2968,"Ġé":2969,"pair":2970,"Ġsol":2971,"Ġpath":2972,"ĠSh":2973,"ther":2974,"acter":2975,"PARSER":2976,"Lock":2977,"mainwindow":2978,"DEPEND":2979,"ĠONNC":2980,")/":2981,"08":2982,"=(":2983,"Server":2984,"hash":2985,"ï¼":2986,"inverse":2987,"()(":2988,"ets":2989,"ĠLink":2990,"topRightCorner":2991,"inylang":2992,"gorithm":2993,"reshaped":2994,"INVOKED":2995,"PR":2996,"sign":2997,"let":2998,"Ġposition":2999,"Ġcos":3000,"Ġinteger":3001,"vert":3002,"ĠMicrosoft":3003,"ĠLog":3004,"Provider":3005,"ullPiv":3006,"WINDOW":3007,"bottomLeftCorner":3008,"READONLY":3009,"Adjoint":3010,"attribute":3011,"elfAdjoint":3012,"SYMBOLS":3013,")(":3014,"DX":3015,"PY":3016,"SU":3017,"da":3018,"wh":3019,"åĩ":3020,"Ġ[]":3021,"//{{":3022,"rol":3023,"Ġcoales":3024,"chip":3025,"ENCI":3026,"velo":3027,"MED":3028,"ĠVectorXi":3029,"qui":3030,"ADD":3031,"DECLARE":3032,"DEPENDENCI":3033,"Ġcoalesced":3034,"DEPENDENCIES":3035,"Block":3036,"Eyer":3037,"Norm":3038,"dle":3039,"fallback":3040,"iel":3041,"rea":3042,"rid":3043,"leep":3044,"INST":3045,"ĠThe":3046,"Ġinitial":3047,"box":3048,"ĠUbpa":3049,"ĠWorld":3050,"iven":3051,"React":3052,"****************<":3053,"SYMED":3054,"Helper":3055,"Ġsubject":3056,"FUNCTION":3057,"declspec":3058,"ĠString":3059,"EST":3060,"ND":3061,"Sec":3062,"SYS":3063,"eometry":3064,"mon":3065,"uino":3066,"Ġ:<":3067,"Ġ\"<":3068,"Ġ11":3069,"ĠPlayer":3070,"Ġlm":3071,"ICON":3072,"CORE":3073,"Ġ1000":3074,"quest":3075,"ĠSYSROOT":3076,"ĠMCAPI":3077,"05":3078,"17":3079,"NE":3080,"Timer":3081,"emplate":3082,"sort":3083,"real":3084,"Ġ*)":3085,"Ġbut":3086,"Ġmay":3087,"elif":3088,"ĠTensor":3089,"ĠRun":3090,"ariant":3091,"graphics":3092,"nection":3093,"Alloc":3094,"ield":3095,"\":":3096,"19":3097,"IS":3098,"RUNT":3099,"SSE":3100,"USE":3101,"files":3102,"flag":3103,"ia":3104,"message":3105,"æł":3106,"Ġlow":3107,"Ħå":3108,"Ġ\",":3109,"ish":3110,"Ġ{}":3111,"Com":3112,"Ġbyte":3113,"Ġ40001":3114,"ĠFor":3115,"ĠLIB":3116,"angle":3117,"\",&":3118,"Ġ1001":3119,"Scene":3120,"Forward":3121,"Ġqr":3122,"Args":3123,"Ġterms":3124,"hpx":3125,"RUNTIME":3126,"CS":3127,"Mouse":3128,"No":3129,"RY":3130,"Vec":3131,"table":3132,"Ġall":3133,"ĠDef":3134,"efore":3135,"ANN":3136,"ACH":3137,"ĠObject":3138,"COMP":3139,"Ġany":3140,"Shader":3141,"chrono":3142,"Print":3143,"Tri":3144,"cs":3145,"ice":3146,"wri":3147,"write":3148,"æĭ":3149,"rection":3150,"Ġmsg":3151,"iterator":3152,"Ġ201":3153,"ĠNext":3154,"DEBUG":3155,"ĠMatrixXi":3156,"Cond":3157,"ĠComp":3158,"GNUC":3159,"Vertical":3160,"Fl":3161,"PT":3162,"PRE":3163,"ks":3164,"two":3165,"Ġflag":3166,"itch":3167,"Ġbase":3168,"hed":3169,"Ġonnc":3170,"ell":3171,"ĠPA":3172,"ĠDi":3173,"ĠReturn":3174,"APACK":3175,"tten":3176,"abled":3177,"ĠĠĠĠĠĠĠĠĠĠĠĠĠĠĠĠĠĠĠĠ":3178,"Ġunordered":3179,"Address":3180,"helper":3181,"Desc":3182,"XXf":3183,"be":3184,"mutex":3185,"render":3186,"¯å":3187,"æŃ":3188,"Ġ::":3189,"Ġload":3190,"reverse":3191,"round":3192,"Ġop":3193,"ĠSprite":3194,"INK":3195,"Ġwrite":3196,"ĠHE":3197,"Ġthrow":3198,"Ġdiag":3199,"angularView":3200,"AY":3201,"Basic":3202,"_.":3203,"cnt":3204,"gtk":3205,"vis":3206,"æī":3207,"orlib":3208,"Ġfiles":3209,"Ġplatform":3210,"ĠST":3211,"Ġdisplay":3212,"istance":3213,"ĠNum":3214,"quent":3215,"scorlib":3216,"ript":3217,"Ġcontain":3218,"ouseholderQ":3219,"rrg":3220,"ategy":3221,"air":3222,"lf":3223,"Ġenum":3224,"order":3225,"alag":3226,"Ġsave":3227,"urface":3228,"Ġos":3229,"Ġ15":3230,"Style":3231,"ACY":3232,"128":3233,"Tests":3234,">():\"":3235,"AVX":3236,"bottomRows":3237,"ĠtriOfA":3238,"leftCols":3239,"ference":3240,"Parser":3241,"LinkDefinition":3242,"replicate":3243,"FlPluginRegistry":3244,"alagard":3245,"Area":3246,"IRE":3247,"NON":3248,"Ui":3249,"pu":3250,"Ġext":3251,"statement":3252,"Ġvariable":3253,"Ġsy":3254,"major":3255,"ERT":3256,"img":3257,"ules":3258,"Exception":3259,"Ġfunctions":3260,"Utils":3261,"version":3262,"Delegate":3263,"\",<":3264,"*,":3265,":(":3266,"Position":3267,"Table":3268,"case":3269,"cstdint":3270,"gle":3271,"iss":3272,"ĉĠĠ":3273,"ĠIMPORT":3274,"ins":3275,"description":3276,"onse":3277,"Ġmscorlib":3278,"Ġnon":3279,"Ġtra":3280,"Ġfc":3281,"Ġsingle":3282,"Ġabs":3283,"ĠTh":3284,"ĠPLS":3285,"Ġlength":3286,"ogonal":3287,"ANG":3288,"ĠVectorXd":3289,"Major":3290,"SIZE":3291,"veloper":3292,"\";":3293,"\"));<":3294,"Serial":3295,"bias":3296,"catch":3297,"sin":3298,"¡æ":3299,"æĺ":3300,"reen":3301,"copy":3302,"algorithm":3303,"Ġassignment":3304,"ĠEYER":3305,"Ġmaximum":3306,"Ġexec":3307,"utility":3308,"ĠInit":3309,"queue":3310,"Ġconfig":3311,"ustom":3312,"Logger":3313,"Renderer":3314,"FUNC":3315,"&)":3316,"(!":3317,"('":3318,"45":3319,"Camera":3320,"DWORD":3321,"LOR":3322,"Open":3323,"RC":3324,"Up":3325,"We":3326,"cir":3327,"fd":3328,"kan":3329,"rup":3330,"»å":3331,"stack":3332,"internal":3333,"Ġmessage":3334,"coder":3335,"Ġsz":3336,"ĠMatrices":3337,"Ġdistribution":3338,"ĠQt":3339,"down":3340,"SHR":3341,"atcher":3342,"STRING":3343,"Settings":3344,"ä¸º":3345,"Ġlogger":3346,"cal":3347,"lit":3348,"{\"":3349,"Ġinc":3350,"ench":3351,"cope":3352,"Ġboost":3353,"ollow":3354,"ĠĠĠĠĠĠĠĠĠĠĠĠĠ":3355,"Char":3356,"Build":3357,"ä½ľ":3358,"Decl":3359,"Factory":3360,"Ġsolve":3361,"ï¼Į":3362,">();<":3363,"And":3364,"Be":3365,"Call":3366,"Callback":3367,"FIL":3368,"New":3369,"ax":3370,"dir":3371,"ç±":3372,"Ġ;<":3373,"Ġam":3374,"Ġuse":3375,"inrt":3376,"Ġservice":3377,"Ġplayer":3378,"Ġ19":3379,"ĠSub":3380,"Ġone":3381,"000":3382,"LEG":3383,"ĠGame":3384,"ĠGCC":3385,"ĠRes":3386,"ternal":3387,"EventArgs":3388,"çļĦæ":3389,"'<":3390,"/****************<":3391,"35":3392,"Auto":3393,"FS":3394,"Is":3395,"Json":3396,"bpp":3397,"fp":3398,"nv":3399,"ones":3400,"termin":3401,"Ġinf":3402,"ĠDriver":3403,"Ġjust":3404,"process":3405,"anner":3406,"Ġprogram":3407,"Token":3408,"MAIN":3409,"Resource":3410,"Ġupdate":3411,"CASE":3412,"Ġdirectory":3413,"30":3414,":\"<":3415,"Abs":3416,"Icon":3417,"Obj":3418,"PO":3419,"Slider":3420,"ait":3421,"check":3422,"eigen":3423,"fix":3424,"gress":3425,"norm":3426,"print":3427,"Ĭł":3428,"ater":3429,"integer":3430,"default":3431,"Ġtyp":3432,"iff":3433,"Ġss":3434,"Ġside":3435,"url":3436,"Ġbefore":3437,"Ġass":3438,"Ġother":3439,"ĠĠĠĠĠĠĠĠĠĠĠĠĠĠ":3440,"Ġwork":3441,"ĠDLL":3442,"ATSHR":3443,"parser":3444,"Ġ102":3445,"Ġpack":3446,"Package":3447,"Ġshort":3448,"Parent":3449,"ĠHEATSHR":3450,"ĠHEATSHRINK":3451,"DU":3452,"HAN":3453,"Imp":3454,"fr":3455,"ostream":3456,"simd":3457,"ºĲ":3458,"éľ":3459,"ŀĭ":3460,"infer":3461,"lua":3462,"Ġcan":3463,"Ġpi":3464,"lick":3465,"ĠClu":3466,"Ġinvertible":3467,"ONG":3468,"Ġlist":3469,"ĠData":3470,"ĠLL":3471,"QUIRE":3472,"color":3473,"Ġcontents":3474,"MainWindow":3475,"BOOL":3476,"Ġcopyright":3477,"artialPlayer":3478,"æłĩ":3479,"74":3480,"As":3481,"All":3482,"FL":3483,"Float":3484,"From":3485,"HouseholderQ":3486,"Min":3487,"Play":3488,"]<":3489,"clude":3490,"ĠINT":3491,"ģ¯":3492,"state":3493,"Ġnorm":3494,"Ġsin":3495,"Ġcom":3496,"MatrixFunctions":3497,"ĠSe":3498,"Ġwidth":3499,"ĠDE":3500,"ĠLicense":3501,"ĠIDI":3502,"GLM":3503,"1213":3504,"Ġåı":3505,"msg":3506,"Channel":3507,"åĮħåĲ«æĸĩä»¶":3508,"ä¿¡æ":3509,"ERROR":3510,"Ġequation":3511,"filesystem":3512,"»åŀĭ":3513,"ä½ľä¸º":3514,"ç±»åŀĭ":3515,"ä¿¡æģ¯":3516,"!!":3517,"Display":3518,"HAS":3519,"Length":3520,"SV":3521,"SelfAdjoint":3522,"URE":3523,"]<<\"":3524,"bit":3525,"client":3526,"{};<":3527,"ªåĮħ":3528,"¬æłĩ":3529,"ĨåĮħåĲ«æĸĩä»¶":3530,"Ġcor":3531,"Ġnext":3532,"Ġsupport":3533,"Ġpop":3534,"Ġmap":3535,"ĠCH":3536,"ilder":3537,"Ġwarning":3538,"Ġhess":3539,"Ġhandle":3540,"ATCH":3541,"ĠUpdate":3542,"ĠMatrixXcf":3543,"ĠĠĠĠĠĠĠĠĠĠĠĠĠĠĠĠĠ":3544,"lyOn":3545,"ä¸į":3546,"workspace":3547,"Diagonal":3548,"ä½ķ":3549,"åĮħåĲ«é¢Ħç¼ĸè¯ĳ":3550,"Ġå°Ĩä½ľä¸º":3551,"Ġå°ĨåĮħåĲ«é¢Ħç¼ĸè¯ĳ":3552,"é¢Ħç¼ĸè¯ĳå¤´":3553,"ĠDenseIndex":3554,"åĩĨåĮħåĲ«æĸĩä»¶":3555,"æĭ¬æłĩ":3556,"rupt":3557,"enchmark":3558,"çļĦæºĲ":3559,"ĠåıªåĮħ":3560,"ç±»åŀĭä¿¡æģ¯":3561,"SelfAdjointEigenSolver":3562,"ĠhessOfA":3563,"lyOnThe":3564,"Ġå°Ĩä½ľä¸ºé¢Ħç¼ĸè¯ĳå¤´":3565,"Ġå°ĨåĮħåĲ«é¢Ħç¼ĸè¯ĳç±»åŀĭä¿¡æģ¯":3566,"åĩĨåĮħåĲ«æĸĩä»¶çļĦæºĲ":3567,"æĭ¬æłĩåĩĨåĮħåĲ«æĸĩä»¶çļĦæºĲ":3568,"ĠåıªåĮħæĭ¬æłĩåĩĨåĮħåĲ«æĸĩä»¶çļĦæºĲ":3569,"ĠåıªåĮħæĭ¬æłĩåĩĨåĮħåĲ«æĸĩä»¶çļĦæºĲæĸĩä»¶":3570,"28":3571,"GB":3572,"MAP":3573,"curr":3574,"nost":3575,"olo":3576,"random":3577,"var":3578,"Ġused":3579,"inf":3580,"Ġcur":3581,"Ġcurrent":3582,"Ġmem":3583,"arm":3584,"enter":3585,"Ġgame":3586,"edProperty":3587,"ĠNo":3588,"Ġbytes":3589,"ĠIP":3590,"ĠIt":3591,"Strategy":3592,"Ġtesting":3593,"PropertyBase":3594,"marker":3595,"ĠDeveloper":3596,"alagardPropertyBase":3597,"æĺ¯å":3598,"(*":3599,"DER":3600,"Mutex":3601,"Native":3602,"Target":3603,"World":3604,"bfloat":3605,"dialog":3606,"eature":3607,"fn":3608,"now":3609,"éĻ":3610,"Ġfollow":3611,"Ġserver":3612,"mpty":3613,"Ġ(*":3614,"ĠEvent":3615,"ĠType":3616,"ĠPrint":3617,"ulkan":3618,"Counter":3619,"ĉĉĉĉ":3620,"ĠIs":3621,"ĠUI":3622,"structor":3623,"Program":3624,"llvm":3625,"LOG":3626,"Ġ1000000":3627,"mock":3628,"Ġminimum":3629,"ĠREQUIRE":3630,"byte":3631,"å¤´æĸĩä»¶":3632,"manip":3633,"æīĢ":3634,"94":3635,"Do":3636,"GUI":3637,"Tool":3638,"pth":3639,"uff":3640,"pare":3641,"Ġvm":3642,"Ġreference":3643,"ility":3644,"option":3645,"ONT":3646,"ĠGoogle":3647,"ANCE":3648,"Ext":3649,"Ġtry":3650,"CLASS":3651,"æŃ¤":3652,"')":3653,"*/":3654,"Binary":3655,"CP":3656,"Gui":3657,"IAL":3658,"Sparse":3659,"az":3660,"cache":3661,"mem":3662,"uid":3663,"Ġæ":3664,"eriv":3665,"ĠTo":3666,"iomanip":3667,"Ġinsert":3668,"RESS":3669,"gemv":3670,"iron":3671,"setup":3672,"ĠRUN":3673,"foo":3674,"ffect":3675,"valid":3676,"Ġelements":3677,"positor":3678,"Animation":3679,"ĠModuleEntryPoint":3680,"éľĢ":3681,"ĠClub":3682,"æŃ¤æĸĩä»¶":3683,"AK":3684,"Create":3685,"Flag":3686,"HAVE":3687,"Nv":3688,"User":3689,"witch":3690,"»ä½ķ":3691,"å¼ķçĶ¨":3692,"Ġstream":3693,"Ġä¸Ń":3694,"Įä¸į":3695,"Ġsbl":3696,"Ġsome":3697,"Ġinto":3698,"ĠAM":3699,"Ġ24":3700,"STD":3701,"bout":3702,"Stack":3703,"BaseElement":3704,"LOC":3705,"Ġhash":3706,"Ġåľ¨":3707,"Ġå¼ķçĶ¨":3708,"Ġunder":3709,"ä»»ä½ķ":3710,"Ġleft":3711,"THREAD":3712,"çļĦéĻ":3713,"ľ¨æŃ¤æĸĩä»¶":3714,"ä¸Ńå¼ķçĶ¨":3715,"Material":3716,"Ġneed":3717,"èĢĮä¸į":3718,"ĦåĬł":3719,"æĺ¯åľ¨æŃ¤æĸĩä»¶":3720,"æīĢéľĢ":3721,"ironment":3722,"Ġå¼ķçĶ¨ä»»ä½ķ":3723,"çļĦéĻĦåĬł":3724,"èĢĮä¸įæĺ¯åľ¨æŃ¤æĸĩä»¶":3725,"æīĢéľĢçļĦéĻĦåĬł":3726,"Ġå¼ķçĶ¨ä»»ä½ķæīĢéľĢçļĦéĻĦåĬł":3727,"èĢĮä¸įæĺ¯åľ¨æŃ¤æĸĩä»¶ä¸Ńå¼ķçĶ¨":3728,"Ġå¼ķçĶ¨ä»»ä½ķæīĢéľĢçļĦéĻĦåĬłå¤´æĸĩä»¶":3729,"\"]":3730,";++":3731,"PI":3732,"Val":3733,"clock":3734,"current":3735,"hide":3736,"ped":3737,"rl":3738,"Ġmx":3739,"alias":3740,"ĠpObject":3741,"true":3742,"__)":3743,"Ġdriver":3744,"Status":3745,"vide":3746,"Scope":3747,"Ġparent":3748,"ĠBOOST":3749,"ĠDevelopers":3750,")->":3751,"Bow":3752,"ILE":3753,"Mon":3754,"MAR":3755,"NUM":3756,"PUT":3757,"Sort":3758,"_);<":3759,"mul":3760,"sz":3761,"wn":3762,"Ġextern":3763,"orch":3764,"rain":3765,"Ġpower":3766,"ĠTr":3767,"imes":3768,"settings":3769,"html":3770,"MOCK":3771,"<<\"*":3772,"unsSco":3773,"allsBow":3774,"ailable":3775,"sole":3776,"ickets":3777,"ĠOpenCV":3778,"HEADER":3779,"PATH":3780,"erived":3781,"pository":3782,"unsScored":3783,"allsBowled":3784,"*>(":3785,"AST":3786,"EIGEN":3787,"Light":3788,"Pos":3789,"Surface":3790,"VO":3791,"non":3792,"not":3793,"udo":3794,"inue":3795,"instance":3796,"req":3797,"orter":3798,"()-":3799,"Ġtable":3800,"Ġsensor":3801,"Ġplease":3802,"INFO":3803,"ĠMA":3804,"Std":3805,"IGH":3806,"address":3807,"LINK":3808,"SIMD":3809,"written":3810,"Building":3811,"terminant":3812,">-":3813,"DDK":3814,"Hash":3815,"JSON":3816,"Lu":3817,"Power":3818,"aw":3819,"func":3820,"gic":3821,"git":3822,"gmock":3823,"slider":3824,"stampa":3825,"atom":3826,"Ġtemplate":3827,"imal":3828,"Ġ25":3829,"vectors":3830,"Ġrender":3831,"ĠArrayXXf":3832,"triangularView":3833,"Generic":3834,"Queue":3835,"Types":3836,"Ġchanges":3837,"RESULT":3838,"ĠNumber":3839,"DDKVer":3840,"bum":3841,"call":3842,"hive":3843,"mult":3844,"yos":3845,"ysc":3846,"Ġra":3847,"Ġmove":3848,"lection":3849,"()).":3850,"Ġident":3851,"ĠAl":3852,"__((":3853,"chive":3854,"007":3855,"STM":3856,"ARY":3857,"ĠFEX":3858,"upo":3859,"mmetric":3860,"Real":3861,"OPENCV":3862,"ĠStatementList":3863,"ĠDesktop":3864,"yosupo":3865,"26":3866,"Rad":3867,"cname":3868,"fullPiv":3869,"method":3870,"sk":3871,"sensor":3872,"ç»":3873,"initial":3874,"rement":3875,"Ġcatch":3876,"Ġmess":3877,"Ġmgb":3878,"Ġnetwork":3879,"coa":3880,"Ġvis":3881,"ined":3882,"Ġsign":3883,"igit":3884,">//!":3885,"Ġ13":3886,"izable":3887,"tele":3888,"ĠLib":3889,"Ġevent":3890,"ansl":3891,"ĠWe":3892,"2020":3893,"topRows":3894,"host":3895,"INGS":3896,"Reader":3897,"rightCols":3898,"----------------------------------------------------------------":3899,"Ġ(\"%":3900,"cstdlib":3901,"culant":3902,"cwiseAbs":3903,"protocol":3904,"INSTANCE":3905,"circulant":3906,"));":3907,"BI":3908,"Down":3909,"Port":3910,"bi":3911,"ear":3912,"ground":3913,"has":3914,"wd":3915,"ĠIL":3916,"ency":3917,"Ġac":3918,"Ġonly":3919,"ĠText":3920,"complex":3921,"ĠProgram":3922,"1000":3923,"update":3924,"kernels":3925,"Attack":3926,"what":3927,"ĠLLVM":3928,"AI":3929,"Back":3930,"ECK":3931,"JOR":3932,"Mgr":3933,"Ro":3934,"Rec":3935,"duino":3936,"ram":3937,"source":3938,"sbl":3939,"}};<":3940,"levk":3941,">//#":3942,"Ġglobal":3943,"opy":3944,"LED":3945,"STANT":3946,"Ġstatement":3947,"Ġ';":3948,"SHARE":3949,"Loop":3950,"MAJOR":3951,"Default":3952,"noalias":3953,"Ġwebpp":3954,"BITS":3955,"Formatting":3956,"Order":3957,"openHorizontalhide":3958,"Ġsymmetric":3959,"nostic":3960,"openHorizontalhideBox":3961,"Catch":3962,"Fuzz":3963,"LANG":3964,"blob":3965,"che":3966,"date":3967,"gn":3968,"mesh":3969,"total":3970,"device":3971,"luding":3972,"Ġ\"(":3973,"self":3974,"item":3975,"height":3976,"mpt":3977,"mac":3978,"ĠPack":3979,"uld":3980,"STAT":3981,"ARD":3982,"ĠLAPACK":3983,"Ġstack":3984,"ĠQW":3985,"SET":3986,"Ġoverwritten":3987,"Ġdetail":3988,"logger":3989,"CONV":3990,"DLL":3991,"Ġbug":3992,"actorial":3993,"txt":3994,"AssignmentList":3995,"Ġdiagnostic":3996,"VOID":3997,"'t":3998,"Temp":3999,"WND":4000,"bg":4001,"bar":4002,"cle":4003,"frame":4004,"ky":4005,"Ġlo":4006,"env":4007,"erase":4008,"orary":4009,"(){":4010,"Ġfold":4011,"Ġaf":4012,"ĠAuthor":4013,"Ġmake":4014,"ĠConst":4015,"IND":4016,"INY":4017,"ĠTR":4018,"ĠPL":4019,"lip":4020,"ardware":4021,"CHECK":4022,"implementation":4023,"Complex":4024,"ĠSettings":4025,"istributed":4026,"MINOR":4027,"Ġwhich":4028,"Headers":4029,"Conditional":4030,"It":4031,"MT":4032,"Net":4033,"Onn":4034,"Operator":4035,"SD":4036,"Sprite":4037,"ZRule":4038,"_,":4039,"bd":4040,"cla":4041,"ie":4042,"uction":4043,"ĉĠ":4044,"ĉĠĠĠĠĠĠ":4045,"stm":4046,"resp":4047,"Ġtorch":4048,"alind":4049,"Ġslo":4050,"Ġinter":4051,"ĠScope":4052,"ĠCol":4053,"ĠMy":4054,"ĠGB":4055,"PLAYER":4056,"/*!<":4057,"(\"\\":4058,"aging":4059,"APH":4060,"Ġprotected":4061,"afe":4062,"ants":4063,"ideo":4064,"Output":4065,"nullptr":4066,"oprs":4067,"Ġtypename":4068,"Onnx":4069,">**":4070,"Act":4071,"FT":4072,"FACE":4073,"Move":4074,"Part":4075,"Push":4076,"button":4077,"elab":4078,"from":4079,"play":4080,"xvk":4081,"Ġ^":4082,"debug":4083,"Ġcpp":4084,"loy":4085,"mport":4086,"ĠSDL":4087,"editor":4088,"ĠPartialPlayer":4089,"teger":4090,"Ġformat":4091,"STEM":4092,"limport":4093,"Expr":4094,"olute":4095,"rome":4096,"Ġshow":4097,"Ġcolor":4098,"ĠEYERLIB":4099,"FILTER":4100,"optional":4101,"NvOnnx":4102,"MARK":4103,"Catchment":4104,"NvOnnxParser":4105,"\"))":4106,"*/<":4107,",-":4108,"Date":4109,"Dis":4110,"KEN":4111,"QObject":4112,"dll":4113,"meg":4114,"roid":4115,"uard":4116,"Ġcv":4117,"anity":4118,"Ġsystem":4119,"Ġbit":4120,"Ġblock":4121,"ĠApp":4122,"ĠSee":4123,"ĠTEST":4124,"constexpr":4125,"IMP":4126,"ĠLO":4127,"METH":4128,"reduce":4129,"Ġkernel":4130,"prime":4131,"Arduino":4132,"INTER":4133,"Ġalter":4134,"Ġadditional":4135,"Container":4136,"ValueList":4137,"TreeNode":4138,"Ġpoints":4139,"Environment":4140,"ĠRunner":4141,"ĠReturns":4142,"ĠIMPORTANT":4143,"gicp":4144,"04":4145,"EQ":4146,"OUT":4147,"Page":4148,"YTE":4149,"hys":4150,"mint":4151,"mut":4152,"ng":4153,"tim":4154,"});<":4155,"Ġè":4156,"Ġmodule":4157,"ctl":4158,"iter":4159,"Ġbind":4160,"Ġbinary":4161,"loader":4162,"Ġcounter":4163,"Inst":4164,"STER":4165,"ird":4166,"asbin":4167,"otify":4168,"DEFIN":4169,"ĠFa":4170,"ITE":4171,"Project":4172,"Progress":4173,"service":4174,"emplace":4175,"ressed":4176,"Loader":4177,"Ġunit":4178,"Builder":4179,"DialogHeaders":4180,"ANDLE":4181,"Linux":4182,"traits":4183,"ĠTensorLayout":4184,"atomic":4185,"BIAS":4186,"ĠPacket":4187,"METHOD":4188,"88":4189,"Geometry":4190,"MAC":4191,"Mac":4192,"UID":4193,"Variable":4194,"Write":4195,"aco":4196,"alph":4197,"Ġsp":4198,"Ġbar":4199,"Ġremove":4200,"entity":4201,"ĠSE":4202,"isf":4203,"ĠEnd":4204,"very":4205,"ĠPri":4206,"ulExpression":4207,"Ġwindow":4208,"Ġli":4209,"precomp":4210,"layout":4211,"Ġdesktop":4212,"berg":4213,"vior":4214,"Archive":4215,"IDGET":4216,"ivExpression":4217,"house":4218,"PARAME":4219,"Ġ10000":4220,"ĠProcess":4221,"Ġparams":4222,"GRAPH":4223,"CODEGEN":4224,"Afx":4225,"havior":4226,"ĠLoss":4227,"mission":4228,"stractExpression":4229,"yscalls":4230,"Ġafter":4231,"alindrome":4232,"loyee":4233,"PARAMETER":4234,"200":4235,"EW":4236,"Equal":4237,"Press":4238,"QR":4239,"Service":4240,"Simple":4241,"Singleton":4242,"Tab":4243,"author":4244,"binary":4245,"})":4246,"utor":4247,"seudo":4248,"anel":4249,"heat":4250,"ĠAR":4251,"REAM":4252,"ĠGtk":4253,"ORY":4254,"ITH":4255,"osio":4256,"ĠHe":4257,"EXTEN":4258,"Ġ\"../../../":4259,"GRAD":4260,"cstddef":4261,"Behavior":4262,"LEGAL":4263,"nvinfer":4264,"telegram":4265,"Holo":4266,"Msg":4267,"PMP":4268,"Schur":4269,"TACH":4270,"Var":4271,"cuda":4272,"gtx":4273,"high":4274,"rand":4275,"tdesktop":4276,"Ġ64":4277,"enberg":4278,"erStride":4279,"icial":4280,"Ġframe":4281,"isUnit":4282,"Ġdis":4283,"ĠNS":4284,"ARGET":4285,"oth":4286,"Start":4287,"Storage":4288,"setRandom":4289,"ĠIf":4290,"Ġdec":4291,"<<\"\\":4292,"ĠOP":4293,"essenberg":4294,"ĠmatB":4295,"CEPT":4296,"Ġhel":4297,"REGISTER":4298,"Ġofficial":4299,"applyOnThe":4300,"generic":4301,"licked":4302,"BuildingHolo":4303,"fullPivLu":4304,"Ġmessaging":4305,"Ġslots":4306,"telegramdesktop":4307,"isUnitary":4308,")+":4309,"*);<":4310,"36":4311,"Func":4312,"LI":4313,"Look":4314,"RARY":4315,"Track":4316,"eks":4317,"pool":4318,"sd":4319,"vailable":4320,"erative":4321,"Ġcuda":4322,"Ġimage":4323,"ano":4324,"stdlib":4325,"Ġpq":4326,"Ġrel":4327,"Ġad":4328,"---<":4329,"ĠSDK":4330,"ĠCheck":4331,"Ġhive":4332,"Ġhave":4333,"ĠGraph":4334,"geeks":4335,"Ġeigen":4336,"ERNAL":4337,"project":4338,"Ġ});<":4339,"RowMajor":4340,"BOOST":4341,"Ġ2020":4342,"seconds":4343,"Template":4344,"Byte":4345,"openHorizontalBox":4346,"IVE":4347,"mitive":4348,"LORA":4349,"HANA":4350,"Ġcorresp":4351,"Ġcorrespond":4352,"27":4353,"Bro":4354,"Current":4355,"Kit":4356,"MAN":4357,"Pop":4358,"model":4359,"over":4360,"va":4361,"Ġup":4362,"Ġfs":4363,"Ġfib":4364,"Ġsimd":4365,"rox":4366,"roy":4367,"usion":4368,"Ġwinrt":4369,"Ġ_(\"":4370,"Ġ42":4371,"===":4372,"ĠRF":4373,"Export":4374,"TOKEN":4375,"[])":4376,"ĠInter":4377,"based":4378,"NODE":4379,"explicit":4380,"ĠAPPLICATION":4381,"Ġllvm":4382,"Ġprev":4383,"diagonalization":4384,"Ġscanf":4385,"expressions":4386,"Combo":4387,"ĠLIBIL":4388,"front":4389,"acobi":4390,"&&":4391,"37":4392,";}<":4393,"BYTE":4394,"Over":4395,"SOR":4396,"Sign":4397,"Syscalls":4398,"action":4399,"callback":4400,"ount":4401,"zil":4402,"Ġ\")":4403,"Ġ\");<":4404,"Ġcp":4405,"Ġcal":4406,"itk":4407,"Ġsqrt":4408,"Ġbutton":4409,"Ġresize":4410,"Ġrequi":4411,">//////////////////////////////////////////////////////////////////":4412,"ĠSP":4413,"ĠPar":4414,"imgui":4415,"Ġ&)":4416,"LEAN":4417,"Ġhigh":4418,"boai":4419,"uintptr":4420,"Ġcharacter":4421,"three":4422,"ĠWork":4423,"DIAL":4424,"ibility":4425,"LEMENT":4426,"ĠProfile":4427,"WINNT":4428,"Shape":4429,"Ġcontinue":4430,"inite":4431,"PROCESS":4432,"TYPES":4433,"COMMON":4434,"hello":4435,"Initialize":4436,"ConstBaseIterator":4437,"lane":4438,"Ġinfrt":4439,"ĠConstBaseIterator":4440,"OperatorType":4441,"zilla":4442,"*(":4443,"95":4444,"At":4445,"Bitmap":4446,"Dim":4447,"MPL":4448,"OM":4449,"PS":4450,"Source":4451,"Sample":4452,"online":4453,"luster":4454,"lem":4455,"Ġtinylang":4456,"Ġtimes":4457,"pad":4458,"mployee":4459,"edi":4460,"chain":4461,"ĠPoint":4462,"Ġinst":4463,"ational":4464,"asn":4465,"Ġarm":4466,"hould":4467,"ĠĠĠĠĠĠĠĠĠĠĠĠĠĠĠĠĠĠĠĠĠĠĠĠĠĠĠĠĠĠĠĠ":4468,"Ġcallback":4469,"Identifier":4470,"TRACY":4471,"Ġtridiagonal":4472,"Ġuser":4473,"Ġrot":4474,"limits":4475,"Importer":4476,"Ġ1000000007":4477,"ĠOPENCV":4478,"!\"":4479,"&);<":4480,"CG":4481,"Form":4482,"HP":4483,"Lower":4484,"Method":4485,"SIG":4486,"VENT":4487,"Win":4488,"YES":4489,"aiz":4490,"brain":4491,"fa":4492,"free":4493,"hal":4494,"hand":4495,"jsp":4496,"symbol":4497,"Ġlabel":4498,"atile":4499,"Ġmodel":4500,"Ġtmp":4501,"Ġresp":4502,"Ġopen":4503,"ĠApow":4504,"ĠSH":4505,"olatile":4506,"ĠCHE":4507,"ĠTree":4508,"ĠTINY":4509,"Ġ>(":4510,"IMENT":4511,"Ġsto":4512,"Ġempty":4513,"ĠHAVE":4514,"Ġdest":4515,"SCAL":4516,"VERSIONED":4517,"LIBRARY":4518,"functional":4519,"Approx":4520,"PERIMENT":4521,"PyAPI":4522,"generator":4523,"Quest":4524,"ScrollBar":4525,"Ġ1900":4526,"megbrain":4527,"onlinejudge":4528,"aizu":4529,"PERIMENTAL":4530,"80":4531,"ASE":4532,"Dup":4533,"Its":4534,"Last":4535,"Man":4536,"PTR":4537,"Range":4538,"Runtime":4539,"VAR":4540,"cm":4541,"eed":4542,"mode":4543,"vv":4544,"vtk":4545,"wstring":4546,"Ġ/**<":4547,"Ġ\"-":4548,"Ġcrypto":4549,"Ġmemory":4550,"riter":4551,"rive":4552,"():\"":4553,"Ġnormal":4554,"Ġsanity":4555,"ection":4556,"uni":4557,"ube":4558,"ĠAV":4559,"ĠSensor":4560,"ished":4561,"oly":4562,"Ġgo":4563,"Ġgem":4564,"INTE":4565,"ĠEE":4566,"ĠPublic":4567,"Ġ{{\"":4568,"adcast":4569,"ĠNET":4570,"EXPERIMENTAL":4571,"ĠsetText":4572,"LOCK":4573,"resource":4574,"Players":4575,"]]++;<":4576,"middle":4577,"]=='":4578,"dllimport":4579,"62":4580,"66":4581,"<>":4582,"DONT":4583,"Feature":4584,"HO":4585,"PACK":4586,"SPE":4587,"Score":4588,"WE":4589,"]>":4590,"aive":4591,"ker":4592,"network":4593,"variable":4594,"world":4595,"Ġfallback":4596,"Ġslow":4597,"Ġpo":4598,"Ġoai":4599,"eline":4600,"ilt":4601,"ENSOR":4602,"sprite":4603,"ARN":4604,"ĠBu":4605,"thon":4606,"upMenu":4607,"olume":4608,"Problem":4609,"acy":4610,"Ġtrmv":4611,"Ġoffset":4612,"MMatch":4613,"PropertyDefinition":4614,"ocus":4615,"Ġappend":4616,"ified":4617,"Ġblurx":4618,"Orth":4619,"DEFINE":4620,"missions":4621,"39":4622,"90":4623,"DB":4624,"Det":4625,"Fast":4626,"GM":4627,"PU":4628,"Sqrt":4629,"Sizable":4630,"auth":4631,"acos":4632,"around":4633,"ana":4634,"any":4635,"Ġsamples":4636,"urs":4637,"Ġpow":4638,"ragment":4639,"ĠMO":4640,"ĠPa":4641,"Ġ23":4642,"ĠFont":4643,"orth":4644,"ĠBinary":4645,"ĠUINT":4646,"compiler":4647,"Ġrd":4648,"Ġrhs":4649,"scrib":4650,"Ġsearch":4651,"Ġexception":4652,"Ġthread":4653,"dius":4654,"TESTS":4655,"comes":4656,"INTERNAL":4657,"export":4658,"Ġalso":4659,"OPEN":4660,"Graphics":4661,"FINAL":4662,"Transform":4663,"elements":4664,"ĠConfig":4665,"ĠEnter":4666,"Radio":4667,"ĠLibrary":4668,"HPX":4669,"\");":4670,"78":4671,"IRT":4672,"License":4673,"Off":4674,"QW":4675,"aut":4676,"driver":4677,"factor":4678,"global":4679,"jo":4680,"wet":4681,"Ġç":4682,"Ġcasbin":4683,"sec":4684,"ings":4685,"stddef":4686,"Ġso":4687,"Ġret":4688,"etad":4689,"transform":4690,"optr":4691,"Ġ-*":4692,"Ġhd":4693,"ĠDWORD":4694,"Ġ30":4695,"ĠLP":4696,"Ġequal":4697,"apon":4698,"ody":4699,"Ġdeterminant":4700,"ListNode":4701,"Ġthin":4702,"ĠCreates":4703,"riptor":4704,"ENTRY":4705,"Ġdoc":4706,"PROTO":4707,"Ġ[\"":4708,"Ġ2022":4709,"Ġreplace":4710,"modint":4711,"Library":4712,"ridge":4713,"PRECOMP":4714,"Description":4715,"StdAfx":4716,"PushButton":4717,"CEPTION":4718,"DIALOG":4719,"autoptr":4720,"\"_":4721,"##":4722,"31":4723,"Cluster":4724,"DP":4725,"EO":4726,"Effect":4727,"FR":4728,"HWND":4729,"LICENSE":4730,"Pair":4731,"Sync":4732,"VE":4733,"Width":4734,"]!=":4735,"cstdio":4736,"fmt":4737,"ponse":4738,"range":4739,"srrg":4740,"uit":4741,"è¤":4742,"rived":4743,"Ġnow":4744,"counter":4745,"Ġvar":4746,"ities":4747,"Ġshould":4748,"hema":4749,"entt":4750,"entation":4751,"Ġobj":4752,"ĠSymbol":4753,"Ġgiven":4754,"ĠCode":4755,"INIT":4756,"verter":4757,"ious":4758,"ĠPosition":4759,"Ġword":4760,"spt":4761,"ĠGlobal":4762,"ARG":4763,"Ġarch":4764,">>&":4765,"ivec":4766,"Change":4767,"Ġlet":4768,"Ġdiagonal":4769,"AGER":4770,"9999":4771,"PivHouseholderQ":4772,"gba":4773,"================================":4774,"ĠComm":4775,"ĠParamList":4776,"ĠOutput":4777,"ĠOuterStride":4778,"iscard":4779,"signals":4780,"Ġabsolute":4781,"Flags":4782,"ĠTINYLANG":4783,"(...":4784,"Access":4785,"Cache":4786,"DC":4787,"Il":4788,"Normal":4789,"TI":4790,"TS":4791,"WARN":4792,"]){<":4793,"db":4794,"filename":4795,"lta":4796,"schur":4797,"ating":4798,"eric":4799,"utable":4800,"Ġces":4801,"alle":4802,"Ġsrrg":4803,"Ġpb":4804,"Ġpm":4805,"ĠpWidget":4806,"lap":4807,"macro":4808,"Ġ14":4809,"ĠAuto":4810,"isZero":4811,"isIdentity":4812,"isOnes":4813,"isDiagonal":4814,"isApprox":4815,"isOrth":4816,"Ġges":4817,"ĠMessage":4818,"Ġwish":4819,"ALLOC":4820,"Ġhc":4821,"asset":4822,"Static":4823,"ĠFILE":4824,"ĠRef":4825,"Ġeiv":4826,"forward":4827,"ĠQDialog":4828,"ĠImage":4829,"throw":4830,"component":4831,"matrixH":4832,"nerStride":4833,"ĠĠĠĠĠĠĠĠĠĠĠĠĠĠĠĠĠĠĠĠĠĠ":4834,"RowVectorXf":4835,"Chain":4836,"KEY":4837,"FORCE":4838,"ĠArrayXf":4839,"Codec":4840,"CppGeneric":4841,"Ġ...\"":4842,"ĠschurOfA":4843,"VIEW":4844,"adjointView":4845,"ĠLoad":4846,"treeWrapper":4847,"ĠPropertyDefinition":4848,"Ġsuper":4849,"SUB":4850,"ANNEL":4851,"Tridiagonalization":4852,"ĠMAX":4853,"IGHT":4854,"selfadjointView":4855,"Projective":4856,"ĠGtkApplication":4857,"EXTENSION":4858,"ĠSDKDDKVer":4859,"ĠWorkaround":4860,"ĠCHECK":4861,"etadata":4862,"isOrthogonal":4863,"Ġeivals":4864,"({":4865,"34":4866,"60":4867,"68":4868,"Ax":4869,"Copy":4870,"Free":4871,"Field":4872,"Mask":4873,"Us":4874,"VIC":4875,"Volume":4876,"]*":4877,"break":4878,"bstract":4879,"ca":4880,"dry":4881,"ips":4882,"samples":4883,"variant":4884,"Ġorth":4885,"inBox":4886,"encode":4887,"requent":4888,"Ġig":4889,"Ġfilename":4890,"dot":4891,"ĠASS":4892,"Ġ(&":4893,"Ġ(__":4894,"argest":4895,"Ġinfo":4896,"ATH":4897,"setw":4898,"ĠUInt":4899,"ITION":4900,"emo":4901,"Exp":4902,"Exec":4903,"EXCEPTION":4904,"ĠVersion":4905,"ession":4906,"FAULT":4907,"Ġsetup":4908,"CHAR":4909,"clang":4910,"ĠInitial":4911,"Script":4912,"Loss":4913,"Load":4914,"imperative":4915,"ixed":4916,"Ġupper":4917,"Ġaddr":4918,"known":4919,"\"<<\"":4920,"Height":4921,"Ġ[[":4922,"InitG":4923,"ĠBaseElement":4924,"Ġzero":4925,"PERF":4926,"paca":4927,"ĠParamValueList":4928,"ĠChunk":4929,"serialize":4930,"ReactPackage":4931,"Ġassert":4932,"Ġworkspace":4933,"Monitor":4934,"ĠASSERT":4935,"';":4936,"Audio":4937,"DO":4938,"Find":4939,"Ima":4940,"Job":4941,"Microsoft":4942,"NG":4943,"Null":4944,"Place":4945,"TFE":4946,"YZ":4947,"cryp":4948,"clear":4949,"dx":4950,"dmat":4951,"epi":4952,"gom":4953,"ium":4954,"jac":4955,"less":4956,"nod":4957,"position":4958,"si":4959,"tc":4960,"invertible":4961,"Ġ=<":4962,"riend":4963,"Ġnaive":4964,"Ġsm":4965,"Ġrepository":4966,"Ġavailable":4967,"heel":4968,"ĠAkhtyamov":4969,"ĠServer":4970,"++;":4971,"cher":4972,"ĠTime":4973,"iome":4974,"Inverse":4975,"extension":4976,"ĠNOT":4977,"VectorXd":4978,"shape":4979,"MEAN":4980,"Struct":4981,"parator":4982,"rowser":4983,"UNK":4984,"Scalar":4985,"ertex":4986,"Shared":4987,"ĠAPI":4988,"EYERAV":4989,"FORMAT":4990,"Ġéį":4991,"ADDRESS":4992,"Allocator":4993,"ĠTranspose":4994,"LinuxSyscalls":4995,"ĠPavel":4996,"Ġorthogonal":4997,"requently":4998,"nodiscard":4999,"')<":5000,">)":5001,"BL":5002,"Cmpt":5003,"Len":5004,"LONG":5005,"Math":5006,"RL":5007,"Su":5008,"Sele":5009,"Work":5010,"[[":5011,"ause":5012,"cce":5013,"dc":5014,"fwd":5015,"hi":5016,"lp":5017,"slow":5018,"¥å":5019,"attern":5020,"search":5021,"Ġview":5022,"Ġfa":5023,"Ġfun":5024,"hest":5025,"header":5026,"Ġcomb":5027,"example":5028,"ĠCON":5029,"ĠMove":5030,"Ġlp":5031,"ontgom":5032,"gemm":5033,"ĠName":5034,"ĠLabel":5035,"ĠLOG":5036,"Ġargs":5037,"conf":5038,"ROW":5039,"scalar":5040,"Screen":5041,"Local":5042,"Show":5043,"Ġorig":5044,"Ġlibrary":5045,"Direction":5046,"Options":5047,"VIDE":5048,"ĠDecl":5049,"Ġparse":5050,"Processor":5051,"oogleTest":5052,"Second":5053,"CallExpression":5054,"------------------------------------------------------------------------":5055,"Ġstored":5056,"InitGoogleTest":5057,"ontgomery":5058,".\\":5059,"264":5060,"65":5061,"AA":5062,"BIND":5063,"CX":5064,"First":5065,"Found":5066,"Given":5067,"HANDLE":5068,"KCPP":5069,"Pre":5070,"PLE":5071,"RA":5072,"Variant":5073,"sse":5074,"squ":5075,"tl":5076,"tag":5077,"win":5078,"åº":5079,"ĉĠĠĠĠ":5080,"ĉĠĠĠĠĠĠĠĠĠĠĠ":5081,"Ġutils":5082,"Ġloop":5083,"inished":5084,"onn":5085,"remove":5086,"Ġ\"/":5087,"utdown":5088,"():":5089,"pause":5090,"rai":5091,"Ġsa":5092,"hex":5093,"igits":5094,"Ġmacro":5095,"ĠPAR":5096,"ulation":5097,"ullet":5098,"Ġwchar":5099,"ĠGLE":5100,"PLS":5101,"PLAT":5102,"ason":5103,"DEFAULT":5104,"ĠFiles":5105,"ĠUtil":5106,"ĠWrite":5107,"ĠHY":5108,"Ġdevice":5109,"Enabled":5110,"quence":5111,"Ġselect":5112,"ĠInclude":5113,"aken":5114,"pointer":5115,"Control":5116,"Ġidx":5117,"Separator":5118,"ModelImporter":5119,"Generator":5120,"PATCH":5121,"weak":5122,"UTILS":5123,"Ġcomment":5124,"ĠminimumSize":5125,"anslation":5126,"Root":5127,"GRAPHIC":5128,"23":5129,"29":5130,"48":5131,"About":5132,"CM":5133,"DY":5134,"Dir":5135,"LAB":5136,"Network":5137,"TIME":5138,"Url":5139,"ba":5140,"cpy":5141,"ead":5142,"fun":5143,"mes":5144,"pl":5145,"derived":5146,"Ġ\"\";<":5147,"uts":5148,"Ġcurr":5149,"Ġmouse":5150,"esky":5151,"select":5152,"idx":5153,"heet":5154,"--)":5155,"etter":5156,"ighest":5157,"ental":5158,"ĠSource":5159,"ĠSimple":5160,"olesky":5161,"ĠClient":5162,"ĠMenu":5163,"ĠMax":5164,"constants":5165,"ĠDraw":5166,"<<(":5167,"pres":5168,"getchar":5169,"MESS":5170,"BUFF":5171,"Encoder":5172,"Ġ50":5173,"Ġanswer":5174,"resent":5175,"COND":5176,"obs":5177,"Request":5178,"ETH":5179,"Ġalias":5180,"Ġprime":5181,"SYSTEM":5182,"TRA":5183,"Ġscalar":5184,"substr":5185,"LineEdit":5186,"ä¿ĥ":5187,"ĠShow":5188,"Ġlower":5189,"ForwardImpl":5190,"ĠThread":5191,"Broadcast":5192,"Ġresponse":5193,"SCALLS":5194,",&":5195,"Body":5196,"Cal":5197,"CRY":5198,"DS":5199,"FalagardPropertyBase":5200,"Gx":5201,"ODE":5202,"Title":5203,"TARGET":5204,"bf":5205,"camera":5206,"cmath":5207,"display":5208,"diff":5209,"eam":5210,"hana":5211,"names":5212,"vulkan":5213,"warning":5214,"||":5215,"},<":5216,"Ġlocal":5217,"onac":5218,"utf":5219,"esaw":5220,"()){<":5221,"icle":5222,"user":5223,"uments":5224,"ĠApplication":5225,"ĠSingleton":5226,"Ġ//////////////////////////////////////////////////////////////////":5227,"ypedProperty":5228,"////<":5229,"ĠTypedProperty":5230,"Ġdynamic":5231,"ENU":5232,"Ġwant":5233,"ops":5234,"gest":5235,"ĠDerived":5236,"ĠFalagardPropertyBase":5237,"perf":5238,"shlib":5239,"Ġrange":5240,"ĠKey":5241,"Ġyy":5242,"party":5243,"ensity":5244,"prod":5245,"Ġdefines":5246,"Ġbuf":5247,"Ġclone":5248,"NOW":5249,"Ġlevel":5250,"MenuItem":5251,"Resize":5252,")<<\"":5253,"PropertyLinkDefinition":5254,"Ġdoes":5255,"AppConfig":5256,"Editor":5257,"submissions":5258,"Ġmiddle":5259,"Initializer":5260,"ĠPropertyLinkDefinition":5261,"IVATE":5262,"Ġentt":5263,"ĠRead":5264,"TypedProperty":5265,"WINDOWS":5266,"Ġ[](":5267,"ReactNative":5268,"ĠComponent":5269,"SHARED":5270,"macros":5271,"ĠLOSS":5272,"reduced":5273,"PopupMenu":5274,"ĠTreeNode":5275,"INTEGR":5276,"PACKET":5277,"WEAK":5278,"ĠCommand":5279,"PLATFORM":5280,"DYN":5281,"onacci":5282,"&,":5283,"79":5284,"Bool":5285,"CR":5286,"CUD":5287,"Im":5288,"LIM":5289,"LAYER":5290,"OSCALLS":5291,"PTO":5292,"SUC":5293,"Section":5294,"WD":5295,"]-":5296,"]++;<":5297,"ares":5298,"cstring":5299,"filter":5300,"ian":5301,"lt":5302,"nan":5303,"nable":5304,"power":5305,"swer":5306,"ura":5307,"width":5308,"ony":5309,"atern":5310,"rela":5311,"ority":5312,"Ġmode":5313,"rit":5314,"coding":5315,"itive":5316,"raft":5317,"Ġsymbol":5318,"Ġag":5319,"Ġact":5320,"lad":5321,"las":5322,"struction":5323,"Ġcommand":5324,"INLIN":5325,"edia":5326,"Integer":5327,"istory":5328,"ĠUString":5329,"Exit":5330,"anged":5331,"Ġrand":5332,"property":5333,"ĠOp":5334,"ĠValue":5335,"End":5336,"essages":5337,"CODER":5338,"oolean":5339,"Ġmaxi":5340,"Ġcompil":5341,"LOADER":5342,"CONSTANT":5343,"ENABLED":5344,"ancel":5345,"TestMain":5346,"ĠProject":5347,"Ġprintre":5348,"ĠRegisterTests":5349,"Ġgeneral":5350,"Ġgenerator":5351,"Ġvalid":5352,"Direct":5353,"Ġenabled":5354,"Quant":5355,"Query":5356,"Ġchanged":5357,"statements":5358,"ĠDEBUG":5359,"ChannelRule":5360,"Valid":5361,"STATUS":5362,"IMPLEMENT":5363,"itkTestMain":5364,"ĠSPDX":5365,"Ġrotate":5366,"Ġ-*-":5367,"BUFFER":5368,"aternion":5369,"relacy":5370,"INLINED":5371,"');<":5372,"42":5373,">/*<":5374,"Doc":5375,"Guard":5376,"If":5377,"QP":5378,"QDialog":5379,"TEXT":5380,"Tip":5381,"Tick":5382,"Taken":5383,"bc":5384,"crypto":5385,"lcname":5386,"native":5387,"pb":5388,"sim":5389,"uch":5390,"vg":5391,"};":5392,"§ı":5393,"èģ":5394,"Ġ----------------":5395,"des":5396,"dest":5397,"eries":5398,"Ġcontext":5399,"Ġcamera":5400,"Ġme":5401,"Ġtag":5402,"pass":5403,"Ġva":5404,"Ġfd":5405,"Ġsample":5406,"Ġback":5407,"eters":5408,"ĠSp":5409,"++++":5410,"elta":5411,"Ġworld":5412,"ALSE":5413,"bound":5414,"Ġjac":5415,"ĠFU":5416,"ĠLe":5417,"ĠIdent":5418,"ignore":5419,"SETT":5420,"unsGiven":5421,"Ġbecomes":5422,"schema":5423,"Widgets":5424,"regex":5425,"Ġtranspose":5426,"CHANNEL":5427,"ĠĠĠĠĠĠĠĠĠĠĠĠĠĠĠĠĠĠ":5428,"rigger":5429,"Decomposition":5430,"AML":5431,"ays":5432,"Ġdomain":5433,"allsPlay":5434,"Ġorder":5435,"ASSERT":5436,"UCNAME":5437,"params":5438,"apien":5439,"Desktop":5440,"ĠAngle":5441,"Ġquisp":5442,"Modules":5443,"Ġpybind":5444,"ĠStringTo":5445,"renderer":5446,"Character":5447,"icketsTaken":5448,"ĠColor":5449,"Ġrelative":5450,">//////////////////////////////////////////////////////////////////////<":5451,"iltin":5452,"Offset":5453,"Ġ//////////////////////////////////////////////////////////////////<":5454,"allsPlayed":5455,"\").":5456,"$<":5457,",\"":5458,"Ass":5459,"Cam":5460,"IF":5461,"Jacobi":5462,"MR":5463,"Mult":5464,"Platform":5465,"Rot":5466,"Sys":5467,"Tag":5468,"Video":5469,"cat":5470,"ging":5471,"net":5472,"pc":5473,"rn":5474,"rin":5475,"task":5476,"vations":5477,"wx":5478,"yy":5479,"status":5480,"enc":5481,"Ġms":5482,"Ġmenu":5483,"ctx":5484,"Ġtree":5485,"Ġfmt":5486,"Ġsigned":5487,"Ġrev":5488,"ĠApac":5489,"ĠEntity":5490,"ĠTFE":5491,"ĠMMatch":5492,"ios":5493,"Ġdl":5494,"Ġdim":5495,"ircle":5496,"andies":5497,"Ġstampa":5498,"ansfer":5499,"phome":5500,"PECT":5501,"build":5502,"tocol":5503,"Delay":5504,"Only":5505,"Cholesky":5506,"TestFunction":5507,"ĠStart":5508,"Unique":5509,"Ġconstructor":5510,"ispatcher":5511,"Ġcontent":5512,"minCoeff":5513,"Help":5514,"Ġaddress":5515,"Ġshape":5516,"ModuleEntryPoint":5517,"GameType":5518,"CODEC":5519,"Optim":5520,"reshold":5521,"texture":5522,"PRIVATE":5523,"DXSDK":5524,"Ġ[]);<":5525,"OpenGL":5526,"setupUi":5527,"PortClient":5528,"ARGS":5529,"VIDEO":5530,"CUDA":5531,"ĠStringToTestFunction":5532,"ĠApache":5533,"ĠStringToTestFunctionMap":5534,"\"(":5535,"'\\":5536,"06":5537,"72":5538,"82":5539,">[[":5540,"BACK":5541,"BallsBowled":5542,"CD":5543,"CRE":5544,"Dll":5545,"Driver":5546,"Hook":5547,"Kind":5548,"RunsScored":5549,"Support":5550,"TA":5551,"UCT":5552,"UInt":5553,"_(\"":5554,"benchmark":5555,"cassert":5556,"fit":5557,"hack":5558,"hardware":5559,"ivate":5560,"lg":5561,"ql":5562,"sw":5563,"ug":5564,"uri":5565,"vd":5566,"æķ":5567,"stat":5568,"rex":5569,"arz":5570,"rites":5571,"Ġitem":5572,"column":5573,"Ġtensor":5574,"alk":5575,"idden":5576,"Ġfree":5577,"Ġax":5578,"ĠAssignment":5579,"ĠColu":5580,"ĠTri":5581,"ĠMAT":5582,"ĠPR":5583,"uler":5584,"spotify":5585,"Internal":5586,"ists":5587,"()<<":5588,"ĠGener":5589,"ĠNV":5590,"IMAGE":5591,"ĠRandom":5592,"Ġeval":5593,"ĠQObject":5594,"ĠIO":5595,"ĠBetter":5596,"Eigenvalues":5597,"ĠgetName":5598,"colPivHouseholderQ":5599,"elease":5600,"ListWidget":5601,"AMIC":5602,"ĠInnerStride":5603,"Lost":5604,"ĠStride":5605,"255":5606,"MenuSeparator":5607,"Intensity":5608,"nored":5609,"Ġrepo":5610,"chwarz":5611,"curs":5612,"Ġlinear":5613,"ĠLogger":5614,"Weapon":5615,"BinaryStream":5616,"icketsLost":5617,"gnore":5618,"ConditionalWrapper":5619,"INTERFACE":5620,"MANAGER":5621,"ĠsqrtA":5622,"Foundation":5623,"SUCCESS":5624,"Document":5625,"ĠColumn":5626,"colPivHouseholderQr":5627,",:":5628,"38":5629,"Api":5630,"CU":5631,"Cell":5632,"Enum":5633,"Fi":5634,"Focus":5635,"Hessenberg":5636,"Io":5637,"Namespace":5638,"POS":5639,"Two":5640,"Wt":5641,"WIDGET":5642,"^(-":5643,"cluding":5644,"fstream":5645,"ied":5646,"ne":5647,"sing":5648,"tp":5649,"ture":5650,"timer":5651,"tinylang":5652,"zied":5653,"rees":5654,"reater":5655,"Ġcmd":5656,"Ġml":5657,"Ġmo":5658,"Ġiss":5659,"command":5660,"coped":5661,"rash":5662,"Ġpseudo":5663,">}}<":5664,"exu":5665,"umb":5666,"ĠSY":5667,"chall":5668,"ĠTra":5669,"illi":5670,"ĠPPP":5671,"Ġdistance":5672,"Ġinstance":5673,"team":5674,"Intern":5675,"Ġ&);<":5676,"Ġ-=":5677,"Comb":5678,"asure":5679,"asDiagonal":5680,"Ġbyrn":5681,"ĠFullPiv":5682,"ialFunctions":5683,"ĠIo":5684,"Eigenvectors":5685,"APE":5686,"Ġrank":5687,"omial":5688,"ĠWin":5689,"Ġgetline":5690,"ĠHAL":5691,"\",\"":5692,"matB":5693,"Ġdescription":5694,"backend":5695,"Listener":5696,"TECT":5697,"Arr":5698,"matrixU":5699,"ivity":5700,"OLD":5701,"One":5702,"ArrayXf":5703,">())":5704,"precated":5705,"smata":5706,"OPT":5707,"Paths":5708,"SpecialFunctions":5709,"PROG":5710,"Parameter":5711,"Search":5712,"ĠluOfA":5713,"Ġenv":5714,"RowVectorXd":5715,"etrics":5716,"ĠFunctionList":5717,"Vertex":5718,"****************************************************************":5719,"Runnable":5720,"QtCore":5721,"ĠDenseBase":5722,"ĠcosA":5723,"ĠDiagonal":5724,"isson":5725,"Ġtracy":5726,"eigenvectors":5727,"ĠsinA":5728,"SVD":5729,"ĠNote":5730,"LINKING":5731,"ComplexSchur":5732,"Ġunitary":5733,"MACOS":5734,"householderQ":5735,"applyOnTheLeft":5736,"Ġeigenvector":5737,"Overlay":5738,"ĠthinQ":5739,"Axisf":5740,"Ġignored":5741,"Ġaliasing":5742,"DYNAMIC":5743,"Ġgeneralzied":5744,"ĠAngleAxisf":5745,"ĠBetterQuant":5746,",:)":5747,"HessenbergDecomposition":5748,"ĠPPPtr":5749,"Ġbyrnexu":5750,")*":5751,")[":5752,"){":5753,"40":5754,">$":5755,"Card":5756,"Cmd":5757,"Derived":5758,"EVENT":5759,"FULL":5760,"Lex":5761,"MUL":5762,"Ori":5763,"QL":5764,"RI":5765,"SX":5766,"UME":5767,"UTO":5768,"VA":5769,"XML":5770,"XYZ":5771,"ZTask":5772,"ZBehavior":5773,"ais":5774,"aded":5775,"df":5776,"go":5777,"ki":5778,"ling":5779,"pol":5780,"valu":5781,"Ġqueue":5782,"stop":5783,"style":5784,"reset":5785,"aring":5786,"aration":5787,"()>":5788,"(),<":5789,"ctest":5790,"icro":5791,"Ġ*,":5792,"Ġsb":5793,"Ġspace":5794,"Ġsupported":5795,"Ġsprite":5796,"Ġboolean":5797,"Ġremo":5798,"Ġinternal":5799,">//------------------------------------------------------------------------":5800,"ĠAN":5801,"ĠAudio":5802,"INetwork":5803,"ĠTemp":5804,"Ġwt":5805,"sprites":5806,"Ġ&_":5807,"Cocoa":5808,"REE":5809,"RECT":5810,"Ġhand":5811,"prev":5812,"ases":5813,"ĠFind":5814,"Ġstorage":5815,"Ġeven":5816,"Ġeosio":5817,"ogger":5818,"short":5819,"arduino":5820,"COL":5821,"COUNT":5822,"ĠmaxIndex":5823,"Ġcompile":5824,"Ġcomponent":5825,"Ġinputs":5826,"Console":5827,"ANTI":5828,"gery":5829,"Scanner":5830,"Ġpad":5831,"Registr":5832,"********************":5833,"TextFormatting":5834,"Ġleg":5835,"ĠREAD":5836,"Ġtypedef":5837,"URL":5838,"Content":5839,"Ġspecific":5840,"interrupt":5841,"lexport":5842,"ĠIDS":5843,"Visible":5844,"ParamList":5845,"GETLINE":5846,"(_,":5847,"blurx":5848,"ĠEXIT":5849,"ColourU":5850,"Descriptor":5851,"quential":5852,"NONE":5853,"fixed":5854,"ĠCHud":5855,"ç»°":5856,"alpha":5857,"Ġhelper":5858,"Ġcorresponding":5859,"Signature":5860,"ĠBuffer":5861,"scribed":5862,"QWDialogHeaders":5863,"LIMIT":5864,"INetworkDefinition":5865,".\";<":5866,"46":5867,"87":5868,"BASE":5869,"Close":5870,"FD":5871,"Generated":5872,"Gpu":5873,"Tiny":5874,"meta":5875,"ni":5876,"nPress":5877,"xso":5878,"{,":5879,"è¾":5880,"éĬ":5881,"Ġutil":5882,"ors":5883,"Ġmore":5884,"Ġmethod":5885,"Ġfill":5886,"Ġbig":5887,"Ġaction":5888,"ected":5889,"rod":5890,"maph":5891,"ĠAction":5892,"ĠSIM":5893,"isrex":5894,"Ġgcd":5895,"ĠCE":5896,"cket":5897,"chine":5898,"ĠMulExpression":5899,"ĠPer":5900,"Ġ26":5901,"ĠDialog":5902,"ĠDivExpression":5903,"ĠNO":5904,"=='":5905,"ĠForm":5906,"PPORT":5907,"Ġrt":5908,"Ġdebug":5909,"StringRef":5910,"Ġproblem":5911,"phere":5912,"ADI":5913,"123":5914,"Ġexit":5915,"dexcept":5916,"Ġdefinition":5917,"anti":5918,"effect":5919,"ipeline":5920,"OLIB":5921,"addr":5922,"peed":5923,"Classifier":5924,"{{{,":5925,"ĠYAML":5926,"NTT":5927,"Ġwhen":5928,"ĠAddExpression":5929,"ĠAddress":5930,"Split":5931,"SpinBox":5932,"Ġimplement":5933,"MouseEvent":5934,"ĠSubstractExpression":5935,"PowerOf":5936,"ĠNumberExpression":5937,"Ġfoldmarker":5938,"Ġfoldmethod":5939,"ReactPackageProvider":5940,"CRYPTO":5941,"INTEGRAL":5942,"ĠIdentExpression":5943,"Ġmoisrex":5944,"maphore":5945,"\"};<":5946,")>":5947,")),":5948,".\"<":5949,"69":5950,"Ag":5951,"Clock":5952,"DM":5953,"Dist":5954,"Fa":5955,"GLE":5956,"Mem":5957,"NET":5958,"Ob":5959,"TERN":5960,"TAG":5961,"Uint":5962,"UINT":5963,"Yes":5964,"\\\\":5965,"]<<":5966,"cor":5967,"cord":5968,"fre":5969,"handler":5970,"menu":5971,"nb":5972,"rhs":5973,"ses":5974,"sleep":5975,"}}}<":5976,"ĩĪ":5977,"stdexcept":5978,"ret":5979,"amb":5980,"amx":5981,"Ġmg":5982,"Ġicon":5983,"anch":5984,"ingClassifier":5985,"iform":5986,"Ġvolatile":5987,"pped":5988,"Ġfreq":5989,"rad":5990,"Ġsl":5991,"ĠpAction":5992,"ĠAnd":5993,"ĠClear":5994,"elcom":5995,"ĠTO":5996,"ĠTips":5997,"ĠMemory":5998,"imest":5999,"Ġdraw":6000,"ulator":6001,"Ġhighest":6002,"adget":6003,"Ġchannel":6004,"preter":6005,"asse":6006,"ĠFOR":6007,"Ġstat":6008,"ĠROW":6009,"Ġelab":6010,"ĠQLabel":6011,"shal":6012,"ĠKernel":6013,"estroy":6014,"connect":6015,"Ġdelta":6016,"EDIT":6017,"BUTT":6018,"ĠVertex":6019,"COLOR":6020,"Ġprova":6021,"Ġarrays":6022,"enges":6023,"diag":6024,"STRUCT":6025,"Depth":6026,"Ġcalling":6027,"Connection":6028,"ĠInput":6029,"OLVER":6030,"Loc":6031,"DLIB":6032,"Changed":6033,"Ġcond":6034,"aries":6035,"FileSystem":6036,"ixel":6037,"ECTOR":6038,"Ġprices":6039,"ASIC":6040,"Ġexponent":6041,"append":6042,"ATEG":6043,"Scoped":6044,"Sequential":6045,"EYERLIB":6046,"ĠEyerAV":6047,"packed":6048,"FEAT":6049,"ĠEXPORT":6050,"Ġpositive":6051,"Ġinitialize":6052,"Ġlmgl":6053,"NEW":6054,"visible":6055,"Ġextract":6056,"Ġincluding":6057,"Ġamount":6058,"POINT":6059,"742":6060,"<<\"*\"<<\"":6061,"Ġinterface":6062,"Ġcppgit":6063,"ĠPrismata":6064,"ĠRFK":6065,"Ġprevious":6066,"ĠInitialize":6067,"NOWN":6068,"ResizeEvent":6069,"ChannelRuleMgr":6070,"èģª":6071,"Optimization":6072,"Lexer":6073,"elcome":6074,"ĠROWS":6075,"BUTTON":6076,"!!<":6077,"=%":6078,"='":6079,">());<":6080,"Bit":6081,"BEN":6082,"BASIC":6083,"Flex":6084,"MENT":6085,"NABLE":6086,"OLED":6087,"Ph":6088,"Pin":6089,"Pool":6090,"Palindrome":6091,"Side":6092,"WT":6093,"[];<":6094,"dr":6095,"digit":6096,"mar":6097,"pm":6098,"pq":6099,"platform":6100,"supported":6101,"vt":6102,"winrt":6103,"åĪ":6104,"æ³":6105,"Ġ()":6106,"Ġul":6107,"Ġlock":6108,"reason":6109,"orig":6110,"Ġ\"[\"":6111,"ris":6112,"Ġim":6113,"Ġswitch":6114,"Ġrequest":6115,"los":6116,"loud":6117,"entry":6118,"ĠCal":6119,"ĠMust":6120,"imated":6121,"imental":6122,"Ġdfs":6123,"Ġwas":6124,"options":6125,"Column":6126,"ĠDate":6127,"ĠDll":6128,"ĠNot":6129,"(\"/":6130,"ĠLu":6131,"Ġele":6132,"ĠIR":6133,"ĠUT":6134,"perimental":6135,"ĠHUD":6136,"imedes":6137,"ĠOB":6138,"EXTERN":6139,"mng":6140,"Unary":6141,"10000":6142,"Ġqt":6143,"','":6144,"RTTI":6145,"OTG":6146,"ĠIDD":6147,"oftware":6148,"parameter":6149,"rics":6150,"ĠUni":6151,"pacity":6152,"errno":6153,"errank":6154,"Person":6155,"disable":6156,"ScrollArea":6157,"èĢģ":6158,"signal":6159,"INSTANTI":6160,"Ġplayers":6161,"9402":6162,"azy":6163,"ĠTRUE":6164,"iterations":6165,"ĠHeader":6166,"other":6167,"EXTENSIONS":6168,"Usage":6169,"VICE":6170,"hackerrank":6171,"Ioctl":6172,"challenges":6173,">//-------------------------------------------------------------------------<":6174,"58":6175,"89":6176,"Bullet":6177,"Factor":6178,"GER":6179,"Ignore":6180,"LAPACK":6181,"Mark":6182,"MACH":6183,"UB":6184,"UGM":6185,"Virtual":6186,"Writer":6187,"]];<":6188,"]>=":6189,"_->":6190,"aarch":6191,"fib":6192,"gray":6193,"group":6194,"hen":6195,"hook":6196,"iu":6197,"ox":6198,"olean":6199,"pt":6200,"rank":6201,"sl":6202,"tmp":6203,"åĢ":6204,"åħ":6205,"æĩĪ":6206,"Ġ`":6207,"Ġlayer":6208,"ĩèĢģ":6209,"enable":6210,"atal":6211,"lue":6212,"utes":6213,"Ġclear":6214,"arn":6215,"()+":6216,"()->":6217,"aligned":6218,"alpaca":6219,"Ġ*(":6220,"Ġsk":6221,"Ġref":6222,"ective":6223,"mask":6224,"Ġodd":6225,"experimental":6226,"izing":6227,"ĠSu":6228,"ĠSTR":6229,"ĠCC":6230,"ĠENTT":6231,"ĠTH":6232,"ĠTitle":6233,"Ġlmng":6234,"LEV":6235,"Ġhost":6236,"boolean":6237,"Ġjo":6238,"ATTACH":6239,"ecause":6240,"async":6241,"android":6242,"Ġ40":6243,"ĠFAST":6244,"ĠLAN":6245,"ĠQT":6246,"ĠBy":6247,"uest":6248,"ITER":6249,"Ġargument":6250,"ĠHouse":6251,"ĠHash":6252,"numeric":6253,"Ġdecl":6254,"ListBox":6255,"query":6256,"Ġsettings":6257,"Ġcompiler":6258,"ivis":6259,"Ġthan":6260,"Bound":6261,"ĠExternal":6262,"testing":6263,"Death":6264,"ampler":6265,"Ġpass":6266,"ĠProblem":6267,"elemetry":6268,"pendent":6269,"Defines":6270,"akura":6271,"Ġalloc":6272,"PointXYZ":6273,"points":6274,">/*!":6275,"SERVER":6276,"SERIAL":6277,"WORK":6278,"ASSUME":6279,"ĠQStringList":6280,"é¢ĩèĢģ":6281,"UIKit":6282,"Linked":6283,"modules":6284,"PATTERN":6285,"Ġperf":6286,"container":6287,"ĠAnimation":6288,"ĠUSBCON":6289,"dense":6290,"DrawContext":6291,"NONNULL":6292,"copyright":6293,"uffix":6294,"ĠFEXCore":6295,"Ġstatements":6296,"(){}<":6297,"ComboButton":6298,"WARNINGS":6299,"heelEvent":6300,"CXX":6301,"Ġcompilation":6302,"Rotation":6303,"encil":6304,"25519":6305,"illiseconds":6306,"ADIOLIB":6307,"èģªä¿ĥ":6308,"FlexLexer":6309,")%":6310,"/.":6311,"/=":6312,"63":6313,"75":6314,">\"":6315,"AF":6316,"Bridge":6317,"Browser":6318,"DJSON":6319,"FC":6320,"GT":6321,"GFX":6322,"HRESULT":6323,"Iter":6324,"IATE":6325,"MC":6326,"MS":6327,"NI":6328,"OFF":6329,"Panel":6330,"QMouseEvent":6331,"Rate":6332,"SK":6333,"Tur":6334,"ah":6335,"aver":6336,"bitmap":6337,"cent":6338,"clicked":6339,"ire":6340,"ls":6341,"malloc":6342,"oai":6343,"pose":6344,"su":6345,"same":6346,"tf":6347,"æİ":6348,"çª":6349,"Ġ--------------------------------":6350,"erature":6351,"Ġcre":6352,"amed":6353,"Ġnv":6354,"ctime":6355,"section":6356,"ingly":6357,"Ġfact":6358,"Ġ*);<":6359,"Ġsimple":6360,"Ġpe":6361,"Ġputs":6362,"Ġbenchmark":6363,"rop":6364,"uba":6365,"ubl":6366,"mail":6367,"Ġold":6368,"Ġisinf":6369,"Ġisnan":6370,"++<":6371,"INO":6372,"channel":6373,"ĠMB":6374,"ĠMo":6375,"ĠPC":6376,"Ġ200":6377,"------":6378,"Ġdigit":6379,"ulses":6380,"Ġinl":6381,"Ġinorder":6382,"Ġlcname":6383,"ĠNon":6384,"DETACH":6385,"ĠFill":6386,"ĠLay":6387,"forgeeks":6388,"ĠItem":6389,"peration":6390,"structure":6391,"thizer":6392,"third":6393,"Ġke":6394,"Ġdemon":6395,"libgba":6396,"COPY":6397,"GLCore":6398,"Ġseed":6399,"ives":6400,"Ġthen":6401,"logue":6402,"Conf":6403,"lower":6404,"Ġleast":6405,"Setting":6406,"ĠZRule":6407,"Ġsubdiag":6408,"aredNorm":6409,"Ġtriangle":6410,"Interrupt":6411,"Params":6412,"Ġscale":6413,"VIS":6414,"ocket":6415,"ĠINSTANT":6416,"ĠWINAPI":6417,"culate":6418,"ĠScanner":6419,"offset":6420,"Ġimplementation":6421,"Ġmaybe":6422,"flags":6423,"ĠDefault":6424,"Ġ2019":6425,"DUINO":6426,"Extension":6427,"Ġidentity":6428,"ProgressBar":6429,"geeksforgeeks":6430,"Ġrequires":6431,"ĠSensorID":6432,"Ġgoes":6433,"ĠLPVOID":6434,"EOF":6435,"FRAME":6436,"lapsed":6437,"cceed":6438,"squaredNorm":6439,"ritical":6440,"CONSTANTS":6441,"SETTINGS":6442,"Ġissue":6443,"RIVER":6444,"INSTANTIATION":6445,"ĠINSTANTIATE":6446,")).":6447,"8742":6448,"Case":6449,"DivExpression":6450,"Elem":6451,"Employee":6452,"Fin":6453,"Files":6454,"GAME":6455,"LEN":6456,"MulExpression":6457,"MENU":6458,"Non":6459,"PHY":6460,"RUN":6461,"Tone":6462,"Wait":6463,"Xml":6464,"au":6465,"bt":6466,"craft":6467,"gos":6468,"light":6469,"lision":6470,"ming":6471,"safe":6472,"tle":6473,"uv":6474,"viz":6475,"deque":6476,"rel":6477,"Ġ<<\"":6478,"Ġ\"[":6479,"utator":6480,"Ġmint":6481,"Ġmock":6482,"seq":6483,"comm":6484,"Ġtot":6485,"Ġtrack":6486,"album":6487,"Ġfr":6488,"Ġpatch":6489,"Ġplace":6490,"Ġpattern":6491,"Ġbecause":6492,"unit":6493,"uncher":6494,"Ġcost":6495,"licy":6496,"mai":6497,"ĠAd":6498,"ĠSL":6499,"ĠSerial":6500,"Ġgl":6501,"Ġgraph":6502,"ĠCOL":6503,"ĠTop":6504,"ĠPtr":6505,"Ġdxvk":6506,"Ġinner":6507,"geometry":6508,"ĠDP":6509,"ATIVE":6510,"PLAY":6511,"ortion":6512,"Ġevery":6513,"liboai":6514,"ĠBiome":6515,"ĠUSE":6516,"itsuba":6517,"Ġ';<":6518,"shr":6519,"estore":6520,"Ġdescribed":6521,"Proc":6522,"serv":6523,"ains":6524,"scene":6525,"ĠmaxPro":6526,"CHMARK":6527,"Once":6528,"arest":6529,"FunctionList":6530,"ĠStream":6531,"mozilla":6532,"WIFI":6533,"SetKey":6534,"IdentExpression":6535,"ASK":6536,"AddExpression":6537,"ErrorCode":6538,"PROJECT":6539,"CodeGraph":6540,"]={":6541,"functions":6542,"Ġparameter":6543,"NumberExpression":6544,"ĠOpenAI":6545,"EYERPLAYER":6546,"SubstractExpression":6547,"attle":6548,"Attribut":6549,"packages":6550,"Ġlinking":6551,"Ġperson":6552,"Ġpython":6553,"cian":6554,"FUNCTIONS":6555,"ĠDefinition":6556,"Extent":6557,"*/,":6558,"initialize":6559,"Backend":6560,"ĠQWDialogHeaders":6561,"Active":6562,"mutation":6563,"Ġliboai":6564,"LIST":6565,"Ġarchimedes":6566,"ĠUtility":6567,"Ġ-------------------<":6568,"CamSensor":6569,"MACOSX":6570,"ĠREADME":6571,"ambda":6572,"ĠMozilla":6573,"Ġdemonware":6574,"&]":6575,"500":6576,";\"":6577,"Author":6578,"DREAM":6579,"Drive":6580,"Dispatcher":6581,"HEL":6582,"MI":6583,"Mar":6584,"POP":6585,"SW":6586,"Sm":6587,"TY":6588,"TIM":6589,"bb":6590,"dw":6591,"dlog":6592,"eh":6593,"even":6594,"iver":6595,"manager":6596,"misc":6597,"mitsuba":6598,"pract":6599,"ren":6600,"sy":6601,"title":6602,"zero":6603,"åı":6604,"éĤ":6605,"Ġ><":6606,"Ġeffect":6607,"įŀ":6608,"Ġ\":\"":6609,"Ġcustom":6610,"Ġmd":6611,"aron":6612,"arations":6613,"Ġtex":6614,"Ġtony":6615,"Ġvi":6616,"Ġfriend":6617,"rap":6618,"Ġsakura":6619,"Ġpin":6620,"Ġpch":6621,"Ġrecurs":6622,"ross":6623,"uno":6624,"licates":6625,"izes":6626,"**<":6627,"ĠSRC":6628,"Ġgroup":6629,"ĠCATCH":6630,"verify":6631,"ĠTCP":6632,"Ġdistributed":6633,"STAB":6634,"ĠDisplay":6635,"ARPMP":6636,"andbox":6637,"DEX":6638,"Stage":6639,"ĠFoo":6640,"ĠFast":6641,"ĠFrame":6642,"Ġxy":6643,"ĠButton":6644,"ANH":6645,"ITensor":6646,"lush":6647,"emove":6648,"Ġ',":6649,"odium":6650,"complete":6651,"ULONG":6652,"SEC":6653,"CTRL":6654,"QUEST":6655,"connection":6656,"IONS":6657,"ROM":6658,"ĠVar":6659,"COUN":6660,"account":6661,"CEGUI":6662,"Nodes":6663,"Ġcompat":6664,"Events":6665,"CLI":6666,"AMPLE":6667,"ToString":6668,"OfCamera":6669,"location":6670,"maxi":6671,"Ġtests":6672,"GetInstance":6673,"Ġconv":6674,"Ġconvert":6675,"Response":6676,"Buttons":6677,"ĠZTask":6678,"apping":6679,"efficient":6680,"CPPRTTI":6681,"events":6682,"yaml":6683,"]]<":6684,"Keyboard":6685,"Checked":6686,"242":6687,"ĠDevice":6688,"ĠINCLUDE":6689,"alect":6690,"ĠWidgets":6691,"Linear":6692,"Ġenable":6693,"pacing":6694,"ONNX":6695,"Quaternion":6696,"boardId":6697,"QStringList":6698,"Traits":6699,"players":6700,"Ġentity":6701,"linked":6702,"Maximum":6703,"Prime":6704,"PYBIND":6705,"EyerPlayer":6706,"Ġlmeditor":6707,"Ġ2013":6708,"Ġpackage":6709,"Asset":6710,"HEADERS":6711,"Ġradius":6712,"Ġvisit":6713,"chetype":6714,"Temporary":6715,"ĠTESTS":6716,"===//<":6717,"Ġ1900242":6718,"Ġgemm":6719,"OPENAI":6720,"Select":6721,"IgnoreScroll":6722,"practice":6723,"'){<":6724,"59":6725,">):":6726,"ASH":6727,"CY":6728,"Cvt":6729,"Dot":6730,"Distance":6731,"Delta":6732,"EC":6733,"Even":6734,"Face":6735,"FALSE":6736,"Gl":6737,"Meta":6738,"MATCH":6739,"PASS":6740,"QT":6741,"Return":6742,"RAY":6743,"Sk":6744,"Seg":6745,"Sda":6746,"Sleep":6747,"SENSOR":6748,"Session":6749,"TX":6750,"UMP":6751,"UMB":6752,"Wnd":6753,"Zip":6754,"bat":6755,"bed":6756,"cg":6757,"dst":6758,"eosio":6759,"freq":6760,"hd":6761,"here":6762,"just":6763,"pH":6764,"raries":6765,"signed":6766,"tExpression":6767,"ude":6768,"ä¹":6769,"ç®":6770,"èĥ":6771,"Ġendif":6772,"Ġefficient":6773,"decode":6774,"ences":6775,"Ġmi":6776,"Ġmon":6777,"Ġmust":6778,"arp":6779,"()==":6780,"icOperatorType":6781,"Ġfactorial":6782,"Ġ*>":6783,"Ġsend":6784,"ĠpSizable":6785,"Ġreal":6786,"hell":6787,"heme":6788,"ummy":6789,"ĠSO":6790,"ĠSX":6791,"ĠCK":6792,"ĠMod":6793,"ĠMouse":6794,"ĠMesh":6795,"ĠMutex":6796,"ĠMGB":6797,"Ġdll":6798,"oper":6799,"Ġform":6800,"spdlog":6801,"REAL":6802,"RELU":6803,"Ġhw":6804,"derr":6805,"ĠGU":6806,"ĠNew":6807,"ART":6808,"DED":6809,"DEF":6810,"Stra":6811,"ĠFs":6812,"ILogger":6813,"ĠLock":6814,"ĠULONG":6815,"ITS":6816,"osite":6817,"sha":6818,"ĠHEL":6819,"MOID":6820,"Ġden":6821,"Ġdepth":6822,"ĠView":6823,"[]);<":6824,"ffine":6825,"TEMPL":6826,"pha":6827,"DIR":6828,"builtin":6829,"ĠXOR":6830,"LOAD":6831,"ables":6832,"UTF":6833,"Viewport":6834,"OBS":6835,"Compiler":6836,"Ġalgos":6837,"lineptr":6838,"SYN":6839,"ĠZBehavior":6840,"dimension":6841,"GameState":6842,"CppString":6843,"EXPORTS":6844,"ĠMaterial":6845,"ĠDebug":6846,"MessageWindow":6847,"Ġchecked":6848,"versal":6849,"CAST":6850,"Ġnecess":6851,"TRODREAM":6852,"SDKDDKVer":6853,"Constant":6854,"cross":6855,"ĠMYGETLINE":6856,"GlobalMap":6857,"Primitive":6858,"ĠDesc":6859,"SerialPortClient":6860,"TokenKind":6861,"Ġrenderer":6862,"Ġvisible":6863,"ĠTexture":6864,"SHAREDLIB":6865,"ieve":6866,"Macaron":6867,"heatshr":6868,"Ġdisable":6869,"ĠGraphics":6870,"ĠAVUTIL":6871,"Ġgemv":6872,"PROTOCOL":6873,"(...)":6874,"Copyable":6875,"Ġorigin":6876,"ĠPARTE":6877,"ladder":6878,"æķ°":6879,"ĠMATLAB":6880,"éĬĪ":6881,"ĠSIMDJSON":6882,"Ġexponential":6883,"ATEGY":6884,"LEVEL":6885,"Ġ-----------------------------------<":6886,"SetKeyEnv":6887,"ĠTCPOPT":6888,"heatshrink":6889,"\"][":6890,"\"].":6891,"-(":6892,"43":6893,"56":6894,"73":6895,"96":6896,"98":6897,"<>(":6898,"BR":6899,"Bin":6900,"Bits":6901,"Can":6902,"GU":6903,"IZE":6904,"KERN":6905,"Kernel":6906,"MORY":6907,"Red":6908,"Round":6909,"Release":6910,"TABLE":6911,"WITH":6912,"ZT":6913,"]<=":6914,"ainter":6915,"custom":6916,"dic":6917,"fps":6918,"mute":6919,"nx":6920,"pseudo":6921,"switch":6922,"tup":6923,"uvec":6924,"äº":6925,"desc":6926,"determinant":6927,"ongest":6928,"erved":6929,"release":6930,"Ġca":6931,"Ġcc":6932,"::_":6933,"legate":6934,"seed":6935,"cost":6936,"ane":6937,"Ġtrigger":6938,"Ġvd":6939,"Ġfi":6940,"Ġfn":6941,"Ġfragment":6942,"Ġsapien":6943,"Ġspacing":6944,"Ġpresent":6945,"Ġreset":6946,"Ġaccess":6947,"unused":6948,"doctest":6949,"ERSION":6950,"Ġmachine":6951,"INPUT":6952,"ely":6953,"chor":6954,"ĠTimer":6955,"ĠTemplate":6956,"ĠMono":6957,"ĠPlatform":6958,"Ġwait":6959,"Ġ{'":6960,"Ġinvalid":6961,"REEN":6962,"extra":6963,"STREAM":6964,"bot":6965,"ĠNT":6966,"ATOR":6967,"DEL":6968,"==(":6969,"ĉĉĉĉĉ":6970,"ĠBoost":6971,"ANGE":6972,"ĠUser":6973,"ultip":6974,"cppgit":6975,"anges":6976,"Ġker":6977,"CTL":6978,"construct":6979,"boolalpha":6980,"Ġoverwrite":6981,"ĠVERSION":6982,"Ġresizing":6983,"scale":6984,"DIAN":6985,"Ġmatmul":6986,"SCR":6987,"Ġseg":6988,"ĠsetIcon":6989,"Ġexample":6990,"anted":6991,"arry":6992,"abc":6993,"STRATEGY":6994,"ĠExp":6995,"Depen":6996,"ĠInteger":6997,"Ġ};":6998,"SLAM":6999,"ETA":7000,"DLER":7001,"OfM":7002,"OfV":7003,"cpu":7004,"Ġitk":7005,"ĠMEMORY":7006,"ĠCore":7007,"Comparing":7008,"Pointer":7009,"MMY":7010,"Ġllt":7011,"AGES":7012,"Addr":7013,"cessed":7014,"ĠSCP":7015,"Idx":7016,"Ġadding":7017,"Ġspecified":7018,"ELD":7019,"ĠIDT":7020,"aved":7021,"Ġ...);<":7022,"Option":7023,"Ġlua":7024,"NSString":7025,"ULTI":7026,"dllexport":7027,"ĠCommon":7028,"QtWidgets":7029,"SDKVer":7030,"Ġquery":7031,"NotEqual":7032,"which":7033,"quired":7034,"ields":7035,"Ġcontains":7036,"Ġincrement":7037,"HANDLER":7038,"FLAG":7039,"nonatomic":7040,"Ġ256":7041,"multip":7042,"Background":7043,"lipboard":7044,"Ġlike":7045,"Ġinstead":7046,"LastError":7047,"HOOK":7048,"allel":7049,"crypt":7050,"UNKNOWN":7051,"headers":7052,"Ġselected":7053,"Ġextracted":7054,"Ġelevations":7055,"ĠByte":7056,"Ġnvinfer":7057,"pHake":7058,"Ġnecessary":7059,"Macaronlib":7060,"&>;<":7061,"51":7062,"BRO":7063,"CNT":7064,"Clicked":7065,"DD":7066,"Destroy":7067,"ESP":7068,"Fusion":7069,"FWD":7070,"Gen":7071,"Hud":7072,"Host":7073,"Jump":7074,"Jedi":7075,"LT":7076,"Let":7077,"QResizeEvent":7078,"RF":7079,"Rel":7080,"TV":7081,"Top":7082,"TON":7083,"TVec":7084,"Timest":7085,"USB":7086,"Vulkan":7087,"br":7088,"basic":7089,"cer":7090,"cmp":7091,"draw":7092,"distribution":7093,"finished":7094,"ii":7095,"iCG":7096,"iFi":7097,"ju":7098,"place":7099,"ral":7100,"rate":7101,"ruit":7102,"sa":7103,"ssed":7104,"sample":7105,"tot":7106,"tract":7107,"yr":7108,"ĠIM":7109,"Ġraw":7110,"ĠERROR":7111,"ıã":7112,"dev":7113,"erTest":7114,"rev":7115,"Ġ\"--":7116,"Ġ\"));<":7117,"utol":7118,"Ġcache":7119,"Ġmf":7120,"ritten":7121,"definite":7122,"anim":7123,"Ġtask":7124,"alized":7125,"icha":7126,"radius":7127,"Ġsim":7128,"ĠpParent":7129,"ĠpDC":7130,"Ġpencil":7131,"Ġbitmap":7132,"Ġasm":7133,"look":7134,"strong":7135,">///<":7136,"Ġown":7137,"Ġmajor":7138,"ĠSelfAdjoint":7139,"ĠCwise":7140,"INDEX":7141,"yph":7142,"ĠENUM":7143,"ĠEmployee":7144,"__,":7145,"cho":7146,"ĠTear":7147,"ĠMine":7148,"ĠMAKE":7149,"ĠPS":7150,"ĠPath":7151,"...<":7152,"Ġdist":7153,"InPlace":7154,"Ġlargest":7155,"Comm":7156,"Coeffici":7157,"STOM":7158,"bour":7159,"ĠDxso":7160,"ORB":7161,"Stop":7162,"setState":7163,"ĠLazy":7164,"Ġstride":7165,"Ġeig":7166,"ĠQMainWindow":7167,"ĠQiu":7168,"ĠUsing":7169,"ĠEigenSolver":7170,"ĠWhen":7171,"ĠHandle":7172,"ĠHessenberg":7173,"CTBridge":7174,"ptrdiff":7175,"matA":7176,"ithms":7177,"ALID":7178,"uteTh":7179,"reflect":7180,"prices":7181,"tab":7182,"Ġ!!!":7183,"ffff":7184,"Enable":7185,"quency":7186,"quares":7187,"matrixQ":7188,"Ġuintptr":7189,"ĠmaxNorm":7190,"ĠmaxOfV":7191,"aryExpr":7192,"afruit":7193,"computeInverse":7194,"ĠExec":7195,"rtw":7196,"ready":7197,"ĠIncluding":7198,"ArrayXXf":7199,"Ġpassed":7200,"Child":7201,"Chunk":7202,"Ġuni":7203,"Ġunique":7204,"codec":7205,"Defs":7206,"ĠCoder":7207,"NOT":7208,"Ġconserv":7209,"ĠminOfM":7210,"ldlt":7211,"CKET":7212,"StatementList":7213,"Ġexpected":7214,"ĠapplyOnThe":7215,"ĠcopyUpper":7216,"mlir":7217,"ĠSetUp":7218,"holderCoeffici":7219,"alsa":7220,"ĠOpenGL":7221,"PivLU":7222,"ighbour":7223,"Ġ--\"":7224,"ĠUnaligned":7225,"Ġwhose":7226,"operatorNorm":7227,"operatorSqrt":7228,"ĠcomputeU":7229,"ĠcomputeEigenvectors":7230,"gorithms":7231,"Generalized":7232,"SubtreeWrapper":7233,"Ġneighbour":7234,"RowVectorXi":7235,"repo":7236,"angularPart":7237,"coeffs":7238,"UDim":7239,"Ġrocm":7240,"ĠEXPECT":7241,"bination":7242,"cwiseEqual":7243,"cwiseNotEqual":7244,"ĠCombination":7245,"WithCheck":7246,"Ġ\"]^[\"":7247,"ĠRowVectorXi":7248,"ModInt":7249,"artialPivLU":7250,"ReadOnly":7251,"lantern":7252,"SUPPORT":7253,"EyerCore":7254,"TriangularPart":7255,"Condition":7256,"ĠDirect":7257,"issing":7258,"Ġtrailer":7259,"ĠplayerID":7260,"ĠSubtreeWrapper":7261,"LEGACY":7262,"Ġpacked":7263,"ĠDataMatrix":7264,"FLANN":7265,"HouseholderQR":7266,"ĠPrintStatement":7267,"Doing":7268,"RealSchur":7269,"Ġsignal":7270,"ĠWeicha":7271,"ComplexEigenSolver":7272,"ĠScopeAssignmentList":7273,"hysics":7274,"ĠFade":7275,"alphas":7276,"householderCoeffici":7277,"applyOnTheRight":7278,"Ġcorresponds":7279,"SIGMOID":7280,"VARI":7281,"middleRows":7282,"middleCols":7283,"SPECI":7284,"Ġpoisson":7285,"ĠMOCK":7286,"joined":7287,"Ġéįıã":7288,"lpNorm":7289,"GRAPHICS":7290,"MESSAGE":7291,"Broadcasting":7292,"simde":7293,"JacobiRotation":7294,"ĠTriangularView":7295,"Ġlinearly":7296,"ĠFullPivLU":7297,"ĠWinSDKVer":7298,"ĠTemporary":7299,"packedMatrix":7300,"ĠDllMain":7301,"UnaryView":7302,"Ġjoined":7303,"ĠHouseholder":7304,"Ġmocka":7305,"ĠTopic":7306,"ĠVarDecl":7307,"Segment":7308,"ç®Ĺ":7309,"dimensional":7310,"iCGSTAB":7311,"jugate":7312,"utolink":7313,"ĠSelfAdjointView":7314,"ĠCwiseUnaryView":7315,"ĠTearDown":7316,"uteThin":7317,"Ġconservative":7318,"ĠcopyUpperTriangularPart":7319,"ĠWeichao":7320,"householderCoefficients":7321,"\"},":7322,"*<":7323,"85":7324,"={":7325,">_":7326,"Async":7327,"CF":7328,"CRT":7329,"Critical":7330,"Foo":7331,"Fov":7332,"Gla":7333,"GIC":7334,"Hint":7335,"Hex":7336,"Holder":7337,"Mol":7338,"Mov":7339,"Montgomery":7340,"Pe":7341,"PAN":7342,"Ste":7343,"Sphere":7344,"TW":7345,"Tex":7346,"_)<":7347,"bvec":7348,"dvec":7349,"eps":7350,"fl":7351,"full":7352,"fact":7353,"folder":7354,"fusion":7355,"gs":7356,"gt":7357,"ius":7358,"nas":7359,"ntt":7360,"pcl":7361,"panel":7362,"rins":7363,"track":7364,"upper":7365,"è°":7366,"Ġ./":7367,"Ġurl":7368,"ination":7369,"denc":7370,"delim":7371,"stb":7372,"rete":7373,"ince":7374,"uter":7375,"Ġcs":7376,"ese":7377,"arithm":7378,"defs":7379,"Ġip":7380,"animation":7381,"Ġtimer":7382,"Ġver":7383,"Ġfilter":7384,"Ġfrequently":7385,"Ġreader":7386,"ssl":7387,"Ġacc":7388,"lot":7389,"Ġcommon":7390,"Ġobs":7391,"Ġ17":7392,"ĠSys":7393,"ĠSave":7394,"ĠisPowerOf":7395,"ĠCond":7396,"els":7397,"ĠESP":7398,"ĠMock":7399,"oph":7400,"ALE":7401,"split":7402,"Inf":7403,"ĠGPL":7404,"ĠDistributed":7405,"egacy":7406,"Ġchain":7407,"Ġchange":7408,"ĠNull":7409,"pret":7410,"DETECT":7411,"ĠRec":7412,"ĠRADIOLIB":7413,"Ġemit":7414,"ĠQColor":7415,"lice":7416,"ĠfilePath":7417,"perti":7418,"ools":7419,"Ġkee":7420,"2021":7421,"Product":7422,"fomap":7423,"backward":7424,"refix":7425,"ICK":7426,"Ġ!_":7427,"ADT":7428,"PEG":7429,"DIV":7430,"NodeData":7431,"FAILURE":7432,"diator":7433,"hoge":7434,"EXTR":7435,"ĠIndex":7436,"Ġpair":7437,"codeche":7438,"ĠStack":7439,"Composite":7440,"ariables":7441,"ĠGLCore":7442,"Reserved":7443,"Ġ90":7444,"Ġpriority":7445,"Addon":7446,"TRY":7447,"Ids":7448,"interpret":7449,"IntPtr":7450,"FFFF":7451,"Heap":7452,"Ġlibraries":7453,"Ġ**)<":7454,"ĠCORE":7455,"IPv":7456,"Utility":7457,"ĠYour":7458,"ĠYou":7459,"ĠEyerPlayer":7460,"etail":7461,"ä¿Ĭ":7462,"allocate":7463,"Ġ123":7464,"control":7465,"*)(":7466,"Registerer":7467,"DOWN":7468,"targetver":7469,"Modification":7470,"ĠBOOL":7471,"monitor":7472,"ĠPlayerID":7473,"Ġ\",\"":7474,"ĠFormat":7475,"visibility":7476,"ĠResource":7477,"Ġinfrequently":7478,"DUMMY":7479,"ĠSeeta":7480,"currency":7481,"Double":7482,"ĠMAIN":7483,"anslate":7484,"ĠLLVMFuzz":7485,"Record":7486,"devices":7487,"Ġdetails":7488,"MARKER":7489,"OUTPUT":7490,"mintrin":7491,"TabFrame":7492,"Tracker":7493,"RadioItem":7494,"allest":7495,"Images":7496,"Ġsmall":7497,"Success":7498,"Multi":7499,"CUSTOM":7500,"ĠCHudElem":7501,"correct":7502,"shala":7503,"Ġcondition":7504,"éĤª":7505,"CLIENT":7506,"Ġ190024210":7507,"StraFact":7508,"tuple":7509,"ĠMinecraft":7510,"Gladiator":7511,"MontgomeryModInt":7512,"dencies":7513,"ĠGPLv":7514,"perties":7515,"codechef":7516,"\"}};<":7517,"235":7518,"8000":7519,">\\":7520,"Abstract":7521,"Big":7522,"Begin":7523,"Brain":7524,"CString":7525,"Dark":7526,"Duration":7527,"Detail":7528,"Err":7529,"FEX":7530,"LC":7531,"Li":7532,"MING":7533,"Mach":7534,"Messages":7535,"OY":7536,"Po":7537,"Sim":7538,"SORT":7539,"Socket":7540,"Use":7541,"Ubpa":7542,"VID":7543,"VECTOR":7544,"Word":7545,"ZMatch":7546,"[(":7547,"\\\":":7548,"bine":7549,"cr":7550,"car":7551,"dup":7552,"fill":7553,"flow":7554,"js":7555,"montgomery":7556,"ron":7557,"rsqrt":7558,"salsa":7559,"volatile":7560,"welcome":7561,"xml":7562,"Ġ$":7563,"Ġec":7564,"Ġros":7565,"ĳå":7566,"ĸª":7567,"Ļ¨":7568,"ining":7569,"delete":7570,"lug":7571,"requency":7572,"Ġmer":7573,"Ġmetadata":7574,"Ġmutator":7575,"()*":7576,"()/":7577,"ication":7578,"stdout":7579,"Ġfixed":7580,"itect":7581,"rade":7582,"Ġpcl":7583,"Ġpost":7584,"Ġbd":7585,"Ġoperation":7586,"usbg":7587,"Ġ18":7588,"ĠActor":7589,"ERE":7590,"Ġmac":7591,"ĠSign":7592,"ĠisPalindrome":7593,"ĠCan":7594,"Ġonnx":7595,"INE":7596,"ello":7597,"ĠElement":7598,"trt":7599,"trans":7600,"chs":7601,"tery":7602,"ĠPol":7603,"Ġ21":7604,"ulate":7605,"Ġws":7606,"Include":7607,"Ġlim":7608,"LEE":7609,"LECT":7610,"ĠGeometry":7611,"ĠDX":7612,"ĠDis":7613,"ĠDxvk":7614,"press":7615,"Standard":7616,"Ġstyle":7617,"Ġstuff":7618,"getline":7619,"ĠQPushButton":7620,"ĠBiCGSTAB":7621,"ĠUN":7622,"APT":7623,"ĠWt":7624,"ĠgetMove":7625,"ĠgetNvOnnxParser":7626,"Proxy":7627,"four":7628,"ICAL":7629,"ĠVK":7630,"ĠVideo":7631,"tach":7632,"Ġresource":7633,"Arc":7634,"UND":7635,"Ġ1024":7636,"Ġtransform":7637,"ĠsetChecked":7638,"Ġcomplex":7639,"Decompiler":7640,"Ġ\\\"":7641,"Ġå®":7642,"Ġarea":7643,"Viewer":7644,"ColMajor":7645,"TextEdit":7646,"Ġesphome":7647,"Unreal":7648,"Ġconnection":7649,"FilePath":7650,"Reset":7651,"4435":7652,"ĠcreateNvOnnxParser":7653,"Ġsubdiagonal":7654,"executor":7655,"SObj":7656,"Ġshared":7657,"FFECT":7658,"ĠImGui":7659,"Ġ[&]":7660,"Angle":7661,"CppIntPtr":7662,"IPT":7663,"Ġscene":7664,"CheckItem":7665,"ĠinitProgram":7666,"ĠContainer":7667,"Ġlunas":7668,"ĠEyerString":7669,"Debugger":7670,"package":7671,"convolution":7672,"ĠAnswer":7673,"TTP":7674,"ĠMYSHAREDLIB":7675,"ĠConnection":7676,"Ġsucceed":7677,"iscrete":7678,"Private":7679,"ĠSTAT":7680,"ĠResponse":7681,"JsonObject":7682,"Ġassign":7683,"eatures":7684,"StatusBar":7685,"initializer":7686,"Ġaccomp":7687,"Ġ^=":7688,"PressEvent":7689,"pooling":7690,"Ġfibonacci":7691,"Signal":7692,"SIGN":7693,"(...)<":7694,"Imagery":7695,"Ġfail":7696,"Ġagain":7697,"Directory":7698,"ĠLevel":7699,"MRML":7700,"824435":7701,"Internshala":7702,"OneInput":7703,"PROGRESS":7704,"Failed":7705,"Observer":7706,"ĠAndroid":7707,"BENCHMARK":7708,"Ġimg":7709,"BrowserWindow":7710,"ublish":7711,"Attributes":7712,"Ġ',',":7713,"Ġcompatibility":7714,"ĠTemplateVisitor":7715,"erTestOneInput":7716,"ĠLazyMontgomeryModInt":7717,"rtwtypes":7718,"SPECIAL":7719,"rinsic":7720,"ĠLLVMFuzzerTestOneInput":7721,"itecture":7722,"ĠgetNvOnnxParserVersion":7723,"Ġlunasvg":7724,"8244353":7725,")));<":7726,"47":7727,"70":7728,">/**":7729,"BST":7730,"BSD":7731,"BLOCK":7732,"CAN":7733,"CALL":7734,"Euler":7735,"Fix":7736,"FUSE":7737,"Hw":7738,"HOST":7739,"Jo":7740,"Kern":7741,"Media":7742,"None":7743,"PD":7744,"PAGE":7745,"PartialPlayer":7746,"Pulses":7747,"QPushButton":7748,"RON":7749,"Rcpp":7750,"RAM":7751,"Save":7752,"SUM":7753,"TC":7754,"Telemetry":7755,"TANH":7756,"WAPI":7757,"XOR":7758,"cap":7759,"card":7760,"cerr":7761,"eph":7762,"gly":7763,"gtc":7764,"kg":7765,"ku":7766,"syn":7767,"sizes":7768,"tutor":7769,"vgui":7770,"wner":7771,"èĬ":7772,"Ġpp":7773,"Ġla":7774,"Ġdown":7775,"ĥ¥å":7776,"dec":7777,"detect":7778,"depth":7779,"delegate":7780,"stderr":7781,"onder":7782,"ats":7783,"ora":7784,"uting":7785,"Ġcancel":7786,"amal":7787,"Ġmesh":7788,"Ġmalloc":7789,"Ġmatrices":7790,"Ġiter":7791,"Ġng":7792,"Ġneg":7793,"cover":7794,"stdarg":7795,"Ġfps":7796,"Ġfix":7797,"inear":7798,"Ġplus":7799,"lash":7800,"loor":7801,"Ġob":7802,"Ġok":7803,"ĠAS":7804,"Ġggui":7805,"Ġgeometry":7806,"Ġguit":7807,"Ġthem":7808,"trl":7809,"strings":7810,"ĠTeam":7811,"ĠMG":7812,"ĠMS":7813,"ioctl":7814,"ĠPre":7815,"immintrin":7816,"Ġ255":7817,"Ġdw":7818,"Ġind":7819,"ONE":7820,"spective":7821,"Coder":7822,"ĠhModule":7823,"Ġchild":7824,"ĠNetwork":7825,"ĠNDEBUG":7826,"asis":7827,"ĠFS":7828,"ĠLin":7829,"Ġstore":7830,"ĠRuntime":7831,"aps":7832,"apter":7833,"getInstance":7834,"ĠImp":7835,"Ġtoken":7836,"answer":7837,"ĠKind":7838,"Ġyear":7839,"ALIGN":7840,"artist":7841,"refer":7842,"ĠOri":7843,"ĠOLED":7844,"DIUM":7845,"psb":7846,"ĠsetVisible":7847,"Ġcomplete":7848,"UPT":7849,"AMD":7850,"CONST":7851,"Ġåº":7852,"IBILITY":7853,"Database":7854,"Scale":7855,"INTERR":7856,"locale":7857,"TestEnvironment":7858,"Ġstrlen":7859,"Ġconnect":7860,"Ġconversion":7861,"InfoDialog":7862,"MenuRadioItem":7863,"MenuCheckItem":7864,"Ġallow":7865,"Sha":7866,"ĠREL":7867,"LIBC":7868,"AddGlobal":7869,"executable":7870,"MyString":7871,"Ġasset":7872,"Thumb":7873,"THROW":7874,"FLOW":7875,"ava":7876,"Ġsorted":7877,"Checker":7878,"gameplay":7879,"Symbols":7880,"Ġ---":7881,"ĠINC":7882,"Ġpointf":7883,"Ġwhat":7884,"Ġparser":7885,"Attach":7886,"curve":7887,"ĠScene":7888,"ĠScript":7889,"APPLE":7890,"Ġdirectly":7891,"serializer":7892,"EyerAV":7893,"ISM":7894,"PrintStatement":7895,"Ġflags":7896,"airs":7897,"Ġextension":7898,"Ġconfiguration":7899,"processor":7900,"POOL":7901,"Ġpacket":7902,"Ġcompare":7903,"Ġmember":7904,"ScopeAssignmentList":7905,"<<\"*\";<":7906,">-(":7907,"ExprTree":7908,"hysical":7909,"VarDecl":7910,"Ġupto":7911,"Duplicate":7912,"Duplicates":7913,"anying":7914,"ĠConfigure":7915,"SyncClient":7916,"VariantMap":7917,"GxCTRL":7918,"shlibext":7919,"shlibdir":7920,"Ġmeans":7921,"Assert":7922,"asurement":7923,"NEWLIB":7924,"Phase":7925,"æ³ķ":7926,"Ġkemai":7927,"VISIBILITY":7928,"ĠDescription":7929,"Ġéįıãĥ¥å":7930,"Policy":7931,"Ġaccompanying":7932,"ephyr":7933,"Ġguitard":7934,"INTERRUPT":7935,"AddGlobalTestEnvironment":7936,"Ġéįıãĥ¥å§ı":7937,"'||":7938,"57":7939,"76":7940,">)<":7941,"@@":7942,"Ab":7943,"Ca":7944,"Cy":7945,"Custom":7946,"Dock":7947,"Diff":7948,"FP":7949,"GENERATED":7950,"Grid":7951,"GMOCK":7952,"HLE":7953,"HMODULE":7954,"IOS":7955,"JUMP":7956,"MQ":7957,"Met":7958,"Micro":7959,"Post":7960,"Poly":7961,"QLabel":7962,"QListWidget":7963,"RST":7964,"RULE":7965,"Sust":7966,"See":7967,"SQL":7968,"Speed":7969,"Ts":7970,"WH":7971,"WiFi":7972,"]);":7973,"ae":7974,"ballsBowled":7975,"ballsPlayed":7976,"cam":7977,"dsp":7978,"distance":7979,"digits":7980,"evalu":7981,"flat":7982,"hing":7983,"jni":7984,"mary":7985,"oi":7986,"rong":7987,"runsScored":7988,"runsGiven":7989,"sstream":7990,"sAction":7991,"ulo":7992,"ws":7993,"wchar":7994,"wicketsTaken":7995,"xff":7996,"xInterface":7997,"ye":7998,"zmm":7999,"zlib":8000,"zTypes":8001,"{}<":8002,"å¯":8003,"çĤ":8004,"èĸª":8005,"Ġutf":8006,"Ġé¢ĩèĢģ":8007,"destruct":8008,"onical":8009,"reet":8010,"repository":8011,"Ġ\"*":8012,"Ġcg":8013,"Ġcarry":8014,"esp":8015,"anToken":8016,"Ġtp":8017,"Ġtick":8018,"icon":8019,"Ġvk":8020,"Ġvo":8021,"Ġsw":8022,"Ġsame":8023,"Ġplane":8024,"Ġbq":8025,"Ġbin":8026,"Ġbits":8027,"Ġbasic":8028,"ĠballsBowled":8029,"ĠballsPlayed":8030,"Ġreport":8031,"ssize":8032,"heap":8033,"ential":8034,"ĠAs":8035,"ĠAct":8036,"ĠAPP":8037,"ĠAtt":8038,"ĠSlider":8039,"ĠSleep":8040,"ĠScoped":8041,"ĠSoftware":8042,"ĠClass":8043,"ypr":8044,"ĠEd":8045,"term":8046,"ĠMin":8047,"ĠMar":8048,"ĠMask":8049,"ioSerialPortClient":8050,"ENV":8051,"Ġwx":8052,"ĠwicketsTaken":8053,"ople":8054,"speed":8055,"001":8056,"00200":8057,"Ġlmpl":8058,"STATE":8059,"ĠGEO":8060,"book":8061,"streamingClassifier":8062,"ĠNUM":8063,"ILER":8064,"Vectors":8065,"ĠRad":8066,"force":8067,"ĠQR":8068,"ĠIll":8069,"ĠIgor":8070,"lide":8071,"lipper":8072,"Ġarguments":8073,"ĠrunsScored":8074,"ĠrunsGiven":8075,"ĠWall":8076,"ĠWIDGET":8077,"ĠgetId":8078,"ĠHANDLE":8079,"Ġdelay":8080,"2017":8081,"ROID":8082,"Protect":8083,"found":8084,"ĠOUT":8085,"python":8086,"libs":8087,"phys":8088,"ADCAST":8089,"undam":8090,"ĠsetEnabled":8091,"Ġthere":8092,"Sizef":8093,"Decode":8094,"Decoder":8095,"sumForward":8096,"PART":8097,"ĠPyOS":8098,"lowp":8099,"ToConditional":8100,"openssl":8101,"mbler":8102,"ĠCounter":8103,"ĠCocoa":8104,"Ġletter":8105,"FileName":8106,"Ġresults":8107,"ixmap":8108,"Ġalbum":8109,"Ġalpha":8110,"SYM":8111,"assignment":8112,"URect":8113,"ĠmyAddon":8114,"ANDROID":8115,"WRITER":8116,"ordin":8117,"READNONE":8118,"socket":8119,"Anim":8120,"CppObject":8121,"avx":8122,"ĠCOVID":8123,"Ġ...)":8124,"Numbers":8125,"trace":8126,"ĠYY":8127,"Ġseconds":8128,"Colors":8129,"ActionAb":8130,"ĠUnsupported":8131,"versity":8132,"CAuto":8133,"Rectf":8134,"ĠFunctionCallExpression":8135,"LayoutContainer":8136,"GEMM":8137,"Tracy":8138,"ĠTestMain":8139,"inois":8140,"Ġenter":8141,"dency":8142,"FOMAP":8143,"Price":8144,"Password":8145,"ColourRect":8146,"ĠShape":8147,"0800200":8148,"vertex":8149,"sorted":8150,"ĠReturnStatement":8151,"Ġoptions":8152,"Ġextra":8153,"456":8154,"Ġtypes":8155,"AllPlayers":8156,"SVC":8157,"bitrary":8158,"Ġcorrect":8159,"CPU":8160,"THREADS":8161,"Realization":8162,"STATIC":8163,"ĠQWDIALOG":8164,"\")))<":8165,"ĠFaust":8166,"ĠHeap":8167,"ĠNSObject":8168,"Ġdecimal":8169,"ByteArray":8170,"ĠInterface":8171,"faust":8172,"vtkF":8173,"unistd":8174,"##_<":8175,"Ġarchitecture":8176,"epilogue":8177,"Structure":8178,"scalarmult":8179,"tags":8180,"partyid":8181,"ImGui":8182,"urity":8183,"POSIX":8184,"ĠIoError":8185,"Ġremoved":8186,"Registrar":8187,"Ġlegacy":8188,"LIMITED":8189,"ĠTOSTRING":8190,"Location":8191,"ĠUniversity":8192,"ĠNonCopyable":8193,"HELPER":8194,"POPCNT":8195,"TXT":8196,"ĠGUIT":8197,"ĠHELIX":8198,"TEMPLATE":8199,"BROADCAST":8200,"lookup":8201,"EXTRACT":8202,"ĠMAINWINDOW":8203,"23520":8204,"packageBuilder":8205,"ublisher":8206,"Metal":8207,"Sustain":8208,"evaluator":8209,"ĠIllinois":8210,"ĠCOVIDSIM":8211,"ActionAbility":8212,"ĠQWDIALOGHEADERS":8213,"):<":8214,"+(":8215,"53":8216,"71":8217,"83":8218,"826":8219,"92":8220,">__":8221,"AUT":8222,"Bat":8223,"Blu":8224,"Bind":8225,"Cryp":8226,"Crypto":8227,"Click":8228,"Cube":8229,"Drag":8230,"DSL":8231,"FU":8232,"Fill":8233,"Flow":8234,"FREE":8235,"GI":8236,"HH":8237,"Kee":8238,"MAT":8239,"MYS":8240,"Ne":8241,"Names":8242,"Next":8243,"Pose":8244,"RAND":8245,"SRC":8246,"Solo":8247,"Sampler":8248,"Suffix":8249,"TUP":8250,"USER":8251,"VD":8252,"Values":8253,"VBox":8254,"WP":8255,"Wah":8256,"Wanted":8257,"\\\"":8258,"\\<":8259,"``":8260,"bonn":8261,"dynamic":8262,"drive":8263,"eo":8264,"fam":8265,"gg":8266,"ico":8267,"na":8268,"oard":8269,"sn":8270,"soft":8271,"square":8272,"scope":8273,"schwarz":8274,"td":8275,"tex":8276,"tom":8277,"tchar":8278,"ves":8279,"ways":8280,"wicketsLost":8281,"yd":8282,"}}":8283,"¢°":8284,"åĽ":8285,"æįŀ":8286,"Ġ();<":8287,"ĵĦå":8288,"store":8289,"atar":8290,"intern":8291,"intEvent":8292,"Ġclock":8293,"amt":8294,"cef":8295,"Ġman":8296,"Ġmultip":8297,"riber":8298,"ley":8299,"()!=":8300,"Ġnr":8301,"ctype":8302,"secs":8303,"antern":8304,"alary":8305,"ickn":8306,"Ġvia":8307,"pping":8308,"Ġfprintf":8309,"ĠfDelta":8310,"Ġshm":8311,"Ġsingly":8312,"Ġpw":8313,"Ġpid":8314,"Ġrem":8315,"Ġaux":8316,"lov":8317,"rot":8318,"ateObject":8319,"etime":8320,"igl":8321,"union":8322,"ubble":8323,"Ġinteg":8324,"mpts":8325,"Ġour":8326,"Ġostream":8327,"usy":8328,"EREN":8329,"ERIAL":8330,"ĠSk":8331,"ĠSec":8332,"ĠScore":8333,"ĠSchwarz":8334,"Ġgreater":8335,"ĠClock":8336,"ĠCustom":8337,"ĠCPU":8338,"++,":8339,"++]":8340,"INode":8341,"edu":8342,"ĠTask":8343,"ĠTARGET":8344,"ĠMAR":8345,"ĠPav":8346,"Ġ22":8347,"Ġwrapper":8348,"ĠwicketsLost":8349,"Ġ{{":8350,"Instruction":8351,"Ġly":8352,"ĠDB":8353,"ĠDark":8354,"ATT":8355,"ĠLU":8356,"ĠLoc":8357,"ĠQu":8358,"PPER":8359,"ĠImpl":8360,"lix":8361,"lied":8362,"ĠBack":8363,"Ġarmv":8364,"thers":8365,"omin":8366,"ĠHWND":8367,"ĠkDebug":8368,"ABS":8369,"nti":8370,"product":8371,"ardust":8372,"ĠVM":8373,"[](":8374,"[]={":8375,"Ġbeing":8376,"llt":8377,"phi":8378,"script":8379,"scriber":8380,"SCREEN":8381,"ĠåĻ¨":8382,"ĠInternal":8383,"Ġ},":8384,"DataHandler":8385,"OLY":8386,"OLDER":8387,"Scheme":8388,"Loaded":8389,"ĠStd":8390,"ĠStardust":8391,"Reflection":8392,"MenuBar":8393,"Ġalready":8394,"linear":8395,"Points":8396,"Ġwithout":8397,"Ġprints":8398,"ovo":8399,"Ġexport":8400,"ĠZephyr":8401,"configuration":8402,"wapChain":8403,"Ġatlas":8404,"eeded":8405,"SERVICE":8406,"ĠErrorCode":8407,"OWER":8408,"1305":8409,"ĠIDX":8410,"Answer":8411,"icker":8412,"Parameters":8413,"popcnt":8414,"Sequence":8415,"Commands":8416,"trap":8417,"visitors":8418,"ĠFileCheck":8419,"brid":8420,"PacketIds":8421,"ĠtotalBallsBowled":8422,"ĠtotalRunsScored":8423,"widgets":8424,"protobuf":8425,"Runner":8426,"okes":8427,"Ġentry":8428,"mirai":8429,"leanup":8430,"manual":8431,"Ġsuccess":8432,"ĠRenderer":8433,"ReadResult":8434,"wristb":8435,"ĠDirection":8436,"Ġassignments":8437,"Callstack":8438,"DUCT":8439,"Ġsupports":8440,"vidend":8441,"ĠAligned":8442,"----------------------------------------------------------------------":8443,"ĠProgramming":8444,"totalBallsBowled":8445,"totalRunsScored":8446,"Ġsimdjson":8447,"Ġcalled":8448,"Ġrequired":8449,"ĠSHAPE":8450,"ScoreboardId":8451,"MMatchRule":8452,"StaticMesh":8453,"Ġéįĳå":8454,"Ġfailed":8455,"Ġoriginal":8456,"MESSAGES":8457,"Ġaxis":8458,"FEATURE":8459,"atalan":8460,"ivisor":8461,"Turbo":8462,"ĠStreamReadResult":8463,"TIMER":8464,"andboxLayer":8465,"REALSPACE":8466,"animateObject":8467,"ĠExecute":8468,"ReadOnlyBinaryStream":8469,"ç®Ĺæ³ķ":8470,"ĠMinecraftPacketIds":8471,"Details":8472,"MINGW":8473,"ĠFaustGenerated":8474,"TUPLE":8475,"ĵĦå§ı":8476,"ickness":8477,"ĠMARLIN":8478,"ĠPavlov":8479,"ĠkDebugSuffix":8480,"wristband":8481,"ĠéįĳåĵĦå§ı":8482,":/":8483,">+":8484,"AX":8485,"BAL":8486,"Bad":8487,"BAR":8488,"BOD":8489,"Biome":8490,"Cart":8491,"CUR":8492,"Circle":8493,"Cloud":8494,"DT":8495,"Distributed":8496,"Full":8497,"FOLDER":8498,"HF":8499,"HOR":8500,"HINSTANCE":8501,"IOR":8502,"Long":8503,"MULTI":8504,"NATIVE":8505,"Remo":8506,"Sur":8507,"Sel":8508,"Self":8509,"Sky":8510,"Sheet":8511,"Series":8512,"URES":8513,"WSTR":8514,"Watcher":8515,"['":8516,"]))":8517,"bla":8518,"cut":8519,"can":8520,"cmake":8521,"ea":8522,"fe":8523,"fx":8524,"finite":8525,"gon":8526,"guid":8527,"grad":8528,"gmail":8529,"hud":8530,"hannel":8531,"mol":8532,"messages":8533,"po":8534,"png":8535,"qt":8536,"qw":8537,"rust":8538,"solution":8539,"samp":8540,"uess":8541,"vow":8542,"xt":8543,"{-":8544,"½æķ°":8545,"ç§":8546,"çĺ":8547,"éį":8548,"éĹ":8549,"Ġ/**":8550,"Ġrom":8551,"Ġerr":8552,"Ġladder":8553,"ķĬ":8554,"rely":8555,"integ":8556,"Ġ\";":8557,"includes":8558,"Ġctx":8559,"amma":8560,"ceiver":8561,"arse":8562,"());":8563,"anic":8564,"alance":8565,"pay":8566,"pawn":8567,"ionne":8568,"itude":8569,"ĠpMatch":8570,"Ġpoly":8571,"Ġbl":8572,"Ġbound":8573,"Ġrepres":8574,"ssible":8575,"laps":8576,"igid":8577,"Ġcopi":8578,"licated":8579,"ĠAsync":8580,"ĠAUTO":8581,"ĠSim":8582,"ĠSha":8583,"iser":8584,"Ġ///":8585,"ĠCos":8586,"ĠCatch":8587,"ĠCamera":8588,"ĠCheat":8589,"ypes":8590,"ĠEL":8591,"translation":8592,"ĠĠĠĠĠĠĠĠĠĠĠĠĠĠĠĠĠĠĠĠĠĠĠ":8593,"verage":8594,"ĠTOK":8595,"ĠMsg":8596,"ĠMDrawContext":8597,"ily":8598,"Ġdb":8599,"Ġdon":8600,"Ġdir":8601,"Ġdue":8602,"Ġdiff":8603,"tems":8604,"Ġforward":8605,"320":8606,"RED":8607,"Ġhi":8608,"Ġhdata":8609,"ĠGLO":8610,"boot":8611,"ĠDionne":8612,"irror":8613,"ĠNet":8614,"ĠNWindows":8615,"ATED":8616,"DEFORM":8617,"Stamp":8618,"ĠFilter":8619,"ĉĉĠĠĠ":8620,"VectorXi":8621,"ĠLou":8622,"Ġstatus":8623,"ĠRL":8624,"ĠRand":8625,"ĠRot":8626,"ĠQListWidget":8627,"Ġtodo":8628,"ĠtoFloat":8629,"ĠBE":8630,"person":8631,"shader":8632,"101":8633,"1024":8634,"tto":8635,"Ġgetdelim":8636,"lmgl":8637,"ĠkNum":8638,"Theme":8639,"part":8640,"match":8641,"MOV":8642,"ĠOr":8643,"TOOLS":8644,"ĠVisitor":8645,"TypeInfo":8646,"TypeTemplate":8647,"Archetype":8648,"GLuint":8649,"screen":8650,"ADAPT":8651,"bui":8652,"psz":8653,"SChannel":8654,"after":8655,"ĠsetPosition":8656,"active":8657,"tok":8658,"direction":8659,"hous":8660,"Ġnotice":8661,"ĠExclude":8662,"PARSE":8663,"ipe":8664,"INTR":8665,"OfN":8666,"cbegin":8667,"Collision":8668,"Ġuno":8669,"MAKE":8670,"Compress":8671,"Unknown":8672,"Ġconcurrency":8673,"SPR":8674,"Buy":8675,"ĠRETRODREAM":8676,"Ġdirection":8677,"ĠZI":8678,"SODIUM":8679,"ccur":8680,"Specification":8681,"interval":8682,"Rendering":8683,"RenderNode":8684,"cyrand":8685,"998244353":8686,"CppType":8687,"HorizontalFormatting":8688,"HorizontalTextFormatting":8689,"Classes":8690,"ClassTemplate":8691,"MBitmap":8692,"Ġ)\"_":8693,"NTSTATUS":8694,"Ġencode":8695,"Ġmodules":8696,"Attribute":8697,"Initialiser":8698,"Rectangle":8699,"FILES":8700,"Arguments":8701,"continue":8702,"contains":8703,"webpp":8704,"ComponentIterator":8705,"protocols":8706,"Ġrunning":8707,"fastio":8708,"ategory":8709,"ColourUDim":8710,"ColourURect":8711,"ï¼ļ":8712,"åĩ½æķ°":8713,"question":8714,"Note":8715,"VerticalFormatting":8716,"VerticalTextFormatting":8717,"PRESS":8718,"ĠEYERPLAYER":8719,"vars":8720,"infrt":8721,"STDAFX":8722,"currentFrame":8723,"Ġrarely":8724,"Disk":8725,"ĠAppDelegate":8726,"ĠProcessor":8727,"Ġdecrement":8728,"Ġhello":8729,"anoi":8730,"ĠInterrupt":8731,"ComboBox":8732,"ĠPointer":8733,"ursive":8734,"ĠBinaryOperatorType":8735,"globals":8736,"join":8737,"ĠMessageWindow":8738,"ĠAPIENTRY":8739,"ĠlpReserved":8740,"åºľ":8741,"GxIO":8742,"Ġdoesn":8743,"++++++++":8744,"GameTypeMgr":8745,"columns":8746,"ĠSYSTEM":8747,"********************************************************************************<":8748,"Orientation":8749,"ĠANIME":8750,"ColourUVector":8751,"ColourUBox":8752,"Ġimplemented":8753,"Distortion":8754,"ScopedHandle":8755,"çªĥ":8756,"thirdparty":8757,"SECURE":8758,"Selected":8759,"ĠMeshSyncClient":8760,"CTBridgeDelegate":8761,"Step":8762,"ophus":8763,"Libui":8764,"ĠGUITARD":8765,"Battery":8766,"Bindings":8767,"ĠåĻ¨çªĥ":8768,"ĠSHAPEDEFORM":8769,"BODY":8770,"Remote":8771,"lapsible":8772,"ĠLouis":8773,"49":8774,";//":8775,"AU":8776,"BLE":8777,"Bot":8778,"Boost":8779,"CRC":8780,"Ctrl":8781,"DR":8782,"DOT":8783,"Drop":8784,"Fragment":8785,"GWIN":8786,"GUID":8787,"HW":8788,"Hand":8789,"IZ":8790,"JIT":8791,"Metrics":8792,"NM":8793,"Pol":8794,"Present":8795,"RPMP":8796,"SR":8797,"SCO":8798,"Single":8799,"TK":8800,"TOR":8801,"Tinylang":8802,"Utf":8803,"Wifi":8804,"Xclang":8805,"YLE":8806,"]%":8807,"^(":8808,"ched":8809,"dy":8810,"fb":8811,"fin":8812,"field":8813,"ident":8814,"iris":8815,"largest":8816,"nu":8817,"nall":8818,"olog":8819,"pn":8820,"pAddress":8821,"tet":8822,"ted":8823,"wait":8824,"ze":8825,"ä¾":8826,"å®":8827,"æ¶":8828,"æ¢°":8829,"çľ":8830,"è®":8831,"ĠREG":8832,"ĠORB":8833,"ı£":8834,"inv":8835,"inst":8836,"inplace":8837,"encpp":8838,"Ġcrc":8839,"Ġcell":8840,"Ġcpu":8841,"Ġcatalan":8842,"Ġmet":8843,"esphome":8844,"aruno":8845,"defgroup":8846,"Ġir":8847,"Ġfull":8848,"Ġfuzz":8849,"raction":8850,"Ġsimpl":8851,"Ġscore":8852,"Ġsingleton":8853,"Ġpc":8854,"Ġpha":8855,"Ġbattle":8856,"Ġrect":8857,"Ġreach":8858,"Ġrelease":8859,"Ġage":8860,"Ġaudio":8861,"helix":8862,"lain":8863,"unlock":8864,"Ġcoins":8865,"mpeg":8866,"Ġomn":8867,"Ġogg":8868,"ĠAbstract":8869,"ERA":8870,"izz":8871,"**)<":8872,"ĠSto":8873,"Ġgid":8874,"Ġgui":8875,"ĠCOLS":8876,"ĠCmpt":8877,"edNative":8878,"ĠMan":8879,"ĠMRECT":8880,"ilon":8881,"ĠPart":8882,"ĠPBYTE":8883,"-----":8884,"Ġdisp":8885,"Ġwritten":8886,"tegr":8887,"span":8888,"Ġofs":8889,"Inning":8890,"Ġlhs":8891,"LEQ":8892,"ĠhWnd":8893,"bow":8894,"bose":8895,"ĠNormal":8896,"Ġjudge":8897,"otion":8898,"ORM":8899,"ORDER":8900,"DECODER":8901,"setfill":8902,"ĠFC":8903,"ĠRx":8904,"Ġelem":8905,"Ġtok":8906,"ynomial":8907,"ANY":8908,"ĠURL":8909,"ĠUFOMAP":8910,"eml":8911,"emit":8912,"odd":8913,"Example":8914,"compressed":8915,"Ġruntime":8916,"ĠWOR":8917,"ĠWITH":8918,"ĠHMODULE":8919,"ĠHello":8920,"Ġdesc":8921,"ROS":8922,"ROLL":8923,"proc":8924,"provider":8925,"Strings":8926,"annot":8927,"enseal":8928,"lld":8929,"Ġproto":8930,"ĠmaxC":8931,"FAST":8932,"udc":8933,"udy":8934,"BaseQuest":8935,"SCL":8936,"Ġsef":8937,"filePath":8938,"Ġthreshold":8939,"Objective":8940,"CHud":8941,"ĠException":8942,"AMX":8943,"AMERA":8944,"Rep":8945,"compact":8946,"PORTCLIENT":8947,"ĠJob":8948,"Ġincluded":8949,"ToExpression":8950,"ToInt":8951,"ftStrategy":8952,"Chat":8953,"Ġ#%":8954,"FunctionInfo":8955,"FunctionCallExpression":8956,"ĠState":8957,"ERATE":8958,"Ġfooz":8959,"Ġconsole":8960,"1000000":8961,"worker":8962,"Shutdown":8963,"Ġcontroller":8964,"WRITE":8965,"Timeout":8966,"Interpol":8967,"ocused":8968,"GameObject":8969,"Head":8970,"ĠIDB":8971,"MEMORY":8972,"Ġtimeout":8973,"Ġtimeval":8974,"Visual":8975,"REFEREN":8976,"available":8977,"ParamValueList":8978,"ĠCOMM":8979,"Ġtexture":8980,"ActionBuy":8981,"Ġpointer":8982,"nodes":8983,"fcn":8984,"Ġenc":8985,"Formatter":8986,"Libgraphics":8987,"packet":8988,"langdata":8989,"generate":8990,"Ġpermute":8991,"curl":8992,"dlfcn":8993,"Training":8994,"219":8995,"True":8996,"Trans":8997,"ĠONNX":8998,"okie":8999,"USING":9000,"Results":9001,"096":9002,"serialization":9003,"PRINT":9004,"Compare":9005,"ĠLIBPS":9006,"Ġ2017":9007,"ĠIMPORTING":9008,"ĠReset":9009,"ĠSearch":9010,"currencpp":9011,"LOCALE":9012,"video":9013,"Sorted":9014,"Radius":9015,"));}<":9016,"ĠTRACY":9017,"Ġinterval":9018,"mutator":9019,"ĠSECOND":9020,"ĠSEETA":9021,"})\"_":9022,"ĠARPMP":9023,"sdk":9024,"Ġrelated":9025,"Ġnormalf":9026,"FastMutex":9027,"ĠGlobalMap":9028,"========================================":9029,"========================================================================":9030,"¥åı£":9031,"FirstInning":9032,"GRAPHICLIB":9033,"TRAITS":9034,"Calcul":9035,"filters":9036,"QPainter":9037,"ĠsampleRate":9038,"ĠMMatchRule":9039,"DXSDKVER":9040,"\"({\"":9041,"Ġmlir":9042,"backends":9043,"aisy":9044,"Iterations":9045,"OFFSET":9046,"ĠbenchmarkQuery":9047,"CYGWIN":9048,"CvtImpl":9049,"ReturnStatement":9050,"\"][\"":9051,"utolinkedNative":9052,"GICP":9053,"Ġmerge":9054,"BSDF":9055,"ĠGEOGRAPHICLIB":9056,"CAutoLock":9057,"Keeper":9058,"ydro":9059,"internals":9060,"ATTACK":9061,"ĠBackground":9062,"TinylangVersion":9063,"ĠSECONDA":9064,"FirstInnings":9065,"(/*":9066,"*=":9067,".\");<":9068,"386":9069,"<(":9070,">/":9071,">:":9072,"Affine":9073,"BAT":9074,"Break":9075,"BZip":9076,"Crc":9077,"Cross":9078,"Dsrc":9079,"Dump":9080,"Efc":9081,"Fundam":9082,"HI":9083,"History":9084,"Hydro":9085,"KS":9086,"LAS":9087,"Me":9088,"Mag":9089,"Mele":9090,"MID":9091,"Metadata":9092,"OME":9093,"PA":9094,"PH":9095,"Patch":9096,"QMainWindow":9097,"Sn":9098,"SWI":9099,"Supported":9100,"Warning":9101,"ZRULE":9102,"]+=":9103,"aLib":9104,"bab":9105,"baz":9106,"cgi":9107,"duration":9108,"equal":9109,"final":9110,"factorial":9111,"flush":9112,"features":9113,"guest":9114,"hh":9115,"lers":9116,"pthread":9117,"poly":9118,"rm":9119,"send":9120,"sdl":9121,"tic":9122,"tist":9123,"tbl":9124,"ually":9125,"uuid":9126,"wind":9127,"zAlloc":9128,"æĢ":9129,"æĿ":9130,"èĮ":9131,"Ġ()<":9132,"Ġ++)":9133,"ļä¹":9134,"Ńī":9135,"delta":9136,"ended":9137,"erate":9138,"repp":9139,"ression":9140,"required":9141,"intrin":9142,"intrinsic":9143,"Ġcam":9144,"Ġcriter":9145,"ams":9146,"ceive":9147,"Ġmeg":9148,"Ġmark":9149,"Ġmutex":9150,"Ġmks":9151,"Ġmissing":9152,"Ġio":9153,"Ġnet":9154,"Ġtake":9155,"Ġteam":9156,"ifest":9157,"Ġvc":9158,"Ġft":9159,"Ġface":9160,"Ġ*****":9161,"ineFunctionInfo":9162,"Ġssize":9163,"ural":9164,"Ġps":9165,"Ġpragma":9166,"ĠpGroup":9167,"ĠpCallstack":9168,"Ġbasis":9169,"Ġboard":9170,"Ġred":9171,"Ġreinterpret":9172,"Ġaarch":9173,"lacian":9174,"--;":9175,"unity":9176,"unication":9177,"Ġcomm":9178,"macos":9179,">//===":9180,"Ġopr":9181,"Ġothers":9182,"exist":9183,"Ġmask":9184,"ĠSU":9185,"Ġ//!":9186,"Ġgray":9187,"Ġgcc":9188,"ĠCar":9189,"ĠContext":9190,"INS":9191,"ĠEVENT":9192,"ĠENABLE":9193,"child":9194,"ĠTe":9195,"ĠMore":9196,"ĠMKS":9197,"ilti":9198,"ĠPO":9199,"imbot":9200,"Ġdd":9201,"Ġdtype":9202,"ENE":9203,"Ġwin":9204,"ALLO":9205,"Insert":9206,"Ġlb":9207,"Cost":9208,"RECTION":9209,"ĠGET":9210,"ĠGUI":9211,"ading":9212,"ĠDown":9213,"egate":9214,"Ġchunk":9215,"ĠNative":9216,"ĠNapi":9217,"ĠNArchive":9218,"PLIT":9219,"atable":9220,"asics":9221,"andmarker":9222,"efsw":9223,"ĠFB":9224,"////////////":9225,"gets":9226,"ĠQP":9227,"ĠIS":9228,"ĠBasic":9229,"ACCESS":9230,"Ġrgb":9231,"ĠWait":9232,"Ġkth":9233,"ensure":9234,"Ġdependent":9235,"ALIZ":9236,"Proto":9237,"sertion":9238,"served":9239,"ĠOF":9240,"ĠOver":9241,"IContext":9242,"ICODE":9243,"TypeID":9244,"quat":9245,"ureku":9246,"ĠmaxDepth":9247,"ights":9248,"ĠsetFont":9249,"ival":9250,"Ġthunk":9251,"LOOK":9252,"dices":9253,"EventSet":9254,"Ġnothing":9255,"Ġ%=":9256,"Conn":9257,"Converter":9258,"Ġ},<":9259,"Zeroes":9260,"ĠJson":9261,"DLT":9262,"TestData":9263,"mbly":9264,"Ġstrong":9265,"OBJ":9266,"Forces":9267,"Components":9268,"Unlock":9269,"FileReader":9270,"Refureku":9271,"ĠGLCORE":9272,"Resolution":9273,"mean":9274,"SPI":9275,"Ġalignment":9276,"ENTT":9277,"SOLE":9278,"SOCKET":9279,"PROM":9280,"=\"\";<":9281,"Ġpartition":9282,"Make":9283,"BOX":9284,"CheckButton":9285,"Ġzpl":9286,"CommandList":9287,"Opt":9288,"Alignment":9289,"Generate":9290,"Bytes":9291,"Quad":9292,"Devices":9293,"MLIR":9294,"ĠReal":9295,"ĠChar":9296,"5555":9297,"ichor":9298,"Ġsuch":9299,"Ġimporter":9300,"Notification":9301,"pairs":9302,"signature":9303,"ĠLogicOperatorType":9304,"HelperDefines":9305,"Ġ{});<":9306,"COMPILER":9307,"VerticalScrollBar":9308,"Ġconfigure":9309,"JsonDocument":9310,"ĠSeesaw":9311,"ToolTip":9312,"Ġevents":9313,"INDS":9314,"Particle":9315,"QRCode":9316,"ĠParse":9317,"Ġuserdata":9318,"half":9319,"ĠSHARE":9320,"eedback":9321,"FastSIMD":9322,"AccessPtr":9323,"laplacian":9324,"ĠReflection":9325,"LocalValue":9326,"Broadcaster":9327,"UniqueID":9328,"CREATE":9329,"Ġaxes":9330,"IntensityFilter":9331,"Origin":9332,"spritesheet":9333,"Registration":9334,"Member":9335,"WTP":9336,"Ġulong":9337,"oxel":9338,"åĢł":9339,"PointXYZI":9340,"relational":9341,"Ġplaced":9342,"ĠmaxProfit":9343,"PASSWORD":9344,"èĥ¶":9345,"SCRIPT":9346,"Dependency":9347,"Timestamp":9348,"epsilon":9349,"DETECTOR":9350,"ĠCHudElemBase":9351,"DarkForces":9352,"FEXCore":9353,"ĠASN":9354,"Ġallowed":9355,"ĠOUTPUT":9356,"physical":9357,"8266":9358,"ĠLocal":9359,"éĹ´":9360,"ĠGLOBAL":9361,"Ġmetatable":9362,"Ġfuzzer":9363,"EfcDsrc":9364,"Melee":9365,"ļä¹ī":9366,"reppingD":9367,"*\\":9368,",(":9369,"07":9370,"41":9371,"Ac":9372,"AUTO":9373,"BT":9374,"Blur":9375,"CLOCK":9376,"Div":9377,"Dbg":9378,"Demo":9379,"Ent":9380,"Fn":9381,"Filename":9382,"Factorial":9383,"Fixed":9384,"Go":9385,"ISO":9386,"IReactPackageProvider":9387,"JS":9388,"JMP":9389,"LK":9390,"LR":9391,"LACK":9392,"Mo":9393,"Metric":9394,"MALLOC":9395,"Na":9396,"OOG":9397,"Pressed":9398,"Plug":9399,"Publisher":9400,"POWER":9401,"QImage":9402,"Rs":9403,"REND":9404,"Remove":9405,"Saver":9406,"Tun":9407,"TBody":9408,"UV":9409,"UFF":9410,"Variables":9411,"You":9412,"_)":9413,"blue":9414,"basics":9415,"candies":9416,"dat":9417,"dig":9418,"eve":9419,"gre":9420,"ices":9421,"jit":9422,"jmp":9423,"ka":9424,"ltra":9425,"milliseconds":9426,"nm":9427,"npos":9428,"pid":9429,"post":9430,"pParent":9431,"pwn":9432,"rf":9433,"rg":9434,"rx":9435,"ranch":9436,"save":9437,"tte":9438,"tenseal":9439,"ues":9440,"{}":9441,"¥ç":9442,"¨ĭ":9443,"åĨ":9444,"åķĬ":9445,"æĹ":9446,"æŀ":9447,"çŃī":9448,"ç¨ĭ":9449,"èĤ":9450,"éı":9451,"éĶ":9452,"Ġut":9453,"Ġerase":9454,"Ġquestion":9455,"Ġensure":9456,"ĦĬ":9457,"ıçļĦ":9458,"dependent":9459,"stride":9460,"attr":9461,"erl":9462,"eros":9463,"erarch":9464,"react":9465,"Ġ\"%":9466,"Ġcandies":9467,"Ġmov":9468,"arma":9469,"Ġnb":9470,"Ġnat":9471,"coins":9472,"Ġtms":9473,"Ġtitle":9474,"algorithms":9475,"idInit":9476,"Ġvl":9477,"Ġvs":9478,"Ġvtk":9479,"Ġfx":9480,"raint":9481,"Ġsat":9482,"Ġsense":9483,"Ġspd":9484,"Ġsoft":9485,"Ġsleep":9486,"Ġspeed":9487,"Ġpool":9488,"ĠpMouse":9489,"ĠpMenuSeparator":9490,"Ġbet":9491,"Ġbusy":9492,"Ġai":9493,"Ġabout":9494,"eto":9495,"etype":9496,"strs":9497,"strlen":9498,"Ġ08":9499,"Ġcocoa":9500,"Ġowner":9501,"usc":9502,"usage":9503,"Ġ180":9504,"ume":9505,"ĠAT":9506,"Ġ(_":9507,"Ġmapped":9508,"ĠSm":9509,"ĠSort":9510,"ĠSty":9511,"isk":9512,"Ġ//<":9513,"oll":9514,"ĠCRC":9515,"++);<":9516,"INF":9517,"ĠEmpty":9518,"transfer":9519,"chach":9520,"ĠTYPE":9521,"iomes":9522,"ims":9523,"Ġdat":9524,"Ġdup":9525,"Ġwon":9526,"Ġinv":9527,"ationMode":9528,"Ġlarg":9529,"Ġlines":9530,"onth":9531,"ĠGAME":9532,"ĠGUID":9533,"ĠGadget":9534,"ĠNGEN":9535,"ARDUINO":9536,"PLSChannel":9537,"Stats":9538,"Stairs":9539,"setText":9540,"ĠFString":9541,"ĠFrom":9542,"Ġstop":9543,"ĠQImage":9544,"ĠQStyle":9545,"ĠBar":9546,"ĠBLE":9547,"ĠBML":9548,"ĠBiomes":9549,"ograph":9550,"perm":9551,"FIELD":9552,"Extra":9553,"thin":9554,"shm":9555,"components":9556,"Ġrl":9557,"Ġrst":9558,"ĠHRESULT":9559,"lmlib":9560,"ABOUT":9561,"Ġdeg":9562,"Ġdetect":9563,"Ġdeserialize":9564,"Ġdeprecated":9565,"2019":9566,"Properties":9567,"prog":9568,"prop":9569,"program":9570,"serve":9571,"seract":9572,"ICS":9573,"TObj":9574,"SHAPE":9575,"BUF":9576,"ddk":9577,"library":9578,"fft":9579,"Ġprovide":9580,"IDR":9581,"126":9582,"Ġmaterial":9583,"SCANN":9584,"Ġsever":9585,"Ġthird":9586,"ĠXMP":9587,"Streamer":9588,"LOOP":9589,"CLIP":9590,"logging":9591,"lyrics":9592,"comment":9593,"UECS":9594,"Convert":9595,"Conversion":9596,"Constructor":9597,"Ġ77":9598,"Ġpast":9599,"Ġpause":9600,"openVertical":9601,"ĠProtocol":9602,"Ġunknown":9603,"ĠExpressionList":9604,"ĠGetView":9605,"ERATOR":9606,"Uni":9607,"pluginx":9608,"Ġanker":9609,"Setup":9610,"ä¸Ģ":9611,"Ġ96":9612,"ENERATE":9613,"Ġalpaca":9614,"TRUE":9615,"ĠfirstName":9616,"Idle":9617,"appender":9618,"Ġvecf":9619,"peat":9620,"Framework":9621,"PROC":9622,"posix":9623,"Threshold":9624,"sock":9625,"GameDraw":9626,"RenderWindow":9627,"ĠImVec":9628,"ĠIDC":9629,"Parse":9630,"Parallel":9631,"])%":9632,"NULLPTR":9633,"HorizontalScrollBar":9634,"results":9635,"Dialect":9636,"ĠreverseString":9637,"PCWSTR":9638,"Utilities":9639,"DISABLED":9640,"PERTY":9641,"VIRON":9642,"Album":9643,"alette":9644,"ĠAdding":9645,"SubArray":9646,"ĠWINVER":9647,"ankerl":9648,"ĠOnUpdate":9649,"fsArchive":9650,"Ġperform":9651,"wei":9652,"Ġrunner":9653,"APPER":9654,"dens":9655,"leanUp":9656,"ĠlastName":9657,"xxxx":9658,"Delete":9659,"Notice":9660,"ĠShader":9661,"NEED":9662,"ĠForces":9663,"Ġbased":9664,"elling":9665,"Serialization":9666,"axes":9667,"Ġamx":9668,"ĠGameState":9669,"fixture":9670,"bitset":9671,"Tools":9672,"ĠToken":9673,"StackView":9674,"Ġsignature":9675,"Ġloss":9676,"Activity":9677,"Ġshows":9678,"Disable":9679,"Ġbinding":9680,"METHODIMP":9681,"PARAMETERS":9682,"Tracking":9683,"ĠParent":9684,"ĠĠĠĠĠĠĠĠĠĠĠĠĠĠĠĠĠĠĠĠĠĠĠĠĠĠĠĠĠĠĠĠĠĠ":9685,"generators":9686,"ursor":9687,"è¤ī":9688,"WARNING":9689,"dcn":9690,"Seconds":9691,"squares":9692,"Ġactive":9693,"Ġvalidate":9694,"destroy":9695,"ĠGenerator":9696,"è¾ĳ":9697,"CRYPTOPP":9698,"assembler":9699,"FEATURES":9700,"origin":9701,"original":9702,"slam":9703,"ĠSuper":9704,"ĠFASTSIMD":9705,"Boundary":9706,"æİĵ":9707,"ĠLayout":9708,"ehicle":9709,"EyerPlayerEvent":9710,"Ġmonitor":9711,"Ġdenomin":9712,"SYNC":9713,"éĬĪæİĵ":9714,"KERNEL":9715,"ZTID":9716,"cessedSize":9717,"è°¢":9718,"Ġconditions":9719,"MachineFunctionInfo":9720,"Ġlimit":9721,"ĠDXGI":9722,"synthizer":9723,"èĸªæĩĪ":9724,"ĠAttribute":9725,"PARTITION":9726,"----------------------------------------------------------------------===//<":9727,"vowel":9728,"çĺ¤":9729,"integral":9730,"Ġphake":9731,"tegration":9732,"ĠCOMMON":9733,"unicationManager":9734,">//===----------------------------------------------------------------------===//<":9735,"Ġthunklibs":9736,"oxelEngine":9737,"OOGLE":9738,"ç¨ĭåº":9739,"èĤº":9740,"Ġspdlog":9741,"chacha":9742,"openVerticalBox":9743,"Ġankerl":9744,"VIRONMENT":9745,"&&)":9746,")-":9747,")};<":9748,"*>&":9749,",...":9750,".%":9751,"199":9752,"20000":9753,":\"<<":9754,"Auth":9755,"BF":9756,"BKern":9757,"Cre":9758,"CAC":9759,"CCE":9760,"CMP":9761,"Cheat":9762,"Cursor":9763,"DRIVER":9764,"Ele":9765,"Empty":9766,"Every":9767,"Fx":9768,"FACTOR":9769,"GPU":9770,"Gamal":9771,"Guess":9772,"Hund":9773,"HAV":9774,"Hardware":9775,"IES":9776,"IReactPackage":9777,"JOY":9778,"KINDS":9779,"LP":9780,"LV":9781,"LIGHT":9782,"MX":9783,"Mi":9784,"Mes":9785,"May":9786,"MDrawContext":9787,"NA":9788,"NLL":9789,"NPC":9790,"Ota":9791,"Patcher":9792,"PBYTE":9793,"Prefix":9794,"QPoint":9795,"QFrame":9796,"QJsonObject":9797,"RIGHT":9798,"Rigid":9799,"Sink":9800,"SAMPLE":9801,"Tiles":9802,"UAL":9803,"UString":9804,"UCLASS":9805,"XPtr":9806,"]^":9807,"]\")<":9808,"`<":9809,"bet":9810,"big":9811,"beta":9812,"cmd":9813,"center":9814,"casbin":9815,"cube":9816,"day":9817,"dtor":9818,"eb":9819,"fw":9820,"fec":9821,"filer":9822,"flip":9823,"gd":9824,"greg":9825,"glad":9826,"her":9827,"ike":9828,"kit":9829,"lGamal":9830,"oreg":9831,"plus":9832,"qStatement":9833,"ranges":9834,"sr":9835,"some":9836,"sapien":9837,"salary":9838,"vvi":9839,"vision":9840,"vatar":9841,"xs":9842,"yes":9843,"ãĢ":9844,"åĦ":9845,"åŃ":9846,"æļ":9847,"éĿ":9848,"Ġri":9849,"Ġess":9850,"Ġ-----":9851,"Ĥ<":9852,"ĭ¼":9853,"ĶçĶ¨":9854,"storage":9855,"onus":9856,"atio":9857,"lucian":9858,"rec":9859,"record":9860,"Ġ<<<":9861,"Ġ\".\"":9862,"ution":9863,"Ġcand":9864,"Ġcircle":9865,"ending":9866,"letion":9867,"()));<":9868,"Ġimpl":9869,"Ġigl":9870,"Ġntp":9871,"Ġneeded":9872,"sef":9873,"seal":9874,"sequence":9875,"Ġts":9876,"painter":9877,"ift":9878,"idar":9879,"Ġvv":9880,"Ġvgui":9881,"Ġvariant":9882,"Ġvertex":9883,"Ġ*_":9884,"Ġsodium":9885,"Ġph":9886,"Ġplay":9887,"Ġpnd":9888,"ĠpPopupMenu":9889,"Ġauthor":9890,"hehe":9891,"hether":9892,"loss":9893,"lott":9894,"uniform":9895,"magery":9896,"ented":9897,">//{<":9898,"ĠAD":9899,"ĠAX":9900,"ĠAll":9901,"ĠAbout":9902,"Ġ(((":9903,"ĠSW":9904,"ĠSlic":9905,"oler":9906,"Ġgrid":9907,"ĠCAN":9908,"ĠCCL":9909,"ĠCallback":9910,"ĠCurrent":9911,"ĠCopy":9912,"INC":9913,"ypoint":9914,"cklink":9915,"__))<":9916,"ĠTAG":9917,"ĠMWidget":9918,"ĠMatcher":9919,"iling":9920,"ĠPm":9921,"ĠPush":9922,"ĠPatch":9923,"ĠPOS":9924,"imizer":9925,"imeline":9926,"Ġdy":9927,"Ġdate":9928,"Ġdigits":9929,"ENCODER":9930,"Ġwrong":9931,"Ġwhether":9932,"argument":9933,"opExpression":9934,"spi":9935,"sparse":9936,"Infer":9937,"InRegister":9938,"Inverter":9939,"istream":9940,"Ġldl":9941,"Ġlongest":9942,"LET":9943,"REC":9944,"Ġham":9945,"boy":9946,"ĠDO":9947,"ĠDelta":9948,"ĠDiscrete":9949,"egrees":9950,"Ġchr":9951,"ĠNone":9952,"asi":9953,"asy":9954,"ĠFree":9955,"ĠFactorial":9956,"ĠFALSE":9957,"IMG":9958,"ILTER":9959,"Ġstep":9960,"ĠRB":9961,"ĠRect":9962,"ĠRNE":9963,"ĠRestore":9964,"ĠRemove":9965,"Ġelapsed":9966,"getParent":9967,"ĠQSpinBox":9968,"ĠIchor":9969,"ĠImagery":9970,"Ġtos":9971,"lia":9972,"live":9973,"ANS":9974,"agram":9975,"aglia":9976,"ITC":9977,"ITOR":9978,"ITICAL":9979,"uality":9980,"ansion":9981,"thunk":9982,"angles":9983,"shot":9984,"105":9985,"Ġrcl":9986,"ometric":9987,"SEMA":9988,"ĠWAF":9989,"ĠHigh":9990,"CTSTR":9991,"QUrl":9992,"QUENTT":9993,"ensy":9994,"EXASS":9995,"EXEC":9996,"Protocol":9997,"foc":9998,"TOPT":9999,"ĠVidInit":10000,"tain":10001,"TypeObject":10002,"COP":10003,"quot":10004,"UNSPE":10005,"UNNABLE":10006,"UNICODE":10007,"matrixFunction":10008,"WidgetLook":10009,"DIRECTION":10010,"Ġregs":10011,"Ġregard":10012,"lemented":10013,"ApplicationDelegate":10014,"Ġsepar":10015,"Ġseesaw":10016,"ĠsetLength":10017,"ĠsetSelected":10018,"actPackage":10019,"touch":10020,"ively":10021,"Ġthese":10022,"CHOR":10023,"LOQUENTT":10024,"abb":10025,"dividend":10026,"EventHandler":10027,"ĠĠĠĠĠĠĠĠĠĠĠĠĠĠĠĠĠĠĠĠĠĠĠĠĠĠĠĠ":10028,"ĠåĽ":10029,"Ġclasses":10030,"Conv":10031,"Connect":10032,"ĠInt":10033,"DataType":10034,"ToM":10035,"Ġpay":10036,"area":10037,"pdims":10038,"maxIndex":10039,"ĠProto":10040,"Ġunk":10041,"FunctionStorage":10042,"arrays":10043,"mooth":10044,"enumber":10045,"pendencies":10046,"Defined":10047,"GetName":10048,"AVCONFIG":10049,"PLUS":10050,"ixer":10051,"expfn":10052,"PointNormal":10053,"MPC":10054,"StatementWrapper":10055,"Ġuid":10056,"Ġexpfn":10057,"OPR":10058,"WRAPPER":10059,"initObject":10060,"Ġsubtype":10061,"OTA":10062,"SOFT":10063,"piHelper":10064,"ItemList":10065,"Login":10066,"LogLevel":10067,"Ġsynthizer":10068,"showAllPlayers":10069,"READER":10070,"PRODUCT":10071,"Interpreter":10072,"FFVERSION":10073,"note":10074,"oci":10075,"ashboard":10076,"ACTIONS":10077,"Mapper":10078,"document":10079,"RenderTarget":10080,"ningOfCamera":10081,"CppArray":10082,"CppReflection":10083,"çĶ«":10084,"Apply":10085,"Ġkeys":10086,"Ġrandombytes":10087,"Ġweird":10088,"GRL":10089,"CommonScrollBar":10090,"LLVM":10091,"triangle":10092,"gameboy":10093,"Semaphore":10094,"CommandLine":10095,"ĠSystemMenu":10096,"Edge":10097,"resizeEvent":10098,"HEAD":10099,"directory":10100,"coslucian":10101,"NTL":10102,"BEHAV":10103,"objects":10104,"PyObject":10105,"PyTypeObject":10106,"ĠOnDraw":10107,"Ġusbg":10108,"Argument":10109,"jpeg":10110,"contract":10111,"weets":10112,"ComponentVector":10113,"Spelling":10114,"Matcher":10115,"ConstExpression":10116,"ĠStruct":10117,"INVALID":10118,"ĠReactPackage":10119,"ĠChannel":10120,"ĠtwoSum":10121,"ĠConsole":10122,"linker":10123,"MaxIterations":10124,"NotImp":10125,"numbers":10126,"ciano":10127,"Ġequival":10128,"vertical":10129,"daCodeGraph":10130,"ĠStringMap":10131,"ĠDefines":10132,"ĠComplex":10133,"ĠSpriteAnimation":10134,"airplay":10135,"TableView":10136,"Ġnonce":10137,"ĠsingleNumber":10138,"circle":10139,"calib":10140,"Declaration":10141,"FILERE":10142,"ResourceManager":10143,"Absolute":10144,"POINTER":10145,"PackageTest":10146,"280":10147,"nostics":10148,"Ġmemset":10149,"ĠIPCOP":10150,"Ġfollowing":10151,"Domain":10152,"BinaryOperatorType":10153,"ĠToString":10154,"NvInfer":10155,"ĠstreamingClassifier":10156,"multi":10157,"initialized":10158,"AttackRange":10159,"AttackMelee":10160,"Recy":10161,"items":10162,"Temperature":10163,"INYML":10164,"ĠPLSL":10165,"Activate":10166,"mutations":10167,"ĠFailed":10168,"ĠremoveDuplicates":10169,"isfy":10170,"isfinite":10171,"EXTENDED":10172,"CurrentFrame":10173,"override":10174,"TOKENKINDS":10175,"Ġ\")\"":10176,"ĠParser":10177,"Ġarmstrong":10178,"Ġpossible":10179,"Detector":10180,"GraphicsView":10181,"RadioButton":10182,"QWheelEvent":10183,"Pairs":10184,"ĠSymbols":10185,"CppGenericClass":10186,"CppGenericMethod":10187,"SUBCASE":10188,"Execute":10189,"JobHandle":10190,"FORMATTER":10191,"Selector":10192,"ĠDeclaration":10193,"RADE":10194,"AboutDialog":10195,"ĠMenuButton":10196,"WDF":10197,"IMPLEMENTATION":10198,"ĠSpotify":10199,"ĠFUA":10200,"iltinType":10201,"alkable":10202,"Combat":10203,"TinyEngine":10204,"ĠPerson":10205,"freopen":10206,"freetype":10207,"ĠTipsMenu":10208,"marcoslucian":10209,"ĠLua":10210,"ĠLuciano":10211,"ĠOBS":10212,"ĠlayerIdx":10213,"LinkedList":10214,"ComboButtonItem":10215,"GTTOOLS":10216,"amedArea":10217,"seqExpression":10218,"ĠAdafruit":10219,"ĠFastMutex":10220,"COUNTER":10221,"EventsMonitor":10222,"FaceInfo":10223,"UMBER":10224,"Ġmirai":10225,"GUARD":10226,"FusionCamSensor":10227,"Relative":10228,"VARIABLE":10229,"CriticalSection":10230,"Ġkeepdims":10231,"DOWNLOADER":10232,"Includes":10233,"ĠSTATUS":10234,"SPECIALFUNCTIONS":10235,"Fixture":10236,"kgColor":10237,"ALIGNED":10238,"Polygon":10239,"SQLite":10240,"çĤ¹":10241,"ĠScopedGuard":10242,"ĠMarcos":10243,"45678":10244,"MetalKit":10245,"MYSQL":10246,"NoteKey":10247,"SCOPE":10248,"TORCH":10249,"nuovo":10250,"Ġirq":10251,"Ġsimply":10252,"InterpolationMode":10253,"Ġcriterion":10254,"ĠTeensy":10255,"egateConditionalWrapper":10256,"reppingDlg":10257,"LKFLOW":10258,"LACKS":10259,"erarchy":10260,"Ġsatisfy":10261,"ographic":10262,"SCANNER":10263,"ç¨ĭåºıçļĦ":10264,"CACHE":10265,"FACTORY":10266,"IReactPackageBuilder":10267,"MesBox":10268,"NLLLoss":10269,"oreground":10270,"ãĢĤ<":10271,"ĶçĶ¨ç¨ĭåºıçļĦ":10272,"Ġpndtri":10273,"lotta":10274,"ĠCCLCC":10275,"Ġldlt":10276,"thunkgen":10277,"EXASSOLVER":10278,"UNSPELL":10279,"LOQUENTTINYML":10280,"BEHAVIOR":10281,"ĠReactPackageProvider":10282,"NotImplemented":10283,"Ġequivalent":10284,"FILEREADER":10285,"marcoslucianops":10286,"'};<":10287,"(:":10288,")){<":10289,")*(":10290,"*\");<":10291,"-=":10292,".,":10293,".);<":10294,"300":10295,"54":10296,"97":10297,"<-":10298,"@+":10299,"AUDIO":10300,"AARCH":10301,"Available":10302,"Acce":10303,"Anti":10304,"BA":10305,"BC":10306,"Bl":10307,"Ban":10308,"BPL":10309,"BAB":10310,"Bias":10311,"Benchmark":10312,"BROW":10313,"Car":10314,"Cur":10315,"Cap":10316,"CED":10317,"CLO":10318,"CAPI":10319,"CATCH":10320,"DAT":10321,"DCS":10322,"Dlg":10323,"FV":10324,"Fun":10325,"Folder":10326,"FMT":10327,"GP":10328,"Giv":10329,"GTH":10330,"Hi":10331,"High":10332,"HASH":10333,"IFIER":10334,"JNI":10335,"Legacy":10336,"Mid":10337,"MGB":10338,"MATH":10339,"Motion":10340,"NV":10341,"OF":10342,"Pl":10343,"Pat":10344,"Pow":10345,"Plus":10346,"PHO":10347,"PartialPivLU":10348,"Ra":10349,"Ret":10350,"Risk":10351,"SA":10352,"Svd":10353,"Squares":10354,"SPLIT":10355,"TUR":10356,"Tax":10357,"Ugly":10358,"WARE":10359,"XMP":10360,"Xcd":10361,"Your":10362,"ZPL":10363,"Zeros":10364,"]',":10365,"^[":10366,"^*\\":10367,"_##":10368,"acon":10369,"bz":10370,"bble":10371,"bpm":10372,"battle":10373,"cj":10374,"cend":10375,"cum":10376,"dist":10377,"divisor":10378,"eloc":10379,"fi":10380,"fprintf":10381,"fence":10382,"future":10383,"gil":10384,"grid":10385,"guard":10386,"greater":10387,"hang":10388,"hilti":10389,"ians":10390,"irect":10391,"iano":10392,"ientation":10393,"jk":10394,"jun":10395,"jector":10396,"kth":10397,"ktl":10398,"ln":10399,"nic":10400,"pin":10401,"pream":10402,"pLine":10403,"pbuf":10404,"palindrome":10405,"plane":10406,"panic":10407,"qr":10408,"ramp":10409,"rone":10410,"rng":10411,"rviz":10412,"tft":10413,"uh":10414,"uang":10415,"vp":10416,"vas":10417,"wi":10418,"watch":10419,"wifi":10420,"warn":10421,"yang":10422,"{},":10423,"£ĺ":10424,"°éĬĪ":10425,"µåĢł":10426,"ãĤ":10427,"åł":10428,"ç£":10429,"é£ĺ":10430,"Ġ(),":10431,"Ġengine":10432,"Ġç»":10433,"ĨæŃ":10434,"invalid":10435,"dem":10436,"deal":10437,"stl":10438,"enge":10439,"atore":10440,"atlas":10441,"attach":10442,"erf":10443,"erfc":10444,"erbla":10445,"reed":10446,"restrict":10447,"//===":10448,"ories":10449,"Ġ\"#":10450,"Ġcat":10451,"Ġclient":10452,"esley":10453,"arbitrary":10454,"()%":10455,"Ġieml":10456,"Ġnall":10457,"covery":10458,"copt":10459,"Ġtc":10460,"Ġturn":10461,"Ġtower":10462,"aly":10463,"pas":10464,"Ġvulkan":10465,"Ġfactor":10466,"Ġfrequency":10467,"Ġ*********************":10468,"Ġ***<":10469,"Ġsig":10470,"Ġsupp":10471,"Ġsrand":10472,"Ġsaved":10473,"Ġsquares":10474,"Ġsince":10475,"Ġssecs":10476,"Ġpg":10477,"Ġpressed":10478,"Ġbox":10479,"Ġbubble":10480,"Ġrec":10481,"Ġrecord":10482,"launcher":10483,"room":10484,"ropy":10485,"roug":10486,"etch":10487,"unknown":10488,"unaryExpr":10489,">//}<":10490,"ĠAt":10491,"ERY":10492,"Ġ(<":10493,"izard":10494,"ĠSine":10495,"ĠSele":10496,"ĠStop":10497,"ĠSingle":10498,"Ġgit":10499,"Ġgive":10500,"Ġgtk":10501,"Ġguard":10502,"Ġisfinite":10503,"ĠCA":10504,"ĠCL":10505,"++];<":10506,"elon":10507,"edge":10508,"ĠEM":10509,"ĠTile":10510,"ĠTIME":10511,"ĠMode":10512,"ĠMem":10513,"ĠMac":10514,"ĠMethod":10515,"ĠMake":10516,"ĠPh":10517,"ĠPin":10518,"ĠPop":10519,"ĠPost":10520,"ĠPass":10521,"ĠPartialPivLU":10522,"imium":10523,"Ġ29":10524,"Ġday":10525,"Ġdummy":10526,"Ġdaisy":10527,"ENDIAN":10528,"Ġwi":10529,"Ġwidget":10530,"Ġinint":10531,"ALUE":10532,"sprintf":10533,"Inc":10534,"Ġ&,":10535,"Ġlater":10536,"Coord":10537,"LEAK":10538,"Ġhook":10539,"START":10540,"ĠGpu":10541,"body":10542,"adj":10543,"ĠDon":10544,"ĠDemo":10545,"ĠDNA":10546,"ĠDegrees":10547,"Ġifndef":10548,"ĠNArc":10549,"ĠNCompress":10550,"ARRAY":10551,"Ġjump":10552,"ATER":10553,"ATTR":10554,"PLATE":10555,"asci":10556,"oto":10557,"setThreshold":10558,"setMaxIterations":10559,"ĠFE":10560,"ĠFR":10561,"ĠFlotta":10562,"Ġnumerator":10563,"VectorXcd":10564,"ĠLPARAM":10565,"ĠLDLT":10566,"ĠRT":10567,"Ġev":10568,"ĠQue":10569,"ĠQVariantMap":10570,"Ġxerbla":10571,"ĠBUT":10572,"ĠBLAS":10573,"ĠBDCS":10574,"oggle":10575,"ogram":10576,"Eigenvalue":10577,"ANIM":10578,"ĠUC":10579,"ĠEigenBase":10580,"permutation":10581,"angent":10582,"compress":10583,"Ġrf":10584,"Ġramp":10585,"SEX":10586,"ĠWM":10587,"ĠWesley":10588,"estimated":10589,"Ġyields":10590,"Ġgetchar":10591,"ĠHw":10592,"ĠHouseholderQ":10593,"ĠHistory":10594,"lmng":10595,"Ġkern":10596,"QUERY":10597,"conjugate":10598,"concurrencpp":10599,"MOVE":10600,"2013":10601,"2022":10602,"ofstream":10603,"ntl":10604,"prob":10605,"proj":10606,"proxy":10607,"priority":10608,"ICALL":10609,"TOS":10610,"ĠVariable":10611,"ĠVoxelEngine":10612,"ĠVALUE":10613,"Ġ!!!<":10614,"ListItem":10615,"libav":10616,"librg":10617,"Enc":10618,"Encoding":10619,"IDTH":10620,"127":10621,"Ġ103":10622,"Ġregression":10623,"access":10624,"transposeInPlace":10625,"bust":10626,"SCENE":10627,"ĠsetF":10628,"ĠsetGroup":10629,"Ġcomputes":10630,"Ġcomplicated":10631,"tonc":10632,"resolution":10633,"CONN":10634,"CONVER":10635,"sumo":10636,"vecf":10637,"compare":10638,"Ġnoise":10639,"DataMatrix":10640,"illmap":10641,"ĠJacobi":10642,"Ġuninitialized":10643,"mous":10644,"mouse":10645,"Ġstrs":10646,"enums":10647,"facet":10648,"condition":10649,"ĠCount":10650,"Complete":10651,"Compressed":10652,"ComputeThin":10653,"Unsupported":10654,"Uneven":10655,"solveWith":10656,"solveInPlace":10657,"250":10658,"Ġconjugate":10659,"InfoFlags":10660,"ĠGLuint":10661,"Ġanony":10662,"SetValue":10663,"TERS":10664,"ENTITY":10665,"counting":10666,"Ġuf":10667,"Ġufomap":10668,"ĠArrayBase":10669,"RTC":10670,"ErrorFactor":10671,">/*!<":10672,"ĠoperatorSqrt":10673,"Ġgeneric":10674,"Ġtriangular":10675,"PROTECT":10676,"later":10677,"ModuleManager":10678,"Interpre":10679,"Interval":10680,"Three":10681,"SensorScanner":10682,"ImageLoader":10683,"makeJacobi":10684,"makeGiv":10685,"makeCompressed":10686,"Ġapplied":10687,"Ans":10688,"Animated":10689,"(&_":10690,"Ġlogarithm":10691,"Configuration":10692,"HorizontalSlider":10693,"ENSEAL":10694,"ä½µåĢł":10695,"Classic":10696,"triangular":10697,"eprint":10698,"ĠBaseSensor":10699,"CheckLabel":10700,"trade":10701,"ĠYs":10702,"VISION":10703,"InputStream":10704,"cosA":10705,"HelloWorld":10706,"Ġ320":10707,"ĠINF":10708,"ĠINPUT":10709,"Leaf":10710,"operatorInverse":10711,"ĠRowVectorXf":10712,"Ġnearest":10713,"ĠSparseMatrixBase":10714,"replace":10715,"SIVE":10716,"ĠLoRa":10717,"content":10718,"ween":10719,"UDP":10720,"Trace":10721,"cwiseProduct":10722,"ĠrunOnce":10723,"Transfer":10724,"UnitX":10725,"UnitY":10726,"UnitZ":10727,"PerSecond":10728,"glfw":10729,"Ġquite":10730,"Ġquasi":10731,"ĠParameter":10732,"ĠEngine":10733,"ĠEntry":10734,"ĠflTime":10735,"Ġequations":10736,"Ġsolves":10737,"ĠShutdown":10738,"leted":10739,"ADDR":10740,"Secret":10741,"Ġlmtk":10742,"TimerTool":10743,"æł¼":10744,"NoChange":10745,"ĠDefine":10746,"Ġ2018":10747,"ĠComputeThin":10748,"VerticalSlider":10749,"becomes":10750,"visor":10751,"Ġplatforms":10752,"ĠThen":10753,"ĠThat":10754,"ĠPLSD":10755,"SerialFormatter":10756,"sinA":10757,"Web":10758,"AndDet":10759,"dirent":10760,"ĠSubtract":10761,"ResourceProvider":10762,"eigenvector":10763,"eigenvalue":10764,"simdjson":10765,"ĠLLT":10766,"Asse":10767,"HouseholderQr":10768,"Ġcomma":10769,"!!!<":10770,"!!!\"":10771,"2818":10772,"infty":10773,"ĠNoChange":10774,"CounterSingleton":10775,"memcpy":10776,"ĠTranslation":10777,"nonZeros":10778,"__((__":10779,"RealSpace":10780,"fullPivHouseholderQr":10781,"rements":10782,"ĠILike":10783,"Recursive":10784,"ĠColPivHouseholderQ":10785,"ĠLOCK":10786,"0400":10787,"Ġspan":10788,"ĠPrimitive":10789,"Ġadjoint":10790,"Broker":10791,"Ġ\")\\":10792,"Ġbuttons":10793,"Ġtimespec":10794,"scribe":10795,"RadioLabel":10796,"999999":10797,"9999999999":10798,"ĠOutputStream":10799,"DOUB":10800,"NullaryExpr":10801,"Ġsmallest":10802,"SharedCount":10803,"Ġcombines":10804,"ĠDeclarations":10805,"ĠGLEffect":10806,"ĠmousePressEvent":10807,"selectPlayers":10808,"pressed":10809,"Calc":10810,"ĠKeyboard":10811,"CRITICAL":10812,"Ġactivate":10813,"Ġtransposed":10814,"yyyy":10815,"Ġdllimport":10816,"Ġdimension":10817,"lgamma":10818,"ĠtensorV":10819,"Weapons":10820,"POSITION":10821,"ĠFullPivHouseholderQR":10822,"householderQr":10823,"Ġremote":10824,"ĠAudioDevice":10825,"Ġlegal":10826,"Splitter":10827,"åĪ¶":10828,"fibonacci":10829,"åĢ¼":10830,"åħ¥åı£":10831,"DeathMatch":10832,"suite":10833,"ĠLayer":10834,"InterruptManager":10835,"Finally":10836,"LENGTH":10837,"RUNN":10838,"auss":10839,"ĠFastSIMD":10840,"Skillmap":10841,"operations":10842,"Reduce":10843,"pseudoEigenvectors":10844,"pseudoEigenvalue":10845,"Ġfragments":10846,"Ġpresented":10847,"ĠUserConfig":10848,"ĠENUMERATE":10849,"computeInverseWithCheck":10850,"computeInverseAndDet":10851,"ĠapplyOnTheLeft":10852,"ĠapplyOnTheRight":10853,"GeneralizedEigenSolver":10854,"GeneralizedSelfAdjointEigenSolver":10855,"PANEL":10856,"ICKER":10857,"ĠEyerPlayerEvent":10858,"ä¿Ĭè¾ĳ":10859,"Ġ${":10860,"Ġå®ļä¹ī":10861,"ResetEvent":10862,"Ġfailtest":10863,"èĬ¯":10864,"apsack":10865,"ĠImplementation":10866,"ĠåºĨæŃ":10867,"Capacity":10868,"Ġswapping":10869,"Ġbinomial":10870,"ĠRadians":10871,"ordinate":10872,"Blueprint":10873,"CryptoPP":10874,"Nearest":10875,"RANDOM":10876,"VBoxLayout":10877,"Ġintegers":10878,"bridge":10879,"poisson":10880,"Ġcopies":10881,"ĠCosine":10882,"pszName":10883,"çľ°éĬĪ":10884,">/********************":10885,"Ġrgbf":10886,"QRCodeRunnable":10887,"ĠSHARED":10888,"Diving":10889,"Ġlarger":10890,"thinQ":10891,"Ġseveral":10892,"Ġdenominatore":10893,"éĬĪæİĵçľ°éĬĪ":10894,"betas":10895,"Ġessential":10896,"onusObject":10897,"Ġrclcpp":10898,"Ġregarding":10899,"Ġseparate":10900,"ĠåĽº":10901,"LoginView":10902,"ĠTeensyTimerTool":10903,"ĶçĶ¨ç¨ĭåºıçļĦåħ¥åı£":10904,"(:,":10905,"Banas":10906,"FVR":10907,"Patrol":10908,"PHOTO":10909,"elocity":10910,"nicmp":10911,"preamble":10912,"rough":10913,"ĠNArcInfoFlags":10914,"ascii":10915,"Ġnumerators":10916,"ĠBUTTON":10917,"ĠBDCSVD":10918,"ĠHouseholderQR":10919,"ĠJacobiSVD":10920,"ComputeThinU":10921,"solveWithGuess":10922,"Ġanonymous":10923,"makeGivens":10924,"operatorInverseSqrt":10925,"ĠComputeThinV":10926,"ĠSubtracting":10927,"ĠILikeBanas":10928,"ĠColPivHouseholderQR":10929,"DOUBLE":10930,"pseudoEigenvalueMatrix":10931,"computeInverseAndDetWithCheck":10932,"ĠåºĨæŃ¹":10933,"éĬĪæİĵçľ°éĬĪä½µåĢł":10934,"ĶçĶ¨ç¨ĭåºıçļĦåħ¥åı£çĤ¹":10935,"!\\":10936,"!\");<":10937,"([":10938,")&":10939,")?":10940,")__":10941,"):\\":10942,"77":10943,"84":10944,"91":10945,"911":10946,"926":10947,":%":10948,"=<":10949,"=*/":10950,">\"<":10951,">):\"":10952,"?<":10953,"AZ":10954,"BD":10955,"BIGEN":10956,"Bill":10957,"CAT":10958,"CIDR":10959,"DATE":10960,"DShape":10961,"Digits":10962,"Friend":10963,"Finished":10964,"FROM":10965,"GA":10966,"Gate":10967,"Hold":10968,"HTTP":10969,"Holog":10970,"HUNSPELL":10971,"II":10972,"IpAddress":10973,"JMol":10974,"LD":10975,"LJ":10976,"Lambda":10977,"Mak":10978,"MListBox":10979,"MXml":10980,"Mapping":10981,"NAK":10982,"OKUP":10983,"OLEAN":10984,"Plane":10985,"Pipeline":10986,"POLY":10987,"QDebug":10988,"RB":10989,"Ren":10990,"RIX":10991,"Rational":10992,"Rviz":10993,"RANGE":10994,"Send":10995,"SQU":10996,"Solution":10997,"Switch":10998,"Safe":10999,"Shell":11000,"TIN":11001,"TIT":11002,"Take":11003,"TFT":11004,"Tutor":11005,"TASK":11006,"Uv":11007,"UUID":11008,"VH":11009,"Vm":11010,"VBase":11011,"Wide":11012,"XM":11013,"XXi":11014,"Ys":11015,"ZActor":11016,"[',":11017,"]\"":11018,"]));<":11019,"]]);<":11020,"auncher":11021,"bro":11022,"cre":11023,"crc":11024,"dg":11025,"dk":11026,"dtype":11027,"dxvk":11028,"eel":11029,"eins":11030,"ful":11031,"fold":11032,"grow":11033,"google":11034,"gcd":11035,"hr":11036,"home":11037,"haped":11038,"hidden":11039,"ior":11040,"ient":11041,"jump":11042,"lion":11043,"lmpl":11044,"lhs":11045,"mk":11046,"mob":11047,"metry":11048,"ns":11049,"nul":11050,"oot":11051,"oading":11052,"patch":11053,"ponder":11054,"qtt":11055,"simple":11056,"sSizable":11057,"sql":11058,"slice":11059,"tile":11060,"uck":11061,"udent":11062,"ufomap":11063,"uyang":11064,"vh":11065,"wit":11066,"zma":11067,"zwei":11068,"zhang":11069,"}\",":11070,"ªé¢ĩèĢģ":11071,"¼ı":11072,"åĥ":11073,"ç¬":11074,"çĭ¼":11075,"è´":11076,"è½":11077,"èĮħ":11078,"éĴ":11079,"Ġ../":11080,"Ġray":11081,"Ġ++;<":11082,"Ġangle":11083,"ĵªé¢ĩèĢģ":11084,"Ŀèģªä¿ĥ":11085,"dera":11086,"delay":11087,"decrypt":11088,"depng":11089,"ĠĠĠĠčĊ":11090,"stac":11091,"sters":11092,"stead":11093,"enet":11094,"only":11095,"atives":11096,"lusters":11097,"reader":11098,"request":11099,"Ġ\":":11100,"Ġ\"{":11101,"inct":11102,"Ġcf":11103,"Ġcy":11104,"Ġclose":11105,"ceptr":11106,"cell":11107,"Ġmeta":11108,"Ġmsd":11109,"ries":11110,"risc":11111,"leg":11112,"()),":11113,"ĠiA":11114,"ĠiSize":11115,"Ġns":11116,"Ġnames":11117,"ctrl":11118,"cogn":11119,"another":11120,"ĠtC":11121,"Ġtb":11122,"Ġtw":11123,"Ġtic":11124,"Ġtab":11125,"alth":11126,"icTo":11127,"idate":11128,"Ġff":11129,"Ġfin":11130,"Ġfio":11131,"Ġ*>(":11132,"Ġ*****************************************************************":11133,"ittle":11134,"Ġsnd":11135,"Ġsys":11136,"Ġsizable":11137,"Ġseries":11138,"Ġsieve":11139,"Ġpwn":11140,"Ġbias":11141,"Ġremain":11142,"ssd":11143,"Ġactor":11144,"lared":11145,"lake":11146,"rocm":11147,"ateDialog":11148,"ubit":11149,"Ġoct":11150,"exe":11151,"usic":11152,"ERIC":11153,"ĠSER":11154,"ĠSObj":11155,"ĠSophus":11156,"olta":11157,"ĠisPrime":11158,"ĠCT":11159,"ĠCall":11160,"ĠCMP":11161,"ĠCOP":11162,"ĠClose":11163,"ĠCell":11164,"ĠCLI":11165,"ĠEnum":11166,"ĠEmit":11167,"ĠElem":11168,"ĠEye":11169,"ĠEAX":11170,"translate":11171,"chow":11172,"ĠTd":11173,"ĠTwo":11174,"ĠTicTo":11175,"ĠMX":11176,"ĠMLIB":11177,"ĠModel":11178,"iod":11179,"ilar":11180,"ĠPD":11181,"ĠPOW":11182,"ĠPipeline":11183,"Ġdq":11184,"Ġdai":11185,"ENUM":11186,"Ġwarp":11187,"Ġinstring":11188,"Ġindependent":11189,"Ġ:\"<<":11190,"spin":11191,"Information":11192,"InnerStride":11193,"Cooler":11194,"REA":11195,"REQUEST":11196,"STYLE":11197,"ĠGen":11198,"ĠGrade":11199,"ĠGOOGLE":11200,"geo":11201,"ĠDem":11202,"ĠDele":11203,"ĠDai":11204,"Ġchip":11205,"ircon":11206,"ARM":11207,"preorder":11208,"asound":11209,"Ġ47":11210,"Ġ4096":11211,"DEx":11212,"Study":11213,"setzero":11214,"Ġ300":11215,"ĠLambda":11216,"ĠLegacy":11217,"ĠRed":11218,"ĠRelease":11219,"Ġeith":11220,"getName":11221,"Ġxx":11222,"Ġxor":11223,"->_":11224,"ĠBIT":11225,"ĠUp":11226,"ĠUPD":11227,"ITCH":11228,"ITTER":11229,"Ġ'%":11230,"Ġ']',":11231,"ĠMatrixPower":11232,"ometh":11233,"omnet":11234,"ttp":11235,"ĠWR":11236,"ĠWPARAM":11237,"ĠWarning":11238,"ĠHand":11239,"ĠHot":11240,"ĠHud":11241,"ĠHide":11242,"ĠHIGH":11243,"ĠkConfig":11244,"ĠkBasic":11245,"console":11246,"material":11247,"Ġdev":11248,"Ġdelim":11249,"Profile":11250,"ntddk":11251,"profile":11252,"primitive":11253,"primes":11254,");};<":11255,"TODO":11256,"SHI":11257,"elevations":11258,"ĠVfsArchive":11259,"[]<":11260,"libil":11261,"ffml":11262,"Encryp":11263,"Ġprotocol":11264,"quit":11265,"Ġmaxlen":11266,"ĠmaxLen":11267,"DIST":11268,"accept":11269,"BaseSymbol":11270,"SCII":11271,"ystick":11272,"astle":11273,"Ġhex":11274,"Ġhehe":11275,"ĠsepLine":11276,"Ġcomput":11277,"activate":11278,"WindowRenderer":11279,"WindowFactory":11280,"Ġthrough":11281,"antic":11282,"LOOKUP":11283,"Ġstrings":11284,"Boiler":11285,"EXTRA":11286,"ĠExample":11287,"INGCLASS":11288,"logic":11289,"Ġdefaults":11290,"CONSOLE":11291,"Reverse":11292,"Report":11293,"Repository":11294,"Ġåĵªé¢ĩèĢģ":11295,"cls":11296,"tip":11297,"ĠInsert":11298,"DataBase":11299,"msa":11300,"illis":11301,"Ġ60":11302,"Touch":11303,"Ġ|<":11304,"coded":11305,")))":11306,")))<":11307,"ĠGetCurrent":11308,"FunctionType":11309,"ĠStandard":11310,"ĠStatus":11311,"moe":11312,"mount":11313,"Ġends":11314,"Ġendpoint":11315,"ĠendOfCamera":11316,"Compile":11317,"beginning":11318,"ustum":11319,"InfoRunnable":11320,"ELEMENT":11321,"ĠminPrice":11322,"Reshaped":11323,"Responder":11324,"measurement":11325,"KEE":11326,"Ġdpi":11327,"Bucket":11328,"ĠPROJECT":11329,"Ġuv":11330,"Ġcontribut":11331,"Ġcontrol":11332,"minimum":11333,"Ġdocopt":11334,"Ġllf":11335,"AddParam":11336,"cfg":11337,"ĠZPL":11338,"rolling":11339,"apply":11340,"MyWindows":11341,"PathSum":11342,"Ġedge":11343,"LogicOperatorType":11344,"people":11345,"tesseract":11346,"ĠbeginningOfCamera":11347,"ImplTraits":11348,"FFmpeg":11349,"noop":11350,"graphml":11351,"Ġparty":11352,"Heater":11353,"RenderEffect":11354,"ĠIDR":11355,"FLOOR":11356,"Anagram":11357,"]))<":11358,"tograph":11359,"HandleImpl":11360,"Ġ**<":11361,"ConfigFile":11362,"!=(":11363,"blnd":11364,"ĠCOM":11365,"sqrtA":11366,"exceptions":11367,"Ġstarts":11368,"Ġscreen":11369,"Ġ...)<":11370,"åĲį":11371,"UIApplicationDelegate":11372,"ĠBaseSymbol":11373,"mdk":11374,"normalize":11375,"CODES":11376,"GraphModification":11377,"1415":11378,"help":11379,"Adv":11380,"Adafruit":11381,"ĠUnused":11382,"ĠUniform":11383,"tensors":11384,"Ġwhere":11385,"modulo":11386,"Declared":11387,"PyOS":11388,"ĠAddParam":11389,"Ġtargets":11390,"Tasks":11391,"Ġusage":11392,"FILESYS":11393,"allocator":11394,"ZEffect":11395,"general":11396,"OutStream":11397,"OuterStride":11398,"itionalWrapper":11399,"openHorizontalTable":11400,"ĠAnime":11401,"Ġroom":11402,"Trader":11403,"ALLBACK":11404,"ĠstateBroadcaster":11405,"ĠCombo":11406,"ĠCompare":11407,"EditBox":11408,"registrar":11409,"HeaderList":11410,"umpy":11411,"miss":11412,"ĠChange":11413,"SIMPLE":11414,"Ġimplicit":11415,"Ġimperative":11416,"Passes":11417,"Ready":11418,"limit":11419,"ĠéĤ":11420,"hashmap":11421,"PRISM":11422,"quire":11423,"NESS":11424,"USED":11425,"Printer":11426,"PRELU":11427,"ĠSTATE":11428,"ĠNumeric":11429,"CameraActor":11430,"Ġincre":11431,"AutoSize":11432,"AutoLock":11433,"AutoOrder":11434,"processors":11435,"Tokenizer":11436,"Ġworker":11437,"Minimal":11438,"ĠINTER":11439,"GBA":11440,"ĠcurrentFrame":11441,"MutexImpl":11442,"ĉĉĉĉĉĉ":11443,"ĠUIWindow":11444,"ĠUIResponder":11445,"Users":11446,"Ġexternal":11447,"instancetype":11448,"yscall":11449,"ĠAlloc":11450,"ĠAlbum":11451,"telemetry":11452,"ĠWei":11453,"wdf":11454,"TempExpression":11455,"NetId":11456,"NetRepository":11457,"buttons":11458,"CatchmentRealization":11459,"DateTime":11460,"ĠAppEvent":11461,"ĠApply":11462,"ĠPrime":11463,"}):\\":11464,"ĠARDUINO":11465,"ĠeigenVectors":11466,"ByteS":11467,"Ġcalculate":11468,"Ġhighlight":11469,"Ġdestroy":11470,"Ġdestination":11471,"QuestMap":11472,"Manual":11473,"Mania":11474,"Detect":11475,"ursion":11476,"PROTOBUF":11477,"ĠAutoSize":11478,"CppGenericContext":11479,"CppGenericInst":11480,"Ġsupervisor":11481,"Ġigmdk":11482,"ExpStatement":11483,"NGX":11484,"ĠCONFIG":11485,"2640":11486,"AAAA":11487,"ĠGLEFFECT":11488,"ĠGLEWAPI":11489,"LABEL":11490,"selected":11491,"ĠyyFlexLexer":11492,"Ticks":11493,"password":11494,"IFY":11495,"()<<\"":11496,"EigenvaluesOnly":11497,"Cards":11498,"Ġwtn":11499,"ĠrtGet":11500,"12345678":11501,"antiations":11502,"GLEW":11503,"PinManager":11504,"ĠCalc":11505,"ĠIRBAB":11506,"ĠUTF":11507,"ĠUTILITY":11508,"Ġdecltype":11509,"ĠQStringListModel":11510,"Turbine":11511,"çªį":11512,"btn":11513,"Ġfront":11514,"ErrorCodes":11515,"SWITCH":11516,"sym":11517,"ĠFramework":11518,"UMBLE":11519,"cgal":11520,"juste":11521,"Ġdllmain":11522,"ZTASK":11523,"Ġ{'[',":11524,"ĠSysMesBox":11525,"ĠConditionalWrapper":11526,"TabFrameItem":11527,"ĠSignal":11528,"LEEP":11529,"fourth":11530,"Unrealcv":11531,"DebuggerPresent":11532,"Join":11533,"MediaPlayer":11534,"TelemetrySensor":11535,"Ġppl":11536,"Ġdownload":11537,"ĠLinspace":11538,"å¯¹":11539,"assignments":11540,"vertexShader":11541,"AUTHOR":11542,"SoloGladiator":11543,"Ġmultiple":11544,"mptsView":11545,"scripten":11546,"ĠStdAfx":11547,"FOLDERS":11548,"qwdialog":11549,"Ġromulator":11550,"ĠTOKEN":11551,"ĠMsgFunc":11552,"ĠRotate":11553,"ĠkNumM":11554,"TypeTemplateClassTemplate":11555,"æ¶Ŀèģªä¿ĥ":11556,"ĠCmptAccessPtr":11557,"Snap":11558,"SWISH":11559,"Ġnetapi":11560,"Ġfacebook":11561,"macosx":11562,"existing":11563,"sertionSort":11564,"MLIRContext":11565,"Account":11566,"PublisherVariables":11567,"rfks":11568,"visioning":11569,"ĠStructure":11570,"multiprecision":11571,"ĠFUAvatar":11572,"BPLib":11573,"TURN":11574,"pasjuste":11575,"ĠQueue":11576,"ĠåĽºåºľ":11577,"BIGENDIAN":11578,"Billboard":11579,"Hologram":11580,"NAKED":11581,"TITLE":11582,"stacle":11583,"ceptron":11584,"riscv":11585,"oltage":11586,"ĠCOPY":11587,"ĠEAXJMP":11588,"chowdsp":11589,"ĠTicToc":11590,"Ġeither":11591,"omething":11592,"omnetpp":11593,"ĠkBasicVersion":11594,"ffmlp":11595,"INGCLASSIFIER":11596,"Ġåĵªé¢ĩèĢģçŃī":11597,"openHorizontalTableBox":11598,"!\";<":11599,"']":11600,"'.\"<":11601,")\");<":11602,")((":11603,",{":11604,"/_":11605,"700":11606,"794":11607,"81":11608,"AAB":11609,"BAD":11610,"CLE":11611,"Candies":11612,"Dxso":11613,"EGL":11614,"ElGamal":11615,"FN":11616,"Fr":11617,"Fine":11618,"FString":11619,"Final":11620,"FONT":11621,"FOLD":11622,"GX":11623,"Git":11624,"GreppingDlg":11625,"Hal":11626,"Has":11627,"HIGH":11628,"Hidden":11629,"HONE":11630,"Hanoi":11631,"ISE":11632,"Items":11633,"JPEG":11634,"Lif":11635,"LON":11636,"Low":11637,"Lap":11638,"Live":11639,"LITER":11640,"MPEG":11641,"MSVC":11642,"Mqtt":11643,"Nan":11644,"NORM":11645,"OES":11646,"Public":11647,"PSP":11648,"PVOID":11649,"Pixel":11650,"Physics":11651,"Plot":11652,"Palette":11653,"QText":11654,"QFont":11655,"QColor":11656,"QTimer":11657,"QLineEdit":11658,"QITC":11659,"Rq":11660,"REN":11661,"SIN":11662,"SING":11663,"SandboxLayer":11664,"Torch":11665,"Tips":11666,"UCE":11667,"Udc":11668,"UPPER":11669,"USIVE":11670,"VK":11671,"VALID":11672,"WEB":11673,"Ways":11674,"Warp":11675,"Wonder":11676,"Walkable":11677,"XX":11678,"XY":11679,"]]=":11680,"`.<":11681,"aintEvent":11682,"bI":11683,"bad":11684,"bba":11685,"crash":11686,"dq":11687,"due":11688,"dcc":11689,"eq":11690,"fragment":11691,"games":11692,"gFilter":11693,"ggui":11694,"gUtf":11695,"hy":11696,"hread":11697,"ik":11698,"lc":11699,"mx":11700,"moid":11701,"mLib":11702,"metadata":11703,"metrics":11704,"melon":11705,"nl":11706,"oice":11707,"peg":11708,"pframe":11709,"rd":11710,"rinc":11711,"rend":11712,"ration":11713,"rgb":11714,"sf":11715,"sid":11716,"single":11717,"sGroup":11718,"scoped":11719,"tv":11720,"tre":11721,"tool":11722,"trig":11723,"tjs":11724,"uk":11725,"ula":11726,"xa":11727,"xr":11728,"xor":11729,"ym":11730,"zure":11731,"zpl":11732,"zircon":11733,"}_":11734,"¡£":11735,"©º":11736,"å§":11737,"æ¨":11738,"ç´":11739,"çī":11740,"çİ":11741,"ç©º":11742,"è¡":11743,"è¿":11744,"Ġet":11745,"Ġel":11746,"Ġutility":11747,"Įè¤ī":11748,"ĵèģªä¿ĥ":11749,"inity":11750,"det":11751,"demo":11752,"deprecated":11753,"ĠĠĠĠĉĠĠĠ":11754,"sto":11755,"stx":11756,"enContext":11757,"onic":11758,"onetime":11759,"onometric":11760,"ertion":11761,"rem":11762,"retri":11763,"//#":11764,"Ġ\".":11765,"Ġ\"_":11766,"Ġ\"\");<":11767,"Ġ\"!!":11768,"Ġcases":11769,"Ġcpasjuste":11770,"amount":11771,"Ġmsbl":11772,"endar":11773,"esis":11774,"rier":11775,"(){};<":11776,"Ġimode":11777,"Ġideal":11778,"Ġnan":11779,"Ġnom":11780,"ĠnID":11781,"ingObject":11782,"Ġte":11783,"Ġtre":11784,"Ġtweets":11785,"ality":11786,"allow":11787,"iffer":11788,"icular":11789,"ids":11790,"Ġvld":11791,"Ġfloor":11792,"Ġfocused":11793,"ited":11794,"Ġsf":11795,"Ġser":11796,"Ġsound":11797,"Ġscc":11798,"urtle":11799,"Ġput":11800,"Ġpts":11801,"Ġpitch":11802,"Ġpsz":11803,"ĠpListener":11804,"Ġbad":11805,"Ġbrow":11806,"Ġabc":11807,"lomon":11808,"loaded":11809,"ett":11810,"etpp":11811,"strcpy":11812,"strnicmp":11813,"untry":11814,"Ġcoeff":11815,"Ġcocos":11816,"Ġoccur":11817,"dog":11818,"Ġ(*)(":11819,"Ġmapper":11820,"ĠSum":11821,"ĠSpec":11822,"ĠSET":11823,"ĠSparse":11824,"ĠService":11825,"ĠSphere":11826,"olve":11827,"ĠCard":11828,"ĠCEntity":11829,"ĠCloud":11830,"ĠClipboard":11831,"ĠCAMERA":11832,"ĠEC":11833,"ĠELS":11834,"ckLink":11835,"__(\"":11836,"Ġconstants":11837,"stringstream":11838,"ĠTVec":11839,"ĠTelemetry":11840,"ĠTENSEAL":11841,"ĠMVector":11842,"ĠMark":11843,"ĠMETH":11844,"iodic":11845,"ĠPg":11846,"ĠPort":11847,"ĠPos":11848,"ĠPose":11849,"ĠPower":11850,"ĠPAGE":11851,"ĠPalindrome":11852,"ĠPATH":11853,"impacto":11854,"Ġ250":11855,"Ġdh":11856,"ulse":11857,"Ġwid":11858,"Ġwog":11859,"argin":11860,"ALLE":11861,"Instr":11862,"InEvent":11863,"Indirect":11864,"Invalid":11865,"Including":11866,"Integration":11867,"istogram":11868,"Ġ&<":11869,"constant":11870,"REL":11871,"REQ":11872,"Ġhint":11873,"ĠhInstance":11874,"Ġhidden":11875,"STICKER":11876,"ĠGx":11877,"streamsize":11878,"ĠDist":11879,"irk":11880,"ĠNAME":11881,"ARGE":11882,"PLSU":11883,"ecs":11884,"asm":11885,"asio":11886,"ands":11887,"anding":11888,"alltypes":11889,"Ġ45":11890,"DEV":11891,"DECK":11892,"DEVICE":11893,"Sticker":11894,"ĠFormal":11895,"ĠFNM":11896,"ĠFILTER":11897,"IMA":11898,"ILL":11899,"ĠLine":11900,"ĠLength":11901,"ĠLower":11902,"ĠLinear":11903,"ĠRel":11904,"ĠRep":11905,"Ġemp":11906,"ctionary":11907,"RandomNumber":11908,"ĠQFrame":11909,"ĠQIcon":11910,"Ġtouch":11911,"lier":11912,"ĠBSD":11913,"ĠBridge":11914,"ogl":11915,"ĠUint":11916,"ĠUrl":11917,"ĠUCHAR":11918,"Ġartist":11919,"agnostics":11920,"Ġfilepath":11921,"perspective":11922,"structs":11923,"Ġ')":11924,"thing":11925,"ernet":11926,"angora":11927,"1010":11928,"ULAR":11929,"SELECT":11930,"MET":11931,"MESH":11932,"estamp":11933,"reduction":11934,"Ġyaw":11935,"ĠgetA":11936,"ĠgetDistance":11937,"ĠgetFull":11938,"ĠgetMetrics":11939,"ĠHardware":11940,"constructor":11941,"<<\"-":11942,"EXP":11943,"EXPECT":11944,"ROUP":11945,"vival":11946,"prom":11947,"progress":11948,"prologue":11949,"processedSize":11950,"series":11951,"price":11952,"prism":11953,"TOP":11954,"IGN":11955,"SHA":11956,"TypeCvtImpl":11957,"anspar":11958,"COMB":11959,"Ġprofit":11960,"quant":11961,"UNINIT":11962,"UNUSED":11963,"scii":11964,"indices":11965,"1262":11966,"1268":11967,"Ġregex":11968,"Ġregular":11969,"builder":11970,"regular":11971,"NodeType":11972,"Ġtransfer":11973,"Ġseen":11974,"fileName":11975,"toString":11976,"Ġexists":11977,"WindowConn":11978,"CHO":11979,"CHANGE":11980,"SSp":11981,"ĠXPRESS":11982,"abstract":11983,"ĠExpr":11984,"formal":11985,"Deprecated":11986,"UTOR":11987,"UTILITY":11988,"Reactor":11989,"Requi":11990,"Replay":11991,"combine":11992,"ĠInanimateObject":11993,"DataProvider":11994,"ipc":11995,"ĠJump":11996,"ĠJUCE":11997,"Scr":11998,"Scan":11999,"ScanToken":12000,"Ġ600":12001,"REGULAR":12002,"ftStraFact":12003,"Chams":12004,"codes":12005,"))/":12006,"ĠGetName":12007,"Ġesp":12008,"Completion":12009,"GetC":12010,"GetGlobal":12011,"GetCurrent":12012,"PINMANAGER":12013,"PINREADER":12014,"NOISE":12015,"NOCHANGE":12016,"Union":12017,"Unload":12018,"Ġlevk":12019,"FileWriter":12020,"Refcount":12021,"0159":12022,"ĠGLboolean":12023,"Ġanimation":12024,"Resolver":12025,"1001":12026,"10005":12027,"ĠArg":12028,"ĠArchive":12029,"BuiltinType":12030,"Ġprimitive":12031,"Short":12032,"ĠRESOURCE":12033,"assign":12034,"associ":12035,"ysclass":12036,"ASM":12037,"ASIN":12038,"Ġexpr":12039,"cvm":12040,"ĠZMID":12041,"Ġsubset":12042,"Ġsubseq":12043,"OTH":12044,"blocks":12045,"Packer":12046,"Ġspecial":12047,"PathProvider":12048,"ccurr":12049,"Ġtrim":12050,"ĠtriMesh":12051,"00000000":12052,"showTeam":12053,"interpreter":12054,"Ġorientation":12055,"eek":12056,"Than":12057,"IMPORTS":12058,"solomon":12059,"GameProcess":12060,"BOOT":12061,"BOARD":12062,"LINEAR":12063,"CppChar":12064,"wards":12065,"Ġkeyword":12066,"avy":12067,"Ġ2021":12068,"IPHONE":12069,"Ġ(\"\\":12070,"bindings":12071,"popcount":12072,"tridiagonalization":12073,"CheckBox":12074,"å¤į":12075,"ĠMatQuad":12076,"ĠinitWith":12077,"Ġzlib":12078,"Filters":12079,"tracy":12080,"ĠSystemClock":12081,"PERSON":12082,"BITMAP":12083,"CONFIGS":12084,"Ġ-->":12085,"SBStackView":12086,"lines":12087,"ĠINVALID":12088,"inyin":12089,"fcntl":12090,"ĠRows":12091,"Subject":12092,"Ġmodify":12093,"DebugName":12094,"packing":12095,"powc":12096,"FILEWRITER":12097,"PacketHandler":12098,"hair":12099,"ĠLoop":12100,"RegisterCodec":12101,"GEOME":12102,"Tracer":12103,"218":12104,"ĠScanToken":12105,"Transpose":12106,"TeamGladiator":12107,"EditTime":12108,"PerM":12109,"EntityID":12110,"GLOBALS":12111,"]+$":12112,"]+[":12113,"ĠEnable":12114,"ĠBlocks":12115,"NotLoaded":12116,"cie":12117,"hpet":12118,"RESOLVER":12119,"localization":12120,"lette":12121,"readed":12122,"ĠinitialLoad":12123,"Helpers":12124,"Security":12125,"Ġ{}\",":12126,"Comment":12127,"SceneObject":12128,"MouseButton":12129,"ĠObjective":12130,"COMPILE":12131,"Ġ2014":12132,"Ġopens":12133,"ĠSTFT":12134,"ĠlengthOf":12135,"Ġexecute":12136,"kane":12137,"ĠszName":12138,"ĠloggerChain":12139,"Android":12140,"FILEN":12141,"ĠSubsystem":12142,"ĠResize":12143,"terminate":12144,"Resources":12145,"740":12146,"AsioSerialPortClient":12147,"ĠEventType":12148,"Monot":12149,"MOCKSENSOR":12150,"StdString":12151,"PowerSeries":12152,"Ġrad":12153,"lections":12154,"Ġsignals":12155,"Ġaccount":12156,"gnu":12157,"ĠPLSC":12158,"CHECKPOINT":12159,"MTS":12160,"ZRuleBaseQuest":12161,"megcore":12162,"ArduinoJson":12163,"timestamp":12164,"Install":12165,"MACROS":12166,"Services":12167,"SimpleWindowConn":12168,"ĠARM":12169,"FuncEnum":12170,"ĠresizeEvent":12171,"Dimension":12172,"Ġrotation":12173,"Ġrespective":12174,"LastEditTime":12175,"Ġgood":12176,"Features":12177,"DBFilter":12178,"ĠsearchBST":12179,"Ġthreads":12180,"OPENMP":12181,"ĠConfiguration":12182,"Ġ-*-<":12183,"ĠLPCTSTR":12184,"è¤Ł":12185,"Ġwords":12186,"AccessTypeID":12187,"Executable":12188,"YZER":12189,"dxso":12190,"dxgi":12191,"jacency":12192,"BLUE":12193,"Super":12194,"Worker":12195,"ĠCOND":12196,"Prev":12197,"onnx":12198,"GeneratorBuildingHolo":12199,"TIMEKEE":12200,"ĠThreadLocalValue":12201,")<<\"\\":12202,"793":12203,"ĠOptions":12204,"IMPLEMENTED":12205,"SETTING":12206,"SysAllocator":12207,"caten":12208,"yyFlexLexer":12209,"Ġdllexport":12210,"HelpScreen":12211,"ĠPRISM":12212,"ĠPRIMA":12213,"ĠGeneric":12214,"ĠGenerate":12215,"IMAGELOADER":12216,"ĠIOCTL":12217,"Fiend":12218,"neon":12219,"GpuResource":12220,"Ġbiggest":12221,"GLEWAPI":12222,"NETWORK":12223,"pmr":12224,"]>='":12225,"Ġskip":12226,"ĠFASTNOISE":12227,"Ġdeclarations":12228,"SERIALPORTCLIENT":12229,"SERIALFORMATTER":12230,"LinkedListNode":12231,"MSG":12232,"inglyLinkedListNode":12233,"COPYABLE":12234,"lapsedTimer":12235,"Ġfrustum":12236,"EYERPLAYEREVENT":12237,"Ġrecursive":12238,"Glyph":12239,"Binder":12240,"Reduction":12241,"Ġcapacity":12242,"Dependencies":12243,"multiply":12244,"TVP":12245,"branch":12246,"ĠDirectX":12247,"GRAPHICSVIEW":12248,"SegmentTree":12249,"HexFiend":12250,"Movable":12251,"PANE":12252,"Ġverbose":12253,"Ġaccum":12254,"ĠNullMenu":12255,"HeapObj":12256,"ĠSeetaFaceInfo":12257,"Words":12258,"transaction":12259,"Hwang":12260,"tutorial":12261,"Ġnegative":12262,"reference":12263,"EyerAVFFmpeg":12264,"INTERRUPTMANAGER":12265,"ĠAsioSerialPortClient":12266,"DecodeQueue":12267,"opensslconf":12268,"ĠHeapObj":12269,"nail":12270,"Ġmanually":12271,"Ġlyrics":12272,"Survival":12273,"SkyBox":12274,"rustController":12275,"itudeController":12276,"Ġrepresentation":12277,"ĠELF":12278,"INTRUSIVE":12279,"SPRITE":12280,"Bottom":12281,"Handlers":12282,"Polynomial":12283,"tetgen":12284,"Ġomnetpp":12285,"ĠStore":12286,"Reply":12287,"1000000007":12288,"HydroFeature":12289,"Mean":12290,"aLibFeature":12291,"èĮĦ":12292,"ceiveInput":12293,"ĠSUPPORT":12294,"TestDataPath":12295,"kaust":12296,"Ġnatural":12297,"Ġbetween":12298,"ĠStyle":12299,"19937":12300,"200009":12301,"RigidBody":12302,"gregate":12303,"åŃĺ":12304,"focus":12305,"Ġpayload":12306,"CppReflectionType":12307,"DomainObject":12308,"Accel":12309,"Curve":12310,"CATCHMENT":12311,"ĠUCNAME":12312,"CONNECT":12313,"ErrorFactorAD":12314,"steady":12315,"Ġmsdf":12316,"legacy":12317,"ĠElemwise":12318,"CoolerBuildingHolo":12319,"ĠDelete":12320,"ĠReduce":12321,"ĠheheHwang":12322,"BoilerBuildingHolo":12323,"Ġpartyid":12324,"HeaterBuildingHolo":12325,"tography":12326,"ĠGLEWAPIENTRY":12327,"ĠIRBABY":12328,"TurbineBuildingHolo":12329,"LITERAL":12330,"MqttClient":12331,"WonderTrader":12332,"fragmentShader":12333,"rincess":12334,"trigonometric":12335,"onetimeauth":12336,"ĠTelemetrySensor":12337,"ĠMETHOD":12338,"Ġwogha":12339,"ALLEL":12340,"STICKERSOURCE":12341,"PLSUSBStackView":12342,"ĠFormalPowerSeries":12343,"ĠgetFullName":12344,"Requirements":12345,"showTeamPlayers":12346,"GEOMETRY":12347,"NotLoadedException":12348,"SimpleWindowConnector":12349,"TIMEKEEPER":12350,"yyFlexLexerOnce":12351,"EyerAVFFmpegHeader":12352,"!\"<":12353,"&(":12354,"&;<":12355,"(#":12356,"(;":12357,"(\"<":12358,")\"<":12359,").<":12360,")...":12361,"-'":12362,".\"<<":12363,"/%":12364,"033":12365,"52":12366,"61":12367,"800":12368,"93":12369,":-":12370,"=-":12371,"?$":12372,"AO":12373,"Age":12374,"AutolinkedNative":12375,"AHEAD":12376,"BQ":12377,"BRE":12378,"BOR":12379,"Balls":12380,"Before":12381,"BLI":12382,"BVH":12383,"Cef":12384,"Cvar":12385,"Cafe":12386,"Clipboard":12387,"Dv":12388,"Dend":12389,"DEN":12390,"Discrete":12391,"EV":12392,"EseqExpression":12393,"FW":12394,"Fork":12395,"Frequency":12396,"Feel":12397,"GPL":12398,"Gang":12399,"GING":12400,"Grip":12401,"Github":12402,"Gadget":12403,"Guest":12404,"Grade":12405,"HM":12406,"Hat":12407,"HAL":12408,"HftStrategy":12409,"Http":12410,"IBU":12411,"IArray":12412,"IALIZ":12413,"Jit":12414,"Java":12415,"KIT":12416,"Kth":12417,"LM":12418,"LAND":12419,"LARGE":12420,"MCommand":12421,"Mock":12422,"Mirror":12423,"NL":12424,"NAP":12425,"Naver":12426,"NegateConditionalWrapper":12427,"Pal":12428,"QFile":12429,"QTT":12430,"QScrollArea":12431,"QDateTime":12432,"Ray":12433,"RAnimation":12434,"Raw":12435,"Restore":12436,"RCTBridgeDelegate":12437,"SM":12438,"Slic":12439,"Some":12440,"Square":12441,"TG":12442,"TP":12443,"Tut":12444,"Tile":12445,"Total":12446,"TLS":12447,"TENSOR":12448,"Tls":12449,"Thous":12450,"UX":12451,"UObject":12452,"VOL":12453,"VSX":12454,"Wpragma":12455,"WANT":12456,"Wped":12457,"Wmacro":12458,"YO":12459,"ZModule":12460,"ZBrain":12461,"ZBEHAVIOR":12462,"affine":12463,"browser":12464,"bullet":12465,"cing":12466,"cary":12467,"cutil":12468,"cancel":12469,"cSvd":12470,"div":12471,"dab":12472,"done":12473,"dump":12474,"donn":12475,"dCard":12476,"dStructure":12477,"dvars":12478,"each":12479,"fma":12480,"floor":12481,"fincludes":12482,"gy":12483,"hc":12484,"hl":12485,"hit":12486,"hdata":12487,"hcc":12488,"iB":12489,"iang":12490,"jout":12491,"job":12492,"lsum":12493,"lca":12494,"numpy":12495,"ould":12496,"pet":12497,"pick":12498,"pixel":12499,"qiang":12500,"sb":12501,"sv":12502,"score":12503,"sMenu":12504,"sobj":12505,"session":12506,"sieve":12507,"sdaCodeGraph":12508,"tan":12509,"tun":12510,"trigger":12511,"trees":12512,"uc":12513,"vokes":12514,"wy":12515,"wheelEvent":12516,"xshm":12517,"zer":12518,"zip":12519,"zeta":12520,"{};":12521,"}),":12522,"¦èģªä¿ĥ":12523,"ªéĬĪæİĵçľ°éĬĪä½µåĢł":12524,"°å":12525,"²¥ç":12526,"¶éĹ´":12527,"»äº":12528,"æĤ":12529,"Ġ){<":12530,"Ġ);":12531,"Ġlayout":12532,"Ġ...<":12533,"Ġlocale":12534,"Ġefsw":12535,"Ľæĸ":12536,"inom":12537,"inner":12538,"decomp":12539,"stoi":12540,"standing":12541,"ena":12542,"encoder":12543,"reent":12544,"redefined":12545,"reach":12546,"recurs":12547,"retto":12548,"reserve":12549,"inttypes":12550,"Ġ\"__":12551,"Ġck":12552,"Ġcenter":12553,"Ġcause":12554,"Ġcrash":12555,"amard":12556,"Ġmn":12557,"Ġmpp":12558,"Ġmol":12559,"Ġmetrics":12560,"Ġ=========================================================================":12561,"esc":12562,"archetype":12563,"()\");":12564,"Ġntt":12565,"seesaw":12566,"coil":12567,"cocos":12568,"ingh":12569,"Ġtiles":12570,"alt":12571,"alib":12572,"padd":12573,"icCatchment":12574,"iding":12575,"Ġvisual":12576,"Ġfocus":12577,"Ġ***":12578,"itype":12579,"Ġsi":12580,"Ġsurface":12581,"Ġsql":12582,"urbo":12583,"Ġpr":12584,"Ġpat":12585,"Ġpalindrome":12586,"Ġpanel":12587,"Ġphi":12588,"ĠpDesktop":12589,"ĠpBrain":12590,"Ġpoll":12591,"Ġbm":12592,"Ġbt":12593,"Ġbbox":12594,"Ġrefer":12595,"Ġavoid":12596,"Ġabstract":12597,"laze":12598,"lopt":12599,"lodepng":12600,"roi":12601,"Ġstdout":12602,">}}":12603,"strategy":12604,"igu":12605,"igmoid":12606,"ungi":12607,"maps":12608,"machine":12609,">////":12610,"exit":12611,"usb":12612,"doit":12613,"ĠAL":12614,"ĠAss":12615,"ĠArt":12616,"ĠALL":12617,"Ġ(;":12618,"**)":12619,"ĠSun":12620,"ĠSection":12621,"ĠSandboxLayer":12622,"ism":12623,"Ġgc":12624,"Ġgli":12625,"Ġguid":12626,"Ġisoc":12627,"ĠisAnagram":12628,"ĠCObject":12629,"ĠCCoder":12630,"++],":12631,"edit":12632,"edges":12633,"edFill":12634,"ĠEcho":12635,"ĠELOQUENTTINYML":12636,"ĠElapsedTimer":12637,"ckit":12638,"ĠTEXT":12639,"ĠTEXASSOLVER":12640,"ĠMa":12641,"ĠMol":12642,"ĠMath":12643,"iode":12644,"ĠPH":12645,"ĠPM":12646,"ĠPut":12647,"ĠPow":12648,"ĠPIX":12649,"ĠPlane":12650,"imized":12651,"Ġ2000":12652,"Ġdx":12653,"Ġdialog":12654,"Ġdone":12655,"ĠwheelEvent":12656,"Ġwuyang":12657,"Ġ{-":12658,"argins":12659,"ALYZER":12660,"InStream":12661,"InanimateObject":12662,"istor":12663,"istent":12664,"Ġ&=":12665,"Ġlat":12666,"Ġlar":12667,"Ġlcm":12668,"Ġlantern":12669,"Coin":12670,"LETE":12671,"RESET":12672,"RETRODREAM":12673,"Ġhistory":12674,"STE":12675,"STX":12676,"STACK":12677,"bove":12678,"added":12679,"adamard":12680,"ĠDestroy":12681,"ĠDRIVER":12682,"egtt":12683,"eglm":12684,"ĠNLO":12685,"owner":12686,"ARC":12687,"Ġjog":12688,"preemp":12689,"aser":12690,"Ġ400":12691,"DESC":12692,"Store":12693,"Stuff":12694,"ĠFT":12695,"ĠFull":12696,"ĠFUR":12697,"ĠFlag":12698,"ĠFWP":12699,"(\"&":12700,"(\"../":12701,"Ġ33":12702,"Ġ332":12703,"ĠLast":12704,"ĠLANT":12705,"ĠLONG":12706,"Ġstx":12707,"ĠRem":12708,"ĠRaw":12709,"ĠRCTBridgeDelegate":12710,"ĠRClassic":12711,"acker":12712,"apt":12713,"getTinylangVersion":12714,"ĠQAction":12715,"ĠQScrollArea":12716,"Ġxmoe":12717,"PPING":12718,"ĠIW":12719,"ĠIDE":12720,"ĠIcon":12721,"ĠIES":12722,"Ġtoh":12723,"Ġtoss":12724,"lias":12725,"lices":12726,"Ġ___":12727,"ewels":12728,"ĠBG":12729,"ĠBU":12730,"ĠBig":12731,"ĠBST":12732,"ĠBill":12733,"ĠBonusObject":12734,"ANIME":12735,"ANAGER":12736,"ĠUSER":12737,"ĠUFL":12738,"ĠUltra":12739,"ulti":12740,"permute":12741,"Ġ'*":12742,"Ġ'('":12743,"Ġargbuf":12744,"Exe":12745,"ername":12746,"shutdown":12747,"103":12748,"Ġrc":12749,"Ġram":12750,"Ġrvector":12751,"Ġrdata":12752,"redit":12753,"mmintrin":12754,"ĠHINSTANCE":12755,"ĠHaruno":12756,"lmtk":12757,"Ġ/*!<":12758,"QUE":12759,"QUAL":12760,"irty":12761,"irtree":12762,"conio":12763,"ityElement":12764,"Ġdeveloper":12765,"Ġdependencies":12766,"**********":12767,"ĠOK":12768,"ĠOb":12769,"ĠOperator":12770,");}<":12771,"ICLE":12772,"ICopy":12773,"TOOL":12774,"eleport":12775,"ĠVirtual":12776,"ĠVECTOR":12777,"ĠVokes":12778,"ĠVImageLoader":12779,"taStrategy":12780,"Listbox":12781,"database":12782,"Ġbelow":12783,"libUn":12784,"anspond":12785,"TEval":12786,"esseng":12787,"Ġprod":12788,"quak":12789,"UNO":12790,"scall":12791,"ĠmaxTo":12792,"Ġmaxcount":12793,"ĠmaxValue":12794,"ĠmaxSubArray":12795,"DIRECT":12796,"Ġmatch":12797,"ather":12798,"psgraph":12799,"lements":12800,"CEINLINE":12801,"Ġsec":12802,"Ġsee":12803,"Ġsemaphore":12804,"ĠsetB":12805,"ĠsetGeometry":12806,"ĠsetBackground":12807,"Ġcompressed":12808,"toN":12809,"toss":12810,"token":12811,"Ġdatabase":12812,"WindowManager":12813,"WindowSettings":12814,"ObjectHandle":12815,"ObjectNamespace":12816,"ĠXML":12817,"=====<":12818,"abort":12819,"dian":12820,"dialect":12821,"Boot":12822,"SizeGrip":12823,"EventJoin":12824,"(),'\\":12825,"ĠĠĠĠĠĠĠĠĠĠĠĠĠĠĠĠĠĠĠĠĠ":12826,"ĠĠĠĠĠĠĠĠĠĠĠĠĠĠĠĠĠĠĠĠĠĠĠĠĠ":12827,"ĠsumUp":12828,"ĠsumOfN":12829,"UTION":12830,"UTIME":12831,"sumOfN":12832,"Relayout":12833,"ĠåĮħ":12834,"();++":12835,"pushButton":12836,"DataSize":12837,"ĠnewNode":12838,"Ġ70":12839,"OLUTION":12840,"ĠJNI":12841,"ĠJOY":12842,"ToStatement":12843,"DLC":12844,"Regular":12845,"Ġbuilder":12846,"<=(":12847,"Collapsible":12848,"TestC":12849,"anagram":12850,"Ġunlock":12851,"Ġ##":12852,"Ġcls":12853,"MAG":12854,"ĠStatic":12855,"ĠStrip":12856,"ĠStorage":12857,"Ġstrtok":12858,"TextView":12859,"TextArea":12860,"ĠtestF":12861,"ertical":12862,"ForLoop":12863,"Compute":12864,"GetLastError":12865,"NOM":12866,"259":12867,"Ġleak":12868,"Ġanim":12869,"ä¸ª":12870,"ATIONAL":12871,"measure":12872,"100000":12873,"KEnum":12874,"Ġqvec":12875,"Buf":12876,"ButtonBox":12877,"Ġprimary":12878,"Shl":12879,"Share":12880,"merge":12881,"PropertyInitialiser":12882,"Ġugly":12883,"LIBS":12884,"formats":12885,"Ġdoctest":12886,"smt":12887,"AddUpdate":12888,"cvt":12889,"RTypes":12890,"ĠmyPow":12891,"cfab":12892,"Ġprepare":12893,"ErrorNotImplemented":12894,"initWith":12895,"MyTypes":12896,"knapsack":12897,"LogMessage":12898,"deredString":12899,"FrameWidget":12900,"Ġshader":12901,"PROPERTY":12902,"Ġcollapsible":12903,"paths":12904,"Ġasn":12905,"Ġasio":12906,"------------------------------------------------":12907,"ĉĉĉĠ":12908,"Ġatt":12909,"Interior":12910,"FFT":12911,"vmk":12912,"vmesh":12913,"MainActivity":12914,"bsite":12915,"ThrustController":12916,"Ġvalf":12917,"SensorName":12918,"Ġlibs":12919,"133":12920,"Lines":12921,"aving":12922,"outputs":12923,"Keyword":12924,"Ġscan":12925,"Scott":12926,"Ġreversed":12927,"EXPORTED":12928,"GETTERS":12929,"trimesh":12930,"CCNEW":12931,"threads":12932,"tras":12933,"MINMAX":12934,"bufferPos":12935,"submit":12936,"usedForLoop":12937,"Fonts":12938,"MessageBox":12939,"Allow":12940,"Ġlut":12941,"Ġ):":12942,"1490":12943,"ĠINIT":12944,"ductor":12945,"ĠFileSystem":12946,"ĠUninitObject":12947,"ĠWidgetLook":12948,"nodelet":12949,"Ġparsing":12950,"running":12951,"ĠdeleteNode":12952,"DecBlock":12953,"ĠAddUpdate":12954,"temporary":12955,"temperature":12956,"ById":12957,"FIND":12958,"Ġuses":12959,"reply":12960,"Quick":12961,"ĠlinkType":12962,"ĠLoader":12963,"Ġpercent":12964,"BufferTokenizer":12965,"controller":12966,"ĠNodeType":12967,"Running":12968,"ĠScreen":12969,"Translation":12970,"ĠPropertyInitialiser":12971,"Perform":12972,"PerTeam":12973,"Permutation":12974,"ĠRelayout":12975,"giungi":12976,"ĠChrone":12977,"fastcall":12978,"Modify":12979,"556":12980,"Ġimport":12981,"ĠEncoding":12982,"189":12983,"ĠRendering":12984,"ĠsquareRoot":12985,"ĠBOOLEAN":12986,"ĠDeserial":12987,"Locked":12988,"LockGuard":12989,"Providers":12990,"rolled":12991,"Ġinitialized":12992,"ĠPlayerPtr":12993,"NEG":12994,"Allocate":12995,"Allocation":12996,"ISzAlloc":12997,"TriMesh":12998,"æĭ·":12999,"ĠDiagnostics":13000,"AddressInRegister":13001,"Ġopt":13002,"BasicType":13003,"æīģ":13004,"ĠSTREAM":13005,"1280":13006,"Ġsyscall":13007,"imgproc":13008,"glew":13009,"ĠThese":13010,"ĠPLSDialog":13011,"copyable":13012,"Weight":13013,"calculate":13014,"CallbackInfo":13015,"ĠResult":13016,"checkError":13017,"Ġworks":13018,"colors":13019,"Playground":13020,"ĠDEVIC":13021,"]<<\"\\":13022,"ĠCHANNEL":13023,"ĠIPMask":13024,"LOGGING":13025,"Ġvmk":13026,"Guide":13027,"Ġæįŀ":13028,"ĠToInt":13029,"UserConfig":13030,"Ġ240":13031,"STDC":13032,"STDMETHODIMP":13033,"atomico":13034,"multitype":13035,"260":13036,"ç»¢":13037,"ĠTRA":13038,"ĠPLAYER":13039,"ConditionalStatement":13040,"NetInitializer":13041,"bdcSvd":13042,">**<":13043,"playlist":13044,"CatchmentAg":13045,"Ġblocks":13046,"Instantiations":13047,"Ġwindows":13048,"VarSymbol":13049,"Ġadj":13050,"Ġadapter":13051,"ĠChecksumForward":13052,"ĠeigenValues":13053,"overwrite":13054,"ĠRFKEnum":13055,"frontend":13056,"ationality":13057,"CGAL":13058,"ĠEEPROM":13059,"PropertyDefinitionBase":13060,"Detach":13061,"PUBLI":13062,"ĠBinarySearch":13063,"ĠsearchMatrix":13064,"INTERNALS":13065,"PairCEGUI":13066,"ĠAutomatic":13067,"ĠFILESYS":13068,"cade":13069,"JobNode":13070,"ĠLOGD":13071,"CXMI":13072,"RAW":13073,"tls":13074,"PLSCommonScrollBar":13075,"TRAIN":13076,"ĠComponentSystem":13077,"riticCatchment":13078,"Ġsymbols":13079,"Validator":13080,"QPaintEvent":13081,"Ġtags":13082,"Ġbackprop":13083,"etersEncoder":13084,"ĠSplit":13085,"Multip":13086,"VideoWidget":13087,"BACKREF":13088,"alking":13089,"CUDNN":13090,"NamespaceFragment":13091,"ĠTraits":13092,"Combs":13093,"ArrSize":13094,"Ġenvironment":13095,"XMLResourceManager":13096,"good":13097,"Ġutilities":13098,"ĠNOMINMAX":13099,"AgHud":13100,"ĠClearList":13101,"ĠTipsSystem":13102,"ĠFORM":13103,"ĠFORCEINLINE":13104,"Ġstatsd":13105,"connected":13106,"drs":13107,"ĠNotification":13108,"ĠUTIL":13109,"Marker":13110,"MACHINE":13111,"ĠTHREAD":13112,"ĠTitleButton":13113,"Ġdeclaration":13114,"Ġcreated":13115,"amedXMLResourceManager":13116,"Ġpeak":13117,"structures":13118,"Finder":13119,"commit":13120,"iverCombs":13121,"Ġrecursion":13122,"Quaterniond":13123,"MetaEntry":13124,"èĥģ":13125,"Ġmoney":13126,"ĠSOURCE":13127,"ĠSOCKET":13128,"operation":13129,"ĠLockGuard":13130,"ĠZBehaviorState":13131,"ĠMaterialInstance":13132,"BinopExpression":13133,"Canvas":13134,"]<='":13135,"DELAY":13136,"Ġluaopen":13137,"FLAGS":13138,"multiplication":13139,"Timestep":13140,"Ġsimulation":13141,"Ġsimilar":13142,"ffffffff":13143,"flann":13144,"ĠSaveMenu":13145,"ĠisPowerOfTwo":13146,"ĠRecord":13147,"controls":13148,"Ġsmaller":13149,"AbstractEventJoin":13150,"ĠActorUniqueID":13151,"ĠSignature":13152,"ĠMYSHAREDLIBSHARED":13153,"EulerWalkable":13154,"oraDv":13155,"ĠdwVersion":13156,"ĠOrigin":13157,"'||*":13158,"Cycle":13159,"QListWidgetItem":13160,"Ġé¢ĩèĢģæ¶Ŀèģªä¿ĥ":13161,"Ġ\"*\";<":13162,"Ġcorrectly":13163,"Crypt":13164,"DragObject":13165,"ĠScoreboardId":13166,"Ġ{{(":13167,"ĠQuery":13168,"Cartographic":13169,"SelStrategy":13170,"canonical":13171,"ç§°":13172,"ĠAsyncMqttClient":13173,"ĠCheatLoop":13174,"housenumber":13175,"SpecificationVector":13176,"RemoteIO":13177,"ĠManual":13178,"ĠWORD":13179,"ĠHelloWorld":13180,"ĠExceptions":13181,"REFERENCED":13182,"Fundamental":13183,"tblgen":13184,"ĠmissingNumber":13185,"ĠBasicType":13186,"LOOKAHEAD":13187,"ĠCharacter":13188,"EfcDsrcApplication":13189,"Entropy":13190,"etooth":13191,"ĠATTR":13192,"PLSChannelLoginView":13193,"SerializationCluster":13194,"ĠGeneratorID":13195,"BoundaryController":13196,"ĠCOMMONSAMPLE":13197,"CCECHO":13198,"XPtrTorch":13199,"Ġphone":13200,"quoted":13201,"ToMetersEncoder":13202,"ĠComplexity":13203,"oregroundColor":13204,"Middle":13205,"jectory":13206,"ç£Ĳ":13207,"Ġç»Ľæĸ":13208,"ĠsetForegroundColor":13209,"facetType":13210,"ĠPLSDpiHelper":13211,"RenderedString":13212,"SQUARE":13213,"broadcast":13214,"lionet":13215,"nullopt":13216,"zhangqiang":13217,"DExtras":13218,"Ġdelimiter":13219,"1415926":13220,"missing":13221,"ByteSlice":13222,"qwdialogheaders":13223,"PlotPoint":13224,"hyfd":13225,"Ġtempl":13226,"InstrVarSymbol":13227,"ansparency":13228,"Scratch":13229,"GetGlobalData":13230,"ccurrences":13231,"Ġopensans":13232,"Ġaccumulate":13233,"DecodeQueueBase":13234,"PolynomialList":13235,"BREAK":13236,"DendriticCatchment":13237,"HMANN":13238,"Wpragmas":13239,"Wpedantic":13240,"caryon":13241,"donna":13242,"joutstanding":13243,"wyjoutstanding":13244,"xshmfence":13245,"»äºªéĬĪæİĵçľ°éĬĪä½µåĢł":13246,"inomio":13247,"Ġ==============================================================================<":13248,"Ġisocales":13249,"ĠCObjectVector":13250,"ĠPowC":13251,"Ġwuyangjun":13252,"egttools":13253,"ĠNLOHMANN":13254,"preemptable":13255,"ĠLANTERN":13256,"ĠIESAMPLE":13257,"ĠUSERPROG":13258,"ĠUFLV":13259,"libUnusedForLoop":13260,"essenger":13261,"quakeglm":13262,"ĠmaxToRoot":13263,"ĠsetBackgroundColor":13264,"ĠsumUptoN":13265,"ĠStripe":13266,"InteriorCatchment":13267,"14906":13268,"ISzAllocPtr":13269,"ĠSTREAMINGCLASSIFIER":13270,"ĠDEVICES":13271,"atomicobject":13272,"CatchmentAggregate":13273,"CXMISC":13274,"CartographicRealization":13275,"Ġç»Ľæĸ»äºªéĬĪæİĵçľ°éĬĪä½µåĢł":13276,"libUnusedForLoopVar":13277,"%*/<":13278,"']=":13279,"']++;<":13280,")\";<":13281,")>;<":13282,",*":13283,"/(":13284,"012":13285,"450":13286,"422":13287,"628":13288,";\"<":13289,"=((":13290,">(\"":13291,">(),":13292,"AAC":13293,"AES":13294,"BER":13295,"BIG":13296,"Bone":13297,"Border":13298,"BATCH":13299,"Branch":13300,"Bcj":13301,"Cent":13302,"CAR":13303,"CALI":13304,"Cnt":13305,"Clear":13306,"Clim":13307,"Center":13308,"Clip":13309,"Crash":13310,"CmptsView":13311,"Don":13312,"Dart":13313,"DSP":13314,"Digit":13315,"Dummy":13316,"EE":13317,"EME":13318,"EET":13319,"Four":13320,"Freq":13321,"Feedback":13322,"GD":13323,"GCC":13324,"Guid":13325,"HL":13326,"Histogram":13327,"IVector":13328,"IAffine":13329,"Kism":13330,"Lim":13331,"LIT":13332,"Lazy":13333,"MD":13334,"Men":13335,"MIC":13336,"MDragObject":13337,"NC":13338,"OV":13339,"Pid":13340,"Pick":13341,"Phys":13342,"Podium":13343,"Pipe":13344,"QVector":13345,"QKey":13346,"QAction":13347,"QHandler":13348,"QClose":13349,"QTextEdit":13350,"QVBoxLayout":13351,"Qubit":13352,"RM":13353,"RS":13354,"RV":13355,"Rand":13356,"RNG":13357,"RADIOLIB":13358,"Spac":13359,"SOLVER":13360,"SwapChain":13361,"SOLUTION":13362,"TLE":13363,"TArray":13364,"TCHAR":13365,"Trees":13366,"TREE":13367,"Toggle":13368,"UScene":13369,"VRect":13370,"VGA":13371,"Wh":13372,"WCHAR":13373,"WIDTH":13374,"ZLIB":13375,"ZCM":13376,"ZGameType":13377,"ZChannelRuleMgr":13378,"ZGameDraw":13379,"ZNetRepository":13380,"ZQuestMap":13381,"_;":13382,"_{":13383,"aj":13384,"aInterpre":13385,"bm":13386,"best":13387,"clo":13388,"clic":13389,"cli":13390,"ccf":13391,"cdecl":13392,"clable":13393,"cBlock":13394,"cases":13395,"cSensorScanner":13396,"dil":13397,"dfs":13398,"euler":13399,"fri":13400,"fil":13401,"fclose":13402,"flake":13403,"gles":13404,"gpu":13405,"gadget":13406,"hip":13407,"horizontal":13408,"ilu":13409,"ipp":13410,"iph":13411,"iTurbo":13412,"mg":13413,"mgr":13414,"mvm":13415,"mfc":13416,"metric":13417,"micro":13418,"nf":13419,"nar":13420,"neg":13421,"nID":13422,"nish":13423,"oop":13424,"oke":13425,"pWidget":13426,"pMatch":13427,"pBitmap":13428,"pattern":13429,"qglobal":13430,"qMRML":13431,"rvector":13432,"rsum":13433,"rbegin":13434,"ratio":13435,"sq":13436,"sand":13437,"sData":13438,"sound":13439,"suffix":13440,"shell":13441,"tower":13442,"uef":13443,"uki":13444,"vl":13445,"wf":13446,"wt":13447,"wsi":13448,"xFFFF":13449,"year":13450,"yrics":13451,"yuki":13452,"zu":13453,"zy":13454,"å¸":13455,"åĤ":13456,"åľ¨":13457,"æľ":13458,"æŁ":13459,"éĢ":13460,"éĪ":13461,"ĉĠĠĠĠĠ":13462,"ĠčĊ":13463,"Ġame":13464,"Ġ),":13465,"Ġrig":13466,"Ġorg":13467,"Ġelf":13468,"Ġerrno":13469,"īå":13470,"Ĭ¨":13471,"ĬãĤ":13472,"Ł«":13473,"inint":13474,"instring":13475,"detach":13476,"ĠĠĠĠĉĠĠĠĠĠĠĠ":13477,"sting":13478,"stime":13479,"atial":13480,"aturation":13481,"erter":13482,"repe":13483,"realloc":13484,"ori":13485,"Ġ\"\";":13486,"utate":13487,"Ġcast":13488,"Ġcube":13489,"Ġcmpts":13490,"Ġcannot":13491,"ĠcleanUp":13492,"Ġclusters":13493,"amage":13494,"amily":13495,"Ġmar":13496,"Ġmilliseconds":13497,"ĠmPulses":13498,"Ġmirror":13499,"endian":13500,"arc":13501,"rivec":13502,"lee":13503,"()};<":13504,"Ġiv":13505,"Ġnh":13506,"Ġnative":13507,"semaphore":13508,"coordinate":13509,"Ġti":13510,"Ġtile":13511,"icide":13512,"Ġvariables":13513,"Ġfre":13514,"Ġfine":13515,"Ġflow":13516,"Ġfopen":13517,"Ġfinished":13518,"Ġ*;<":13519,"rac":13520,"rared":13521,"rapped":13522,"Ġsamp":13523,"Ġsobj":13524,"Ġpick":13525,"Ġphys":13526,"Ġpubl":13527,"ĠpStage":13528,"Ġphysics":13529,"Ġbatch":13530,"Ġbody":13531,"Ġrest":13532,"Ġautolink":13533,"Ġaverage":13534,"laws":13535,"loquent":13536,"ectral":13537,"atever":13538,"under":13539,"unreal":13540,"Ġ04":13541,"Ġcolour":13542,"Ġintern":13543,"entwo":13544,"entence":13545,">//}":13546,"exists":13547,"usive":13548,"umble":13549,"dos":13550,"domain":13551,"ĠAg":13552,"ĠApi":13553,"ĠAutolinkedNative":13554,"ERAL":13555,"Ġ(-":13556,"ĠSI":13557,"ĠSpace":13558,"ĠSAN":13559,"ĠSink":13560,"ĠSwap":13561,"ĠSPC":13562,"ĠSome":13563,"Ġgot":13564,"Ġgain":13565,"Ġglos":13566,"ĠisFirstInnings":13567,"ĠCY":13568,"ĠCl":13569,"ĠCent":13570,"ĠCum":13571,"ĠCIR":13572,"ĠCTask":13573,"ĠCircle":13574,"ĠCWeapon":13575,"Ġthey":13576,"ĠEN":13577,"change":13578,"tereo":13579,"ĠTV":13580,"ĠTs":13581,"ĠTool":13582,"ĠTotal":13583,"ĠMeg":13584,"ĠMPL":13585,"ĠMIT":13586,"ĠMListener":13587,"ĠMULTI":13588,"ĠMSVC":13589,"ĠPlay":13590,"ĠPGE":13591,"ĠPVOID":13592,"ĠPOLY":13593,"Ġ27":13594,"Ġdic":13595,"Ġdiv":13596,"Ġdmac":13597,"ENC":13598,"ENVIRONMENT":13599,"Ġ{{<":13600,"Ġins":13601,"Ġinject":13602,"ĠinOrder":13603,"Ġindices":13604,"Ġforce":13605,"ALG":13606,":\";<":13607,"ONCE":13608,"spr":13609,"spObject":13610,"Inline":13611,"InDuration":13612,"Indices":13613,"325":13614,"Ġlon":13615,"LEFT":13616,"RECO":13617,"REMOVE":13618,"RETURN":13619,"Ġhal":13620,"Ġhardware":13621,"ĠGEN":13622,"ĠGiven":13623,"ĠGENERATE":13624,"ĠDT":13625,"ĠDW":13626,"ĠDIS":13627,"irct":13628,"ĠNamespace":13629,"ARI":13630,"ARK":13631,"PLSD":13632,"PLoop":13633,"preview":13634,"prepare":13635,"asing":13636,"andScore":13637,"allenge":13638,"Ġ48":13639,"utore":13640,"DECODE":13641,"DEATH":13642,"Ġchars":13643,"Stg":13644,"setMaximum":13645,"ĠFr":13646,"ĠFloat":13647,"ĠFlow":13648,"ĠFunc":13649,"ĠFtp":13650,"IMGUI":13651,"(\"./":13652,"Ġ31":13653,"ĠLow":13654,"ĠLight":13655,"ĠLOT":13656,"Ġstl":13657,"Ġstra":13658,"ĠRO":13659,"ĠRen":13660,"ĠRay":13661,"ĠRUMBLE":13662,"sonic":13663,"apio":13664,"getter":13665,"getDistance":13666,"ĠQMenu":13667,"ĠQFont":13668,"ĠQThread":13669,"ĠQChar":13670,"PPC":13671,"ĠIFrame":13672,"ĠtoString":13673,"Ġtolua":13674,"like":13675,"ĠBORDER":13676,"Ġarma":13677,"APOL":13678,"emon":13679,"perations":13680,"osh":13681,"FIX":13682,"thickness":13683,"107":13684,"Ġrsum":13685,"Ġranges":13686,"Ġrpn":13687,"upsample":13688,"ĠWT":13689,"ĠWlan":13690,"METER":13691,"esture":13692,"redScore":13693,"Ġyet":13694,"ĠgetX":13695,"ĠgetY":13696,"ĠgetSize":13697,"ĠgetTinylangVersion":13698,"ĠHas":13699,"ĠHTTP":13700,"ĠHuang":13701,"MOB":13702,"ABC":13703,"Ġdeactivate":13704,"ofer":13705,"ALIZE":13706,"ROUND":13707,"Prov":13708,"collision":13709,"ntensor":13710,"vie":13711,"properties":13712,"Ġ>>=":13713,"background":13714,"iveHund":13715,"StringType":13716,"StringMap":13717,"artPointer":13718,"artaglia":13719,"IClass":13720,"SHEET":13721,"eleton":13722,"elems":13723,"ĠVer":13724,"ĠVal":13725,"ĠVARI":13726,"[][":13727,"tau":13728,"CoreMinimal":13729,"ffers":13730,"Arche":13731,"stdcall":13732,"GLIntensityFilter":13733,"GLFW":13734,"IDAR":13735,"quaternion":13736,"UNRE":13737,"UNREFERENCED":13738,"scc":13739,"scan":13740,"scroll":13741,"Ġ500":13742,"DIFF":13743,"udp":13744,"BaseScope":13745,"Dynamics":13746,"Ġsem":13747,"ĠsetTime":13748,"acters":13749,"ivation":13750,"CHIP":13751,"ĠXuef":13752,"abet":13753,"inku":13754,"ĠExt":13755,"tests":13756,"Deep":13757,"Decompiled":13758,"CONTEXT":13759,"readu":13760,"Reason":13761,"Ġå±":13762,"YSY":13763,"DataChecker":13764,"111":13765,"ĠnewN":13766,"msbl":13767,"OLIC":13768,"OnRun":13769,"Scrip":13770,"Ġ|=":13771,"Ġpalette":13772,"maximum":13773,"ributore":13774,"Ġbuilt":13775,"Collections":13776,"ĠProgress":13777,"Ġunion":13778,"ressor":13779,"][\"":13780,"ĠGetClient":13781,"ĠGetMouse":13782,"Ġclamp":13783,"MASK":13784,"Ġstrcpy":13785,"baseStyle":13786,"arkov":13787,"enumerate":13788,"Computing":13789,"GetModule":13790,"GetTask":13791,"Unregister":13792,"tingTeam":13793,"aches":13794,"FileMeta":13795,"MenuType":13796,"MenuStyle":13797,"ĠGLenum":13798,"ĠGLIntensityFilter":13799,"Ġanchor":13800,"Ġmini":13801,"ixin":13802,"444":13803,"LINUX":13804,"ĠcreateStrategy":13805,"ouch":13806,"Ġprimes":13807,"REGISTRY":13808,"REGISTRATION":13809,"newlib":13810,"StateObject":13811,"Ġcontainer":13812,"mini":13813,"ASSE":13814,"ĠRegisterAutolinkedNative":13815,"AGMA":13816,"sman":13817,"AddSource":13818,"AddField":13819,"RTL":13820,"RTUAL":13821,"TRAC":13822,"TRANS":13823,"ĠmyVector":13824,"OPERATOR":13825,"ĠZChannelRuleMgr":13826,"ĠZilu":13827,"Ġpreload":13828,"apple":13829,"ErrorType":13830,"ErrorMessage":13831,">/*%":13832,"Packages":13833,"woofer":13834,"ĠDouble":13835,"ĠDomain":13836,"PathDelegate":13837,"PathSaver":13838,"00000":13839,"Logic":13840,"READY":13841,"interview":13842,"Ġtemporary":13843,"ModulePackages":13844,"TimeKeeper":13845,"eep":13846,"noreturn":13847,"MainLoop":13848,"Ġparticular":13849,"ACTIVE":13850,"GameMode":13851,"GameFramework":13852,"SensorFactory":13853,"Ġlibc":13854,"THEME":13855,"archive":13856,"ĠImFont":13857,"OWN":13858,"ImageManager":13859,"ImageInfoDialog":13860,"994":13861,"Ġappro":13862,"Ġapply":13863,"MEMBER":13864,"FUNCS":13865,"SolverCholesky":13866,"REFCOUNT":13867,"AppDelegate":13868,"avg":13869,"amerate":13870,"ĠstartTime":13871,"Ġ(!(":13872,"PCSTR":13873,"trim":13874,"ĠBaseScope":13875,"gameInstance":13876,"Seeta":13877,"CommandBase":13878,"2402":13879,"+=(":13880,"subscriber":13881,"ĠController":13882,"Opcode":13883,"FontLoader":13884,"ighter":13885,"SymbolVar":13886,"VIRTUAL":13887,"Always":13888,"Ġ---<":13889,"]==')":13890,"Admin":13891,"IOCTL":13892,"aled":13893,"ĠcheckRequirements":13894,"Ġwhatever":13895,"ĠFLAG":13896,"ĠListbox":13897,"versing":13898,"ĠEyerSharedCount":13899,"runing":13900,"runner":13901,"insertSpac":13902,"ĠdeleteStrategy":13903,"Decimal":13904,"Subscriber":13905,"systems":13906,"ingDistance":13907,"DebugOverlay":13908,"ĠfindMin":13909,"ĠfindDuplicate":13910,">{}<":13911,"AttitudeController":13912,"packets":13913,"ĠOnRun":13914,"Org":13915,"OutDuration":13916,"MemoryManager":13917,"Ġpermutation":13918,"web":13919,"website":13920,"Ġheights":13921,"RegisterWith":13922,"ĠAnimated":13923,"Span":13924,"Countdown":13925,"Trapframe":13926,"TextureTarget":13927,"030":13928,"QtPlugin":13929,"Constants":13930,"Constraint":13931,"Unitig":13932,"ĠMODULES":13933,"discord":13934,"glsl":13935,"EntityRegisterer":13936,"ĠRepres":13937,"USAGE":13938,"ĠDynamicJsonDocument":13939,"Notify":13940,"PassManager":13941,"PassRegistry":13942,"Ġposix":13943,"ĠRenderWindow":13944,"Ġreading":13945,"localplayer":13946,"ĠéĴ":13947,"ĠéĶ":13948,"Ġpaths":13949,"080":13950,"PRAGMA":13951,"when":13952,"velop":13953,"BlockLinear":13954,"ĠWorldObject":13955,"0500":13956,"filesys":13957,"DEBUGGER":13958,"ĠCompute":13959,"hedule":13960,"Ġfilesystem":13961,"Ġcontaining":13962,"ĠenumStrategy":13963,"issues":13964,"descriptions":13965,"copyleft":13966,"Ġexecution":13967,"LoggerChain":13968,"ĠQtNodes":13969,"FactoryRegistration":13970,"AndS":13971,"Beacon":13972,"Ġamt":13973,"JsonConversion":13974,"SliderWidget":13975,"checker":13976,"Parenth":13977,"Import":13978,"frames":13979,"Mini":13980,"Minimum":13981,"Ġsinphi":13982,"ĠSequence":13983,"ĠDEF":13984,"ĠDEFIN":13985,"Ġwarnings":13986,"Ġcurve":13987,"nowflake":13988,"ĠEventDispatcher":13989,"LOGGER":13990,"ToolBar":13991,"ONTEND":13992,"*/)<":13993,"IALOG":13994,"azard":13995,"Ġæ²¥ç":13996,"UserDefined":13997,"ĠTransform":13998,"Posix":13999,"ĠmoveZeroes":14000,"Ġidentifier":14001,"Ġvisor":14002,"ĠLibretto":14003,"ĠWeb":14004,"haser":14005,"ĠILUT":14006,"Role":14007,"rammar":14008,"Ġglobals":14009,"DefaultEntityRegisterer":14010,"Ordering":14011,"heights":14012,"framework":14013,"ZRuleQuest":14014,"ZRuleTraining":14015,"ZRuleSurvival":14016,"Movement":14017,"debugger":14018,"CatchmentArea":14019,"Ġcvflann":14020,"IMPLE":14021,"GeometryBuffer":14022,"Macro":14023,"Macros":14024,"Ġsplit":14025,"ServiceManager":14026,"Vars":14027,"highgui":14028,"Ġhelp":14029,"Tracks":14030,"ĠChecksum":14031,"ĠGraphModification":14032,"actions":14033,"Ġcalc":14034,"Ġcallable":14035,"Ġrequire":14036,"ĠSPIClass":14037,"ShapeMesh":14038,"PROCESSOR":14039,"SourceBuilder":14040,"ediate":14041,"edium":14042,"fail":14043,"RuntimeID":14044,"riteria":14045,"Ġgodot":14046,"ĠBuild":14047,"MMatchGameTypeMgr":14048,"MMatchDBFilter":14049,"DBG":14050,"secut":14051,"]!='":14052,"è¤ĭ":14053,"StaticPatcher":14054,"Executer":14055,"FindLineEdit":14056,"Placeholder":14057,"extensions":14058,"Ġviewer":14059,"ĠLOGGER":14060,"654":14061,"raiEvent":14062,"ĠUtils":14063,"ImPlotPoint":14064,"Ġaggiungi":14065,"Ġcommands":14066,"DirectX":14067,"BUFFERED":14068,"vgentwo":14069,"passes":14070,"ĠFUItem":14071,"wxid":14072,"CRET":14073,"swizz":14074,"ĠNVSDK":14075,"ĠRandomNumber":14076,"384":14077,"Internals":14078,"ĠHALF":14079,"OPTIONS":14080,"lingTeam":14081,"LIMITS":14082,"Ġdebugger":14083,"Ġdefinitions":14084,"Distinct":14085,"]<<\",":14086,"anchor":14087,"Ġchannels":14088,"ĠInputStream":14089,"Locator":14090,"FileSystemWatcher":14091,"ScopedGuard":14092,"ĠEyerAVRational":14093,"ĠCalled":14094,"arness":14095,"ĠTitleMenu":14096,"ivisors":14097,"MSA":14098,"Ġpeople":14099,"channels":14100,"ĠPCSensor":14101,"lowerbed":14102,"Extensions":14103,"Finish":14104,"GAMETYPE":14105,"Ġtracker":14106,"HELP":14107,"Marlin":14108,"Small":14109,"SmartPointer":14110,"rapid":14111,"ĠDevicePathDelegate":14112,"ĠpackageProviders":14113,"Ġvisited":14114,"SdaCodeGraph":14115,"battingTeam":14116,"batsman":14117,"Ġhwnd":14118,"ĠFsSimpleWindowConnector":14119,"Ġdens":14120,"ĠViewer":14121,"ĠGraphicsElement":14122,"GUIContext":14123,"Kernels":14124,"KernelRegistry":14125,"Ġfibo":14126,"ĠNTAPI":14127,"ĠNTSTATUS":14128,"HOOKS":14129,"ĠmajorityElement":14130,"ĠDxsoCode":14131,"ChildWindow":14132,"Children":14133,"ĠFadeInDuration":14134,"ĠFadeOutDuration":14135,"VARIANT":14136,"CRTDBG":14137,"Simulation":14138,"Useless":14139,"carma":14140,"ronics":14141,"ĠPolinomio":14142,"ProxyStyle":14143,"Ġcomplexity":14144,"Ġå®¶":14145,"SignalTracker":14146,"Ġagainst":14147,"ĠLevelData":14148,"Ġobtain":14149,"ĠMSID":14150,"Ġchildren":14151,"ĠOriented":14152,"ExprTreeSda":14153,"hysicalBinder":14154,"WHEN":14155,"iconv":14156,"ĠAsset":14157,"ĠEdit":14158,"Ġletters":14159,"AnimWidget":14160,"famiTurbo":14161,"åĽ¾":14162,"Ġpwsz":14163,"rotate":14164,"Cartridge":14165,"Ġblender":14166,"Ġbounds":14167,"ArchetypeRegisterer":14168,"æ¢°èĸªæĩĪ":14169,"lainTextEdit":14170,"ĠAbstractSymbol":14171,"Ġdispatch":14172,"bowler":14173,"bowlingTeam":14174,"ĠJobHandle":14175,"REFERENCE":14176,"curlbuild":14177,"Magnum":14178,"Patches":14179,"Ġmegcore":14180,"ĠteamA":14181,"ĠteamB":14182,"Ġ*****<":14183,"Ġcommit":14184,"ĠFBLibrary":14185,"/////////////<":14186,"ĠQPixmap":14187,"ĠRealSpace":14188,"Good":14189,"NaN":14190,"RENDER":14191,"æĹ¶éĹ´":14192,"armadil":14193,"ĠownerEntityID":14194,"æļŁ":14195,"Ġcandidate":14196,"ĠPOSITION":14197,"ashboardUI":14198,"Recyclable":14199,"BROWSE":14200,"JNIEnv":14201,"Planner":14202,"alyzer":14203,"Ġ**********************/<":14204,"Ġdummyfunc":14205,"Ġdaisysp":14206,"Ġhooks":14207,"Ġrfk":14208,"libavutil":14209,"Assembly":14210,"RUNNER":14211,">/**********************<":14212,"witter":14213,"éĴ¦èģªä¿ĥ":14214,"derable":14215,"ĠDemirk":14216,"StudyFrameWidget":14217,"Ġthroughout":14218,"Ġimplicitly":14219,"123456789":14220,"ĠFUAvatarSDK":14221,"ĠCOPYRIGHT":14222,"Frames":14223,"Half":14224,"è¡Į":14225,"Ġ\"!!!":14226,"ifferent":14227,"ĠSparseBlockLinear":14228,"ckLinkDevice":14229,"UTORIAL":14230,"associative":14231,"ĠlengthOfL":14232,"FILENO":14233,"Monotonic":14234,"ĠOptionsMenu":14235,"tetgenio":14236,"focusInEvent":14237,"HALF":14238,"ThousandScore":14239,"decompose":14240,"recursive":14241,"aserSensor":14242,"QUEUE":14243,"TestCases":14244,"ShlObj":14245,"NEGATE":14246,"NamespaceFragmentRegisterer":14247,"Climb":14248,"DonateDialog":14249,"Kismet":14250,"LITTLE":14251,"QKeyEvent":14252,"QCloseEvent":14253,"ZCMI":14254,"aInterpreti":14255,"nishant":14256,"sandy":14257,"yukicoder":14258,"riveclear":14259,"Ġphysx":14260,"Ġpublished":14261,"ĠAutolinkedNativeModules":14262,"ĠSANITY":14263,"ĠCIRCT":14264,"ĠMegcore":14265,"RECOGN":14266,"iveHundredScore":14267,"Archetypes":14268,"ĠXuefeng":14269,"Scripting":14270,"ĠGetClientRect":14271,"ĠRegisterAutolinkedNativeModulePackages":14272,"AddSourceMenuStyle":14273,"insertSpacer":14274,"RegisterWithRegistrar":14275,"Ġæ²¥çĦĬ":14276,"swizzle":14277,"famiTurboCartridge":14278,"armadillo":14279,"ĠDemirkapi":14280,"ĠSparseBlockLinearSolverCholesky":14281,"\"\\":14282,"\"),<":14283,"(%":14284,"([]":14285,")\"":14286,")\\":14287,"*;<":14288,"*>::":14289,",__":14290,"-=(":14291,"0123":14292,"301":14293,"535":14294,"67":14295,"664":14296,"720":14297,"801":14298,"905":14299,":\"<<\"":14300,";\\<":14301,"=\");<":14302,">%":14303,">;":14304,">\");<":14305,">``":14306,"AIN":14307,"Air":14308,"AIL":14309,"AIT":14310,"Aabb":14311,"Ascii":14312,"AComment":14313,"Band":14314,"Bond":14315,"BML":14316,"BOLD":14317,"Breach":14318,"CAL":14319,"Cuda":14320,"CATEG":14321,"Ctab":14322,"CSha":14323,"CAMERA":14324,"CGenerate":14325,"CleanUp":14326,"Castle":14327,"CtaStrategy":14328,"Criteria":14329,"DH":14330,"Db":14331,"Dream":14332,"Dsp":14333,"DPL":14334,"DRO":14335,"Done":14336,"EGTTOOLS":14337,"FER":14338,"False":14339,"Falagard":14340,"Feed":14341,"FREQ":14342,"GIL":14343,"GEL":14344,"GCD":14345,
[...]
