{"<s>":0,"<pad>":1,"</s>":2,"<unk>":3,"<mask>":4,"!":5,"\"":6,"#":7,"$":8,"%":9,"&":10,"'":11,"(":12,")":13,"*":14,"+":15,",":16,"-":17,".":18,"/":19,"0":20,"1":21,"2":22,"3":23,"4":24,"5":25,"6":26,"7":27,"8":28,"9":29,":":30,";":31,"<":32,"=":33,">":34,"?":35,"@":36,"A":37,"B":38,"C":39,"D":40,"E":41,"F":42,"G":43,"H":44,"I":45,"J":46,"K":47,"L":48,"M":49,"N":50,"O":51,"P":52,"Q":53,"R":54,"S":55,"T":56,"U":57,"V":58,"W":59,"X":60,"Y":61,"Z":62,"[":63,"\\":64,"]":65,"^":66,"_":67,"`":68,"a":69,"b":70,"c":71,"d":72,"e":73,"f":74,"g":75,"h":76,"i":77,"j":78,"k":79,"l":80,"m":81,"n":82,"o":83,"p":84,"q":85,"r":86,"s":87,"t":88,"u":89,"v":90,"w":91,"x":92,"y":93,"z":94,"{":95,"|":96,"}":97,"~":98,"¡":99,"¢":100,"£":101,"¤":102,"¥":103,"¦":104,"§":105,"¨":106,"©":107,"ª":108,"«":109,"¬":110,"®":111,"¯":112,"°":113,"±":114,"²":115,"³":116,"´":117,"µ":118,"¶":119,"·":120,"¸":121,"¹":122,"º":123,"»":124,"¼":125,"½":126,"¾":127,"¿":128,"À":129,"Á":130,"Â":131,"Ã":132,"Ä":133,"Å":134,"Æ":135,"Ç":136,"È":137,"É":138,"Ê":139,"Ë":140,"Ì":141,"Í":142,"Î":143,"Ï":144,"Ð":145,"Ñ":146,"Ò":147,"Ó":148,"Ô":149,"Õ":150,"Ö":151,"×":152,"Ø":153,"Ù":154,"Ú":155,"Û":156,"Ü":157,"Ý":158,"Þ":159,"ß":160,"à":161,"á":162,"â":163,"ã":164,"ä":165,"å":166,"æ":167,"ç":168,"è":169,"é":170,"ê":171,"ë":172,"ì":173,"í":174,"î":175,"ï":176,"ð":177,"ñ":178,"ò":179,"ó":180,"ô":181,"õ":182,"ö":183,"÷":184,"ø":185,"ù":186,"ú":187,"û":188,"ü":189,"ý":190,"þ":191,"ÿ":192,"Ā":193,"ā":194,"Ă":195,"ă":196,"Ą":197,"ą":198,"Ć":199,"ć":200,"Ĉ":201,"ĉ":202,"Ċ":203,"ċ":204,"Č":205,"č":206,"Ď":207,"ď":208,"Đ":209,"đ":210,"Ē":211,"ē":212,"Ĕ":213,"ĕ":214,"Ė":215,"ė":216,"Ę":217,"ę":218,"Ě":219,"ě":220,"Ĝ":221,"ĝ":222,"Ğ":223,"ğ":224,"Ġ":225,"ġ":226,"Ģ":227,"ģ":228,"Ĥ":229,"ĥ":230,"Ħ":231,"ħ":232,"Ĩ":233,"ĩ":234,"Ī":235,"ī":236,"Ĭ":237,"ĭ":238,"Į":239,"į":240,"İ":241,"ı":242,"Ĳ":243,"ĳ":244,"Ĵ":245,"ĵ":246,"Ķ":247,"ķ":248,"ĸ":249,"Ĺ":250,"ĺ":251,"Ļ":252,"ļ":253,"Ľ":254,"ľ":255,"Ŀ":256,"ŀ":257,"Ł":258,"ł":259,"Ń":260,"ĠĠ":261,"in":262,";<":263,"><":264,"ĠĠĠĠ":265,"de":266,"Ġ<":267,"ĠĠĠ":268,"st":269,"en":270,"on":271,"at":272,">#":273,"er":274,"lu":275,"re":276,"Ġ<<":277,"//":278,"int":279,");<":280,"or":281,"Ġ\"":282,"{<":283,"inc":284,"lude":285,"include":286,"ut":287,"Ġc":288,"am":289,"ce":290,"Ġm":291,"::":292,"end":293,"Ġ=":294,"}<":295,"čĊ":296,"es":297,"ar":298,"ri":299,"Ġi":300,"def":301,"le":302,"()":303,"Ġn":304,"ct":305,"se":306,"ĠĠĠĠĠĠĠ":307,"co":308,"an":309,"ing":310,"Ġ{<":311,"Ġt":312,"al":313,"pa":314,"if":315,"endl":316,"ic":317,"id":318,"\"<":319,"ion":320,"std":321,"Ġ*":322,"Ġv":323,"Ġf":324,"pp":325,"ine":326,"it":327,"pace":328,"Ġendl":329,"ames":330,"amespace":331,"ra":332,"Ġs":333,"ur":334,"atri":335,"Ġp":336,"atrix":337,"oid":338,"define":339,"Ġb":340,"Ġre":341,">}<":342,"ss":343,"Ġa":344,"he":345,"la":346,"lo":347,"ect":348,"ro":349,")<":350,"ate":351,"--":352,">}":353,"cout":354,"Ġstd":355,"Ġ0":356,"et":357,"str":358,"();<":359,"ig":360,"ub":361,"un":362,"Ġco":363,"urn":364,"Ġint":365,">{<":366,"turn":367,"lic":368,"mp":369,"onst":370,"ent":371,"Ġ1":372,"ma":373,"us":374,"Ġo":375,"ex":376,"Matrix":377,"um":378,"Ġ(":379,"ĠA":380,">//":381,"Ġ}<":382,"do":383,"void":384,"Ġnamespace":385,"Ġma":386,"ER":387,"iz":388,"**":389,"Ġ//":390,"ĠS":391,"is":392,"ector":393,"Ġreturn":394,"endif":395,"ol":396,"++":397,"Ġg":398,"Ġis":399,"hpp":400,"ĠC":401,"ize":402,"lass":403,"using":404,"Ġon":405,"IN":406,"Ġthe":407,"el":408,":<":409,"yp":410,"ublic":411,"Ġmain":412,"ed":413,"ĠE":414,"tr":415,"ck":416,"__":417,"ĠĠĠĠĠĠĠĠ":418,"ile":419,"ter":420,"class":421,"ch":422,"namespace":423,"string":424,"rag":425,"Ġconst":426,"io":427,"ver":428,"igen":429,"ragma":430,"pragma":431,"ĠM":432,"il":433,"..":434,"Ġ2":435,"ĠP":436,"ĠT":437,"Ġcout":438,"im":439,"////":440,"Ġd":441,"Ġonce":442,"Ġw":443,"EN":444,"ul":445,"Ġ{":446,"arg":447,"ream":448,"Ġin":449,"op":450,"te":451,"ation":452,"----":453,"Ġfor":454,"Ġvoid":455,"00":456,"AL":457,"ON":458,":\"":459,"ĠĠĠĠĠĠĠĠĠĠĠ":460,"sp":461,"Ġof":462,"Ġ:":463,"Ġ-":464,"()<":465,"ist":466,"In":467,"ame":468,"Ġl":469,"Ġ&":470,"ve":471,"32":472,"loat":473,"../":474,"Co":475,"ont":476,"ext":477,">};<":478,"const":479,"ht":480,"Ġ>":481,"/<":482,"LE":483,"ĠG":484,"ĠN":485,"ST":486,"der":487,"RE":488,"stream":489,"MatrixX":490,"ndef":491,"bo":492,"ifndef":493,",<":494,"Ġif":495,"ad":496,"ge":497,".<":498,"eg":499,"Ġch":500,"<<":501,"ype":502,"ĠD":503,"ir":504,"ere":505,"ow":506,"Ġj":507,"AR":508,"public":509,"ment":510,"AT":511,"PL":512,"pre":513,"/*":514,"as":515,"ec":516,"ata":517,"iostream":518,"Ġmatrix":519,"****":520,"ef":521,"Ġpublic":522,"and":523,"Ġby":524,"all":525,"ated":526,"ot":527,"Ġ\"../":528,"vector":529,"){<":530,"ĠF":531,"uint":532,"uto":533,"Ġ4":534,"OR":535,"set":536,"Ġ_":537,"ener":538,"Ġchar":539,"Here":540,"DE":541,"St":542,"Ġ+":543,"dom":544,"==":545,"size":546,"andom":547,"ray":548,"alu":549,"ort":550,"(\"":551,"Ġnum":552,"Ġh":553,"IM":554,"IL":555,"put":556,"mpl":557,"ĠL":558,"else":559,"Ġ3":560,"Vector":561,"for":562,"ĠQ":563,"ĉĉ":564,"tion":565,"Ġst":566,"ĠR":567,"ase":568,"ble":569,"Ġe":570,"Ġ*/<":571,"];<":572,"Ġx":573,"ack":574,"};<":575,"ction":576,"get":577,"son":578,"his":579,"ial":580,"ap":581,"ode":582,"Random":583,"Ġ@":584,"PP":585,"ĠB":586,"ĠI":587,"Ġto":588,"ifdef":589,"li":590,"Ġ__":591,"->":592,"ew":593,"////////":594,"og":595,"uct":596,"ssion":597,"yn":598,"Eigen":599,"ject":600,"ĠU":601,"float":602,"pper":603,"its":604,"AN":605,"ĠĠĠĠĠ":606,"ue":607,"pression":608,"ult":609,"Ġar":610,"ag":611,"IT":612,"lus":613,"Ġfile":614,"return":615,"em":616,"ĠEigen":617,"enerated":618,"Ġcin":619,"AP":620,"--------":621,"per":622,"atic":623,"os":624,"struct":625,"ator":626,"lusp":627,"lusplus":628,"AC":629,"ual":630,"Ġ'":631,"uble":632,"ign":633,"().":634,"Ġauto":635,"double":636,"FI":637,"od":638,"Ġarg":639,"ans":640,"th":641,"ern":642,"Ex":643,"tern":644,"UL":645,"ang":646,"10":647,"Ġ==":648,"sh":649,"Ġr":650,"ĠMatrix":651,"comp":652,"rapper":653,"om":654,"ME":655,"lay":656,"up":657,"///":658,"ĠW":659,"\";<":660,"ĠK":661,"dow":662,"ool":663,"SE":664,"cpp":665,"Ġy":666,"alue":667,"olu":668,"unt":669,"Ġget":670,"red":671,"est":672,"Ġsize":673,"num":674,"ERN":675,"lm":676,"ĠH":677,"Ġ/*":678,"mm":679,"\",":680,"),":681,"ride":682,"lication":683,"16":684,"Ġk":685,"pplication":686,"Ġ>>":687,"tp":688,"indow":689,"CT":690,"par":691,"rint":692,"QU":693,"con":694,"The":695,"ong":696,"Str":697,"ĠMatrixX":698,">>":699,"type":700,"irt":701,"ens":702,"bool":703,"bject":704,"ptr":705,"extern":706,"_<":707,"Ġover":708,"oint":709,"wrapper":710,"irtual":711,"AB":712,"idget":713,"MO":714,"aa":715,"itor":716,"ity":717,"http":718,"ION":719,"mat":720,"Ġde":721,"ith":722,"olution":723,"pyp":724,"pyplusplus":725,"Ġfloat":726,"nt":727,"20":728,"ber":729,"Ġvector":730,"IMPL":731,"<<\"":732,"ime":733,"ĠKERN":734,"of":735,">//<":736,"ALI":737,"Pro":738,"://":739,"unction":740,"64":741,"ise":742,"ser":743,"RO":744,"ute":745,"pro":746,"col":747,"EX":748,"Ġbool":749,"able":750,"vent":751,"fo":752,"\");<":753,"ror":754,"vi":755,"row":756,"Ġoverride":757,").":758,"********":759,"kern":760,");":761,"wise":762,"FIER":763,"String":764,"back":765,"istr":766,"pri":767,"ard":768,"gin":769,"hile":770,"ister":771,"ive":772,"QUALI":773,"QUALIFIER":774,"art":775,"ition":776,"ref":777,"ĠO":778,"ED":779,"ose":780,"lugin":781,"IC":782,"ele":783,"Ġ{}<":784,"IG":785,"TO":786,"SH":787,"ta":788,"cep":789,"Ġ->":790,"Ġ!":791,"ann":792,"uns":793,"));<":794,"BU":795,"Ġres":796,"ensor":797,"[]":798,"++)<":799,"py":800,"ĠĠĠĠĠĠ":801,"Ġbe":802,"vate":803,"data":804,"ĠV":805,"bits":806,"Type":807,"ader":808,"List":809,"Core":810,"defined":811,"HPP":812,"impl":813,"Ġgenerated":814,"dd":815,"lib":816,"ense":817,"Ġout":818,"amic":819,"Expression":820,"ynamic":821,"ll":822,"age":823,"En":824,"isitor":825,"++.":826,"stdc":827,"Ġglm":828,"GL":829,"ff":830,"ansp":831,"lock":832,"TE":833,"reate":834,"our":835,"ess":836,"Ar":837,"ty":838,"ĠVector":839,"Ġpro":840,"qu":841,"Ġarray":842,"json":843,"istry":844,"ain":845,"Ġ5":846,"CO":847,"ure":848,"anspose":849,"ind":850,"ph":851,"Ġlong":852,"Widget":853,"use":854,">};":855,"UN":856,"ull":857,"und":858,">(":859,"12":860,"ID":861,"char":862,"igned":863,"ABLE":864,"sc":865,"Ġjson":866,"mplate":867,"matrix":868,"Ġans":869,"DI":870,"PE":871,"ule":872,"Ġmax":873,"eng":874,"Ġuint":875,"IGEN":876,"ush":877,"alse":878,"MODE":879,"////////////////":880,"++)":881,"Ġ10":882,"alues":883,"ath":884,"oo":885,"Ġelse":886,"ary":887,"Ġwhile":888,"AD":889,"ac":890,"Ġmat":891,"out":892,":\\":893,"ud":894,"Ġreg":895,"ault":896,"top":897,"transpose":898,"FA":899,"ãģ":900,"ĠĠĠĠĠĠĠĠĠĠĠĠĠĠĠ":901,"bu":902,"ight":903,"Base":904,"ĠSolution":905,"fa":906,"ĠCV":907,"layer":908,"ĠThis":909,"SC":910,"Application":911,"hw":912,"Ġtr":913,"egin":914,"lement":915,"Ġdefined":916,"ner":917,"Ġset":918,"Node":919,"reg":920,"Dynamic":921,"ĠEIGEN":922,"orm":923,"to":924,"unsigned":925,"Ġhe":926,"yst":927,"Ġse":928,"file":929,"Ġex":930,"dex":931,"ILD":932,"nums":933,"Window":934,"Ġ};<":935,"ĠX":936,"cess":937,"Ġcomp":938,"iv":939,"ents":940,"BUILD":941,"Ġ,":942,"rc":943,"inl":944,"Ġdata":945,"SS":946,"ystem":947,"Ġth":948,"Ġnums":949,"Ġargc":950,"----------------":951,"CE":952,"ke":953,"hm":954,"root":955,"VER":956,"ree":957,"Ġvalue":958,"Ġstatic":959,"Size":960,"Object":961,"Ġstring":962,"LO":963,"stdio":964,"FAIL":965,"Ġ<=":966,"ib":967,"ton":968,"atement":969,"template":970,"ant":971,"mmon":972,"nn":973,"Ġdef":974,"());<":975,"CH":976,"YPE":977,"ory":978,"====":979,"atch":980,"private":981,"Ġand":982,"Stream":983,"lohm":984,"compute":985,"lohmann":986,"eff":987,">*":988,"tt":989,"Ġ'\\":990,"SHO":991,"/**":992,"UP":993,"Ġ\"\\":994,"DN":995,"Bo":996,"di":997,"ULD":998,"SHOULD":999,"arr":1000,"Ġthis":1001,"fig":1002,"ho":1003,"Ġfalse":1004,"Ġhttp":1005,"res":1006,"map":1007,"Ġinput":1008,"STR":1009,"//<":1010,"rintf":1011,"ink":1012,"Event":1013,"Xf":1014,"(),":1015,"Ġsum":1016,"emp":1017,"static":1018,"ab":1019,"verse":1020,"ITY":1021,"odule":1022,"DNN":1023,"Ġdouble":1024,"ast":1025,"();":1026,"Ġargv":1027,"Ġnot":1028,"act":1029,"++){<":1030,"ĠEx":1031,"(){<":1032,"Ġ%":1033,"ero":1034,"ING":1035,">&":1036,"CV":1037,"EXT":1038,"/**<":1039,"cept":1040,"auto":1041,"log":1042,"ORT":1043,"EG":1044,"UT":1045,"iew":1046,"ĠĠĠĠĠĠĠĠĠĠĠĠĠĠĠĠ":1047,"rig":1048,"Ġvirtual":1049,"De":1050,"form":1051,"ui":1052,"++;<":1053,"CL":1054,"MatrixXf":1055,"Ġhas":1056,"ww":1057,"test":1058,"rt":1059,"rom":1060,"0000":1061,"./":1062,"sum":1063,"sol":1064,"ork":1065,"AM":1066,"pec":1067,"Ġ&&":1068,"Box":1069,"cin":1070,"Ġnumber":1071,"ĉĠĠĠ":1072,"LEM":1073,"ip":1074,"ly":1075,"read":1076,"Ġdefault":1077,"Ġ\\":1078,"Re":1079,"no":1080,"ender":1081,"TEST":1082,"font":1083,"API":1084,"nd":1085,"name":1086,"CON":1087,"Ġ*/":1088,"Ġ+=":1089,"push":1090,"stri":1091,"Ġoutput":1092,"vel":1093,"com":1094,"dnn":1095,"val":1096,"Ġclass":1097,"YS":1098,"cl":1099,"strict":1100,"gr":1101,"ALAR":1102,"ĠMatrixXf":1103,"rror":1104,"Ġ}":1105,"egdnn":1106,"Con":1107,"MatrixXd":1108,"typedef":1109,"virtual":1110,"Ġ\"../../":1111,"util":1112,"Ġcall":1113,"vec":1114,"ers":1115,"Ġrestrict":1116,"ANT":1117,"raph":1118,"ti":1119,"aram":1120,"ource":1121,"Ġcore":1122,"Ġno":1123,"ĠIn":1124,"';<":1125,"IB":1126,"Ġ/":1127,"right":1128,"Name":1129,"onal":1130,"Ġ\"./":1131,"ialog":1132,"dent":1133,"Ġgen":1134,"View":1135,"PORT":1136,"Ġ~":1137,"ENABLE":1138,"ontext":1139,"Ġ7":1140,"PAR":1141,"enu":1142,"11":1143,"Data":1144,"TER":1145,"ger":1146,"Ġ\";<":1147,"perty":1148,"Row":1149,"Zero":1150,"utton":1151,"ET":1152,"que":1153,"error":1154,"Ġnew":1155,"low":1156,"ĠPy":1157,"vice":1158,"Cor":1159,"UE":1160,"heck":1161,"ACE":1162,"ULL":1163,"ms":1164,"ĠJ":1165,"Ġport":1166,"ill":1167,"On":1168,"Ġ6":1169,"aaaa":1170,"Ġarr":1171,"Corner":1172,"typ":1173,"SL":1174,"ux":1175,"Ġtrue":1176,"Sc":1177,"irst":1178,"]);<":1179,"args":1180,"Ġ|":1181,"Ġinclude":1182,"Ġare":1183,"amp":1184,"ĠMatrixXd":1185,"are":1186,"ey":1187,"mn":1188,"REG":1189,"OL":1190,"ance":1191,"AME":1192,"imp":1193,"Array":1194,"WStream":1195,"tter":1196,"Ġ>&":1197,"ft":1198,"Of":1199,"ename":1200,"Ġpa":1201,"DL":1202,"Reg":1203,"ffer":1204,"loc":1205,"osition":1206,"cp":1207,"gen":1208,"pd":1209,"(<":1210,"ync":1211,"max":1212,"Lo":1213,"To":1214,"info":1215,"Text":1216,"code":1217,"__<":1218,"values":1219,"Ġit":1220,"Ġ!=":1221,"Ġports":1222,"Ġcount":1223,"ress":1224,"Ġdt":1225,"Ġstr":1226,"mage":1227,"Ġbu":1228,"andle":1229,"Plugin":1230,"SION":1231,"cb":1232,"lutter":1233,"rib":1234,"open":1235,"common":1236,"face":1237,"))":1238,"Col":1239,"anag":1240,"ĠPro":1241,"<=":1242,"Function":1243,"][":1244,"gram":1245,"ĠGet":1246,"/*<":1247,"tail":1248,"Now":1249,"Test":1250,"mb":1251,"add":1252,"Ch":1253,"argv":1254,"af":1255,"Ġ#":1256,"Ġun":1257,"Ġ++":1258,"Ġnull":1259,"ĠCre":1260,"ĠExpression":1261,"OB":1262,"Ġcl":1263,"ay":1264,"ĠSt":1265,"ĠGL":1266,"base":1267,"enum":1268,"rect":1269,"Ġ\"<<":1270,"For":1271,"],":1272,"anager":1273,"MA":1274,"array":1275,"rame":1276,"erial":1277,"ision":1278,"mo":1279,"****************":1280,"agonal":1281,"Ġend":1282,"core":1283,"elem":1284,"WI":1285,"ark":1286,">()":1287,"Ġes":1288,"cond":1289,"WIN":1290,"Ġregister":1291,"pen":1292,"ãĤ":1293,"ert":1294,"Def":1295,"begin":1296,"Ġdp":1297,"Ġbeen":1298,"VAL":1299,"units":1300,"ERAT":1301,"Ġfoo":1302,"ĠCo":1303,"essage":1304,"PIN":1305,"GLSL":1306,"_;<":1307,"Comp":1308,"prec":1309,"Ġtest":1310,">///":1311,"ari":1312,"parse":1313,"REGI":1314,"UG":1315,"solve":1316,"ength":1317,"NO":1318,"opt":1319,"this":1320,"Ġcon":1321,"igenvalues":1322,"25":1323,"Ġ8":1324,"terator":1325,"AV":1326,"File":1327,"ak":1328,"VALUE":1329,"NEXT":1330,"ting":1331,"Ġcb":1332,"rip":1333,"roup":1334,"ĠMEG":1335,"ĠMEGDNN":1336,"plugin":1337,"argc":1338,"Dense":1339,"ust":1340,"Ġunsigned":1341,"Dialog":1342,"Ġle":1343,"Get":1344,"Manager":1345,"Menu":1346,"org":1347,"ĠSYS":1348,"Ġ9":1349,"Ġresult":1350,"Ref":1351,"main":1352,"elemwise":1353,"Un":1354,"Ġmin":1355,"INT":1356,"Info":1357,"++.<":1358,"ix":1359,"lumn":1360,"APS":1361,"parent":1362,"Ġan":1363,"me":1364,"ATION":1365,"ĠCreated":1366,"ELEM":1367,"000":1368,"ĠGenerated":1369,"Visitor":1370,"Ġoff":1371,"CTYPE":1372,"ECT":1373,"Player":1374,"line":1375,"Ġq":1376,"utho":1377,"uthored":1378,"sync":1379,"ENERAT":1380,"ld":1381,"Map":1382,"Ġname":1383,"YER":1384,"itial":1385,"urr":1386,"KE":1387,"Set":1388,"ach":1389,"exp":1390,"impls":1391,"SON":1392,"work":1393,"ild":1394,"ARITY":1395,"PLUG":1396,"WISE":1397,"ELEMWISE":1398,"44":1399,"LIN":1400,"emory":1401,"ception":1402,"precision":1403,"DU":1404,"Ġal":1405,"PLUGIN":1406,"CK":1407,"SP":1408,"Ġ||":1409,"TR":1410,"Ġ*<":1411,"ĠAr":1412,"Sh":1413,"Ġcreate":1414,"cplusplus":1415,"iro":1416,"count":1417,"ENERATED":1418,"Point":1419,"arget":1420,"!<":1421,"Button":1422,"setZero":1423,"Res":1424,"Ġrow":1425,"Ġnullptr":1426,"FOR":1427,"ou":1428,")<<":1429,"isp":1430,"perator":1431,"VERSION":1432,"ccept":1433,"(\"%":1434,"rite":1435,"sizeof":1436,"upp":1437,"DO":1438,"with":1439,"Ġpri":1440,"eft":1441,"ged":1442,"lob":1443,"Mode":1444,"tem":1445,"REGISTR":1446,"olver":1447,"input":1448,"bott":1449,"bottom":1450,"ĠGENERATED":1451,"Bu":1452,"ĠRE":1453,"Ġ20":1454,"src":1455,"ersion":1456,"Left":1457,"mer":1458,"Ident":1459,"Ġu":1460,"ĠReg":1461,"upport":1462,"MM":1463,"MP":1464,"new":1465,"Ġnlohmann":1466,"Ġdi":1467,"////////////////////////////////":1468,"registry":1469,"ass":1470,"...":1471,"REGISTRANT":1472,"ys":1473,"ific":1474,"AS":1475,"ĠPRO":1476,"Statement":1477,"Property":1478,"Ġcont":1479,"Ġprint":1480,"Right":1481,"lur":1482,"Ġwith":1483,"State":1484,"Ġheader":1485,"Ġexp":1486,"ide":1487,"one":1488,"tie":1489,"merged":1490,"LIB":1491,"ore":1492,"ound":1493,"stdint":1494,"format":1495,"tect":1496,"ilter":1497,"ĠArray":1498,"',":1499,"Ġstruct":1500,"ces":1501,"Ġfrom":1502,">@":1503,"nlohmann":1504,"ative":1505,"allback":1506,">*/<":1507,"min":1508,"printf":1509,"ymb":1510,"Ġdo":1511,"Ġtype":1512,"ymbol":1513,"UR":1514,"create":1515,"Ġll":1516,"value":1517,"ĠRegister":1518,"next":1519,"sm":1520,"sw":1521,"Num":1522,"NAME":1523,"qrt":1524,"ask":1525,"alls":1526,"ormal":1527,"Hel":1528,"ene":1529,"Ġsolution":1530,"ENT":1531,"bug":1532,"ov":1533,"point":1534,"roll":1535,"ĠSC":1536,"Ġwill":1537,"Ġvisitor":1538,"upd":1539,"========":1540,"AG":1541,"Ġusing":1542,"Ġfirst":1543,"application":1544,"rack":1545,"Ġcolumn":1546,"END":1547,"JECT":1548,"RT":1549,"colwise":1550,"Id":1551,"bs":1552,"cv":1553,"inition":1554,"load":1555,"Ġthat":1556,"Add":1557,"OP":1558,"iles":1559,"):\"":1560,"window":1561,"Ġmy":1562,"Ġvalues":1563,"exec":1564,"SY":1565,"bj":1566,"xy":1567,"onent":1568,"list":1569,"Ġmegdnn":1570,"cf":1571,"ost":1572,"Ġpre":1573,"WR":1574,"Index":1575,"Code":1576,"app":1577,"glm":1578,"ouse":1579,"KUP":1580,"ĠAP":1581,"ord":1582,"ktop":1583,"Ġadd":1584,"ignment":1585,"Cont":1586,"ici":1587,"Path":1588,"Ġprintf":1589,">/*":1590,"Error":1591,"init":1592,"raw":1593,"effici":1594,"Ġ);<":1595,"ry":1596,"Ġsub":1597,"ower":1598,"Ġyou":1599,"www":1600,"block":1601,"flutter":1602,"inter":1603,"lag":1604,">::":1605,"Ġvec":1606,"WKUP":1607,"Ġones":1608,"typename":1609,"My":1610,"AND":1611,"wo":1612,"ĠZ":1613,"chur":1614,"proble":1615,"Value":1616,"ep":1617,"ĠJSON":1618,"ification":1619,"ĠDo":1620,"((":1621,"ES":1622,"Item":1623,"Ġfunction":1624,"Ġoperator":1625,"Ġhttps":1626,"ai":1627,"ya":1628,"Ġspec":1629,"PARAM":1630,"erator":1631,"DULE":1632,"AKE":1633,"config":1634,"Ġgener":1635,"OT":1636,"cc":1637,"orld":1638,"ctor":1639,"sert":1640,"afx":1641,"Ġed":1642,"Ġelement":1643,"SCALAR":1644,"SO":1645,"stance":1646,"13":1647,"CPP":1648,"Pack":1649,"ared":1650,"esh":1651,"sed":1652,"Ġ>=":1653,"undle":1654,"ĠSCALAR":1655,"Iterator":1656,"Spec":1657,"event":1658,"Ġtri":1659,"Ġ{};<":1660,"lient":1661,"DAT":1662,"Frame":1663,"Log":1664,"left":1665,"show":1666,"Ġclang":1667,"pe":1668,"Ġsyn":1669,"licit":1670,"tected":1671,"\"),":1672,"512":1673,"tes":1674,"dered":1675,"ler":1676,"yer":1677,"onents":1678,"lobal":1679,"DK":1680,"Ġbegin":1681,"QWidget":1682,"Ġsh":1683,"EM":1684,"Lay":1685,"tor":1686,"detail":1687,"Impl":1688,"Ġcol":1689,"tax":1690,"UNT":1691,"256":1692,"tings":1693,"ique":1694,"joint":1695,"tk":1696,"Ġil":1697,"\"<<":1698,"lose":1699,"unc":1700,"OfA":1701,"parseMatrix":1702,"SER":1703,"Ġtemp":1704,"Ġbundle":1705,"older":1706,"Ġyour":1707,"NULL":1708,"Time":1709,"dim":1710,"diagonal":1711,"Registry":1712,"'s":1713,"ingle":1714,"Ġ100":1715,"fontinfo":1716,"uxg":1717,"=\"":1718,"]]":1719,"lat":1720,"Ġat":1721,"Ġas":1722,"ros":1723,"PLIC":1724,"ash":1725,"Ġregistry":1726,"ASS":1727,"pos":1728,"Ġor":1729,"Inter":1730,"fer":1731,"ics":1732,"ized":1733,"Int":1734,"mmand":1735,"TYPE":1736,"river":1737,"ĠNya":1738,"Ġeach":1739,"ACK":1740,"ĠNyaan":1741,"FF":1742,"path":1743,"inary":1744,"Ġvim":1745,"READ":1746,"ĠHWStream":1747,"Identity":1748,"Ġsyntax":1749,"PRO":1750,"_(":1751,"Ġå":1752,"ordered":1753,"[])<":1754,"isplay":1755,"DIO":1756,"RightCorner":1757,"EL":1758,"Ma":1759,"Module":1760,"OS":1761,"OBJECT":1762,"LeftCorner":1763,"PLICATION":1764,"so":1765,"vm":1766,"--------------------------------":1767,"graph":1768,"lete":1769,"ange":1770,"Ġpart":1771,"Ġcode":1772,"long":1773,"uth":1774,"lex":1775,"ick":1776,"doxy":1777,"untime":1778,"doxygen":1779,"Ptr":1780,"æķ":1781,"Ġobject":1782,"ĠError":1783,"ACT":1784,"Ġedit":1785,"An":1786,"Element":1787,"Th":1788,"WAKE":1789,"Ġid":1790,"Ġios":1791,"ribut":1792,"WAKEUP":1793,"megdnn":1794,"oc":1795,"doc":1796,"ave":1797,"Ġcoeffici":1798,"ĠPWR":1799,"ias":1800,"IMPORT":1801,"Definition":1802,"ssignment":1803,"ĠĠĠĠĠĠĠĠĠĠ":1804,"Main":1805,"while":1806,"yam":1807,"zz":1808,"Ġnumbers":1809,"100":1810,"Game":1811,"til":1812,"lab":1813,"undef":1814,"iled":1815,"Ġeigenvalues":1816,"kernel":1817,"Ġcomponents":1818,"He":1819,"Render":1820,"cy":1821,"cast":1822,"ee":1823,"Ġlib":1824,"Xd":1825,"Ġval":1826,"ĉĉĉ":1827,"DATA":1828,"Filter":1829,"Sensor":1830,"ning":1831,"erver":1832,"arch":1833,"classes":1834,"urrent":1835,"BO":1836,"[\"":1837,"Ġupd":1838,"lace":1839,"imum":1840,"Image":1841,">}//":1842,"TH":1843,"])":1844,"DECL":1845,"ĠIm":1846,"abel":1847,"generated":1848,"Ġroot":1849,"99":1850,">().":1851,"context":1852,"function":1853,"pi":1854,"make":1855,"ĠNC":1856,"15":1857,"Ġ?":1858,"ĠID":1859,"ts":1860,"oriz":1861,"ract":1862,"]=":1863,"ä¸":1864,"ĠGLM":1865,"orizont":1866,"FLO":1867,"HWStream":1868,"Lin":1869,"QApplication":1870,"by":1871,"engl":1872,"udio":1873,"orizontal":1874,"SDL":1875,"uce":1876,"utex":1877,"ical":1878,"etwork":1879,"Model":1880,"opengl":1881,"ĠQString":1882,"ages":1883,"PluginRegistry":1884,"ARE":1885,"kr":1886,"ARCH":1887,"ariable":1888,"length":1889,"uzz":1890,"ï¼":1891,"Ġcnt":1892,"see":1893,"anf":1894,"Ġapp":1895,"LINE":1896,"tog":1897,"boj":1898,"MEM":1899,"::~":1900,"Ġtime":1901,"Handle":1902,"ove":1903,"time":1904,"Ġ**":1905,"VectorXf":1906,"ample":1907,"pdate":1908,"(&":1909,"Context":1910,"FUN":1911,"port":1912,"ization":1913,"ORD":1914,"Par":1915,"Vis":1916,"jor":1917,"Ġcopy":1918,"86":1919,"Cpp":1920,"Solver":1921,"ward":1922,"Ġlog":1923,"REF":1924,"api":1925,"Ġkey":1926,"ĠVectorXf":1927,"Config":1928,"!=":1929,"Ġsc":1930,"license":1931,"ally":1932,"otal":1933,"UDIO":1934,"];":1935,"kht":1936,"///<":1937,"Ġsort":1938,"unter":1939,"ndim":1940,"utils":1941,"yamov":1942,"khtyamov":1943,"av":1944,"ĠAn":1945,"ĠĠĠĠĠĠĠĠĠ":1946,"ges":1947,"ILITY":1948,"Ġprocess":1949,"ription":1950,"Number":1951,"dims":1952,"OK":1953,"Param":1954,"pact":1955,"ations":1956,"Init":1957,"MatrixXi":1958,"types":1959,"GET":1960,"Horizontal":1961,"NS":1962,"amer":1963,"ifi":1964,"ĠCO":1965,"param":1966,"Ġprivate":1967,"upported":1968,"</":1969,"UC":1970,"dp":1971,"Ġreverse":1972,"ONT":1973,"DIS":1974,"pdf":1975,"æķ°":1976,"\">":1977,"App":1978,"close":1979,"sqrt":1980,"Ġ16":1981,"exception":1982,"Ġ@}<":1983,"oft":1984,"Enter":1985,"Ġsection":1986,"GLSLang":1987,"bl":1988,"Ġhref":1989,"Ġ@{<":1990,"Ġdefaultp":1991,"addtog":1992,"Ġspecification":1993,"GLSLangSpec":1994,"addtogroup":1995,"pop":1996,"ĠNULL":1997,"Ġrandom":1998,"(__":1999,"ular":2000,"formation":2001,"Rows":2002,"ĠY":2003,"Ġ)<":2004,"Ġparam":2005,"ĠSet":2006,"andler":2007,"output":2008,"result":2009,"latform":2010,">/**<":2011,"GR":2012,"IP":2013,"LS":2014,"second":2015,"Ġwe":2016,"ENSE":2017,"ĠQApplication":2018,"Di":2019,"Tree":2020,"UI":2021,"kno":2022,"Ġ...":2023,"ence":2024,"ĠMO":2025,"Ġstart":2026,"ĠBase":2027,"Ġexplicit":2028,"Class":2029,"Key":2030,"Ġz":2031,"ster":2032,"ery":2033,"Ġptr":2034,"Ġinit":2035,"prite":2036,"udge":2037,"Sco":2038,"les":2039,"ryp":2040,"try":2041,"imer":2042,"IME":2043,"EXPORT":2044,"small":2045,"amera":2046,"knob":2047,"mid":2048,"Ġ*=":2049,"Ġ(\"":2050,"Ġ101":2051,"Ones":2052,"import":2053,"PC":2054,"System":2055,"UM":2056,"Util":2057,"bind":2058,"gine":2059,"holder":2060,"ml":2061,"Ġsource":2062,"STUDIO":2063,"Ġsizeof":2064,"protected":2065,"ĠAPSTUDIO":2066,"(-":2067,"Te":2068,"ies":2069,"ps":2070,"tri":2071,"unique":2072,"eger":2073,"APPLICATION":2074,"https":2075,"FLOAT":2076,"DISABLE":2077,"(_":2078,"CC":2079,"Check":2080,"Space":2081,"ace":2082,"ĉĠĠĠĠĠĠĠ":2083,"Ġfont":2084,"Common":2085,"cols":2086,"GDNN":2087,"MY":2088,"rary":2089,"MEGDNN":2090,"authored":2091,"als":2092,"eth":2093,"Ġ(!":2094,"ĠAuthored":2095,"ĠMat":2096,"ĠUi":2097,"Cols":2098,"MyApplication":2099,"Ed":2100,"game":2101,"matic":2102,"sub":2103,"ric":2104,"ATE":2105,"SPACE":2106,"pacto":2107,"14":2108,"Bar":2109,"MSC":2110,"space":2111,"inal":2112,"ature":2113,"Ġindex":2114,"ĠOpen":2115,"ICENSE":2116,"\")<":2117,"Xi":2118,"åĬ":2119,"istribut":2120,"rows":2121,"rackknob":2122,"ĠMap":2123,"lider":2124,"Se":2125,"sg":2126,"sktop":2127,"tra":2128,"())":2129,"head":2130,"FIG":2131,"thread":2132,">;<":2133,"Label":2134,"Piv":2135,"ĠSystem":2136,"MIN":2137,"Ġcla":2138,"Ġproject":2139,"md":2140,"nect":2141,"Ġ[":2142,"reak":2143,"Command":2144,"inline":2145,"torch":2146,"judge":2147,"mark":2148,"pch":2149,"ĠCont":2150,"ĠWidget":2151,"view":2152,"Engine":2153,"COMM":2154,"Ġpage":2155,"Ġbuild":2156,"MAX":2157,"expr":2158,"ACTOR":2159,"24":2160,"Af":2161,"Fact":2162,"Rule":2163,"gb":2164,"normal":2165,"ĠIN":2166,"Ġ-<":2167,"ĠDe":2168,"CODE":2169,"opencv":2170,"+=":2171,"Accept":2172,"Graph":2173,"WORD":2174,"Ġ=\\":2175,"Ġschur":2176,"Input":2177,"ape":2178,"used":2179,"Ġsecond":2180,"Color":2181,"BIT":2182,"Font":2183,"IO":2184,"Wrapper":2185,"gor":2186,"gui":2187,"the":2188,"visitor":2189,"{{":2190,"Ġtext":2191,"idth":2192,"igh":2193,"ĠWindow":2194,"ĠImpacto":2195,"Hiro":2196,"PER":2197,"Symbol":2198,"åĪ":2199,"Ġ)":2200,"ond":2201,"resize":2202,"Ġreturns":2203,"Ġhiro":2204,"annel":2205,"buffer":2206,"Ġgenerate":2207,"uthor":2208,"ale":2209,"())<":2210,"last":2211,"--){<":2212,"ĠST":2213,"Ġinformation":2214,"composition":2215,"compiled":2216,"ome":2217,">=":2218,"HE":2219,"Message":2220,"VI":2221,"Version":2222,"bri":2223,"Ġmid":2224,"Ġrep":2225,"etry":2226,"expression":2227,"old":2228,"Coeff":2229,"19":2230,"Qu":2231,"Tensor":2232,"Ġlu":2233,"Ġblur":2234,"CONFIG":2235,"ĠStatement":2236,"NT":2237,"SI":2238,"Ġdefine":2239,"Ġ--":2240,"except":2241,"ĠAccept":2242,"ĠDec":2243,"ãģ®":2244,"ethod":2245,"Action":2246,"LL":2247,"Op":2248,"]==":2249,"Ġ32":2250,"Ġsw":2251,"ĠCPP":2252,"Entry":2253,"Hello":2254,"ZE":2255,"Ġautomatic":2256,"Ġrows":2257,"SB":2258,"lin":2259,"insert":2260,"cos":2261,"hel":2262,"direct":2263,"problems":2264,"Ad":2265,"Link":2266,"OST":2267,"Ġright":2268,"ĠLo":2269,"ABILITY":2270,"duct":2271,"eigenvalues":2272,"fc":2273,"tensor":2274,"pavel":2275,"Ġpoint":2276,"Ġakhtyamov":2277,"EigenSolver":2278,"solver":2279,"Ġakhtyamovpavel":2280,"Al":2281,"object":2282,"vk":2283,"Ġcheck":2284,"Ġwh":2285,"ĠFL":2286,"ĠFile":2287,"ĠList":2288,"ĠUn":2289,"TESTABILITY":2290,"REFACTOR":2291,"REFACTORING":2292,"node":2293,"ervice":2294,"Ġmod":2295,"chw":2296,"shared":2297,"ntity":2298,"NAMESPACE":2299,"EYER":2300,"Handler":2301,"Sub":2302,"mod":2303,"tx":2304,"page":2305,"vers":2306,"operator":2307,"Ġnoexcept":2308,"))<":2309,"33":2310,"EB":2311,"Le":2312,"run":2313,"},":2314,"iny":2315,"Ġpar":2316,"ĠEyer":2317,"boost":2318,"ĠFlutter":2319,"Ġcompute":2320,"OG":2321,"ous":2322,"Ġserial":2323,"ĠRow":2324,"Process":2325,"):":2326,"mv":2327,"eta":2328,"izer":2329,"move":2330,"CA":2331,"Ġen":2332,"resh":2333,"Ġapplication":2334,"ĠMain":2335,"Ġdelete":2336,"empty":2337,"Visit":2338,"MB":2339,"false":2340,"runtime":2341,"pac":2342,"ĠAdd":2343,"iler":2344,"temp":2345,"ONN":2346,"(\"\");<":2347,"Debug":2348,"Gener":2349,"Lib":2350,"Sp":2351,"module":2352,"ingD":2353,"asic":2354,"andard":2355,"ĠIl":2356,"ĠUse":2357,"roller":2358,"Ġcols":2359,"),<":2360,">{":2361,"IR":2362,"Line":2363,"Mat":2364,"Ġus":2365,"index":2366,"att":2367,"Ġfind":2368,"Ġini":2369,"Format":2370,"URCE":2371,"PAT":2372,"Rect":2373,"nc":2374,"start":2375,"Ġ\"]":2376,"arning":2377,"MatrixXcf":2378,"Ġhere":2379,"[],":2380,"ache":2381,"normalized":2382,"brief":2383,"Sum":2384,"Ġtarget":2385,"Ġ10000":2386,"MODULE":2387,"By":2388,"Dec":2389,"UD":2390,"UDE":2391,"yle":2392,"Ġne":2393,"ĠSparseMatrix":2394,"Initial":2395,"CLUDE":2396,"ĠPROG":2397,"closeBox":2398,"Or":2399,"Py":2400,"Count":2401,"ĠWIN":2402,"ithub":2403,"key":2404,"åĬĽ":2405,".\"":2406,"Task":2407,"lang":2408,"uture":2409,"icros":2410,"unk":2411,"ithm":2412,"rowwise":2413,"RowVector":2414,"Packet":2415,"Ġautomatically":2416,"FIN":2417,"text":2418,"vc":2419,"ĠTO":2420,"Instance":2421,"ĠOn":2422,"scanf":2423,"register":2424,"pow":2425,"Ġlicense":2426,"ank":2427,"pack":2428,"LinSpace":2429,"LinSpaced":2430,"])<":2431,"gate":2432,"system":2433,"rep":2434,"--;<":2435,"etric":2436,"ension":2437,"Arg":2438,"buf":2439,"SOURCE":2440,"hom":2441,"ible":2442,"len":2443,"}}<":2444,"led":2445,"level":2446,"ify":2447,"Windows":2448,"imple":2449,"ĠPROGMEM":2450,"ha":2451,"jp":2452,"ono":2453,"pages":2454,"Ġsrc":2455,"Ġ12":2456,"imation":2457,"board":2458,"angular":2459,"ribute":2460,"50":2461,"fs":2462,"gener":2463,"memory":2464,"çļ":2465,"Ġmp":2466,"Ġ=\"":2467,"Ġnode":2468,"alloc":2469,"imd":2470,"ĠFunction":2471,"FILE":2472,"ULT":2473,"abs":2474,"assert":2475,"Ġheaders":2476,"icrosoft":2477,"çļĦ":2478,"Mesh":2479,"NON":2480,"Out":2481,"Upper":2482,"hnormalized":2483,"ock":2484,"oog":2485,"Ġro":2486,"Ġerror":2487,"atus":2488,"coeff":2489,"stdafx":2490,"Ġ((":2491,"Ġlink":2492,"adjoint":2493,"ogene":2494,"conv":2495,"quare":2496,"topLeftCorner":2497,"UTTER":2498,"Ġ\\<":2499,"bottomRightCorner":2500,"ĠFLUTTER":2501,"homogene":2502,"homogeneous":2503,"Memory":2504,"QString":2505,"cont":2506,"Ġper":2507,"Ġlang":2508,"own":2509,"ĠIRT":2510,"ĠWEB":2511,"itional":2512,"Ġhead":2513,"Device":2514,"oogle":2515,"*)":2516,"18":2517,"cur":2518,"dl":2519,"we":2520,"decl":2521,"verti":2522,"ĠNode":2523,"math":2524,"Ġincludes":2525,"Component":2526,"DOW":2527,"gtest":2528,"Ġlen":2529,"ĠLICENSE":2530,"interface":2531,"BEG":2532,"alar":2533,"Ġfuture":2534,"eter":2535,"Ġinline":2536,"Ġfloating":2537,"BUG":2538,"Register":2539,"Ġbuffer":2540,"openHorizontal":2541,"AVE":2542,"Ġupdated":2543,"BEGIN":2544,"LU":2545,"ML":2546,"ok":2547,"tree":2548,"Ġpush":2549,"unordered":2550,"ĠSize":2551,"elf":2552,"ITEM":2553,"server":2554,"ook":2555,"fonts":2556,"ĠPROB":2557,"swer":2558,"linux":2559,"ĠWEBPP":2560,"Des":2561,"GN":2562,"================":2563,"Layout":2564,"rackknobr":2565,"CI":2566,"TRO":2567,"Vert":2568,"github":2569,"--)<":2570,"ĠĠĠĠĠĠĠĠĠĠĠĠĠĠĠĠĠĠĠ":2571,"ĠQW":2572,"CTION":2573,"ADER":2574,"Ġheight":2575,"OLS":2576,"Plugins":2577,"********************************":2578,"Edit":2579,"ĠPROBLEM":2580,"TT":2581,"Update":2582,"bin":2583,"blur":2584,"eval":2585,"first":2586,"null":2587,"qual":2588,"icense":2589,"Texture":2590,"Ġserialize":2591,"Ġlangu":2592,"FE":2593,"].":2594,"cstd":2595,"find":2596,"Ġplugin":2597,"ĠEX":2598,"__)<":2599,"ACED":2600,"ometry":2601,"vider":2602,"maxCoeff":2603,"Ġprocessing":2604,"LY":2605,"cul":2606,"seg":2607,"Ġtotal":2608,"scription":2609,"Interface":2610,"label":2611,"holderQ":2612,"vertible":2613,"01":2614,"Tra":2615,"cwise":2616,"ccess":2617,"handle":2618,"ware":2619,"ino":2620,"itmap":2621,"isc":2622,"ĠTest":2623,"ALL":2624,"ansform":2625,"Ġdecomposition":2626,"proto":2627,"ainer":2628,"matrixT":2629,"oost":2630,"uda":2631,"Att":2632,"Match":2633,"widget":2634,"Ġqu":2635,"Ġuxg":2636,"Ġiterator":2637,"ĠCom":2638,"ĠMC":2639,"PLACED":2640,"allfont":2641,"share":2642,"Ġgenallfont":2643,"genpages":2644,"ĠREPLACED":2645,"uxggenpages":2646,"Thread":2647,"ĠContents":2648,"Ġbuildroot":2649,"Level":2650,"Ġlanguages":2651,"22":2652,"Tr":2653,"juce":2654,"sys":2655,"err":2656,"Ġbreak":2657,"ĠSc":2658,"ĠStr":2659,"ĠĠĠĠĠĠĠĠĠĠĠĠ":2660,"ĠModule":2661,"spec":2662,"Ġstate":2663,"off":2664,"Buffer":2665,"03":2666,"09":2667,"FO":2668,"Qt":2669,"Run":2670,"cle":2671,"nchw":2672,"player":2673,"lour":2674,"ĠCD":2675,"ENCV":2676,"Ġrun":2677,"Ġexpression":2678,"Ġits":2679,"Functions":2680,"ĠRegisterPlugins":2681,"Team":2682,"Const":2683,"Client":2684,"FIL":2685,"GE":2686,"SDK":2687,"ding":2688,"lease":2689,"Ġfast":2690,"Ġfinal":2691,"licate":2692,"master":2693,"ĠACE":2694,"ĠCh":2695,"Ġobjects":2696,"ĠMODULE":2697,"gorithm":2698,"\")":2699,"FG":2700,"With":2701,"cd":2702,"target":2703,"åħ":2704,"ĠONN":2705,"ded":2706,"lect":2707,"lare":2708,"etcode":2709,"INCLUDE":2710,"ĠQWidget":2711,"aped":2712,"odel":2713,"ĠUSB":2714,"ernal":2715,"pybind":2716,"registr":2717,"Ġ/=":2718,"aaaaaa":2719,"ĠProperty":2720,"Ġcolumns":2721,"Header":2722,"ĠMainWindow":2723,"APP":2724,"fuzz":2725,"hs":2726,"Ġcase":2727,"leetcode":2728,"eturn":2729,"Ġinverse":2730,"unsupported":2731,"Unit":2732,"17":2733,"Group":2734,"US":2735,"gl":2736,"pr":2737,"rr":2738,"desktop":2739,"loop":2740,"ingleton":2741,"Ġcoefficient":2742,"EntryPoint":2743,"Entity":2744,"IV":2745,"Que":2746,"man":2747,"ates":2748,"Ġsolver":2749,"ĠParam":2750,"ĠBaaaa":2751,"element":2752,"engine":2753,"arkingD":2754,"AGE":2755,"Layer":2756,"COMMAND":2757,"ĠListNode":2758,"aaaaaaarkingD":2759,"ĠBaaaaaaaaaaarkingD":2760,"ĠBaaaaaaaaaaarkingDog":2761,"*>":2762,">,":2763,"AYER":2764,"GEN":2765,"gi":2766,"lit":2767,"Ġé":2768,"den":2769,"ampa":2770,"Ġversion":2771,"DEP":2772,"Ġstandard":2773,"ernel":2774,"Scroll":2775,"Controller":2776,"ci":2777,"my":2778,"Ġent":2779,"ines":2780,"ced":2781,"Ġic":2782,"Ġtwo":2783,"Ġfound":2784,"Ġpos":2785,"Ġstdafx":2786,"ĠTele":2787,"ONLY":2788,"mainwindow":2789,"istribution":2790,"ĠDeclare":2791,"Ġswap":2792,"Ġplugins":2793,"-<":2794,">);<":2795,"bpa":2796,"cro":2797,"ument":2798,"Ġdst":2799,"ĠDense":2800,"ĠmatA":2801,"local":2802,"Ġcoefficients":2803,"ĠWindows":2804,"SIZE":2805,"Ġ\"]^":2806,"coeffRef":2807,"segment":2808,"ĠTelegram":2809,"10000":2810,"Dele":2811,"Pri":2812,"mi":2813,"ump":2814,"Ġlast":2815,"stract":2816,"ales":2817,"Ġap":2818,"ateg":2819,"chr":2820,"ĠMY":2821,"ĠFONT":2822,"ROOT":2823,"GLOB":2824,"Max":2825,"rypto":2826,"ĠRowVector":2827,"HY":2828,"Mod":2829,"UB":2830,"image":2831,"xx":2832,"Ġfunc":2833,"Ġsu":2834,"INV":2835,"Ġline":2836,"RESOURCE":2837,"ĠRe":2838,"ĠOut":2839,"Env":2840,"fast":2841,"Ġdirect":2842,"problem":2843,"ifier":2844,"PCFG":2845,"ĠCDPCFG":2846,"Ġicalls":2847,"FX":2848,"SIM":2849,"VM":2850,"link":2851,"mit":2852,"word":2853,"orage":2854,"ich":2855,"stdbool":2856,"uration":2857,"isual":2858,"ĠCon":2859,"blem":2860,"number":2861,"ĠCOUNT":2862,"GLOBAL":2863,"Actor":2864,"Draw":2865,"Pass":2866,"]+":2867,"audio":2868,"dis":2869,"Ġ.":2870,"Ġ;":2871,"Ġui":2872,"INLINE":2873,"ĠDynamic":2874,"Stride":2875,"tions":2876,"ĠBlock":2877,"React":2878,"windows":2879,"bytes":2880,"55":2881,"Not":2882,"Typ":2883,"Ver":2884,"glib":2885,"hash":2886,"ken":2887,"Ġimp":2888,"Ġtop":2889,"Ġfl":2890,"lick":2891,"ĠEn":2892,"Ġchang":2893,"ĠRender":2894,"ĠVectors":2895,"lementation":2896,"ãĤĭ":2897,"swap":2898,"After":2899,"ĠFONTDATA":2900,"Ġter":2901,"atrices":2902,"ERR":2903,"ĠCreate":2904,"Ġ{\"":2905,"ĠBO":2906,"artial":2907,"Ġproduct":2908,"BaseIterator":2909,"Read":2910,"amples":2911,"21":2912,"Assignment":2913,"Per":2914,"ake":2915,"hp":2916,"lim":2917,"mt":2918,"ĩº":2919,"Ġvfuzz":2920,"Ġsquare":2921,"Ġread":2922,"opr":2923,"UTIL":2924,"plugins":2925,"ĠRegisters":2926,"ĠTODO":2927,"registrant":2928,"80":2929,"SparseMatrix":2930,"ved":2931,"algorithm":2932,"lable":2933,"Ġconstexpr":2934,"vert":2935,"ilename":2936,"Colour":2937,"ĠDes":2938,"serial":2939,"ĠVec":2940,"FORM":2941,"=(":2942,"No":2943,"PY":2944,"This":2945,"obj":2946,"ven":2947,"Ġ*)":2948,"itle":2949,"Ġpath":2950,"Ġequ":2951,"ĠUsed":2952,"ther":2953,"////////////////////////////////////////////////////////////////":2954,"ĠONNC":2955,"DA":2956,"IX":2957,"sort":2958,"åı":2959,"inverse":2960,"let":2961,"()(":2962,"Ġsol":2963,"Ġabs":2964,"ets":2965,"ĠLink":2966,"topRightCorner":2967,"CONTRO":2968,"WINDOW":2969,"Ġsubject":2970,"inylang":2971,"reshaped":2972,"DX":2973,"PR":2974,"Server":2975,"Ġlow":2976,"lean":2977,"pair":2978,"Ġpy":2979,"Ġposition":2980,"Ġcos":2981,"Ġinteger":2982,"Provider":2983,"ĠVisual":2984,"ullPiv":2985,"PARSER":2986,"Shader":2987,"Result":2988,"bottomLeftCorner":2989,"Adjoint":2990,"elfAdjoint":2991,"ĠString":2992,"INCLUDED":2993,")/":2994,"PO":2995,"WN":2996,"sign":2997,"wh":2998,"Ġ[]":2999,"rol":3000,"Ġcoales":3001,"chip":3002,"velo":3003,"RES":3004,"ĠLog":3005,"ĠVectorXi":3006,"ADD":3007,"ãĤĴ":3008,"attribute":3009,"Ġcoalesced":3010,")(":3011,"Block":3012,"Eyer":3013,"Global":3014,"Norm":3015,"dle":3016,"eometry":3017,"fallback":3018,"rea":3019,"rid":3020,"leep":3021,"INST":3022,"ĠPlayer":3023,"ĠThe":3024,"Ġinitial":3025,"ĠWorld":3026,"qui":3027,"iven":3028,"acter":3029,"quest":3030,"****************<":3031,"Helper":3032,"SYMB":3033,"FUNCTION":3034,"declspec":3035,"IS":3036,"SYS":3037,"emplate":3038,"uino":3039,"Ġ\"<":3040,"Ġ15":3041,"Ġ1000":3042,"ish":3043,"Ġlm":3044,"CORE":3045,"ĠSYSROOT":3046,"OKED":3047,"nection":3048,"ĠMCAPI":3049,"##":3050,":(":3051,"Timer":3052,"cnt":3053,"Ġ:<":3054,"Ġenum":3055,"real":3056,"Ġmay":3057,"ell":3058,"elif":3059,"ĠTensor":3060,"Ġbyte":3061,"ĠRun":3062,"ANN":3063,"Lock":3064,"ariant":3065,"DECLARE":3066,"FILTER":3067,"CONTROL":3068,"\":":3069,"EW":3070,"RUNT":3071,"SSE":3072,"USE":3073,"cs":3074,"files":3075,"ia":3076,"message":3077,"ob":3078,"Ġãģ":3079,"ite":3080,"Ġbut":3081,"Ġ11":3082,"ĠSh":3083,"ĠFor":3084,"ĠLIB":3085,"angle":3086,"Forward":3087,"0001":3088,"Ġqr":3089,"lags":3090,"Args":3091,"Ġterms":3092,"hpx":3093,"RUNTIME":3094,"CR":3095,"CS":3096,"EST":3097,"Mouse":3098,"Vec":3099,"lf":3100,"lan":3101,"mon":3102,"table":3103,"Ġall":3104,"ĠDef":3105,"efore":3106,"COMP":3107,"CESS":3108,"Scene":3109,"Ġany":3110,"DEPEND":3111,"chrono":3112,"')":3113,"30":3114,"Sec":3115,"Tri":3116,"fd":3117,"ice":3118,"wri":3119,"Ġ\",":3120,"Ġmsg":3121,"iterator":3122,"round":3123,"Ġwrite":3124,"Ġ{}":3125,"box":3126,"ĠMatrixXi":3127,"ĠObject":3128,"ICON":3129,"Cond":3130,"graphics":3131,"helper":3132,"GNUC":3133,"Vertical":3134,"INVOKED":3135,"Fl":3136,"PT":3137,"PRE":3138,"gress":3139,"two":3140,"write":3141,"Ġext":3142,"Ġload":3143,"rection":3144,"reverse":3145,"Ġbase":3146,"hed":3147,"Ġonnc":3148,"ĠMicrosoft":3149,"ĠPA":3150,"ĠDi":3151,"DEBUG":3152,"ĠReturn":3153,"APACK":3154,"abled":3155,"tten":3156,"ĠĠĠĠĠĠĠĠĠĠĠĠĠĠĠĠĠĠĠĠ":3157,"queue":3158,"Ġunordered":3159,"Address":3160,"READONLY":3161,"SYMBOLS":3162,"XXf":3163,"be":3164,"iel":3165,"ks":3166,"mutex":3167,"render":3168,"Ġ::":3169,"//{{":3170,"ĠSprite":3171,"INK":3172,"ENCI":3173,"ĠUbpa":3174,"Exception":3175,"MED":3176,"ĠHE":3177,"\",&":3178,"Ġthrow":3179,"ĠComp":3180,"Ġdiag":3181,"angularView":3182,"DEPENDENCI":3183,"DEPENDENCIES":3184,"FS":3185,"_.":3186,"gtk":3187,"stack":3188,"orlib":3189,"Ġplatform":3190,"Ġdisplay":3191,"istance":3192,"Com":3193,"ĠNum":3194,"ĠNext":3195,"scorlib":3196,"ript":3197,"Ġcontain":3198,"SYMED":3199,"ouseholderQ":3200,"Desc":3201,"rrg":3202,"ategy":3203,"Basic":3204,"Print":3205,"åŃ":3206,"è¿":3207,"order":3208,"alag":3209,"Ġsave":3210,"urface":3211,"Ġos":3212,"Style":3213,"ACY":3214,"Tests":3215,">():\"":3216,"AVX":3217,"bottomRows":3218,"ĠtriOfA":3219,"leftCols":3220,"ference":3221,"ĠAnswer":3222,"LinkDefinition":3223,"Alloc":3224,"replicate":3225,"FlPluginRegistry":3226,"ield":3227,"alagard":3228,"(!":3229,"Area":3230,"Camera":3231,"IRE":3232,"Ui":3233,"iss":3234,"statement":3235,"onse":3236,"coder":3237,"Ġvariable":3238,"Ġfiles":3239,"Ġsy":3240,"major":3241,"ERT":3242,"ĠTh":3243,"ules":3244,"quent":3245,"Ġfunctions":3246,"Utils":3247,"version":3248,"Delegate":3249,"\"));<":3250,"*,":3251,"02":3252,"45":3253,"MAC":3254,"Position":3255,"cstdint":3256,"fr":3257,"gle":3258,"vis":3259,"ĉĠĠ":3260,"ĠIMPORT":3261,"ins":3262,"description":3263,"Ġmscorlib":3264,"Ġnon":3265,"Ġtra":3266,"Ġfc":3267,"Ġsingle":3268,"Ġ19":3269,"ĠPLS":3270,"Ġlength":3271,"Ġ40001":3272,"ogonal":3273,"ĠVectorXd":3274,"utility":3275,"Logger":3276,"Ġ1001":3277,"Major":3278,"veloper":3279,"\";":3280,"Be":3281,"Serial":3282,"bias":3283,"catch":3284,"å¤":3285,"Ġass":3286,"Ġassignment":3287,"Ġop":3288,"ĠEYER":3289,"ĠQt":3290,"Ġmaximum":3291,"Ġexec":3292,"STRING":3293,"ustom":3294,"Codec":3295,"Renderer":3296,"FUNC":3297,"Parser":3298,"Factory":3299,"&)":3300,"Callback":3301,"DWORD":3302,"LOR":3303,"Up":3304,"cir":3305,"check":3306,"kan":3307,"rup":3308,"sin":3309,"{\"":3310,"¢ĺ":3311,"Ġ;<":3312,"lua":3313,"internal":3314,"Ġmessage":3315,"ĠSub":3316,"ollow":3317,"ĠMatrices":3318,"Ġdistribution":3319,"ĠFU":3320,"ANG":3321,"down":3322,"Program":3323,"SHR":3324,"atcher":3325,"Settings":3326,"Ġupdate":3327,"ï¼ļ":3328,"Ġlogger":3329,"35":3330,"AY":3331,"Icon":3332,"Json":3333,"cal":3334,"ench":3335,"copy":3336,"cope":3337,"itch":3338,"Ġboost":3339,"ĠĠĠĠĠĠĠĠĠĠĠĠĠ":3340,"process":3341,"Ġconfig":3342,"Build":3343,"MainWindow":3344,"Decl":3345,">();<":3346,"Call":3347,"Pa":3348,"ax":3349,"dir":3350,"Ġinc":3351,"Ġam":3352,"Ġuse":3353,"inrt":3354,"reen":3355,"Ġservice":3356,"Ġpi":3357,"Ġplayer":3358,"LEG":3359,"ĠGame":3360,"ĠGCC":3361,"ternal":3362,"EventArgs":3363,"Ġsolve":3364,"'<":3365,"('":3366,"/****************<":3367,"Auto":3368,"And":3369,"Is":3370,"We":3371,"bpp":3372,"fp":3373,"nv":3374,"åĢ":3375,"çĽ":3376,"ones":3377,"termin":3378,"ĠNo":3379,"ĠDriver":3380,"Ġjust":3381,"ĠRes":3382,"anner":3383,"128":3384,"ĠInit":3385,"Ġpack":3386,"MAIN":3387,"Ġåħ":3388,"CASE":3389,"Ġdirectory":3390,"1000":3391,"Abs":3392,"Slider":3393,"da":3394,"eigen":3395,"fix":3396,"norm":3397,"pu":3398,"ãĥ":3399,"infer":3400,"ater":3401,"integer":3402,"default":3403,"Ġtyp":3404,"iff":3405,"Ġss":3406,"Ġside":3407,"url":3408,"Ġbefore":3409,"Ġother":3410,"Ġ(*":3411,"ĠĠĠĠĠĠĠĠĠĠĠĠĠĠ":3412,"Ġwork":3413,"Ġinf":3414,"Ġlist":3415,"ATSHR":3416,"parser":3417,"Ġprogram":3418,"LOC":3419,"Package":3420,"Ġshort":3421,"licked":3422,"ĠHEATSHR":3423,"ĠHEATSHRINK":3424,"All":3425,"Float":3426,"HAN":3427,"Imp":3428,"New":3429,"Open":3430,"User":3431,"client":3432,"simd":3433,"ä»":3434,"Ġmap":3435,"ĠClu":3436,"img":3437,"Ġinvertible":3438,"ĠLL":3439,"QUIRE":3440,"color":3441,"Ġ102":3442,"Ġcontents":3443,"Ġcopyright":3444,"manip":3445,"artialPlayer":3446,"\"]":3447,"\",<":3448,"08":3449,"74":3450,":\"<":3451,"FL":3452,"HouseholderQ":3453,"Min":3454,"NUM":3455,"Play":3456,"ait":3457,"bit":3458,"clude":3459,"eriv":3460,"Ġcan":3461,"Ġnext":3462,"Ġnorm":3463,"Ġsin":3464,"Ġsupport":3465,"MatrixFunctions":3466,"ĠSe":3467,"INTER":3468,"true":3469,"Ġwidth":3470,"ONG":3471,"ĠDE":3472,"ĠLicense":3473,"GLM":3474,"1213":3475,"LOG":3476,"msg":3477,"Char":3478,"Channel":3479,"Ġminimum":3480,"Parent":3481,"filesystem":3482,"!!":3483,"(*":3484,"Display":3485,"GB":3486,"HAS":3487,"Length":3488,"SV":3489,"SelfAdjoint":3490,"URE":3491,"]<<\"":3492,"non":3493,"olo":3494,"ostream":3495,"{};<":3496,"state":3497,"atom":3498,"Ġcor":3499,"Ġcurrent":3500,"arm":3501,"Ġpop":3502,"Ġcom":3503,"Ġone":3504,"iomanip":3505,"ilder":3506,"Ġwarning":3507,"ALOG":3508,"ATCH":3509,"Ġhess":3510,"ĠUpdate":3511,"ĠMatrixXcf":3512,"ĠĠĠĠĠĠĠĠĠĠĠĠĠĠĠĠĠ":3513,"lyOn":3514,"workspace":3515,"Diagonal":3516,"ĠDenseIndex":3517,"Ġequation":3518,"rupt":3519,"enchmark":3520,"SelfAdjointEigenSolver":3521,"ĠhessOfA":3522,"lyOnThe":3523,"As":3524,"UME":3525,"]<":3526,"curr":3527,"now":3528,"pth":3529,"random":3530,"var":3531,"åĲ":3532,"inf":3533,"Ġcur":3534,"enter":3535,"Ġgame":3536,"ĠCH":3537,"edProperty":3538,"Ġinsert":3539,"Ġbytes":3540,"Ġhandle":3541,"ĠIP":3542,"ĠIt":3543,"ĠIDI":3544,"Strategy":3545,"nost":3546,"Ġtesting":3547,"PropertyBase":3548,"marker":3549,"ĠDeveloper":3550,"alagardPropertyBase":3551,"From":3552,"Mutex":3553,"Native":3554,"Tool":3555,"Table":3556,"Target":3557,"World":3558,"bfloat":3559,"dialog":3560,"eature":3561,"fn":3562,"Ġused":3563,"Ġmem":3564,"Ġfollow":3565,"ĠEvent":3566,"ĠPrint":3567,"ulkan":3568,"Counter":3569,"ĠIs":3570,"ĠUI":3571,"structor":3572,"llvm":3573,"mock":3574,"ĠREQUIRE":3575,"byte":3576,"erived":3577,"Do":3578,"OD":3579,"print":3580,"uff":3581,"Ġvm":3582,"Ġsz":3583,"Ġreference":3584,"ility":3585,"Ġ24":3586,"ĠType":3587,"option":3588,"html":3589,"ĠGoogle":3590,"ĠData":3591,"setup":3592,"Stack":3593,"Ġtry":3594,"CLASS":3595,"Ġhash":3596,"Animation":3597,"Binary":3598,"Gui":3599,"Obj":3600,"Sparse":3601,"az":3602,"current":3603,"cache":3604,"uid":3605,"Ġæ":3606,"Ġstream":3607,"req":3608,"orch":3609,"()-":3610,"Ġslo":3611,"INFO":3612,"RESS":3613,"gemv":3614,"iron":3615,"ĉĉĉĉ":3616,"ĠRUN":3617,"ANCE":3618,"Ext":3619,"foo":3620,"ffect":3621,"valid":3622,"Token":3623,"Ġelements":3624,"positor":3625,"ĠModuleEntryPoint":3626,"ERROR":3627,"ĠClub":3628,"*/":3629,"AK":3630,"AST":3631,"GUI":3632,"HAVE":3633,"Nv":3634,"clock":3635,"lear":3636,"Ġserver":3637,"Ġsbl":3638,"Ġinto":3639,"ĠAM":3640,"BaseElement":3641,"Ġleft":3642,"ASSUME":3643,"Material":3644,"Ġneed":3645,"NONNULL":3646,"ĩºåĬĽ":3647,"ironment":3648,"Create":3649,"Hash":3650,"MAP":3651,"PI":3652,"PUT":3653,"bi":3654,"hide":3655,"mem":3656,"rl":3657,"è¯":3658,"Ġra":3659,"Ġmx":3660,"alias":3661,"ĠpObject":3662,"__)":3663,"Ġdriver":3664,"bout":3665,"Status":3666,"vide":3667,"Ġunder":3668,"Resource":3669,"BOOL":3670,"Scope":3671,"Ġparent":3672,"ĠBOOST":3673,"ĠDevelopers":3674,")->":3675,"28":3676,"94":3677,">-":3678,"At":3679,"Bow":3680,"MAR":3681,"Pos":3682,"Power":3683,"Val":3684,"_);<":3685,"gic":3686,"mul":3687,"Ġextern":3688,"inue":3689,"instance":3690,"rain":3691,"Ġsome":3692,"Ġpower":3693,"imes":3694,"settings":3695,"MOCK":3696,"<<\"*":3697,"unsSco":3698,"DIALOG":3699,"allsBow":3700,"sole":3701,"ickets":3702,"ĠOpenCV":3703,"HEADER":3704,"PATH":3705,"pository":3706,"unsScored":3707,"allsBowled":3708,"26":3709,"Date":3710,"EIGEN":3711,"Light":3712,"Mon":3713,"RC":3714,"Ro":3715,"Sort":3716,"Surface":3717,"aw":3718,"not":3719,"ped":3720,"sz":3721,"orter":3722,"Ġtemplate":3723,"Ġsensor":3724,"Ġplease":3725,"mpty":3726,"Ġ13":3727,"Ġ25":3728,"ĠTr":3729,"Std":3730,"IDGET":3731,"address":3732,"LINK":3733,"ailable":3734,"SIMD":3735,"written":3736,"Building":3737,"terminant":3738,"*>(":3739,"DDK":3740,"JSON":3741,"Lu":3742,"case":3743,"func":3744,"git":3745,"gno":3746,"gmock":3747,"slider":3748,"¥åĬĽ":3749,"ĠINT":3750,"stampa":3751,"Ġtable":3752,"imal":3753,"vectors":3754,"ĠLib":3755,"Ġrender":3756,"IGH":3757,"Real":3758,"ĠArrayXXf":3759,"triangularView":3760,"Generic":3761,"Ġchanges":3762,"ĠNumber":3763,"Ġåħ¥åĬĽ":3764,"DDKVer":3765,";++":3766,"IAL":3767,"ILE":3768,"bum":3769,"hive":3770,"mult":3771,"sk":3772,"wn":3773,"yos":3774,"ysc":3775,"ç»":3776,"Ġmove":3777,"Ġident":3778,"lection":3779,"()).":3780,"pare":3781,"Ġflag":3782,"ined":3783,"ĠAl":3784,"chive":3785,"ĠMA":3786,"STM":3787,"ARY":3788,"PLAYER":3789,"ĠFEX":3790,"upo":3791,"mmetric":3792,"codec":3793,"OPENCV":3794,"ĠStatementList":3795,"Types":3796,"ĠDesktop":3797,"atomic":3798,"Ġslots":3799,"yosupo":3800,"05":3801,"CP":3802,"DER":3803,"Port":3804,"Rad":3805,"cname":3806,"fullPiv":3807,"ground":3808,"has":3809,"method":3810,"sensor":3811,"initial":3812,"rement":3813,"Ġcatch":3814,"Ġmess":3815,"Ġmgb":3816,"coa":3817,"Ġsign":3818,"igit":3819,"izable":3820,"__((":3821,"tele":3822,"Ġevent":3823,"Ġ';":3824,"ĠWe":3825,"2020":3826,"topRows":3827,"host":3828,"INGS":3829,"Reader":3830,"rightCols":3831,"THREAD":3832,"Ġscanf":3833,"Ġ(\"%":3834,"culant":3835,"cwiseAbs":3836,"protocol":3837,"Queue":3838,"INSTANCE":3839,"circulant":3840,"));":3841,"BI":3842,"Down":3843,"Kit":3844,"QW":3845,"VO":3846,"ear":3847,"flag":3848,"udo":3849,"ency":3850,"Ġvis":3851,"Ġac":3852,"Ġonly":3853,"ansl":3854,"complex":3855,"logger":3856,"00007":3857,"ĠProgram":3858,"update":3859,"kernels":3860,"what":3861,"ĠLLVM":3862,"*/<":3863,"AI":3864,"ECK":3865,"FR":3866,"JOR":3867,"MT":3868,"aut":3869,"duino":3870,"frame":3871,"ram":3872,"sbl":3873,"}};<":3874,"erase":3875,"orial":3876,"levk":3877,"Ġnetwork":3878,"Ġtorch":3879,"item":3880,"ĠMy":3881,"opy":3882,"LED":3883,"Ġstack":3884,"Ġstatement":3885,"SET":3886,"SHARE":3887,"noalias":3888,"MAJOR":3889,"Default":3890,"Ġwebpp":3891,"BITS":3892,"Formatting":3893,"Order":3894,"openHorizontalhide":3895,"Attack":3896,"Ġsymmetric":3897,"nostic":3898,"openHorizontalhideBox":3899,"Catch":3900,"Fuzz":3901,"Rec":3902,"bd":3903,"blob":3904,"mesh":3905,"wd":3906,"ĠIL":3907,"device":3908,"luding":3909,"orary":3910,"Ġ\"(":3911,"self":3912,"mpt":3913,"mac":3914,"ENS":3915,"uld":3916,"STANT":3917,"ARD":3918,"ĠLAPACK":3919,"Ġoverwritten":3920,"Ġdetail":3921,"CONV":3922,"DLL":3923,"Ġbug":3924,"----------------------------------------------------------------":3925,"cstdlib":3926,"AssignmentList":3927,"DAFX":3928,"Ġdiagnostic":3929,"'t":3930,"Temp":3931,"bg":3932,"bar":3933,"date":3934,"ky":3935,"mint":3936,"æľ":3937,"env":3938,"resp":3939,"(){":3940,"Ġfact":3941,"Ġfold":3942,"Ġaf":3943,"height":3944,">//!":3945,"Ġglobal":3946,"ĠConst":3947,"IND":3948,"INY":3949,"ĠPL":3950,"ĠPack":3951,"ĠText":3952,"STAT":3953,"ardware":3954,"CHECK":3955,"implementation":3956,"ĠSettings":3957,"istributed":3958,"MINOR":3959,"Ġwhich":3960,"Headers":3961,"WND":3962,"RESULT":3963,"Conditional":3964,">**":3965,"FACE":3966,"It":3967,"LANG":3968,"Move":3969,"Net":3970,"Onn":3971,"Operator":3972,"Sprite":3973,"_,":3974,"uction":3975,"çĶ":3976,"ĉĠ":3977,"ĉĠĠĠĠĠĠ":3978,"Ġlo":3979,"stm":3980,"alind":3981,"Ġblock":3982,"heat":3983,"Ġinter":3984,"ĠAuthor":3985,"Ġmake":3986,"ĠScope":3987,"ĠCol":3988,"ĠTo":3989,"ĠGB":3990,"(\"\\":3991,"lip":3992,"aging":3993,"APH":3994,"Ġprotected":3995,"ants":3996,"TRY":3997,"ideo":3998,"txt":3999,"Output":4000,"nullptr":4001,"oprs":4002,"çĽ®":4003,"Ġtypename":4004,"Onnx":4005,"04":4006,"Act":4007,"EQ":4008,"FT":4009,"Mgr":4010,"OW":4011,"Part":4012,"button":4013,"elab":4014,"from":4015,"play":4016,"total":4017,"xvk":4018,"Ġ^":4019,"debug":4020,"Ġcpp":4021,"Ġsp":4022,"loy":4023,"mport":4024,"ĠSDL":4025,"editor":4026,"ĠPartialPlayer":4027,"teger":4028,"Ġformat":4029,"STEM":4030,"otify":4031,"limport":4032,"olute":4033,"factor":4034,"rome":4035,"afe":4036,"Ġshow":4037,"Ġcolor":4038,"Ġuser":4039,"front":4040,"ĠEYERLIB":4041,"optional":4042,"NvOnnx":4043,"MARK":4044,"Catchment":4045,"NvOnnxParser":4046,"\"))":4047,",-":4048,"Dis":4049,"Push":4050,"QObject":4051,"Service":4052,"UID":4053,"YTE":4054,"meg":4055,"roid":4056,"si":4057,"uard":4058,"wer":4059,"});<":4060,"è¾":4061,"Ġç":4062,"anity":4063,"Ġbit":4064,"ĠSee":4065,"ĠTEST":4066,"constexpr":4067,"ĠNS":4068,"ird":4069,"/*!<":4070,"IMP":4071,"METH":4072,"reduce":4073,"Ġkernel":4074,"Progress":4075,"service":4076,"prime":4077,"Arduino":4078,"Complex":4079,"Ġalter":4080,"Ġ2020":4081,"Ġadditional":4082,"Container":4083,"ValueList":4084,"TreeNode":4085,"Ġpoints":4086,"Environment":4087,"ĠRunner":4088,"ĠReturns":4089,"ĠIMPORTANT":4090,"gicp":4091,"Back":4092,"Geometry":4093,"Mac":4094,"ZRule":4095,"dll":4096,"hys":4097,"ian":4098,"mut":4099,"tim":4100,"ä½":4101,"Ġmodule":4102,"ctl":4103,"iter":4104,"Ġsystem":4105,"Ġbind":4106,"Ġbinary":4107,"Ġremove":4108,"loader":4109,"Ġcounter":4110,"ĠApp":4111,"STER":4112,"asbin":4113,"ĠFa":4114,"DEFIN":4115,"ITE":4116,"Ġdec":4117,"Project":4118,"ressed":4119,"emplace":4120,"EXTEN":4121,"Ġunit":4122,"DialogHeaders":4123,"Builder":4124,"Linux":4125,"traits":4126,"ĠTensorLayout":4127,"BIAS":4128,"ĠPacket":4129,"METHOD":4130,"Msg":4131,"Page":4132,"Variable":4133,"Write":4134,"aco":4135,"author":4136,"Ġcv":4137,"Ġbar":4138,"entity":4139,"ĠAR":4140,"ĠSE":4141,"isf":4142,"ĠEnd":4143,"very":4144,"Ġwindow":4145,"ulExpression":4146,"Ġli":4147,"precomp":4148,"ĠLO":4149,"layout":4150,"Ġdesktop":4151,"berg":4152,"vior":4153,"Archive":4154,"ivExpression":4155,"house":4156,"PARAME":4157,"Loop":4158,"Loader":4159,"ĠProcess":4160,"ANDLE":4161,"Ġparams":4162,"GRAPH":4163,"Afx":4164,"CODEGEN":4165,"ĠLoss":4166,"havior":4167,"mission":4168,"stractExpression":4169,"yscalls":4170,"VOID":4171,"Ġafter":4172,"alindrome":4173,"loyee":4174,"PARAMETER":4175,"Equal":4176,"Press":4177,"QR":4178,"Simple":4179,"binary":4180,"call":4181,"ng":4182,"})":4183,"æİ":4184,"seudo":4185,"anel":4186,"alph":4187,">//#":4188,"ĠPri":4189,"ĠTR":4190,"ĠGtk":4191,"REAM":4192,"ĠDLL":4193,"PLS":4194,"ORY":4195,"ITH":4196,"osio":4197,"Ġ\"../../../":4198,"GRAD":4199,"Query":4200,"Ġ1000000007":4201,"cstddef":4202,"Behavior":4203,"LEGAL":4204,"nvinfer":4205,"telegram":4206,"200":4207,"Bitmap":4208,"Holo":4209,"NE":4210,"PMP":4211,"Schur":4212,"Singleton":4213,"cuda":4214,"gtx":4215,"high":4216,"model":4217,"tdesktop":4218,"Ġ64":4219,"enberg":4220,"erStride":4221,"icial":4222,"Ġframe":4223,"Ġav":4224,"isUnit":4225,"ĠPa":4226,"Ġdis":4227,"STD":4228,"oth":4229,"setRandom":4230,"Start":4231,"Storage":4232,"ĠHe":4233,"<<\"\\":4234,"ĠOP":4235,"essenberg":4236,"ĠmatB":4237,"CEPT":4238,"REGISTER":4239,"Ġofficial":4240,"Shape":4241,"applyOnThe":4242,"generic":4243,"BuildingHolo":4244,"fullPivLu":4245,"Ġmessaging":4246,"telegramdesktop":4247,"isUnitary":4248,")+":4249,"*(":4250,"27":4251,"36":4252,"37":4253,"DY":4254,"Func":4255,"LI":4256,"Last":4257,"Look":4258,"OUT":4259,"RARY":4260,"Tab":4261,"Track":4262,"Var":4263,"cla":4264,"cstdio":4265,"eks":4266,"sd":4267,"erative":4268,"Ġcuda":4269,"Ġimage":4270,"Ġsqrt":4271,"Ġpq":4272,"Ġrel":4273,"Ġad":4274,"ĠSDK":4275,"Inst":4276,"ĠGraph":4277,"geeks":4278,"ARGET":4279,"Ġhive":4280,"Ġhave":4281,"Ġeigen":4282,"ĠIf":4283,"ERNAL":4284,"[])":4285,"Ġ});<":4286,"RowMajor":4287,"NODE":4288,"Ġcontinue":4289,"BOOST":4290,"seconds":4291,"Template":4292,"Byte":4293,"openHorizontalBox":4294,"IVE":4295,"LORA":4296,"HANA":4297,"Ġcorresp":4298,"ENSOR":4299,"Ġcorrespond":4300,"&&":4301,"Current":4302,"KEN":4303,"MAN":4304,"OF":4305,"PS":4306,"Pop":4307,"PTR":4308,"rand":4309,"va":4310,"åº":4311,"Ġup":4312,"Ġ\");<":4313,"lem":4314,"stdlib":4315,"Ġfib":4316,"Ġsimd":4317,"rox":4318,"---<":4319,"usion":4320,"ĠCheck":4321,"Ġwinrt":4322,"Ġ42":4323,"Ġ_(\"":4324,"===":4325,"ĠRF":4326,"Export":4327,"Expr":4328,"project":4329,"Ġhel":4330,"based":4331,"explicit":4332,"Ġllvm":4333,"diagonalization":4334,"expressions":4335,"ĠLIBIL":4336,"Combo":4337,"acobi":4338,"*);<":4339,"88":4340,";}<":4341,"Bro":4342,"CD":4343,"CG":4344,"Sign":4345,"Syscalls":4346,"action":4347,"callback":4348,"over":4349,"ount":4350,"zil":4351,"æ³":4352,"Ġ\")":4353,"Ġcp":4354,"itk":4355,"Ġbutton":4356,"Ġresize":4357,"Ġrequi":4358,"uni":4359,"ĠAV":4360,"ĠSP":4361,"imgui":4362,"Ġ&)":4363,"boai":4364,"uintptr":4365,"Ġcharacter":4366,"ĠQDialog":4367,"three":4368,"ĠWork":4369,"ibility":4370,"LEMENT":4371,"ĠProfile":4372,"WINNT":4373,"Ġprev":4374,"ĠAPPLICATION":4375,"inite":4376,"TYPES":4377,"COMMON":4378,"Initialize":4379,"ConstBaseIterator":4380,"Ġé¢ĺ":4381,"Ġinfrt":4382,"ĠConstBaseIterator":4383,"OperatorType":4384,"zilla":4385,"Ġé¢ĺçĽ®":4386,"BYTE":4387,"Dim":4388,"MPL":4389,"Over":4390,"SIG":4391,"Source":4392,"Sample":4393,"han":4394,"source":4395,"Ġ/**<":4396,"inBox":4397,"online":4398,"luster":4399,"Ġ\"-":4400,"Ġtinylang":4401,"Ġtimes":4402,"pad":4403,"Ġresp":4404,"roy":4405,"ube":4406,"mployee":4407,"Ġopen":4408,"ĠSH":4409,"chain":4410,"Ġinst":4411,"LEAN":4412,"asn":4413,"Ġhigh":4414,"Ġarm":4415,"ody":4416,"hould":4417,"Ġcallback":4418,"ĠInter":4419,"TRACY":4420,"Identifier":4421,"Ġtridiagonal":4422,"Ġrot":4423,"limits":4424,"Importer":4425,"è¾ĵ":4426,"ĠOPENCV":4427,"!\"":4428,"&);<":4429,"90":4430,"95":4431,"Form":4432,"Lower":4433,"Method":4434,"VENT":4435,"YES":4436,"aiz":4437,"brain":4438,"hal":4439,"hand":4440,"jsp":4441,"network":4442,"symbol":4443,"variable":4444,"ãĢ":4445,"Ġlabel":4446,"atile":4447,"ors":4448,"Ġcal":4449,"Ġmodel":4450,"Ġtmp":4451,"Ġfa":4452,"ĠApow":4453,">//////////////////////////////////////////////////////////////////":4454,"olatile":4455,"ĠCHE":4456,"ragment":4457,"ĠPar":4458,"ĠTree":4459,"ĠTINY":4460,"Ġ>(":4461,"IMENT":4462,"Ġsto":4463,"emo":4464,"ĠHAVE":4465,"SCAL":4466,"Ġsearch":4467,"LOCK":4468,"ĠĠĠĠĠĠĠĠĠĠĠĠĠĠĠĠĠĠĠĠĠĠĠĠĠĠĠĠĠĠĠĠ":4469,"VERSIONED":4470,"Ġupper":4471,"LIBRARY":4472,"functional":4473,"ä¸ª":4474,"Approx":4475,"PERIMENT":4476,"]=='":4477,"hello":4478,"PyAPI":4479,"generator":4480,"ScrollBar":4481,"100009":4482,"Ġ1900":4483,"megbrain":4484,"onlinejudge":4485,"aizu":4486,"PERIMENTAL":4487,"ASE":4488,"Dup":4489,"Its":4490,"Man":4491,"Runtime":4492,"Score":4493,"VAR":4494,"cm":4495,"cstring":4496,"eed":4497,"free":4498,"ium":4499,"mode":4500,"nown":4501,"vv":4502,"vtk":4503,"Ġcrypto":4504,"Ġmemory":4505,"riter":4506,"():\"":4507,"Ġsanity":4508,"Ġret":4509,"ection":4510,"ĠSensor":4511,"ished":4512,"oly":4513,"Ġgo":4514,"Ġgem":4515,"INTE":4516,"ĠEE":4517,"ĠPublic":4518,"Ġ{{\"":4519,"ĠNET":4520,"adcast":4521,"Ġdest":4522,"EXPERIMENTAL":4523,"ĠsetText":4524,"Players":4525,"]]++;<":4526,"middle":4527,"ĠSTDAFX":4528,"dllimport":4529,"mitive":4530,"Description":4531,"ĠLibrary":4532,"66":4533,"78":4534,"DP":4535,"DONT":4536,"Feature":4537,"HO":4538,"HP":4539,"PACK":4540,"Range":4541,"WE":4542,"aive":4543,"world":4544,"rive":4545,"Ġnormal":4546,"any":4547,"Ġfallback":4548,"Ġslow":4549,"Ġpo":4550,"Ġ14":4551,"Ġoai":4552,"eline":4553,"ilt":4554,"sprite":4555,"ĠNO":4556,"ARN":4557,"upMenu":4558,"olume":4559,"Problem":4560,"rowser":4561,"acy":4562,"Ġtrmv":4563,"dius":4564,"resource":4565,"Ġoffset":4566,"export":4567,"Ġ2022":4568,"MMatch":4569,"PropertyDefinition":4570,"Ġappend":4571,"ified":4572,"Graphics":4573,"Ġblurx":4574,"Orth":4575,"DEFINE":4576,"missions":4577,"39":4578,"<>":4579,"Det":4580,"Fast":4581,"Off":4582,"SPE":4583,"Sqrt":4584,"Sizable":4585,"Win":4586,"]>":4587,"auth":4588,"acos":4589,"jo":4590,"ker":4591,"wstring":4592,"å¯":4593,"æĿ":4594,"around":4595,"Ġfs":4596,"Ġsamples":4597,"Ġpow":4598,"Ġ23":4599,"ĠPoint":4600,"ĠFont":4601,"orth":4602,"ĠBinary":4603,"ĠUINT":4604,"ACH":4605,"Ġrd":4606,"Ġrhs":4607,"compiler":4608,"TOKEN":4609,"scrib":4610,"Ġexception":4611,"Ġthread":4612,"ips":4613,"TESTS":4614,"comes":4615,"INTERNAL":4616,"Ġalso":4617,"OPEN":4618,"ĠåĩºåĬĽ":4619,"ocus":4620,"Library":4621,"FINAL":4622,"Transform":4623,"Quest":4624,"elements":4625,"ĠConfig":4626,"ĠEnter":4627,"åŃĹ":4628,"Radio":4629,"çĶ¨":4630,"HPX":4631,"62":4632,"Found":4633,"IRT":4634,"License":4635,"RA":4636,"driver":4637,"global":4638,"pool":4639,"ponse":4640,"uit":4641,"wet":4642,"æ±":4643,"Ġ[\"":4644,"Ġcasbin":4645,"Ġnow":4646,"sec":4647,"ings":4648,"stddef":4649,"Ġso":4650,"heel":4651,"etad":4652,"transform":4653,"optr":4654,"Ġ-*":4655,"Ġhd":4656,"ĠLOG":4657,"Ġequal":4658,"Ġdeterminant":4659,"ListNode":4660,"Ġthin":4661,"Change":4662,"ĠCreates":4663,"KEY":4664,"execut":4665,"PROTO":4666,"substr":4667,"Ġreplace":4668,"modint":4669,"ridge":4670,"PRECOMP":4671,"StdAfx":4672,"autoptr":4673,"PushButton":4674,"CEPTION":4675,"\"_":4676,"Cluster":4677,"Effect":4678,"Flags":4679,"HWND":4680,"Kind":4681,"LICENSE":4682,"Sync":4683,"Width":4684,"YP":4685,"]!=":4686,"fmt":4687,"range":4688,"srrg":4689,"Ġãģ®":4690,"rived":4691,"counter":4692,"Ġvar":4693,"ities":4694,"rai":4695,"Ġshould":4696,"hema":4697,"entt":4698,"entation":4699,"Ġobj":4700,"ĠSymbol":4701,"Ġgiven":4702,"ĠCode":4703,"INIT":4704,"verter":4705,"ĠPosition":4706,"Ġword":4707,"spt":4708,"ARG":4709,"asset":4710,"apon":4711,"Ġarch":4712,"throw":4713,"property":4714,"ivec":4715,"Arc":4716,"ãģĻ":4717,"Ġlet":4718,"Ġdiagonal":4719,"AGER":4720,"9999":4721,"PivHouseholderQ":4722,"gba":4723,"åĪĹ":4724,"================================":4725,"iscard":4726,"ĠComm":4727,"ĠParamList":4728,"ĠOutput":4729,"ĠOuterStride":4730,"Ġabsolute":4731,"signals":4732,"Pair":4733,"ĠTINYLANG":4734,"(...":4735,"60":4736,"Access":4737,"BE":4738,"Cache":4739,"Il":4740,"MI":4741,"Normal":4742,"QDialog":4743,"SUB":4744,"Us":4745,"WARN":4746,"clicked":4747,"filename":4748,"lta":4749,"schur":4750,"ating":4751,"Ġces":4752,"alle":4753,"Ġsrrg":4754,"Ġpm":4755,"ĠpWidget":4756,"lap":4757,"loud":4758,"macro":4759,"ĠAuto":4760,"isZero":4761,"isIdentity":4762,"isOnes":4763,"isDiagonal":4764,"isApprox":4765,"isOrth":4766,"Ġges":4767,"ious":4768,"ĠMessage":4769,"Ġwish":4770,"ational":4771,"ALLOC":4772,"bound":4773,"ĠFILE":4774,"Static":4775,"Ġhc":4776,"forward":4777,"ĠRef":4778,"Ġeiv":4779,"Ġempty":4780,"ĠImage":4781,"component":4782,">>&":4783,"ensity":4784,"Ġ50":4785,"matrixH":4786,"nerStride":4787,"RowVectorXf":4788,"Chain":4789,"FORCE":4790,"ĠArrayXf":4791,"Ġdoc":4792,"Ġaddr":4793,"ï¼Į":4794,"CppGeneric":4795,"Ġ...\"":4796,"ĠschurOfA":4797,"VIEW":4798,"ĠLoad":4799,"adjointView":4800,"treeWrapper":4801,"ĠPropertyDefinition":4802,"Ġsuper":4803,"Ġlower":4804,"ANNEL":4805,"Second":4806,"Tridiagonalization":4807,"è¿Ľ":4808,"ĠMAX":4809,"selfadjointView":4810,"Projective":4811,"EXTENSION":4812,"ĠGtkApplication":4813,"ĠSDKDDKVer":4814,"ĠWorkaround":4815,"ĠCHECK":4816,"etadata":4817,"isOrthogonal":4818,"Ġeivals":4819,"31":4820,"34":4821,"68":4822,"Ax":4823,"Body":4824,"Copy":4825,"DB":4826,"Free":4827,"First":4828,"Mask":4829,"Volume":4830,"]*":4831,"]){<":4832,"bb":4833,"bt":4834,"bstract":4835,"dc":4836,"dry":4837,"sse":4838,"samples":4839,"variant":4840,"éĢ":4841,"Ġorth":4842,"encode":4843,"onac":4844,"atern":4845,"Ġfilename":4846,"user":4847,"Ġ(&":4848,"Ġ(__":4849,"ĠASS":4850,"Ġinfo":4851,"ĠGlobal":4852,"setw":4853,"ĠUInt":4854,"ITION":4855,"Exec":4856,"EXCEPTION":4857,"ĠVersion":4858,"FAULT":4859,"ãģ«":4860,"Ġsetup":4861,"clang":4862,"imperative":4863,"Loss":4864,"Load":4865,"ãĤĮ":4866,"ixed":4867,"\"<<\"":4868,"Ġorig":4869,"InitG":4870,"ĠBaseElement":4871,"Ġzero":4872,"Ġ[[":4873,"PERF":4874,"paca":4875,"clear":4876,"ĠChunk":4877,"åħ¥":4878,"ĠParamValueList":4879,"ReactPackage":4880,"serialize":4881,"lane":4882,"Ġassert":4883,"Ġworkspace":4884,"Root":4885,"IGHT":4886,"onacci":4887,"aternion":4888,"ĠASSERT":4889,"')<":4890,"({":4891,"Cal":4892,"Find":4893,"Ima":4894,"Microsoft":4895,"NG":4896,"Null":4897,"Place":4898,"SD":4899,"TI":4900,"TS":4901,"TFE":4902,"VE":4903,"VIC":4904,"YZ":4905,"db":4906,"dmat":4907,"gom":4908,"hi":4909,"jac":4910,"less":4911,"nod":4912,"position":4913,"invertible":4914,"eric":4915,"Ġ=<":4916,"Ġnaive":4917,"Ġview":4918,"Ġfun":4919,"Ġsa":4920,"Ġsm":4921,"urs":4922,"Ġpb":4923,"Ġrepository":4924,"--)":4925,"ĠAkhtyamov":4926,"ĠServer":4927,"iome":4928,"ĠTime":4929,"argest":4930,"Ġ-=":4931,"Inverse":4932,"extension":4933,"ĠNOT":4934,"ĠDerived":4935,"Ġ30":4936,"VectorXd":4937,"ĠBu":4938,"thon":4939,"Exp":4940,"shape":4941,"ĠKey":4942,"parator":4943,"Struct":4944,"tach":4945,"UNK":4946,"ĠInitial":4947,"Scalar":4948,"ertex":4949,"Shared":4950,"epi":4951,"Height":4952,"EYERAV":4953,"ĠQWDIALOG":4954,"UTILS":4955,"FORMAT":4956,"ADDRESS":4957,"å¤§":4958,"Monitor":4959,"ĠTranspose":4960,"LinuxSyscalls":4961,"æİ¥":4962,"Ġavailable":4963,"ĠPavel":4964,"Ġorthogonal":4965,"nodiscard":4966,">)":4967,"Audio":4968,"BL":4969,"Cmpt":4970,"Len":4971,"LONG":4972,"Math":4973,"Network":4974,"RL":4975,"Su":4976,"Sele":4977,"[[":4978,"cryp":4979,"dx":4980,"filter":4981,"ie":4982,"lp":4983,"slow":4984,"tc":4985,"win":4986,"æĸ":4987,"æŀ":4988,"attern":4989,"requent":4990,"Ġ\"/":4991,"():":4992,"search":4993,"hest":4994,"header":4995,"Ġcomb":4996,"example":4997,"ĠApplication":4998,"dot":4999,"edi":5000,"cher":5001,"ontgom":5002,"gemm":5003,"ĠLabel":5004,"Ġargs":5005,"MEAN":5006,"conf":5007,"scalar":5008,"ãģĦ":5009,"Script":5010,"Local":5011,"riptor":5012,"DialogSize":5013,"Ġlibrary":5014,"Direction":5015,"åĪ¶":5016,"VIDE":5017,"ĠDecl":5018,"Options":5019,"Ġparse":5020,"Split":5021,"oogleTest":5022,"CallExpression":5023,"FRAME":5024,"------------------------------------------------------------------------":5025,"Ġstored":5026,"InitGoogleTest":5027,"ontgomery":5028,",&":5029,"264":5030,"79":5031,"AA":5032,"BIND":5033,"CX":5034,"FU":5035,"Given":5036,"Job":5037,"KCPP":5038,"Pre":5039,"PLE":5040,"UPP":5041,"Variant":5042,"squ":5043,"tl":5044,"tag":5045,"åĨ":5046,"çĤ":5047,"ĉĠĠĠĠ":5048,"ĉĠĠĠĠĠĠĠĠĠĠĠ":5049,"Ġutils":5050,"inished":5051,"onn":5052,"remove":5053,"uts":5054,"utdown":5055,"hex":5056,"igits":5057,"ĠClient":5058,"ĠMenu":5059,"ĠMove":5060,"ĠPAR":5061,"Ġwchar":5062,"ulation":5063,"ullet":5064,"ĠGLE":5065,"ĠDWORD":5066,"ATH":5067,"PLAT":5068,"ĠFiles":5069,"DEFAULT":5070,"ĠLP":5071,"ĠUtil":5072,"ĠWrite":5073,"ĠHY":5074,"Ġdevice":5075,"Enabled":5076,"quence":5077,"CODER":5078,"Ġselect":5079,"Request":5080,"ĠInclude":5081,"aken":5082,"Ġprime":5083,"pointer":5084,"Control":5085,"PROCESS":5086,"Ġidx":5087,"ModelImporter":5088,"Separator":5089,"Processor":5090,"Generator":5091,"PATCH":5092,"weak":5093,"ĠminimumSize":5094,"GRAPHIC":5095,"Foundation":5096,"requently":5097,"\");":5098,"48":5099,"65":5100,"About":5101,"DC":5102,"Dir":5103,"HANDLE":5104,"LAB":5105,"TIME":5106,"UCT":5107,"Url":5108,"ca":5109,"cmath":5110,"eam":5111,"ead":5112,"fun":5113,"fwd":5114,"mes":5115,"pl":5116,"Ġloop":5117,"derived":5118,"Ġ\"\";<":5119,"Ġcurr":5120,"Ġmouse":5121,"esky":5122,"()){<":5123,"select":5124,"idx":5125,"heet":5126,"etter":5127,"ighest":5128,"ental":5129,"ĠSource":5130,"ĠSimple":5131,"olesky":5132,"++;":5133,"edia":5134,"ĠMax":5135,"constants":5136,"pres":5137,"MESS":5138,"party":5139,"ROW":5140,"BUFF":5141,"resent":5142,"ETH":5143,"Loc":5144,"Ġbuf":5145,"Ġclone":5146,"Ġalias":5147,"TRA":5148,"Show":5149,"Answer":5150,"Ġscalar":5151,"SpinBox":5152,"LineEdit":5153,"WINDOWS":5154,"ForwardImpl":5155,"ĠThread":5156,"Ġcomment":5157,"anslation":5158,"Broadcast":5159,"Ġresponse":5160,"SCALLS":5161,"';":5162,"');<":5163,"29":5164,"FalagardPropertyBase":5165,"Gx":5166,"Im":5167,"LIM":5168,"QL":5169,"cpy":5170,"camera":5171,"display":5172,"diff":5173,"nan":5174,"names":5175,"obs":5176,"vulkan":5177,"width":5178,"warning":5179,"||":5180,"},<":5181,"çł":5182,"è®":5183,"Ġlocal":5184,"ret":5185,"ority":5186,"utf":5187,"Ġmenu":5188,"esaw":5189,"Ġigno":5190,"icle":5191,"Ġfd":5192,"uments":5193,"ĠAN":5194,"Ġmacro":5195,"Ġ//////////////////////////////////////////////////////////////////":5196,"ĠSingleton":5197,"ypedProperty":5198,"ĠTypedProperty":5199,"////<":5200,"Ġdynamic":5201,"Ġwant":5202,"ENU":5203,"ENTRY":5204,"ops":5205,"tep":5206,"ĠName":5207,"gest":5208,"<<(":5209,"ĠFalagardPropertyBase":5210,"getchar":5211,"perf":5212,"shlib":5213,"Ġrange":5214,"prod":5215,"Encoder":5216,"ession":5217,"Ġanswer":5218,"Ġdefines":5219,"CHAR":5220,"Screen":5221,"Ġlevel":5222,"MenuItem":5223,"Resize":5224,")<<\"":5225,"PropertyLinkDefinition":5226,"Ġdoes":5227,"Intensity":5228,"AppConfig":5229,"Editor":5230,"submissions":5231,"Ġmiddle":5232,"Initializer":5233,"ĠPropertyLinkDefinition":5234,"IVATE":5235,"cian":5236,"Ġentt":5237,"ReactNative":5238,"TypedProperty":5239,"Ġ[](":5240,"ĠShow":5241,"ĠComponent":5242,"Allocator":5243,"SHARED":5244,"macros":5245,"reduced":5246,"ĠLOSS":5247,"PopupMenu":5248,"hana":5249,"ĠTreeNode":5250,"INTEGR":5251,"PACKET":5252,"WEAK":5253,"å¯¹":5254,"ĠCommand":5255,"PLATFORM":5256,"çłģ":5257,"&,":5258,".\\":5259,"Bool":5260,"CUD":5261,"Cell":5262,"LAYER":5263,"OSCALLS":5264,"Section":5265,"TARGET":5266,"TACH":5267,"WD":5268,"Work":5269,"]-":5270,"]++;<":5271,"ares":5272,"bf":5273,"nable":5274,"power":5275,"ura":5276,"};":5277,"åį":5278,"ony":5279,"eries":5280,"rela":5281,"Ġmode":5282,"rit":5283,"coding":5284,"itive":5285,"raft":5286,"Ġsymbol":5287,"Ġag":5288,"Ġact":5289,"lad":5290,"las":5291,"struction":5292,"ĠSp":5293,"INLIN":5294,"istory":5295,"Integer":5296,"Ġ&_":5297,"Column":5298,"ĠDraw":5299,"Ġstampa":5300,"ĠUString":5301,"ignore":5302,"anged":5303,"Ġyy":5304,"ĠValue":5305,"End":5306,"essages":5307,"COUNT":5308,"Ġmaxi":5309,"oolean":5310,"Ġcompil":5311,"LOADER":5312,"ENABLED":5313,"ancel":5314,"ĠProject":5315,"TestMain":5316,"Ġ2019":5317,"Ġprintre":5318,"ĠRegisterTests":5319,"Ġgeneral":5320,"Ġgenerator":5321,"SERIAL":5322,"Ġvalid":5323,"Direct":5324,"Quant":5325,"Ġenabled":5326,"texture":5327,"statements":5328,"ĠDEBUG":5329,"ChannelRule":5330,"IMPLEMENT":5331,"DYN":5332,"itkTestMain":5333,"ĠSPDX":5334,"Ġrotate":5335,"Ġ-*-":5336,"YPTO":5337,"BUFFER":5338,"relacy":5339,"INLINED":5340,"06":5341,"23":5342,"Doc":5343,"Field":5344,"Guard":5345,"MR":5346,"MS":5347,"Tip":5348,"Tick":5349,"Taken":5350,"Yes":5351,"ause":5352,"crypto":5353,"ging":5354,"ki":5355,"lt":5356,"lcname":5357,"native":5358,"sim":5359,"uch":5360,"des":5361,"Ġcontext":5362,"Ġcamera":5363,"Ġme":5364,"ctx":5365,"Ġtag":5366,"pass":5367,"Ġva":5368,"Ġsample":5369,"Ġback":5370,"eters":5371,"++++":5372,"elta":5373,"Ġworld":5374,"()<<":5375,"ircle":5376,"Ġjac":5377,"ĠLe":5378,"ĠIdent":5379,"SETT":5380,"Ġgetline":5381,"unsGiven":5382,"Ġbecomes":5383,"Widgets":5384,"schema":5385,"Ġtranspose":5386,"regex":5387,"CHANNEL":5388,"ĠĠĠĠĠĠĠĠĠĠĠĠĠĠĠĠĠĠ":5389,"rigger":5390,"Decomposition":5391,"AML":5392,"CONSTANT":5393,"TextCodec":5394,"ays":5395,"Ġdomain":5396,"allsPlay":5397,"SYSTEM":5398,"ĠAPI":5399,"Ġorder":5400,"ï¼Ī":5401,"ï¼ī":5402,"apien":5403,"ĠAngle":5404,"params":5405,"UCNAME":5406,"Desktop":5407,"Ġquisp":5408,"Modules":5409,"Ġchanged":5410,"Ġpybind":5411,"ĠStringTo":5412,"renderer":5413,"Valid":5414,"icketsTaken":5415,"STATUS":5416,"Ġrelative":5417,">//////////////////////////////////////////////////////////////////////<":5418,"iltin":5419,"Offset":5420,"Ġ//////////////////////////////////////////////////////////////////<":5421,"allsPlayed":5422,"$<":5423,",\"":5424,"42":5425,"72":5426,">/*<":5427,"Cam":5428,"DR":5429,"IF":5430,"If":5431,"Jacobi":5432,"Mult":5433,"MENT":5434,"Platform":5435,"Rot":5436,"Sys":5437,"SUC":5438,"Title":5439,"Video":5440,"cat":5441,"net":5442,"pb":5443,"rn":5444,"rin":5445,"task":5446,"vations":5447,"wx":5448,"dest":5449,"status":5450,"enc":5451,"Ġtree":5452,"Ġfmt":5453,"Ġsigned":5454,"Ġrev":5455,"Ġcommand":5456,"ĠApac":5457,"ĠCON":5458,"ĠEntity":5459,"ĠMMatch":5460,"ĠTFE":5461,"Ġdl":5462,"Ġdim":5463,"spotify":5464,"Ġlp":5465,"REE":5466,"andies":5467,"ansfer":5468,"Exit":5469,"Ġrand":5470,"ĠOp":5471,"ListWidget":5472,"phome":5473,"PECT":5474,"build":5475,"tocol":5476,"STRUCT":5477,"Delay":5478,"Only":5479,"FunctionMap":5480,"TestFunctionMap":5481,"Cholesky":5482,"ĠStart":5483,"Ġconstructor":5484,"Unique":5485,"ispatcher":5486,"Ġcontent":5487,"minCoeff":5488,"Help":5489,"Ġaddress":5490,"Ġshape":5491,"ASSERT":5492,"ModuleEntryPoint":5493,"GameType":5494,"ä¸Ĭ":5495,"CODEC":5496,"Optim":5497,"reshold":5498,"åıĸ":5499,"DXSDK":5500,"PRIVATE":5501,"Ġ[]);<":5502,"setupUi":5503,"PortClient":5504,"è¾ĵåħ¥":5505,"ARGS":5506,"è¿ĽåĪ¶":5507,"VIDEO":5508,"CUDA":5509,"ĠStringToTestFunctionMap":5510,"ĠApache":5511,"\"(":5512,"\").":5513,"'\\":5514,"82":5515,">[[":5516,"BACK":5517,"BallsBowled":5518,"Driver":5519,"RunsScored":5520,"Support":5521,"TA":5522,"Tag":5523,"Two":5524,"UInt":5525,"_(\"":5526,"break":5527,"benchmark":5528,"cor":5529,"cce":5530,"cassert":5531,"fit":5532,"hack":5533,"hardware":5534,"ivate":5535,"lg":5536,"pc":5537,"ted":5538,"ug":5539,"uri":5540,"vd":5541,"yy":5542,"stat":5543,"rex":5544,"arz":5545,"rites":5546,"Ġitem":5547,"column":5548,"Ġtensor":5549,"alk":5550,"idden":5551,"Ġfree":5552,"Ġsb":5553,"Ġax":5554,"ĠAssignment":5555,"ĠAudio":5556,"ĠColu":5557,"ĠPR":5558,"ĠTri":5559,"uler":5560,"ists":5561,"Internal":5562,"ĠGener":5563,"ĠNV":5564,"(\"/":5565,"IMAGE":5566,"ĠQObject":5567,"ĠRandom":5568,"Ġeval":5569,"ĠBetter":5570,"ĠIO":5571,"Eigenvalues":5572,"ĠgetName":5573,"colPivHouseholderQ":5574,"ivity":5575,"AMIC":5576,"ĠInput":5577,"ĠInnerStride":5578,"Lost":5579,"ĠStride":5580,"255":5581,"MenuSeparator":5582,"UIKit":5583,"Ġrepo":5584,"chwarz":5585,"curs":5586,"Ġlinear":5587,"ĠLogger":5588,"Ġextract":5589,"INTERFACE":5590,"BinaryStream":5591,"icketsLost":5592,"ConditionalWrapper":5593,"ĠColor":5594,"ĠsqrtA":5595,"MANAGER":5596,"Document":5597,"ĠColumn":5598,"colPivHouseholderQr":5599,")*":5600,",:":5601,"38":5602,"Api":5603,"Author":5604,"DS":5605,"Dll":5606,"Derived":5607,"Enum":5608,"Fi":5609,"Hessenberg":5610,"Io":5611,"Namespace":5612,"Wt":5613,"WIDGET":5614,"^(-":5615,"cluding":5616,"fstream":5617,"ied":5618,"ne":5619,"su":5620,"sing":5621,"ture":5622,"tinylang":5623,"zied":5624,"Ġqueue":5625,"rees":5626,"reset":5627,"reater":5628,"Ġml":5629,"Ġmo":5630,"Ġms":5631,"riend":5632,"Ġiss":5633,"command":5634,"Ġfreq":5635,"rash":5636,"Ġpseudo":5637,"lot":5638,">}}<":5639,"exu":5640,"umb":5641,"ĠSY":5642,"Ġgcd":5643,"chall":5644,"ios":5645,"illi":5646,"ĠPPP":5647,"ĠTra":5648,"Ġdistance":5649,"Ġinstance":5650,"team":5651,"Intern":5652,"Ġ&);<":5653,"asure":5654,"asDiagonal":5655,"Ġbyrn":5656,"ĠFullPiv":5657,"Ġhand":5658,"ialFunctions":5659,"ĠIo":5660,"Eigenvectors":5661,"Ġrank":5662,"omial":5663,"ĠWin":5664,"ĠHAL":5665,"\",\"":5666,"MOD":5667,"matB":5668,"Ġdescription":5669,"backend":5670,"TECT":5671,"Arr":5672,"123":5673,"matrixU":5674,"dexcept":5675,"One":5676,"OLD":5677,"ArrayXf":5678,">())":5679,"precated":5680,"smata":5681,"OPT":5682,"Paths":5683,"SpecialFunctions":5684,"PROG":5685,"Parameter":5686,"Search":5687,"ĠluOfA":5688,"Ġenv":5689,"RowVectorXd":5690,"etrics":5691,"ĠFunctionList":5692,"Vertex":5693,"****************************************************************":5694,"QtCore":5695,"Runnable":5696,"ĠDenseBase":5697,"ĠcosA":5698,"ĠDiagonal":5699,"isson":5700,"MACOS":5701,"Ġtracy":5702,"Weapon":5703,"ĠNote":5704,"eigenvectors":5705,"ĠsinA":5706,"SVD":5707,"LINKING":5708,"ComplexSchur":5709,"Ġunitary":5710,"householderQ":5711,"applyOnTheLeft":5712,"Ġeigenvector":5713,"Overlay":5714,"ĠthinQ":5715,"Axisf":5716,"ãĤĮãĤĭ":5717,"Ġaliasing":5718,"Ġignored":5719,"Ġgeneralzied":5720,"DYNAMIC":5721,"ĠAngleAxisf":5722,"SUCCESS":5723,"ĠBetterQuant":5724,",:)":5725,"HessenbergDecomposition":5726,"ĠPPPtr":5727,"Ġbyrnexu":5728,")[":5729,"40":5730,">$":5731,"Ass":5732,"Browser":5733,"CM":5734,"CU":5735,"Card":5736,"Cmd":5737,"EVENT":5738,"FULL":5739,"Focus":5740,"MUL":5741,"Ori":5742,"PU":5743,"Ph":5744,"POS":5745,"SX":5746,"TEXT":5747,"UTO":5748,"VA":5749,"XYZ":5750,"ZTask":5751,"ZBehavior":5752,"ais":5753,"aded":5754,"df":5755,"known":5756,"ling":5757,"menu":5758,"oi":5759,"pol":5760,"timer":5761,"vg":5762,"valu":5763,"æį":5764,"é¢ĺ":5765,"Ġ----------------":5766,"Ġä»":5767,"stop":5768,"style":5769,"stdexcept":5770,"Ġmethod":5771,"aring":5772,"aration":5773,"()>":5774,"(),<":5775,"ctest":5776,"icro":5777,"Ġ*,":5778,"Ġfill":5779,"Ġspace":5780,"Ġsupported":5781,"Ġsprite":5782,"Ġboolean":5783,"Ġremo":5784,"Ġinternal":5785,">//------------------------------------------------------------------------":5786,"INetwork":5787,"ĠMAT":5788,"ĠTemp":5789,"Ġdraw":5790,"Ġwt":5791,"ALSE":5792,"sprites":5793,"Cocoa":5794,"prev":5795,"ases":5796,"asse":5797,"Ġstorage":5798,"Ġeven":5799,"Ġeosio":5800,"ĠIR":5801,"ogger":5802,"short":5803,"connect":5804,"arduino":5805,"elease":5806,"ĠmaxIndex":5807,"ãģĪ":5808,"Ġexit":5809,"Ġcompile":5810,"Ġcomponent":5811,"Ġinputs":5812,"UTF":5813,"ĠĠĠĠĠĠĠĠĠĠĠĠĠĠĠĠĠĠĠĠĠĠ":5814,"Depth":5815,"Console":5816,"ANTI":5817,"gery":5818,"Scanner":5819,"Ġpad":5820,"Registr":5821,"TextFormatting":5822,"********************":5823,"Ġcond":5824,"FileName":5825,"Ġleg":5826,"ĠREAD":5827,"Ġtypedef":5828,"URL":5829,"Content":5830,"interrupt":5831,"lexport":5832,"ĠIDS":5833,"Visible":5834,"ParamList":5835,"GETLINE":5836,"(_,":5837,"NONE":5838,"blurx":5839,"ĠRead":5840,"ColourU":5841,"quential":5842,"fixed":5843,"OpenGL":5844,"Character":5845,"ĠCHud":5846,"QWDialogHeaders":5847,"Ġcorresponding":5848,"Signature":5849,"scribed":5850,"heelEvent":5851,"LIMIT":5852,"INetworkDefinition":5853,"){":5854,".\";<":5855,"46":5856,"87":5857,"89":5858,"BASE":5859,"CRE":5860,"Close":5861,"FD":5862,"Fa":5863,"Generated":5864,"Tiny":5865,"USB":5866,"\\\\":5867,"go":5868,"group":5869,"hd":5870,"meta":5871,"ni":5872,"nPress":5873,"ql":5874,"xso":5875,"{,":5876,"äº":5877,"å®":5878,"åĩº":5879,"æł":5880,"è¡":5881,"Ġutil":5882,"Ġcmd":5883,"Ġmore":5884,"coped":5885,"pause":5886,"Ġbig":5887,"Ġaction":5888,"ected":5889,"rod":5890,"maph":5891,"exer":5892,"ĠAction":5893,"ĠSIM":5894,"isrex":5895,"ĠCE":5896,"cket":5897,"chine":5898,"ĠMulExpression":5899,"...<":5900,"Ġ26":5901,"ĠDialog":5902,"ĠDivExpression":5903,"ĠFind":5904,"ĠForm":5905,"=='":5906,"getline":5907,"Ġke":5908,"Ġdebug":5909,"StringRef":5910,"Ġproblem":5911,"COL":5912,"phere":5913,"anti":5914,"Ġdefinition":5915,"effect":5916,"ipeline":5917,"Connection":5918,"lower":5919,"addr":5920,"Ġ2021":5921,"append":5922,"Ġspecific":5923,"peed":5924,"ĠYAML":5925,"Classifier":5926,"{{{,":5927,"VIS":5928,"Quaternion":5929,"NTT":5930,"Ġwhen":5931,"ĠAddExpression":5932,"ĠAddress":5933,"ĠEXIT":5934,"Ġquery":5935,"Ġimplement":5936,"CRYPTO":5937,"MouseEvent":5938,"ĠSubstractExpression":5939,"nonatomic":5940,"PowerOf":5941,"ĠNumberExpression":5942,"(){}<":5943,"Ġfoldmarker":5944,"Ġfoldmethod":5945,"alpha":5946,"ReactPackageProvider":5947,"UPPORT":5948,"INTEGRAL":5949,"ĠIdentExpression":5950,"Ġmoisrex":5951,"maphore":5952,"\"};<":5953,")>":5954,")),":5955,".\"<":5956,"Ag":5957,"Clock":5958,"DM":5959,"Dist":5960,"GLE":5961,"Lexer":5962,"Mem":5963,"NEW":5964,"Ob":5965,"SENSOR":5966,"TP":5967,"TERN":5968,"TAG":5969,"Uint":5970,"UINT":5971,"XML":5972,"]<<":5973,"ba":5974,"bc":5975,"fre":5976,"handler":5977,"ire":5978,"nb":5979,"rhs":5980,"ses":5981,"sleep":5982,"tmp":5983,"}}}<":5984,"Ð¸":5985,"Ġ<<\"":5986,"amx":5987,"Ġmg":5988,"Ġicon":5989,"anch":5990,"ingClassifier":5991,"iform":5992,"Ġvolatile":5993,"pped":5994,"rad":5995,"Ġsl":5996,"ĠpAction":5997,"Ġold":5998,"ĠAnd":5999,"ĠClear":6000,"elcom":6001,"ĠMemory":6002,"ĠTips":6003,"imest":6004,"ulator":6005,"Comb":6006,"STO":6007,"RECT":6008,"adget":6009,"Ġchannel":6010,"ATEG":6011,"Ġhighest":6012,"ĠQLabel":6013,"Ġstat":6014,"ĠROW":6015,"Ġelab":6016,"ĠUT":6017,"APE":6018,"shal":6019,"ĠWIDGET":6020,"ĠKernel":6021,"estroy":6022,"ĠHash":6023,"Ġdelta":6024,"EDIT":6025,"BUTT":6026,"ĠVertex":6027,"Listener":6028,"Ġprova":6029,"query":6030,"Ġarrays":6031,"COLOR":6032,"enges":6033,"diag":6034,"Ġcalling":6035,"OLVER":6036,"DLIB":6037,"Changed":6038,"aries":6039,"NOWN":6040,"ixel":6041,"Ġprices":6042,"ASIC":6043,"Ġexponent":6044,"interpre":6045,"Scoped":6046,"Sequential":6047,"EYERLIB":6048,"ĠEyerAV":6049,"packed":6050,"FEAT":6051,"ĠEXPORT":6052,"Ġpositive":6053,"Ġinitialize":6054,"Ġlmgl":6055,"visible":6056,"Ġincluding":6057,"Ġamount":6058,"742":6059,"<<\"*\"<<\"":6060,"Ġinterface":6061,"Ġcppgit":6062,"ĠPrismata":6063,"ĠRFK":6064,"Ġhelper":6065,"ĠInitialize":6066,"ResizeEvent":6067,"ChannelRuleMgr":6068,"Optimization":6069,"elcome":6070,"ĠROWS":6071,"BUTTON":6072,"69":6073,"=%":6074,"='":6075,">());<":6076,"AF":6077,"BEN":6078,"BASIC":6079,"Flex":6080,"Igno":6081,"NABLE":6082,"OLED":6083,"Pin":6084,"Palindrome":6085,"RU":6086,"Side":6087,"WOR":6088,"[];<":6089,"digit":6090,"pm":6091,"pq":6092,"pid":6093,"platform":6094,"supported":6095,"vt":6096,"winrt":6097,"ä¹":6098,"åĩ":6099,"åī":6100,"ç§":6101,"ç¬":6102,"ç®":6103,"ç´":6104,"Ġ()":6105,"orig":6106,"Ġ\"[\"":6107,"Ġclear":6108,"Ġrequest":6109,"ubl":6110,"entry":6111,"ĠCal":6112,"INE":6113,"ĠMust":6114,"imated":6115,"imental":6116,"Ġwas":6117,"options":6118,"ĠNot":6119,"ĠLu":6120,"Ġele":6121,"perimental":6122,"ĠHUD":6123,"imedes":6124,"ĠOB":6125,"Nodes":6126,"ivis":6127,"EXTERN":6128,"mng":6129,"Defines":6130,"Unary":6131,"Ġqt":6132,"OTG":6133,"icker":6134,"ĠIDD":6135,"parameter":6136,"oftware":6137,"ĠinitProgram":6138,"rics":6139,"Ġswitch":6140,"ĠUni":6141,"pacity":6142,"errno":6143,"errank":6144,"ScrollArea":6145,"disable":6146,"signal":6147,"INSTANTI":6148,"Ġplayers":6149,"azy":6150,"9402":6151,"æľĢ":6152,"iterations":6153,"other":6154,"ĠHeader":6155,"Ġprevious":6156,"æ±Ĥ":6157,"Usage":6158,"EXTENSIONS":6159,"hackerrank":6160,"Ioctl":6161,"challenges":6162,">//-------------------------------------------------------------------------<":6163,"58":6164,"Av":6165,"Bullet":6166,"GER":6167,"LAPACK":6168,"Mark":6169,"NET":6170,"Virtual":6171,"Writer":6172,"]];<":6173,"]>=":6174,"_->":6175,"aarch":6176,"fib":6177,"gn":6178,"gray":6179,"hen":6180,"hook":6181,"iu":6182,"mar":6183,"ness":6184,"ox":6185,"olean":6186,"rank":6187,"sl":6188,"upper":6189,"wap":6190,"å½":6191,"Ġ`":6192,"Ġlayer":6193,"ģ¯":6194,"ŃĶ":6195,"enable":6196,"atal":6197,"lue":6198,"rel":6199,"utes":6200,"ris":6201,"()+":6202,"aligned":6203,"alpaca":6204,"Ġsk":6205,"Ġputs":6206,"hetype":6207,"hell":6208,"ective":6209,"Ġ17":6210,"mask":6211,"Ġodd":6212,"experimental":6213,"izing":6214,"ĠSu":6215,"ĠSTR":6216,"ĠCC":6217,"ĠENTT":6218,"ĠTH":6219,"ĠTitle":6220,"Ġdfs":6221,"Ġlmng":6222,"LEV":6223,"boolean":6224,"ĠDate":6225,"Ġjo":6226,"ason":6227,"async":6228,"ecause":6229,"android":6230,"ĠFOR":6231,"ĠFAST":6232,"Ġ40":6233,"Ġhost":6234,"ĠLAN":6235,"ĠQT":6236,"ĠBy":6237,"ĠUser":6238,"uest":6239,"ITER":6240,"Ġ';<":6241,"Ġargument":6242,"third":6243,"ĠHouse":6244,"Ġdecl":6245,"DIOL":6246,"Ġsettings":6247,"Ġcompiler":6248,"Ġthan":6249,"Bound":6250,"ĠExternal":6251,"testing":6252,"ampler":6253,"ĠProblem":6254,"elemetry":6255,"pendent":6256,"akura":6257,"ECTOR":6258,"Ġalloc":6259,"PointXYZ":6260,"points":6261,">/*!":6262,"SERVER":6263,"ĠQStringList":6264,"ĠAnimation":6265,"Linked":6266,"modules":6267,"PATTERN":6268,"container":6269,"Ġperf":6270,"ĠUSBCON":6271,"dense":6272,"Prime":6273,"MACH":6274,"uffix":6275,"ĠFEXCore":6276,"Ġstatements":6277,"ProgressBar":6278,"ComboButton":6279,"WARNINGS":6280,"VICE":6281,"CXX":6282,"Ġcompilation":6283,"Rotation":6284,"encil":6285,"25519":6286,"illiseconds":6287,"FlexLexer":6288,"Ignore":6289,"ç®Ĺ":6290,"DIOLIB":6291,"!!<":6292,")%":6293,"/.":6294,"/=":6295,"500":6296,"63":6297,">\"":6298,"Bridge":6299,"DJSON":6300,"EOF":6301,"FC":6302,"Flag":6303,"GFX":6304,"Gpu":6305,"Iter":6306,"IVER":6307,"IATE":6308,"NI":6309,"OFF":6310,"Panel":6311,"QMouseEvent":6312,"Rate":6313,"RAN":6314,"Sk":6315,"Tur":6316,"ah":6317,"au":6318,"aver":6319,"bitmap":6320,"cent":6321,"flags":6322,"ls":6323,"misc":6324,"oai":6325,"pose":6326,"same":6327,"tf":6328,"åĽ":6329,"æĮ":6330,"è§":6331,"Ġ--------------------------------":6332,"erature":6333,"Ġcre":6334,"amed":6335,"Ġmint":6336,"Ġnv":6337,"ctime":6338,"ingly":6339,"Ġ*);<":6340,"Ġsimple":6341,"Ġbenchmark":6342,"rop":6343,"uba":6344,"ĠAd":6345,"++<":6346,"Ġgroup":6347,"Ġisinf":6348,"Ġisnan":6349,"INO":6350,"channel":6351,"ĠMB":6352,"ĠMo":6353,"ĠPC":6354,"Ġdigit":6355,"ulses":6356,"Ġinl":6357,"Ġinorder":6358,"Ġlcname":6359,"ĠNon":6360,"PLAY":6361,"ĠFill":6362,"ĠLay":6363,"forgeeks":6364,"ĠQu":6365,"ĠItem":6366,"peration":6367,"structure":6368,"thizer":6369,"Ġrt":6370,"Ġdemon":6371,"libgba":6372,"GLCore":6373,"COPY":6374,"Ġseed":6375,"ives":6376,"Ġthen":6377,"logue":6378,"Death":6379,"Conf":6380,"Ġpass":6381,"ãĤĬ":6382,"UGM":6383,"FileSystem":6384,"Ġleast":6385,"Setting":6386,"DUINO":6387,"RTTI":6388,"Ġsubdiag":6389,"aredNorm":6390,"Ġtriangle":6391,"Interrupt":6392,"æķ´":6393,"Ġscale":6394,"Params":6395,"NSString":6396,"ĠINSTANT":6397,"ocket":6398,"ĠScanner":6399,"offset":6400,"Ġimplementation":6401,"POINT":6402,"Ġmaybe":6403,"ĠDefault":6404,"Descriptor":6405,"copyright":6406,"Extension":6407,"Ġidentity":6408,"geeksforgeeks":6409,"Ġrequires":6410,"ĠSensorID":6411,"Ġgoes":6412,"ãģĻãĤĭ":6413,"lapsed":6414,"squaredNorm":6415,"ritical":6416,"SETTINGS":6417,"CONSTANTS":6418,"cceed":6419,"Ġissue":6420,"INSTANTIATION":6421,"ŃĶãģĪ":6422,"ĠINSTANTIATE":6423,")).":6424,"57":6425,"8742":6426,"ASH":6427,"DivExpression":6428,"Elem":6429,"Employee":6430,"Fin":6431,"Face":6432,"LEN":6433,"MulExpression":6434,"MENU":6435,"Non":6436,"ODE":6437,"Pool":6438,"PHY":6439,"RUN":6440,"Tone":6441,"Wait":6442,"craft":6443,"dw":6444,"gos":6445,"light":6446,"lision":6447,"ming":6448,"pt":6449,"tle":6450,"uv":6451,"viz":6452,"æģ¯":6453,"èĢ":6454,"éĶ":6455,"ĠÐ":6456,"Ġ++)":6457,"deque":6458,"atar":6459,"Ġ\"[":6460,"utator":6461,"Ġmi":6462,"Ġmock":6463,"seq":6464,"comm":6465,"Ġtot":6466,"Ġtrack":6467,"album":6468,"Ġfr":6469,"Ġfriend":6470,"Ġpatch":6471,"Ġplace":6472,"Ġpattern":6473,"Ġbecause":6474,"hef":6475,"unit":6476,"Ġcost":6477,"licy":6478,"mai":6479,"izes":6480,"ĠSL":6481,"ĠSO":6482,"ĠSerial":6483,"Ġgl":6484,"Ġgraph":6485,"ĠCOL":6486,"ĠPer":6487,"ĠTop":6488,"Ġdist":6489,"Ġdxvk":6490,"geometry":6491,"ĠDP":6492,"ART":6493,"ATIVE":6494,"Stage":6495,"ortion":6496,"Ġevery":6497,"ĠBiome":6498,"liboai":6499,"ĠUSE":6500,"itsuba":6501,"shr":6502,"estore":6503,"numeric":6504,"Ġdescribed":6505,"Proc":6506,"serv":6507,"ains":6508,"scene":6509,"ĠmaxPro":6510,"CHMARK":6511,"Once":6512,"arest":6513,"FunctionList":6514,"ĠStream":6515,"mozilla":6516,"WIFI":6517,"SetKey":6518,"Response":6519,"IdentExpression":6520,"AddExpression":6521,"CodeGraph":6522,"ErrorCode":6523,"PROJECT":6524,"functions":6525,"]={":6526,"NumberExpression":6527,"Ġparameter":6528,"ĠOpenAI":6529,"EYERPLAYER":6530,"SubstractExpression":6531,"attle":6532,"packages":6533,"Ġlinking":6534,"Ġperson":6535,"ĠQWDialogHeaders":6536,"Attribut":6537,"FUNCTIONS":6538,"ĠDefinition":6539,"åĢ¤":6540,"Extent":6541,"*/,":6542,"Ġradius":6543,"initialize":6544,"Active":6545,"mutation":6546,"ä½ľ":6547,"Ġliboai":6548,"LIST":6549,"Ġarchimedes":6550,"btn":6551,"Ġorigin":6552,"ĠBuffer":6553,"ĠUtility":6554,"CamSensor":6555,"MACOSX":6556,"Ġ-------------------<":6557,"ĠREADME":6558,"ĠMozilla":6559,"Ġdemonware":6560,"&]":6561,"56":6562,";\"":6563,"Bin":6564,"BLE":6565,"Distance":6566,"DREAM":6567,"Drive":6568,"Dispatcher":6569,"Files":6570,"Hex":6571,"HEL":6572,"MC":6573,"POP":6574,"PASS":6575,"SW":6576,"Sm":6577,"TY":6578,"TIM":6579,"dlog":6580,"eh":6581,"even":6582,"iver":6583,"manager":6584,"malloc":6585,"mitsuba":6586,"nx":6587,"nap":6588,"pract":6589,"ren":6590,"sy":6591,"safe":6592,"title":6593,"zero":6594,"å°":6595,"åĩºåĬĽ":6596,"æ¡":6597,"éĹ":6598,"Ġlock":6599,"Ġ++;<":6600,"Ġeffect":6601,"utable":6602,"Ġcustom":6603,"Ġmd":6604,"Ġmon":6605,"aron":6606,"arations":6607,"Ġtex":6608,"Ġtony":6609,"Ġsakura":6610,"Ġpin":6611,"Ġrecurs":6612,"heme":6613,"ross":6614,"uncher":6615,"licates":6616,"**<":6617,"ĠSRC":6618,"ĠCATCH":6619,"verify":6620,"ĠTCP":6621,"Ġdistributed":6622,"Ġinner":6623,"STAB":6624,"ĠDisplay":6625,"irs":6626,"ARPMP":6627,"andbox":6628,"ĠFoo":6629,"ĠFast":6630,"ĠFrame":6631,"DEX":6632,"Ġxy":6633,"ĠButton":6634,"ANH":6635,"ITensor":6636,"lush":6637,"emove":6638,"Ġ',":6639,"odium":6640,"complete":6641,"SEC":6642,"CTRL":6643,"connection":6644,"IONS":6645,"ROM":6646,"ĠVar":6647,"account":6648,"ĠXOR":6649,"Ġcompat":6650,"CEGUI":6651,"Events":6652,"CLI":6653,"AMPLE":6654,"OfCamera":6655,"location":6656,"maxi":6657,"Ġtests":6658,"Ġconv":6659,"Ġconvert":6660,"Buttons":6661,"Ġ2013":6662,"','":6663,"apping":6664,"efficient":6665,"ĠZRule":6666,"ĠZTask":6667,"CPPRTTI":6668,"events":6669,"]]<":6670,"yaml":6671,"Keyboard":6672,"Checked":6673,"ĠWidgets":6674,"242":6675,"ĠINCLUDE":6676,"ĠDevice":6677,"alect":6678,"Ġenable":6679,"pacing":6680,"ONNX":6681,"Linear":6682,"boardId":6683,"QStringList":6684,"DOWN":6685,"culate":6686,"Traits":6687,"players":6688,"Ġentity":6689,"Maximum":6690,"linked":6691,"PYBIND":6692,"EyerPlayer":6693,"Ġlmeditor":6694,"Ġassign":6695,"Ġpackage":6696,"Asset":6697,"åĲĪ":6698,"è¯Ŀ":6699,"HEADERS":6700,"Temporary":6701,"ĠTESTS":6702,"===//<":6703,"Ġ1900242":6704,"Ġgemm":6705,"OPENAI":6706,"Select":6707,"correct":6708,"IgnoreScroll":6709,"practice":6710,"'){<":6711,"51":6712,">):":6713,"CY":6714,"CNT":6715,"Cvt":6716,"Dot":6717,"Dark":6718,"Delta":6719,"Even":6720,"Gl":6721,"GAME":6722,"Meta":6723,"MATCH":6724,"QT":6725,"Return":6726,"RAY":6727,"Seg":6728,"Sleep":6729,"Sda":6730,"TW":6731,"TX":6732,"Zip":6733,"bed":6734,"cg":6735,"dr":6736,"dst":6737,"eb":6738,"eosio":6739,"fps":6740,"freq":6741,"here":6742,"just":6743,"raries":6744,"signed":6745,"tExpression":6746,"ude":6747,"åĮ":6748,"Ġ><":6749,"Ġendif":6750,"Ġefficient":6751,"decode":6752,"ences":6753,"rec":6754,"Ġ\":\"":6755,"Ġmust":6756,"arp":6757,"()==":6758,"()->":6759,"icOperatorType":6760,"Ġ*(":6761,"Ġ*>":6762,"Ġvi":6763,"Ġfilter":6764,"Ġsend":6765,"Ġpch":6766,"ĠpSizable":6767,"Ġref":6768,"Ġreset":6769,"mail":6770,"ummy":6771,"ĠSX":6772,"ĠCK":6773,"INPUT":6774,"ĠMod":6775,"ĠMouse":6776,"ĠMesh":6777,"ĠMEM":6778,"ĠMutex":6779,"ĠMGB":6780,"Ġ21":6781,"oper":6782,"Ġform":6783,"spdlog":6784,"ĠGE":6785,"ĠGU":6786,"derr":6787,"RELU":6788,"ĠFs":6789,"DED":6790,"DEF":6791,"Stra":6792,"Ġhw":6793,"ILogger":6794,"ĠQTextCodec":6795,"ĠULONG":6796,"ITS":6797,"osite":6798,"ULONG":6799,"sha":6800,"ĠHEL":6801,"MOID":6802,"Ġden":6803,"Ġdepth":6804,"[]);<":6805,"ĠView":6806,"ListBox":6807,"ffine":6808,"ffff":6809,"TEMPL":6810,"ãģª":6811,"builtin":6812,"Ġseg":6813,"LOAD":6814,"abc":6815,"ables":6816,"COND":6817,"ViewModel":6818,"Viewport":6819,"OBS":6820,"ĠStack":6821,"Compiler":6822,"FilePath":6823,"lineptr":6824,"Ġalgos":6825,"ĠZBehavior":6826,"dimension":6827,"GameState":6828,"CppString":6829,"EXPORTS":6830,"ĠMaterial":6831,"Factor":6832,"ĠDebug":6833,"åĪĨ":6834,"MessageWindow":6835,"Ġlua":6836,"Ġchecked":6837,"versal":6838,"CAST":6839,"Ġnecess":6840,"TRODREAM":6841,"ĠQWDialogSize":6842,"Constant":6843,"SDKDDKVer":6844,"cross":6845,"ĠMYGETLINE":6846,"ĠDesc":6847,"GlobalMap":6848,"####":6849,"SerialPortClient":6850,"TokenKind":6851,"Ġrenderer":6852,"Ġvisit":6853,"Ġvisible":6854,"SHAREDLIB":6855,"Ġfactorial":6856,"ĠTexture":6857,"heatshr":6858,"Macaron":6859,"Ġdisable":6860,"ĠGraphics":6861,"ĠAVUTIL":6862,"ãĢģ":6863,"Ġgemv":6864,"PROTOCOL":6865,"(...)":6866,"Copyable":6867,"ĠQWDIALOGSIZE":6868,"ĠPARTE":6869,"å¯¹è¯Ŀ":6870,"ladder":6871,"ĠMATLAB":6872,"ĠSIMDJSON":6873,"ATEGY":6874,"Ġexponential":6875,"LEVEL":6876,"Ġ-----------------------------------<":6877,"SetKeyEnv":6878,"æ¡Ĩ":6879,"ĠTCPOPT":6880,"heatshrink":6881,"å¯¹è¯Ŀæ¡Ĩ":6882,"\"][":6883,"\"].":6884,"-(":6885,"85":6886,"<>(":6887,"Bit":6888,"Bits":6889,"BRO":6890,"Can":6891,"DD":6892,"EC":6893,"GU":6894,"Hake":6895,"HRESULT":6896,"KERN":6897,"Kernel":6898,"Mar":6899,"QPa":6900,"Red":6901,"Round":6902,"SK":6903,"TABLE":6904,"Wnd":6905,"WITH":6906,"]<=":6907,"custom":6908,"dic":6909,"mute":6910,"pseudo":6911,"pHake":6912,"sa":6913,"tup":6914,"uvec":6915,"¥æ":6916,"å¹":6917,"åĵ":6918,"åľ":6919,"ç¨":6920,"è¨":6921,"Ġul":6922,"desc":6923,"determinant":6924,"ongest":6925,"rev":6926,"utor":6927,"Ġca":6928,"Ġcc":6929,"::_":6930,"legate":6931,"seed":6932,"section":6933,"cost":6934,"ane":6935,"Ġtrigger":6936,"Ġvd":6937,"Ġfi":6938,"Ġfn":6939,"Ġfragment":6940,"Ġsapien":6941,"Ġspacing":6942,"Ġpresent":6943,"Ġaccess":6944,"unused":6945,"doctest":6946,"Ġmachine":6947,"ERSION":6948,"ely":6949,"chor":6950,"ĠMono":6951,"ĠPlatform":6952,"ĠTimer":6953,"ĠTemplate":6954,"Ġwait":6955,"Ġ{'":6956,"Ġinvalid":6957,"extra":6958,"ĠNT":6959,"ĠNew":6960,"STREAM":6961,"REAL":6962,"bot":6963,"ĠDll":6964,"ATOR":6965,"==(":6966,"ĠRA":6967,"ĠBoost":6968,"ĠUN":6969,"ultip":6970,"anges":6971,"cppgit":6972,"Ġker":6973,"CTL":6974,"construct":6975,"boolalpha":6976,"Ġoverwrite":6977,"Proxy":6978,"Ġresizing":6979,"ĠVERSION":6980,"pha":6981,"scale":6982,"Ġmatmul":6983,"ãģ§":6984,"ãģ¨":6985,"ãģį":6986,"fact":6987,"ĠsetIcon":6988,"Ġexample":6989,"anted":6990,"STRATEGY":6991,"();//":6992,"ĠExp":6993,"Depen":6994,"Ġ};":6995,"ĠInteger":6996,"ETA":6997,"SLAM":6998,"OfM":6999,"OfV":7000,"DLER":7001,"cpu":7002,"Ġitk":7003,"ĠCore":7004,"Comparing":7005,"GetInstance":7006,"Pointer":7007,"ASK":7008,"cessed":7009,"Ġllt":7010,"ĠSCP":7011,"AGES":7012,"Ids":7013,"Addr":7014,"Ġadding":7015,"eps":7016,"Ġspecified":7017,"Interpre":7018,"ELD":7019,"ĠIDT":7020,"ä¸Ģ":7021,"aved":7022,"Ġ...);<":7023,"ĠSTAT":7024,"ĠWINAPI":7025,"ULTI":7026,"dllexport":7027,"ĠCommon":7028,"QtWidgets":7029,"SDKVer":7030,"DrawContext":7031,"NotEqual":7032,"which":7033,"quired":7034,"Ġcontains":7035,"ields":7036,"Ġincrement":7037,"HANDLER":7038,"FLAG":7039,"åĲį":7040,"multip":7041,"lipboard":7042,"ĠçŃĶãģĪ":7043,"Backend":7044,"Ġlike":7045,"ĠTRUE":7046,"æ³ķ":7047,"Ġinstead":7048,"HOOK":7049,"allel":7050,"UNKNOWN":7051,"headers":7052,"çĤ¹":7053,"Ġselected":7054,"Ġextracted":7055,"Ġcondition":7056,"åī²":7057,"Ġelevations":7058,"ĠByte":7059,"Ġnvinfer":7060,"æķ´æķ°":7061,"ĠMEMORY":7062,"Ġnecessary":7063,"Macaronlib":7064,"&>;<":7065,"*<":7066,"219":7067,"96":7068,"Begin":7069,"Case":7070,"Clicked":7071,"Destroy":7072,"ESP":7073,"Fusion":7074,"FWD":7075,"Gen":7076,"Hud":7077,"Host":7078,"Jump":7079,"Jedi":7080,"LT":7081,"Let":7082,"ND":7083,"QResizeEvent":7084,"RF":7085,"Rel":7086,"Step":7087,"SUPPORT":7088,"TV":7089,"Top":7090,"TON":7091,"TVec":7092,"Timest":7093,"Vulkan":7094,"basic":7095,"cer":7096,"cmp":7097,"draw":7098,"distribution":7099,"finished":7100,"gs":7101,"iCG":7102,"iFi":7103,"ju":7104,"place":7105,"qw":7106,"ral":7107,"rate":7108,"ruit":7109,"ranch":7110,"ssed":7111,"sample":7112,"tot":7113,"yr":7114,"±»":7115,"·åıĸ":7116,"ä¿":7117,"èİ":7118,"éķ":7119,"ĠOR":7120,"ĠIM":7121,"Ġraw":7122,"ĠERROR":7123,"ħį":7124,"ĭæķ°":7125,"dev":7126,"erTest":7127,"release":7128,"Ġ\"--":7129,"Ġ\"));<":7130,"uter":7131,"utol":7132,"Ġcache":7133,"Ġmf":7134,"Ġman":7135,"ritten":7136,"defs":7137,"definite":7138,"anim":7139,"Ġtask":7140,"alized":7141,"icha":7142,"Ġfps":7143,"radius":7144,"Ġsim":7145,"Ġpencil":7146,"Ġrec":7147,"ssl":7148,"Ġasm":7149,"look":7150,"strong":7151,"Ġown":7152,">///<":7153,"Ġmajor":7154,"ĠSelfAdjoint":7155,"ĠCwise":7156,"INDEX":7157,"els":7158,"yph":7159,"ĠENUM":7160,"ĠEmployee":7161,"__,":7162,"ĠMine":7163,"ĠMAKE":7164,"ĠPS":7165,"ĠPtr":7166,"ĠPath":7167,"ĠTear":7168,"001":7169,"InPlace":7170,"Comm":7171,"Coeffici":7172,"ĠNUM":7173,"bour":7174,"ĠDxso":7175,"setState":7176,"DEL":7177,"Stat":7178,"Stop":7179,"ĠLazy":7180,"ĠQMainWindow":7181,"ĠQiu":7182,"Ġstride":7183,"Ġeig":7184,"Ġemit":7185,"ĠUsing":7186,"ĠfilePath":7187,"ĠEigenSolver":7188,"ĠWhen":7189,"ĠHandle":7190,"ĠHessenberg":7191,"CTBridge":7192,"QUEST":7193,"ptrdiff":7194,"matA":7195,"ithms":7196,"ALIZ":7197,"uteTh":7198,"prices":7199,"reflect":7200,"Ġ!!!":7201,"quency":7202,"quares":7203,"matrixQ":7204,"DIR":7205,"ĠmaxNorm":7206,"ĠmaxOfV":7207,"Ġuintptr":7208,"aryExpr":7209,"computeInverse":7210,"ĠExec":7211,"Decoder":7212,"rtw":7213,"ready":7214,"ĠIncluding":7215,"ArrayXXf":7216,"Ġpassed":7217,"Ġstrlen":7218,"Chunk":7219,"afruit":7220,"Ġuni":7221,"Ġunique":7222,"Defs":7223,"ĠCoder":7224,"Ġconserv":7225,"ĠminOfM":7226,"ldlt":7227,"CKET":7228,"StatementList":7229,"Ġexpected":7230,"ĠapplyOnThe":7231,"ĠcopyUpper":7232,"ĠSetUp":7233,"ĠMOCK":7234,"holderCoeffici":7235,"mlir":7236,"alsa":7237,"ĠOpenGL":7238,"PivLU":7239,"gorithms":7240,"ighbour":7241,"Ġ--\"":7242,"Option":7243,"ĠLock":7244,"Ġwhose":7245,"ĠUnaligned":7246,"SubtreeWrapper":7247,"operatorNorm":7248,"operatorSqrt":7249,"ĠcomputeU":7250,"ĠcomputeEigenvectors":7251,"Generalized":7252,"Ġ1000000":7253,"UDim":7254,"Ġneighbour":7255,"RowVectorXi":7256,"repo":7257,"angularPart":7258,"Ġrocm":7259,"coeffs":7260,"bination":7261,"ĠEXPECT":7262,"cwiseEqual":7263,"cwiseNotEqual":7264,"ĠCombination":7265,"WithCheck":7266,"Ġ\"]^[\"":7267,"Primitive":7268,"ĠRowVectorXi":7269,"ModInt":7270,"ĠBOOL":7271,"artialPivLU":7272,"ReadOnly":7273,"Ġpython":7274,"EyerCore":7275,"lantern":7276,"TriangularPart":7277,"Ġ\",\"":7278,"Condition":7279,"ĠDirect":7280,"issing":7281,"Ġtrailer":7282,"ĠSubtreeWrapper":7283,"ĠplayerID":7284,"LEGACY":7285,"Ġpacked":7286,"FLANN":7287,"HouseholderQR":7288,"ĠPrintStatement":7289,"Doing":7290,"ĠDataMatrix":7291,"Ġ256":7292,"RealSchur":7293,"ç»ĵ":7294,"Ġsignal":7295,"ĠWeicha":7296,"ĠScopeAssignmentList":7297,"ComplexEigenSolver":7298,"hysics":7299,"ĠFade":7300,"householderCoeffici":7301,"alphas":7302,"applyOnTheRight":7303,"LastError":7304,"Ġcorresponds":7305,"SIGMOID":7306,"VARI":7307,"middleRows":7308,"middleCols":7309,"Ġpoisson":7310,"SPECI":7311,"joined":7312,"lpNorm":7313,"GRAPHICS":7314,"MESSAGE":7315,"Broadcasting":7316,"simde":7317,"JacobiRotation":7318,"ĠTriangularView":7319,"Ġlinearly":7320,"ĠFullPivLU":7321,"ĠWinSDKVer":7322,"ĠTemporary":7323,"packedMatrix":7324,"WORK":7325,"ç¬¦":7326,"ublish":7327,"UnaryView":7328,"Ġjoined":7329,"ĠHouseholder":7330,"èĢħ":7331,"éĶ®":7332,"Ġmocka":7333,"ĠTopic":7334,"ĠVarDecl":7335,"Segment":7336,"dimensional":7337,"iCGSTAB":7338,"jugate":7339,"èİ·åıĸ":7340,"ħįåĪĹ":7341,"utolink":7342,"ĠSelfAdjointView":7343,"ĠCwiseUnaryView":7344,"ĠTearDown":7345,"uteThin":7346,"Ġconservative":7347,"ĠcopyUpperTriangularPart":7348,"ĠWeichao":7349,"householderCoefficients":7350,"\"},":7351,"43":7352,"75":7353,"={":7354,"AUT":7355,"Async":7356,"CF":7357,"CRT":7358,"Critical":7359,"Foo":7360,"Fov":7361,"GT":7362,"Gla":7363,"GIC":7364,"Hint":7365,"Holder":7366,"JU":7367,"MQ":7368,"Mol":7369,"Montgomery":7370,"PAN":7371,"Release":7372,"SQL":7373,"Session":7374,"Sphere":7375,"Tex":7376,"bvec":7377,"cap":7378,"dat":7379,"dvec":7380,"eve":7381,"full":7382,"folder":7383,"fusion":7384,"gt":7385,"nas":7386,"pcl":7387,"panel":7388,"ron":7389,"rins":7390,"track":7391,"tract":7392,"£çłģ":7393,"Ð°":7394,"æĪ":7395,"Ġ./":7396,"Ġurl":7397,"ination":7398,"delete":7399,"denc":7400,"delim":7401,"stb":7402,"rete":7403,"ince":7404,"ese":7405,"arithm":7406,"Ġip":7407,"animation":7408,"Ġtimer":7409,"Ġver":7410,"Ġpid":7411,"Ġbitmap":7412,"Ġreal":7413,"Ġreader":7414,"los":7415,"Ġcommon":7416,"usic":7417,"Ġobs":7418,"ĠSys":7419,"ĠSave":7420,"ĠisPowerOf":7421,"ĠCond":7422,"ĠESP":7423,"ĠMock":7424,"oph":7425,"ALE":7426,"split":7427,"Inf":7428,"Ġlargest":7429,"ĠGPL":7430,"ĠNull":7431,"REEN":7432,"egacy":7433,"Ġchain":7434,"Ġchange":7435,"ĠDistributed":7436,"DETECT":7437,"ĠQColor":7438,"lice":7439,"perti":7440,"ools":7441,"ntt":7442,"Product":7443,"fomap":7444,"backward":7445,"refix":7446,"tab":7447,"Enable":7448,"DIV":7449,"DIAN":7450,"PEG":7451,"ADT":7452,"SCR":7453,"NodeData":7454,"FAILURE":7455,"diator":7456,"hoge":7457,"00009":7458,"ToString":7459,"ĠGLCore":7460,"Composite":7461,"ariables":7462,"NOT":7463,"Ġconnect":7464,"Ġ90":7465,"DUMM":7466,"Ġpriority":7467,"Ġprints":7468,"Addon":7469,"IntPtr":7470,"FFECT":7471,"FFFF":7472,"Ġlibraries":7473,"Ġ**)<":7474,"ĠCORE":7475,"ĠYour":7476,"ĠYou":7477,"IPv":7478,"Utility":7479,"ĠEyerPlayer":7480,"etail":7481,"Ġ123":7482,"allocate":7483,"control":7484,"*)(":7485,"Registerer":7486,"iscrete":7487,"targetver":7488,"Modification":7489,"vertex":7490,"ĠPlayerID":7491,"ĠFormat":7492,"monitor":7493,"visibility":7494,"åĢ¼":7495,"ĠSeeta":7496,"currency":7497,"Double":7498,"ĠMAIN":7499,"codechef":7500,"anslate":7501,"ĠLLVMFuzz":7502,"Record":7503,"devices":7504,"Ġdetails":7505,"mintrin":7506,"MARKER":7507,"ĠNSObject":7508,"Background":7509,"OUTPUT":7510,"TabFrame":7511,"Tracker":7512,"unistd":7513,"RadioItem":7514,"allest":7515,"Images":7516,"Ġsmall":7517,"Success":7518,"Splitter":7519,"ĠLPVOID":7520,"Multi":7521,"CUSTO":7522,"ĠCHudElem":7523,"shala":7524,"interpret":7525,"CLIENT":7526,"Ġ190024210":7527,"StraFact":7528,"tuple":7529,"ĠRADIOLIB":7530,"ĠçŃĶãģĪãĤĴ":7531,"ĠMinecraft":7532,"Gladiator":7533,"MontgomeryModInt":7534,"dencies":7535,"ĠGPLv":7536,"perties":7537,"DUMMY":7538,"\"}};<":7539,"235":7540,"49":7541,"53":7542,"70":7543,"8000":7544,">\\":7545,">_":7546,"Abstract":7547,"Big":7548,"BER":7549,"Brain":7550,"BLOCK":7551,"CString":7552,"Duration":7553,"Detail":7554,"FEX":7555,"FALSE":7556,"Hook":7557,"LC":7558,"Li":7559,"MX":7560,"MING":7561,"Mach":7562,"Mov":7563,"Media":7564,"Messages":7565,"OY":7566,"Po":7567,"Pix":7568,"RAM":7569,"Sim":7570,"SORT":7571,"Socket":7572,"Use":7573,"Ubpa":7574,"VID":7575,"VECTOR":7576,"Word":7577,"[(":7578,"\\\":":7579,"bine":7580,"cn":7581,"cr":7582,"car":7583,"dup":7584,"js":7585,"montgomery":7586,"rsqrt":7587,"salsa":7588,"volatile":7589,"witch":7590,"welcome":7591,"xml":7592,"å¼":7593,"éĤ":7594,"éĸ":7595,"Ġ$":7596,"Ġec":7597,"Ġros":7598,"īç":7599,"ining":7600,"atter":7601,"lug":7602,"requency":7603,"Ġcs":7604,"Ġmer":7605,"Ġmetadata":7606,"Ġmutator":7607,"()*":7608,"()/":7609,"ication":7610,"stdout":7611,"Ġfixed":7612,"Ġfrequently":7613,"itect":7614,"rade":7615,"Ġpe":7616,"Ġpcl":7617,"Ġpost":7618,"ĠpParent":7619,"ĠpDC":7620,"Ġbd":7621,"Ġacc":7622,"loor":7623,"Ġ18":7624,"usbg":7625,"Ġoperation":7626,"ĠActor":7627,"Ġmac":7628,"ERE":7629,"ĠSign":7630,"ĠisPalindrome":7631,"ĠCan":7632,"Ġonnx":7633,"edu":7634,"ĠElement":7635,"trl":7636,"trt":7637,"trans":7638,"term":7639,"cho":7640,"ĠMS":7641,"ĠPol":7642,"Ġdat":7643,"Ġws":7644,"ONE":7645,"Include":7646,"Ġlim":7647,"LECT":7648,"ĠGeometry":7649,"ĠNetwork":7650,"ĠDX":7651,"ĠDis":7652,"ĠDxvk":7653,"press":7654,"Standard":7655,"Sticker":7656,"ĠQPushButton":7657,"Ġstyle":7658,"Ġstuff":7659,"ĠRec":7660,"ĠBiCGSTAB":7661,"APT":7662,"thers":7663,"ĠWt":7664,"ĠgetMove":7665,"ĠgetNvOnnxParser":7666,"2021":7667,"ALID":7668,"four":7669,"ICK":7670,"Ġresource":7671,"ĠVK":7672,"ãģĭ":7673,"ãģķ":7674,"ãģŁ":7675,"Ġtransform":7676,"ĠsetChecked":7677,"Ġcomplex":7678,"arry":7679,"Decompiler":7680,"Ġ\\\"":7681,"ĠIndex":7682,"Ġarea":7683,"TextEdit":7684,"ColMajor":7685,"Ġesphome":7686,"ãĤģ":7687,"Ġconnection":7688,"Unreal":7689,"ildren":7690,"4435":7691,"ĠcreateNvOnnxParser":7692,"Reset":7693,"Idx":7694,"Ġsubdiagonal":7695,"SObj":7696,"Ġshared":7697,"Ġasset":7698,"Angle":7699,"Heap":7700,"eeper":7701,"ĠImGui":7702,"159":7703,"ä¸º":7704,"CppIntPtr":7705,"CheckItem":7706,"Ġ[&]":7707,"ĠContainer":7708,"åĪĩ":7709,"ĠSTD":7710,"Ġlunas":7711,"ĠEyerString":7712,"Debugger":7713,"package":7714,"convolution":7715,"TTP":7716,"Private":7717,"mirai":7718,"ĠMYSHAREDLIB":7719,"Ġsucceed":7720,"ĠConnection":7721,"Ġãģ§":7722,"456":7723,"JsonObject":7724,"ĠResource":7725,"ĠResponse":7726,"Ġpacket":7727,"Ġinfrequently":7728,"eatures":7729,"StatusBar":7730,"initializer":7731,"Ġaccomp":7732,"Ġ^=":7733,"PressEvent":7734,"Ġfibonacci":7735,"Signal":7736,"SIGN":7737,"Ġfail":7738,"pooling":7739,"(...)<":7740,"Imagery":7741,"Ġagain":7742,"Directory":7743,"MRML":7744,"Ġmeans":7745,"ĠLevel":7746,"ï¼ī<":7747,"824435":7748,"Internshala":7749,"OneInput":7750,"PROGRESS":7751,"BrowserWindow":7752,"æį®":7753,"Failed":7754,"Observer":7755,"ĠAndroid":7756,"BENCHMARK":7757,"Attributes":7758,"POPCNT":7759,"Ġ',',":7760,"Ġcompatibility":7761,"è¨Ī":7762,"ĠTemplateVisitor":7763,"erTestOneInput":7764,"ĠLazyMontgomeryModInt":7765,"rtwtypes":7766,"SPECIAL":7767,"rinsic":7768,"ĠLLVMFuzzerTestOneInput":7769,"attery":7770,"itecture":7771,"ĠgetNvOnnxParserVersion":7772,"Ġlunasvg":7773,"8244353":7774,")));<":7775,"47":7776,"92":7777,">+":7778,">/**":7779,"BST":7780,"BSD":7781,"CALL":7782,"Dock":7783,"Err":7784,"Euler":7785,"Fix":7786,"FUSE":7787,"Hw":7788,"HOST":7789,"Jo":7790,"Kern":7791,"None":7792,"Pe":7793,"PAGE":7794,"PartialPlayer":7795,"Pulses":7796,"QPushButton":7797,"QListWidget":7798,"Rcpp":7799,"RUP":7800,"Save":7801,"SUM":7802,"TC":7803,"Telemetry":7804,"TANH":7805,"USER":7806,"WAPI":7807,"XOR":7808,"ZMatch":7809,"_)<":7810,"``":7811,"card":7812,"cerr":7813,"eph":7814,"flow":7815,"fill":7816,"gly":7817,"gtc":7818,"ii":7819,"kg":7820,"ku":7821,"sn":7822,"syn":7823,"sizes":7824,"vgui":7825,"wner":7826,"åĿ":7827,"æĽ":7828,"ç±»":7829,"éĥ":7830,"Ġpp":7831,"Ġdown":7832,"detect":7833,"depth":7834,"delegate":7835,"stderr":7836,"erate":7837,"ora":7838,"Ġ\"*":7839,"uting":7840,"Ġcancel":7841,"amal":7842,"Ġmesh":7843,"Ġmalloc":7844,"Ġmatrices":7845,"arn":7846,"Ġiter":7847,"());":7848,"Ġng":7849,"Ġneg":7850,"cover":7851,"icon":7852,"idar":7853,"stdarg":7854,"Ġfix":7855,"Ġflags":7856,"inear":7857,"Ġplus":7858,"lash":7859,"Ġob":7860,"Ġok":7861,"ĠAS":7862,"Ġggui":7863,"Ġgeometry":7864,"Ġguit":7865,"Ġthem":7866,"strings":7867,"ioctl":7868,"ĠMG":7869,"Ġ255":7870,"ĠTeam":7871,"immintrin":7872,"Ġdw":7873,"ulate":7874,"Ġind":7875,"------":7876,"spective":7877,"Coder":7878,"LEE":7879,"ĠGCD":7880,"ĠNDEBUG":7881,"ĠDB":7882,"ATTACH":7883,"asis":7884,"ĠFS":7885,"ĠLin":7886,"Ġstore":7887,"ĠRuntime":7888,"getInstance":7889,"apter":7890,"ĠImp":7891,"Ġtoken":7892,"ĠKind":7893,"Ġyear":7894,"ĠHel":7895,"ALIGN":7896,"artist":7897,"refer":7898,"ĠOri":7899,"ĠOLED":7900,"ĠVideo":7901,"libs":7902,"COUN":7903,"UND":7904,"DIUM":7905,"Ġ1024":7906,"ĠsetVisible":7907,"Ġcomplete":7908,"Ġthere":7909,"AMD":7910,"IBILITY":7911,"Viewer":7912,"Database":7913,"Scale":7914,"locale":7915,"TestEnvironment":7916,"Ġconversion":7917,"MenuRadioItem":7918,"MenuCheckItem":7919,"InfoDialog":7920,"Ġallow":7921,"Sha":7922,"Share":7923,"ĠREL":7924,"LIBC":7925,"AddGlobal":7926,"MyString":7927,"Thumb":7928,"THROW":7929,"FLOW":7930,"Ġscene":7931,"ava":7932,"psb":7933,"gameplay":7934,"trace":7935,"ĠINC":7936,"Symbols":7937,"Ġ---":7938,"Ġwhat":7939,"Ġparser":7940,"curve":7941,"ĠScript":7942,"APPLE":7943,"Ġdirectly":7944,"Password":7945,"Person":7946,"serializer":7947,"POOL":7948,"EyerAV":7949,"ISM":7950,"Ġãģ¯":7951,"Ġextension":7952,"PrintStatement":7953,"processor":7954,"Ġconfiguration":7955,"INTERRUP":7956,"Ġcompare":7957,"Ġmember":7958,"ScopeAssignmentList":7959,">-(":7960,"Attach":7961,"<<\"*\";<":7962,"hysical":7963,"QueryType":7964,"VarDecl":7965,"Ġupto":7966,"ExprTree":7967,"Duplicate":7968,"Duplicates":7969,"anying":7970,"ĠConfigure":7971,"åŃĹç¬¦":7972,"executable":7973,"SyncClient":7974,"VariantMap":7975,"GxCTRL":7976,"shlibext":7977,"shlibdir":7978,"MSG":7979,"asurement":7980,"Assert":7981,"Phase":7982,"å®ļ":7983,"Ġkemai":7984,"VISIBILITY":7985,"NEWLIB":7986,"æ±ĤãĤģ":7987,"ĠDescription":7988,"å¹³":7989,"ç¨ĭ":7990,"Policy":7991,"Ġaccompanying":7992,"ephyr":7993,"éĥ¨":7994,"Ġguitard":7995,"AddGlobalTestEnvironment":7996,"INTERRUPT":7997,"'||":7998,".%":7999,"73":8000,"76":8001,">)<":8002,"@@":8003,"Ab":8004,"Blur":8005,"Ca":8006,"Cy":8007,"CAN":8008,"CLO":8009,"Custom":8010,"Diff":8011,"FP":8012,"GENERATED":8013,"Grid":8014,"GMOCK":8015,"HLE":8016,"Met":8017,"Micro":8018,"NC":8019,"Pose":8020,"Post":8021,"Poly":8022,"QLabel":8023,"RST":8024,"RACT":8025,"Sust":8026,"See":8027,"Speed":8028,"Ts":8029,"WH":8030,"WER":8031,"WiFi":8032,"]);":8033,"ballsBowled":8034,"ballsPlayed":8035,"cam":8036,"dsp":8037,"distance":8038,"digits":8039,"ea":8040,"evalu":8041,"flat":8042,"hing":8043,"ico":8044,"jni":8045,"mary":8046,"qtt":8047,"rong":8048,"runsScored":8049,"runsGiven":8050,"sstream":8051,"sAction":8052,"ws":8053,"wchar":8054,"wicketsTaken":8055,"xff":8056,"xInterface":8057,"ye":8058,"zmm":8059,"zlib":8060,"zTypes":8061,"{}<":8062,"¶æ":8063,"ºĲ":8064,"Ð½":8065,"åł":8066,"éĵ":8067,"Ġla":8068,"Ġutf":8069,"Ĥãģ®":8070,"dec":8071,"destruct":8072,"onder":8073,"onical":8074,"reet":8075,"repository":8076,"Ġcg":8077,"esp":8078,"()!=":8079,"anToken":8080,"Ġtp":8081,"Ġvk":8082,"Ġvo":8083,"Ġsame":8084,"Ġbq":8085,"Ġbin":8086,"Ġbits":8087,"Ġbasic":8088,"ĠballsBowled":8089,"ĠballsPlayed":8090,"Ġreport":8091,"ssize":8092,"heap":8093,"Ġinteg":8094,"ential":8095,"ĠAs":8096,"ĠAct":8097,"ĠAPP":8098,"ĠSlider":8099,"ĠSleep":8100,"ĠScoped":8101,"ĠSoftware":8102,"ĠClass":8103,"ypr":8104,"ĠEd":8105,"ioSerialPortClient":8106,"ĠMin":8107,"ĠMar":8108,"ĠMask":8109,"ĠPre":8110,"Ġdll":8111,"Ġwx":8112,"ĠwicketsTaken":8113,"ople":8114,"00200":8115,"speed":8116,"Ġly":8117,"Ġlmpl":8118,"streamingClassifier":8119,"book":8120,"ĠDele":8121,"ĠFact":8122,"ĠFUB":8123,"DECODER":8124,"DETACH":8125,"ILER":8126,"Vectors":8127,"force":8128,"ĠQR":8129,"ĠRad":8130,"ackground":8131,"ĠIll":8132,"ĠIgor":8133,"lide":8134,"lipper":8135,"Ġarguments":8136,"ĠrunsScored":8137,"ĠrunsGiven":8138,"ĠWall":8139,"ĠgetId":8140,"ĠHANDLE":8141,"Ġdelay":8142,"2017":8143,"ROS":8144,"ROID":8145,"found":8146,"ĠOUT":8147,"ICAL":8148,"Ġ!_":8149,"[](":8150,"python":8151,"phys":8152,"undam":8153,"ADCAST":8154,"faust":8155,"ĠsetEnabled":8156,"filePath":8157,"Sizef":8158,"EXTRACT":8159,"sumForward":8160,"PART":8161,"lowp":8162,"ĠPyOS":8163,"ToConditional":8164,"openssl":8165,"mbler":8166,"ĠState":8167,"ãĤĤãģ®":8168,"ĠCounter":8169,"ĠCocoa":8170,"Ġletter":8171,"Ġresults":8172,"Ġalbum":8173,"Points":8174,"assignment":8175,"URect":8176,"ĠmyAddon":8177,"SYM":8178,"WRITER":8179,"ordin":8180,"ANDROID":8181,"READNONE":8182,"Make":8183,"socket":8184,"Anim":8185,"CppObject":8186,"Ġsorted":8187,"avx":8188,"Numbers":8189,"ĠCOVID":8190,"ĠYY":8191,"IPT":8192,"Ġ...)":8193,"Checker":8194,"Ġseconds":8195,"Colors":8196,"ãģ®åĢ":8197,"ActionAb":8198,"Ġpointf":8199,"ĠUnsupported":8200,"versity":8201,"CAuto":8202,"Rectf":8203,"ĠTOSTRING":8204,"ĠFunctionCallExpression":8205,"LayoutContainer":8206,"Tracy":8207,"inois":8208,"ĠTestMain":8209,"ĠScene":8210,"FOMAP":8211,"GEMM":8212,"dency":8213,"Ġenter":8214,"Price":8215,"Ġsuccess":8216,"ColourRect":8217,"sorted":8218,"##_<":8219,"Ġextra":8220,"ĠReturnStatement":8221,"Ġoptions":8222,"Ġtypes":8223,"AllPlayers":8224,"0800200":8225,"bitrary":8226,"SVC":8227,"Ġcorrect":8228,"Realization":8229,"THREADS":8230,"auty":8231,"STATIC":8232,"\")))<":8233,"ĠFaust":8234,"Ġdecimal":8235,"ByteArray":8236,"ĠInterface":8237,"Ġfailed":8238,"vtkF":8239,"Ġarchitecture":8240,"Structure":8241,"epilogue":8242,"ĠQWDIALOGHEADERS":8243,"scalarmult":8244,"tags":8245,"partyid":8246,"Location":8247,"ImGui":8248,"è®¡":8249,"IntensityFilter":8250,"urity":8251,"ĠIoError":8252,"POSIX":8253,"Ġremoved":8254,"Registrar":8255,"Ġlegacy":8256,"LIMITED":8257,"ç§°":8258,"ivisor":8259,"ĠUniversity":8260,"ĠNonCopyable":8261,"ĠQuery":8262,"HELPER":8263,"TXT":8264,"ĠGEO":8265,"ĠGUIT":8266,"ĠHELIX":8267,"TEMPLATE":8268,"BROADCAST":8269,"åľ¨":8270,"lookup":8271,"ublisher":8272,"JUMP":8273,"ĠMAINWINDOW":8274,"23520":8275,"Pixmap":8276,"packageBuilder":8277,"Ġãģ§åī²":8278,"æ±ĤãĤģãĤĭ":8279,"Metal":8280,"Sustain":8281,"evaluator":8282,"åł´":8283,"éĵ¾":8284,"ĠIllinois":8285,"ĠCOVIDSIM":8286,"ãģ®åĢĭæķ°":8287,"ActionAbility":8288,"):<":8289,"+(":8290,"83":8291,"826":8292,">__":8293,"Blu":8294,"Bind":8295,"Cryp":8296,"Click":8297,"Cube":8298,"DSL":8299,"Flow":8300,"Fill":8301,"FREE":8302,"GI":8303,"HH":8304,"IZE":8305,"MAT":8306,"MYS":8307,"Ne":8308,"Next":8309,"Solo":8310,"SRC":8311,"Series":8312,"Sampler":8313,"Suffix":8314,"TUP":8315,"TASK":8316,"Values":8317,"VBox":8318,"WP":8319,"Wah":8320,"Wanted":8321,"\\\"":8322,"\\<":8323,"]))":8324,"bonn":8325,"dynamic":8326,"drive":8327,"eo":8328,"fam":8329,"gg":8330,"oard":8331,"pn":8332,"square":8333,"scope":8334,"schwarz":8335,"td":8336,"tex":8337,"tom":8338,"ves":8339,"ways":8340,"wicketsLost":8341,"yd":8342,"}}":8343,"¨æ³":8344,"½éĤ":8345,"å§":8346,"çº":8347,"è½":8348,"éĩ":8349,"Ġ();<":8350,"ĠREG":8351,"ģ°":8352,"store":8353,"erved":8354,"reason":8355,"intern":8356,"intEvent":8357,"Ġclock":8358,"amb":8359,"amt":8360,"cef":8361,"Ġmultip":8362,"riber":8363,"Ġnr":8364,"ctype":8365,"secs":8366,"antern":8367,"Ġtick":8368,"alary":8369,"Ġvia":8370,"Ġfprintf":8371,"ĠfDelta":8372,"pping":8373,"rap":8374,"Ġshm":8375,"Ġsingly":8376,"Ġpw":8377,"Ġplane":8378,"Ġrem":8379,"Ġrect":8380,"Ġaux":8381,"lov":8382,"rot":8383,"ateObject":8384,"etime":8385,"igl":8386,"ubble":8387,"union":8388,"mpts":8389,"usy":8390,"Ġour":8391,"Ġostream":8392,"EREN":8393,"ĠSk":8394,"ĠSec":8395,"ĠScore":8396,"ĠSchwarz":8397,"++,":8398,"++]":8399,"Ġgreater":8400,"ĠClock":8401,"ĠCustom":8402,"INode":8403,"ĠEOF":8404,"ĠMAR":8405,"Ġ22":8406,"Ġ29":8407,"Ġ200":8408,"ĠPav":8409,"ĠTask":8410,"ĠTARGET":8411,"Ġwrapper":8412,"ĠwicketsLost":8413,"Ġ{{":8414,"Instruction":8415,"ĠDark":8416,"ĠFilter":8417,"ĠLU":8418,"Ġelem":8419,"ĠImpl":8420,"lix":8421,"lied":8422,"Ġarmv":8423,"answer":8424,"101":8425,"omin":8426,"Ġgetchar":8427,"ĠHWND":8428,"ĠkDebug":8429,"ABS":8430,"nti":8431,"Protect":8432,"product":8433,"ardust":8434,"[]={":8435,"Ġbeing":8436,"ĠVM":8437,"llt":8438,"GLuint":8439,"phi":8440,"script":8441,"scriber":8442,"ãģ¯":8443,"Decode":8444,"CONST":8445,"ĠInternal":8446,"DataHandler":8447,"Scheme":8448,"Ġincluded":8449,"OLY":8450,"OLDER":8451,"Loaded":8452,"ĠStd":8453,"ĠStardust":8454,"MAKE":8455,"ĠCount":8456,"MenuBar":8457,"Reflection":8458,"linear":8459,"DUCT":8460,"Ġalpha":8461,"Ġalready":8462,"Ġwithout":8463,"Ġexport":8464,"switch":8465,"ovo":8466,"ĠZephyr":8467,"configuration":8468,"1305":8469,"peat":8470,"SERVICE":8471,"Ġatlas":8472,"ickness":8473,"ĠErrorCode":8474,"eeded":8475,"ĠIDX":8476,"Parameters":8477,"popcnt":8478,"ĠMOD":8479,"Sequence":8480,"trap":8481,"Commands":8482,"visitors":8483,"Ġtexture":8484,"brid":8485,"ãģ®ç":8486,"ĠFileCheck":8487,"PacketIds":8488,"okes":8489,"ĠtotalBallsBowled":8490,"ĠtotalRunsScored":8491,"protobuf":8492,"widgets":8493,"Runner":8494,"manual":8495,"Ġentry":8496,"ĠRenderer":8497,"ReadResult":8498,"wristb":8499,"ĠDirection":8500,"è¿Ķ":8501,"å¤į":8502,"Ġassignments":8503,"Callstack":8504,"ä»¶":8505,"Ġsupports":8506,"vidend":8507,"ĠAligned":8508,"CPU":8509,"ĠProgramming":8510,"totalBallsBowled":8511,"totalRunsScored":8512,"ĠHeap":8513,"åºı":8514,"Ġsimdjson":8515,"Ġrequired":8516,"Ġé¢ĺçĽ®æĿ":8517,"Ġé¢ĺçĽ®åĲį":8518,"Ġé¢ĺçĽ®éĵ¾":8519,"ĠSHAPE":8520,"Ġcalled":8521,"ScoreboardId":8522,"ĠNODE":8523,"MMatchRule":8524,"æĿ¨æ³":8525,"StaticMesh":8526,"Ġoriginal":8527,"crypt":8528,"æĸĩ":8529,"çĤīç":8530,"MESSAGES":8531,"è¾ĵåħ¥çļĦ":8532,"Ġaxis":8533,"ãĤĮãĤĭãĤĤãģ®":8534,"Ġä»£çłģ":8535,"è¡¨":8536,"FEATURE":8537,"æľĢå¤§":8538,"Avatar":8539,"wapChain":8540,"atalan":8541,"Turbo":8542,"è§£":8543,"ãĤĬåĪĩ":8544,"ĠStreamReadResult":8545,"ä½ľèĢħ":8546,"TIMER":8547,"éĹ®":8548,"andboxLayer":8549,"¥æºĲ":8550,"animateObject":8551,"ĠExecute":8552,"ReadOnlyBinaryStream":8553,"ĠMinecraftPacketIds":8554,"Details":8555,"MINGW":8556,"ĠFaustGenerated":8557,"TUPLE":8558,"½éĤ¦":8559,"ĠMARLIN":8560,"ĠPavlov":8561,"ĠkDebugSuffix":8562,"wristband":8563,"Ġé¢ĺçĽ®æĿ¥æºĲ":8564,"Ġé¢ĺçĽ®åĲįç§°":8565,"Ġé¢ĺçĽ®éĵ¾æİ¥":8566,"æĿ¨æ³½éĤ¦":8567,"çĤīçģ°":8568,"Ġä»£çłģä½ľèĢħ":8569,"ãĤĬåĪĩãĤĮãĤĭãĤĤãģ®":8570,".\");<":8571,"71":8572,"98":8573,"BAL":8574,"Bad":8575,"BAR":8576,"Biome":8577,"Battery":8578,"Cart":8579,"CUR":8580,"Crypto":8581,"Cloud":8582,"Circle":8583,"Drag":8584,"Distributed":8585,"Full":8586,"FOLDER":8587,"HOR":8588,"HINSTANCE":8589,"IOR":8590,"Long":8591,"MULTI":8592,"NM":8593,"Names":8594,"NATIVE":8595,"QTT":8596,"RON":8597,"Remo":8598,"Sur":8599,"Sel":8600,"Sky":8601,"Sheet":8602,"URES":8603,"VD":8604,"WSTR":8605,"Watcher":8606,"['":8607,"bat":8608,"bla":8609,"cut":8610,"cmake":8611,"dy":8612,"fe":8613,"fx":8614,"finite":8615,"gon":8616,"guid":8617,"grad":8618,"gmail":8619,"hud":8620,"hannel":8621,"ius":8622,"jun":8623,"mol":8624,"messages":8625,"na":8626,"po":8627,"rust":8628,"solution":8629,"samp":8630,"tchar":8631,"uy":8632,"uess":8633,"vow":8634,"xt":8635,"yload":8636,"{-":8637,"¡¹":8638,"¢æķ°":8639,"Ð¾":8640,"ÑĢ":8641,"è´":8642,"Ġ/**":8643,"Ġrom":8644,"Ġerr":8645,"Ġladder":8646,"Ĭ¶æ":8647,"rely":8648,"integ":8649,"Ġ\";":8650,"includes":8651,"Ġctx":8652,"Ġcarry":8653,"amma":8654,"ceiver":8655,"arse":8656,"ley":8657,"anic":8658,"alance":8659,"pawn":8660,"ionne":8661,"itude":8662,"raction":8663,"Ġscore":8664,"Ġpoly":8665,"Ġbl":8666,"Ġbound":8667,"Ġrepres":8668,"ssible":8669,"Ġaudio":8670,"laps":8671,"strlen":8672,"igid":8673,"Ġcopi":8674,"licated":8675,"ĠAsync":8676,"ĠAUTO":8677,"Ġ///":8678,"ĠSim":8679,"ĠSha":8680,"ĠStep":8681,"iser":8682,"ĠCos":8683,"ĠCatch":8684,"ĠCamera":8685,"ĠCheat":8686,"ĠCPU":8687,"ĠEL":8688,"translation":8689,"ĠĠĠĠĠĠĠĠĠĠĠĠĠĠĠĠĠĠĠĠĠĠĠ":8690,"verage":8691,"ĠMsg":8692,"ily":8693,"ĠTOK":8694,"Ġdon":8695,"Ġdir":8696,"Ġdue":8697,"Ġdiff":8698,"ENV":8699,"tegr":8700,"tems":8701,"Ġforward":8702,"320":8703,"ĠGLO":8704,"ĠNet":8705,"ĠNWindows":8706,"STATE":8707,"boot":8708,"ĠDionne":8709,"irror":8710,"DEFORM":8711,"Sta":8712,"Stamp":8713,"Ġhi":8714,"Ġhdata":8715,"ĠLou":8716,"ĠLoc":8717,"VectorXi":8718,"ĠQListWidget":8719,"ĉĉĠĠĠ":8720,"Ġstatus":8721,"ĠRL":8722,"ĠRand":8723,"ĠRot":8724,"Ġtodo":8725,"ĠtoFloat":8726,"1024":8727,"shader":8728,"Ġgetdelim":8729,"lmgl":8730,"ĠkNum":8731,"part":8732,"Theme":8733,"match":8734,"ROUP":8735,"ĠOr":8736,"TOOLS":8737,"ĠVisitor":8738,"TypeInfo":8739,"TypeTemplate":8740,"screen":8741,"ADAPT":8742,"bui":8743,"SChannel":8744,"ĠsetPosition":8745,"tok":8746,"hous":8747,"Ġnotice":8748,"active":8749,"ĠExclude":8750,"Ġ%=":8751,"ipe":8752,"Ġ},":8753,"PARSE":8754,"OfN":8755,"Ġpair":8756,"cbegin":8757,"Collision":8758,"after":8759,"Ġuno":8760,"Compress":8761,"Ġconcurrency":8762,"Unknown":8763,"SPR":8764,"Buy":8765,"ĠRETRODREAM":8766,"Ġdirection":8767,"Ġcontroller":8768,"interval":8769,"ĠZI":8770,"ccur":8771,"SODIUM":8772,"Specification":8773,"Head":8774,"Rendering":8775,"RenderNode":8776,"cyrand":8777,"BODY":8778,"998244353":8779,"ä¸Ń":8780,"CppType":8781,"HorizontalFormatting":8782,"HorizontalTextFormatting":8783,"Classes":8784,"ClassTemplate":8785,"psz":8786,"åĬł":8787,"Ġ)\"_":8788,"NTSTATUS":8789,"Ġmodules":8790,"Ġencode":8791,"Rectangle":8792,"Initialiser":8793,"packet":8794,"Arguments":8795,"FILES":8796,"contains":8797,"webpp":8798,"ComponentIterator":8799,"protocols":8800,"Attribute":8801,"Ġrunning":8802,"localization":8803,"ategory":8804,"fastio":8805,"ColourUDim":8806,"ColourURect":8807,"Note":8808,"question":8809,"ĠShape":8810,"VerticalFormatting":8811,"VerticalTextFormatting":8812,"PRESS":8813,"åŃ¦":8814,"ĠEYERPLAYER":8815,"vars":8816,"infrt":8817,"currentFrame":8818,"è¯ķ":8819,"Ġrarely":8820,"ç»Ħ":8821,"QWDialogSize":8822,"Disk":8823,"ĠAppDelegate":8824,"Ġdecrement":8825,"ĠProcessor":8826,"åºĶ":8827,"Ġhello":8828,"ComboBox":8829,"ĠInterrupt":8830,"è¾ĵåĩº":8831,"join":8832,"ĠPointer":8833,"ĠBinaryOperatorType":8834,"globals":8835,"Archetype":8836,"ĠMessageWindow":8837,"ursive":8838,"ieve":8839,"æŀĦ":8840,"GxIO":8841,"ĠANIME":8842,"Ġdoesn":8843,"++++++++":8844,"DRIVER":8845,"GameTypeMgr":8846,"columns":8847,"ĠSYSTEM":8848,"********************************************************************************<":8849,"Orientation":8850,"ColourUVector":8851,"ColourUBox":8852,"æłĩ":8853,"Ġimplemented":8854,"Distortion":8855,"ScopedHandle":8856,"RULE":8857,"thirdparty":8858,"SECURE":8859,"Selected":8860,"ĠMeshSyncClient":8861,"å¯¹è¯Ŀæ¡Ĩè¾ĵåħ¥çļĦ":8862,"REALSPACE":8863,"ĠDllMain":8864,"ä¿¡":8865,"CTBridgeDelegate":8866,"èİ·åıĸå¯¹è¯Ŀæ¡Ĩè¾ĵåħ¥çļĦ":8867,"ophus":8868,"Libui":8869,"ĠGUITARD":8870,"Ġãģ§åī²ãĤĬåĪĩãĤĮãĤĭãĤĤãģ®":8871,"åł´åĲĪ":8872,"Bindings":8873,"ĠSHAPEDEFORM":8874,"Remote":8875,"lapsible":8876,"ĠLouis":8877,":/":8878,"AX":8879,"BAT":8880,"Bot":8881,"Bond":8882,"Boost":8883,"CAT":8884,"Ctrl":8885,"Dump":8886,"Drop":8887,"Fragment":8888,"GWIN":8889,"GUID":8890,"HF":8891,"HW":8892,"Hand":8893,"IZ":8894,"JIT":8895,"Keeper":8896,"Metrics":8897,"Pol":8898,"Present":8899,"QImage":8900,"RPMP":8901,"RIGHT":8902,"SU":8903,"SCO":8904,"Single":8905,"TK":8906,"TOR":8907,"Tinylang":8908,"Utf":8909,"Wifi":8910,"Xclang":8911,"YLE":8912,"]%":8913,"^(":8914,"ae":8915,"can":8916,"ched":8917,"eauty":8918,"fb":8919,"fl":8920,"field":8921,"ident":8922,"iris":8923,"largest":8924,"nu":8925,"nall":8926,"olog":8927,"pAddress":8928,"sack":8929,"tet":8930,"xs":8931,"ze":8932,"°ĥ":8933,"¶Ī":8934,"¾ç":8935,"Ðµ":8936,"æĶ":8937,"æ¶Ī":8938,"è°ĥ":8939,"ĠãĤĴ":8940,"įæķ°":8941,"Ĺå¹³":8942,"ŀĭ":8943,"inv":8944,"inst":8945,"inplace":8946,"encpp":8947,"Ġcrc":8948,"Ġclean":8949,"Ġcell":8950,"Ġcpu":8951,"Ġcatalan":8952,"Ġmet":8953,"esphome":8954,"Ġir":8955,"defgroup":8956,"Ġvc":8957,"Ġfull":8958,"Ġfuzz":8959,"Ġsimpl":8960,"Ġsingleton":8961,"Ġpc":8962,"Ġpha":8963,"ĠpMatch":8964,"Ġbattle":8965,"Ġreach":8966,"helix":8967,"lain":8968,"--;":8969,"Ġ00":8970,"unlock":8971,"Ġcoins":8972,"mpeg":8973,"Ġomn":8974,"Ġogg":8975,"ĠAtt":8976,"ĠAbstract":8977,"izz":8978,"**)<":8979,"ĠSto":8980,"Ġgid":8981,"Ġgui":8982,"Ġgcc":8983,"ĠCOLS":8984,"ĠCmpt":8985,"ĠCloud":8986,"edNative":8987,"ĠMan":8988,"ilon":8989,"ĠPart":8990,"ĠPBYTE":8991,"Ġdisp":8992,"Ġwritten":8993,"-----":8994,"span":8995,"Ġofs":8996,"Inning":8997,"Ġlhs":8998,"LEQ":8999,"ĠNormal":9000,"RED":9001,"bow":9002,"bose":9003,"ĠDO":9004,"Ġjudge":9005,"ĠFC":9006,"ORM":9007,"setfill":9008,"ĠhWnd":9009,"ĉĉĉĉĉ":9010,"Ġstep":9011,"ĠRx":9012,"ĠBE":9013,"ĠBackground":9014,"Ġtok":9015,"ynomial":9016,"ĠURL":9017,"ĠUFOMAP":9018,"ANY":9019,"eml":9020,"emit":9021,"person":9022,"odd":9023,"Example":9024,"compressed":9025,"ĠWITH":9026,"MOV":9027,"Ġdesc":9028,"ROLL":9029,"proc":9030,"provider":9031,"progress":9032,"Strings":9033,"annot":9034,"enseal":9035,"lld":9036,"Ġproto":9037,"IDAR":9038,"ĠmaxC":9039,"udc":9040,"udy":9041,"FAST":9042,"ãģ¦":9043,"BaseQuest":9044,"SCL":9045,"SCREEN":9046,"Ġsef":9047,"Ġthreshold":9048,"Objective":9049,"LOOP":9050,"CHud":9051,"direction":9052,"ĠException":9053,"AMX":9054,"AMER":9055,"Rep":9056,"CONDA":9057,"compact":9058,"PORTCLIENT":9059,"ĠJob":9060,"ftStrategy":9061,"ToExpression":9062,"ToInt":9063,"Ġstrong":9064,"FunctionInfo":9065,"FunctionCallExpression":9066,"ERATE":9067,"Ġfooz":9068,"Ġconsole":9069,"worker":9070,"Shutdown":9071,"Reserved":9072,"DOM":9073,"Ġ2017":9074,"ASY":9075,"WRITE":9076,"Timeout":9077,"Interpol":9078,"ocused":9079,"GameObject":9080,"ĠIDB":9081,"ä¸¤":9082,"MEMORY":9083,"Ġtimeout":9084,"Ġtimeval":9085,"ORDER":9086,"Visual":9087,"REFEREN":9088,"available":9089,"ParamValueList":9090,"ĠCOMM":9091,"æķ°æį®":9092,"ActionBuy":9093,"fcn":9094,"Ġpointer":9095,"nodes":9096,"Ġenc":9097,"MBitmap":9098,"Libgraphics":9099,"Formatter":9100,"langdata":9101,"generate":9102,"continue":9103,"Ġpermute":9104,"curl":9105,"dlfcn":9106,"oken":9107,"Training":9108,"True":9109,"Trans":9110,"096":9111,"GEO":9112,"åħ¶":9113,"ĠONNX":9114,"ĠéħįåĪĹ":9115,"Ġé¡¹":9116,"serialization":9117,"PRINT":9118,"Results":9119,"ĠLIBPS":9120,"CRC":9121,"ĠIMPORTING":9122,"ĠReset":9123,"LOCALE":9124,"ĠSearch":9125,"currencpp":9126,"video":9127,"Radius":9128,"));}<":9129,"æľº":9130,"Ġinterval":9131,"mutator":9132,"ĠARPMP":9133,"ĠSEETA":9134,"ĠSECONDA":9135,"})\"_":9136,"ĠTRACY":9137,"sdk":9138,"Ġrelated":9139,"Ġnormalf":9140,"FastMutex":9141,"========================================":9142,"========================================================================":9143,"FirstInning":9144,"ĠGlobalMap":9145,"Calcul":9146,"filters":9147,"æŀĹå¹³":9148,"GRAPHICLIB":9149,"TRAITS":9150,"åįģ":9151,"SERIALPORTCLIENT":9152,"ĠsampleRate":9153,"ĠMMatchRule":9154,"DXSDKVER":9155,"\"({\"":9156,"Ġmlir":9157,"backends":9158,"aisy":9159,"ç´ł":9160,"Iterations":9161,"OFFSET":9162,"ĠbenchmarkQuery":9163,"PASSWORD":9164,"CYGWIN":9165,"CvtImpl":9166,"ReturnStatement":9167,"\"][\"":9168,"QPainter":9169,"ĠORB":9170,"ALIZATION":9171,"utolinkedNative":9172,"GICP":9173,"CUSTOM":9174,"Ġmerge":9175,"BSDF":9176,"æĽ´":9177,"------===//<":9178,"ĠFactorial":9179,"ĠFUBeauty":9180,"CAutoLock":9181,"ĠGEOGRAPHICLIB":9182,"ydro":9183,"å§ĭ":9184,"internals":9185,"æĸĩä»¶":9186,"éĹ®é¢ĺ":9187,"uyang":9188,"TinylangVersion":9189,"Ġé¡¹æŀĹå¹³":9190,"FirstInnings":9191,"(/*":9192,")-":9193,"*=":9194,"200009":9195,"386":9196,"<(":9197,">/":9198,"AUDIO":9199,"Affine":9200,"BAB":9201,"Break":9202,"BZip":9203,"Crc":9204,"Cross":9205,"Dsrc":9206,"Dpi":9207,"Efc":9208,"Fundam":9209,"GA":9210,"HMODULE":9211,"History":9212,"Hydro":9213,"KS":9214,"LAS":9215,"Me":9216,"Mid":9217,"Mag":9218,"Mele":9219,"Metadata":9220,"PA":9221,"Patch":9222,"QMainWindow":9223,"SWI":9224,"Supported":9225,"Warning":9226,"]+=":9227,"aLib":9228,"bab":9229,"baz":9230,"cgi":9231,"dist":9232,"duration":9233,"equal":9234,"final":9235,"flush":9236,"features":9237,"guest":9238,"hh":9239,"her":9240,"lers":9241,"mg":9242,"pthread":9243,"png":9244,"poly":9245,"send":9246,"soft":9247,"sdl":9248,"tic":9249,"tist":9250,"ttp":9251,"tbl":9252,"ulo":9253,"ually":9254,"uuid":9255,"wind":9256,"zAlloc":9257,"æ¨":9258,"æ»":9259,"ç¾":9260,"Ġ()<":9261,"ħĭ":9262,"īåŃĹ":9263,"delta":9264,"ended":9265,"repp":9266,"ression":9267,"required":9268,"intrin":9269,"intrinsic":9270,"Ġcam":9271,"Ġclicked":9272,"Ġcriter":9273,"ams":9274,"ceive":9275,"Ġmeg":9276,"Ġmark":9277,"Ġmutex":9278,"Ġmks":9279,"Ġmissing":9280,"Ġio":9281,"Ġnet":9282,"Ġtake":9283,"Ġteam":9284,"ifest":9285,"Ġ*****":9286,"Ġft":9287,"ineFunctionInfo":9288,"Ġssize":9289,"ural":9290,"Ġps":9291,"Ġpragma":9292,"ĠpGroup":9293,"ĠpCallstack":9294,"Ġbasis":9295,"Ġboard":9296,"Ġred":9297,"Ġrelease":9298,"Ġreinterpret":9299,"Ġaarch":9300,"lacian":9301,"unity":9302,"unication":9303,"Ġcomm":9304,"Ġ180":9305,"macos":9306,"Ġopr":9307,"Ġothers":9308,"exist":9309,"Ġ(_":9310,"ĠAt":9311,">//===":9312,"Ġmask":9313,"Ġ//!":9314,"Ġgray":9315,"ĠCar":9316,"ĠContext":9317,"ĠCurrent":9318,"INS":9319,"ĠEVENT":9320,"ĠENABLE":9321,"ĠMore":9322,"ĠMRECT":9323,"ĠMDrawContext":9324,"ĠMKS":9325,"ilti":9326,"ĠPO":9327,"ĠPOW":9328,"ĠTe":9329,"imbot":9330,"Ġdd":9331,"Ġdtype":9332,"Ġwin":9333,"ENE":9334,"ALLO":9335,"Insert":9336,"Ġlb":9337,"Cost":9338,"ĠGET":9339,"ĠGUI":9340,"ĠNative":9341,"ĠNapi":9342,"ĠNArchive":9343,"STDAFX":9344,"RECTION":9345,"ading":9346,"Ġchunk":9347,"ĠDown":9348,"ATT":9349,"PLIT":9350,"asics":9351,"atable":9352,"efsw":9353,"anding":9354,"andmarker":9355,"otion":9356,"ĠFB":9357,"ĠFUR":9358,"ĠFUD":9359,"ĠLEN":9360,"ĠQImage":9361,"gets":9362,"ĠBasic":9363,"ĠIS":9364,"ACCESS":9365,"uality":9366,"Ġruntime":9367,"ĠWORD":9368,"ĠWait":9369,"Ġkth":9370,"ensure":9371,"Ġdependent":9372,"Proto":9373,"sertion":9374,"ĠOF":9375,"IContext":9376,"ICODE":9377,"TypeID":9378,"quat":9379,"ureku":9380,"ĠmaxDepth":9381,"ights":9382,"ĠsetFont":9383,"ival":9384,"Ġthunk":9385,"LOOK":9386,"dices":9387,"EventSet":9388,"Ġnothing":9389,"logging":9390,"Ġ},<":9391,"Conn":9392,"Converter":9393,"DataType":9394,"Zeroes":9395,"ĠJson":9396,"DLT":9397,"TestData":9398,"mbly":9399,"Chat":9400,"OBJ":9401,"ĠGLCORE":9402,"Forces":9403,"Components":9404,"FileReader":9405,"Refureku":9406,"Unlock":9407,"mean":9408,"Ġalignment":9409,"SPI":9410,"Resolution":9411,"DOT":9412,"ENTT":9413,"SOLE":9414,"SOCKET":9415,"DATE":9416,"=\"\";<":9417,"PROM":9418,"Ġpartition":9419,"BOX":9420,"ä¸²":9421,"Ġzpl":9422,"CheckButton":9423,"CommandList":9424,"Quad":9425,"Opt":9426,"Alignment":9427,"Generate":9428,"Bytes":9429,"Devices":9430,"MLIR":9431,"EditTime":9432,"ĠChar":9433,"USING":9434,"lite":9435,"Ġsuch":9436,"ĠReal":9437,"ichor":9438,"5555":9439,"Notification":9440,"Ġimporter":9441,"pairs":9442,"signature":9443,"ĠLogicOperatorType":9444,"HelperDefines":9445,"COMPILER":9446,"Ġ{});<":9447,"VerticalScrollBar":9448,"åŃĺ":9449,"JsonDocument":9450,"Ġconfigure":9451,"ĠSeesaw":9452,"ToolTip":9453,"Sorted":9454,"Ġevents":9455,"QWheelEvent":9456,"INDS":9457,"Particle":9458,"factorial":9459,"Ġuserdata":9460,"QRCode":9461,"LastEditTime":9462,"ĠSHARE":9463,"half":9464,"eedback":9465,"FastSIMD":9466,"executor":9467,"AccessPtr":9468,"MISC":9469,"laplacian":9470,"ĠReflection":9471,"å¤§åŃ¦":9472,"æĸ¹":9473,"LocalValue":9474,"Locale":9475,"Broadcaster":9476,"UniqueID":9477,"ä¸Ĭæľº":9478,"Ġaxes":9479,"Origin":9480,"spritesheet":9481,"Registration":9482,"è¡Į":9483,"Member":9484,"oxel":9485,"relational":9486,"PointXYZI":9487,"Ġmirai":9488,"Ġplaced":9489,"ĠmaxProfit":9490,"å°ı":9491,"DarkForces":9492,"åĮĸ":9493,"Ġulong":9494,"Dependency":9495,"epsilon":9496,"Timestamp":9497,"DETECTOR":9498,"ĠCHudElemBase":9499,"FEXCore":9500,"45678":9501,"ĠASN":9502,"ĠHello":9503,"Ġallowed":9504,"ĠOUTPUT":9505,"physical":9506,"8266":9507,"å¤įè¯ķ":9508,"Ĭ¶æħĭ":9509,"tegration":9510,"ĠGLOBAL":9511,"ĠLocal":9512,"ä¿¡æģ¯":9513,"Ġmetatable":9514,"Ġfuzzer":9515,"EfcDsrc":9516,"Melee":9517,"reppingD":9518,"ĠFUDemo":9519,"å¤§åŃ¦å¤įè¯ķ":9520,"ä¸Ĭæľºé¢ĺ":9521,"å¤§åŃ¦å¤įè¯ķä¸Ĭæľºé¢ĺ":9522,"*\\":9523,",(":9524,"41":9525,">:":9526,"Ac":9527,"AUTO":9528,"BT":9529,"CLOCK":9530,"DT":9531,"Div":9532,"Dbg":9533,"Ent":9534,"Fn":9535,"Filename":9536,"Fixed":9537,"GM":9538,"GP":9539,"Go":9540,"Github":9541,"II":9542,"IReactPackageProvider":9543,"JS":9544,"JMP":9545,"LR":9546,"LACK":9547,"Mo":9548,"Metric":9549,"MALLOC":9550,"Na":9551,"Nan":9552,"OOG":9553,"Pressed":9554,"Plug":9555,"Publisher":9556,"Rs":9557,"REND":9558,"RGB":9559,"Remove":9560,"Saver":9561,"Tun":9562,"TBody":9563,"UV":9564,"UFF":9565,"Variables":9566,"WT":9567,"You":9568,"_)":9569,"blue":9570,"basics":9571,"candies":9572,"dig":9573,"gre":9574,"jit":9575,"jmp":9576,"jout":9577,"ka":9578,"kit":9579,"ltra":9580,"milliseconds":9581,"nm":9582,"npos":9583,"oom":9584,"post":9585,"pParent":9586,"pwn":9587,"rf":9588,"rg":9589,"rm":9590,"rx":9591,"save":9592,"tte":9593,"tenseal":9594,"uu":9595,"ues":9596,"wy":9597,"wait":9598,"{}":9599,"±çłģ":9600,"Ð»":9601,"å·":9602,"æ¯":9603,"æĹ":9604,"æĺ":9605,"éģ":9606,"Ġè":9607,"Ġut":9608,"Ġerase":9609,"Ġquestion":9610,"Ġensure":9611,"ī¹":9612,"ĴĮ":9613,"Ŀå§ĭ":9614,"dependent":9615,"stride":9616,"standing":9617,"attr":9618,"erl":9619,"eros":9620,"erarch":9621,"react":9622,"Ġ\"%":9623,"Ġcandies":9624,"Ġmov":9625,"ending":9626,"arma":9627,"Ġnat":9628,"coins":9629,"Ġtms":9630,"Ġtitle":9631,"algorithms":9632,"idInit":9633,"Ġ*_":9634,"Ġvl":9635,"Ġvs":9636,"Ġvtk":9637,"Ġfx":9638,"Ġface":9639,"itr":9640,"raint":9641,"Ġsat":9642,"Ġsense":9643,"Ġspd":9644,"Ġsoft":9645,"Ġsleep":9646,"Ġspeed":9647,"Ġpool":9648,"ĠpMouse":9649,"ĠpMenuSeparator":9650,"Ġbet":9651,"Ġbusy":9652,"Ġai":9653,"Ġabout":9654,"Ġ08":9655,"eto":9656,"etype":9657,"Ġcocoa":9658,"usc":9659,"usage":9660,"Ġowner":9661,"ume":9662,"Ġmapped":9663,"Ġ//<":9664,"ĠSm":9665,"ĠSort":9666,"ĠSty":9667,"isk":9668,"oll":9669,"++);<":9670,"ĠisPrime":9671,"ĠCRC":9672,"ypes":9673,"edge":9674,"ĠEmpty":9675,"transfer":9676,"chach":9677,"iomes":9678,"ĠMX":9679,"ĠMQTT":9680,"ĠPower":9681,"ĠTYPE":9682,"ĠToken":9683,"ims":9684,"Ġdb":9685,"Ġdup":9686,"Ġwon":9687,"Ġwuyang":9688,"Ġinv":9689,"ationMode":9690,"Ġlarg":9691,"Ġlines":9692,"onth":9693,"ĠGAME":9694,"ĠGUID":9695,"ĠGadget":9696,"ĠNone":9697,"ĠNGEN":9698,"ARDUINO":9699,"PLSChannel":9700,"asource":9701,"asci":9702,"ĠFR":9703,"ĠFString":9704,"ĠFrom":9705,"setText":9706,"ĠhModule":9707,"ĠQStyle":9708,"Ġstop":9709,"Ġxs":9710,"ĠBar":9711,"ĠBLE":9712,"ĠBML":9713,"ĠBiomes":9714,"ograph":9715,"ANGE":9716,"perm":9717,"Ġ')":9718,"FIELD":9719,"thin":9720,"Extra":9721,"105":9722,"109":9723,"shm":9724,"Ġrl":9725,"Ġrst":9726,"Ġrgb":9727,"components":9728,"lmlib":9729,"ĠHRESULT":9730,"ABOUT":9731,"Ġdeg":9732,"Ġdetect":9733,"Ġdeserialize":9734,"Ġdeprecated":9735,"2019":9736,"Properties":9737,"seract":9738,"served":9739,"prog":9740,"prop":9741,"program":9742,"ĠOver":9743,"TObj":9744,"BUF":9745,"ddk":9746,"library":9747,"GLFilter":9748,"fft":9749,"Ġprovide":9750,"quot":9751,"126":9752,"IDR":9753,"Ġmaterial":9754,"ãģĮ":9755,"ãģĵ":9756,"SCANN":9757,"Ġsever":9758,"ĠXMP":9759,"Ġthird":9760,"Streamer":9761,"CLIP":9762,"00000":9763,"lyrics":9764,"comment":9765,"Connect":9766,"Convert":9767,"Conversion":9768,"Constructor":9769,"Ġ77":9770,"UECS":9771,"Ġpast":9772,"Ġpause":9773,"openVertical":9774,")))<":9775,"ĠProtocol":9776,"ĠGetView":9777,"Ġunknown":9778,"ĠExpressionList":9779,"ĠGLFilter":9780,"ERATOR":9781,"pluginx":9782,"Ġ96":9783,"Ġanker":9784,"ENERATE":9785,"Setup":9786,"Ġalpaca":9787,"ĠfirstName":9788,"Idle":9789,"appender":9790,"Ġvecf":9791,"Framework":9792,"NULLPTR":9793,"posix":9794,"PROC":9795,"sock":9796,"Threshold":9797,"GameDraw":9798,"RenderWindow":9799,"])%":9800,"ĠImVec":9801,"ĠIDC":9802,"Parse":9803,"Parallel":9804,"HorizontalScrollBar":9805,"exceptions":9806,"results":9807,"Dialect":9808,"PCWSTR":9809,"Utilities":9810,"DISABLED":9811,"Factorial":9812,"PERTY":9813,"alette":9814,"VIRON":9815,"Album":9816,"Subject":9817,"SubArray":9818,"ĠAdding":9819,"ĠWINVER":9820,"ankerl":9821,"fsArchive":9822,"Ġperform":9823,"wei":9824,"okie":9825,"Ġrunner":9826,"APPER":9827,"dens":9828,"ĠlastName":9829,"xxxx":9830,"Notice":9831,"POWER":9832,"elling":9833,"Ġãģ¨":9834,"ĠShader":9835,"ĠForces":9836,"Ġbased":9837,"Serialization":9838,"å¤ī":9839,"ĠFUAvatar":9840,"axes":9841,"Ġamx":9842,"ĠGameState":9843,"fixture":9844,"ä»ĸ":9845,"bitset":9846,"Tools":9847,"StackView":9848,"Ġsignature":9849,"----------------------------------------------------------------------===//<":9850,"Ġloss":9851,"Activity":9852,"Ġshows":9853,"Ġbinding":9854,"METHODIMP":9855,"PARAMETERS":9856,"NEED":9857,"Tracking":9858,"ĠParse":9859,"ĠParent":9860,"ĠĠĠĠĠĠĠĠĠĠĠĠĠĠĠĠĠĠĠĠĠĠĠĠĠĠĠĠĠĠĠĠĠĠ":9861,"generators":9862,"æ±īåŃĹ":9863,"WARNING":9864,"Seconds":9865,"dcn":9866,"ursor":9867,"squares":9868,"ĠMenuButton":9869,"Ġactive":9870,"Ġvalidate":9871,"ĠGenerator":9872,"assembler":9873,"ĠIRBAB":9874,"CRYPTOPP":9875,"FEATURES":9876,"ä¹±çłģ":9877,"origin":9878,"original":9879,"slam":9880,"ĠSuper":9881,"ĠFASTSIMD":9882,"Boundary":9883,"auss":9884,"ĠLayout":9885,"åĢ¤ãĤĴ":9886,"ehicle":9887,"Ġmonitor":9888,"EyerPlayerEvent":9889,"Ġdenomin":9890,"KERNEL":9891,"cessedSize":9892,"Ġconditions":9893,"éķľ":9894,"Stats":9895,"vertexShader":9896,"MachineFunctionInfo":9897,"Ġlimit":9898,"ĠDXGI":9899,"synthizer":9900,"Ð½Ð¸":9901,"PARTITION":9902,"è½¬":9903,"ambda":9904,"ãģ®çĬ¶æħĭ":9905,"vowel":9906,"integral":9907,"Stairs":9908,"Ġphake":9909,"ĠAttribute":9910,"ĠCOMMON":9911,"æ¨¡":9912,"unicationManager":9913,">//===----------------------------------------------------------------------===//<":9914,"ATTACK":9915,"Ġthunklibs":9916,"oxelEngine":9917,"OOGLE":9918,"joutstanding":9919,"wyjoutstanding":9920,"Ġspdlog":9921,"chacha":9922,"Ġwuyangjun":9923,"ascii":9924,"openVerticalBox":9925,"Ġankerl":9926,"VIRONMENT":9927,"&&)":9928,"']":9929,")};<":9930,"*>&":9931,",...":9932,"-=":9933,"07":9934,"199":9935,"280":9936,"800":9937,"91":9938,":\"<<":9939,"BF":9940,"BKern":9941,"Cap":9942,"CAC":9943,"CCE":9944,"CMP":9945,"Clean":9946,"Cheat":9947,"Cursor":9948,"Empty":9949,"Every":9950,"Fx":9951,"FACTOR":9952,"Gamal":9953,"Guess":9954,"HI":9955,"Hund":9956,"HAV":9957,"Hardware":9958,"IES":9959,"IOS":9960,"IReactPackage":9961,"JOY":9962,"KFLOW":9963,"KINDS":9964,"LP":9965,"LV":9966,"LKFLOW":9967,"Mi":9968,"Mes":9969,"May":9970,"NA":9971,"Neg":9972,"NPC":9973,"NLL":9974,"Ota":9975,"Patcher":9976,"Prefix":9977,"QPoint":9978,"QFrame":9979,"QTextCodec":9980,"QJsonObject":9981,"Rigid":9982,"SA":9983,"Sink":9984,"SAMPLE":9985,"Tiles":9986,"UAL":9987,"UString":9988,"UCLASS":9989,"XPtr":9990,"ZRULE":9991,"]^":9992,"]\")<":9993,"`<":9994,"br":9995,"bet":9996,"big":9997,"beta":9998,"cmd":9999,"center":10000,"casbin":10001,"cube":10002,"cloud":10003,"day":10004,"dtor":10005,"fw":10006,"fec":10007,"filer":10008,"fragment":10009,"gd":10010,"greg":10011,"glad":10012,"ike":10013,"jk":10014,"lGamal":10015,"oreg":10016,"qt":10017,"qStatement":10018,"ranges":10019,"sq":10020,"sr":10021,"some":10022,"sapien":10023,"salary":10024,"vvi":10025,"vision":10026,"yes":10027,"¤º":10028,"³æ±īåŃĹ":10029,"âĢ":10030,"åŀĭ":10031,"åĴĮ":10032,"çĲ":10033,"Ġri":10034,"Ġess":10035,"Ġ-----":10036,"īéĶ®":10037,"įåºĶ":10038,"storage":10039,"onus":10040,"atio":10041,"lucian":10042,"Ġ<<<":10043,"utorial":10044,"Ġcand":10045,"Ġcircle":10046,"Ġimpl":10047,"Ġigl":10048,"letion":10049,"()),":10050,"()));<":10051,"Ġntp":10052,"Ġneeded":10053,"sef":10054,"seal":10055,"sequence":10056,"Ġts":10057,"painter":10058,"ift":10059,"Ġvv":10060,"Ġvgui":10061,"Ġvariant":10062,"Ġvertex":10063,"Ġsodium":10064,"Ġph":10065,"Ġplay":10066,"Ġpnd":10067,"ĠpPopupMenu":10068,"Ġauthor":10069,"hehe":10070,"hether":10071,"loss":10072,"ateConditionalWrapper":10073,"uniform":10074,"ented":10075,"magery":10076,"Ġ(((":10077,"ĠAD":10078,"ĠAX":10079,"ĠSS":10080,"ĠSlic":10081,"ĠSingle":10082,"oler":10083,"Ġgrid":10084,"ĠCR":10085,"ĠCAN":10086,"ĠCCL":10087,"ĠCallback":10088,"ĠCopy":10089,"INC":10090,"ypoint":10091,"cklink":10092,"__))<":10093,"ĠMatcher":10094,"iling":10095,"ĠPm":10096,"ĠPush":10097,"ĠPatch":10098,"ĠTAG":10099,"imizer":10100,"imeline":10101,"Ġdy":10102,"Ġdate":10103,"Ġdigits":10104,"Ġwrong":10105,"Ġwhether":10106,"ENCODER":10107,"argument":10108,"opExpression":10109,"spi":10110,"sparse":10111,"Infer":10112,"InRegister":10113,"Inverter":10114,"Ġldl":10115,"Ġlongest":10116,"LET":10117,"boy":10118,"body":10119,"egrees":10120,"Ġchr":10121,"Ġchild":10122,"ĠDelta":10123,"ĠDiscrete":10124,"irplay":10125,"PLUS":10126,"asi":10127,"asy":10128,"ĠFree":10129,"ĠFALSE":10130,"Ġham":10131,"IMG":10132,"ILTER":10133,"ĠQSpinBox":10134,"ĠRB":10135,"ĠRen":10136,"ĠRect":10137,"ĠRNE":10138,"ĠRestore":10139,"ĠRemove":10140,"Ġelapsed":10141,"getParent":10142,"ĠIchor":10143,"ĠImagery":10144,"Ġtos":10145,"lia":10146,"live":10147,"agram":10148,"aglia":10149,"ITC":10150,"ITOR":10151,"ansion":10152,"thunk":10153,"angles":10154,"shot":10155,"Ġrcl":10156,"oms":10157,"ometric":10158,"METER":10159,"ĠWAF":10160,"SEMA":10161,"ĠHigh":10162,"Ġkee":10163,"CTSTR":10164,"QUrl":10165,"QUENTT":10166,"ensy":10167,"ntl":10168,"Protocol":10169,"serve":10170,"EXASS":10171,"EXEC":10172,"foc":10173,"priority":10174,"EDI":10175,"TOPT":10176,"tain":10177,"ĠVidInit":10178,"TypeObject":10179,"Encryp":10180,"COP":10181,"WidgetLook":10182,"UNSPE":10183,"UNNABLE":10184,"UNICODE":10185,"127":10186,"matrixFunction":10187,"DIRECTION":10188,"MODEL":10189,"Ġregs":10190,"Ġregard":10191,"ApplicationDelegate":10192,"lemented":10193,"ĠsetLength":10194,"ĠsetSelected":10195,"touch":10196,"Ġsepar":10197,"Ġseesaw":10198,"ively":10199,"Ġthese":10200,"LOQUENTT":10201,"CHOR":10202,"dividend":10203,"EventHandler":10204,"abb":10205,"actPackage":10206,"ĠĠĠĠĠĠĠĠĠĠĠĠĠĠĠĠĠĠĠĠĠĠĠĠĠĠĠĠ":10207,"note":10208,"enderKit":10209,"Ġclasses":10210,"Conv":10211,"area":10212,"pdims":10213,"maxIndex":10214,"ToM":10215,"ĠProto":10216,"FunctionStorage":10217,"Ġunk":10218,"ĠGLuint":10219,"enumber":10220,"mooth":10221,"pendencies":10222,"ãĤī":10223,"Defined":10224,"AVCONFIG":10225,"GetName":10226,"Uni":10227,"ixer":10228,"expfn":10229,"TRUE":10230,"PointNormal":10231,"MPC":10232,"StatementWrapper":10233,"Ġexpfn":10234,"OPR":10235,"WRAPPER":10236,"initObject":10237,"Ġsubtype":10238,"ItemList":10239,"OTA":10240,"SOFT":10241,"LogLevel":10242,"showAllPlayers":10243,"Ġsynthizer":10244,"ashboard":10245,"FFVERSION":10246,"READER":10247,"PRODUCT":10248,"ĠåĪ":10249,"Ġåĭ":10250,"Mapper":10251,"Ġparty":10252,"ACTIONS":10253,"Three":10254,"oci":10255,"document":10256,"RenderTarget":10257,"ningOfCamera":10258,"CppArray":10259,"CppReflection":10260,"Ġkeys":10261,"Apply":10262,"Ġrandombytes":10263,"GRL":10264,"Ġweird":10265,"triangle":10266,"CommonScrollBar":10267,"Edge":10268,"gameboy":10269,"Semaphore":10270,"ĠSystemMenu":10271,"CommandLine":10272,"resizeEvent":10273,"HEAD":10274,"NTL":10275,"LLVM":10276,"coslucian":10277,"directory":10278,"objects":10279,"Spelling":10280,"Ġusbg":10281,"PyObject":10282,"PyTypeObject":10283,"ĠOnUpdate":10284,"Argument":10285,"jpeg":10286,"contract":10287,"weets":10288,"ComponentVector":10289,"Matcher":10290,"ĠStruct":10291,"clean":10292,"ConstExpression":10293,"FILERE":10294,"ĠChannel":10295,"ĠtwoSum":10296,"Delete":10297,"MaxIterations":10298,"ĠReactPackage":10299,"linker":10300,"ĠConsole":10301,"numbers":10302,"NotImp":10303,"hashmap":10304,"vertical":10305,"Ġequival":10306,"ĠStringMap":10307,"POINTER":10308,"Ġãģ«":10309,"ĠãģĮ":10310,"ĠDefines":10311,"ĠSpriteAnimation":10312,"ĠComplex":10313,"ĠThat":10314,"Ġnonce":10315,"ĠsingleNumber":10316,"circle":10317,"calib":10318,"Declaration":10319,"åĢįæķ°":10320,"Absolute":10321,"daCodeGraph":10322,"PackageTest":10323,"ĠIPCOP":10324,"nostics":10325,"TableView":10326,"Ġmemset":10327,"Ġfollowing":10328,"Domain":10329,"BinaryOperatorType":10330,"ĠstreamingClassifier":10331,"NvInfer":10332,"instancetype":10333,"multi":10334,"initialized":10335,"items":10336,"AttackRange":10337,"AttackMelee":10338,"Recy":10339,"Temperature":10340,"INYML":10341,"ĠPLSL":10342,"ĠToString":10343,"Activate":10344,"Disable":10345,"mutations":10346,"ĠremoveDuplicates":10347,"ĠFailed":10348,"EXTENDED":10349,"isfy":10350,"isfinite":10351,"CurrentFrame":10352,"Ġ\")\"":10353,"Ġarmstrong":10354,"ĠParser":10355,"Ġpossible":10356,"GraphicsView":10357,"Detector":10358,"TOKENKINDS":10359,"RadioButton":10360,"çĶ¨æĪ":10361,"RADE":10362,"ĠSymbols":10363,"Pairs":10364,"BEHAV":10365,"SUBCASE":10366,"CppGenericClass":10367,"CppGenericMethod":10368,"Execute":10369,"FORMATTER":10370,"Selector":10371,"ĠDeclaration":10372,"JobHandle":10373,"åĨ³æ±īåŃĹ":10374,"AboutDialog":10375,"ciano":10376,"WDF":10377,"ĠSpotify":10378,"SERIALFORMATTER":10379,"IMPLEMENTATION":10380,"iltinType":10381,"destroy":10382,"alkable":10383,"lotta":10384,"12345678":10385,"æį¢":10386,"TinyEngine":10387,"USBStackView":10388,"freopen":10389,"freetype":10390,"ĠTipsMenu":10391,"ĠLua":10392,"ĠLuciano":10393,"ĠOBS":10394,"marcoslucian":10395,"ĠlayerIdx":10396,"LinkedList":10397,"ComboButtonItem":10398,"amedArea":10399,"ĠAdafruit":10400,"FaceInfo":10401,"seqExpression":10402,"ĠFastMutex":10403,"EventsMonitor":10404,"DOWNLOADER":10405,"record":10406,"GUARD":10407,"åĵįåºĶ":10408,"Interpreter":10409,"ĠSTATUS":10410,"FusionCamSensor":10411,"Relative":10412,"VARIABLE":10413,"CriticalSection":10414,"SQLite":10415,"SCRIPT":10416,"Includes":10417,"ICKER":10418,"SPECIALFUNCTIONS":10419,"Fixture":10420,"kgColor":10421,"ALIGNED":10422,"COUNTER":10423,"Polygon":10424,"ĠScopedGuard":10425,"ĠMarcos":10426,"MetalKit":10427,"MYSQL":10428,"è§£åĨ³æ±īåŃĹ":10429,"NoteKey":10430,"SCOPE":10431,"TORCH":10432,"nuovo":10433,"æ¶Īæģ¯":10434,"è°ĥçĶ¨":10435,"Ġirq":10436,"Ġsimply":10437,"AMERA":10438,"InterpolationMode":10439,"åħ¶ä»ĸ":10440,"DpiHelper":10441,"Ġcriterion":10442,"ĠTeensy":10443,"ĠFURenderKit":10444,"reppingDlg":10445,"LACKS":10446,"erarchy":10447,"Ġsatisfy":10448,"ographic":10449,"SCANNER":10450,"ĠIRBABY":10451,"CACHE":10452,"FACTORY":10453,"IReactPackageBuilder":10454,"MesBox":10455,"NLLLoss":10456,"fragmentShader":10457,"oreground":10458,"Ġpndtri":10459,"ĠCCLCC":10460,"Ġldlt":10461,"thunkgen":10462,"Ġkeepdims":10463,"EXASSOLVER":10464,"UNSPELL":10465,"LOQUENTTINYML":10466,"FILEREADER":10467,"ĠReactPackageProvider":10468,"NotImplemented":10469,"Ġequivalent":10470,"çĶ¨æĪ·":10471,"BEHAVIOR":10472,"marcoslucianops":10473,"è§£åĨ³æ±īåŃĹä¹±çłģ":10474,"åħ¶ä»ĸè¿ĽåĪ¶":10475,"!\\":10476,"!\");<":10477,"'};<":10478,"(:":10479,")){<":10480,")*(":10481,"*\");<":10482,".,":10483,".);<":10484,"218":10485,"54":10486,"84":10487,"<-":10488,"@+":10489,"Auth":10490,"AARCH":10491,"Anti":10492,"BA":10493,"BC":10494,"BR":10495,"Bl":10496,"Ban":10497,"BPL":10498,"Bias":10499,"Benchmark":10500,"Car":10501,"Cur":10502,"CAPI":10503,"CATCH":10504,"DCS":10505,"Dlg":10506,"Ele":10507,"FV":10508,"Fun":10509,"Folder":10510,"FMT":10511,"Giv":10512,"GTH":10513,"Hi":10514,"High":10515,"HASH":10516,"IFIER":10517,"ISO":10518,"JNI":10519,"LIGHT":10520,"Legacy":10521,"MIC":10522,"MGB":10523,"NV":10524,"Pl":10525,"Pat":10526,"Pow":10527,"Plus":10528,"PBYTE":10529,"PHO":10530,"PartialPivLU":10531,"Plain":10532,"Palette":10533,"QDebug":10534,"Ra":10535,"Ret":10536,"Rational":10537,"RIVER":10538,"Risk":10539,"SF":10540,"Svd":10541,"Squares":10542,"SPLIT":10543,"TUR":10544,"Tax":10545,"UX":10546,"Uv":10547,"Ugly":10548,"WARE":10549,"XX":10550,"XMP":10551,"Xcd":10552,"Your":10553,"ZPL":10554,"Zeros":10555,"]));<":10556,"]',":10557,"^[":10558,"^*\\":10559,"_##":10560,"acon":10561,"bble":10562,"bpm":10563,"battle":10564,"cj":10565,"cend":10566,"cum":10567,"divisor":10568,"fi":10569,"fence":10570,"future":10571,"grid":10572,"guard":10573,"greater":10574,"hr":10575,"hilti":10576,"ient":10577,"ians":10578,"irect":10579,"ices":10580,"ientation":10581,"kth":10582,"ktl":10583,"ln":10584,"nic":10585,"pin":10586,"pream":10587,"pLine":10588,"pbuf":10589,"palindrome":10590,"plane":10591,"panic":10592,"qr":10593,"ramp":10594,"rone":10595,"rng":10596,"rviz":10597,"tip":10598,"tft":10599,"uh":10600,"uang":10601,"uki":10602,"vp":10603,"vas":10604,"watch":10605,"wifi":10606,"{},":10607,"¢ç´":10608,"¤éķľ":10609,"¼ãĥ":10610,"å¾":10611,"åİ":10612,"æµ":10613,"æĬ":10614,"éĻ":10615,"Ġ(),":10616,"Ġengine":10617,"inView":10618,"invalid":10619,"dem":10620,"deal":10621,"stl":10622,"enge":10623,"atore":10624,"attach":10625,"atlas":10626,"erf":10627,"erfc":10628,"erbla":10629,"reed":10630,"restrict":10631,"//===":10632,"ories":10633,"Ġ\"#":10634,"Ġ\".\"":10635,"Ġcat":10636,"Ġclient":10637,"Ġclose":10638,"arc":10639,"arbitrary":10640,"Ġieml":10641,"()%":10642,"Ġnall":10643,"covery":10644,"copt":10645,"Ġtc":10646,"Ġtf":10647,"Ġturn":10648,"Ġtower":10649,"aly":10650,"pas":10651,"pay":10652,"Ġ*********************":10653,"Ġ***<":10654,"Ġvulkan":10655,"Ġflow":10656,"Ġfrequency":10657,"Ġsig":10658,"Ġsupp":10659,"Ġsrand":10660,"Ġsaved":10661,"Ġsquares":10662,"Ġsince":10663,"Ġssecs":10664,"Ġpg":10665,"Ġpr":10666,"Ġpressed":10667,"Ġbox":10668,"Ġbubble":10669,"launcher":10670,"ropy":10671,"roug":10672,"etch":10673,"unaryExpr":10674,"Ġoct":10675,"exe":10676,"Ġ(;":10677,"Ġ(<":10678,"ĠAT":10679,"ĠAll":10680,"ĠAbout":10681,"ERY":10682,"izard":10683,"ĠSine":10684,"ĠSele":10685,"ĠStop":10686,"++];<":10687,"Ġgit":10688,"Ġgive":10689,"Ġgtk":10690,"Ġguard":10691,"Ġisfinite":10692,"ĠCA":10693,"ĠCL":10694,"elon":10695,"ĠEM":10696,"ĠMode":10697,"ĠMem":10698,"ĠMWidget":10699,"ĠMac":10700,"ĠMethod":10701,"ĠMake":10702,"ĠPh":10703,"ĠPin":10704,"ĠPop":10705,"ĠPass":10706,"ĠPost":10707,"ĠPOS":10708,"ĠPartialPivLU":10709,"ĠTile":10710,"ĠTEXT":10711,"ĠTIME":10712,"imium":10713,"Ġday":10714,"Ġdummy":10715,"Ġdaisy":10716,"Ġwi":10717,"Ġwidget":10718,"Ġinint":10719,"ALUE":10720,"sprintf":10721,"istream":10722,"Inc":10723,"Ġlater":10724,"Ġ&,":10725,"Coord":10726,"LEAK":10727,"ĠNArc":10728,"ĠNCompress":10729,"STE":10730,"START":10731,"Ġifndef":10732,"adj":10733,"ĠDon":10734,"ĠDNA":10735,"ĠDegrees":10736,"Ġjump":10737,"ARRAY":10738,"ATTR":10739,"PLATE":10740,"ĠFE":10741,"ĠFlotta":10742,"setThreshold":10743,"setMaxIterations":10744,"Ġnumerator":10745,"Ġhook":10746,"ĠLPARAM":10747,"ĠLDLT":10748,"Ġ35":10749,"Ġ300":10750,"VectorXcd":10751,"ĠQue":10752,"ĠQVariantMap":10753,"ĠRT":10754,"ĠRight":10755,"ĠRep":10756,"Ġev":10757,"Ġxerbla":10758,"ĠBUT":10759,"ĠBLAS":10760,"ĠBDCS":10761,"oggle":10762,"ogram":10763,"Eigenvalue":10764,"ĠUC":10765,"ĠUP":10766,"ANIM":10767,"ĠEigenBase":10768,"permutation":10769,"angent":10770,"1010":10771,"Ġrf":10772,"Ġramp":10773,"compress":10774,"ĠWM":10775,"SEX":10776,"Ġyields":10777,"estimated":10778,"lmng":10779,"ĠHw":10780,"ĠHouseholderQ":10781,"ĠHistory":10782,"Ġkern":10783,"QUERY":10784,"conjugate":10785,"concurrencpp":10786,"2022":10787,"ofstream":10788,"prob":10789,"proj":10790,"proxy":10791,"ICS":10792,"ICALL":10793,"TOS":10794,"Ġ!!!<":10795,"ĠVariable":10796,"ĠVoxelEngine":10797,"ĠVALUE":10798,"ListItem":10799,"libav":10800,"librg":10801,"Enc":10802,"Encoding":10803,"IDTH":10804,"access":10805,"Ġregression":10806,"transposeInPlace":10807,"ãģ£":10808,"bust":10809,"SCENE":10810,"ĠsetF":10811,"ĠsetGroup":10812,"NodeType":10813,"Ġhex":10814,"Ġcomputes":10815,"Ġcomplicated":10816,"tonc":10817,"resolution":10818,"00000000":10819,"sumo":10820,"CONVER":10821,"vecf":10822,"Ġnoise":10823,"ĠInt":10824,"DataMatrix":10825,"ĠJacobi":10826,"illmap":10827,"Ġpayload":10828,"facet":10829,"Ġ#%":10830,"Ġuninitialized":10831,"enums":10832,"ForName":10833,"mous":10834,"mouse":10835,"condition":10836,"ãĤ¹":10837,"Complete":10838,"Compressed":10839,"ComputeThin":10840,"solveWith":10841,"solveInPlace":10842,"Ġconjugate":10843,"250":10844,"Unsupported":10845,"Uneven":10846,"InfoFlags":10847,"Ġanony":10848,"SetValue":10849,"TRAN":10850,"counting":10851,"DOUB":10852,"Ġ2018":10853,"Ġuf":10854,"Ġuid":10855,"Ġufomap":10856,"ĠArrayBase":10857,"ENTITY":10858,"RTC":10859,">/*!<":10860,"ErrorFactor":10861,"eprint":10862,"ĠoperatorSqrt":10863,"Ġgeneric":10864,"Ġtriangular":10865,"LoginView":10866,"later":10867,"Interval":10868,"PROTECT":10869,"ModuleManager":10870,"Ans":10871,"Animated":10872,"SensorScanner":10873,"ImageLoader":10874,"makeJacobi":10875,"makeGiv":10876,"makeCompressed":10877,"ä¸ĭ":10878,"Ġapplied":10879,"(&_":10880,"Ġlogarithm":10881,"Configuration":10882,"HorizontalSlider":10883,"ĠreverseString":10884,"ĠYs":10885,"ENSEAL":10886,"ĠBaseSensor":10887,"Classic":10888,"triangular":10889,"CheckLabel":10890,"14159":10891,"trade":10892,"ĠINF":10893,"ĠINPUT":10894,"InputStream":10895,"VISION":10896,"SIVE":10897,"Ġ320":10898,"Ġswapping":10899,"HelloWorld":10900,"cosA":10901,"ĠLoRa":10902,"operatorInverse":10903,"Leaf":10904,"ĠRowVectorXf":10905,"UDP":10906,"Ġnearest":10907,"ĠSparseMatrixBase":10908,"unknown":10909,"ĠOnDraw":10910,"replace":10911,"content":10912,"ween":10913,"Trace":10914,"cwiseProduct":10915,"Ġquite":10916,"Ġquasi":10917,"Transfer":10918,"ĠrunOnce":10919,"ĠChange":10920,"UnitX":10921,"UnitY":10922,"UnitZ":10923,"glfw":10924,"ĠParameter":10925,"ĠflTime":10926,"ĠEntry":10927,"ĠEngine":10928,"PerSecond":10929,"NoChange":10930,"Ġequations":10931,"åı·":10932,"leted":10933,"Ġsolves":10934,"ADDR":10935,"Ġlmtk":10936,"TimerTool":10937,"ĠShutdown":10938,"ĠDefine":10939,"Secret":10940,"VerticalSlider":10941,"becomes":10942,"ĠComputeThin":10943,"Ġplatforms":10944,"åŃĲ":10945,"è¿ŀ":10946,"ĠThen":10947,"visor":10948,"SerialFormatter":10949,"sinA":10950,"ĠSubtract":10951,"dirent":10952,"AndDet":10953,"ĠNoChange":10954,"eigenvector":10955,"eigenvalue":10956,"Users":10957,"simdjson":10958,"ĠLLT":10959,"HouseholderQr":10960,"!!!<":10961,"!!!\"":10962,"nonZeros":10963,"Ġcomma":10964,"infty":10965,"CounterSingleton":10966,"memcpy":10967,"ResourceProvider":10968,"2818":10969,"RealSpace":10970,"fullPivHouseholderQr":10971,"rements":10972,"__((__":10973,"Recursive":10974,"ĠILike":10975,"ĠColPivHouseholderQ":10976,"0400":10977,"Ġspan":10978,"iano":10979,"ĠLOCK":10980,"ĠPrime":10981,"Ġadjoint":10982,"åºĵ":10983,"override":10984,"Ġ\")\\":10985,"Ġbuttons":10986,"Ġtimespec":10987,"scribe":10988,"RadioLabel":10989,"999999":10990,"9999999999":10991,"ĠOutputStream":10992,"éĢĴ":10993,"Calc":10994,"NullaryExpr":10995,"Ġsmallest":10996,"ĠKeyboard":10997,"SharedCount":10998,"Ġcombines":10999,"ĠDeclarations":11000,"ĠGLEffect":11001,"ĠmousePressEvent":11002,"selectPlayers":11003,"pressed":11004,"Ġactivate":11005,"Ġtransposed":11006,"Ġdllimport":11007,"Ġdimension":11008,"lgamma":11009,"yyyy":11010,"ĠtensorV":11011,"ĠAudioDevice":11012,"suite":11013,"ĠFullPivHouseholderQR":11014,"Weapons":11015,"householderQr":11016,"POSITION":11017,"Ġremote":11018,"Ġlegal":11019,"CREATE":11020,"ĠUTF":11021,"åĩ½":11022,"Available":11023,"fibonacci":11024,"ĠUserConfig":11025,"RANDOM":11026,"Skillmap":11027,"ĠLayer":11028,"DeathMatch":11029,"InterruptManager":11030,"Finally":11031,"LENGTH":11032,"RUNN":11033,"napsack":11034,"ĠFastSIMD":11035,"operations":11036,"ãģªãģĦ":11037,"Reduce":11038,"pseudoEigenvectors":11039,"pseudoEigenvalue":11040,"Ġfragments":11041,"Ġpresented":11042,"ãģ¨ãģį":11043,"ä¸Ģä¸ª":11044,"Ġrecord":11045,"ĠENUMERATE":11046,"computeInverseWithCheck":11047,"computeInverseAndDet":11048,"ĠapplyOnTheLeft":11049,"ĠapplyOnTheRight":11050,"GeneralizedEigenSolver":11051,"GeneralizedSelfAdjointEigenSolver":11052,"ç»ĵçĤ¹":11053,"PANEL":11054,"usicShare":11055,"ĠEyerPlayerEvent":11056,"éĸ¢æķ°":11057,"Ġ${":11058,"ãģķãĤĮãĤĭ":11059,"ResetEvent":11060,"Ġfailtest":11061,"è¨Īç®Ĺ":11062,"ĠImplementation":11063,"Capacity":11064,"Ġbinomial":11065,"Ġintegers":11066,"ĠRadians":11067,"ordinate":11068,"Blueprint":11069,"Nearest":11070,"VBoxLayout":11071,"bridge":11072,"CryptoPP":11073,"poisson":11074,"Ġcopies":11075,"ĠCosine":11076,"pszName":11077,"ä¸¤ä¸ª":11078,">/********************":11079,"QRCodeRunnable":11080,"ĠSHARED":11081,"Diving":11082,"Ġlarger":11083,"thinQ":11084,"Ġseveral":11085,"Ġdenominatore":11086,"betas":11087,"çĲĨ":11088,"Ġessential":11089,"onusObject":11090,"Ġrclcpp":11091,"Ġregarding":11092,"Ġseparate":11093,"ĠTeensyTimerTool":11094,"(:,":11095,"Banas":11096,"FVR":11097,"Patrol":11098,"PHOTO":11099,"nicmp":11100,"preamble":11101,"¢ç´¢":11102,"rough":11103,"ĠNArcInfoFlags":11104,"Ġnumerators":11105,"ĠBUTTON":11106,"ĠBDCSVD":11107,"ĠHouseholderQR":11108,"ĠJacobiSVD":11109,"ComputeThinU":11110,"solveWithGuess":11111,"Ġanonymous":11112,"DOUBLE":11113,"makeGivens":11114,"operatorInverseSqrt":11115,"ĠComputeThinV":11116,"ĠSubtracting":11117,"ĠILikeBanas":11118,"ĠColPivHouseholderQR":11119,"pseudoEigenvalueMatrix":11120,"computeInverseAndDetWithCheck":11121,"usicShareKind":11122,"(;":11123,"([":11124,")&":11125,")?":11126,")__":11127,"):\\":11128,"-'":11129,"300":11130,"77":11131,"700":11132,"97":11133,"911":11134,"=<":11135,"=*/":11136,">\"<":11137,">):\"":11138,"?<":11139,"AZ":11140,"Ai":11141,"BD":11142,"BIGEN":11143,"Bill":11144,"BROW":11145,"Cre":11146,"CIDR":11147,"DF":11148,"DShape":11149,"Digits":11150,"Finished":11151,"FROM":11152,"Gate":11153,"GPU":11154,"HTTP":11155,"Holog":11156,"Http":11157,"HUNSPELL":11158,"IpAddress":11159,"JMol":11160,"LD":11161,"LJ":11162,"Mak":11163,"MATH":11164,"Mapping":11165,"MListBox":11166,"Motion":11167,"NAK":11168,"OKUP":11169,"OLEAN":11170,"PH":11171,"Pipeline":11172,"POLY":11173,"RB":11174,"Ren":11175,"Rviz":11176,"Send":11177,"SQU":11178,"Solution":11179,"Safe":11180,"Shell":11181,"Snap":11182,"Switch":11183,"TIN":11184,"TIT":11185,"Take":11186,"TFT":11187,"UUID":11188,"Vm":11189,"VBase":11190,"WANT":11191,"Wide":11192,"WTP":11193,"XM":11194,"XXi":11195,"Ys":11196,"[',":11197,"]\"":11198,"]]);<":11199,"auncher":11200,"bro":11201,"cre":11202,"crc":11203,"dg":11204,"dtype":11205,"dxvk":11206,"eel":11207,"eloc":11208,"eins":11209,"ful":11210,"fold":11211,"grow":11212,"gmd":11213,"google":11214,"gcd":11215,"har":11216,"hang":11217,"haped":11218,"hidden":11219,"ik":11220,"ior":11221,"jump":11222,"lion":11223,"lmpl":11224,"lhs":11225,"mk":11226,"metry":11227,"ns":11228,"nul":11229,"oot":11230,"oading":11231,"patch":11232,"ponder":11233,"ration":11234,"score":11235,"simple":11236,"sSizable":11237,"slice":11238,"tan":11239,"tile":11240,"tutor":11241,"uck":11242,"udent":11243,"ufomap":11244,"wit":11245,"wheelEvent":11246,"warn":11247,"zma":11248,"zwei":11249,"}\",":11250,"å¿":11251,"çİ":11252,"çī¹":11253,"è¦":11254,"èĥ":11255,"Ġ../":11256,"Ġangle":11257,"Ł¥":11258,"ĠĠĠĠčĊ":11259,"dera":11260,"delay":11261,"decrypt":11262,"depng":11263,"stac":11264,"sters":11265,"stead":11266,"enet":11267,"only":11268,"atives":11269,"lusters":11270,"reader":11271,"request":11272,"Ġ\":":11273,"Ġ\"{":11274,"inct":11275,"Ġcf":11276,"Ġcy":11277,"ceptr":11278,"cell":11279,"Ġmeta":11280,"Ġmsd":11281,"esley":11282,"ries":11283,"risc":11284,"ĠiA":11285,"ĠiSize":11286,"Ġigmd":11287,"leg":11288,"Ġns":11289,"Ġnan":11290,"Ġnames":11291,"ctrl":11292,"cogn":11293,"anoi":11294,"another":11295,"ĠtC":11296,"Ġtw":11297,"Ġtic":11298,"alth":11299,"icTo":11300,"idate":11301,"Ġ*>(":11302,"Ġ*****************************************************************":11303,"Ġff":11304,"Ġfio":11305,"Ġfloor":11306,"ittle":11307,"Ġsnd":11308,"Ġsys":11309,"Ġsizable":11310,"Ġseries":11311,"Ġsieve":11312,"Ġpwn":11313,"Ġbias":11314,"Ġremain":11315,"ssd":11316,"Ġactor":11317,"lake":11318,"room":11319,"rocm":11320,"ateDialog":11321,"ubit":11322,"uno":11323,"ERIC":11324,"ĠSER":11325,"ĠSObj":11326,"ĠSophus":11327,"olta":11328,"ĠCT":11329,"ĠCall":11330,"ĠCMP":11331,"ĠCOP":11332,"ĠClose":11333,"ĠCell":11334,"ĠCLI":11335,"ĠEnum":11336,"ĠELS":11337,"ĠEmit":11338,"ĠElem":11339,"ĠEye":11340,"ĠEAX":11341,"translate":11342,"chs":11343,"chow":11344,"stringstream":11345,"iod":11346,"ĠMLIB":11347,"ĠModel":11348,"ilar":11349,"Ġ250":11350,"ĠPose":11351,"ĠPipeline":11352,"ĠTd":11353,"ĠTwo":11354,"ĠTicTo":11355,"Ġdq":11356,"Ġdai":11357,"Ġwarp":11358,"ENUM":11359,"Ġinstring":11360,"Ġindependent":11361,"spin":11362,"Ġ:\"<<":11363,"Information":11364,"InnerStride":11365,"Ġlidar":11366,"Cooler":11367,"ĠGpu":11368,"ĠGrade":11369,"ĠGOOGLE":11370,"STYLE":11371,"STICKER":11372,"REQUEST":11373,"geo":11374,"Ġchip":11375,"ĠDem":11376,"ĠDai":11377,"ircon":11378,"ARM":11379,"preorder":11380,"asound":11381,"oto":11382,"ĠFormal":11383,"Ġ47":11384,"Ġ4096":11385,"setCodec":11386,"setzero":11387,"DEx":11388,"Study":11389,"ĠLast":11390,"ĠLeft":11391,"ĠLegacy":11392,"ĠLIDAR":11393,"ĠQian":11394,"ĠRed":11395,"ĠRelease":11396,"Ġeith":11397,"Ġxor":11398,"getName":11399,"ĠBIT":11400,"->_":11401,"////////////":11402,"ĠUp":11403,"ĠUSER":11404,"ITCH":11405,"ITTER":11406,"ITICAL":11407,"Ġ'%":11408,"Ġ'*":11409,"Ġ']',":11410,"ĠMatrixPower":11411,"ometh":11412,"omnet":11413,"ĠWR":11414,"ĠWPARAM":11415,"ĠWarning":11416,"ĠWesley":11417,"ĠHand":11418,"ĠHot":11419,"ĠHud":11420,"ĠHide":11421,"ĠHIGH":11422,"ĠkConfig":11423,"ĠkBasic":11424,"console":11425,"material":11426,"Ġdev":11427,"Ġdelim":11428,"ntddk":11429,"2013":11430,"Profile":11431,"profile":11432,");};<":11433,"primitive":11434,"primes":11435,"elevations":11436,"TODO":11437,"SHI":11438,"SHAPE":11439,"[]<":11440,"ĠVfsArchive":11441,"libil":11442,"ffml":11443,"Ġprotocol":11444,"quit":11445,"DIST":11446,"Ġmaxlen":11447,"ĠmaxLen":11448,"Ġ103":11449,"accept":11450,"BaseSymbol":11451,"SCII":11452,"Ġhehe":11453,"ystick":11454,"ĠsepLine":11455,"WindowRenderer":11456,"WindowFactory":11457,"Ġthrough":11458,"Ġstrings":11459,"LOOKUP":11460,"antic":11461,"Boiler":11462,"astle":11463,"actor":11464,"activate":11465,"ĠExample":11466,"INGCLASS":11467,"EXTRA":11468,"logic":11469,"Ġdefaults":11470,"Reverse":11471,"Report":11472,"Repository":11473,"noop":11474,"CONSOLE":11475,"cls":11476,"ĠInsert":11477,"DataBase":11478,"msa":11479,"illis":11480,"Ġ600":11481,"Ġ|<":11482,"Touch":11483,"coded":11484,"Ġstrs":11485,")))":11486,"FunctionType":11487,"ĠGetCurrent":11488,"Child":11489,"ĠStatus":11490,"ĠGLIntensityFilter":11491,"MAPP":11492,"arrays":11493,"mount":11494,"Ġends":11495,"Ġendpoint":11496,"ĠendOfCamera":11497,"beginning":11498,"Ġdpi":11499,"Compile":11500,"ustum":11501,"ĠminPrice":11502,"InfoRunnable":11503,"measurement":11504,"ELEMENT":11505,"KEE":11506,"Reshaped":11507,"Responder":11508,"Bucket":11509,"Ġuv":11510,"Ġcontribut":11511,"Ġcontrol":11512,"minimum":11513,"Ġdocopt":11514,"Ġllf":11515,"rolling":11516,"AddParam":11517,"cfg":11518,"apply":11519,"PathSum":11520,"MyWindows":11521,"ĠZPL":11522,"Ġedge":11523,"LogicOperatorType":11524,"people":11525,"tesseract":11526,"ĠbeginningOfCamera":11527,"ImplTraits":11528,"FFmpeg":11529,"graphml":11530,"Anagram":11531,"Heater":11532,"RenderEffect":11533,"]))<":11534,"ä¸į":11535,"FLOOR":11536,"tograph":11537,"HandleImpl":11538,"Ġ**<":11539,"Ġkeyword":11540,"ConfigFile":11541,"!=(":11542,"Ġscreen":11543,"ĠAnime":11544,"ĠCOM":11545,"sqrtA":11546,"blnd":11547,"UIApplicationDelegate":11548,"Ġ...)<":11549,"Ġstarts":11550,"ĠBaseSymbol":11551,"UMBLE":11552,"normalize":11553,"ĠINTER":11554,"CODES":11555,"GraphModification":11556,"ZEffect":11557,"help":11558,"Adv":11559,"Adafruit":11560,"ĠLoop":11561,"fcntl":11562,"tensors":11563,"Ġwhere":11564,"ĠUnused":11565,"ĠUniform":11566,"modulo":11567,"ĠAddParam":11568,"Ġusage":11569,"Ġtargets":11570,"PyOS":11571,"Tasks":11572,"general":11573,"allocator":11574,"FILESYS":11575,"OutStream":11576,"OuterStride":11577,"controller":11578,"itionalWrapper":11579,"openHorizontalTable":11580,"EditBox":11581,"ALLBACK":11582,"ĠCombo":11583,"ĠCompare":11584,"ĠstateBroadcaster":11585,"åħ¬":11586,"registrar":11587,"HeaderList":11588,"miss":11589,"INVALID":11590,"SIMPLE":11591,"Passes":11592,"Ġimplicit":11593,"Ġimperative":11594,"Ready":11595,"limit":11596,"åı£":11597,"PRISM":11598,"USED":11599,"PRELU":11600,"Compare":11601,"ĠNumeric":11602,"Printer":11603,"CameraActor":11604,"MACROS":11605,"ĠFUItem":11606,"processors":11607,"AutoSize":11608,"AutoLock":11609,"AutoOrder":11610,"Web":11611,"çĽ¸":11612,"Ġworker":11613,"LOCALIZATION":11614,"Minimal":11615,"ĠcurrentFrame":11616,"åĲİ":11617,"MutexImpl":11618,"ĠUIWindow":11619,"ĠUIResponder":11620,"ĉĉĉĉĉĉ":11621,"Ġradi":11622,"ResourceManager":11623,"PowerSeries":11624,"Ġexternal":11625,"DateTime":11626,"ĠTranslation":11627,"yscall":11628,"ĠAlloc":11629,"ĠAlbum":11630,"codecForName":11631,"telemetry":11632,"ĠWei":11633,"wdf":11634,"TempExpression":11635,"NetId":11636,"NetRepository":11637,"buttons":11638,"Ġsplit":11639,"CatchmentRealization":11640,"Ġç¾":11641,"ä½į":11642,"ĠAppEvent":11643,"ĠApply":11644,"ĠARDUINO":11645,"}):\\":11646,"ĠeigenVectors":11647,"ByteS":11648,"Broker":11649,"Ġhighlight":11650,"Manual":11651,"Mania":11652,"Ġdestination":11653,"Detect":11654,"QuestMap":11655,"PROTOBUF":11656,"ĠAutoSize":11657,"CppGenericContext":11658,"CppGenericInst":11659,"Ġsupervisor":11660,"NGX":11661,"ursion":11662,"ExpStatement":11663,"2640":11664,"AAAA":11665,"ĠGLEFFECT":11666,"ĠGLEWAPI":11667,"LABEL":11668,"selected":11669,"ĠyyFlexLexer":11670,"Ticks":11671,"password":11672,"()<<\"":11673,"ĠAPIENTRY":11674,"IFY":11675,"ĠCONFIG":11676,"ĠlpReserved":11677,"EigenvaluesOnly":11678,"Cards":11679,"Ġwtn":11680,"antiations":11681,"GLEW":11682,"ĠUTILITY":11683,"PinManager":11684,"ĠCalc":11685,"å½Ĵ":11686,"Ġdecltype":11687,"ĠQStringListModel":11688,"Turbine":11689,"ĠrtGet":11690,"Ġfront":11691,"ErrorCodes":11692,"SWITCH":11693,"sym":11694,"ĠFramework":11695,"cgal":11696,"juste":11697,"########":11698,"Ġ{'[',":11699,"qwdialog":11700,"AUTHOR":11701,"ĠSysMesBox":11702,"ĠConditionalWrapper":11703,"TabFrameItem":11704,"ĠçŃĶãģĪãĤĴåĩºåĬĽ":11705,"ĠçŃĶãģĪãĤĴæ±ĤãĤģãĤĭ":11706,"MediaPlayer":11707,"ĠSignal":11708,"fourth":11709,"Unrealcv":11710,"DebuggerPresent":11711,"Join":11712,"TelemetrySensor":11713,"Ġppl":11714,"Ġdownload":11715,"LEEP":11716,"ĠLinspace":11717,"åŃĹç¬¦ä¸²":11718,"CLOUD":11719,"assignments":11720,"ĠQueryType":11721,"SoloGladiator":11722,"Ġmultiple":11723,"mptsView":11724,"scripten":11725,"ĠStdAfx":11726,"FOLDERS":11727,"Ð¾Ð":11728,"Ġromulator":11729,"ĠMsgFunc":11730,"ĠTOKEN":11731,"ĠRotate":11732,"ĠkNumM":11733,"TypeTemplateClassTemplate":11734,"ĠCmptAccessPtr":11735,"ãģ¦ãģĦ":11736,"SWISH":11737,"ç¾¤":11738,"Ġnetapi":11739,"macosx":11740,"existing":11741,"sertionSort":11742,"MLIRContext":11743,"Account":11744,"PublisherVariables":11745,"rfks":11746,"Ġfacebook":11747,"Ġrgbf":11748,"å¤īæĽ´":11749,"è½¬æį¢":11750,"visioning":11751,"ĠStructure":11752,"multiprecision":11753,"è§£åĨ³æ±īåŃĹä¹±çłģéĹ®é¢ĺ":11754,"BPLib":11755,"TURN":11756,"pasjuste":11757,"ĠQueue":11758,"éĢĴå½Ĵ":11759,"åĩ½æķ°":11760,"BIGENDIAN":11761,"Billboard":11762,"Hologram":11763,"NAKED":11764,"TITLE":11765,"elocity":11766,"èĥ½":11767,"stacle":11768,"ceptron":11769,"riscv":11770,"Ġigmdk":11771,"oltage":11772,"ĠCOPY":11773,"ĠEAXJMP":11774,"chowdsp":11775,"ĠTicToc":11776,"ĠFormalPowerSeries":11777,"setCodecFor":11778,"Ġeither":11779,"omething":11780,"omnetpp":11781,"ĠkBasicVersion":11782,"ffmlp":11783,"INGCLASSIFIER":11784,"openHorizontalTableBox":11785,"!\";<":11786,"'.\"<":11787,").<":11788,")\");<":11789,",{":11790,"/_":11791,"0159":11792,"422":11793,"52":11794,"794":11795,"81":11796,"AAB":11797,"BAD":11798,"CLE":11799,"Candies":11800,"DRO":11801,"Demo":11802,"Dxso":11803,"EGL":11804,"ElGamal":11805,"FN":11806,"Fr":11807,"Fine":11808,"FString":11809,"FONT":11810,"FOLD":11811,"GX":11812,"Git":11813,"GreppingDlg":11814,"Hal":11815,"Has":11816,"HIGH":11817,"Hidden":11818,"HONE":11819,"Hanoi":11820,"ISE":11821,"Items":11822,"JPEG":11823,"Lif":11824,"Low":11825,"Lap":11826,"Live":11827,"LITER":11828,"MLIB":11829,"Misc":11830,"MDrawContext":11831,"MPEG":11832,"Mqtt":11833,"MSVC":11834,"NORM":11835,"OES":11836,"Public":11837,"PSP":11838,"PUB":11839,"PVOID":11840,"Plot":11841,"Pixel":11842,"Physics":11843,"QColor":11844,"QFont":11845,"QTimer":11846,"QLineEdit":11847,"QITC":11848,"Rq":11849,"REN":11850,"SIN":11851,"SING":11852,"SandboxLayer":11853,"Torch":11854,"Tips":11855,"Tutor":11856,"UCE":11857,"Udc":11858,"VK":11859,"VALID":11860,"WEB":11861,"Ways":11862,"Warp":11863,"Walkable":11864,"XY":11865,"YPT":11866,"ZActor":11867,"`.<":11868,"bI":11869,"bm":11870,"bad":11871,"browser":11872,"branch":11873,"crash":11874,"dq":11875,"due":11876,"dcc":11877,"eq":11878,"each":11879,"flip":11880,"games":11881,"gFilter":11882,"ggui":11883,"gUtf":11884,"hy":11885,"hread":11886,"iB":11887,"jector":11888,"lc":11889,"lw":11890,"mx":11891,"moid":11892,"mLib":11893,"metadata":11894,"metrics":11895,"melon":11896,"nl":11897,"oice":11898,"peg":11899,"pframe":11900,"rd":11901,"rend":11902,"sf":11903,"sid":11904,"single":11905,"sGroup":11906,"tv":11907,"tre":11908,"tool":11909,"trig":11910,"tjs":11911,"tutorial":11912,"uk":11913,"ula":11914,"wi":11915,"xa":11916,"xr":11917,"xor":11918,"ym":11919,"zure":11920,"zpl":11921,"zhang":11922,"zircon":11923,"}_":11924,"´æİ¥":11925,"Ñı":11926,"å¸":11927,"æī":11928,"è·":11929,"Ġel":11930,"ĠçļĦ":11931,"Ġutility":11932,"ĥç´ł":11933,"Łèĥ½":11934,"inity":11935,"ĠĠĠĠĉĠĠĠ":11936,"det":11937,"demo":11938,"deprecated":11939,"sto":11940,"stx":11941,"enContext":11942,"onic":11943,"onetime":11944,"onometric":11945,"ertion":11946,"rem":11947,"retri":11948,"Ġ\".":11949,"Ġ\"_":11950,"Ġ\"\");<":11951,"Ġ\"!!":11952,"incess":11953,"Ġcube":11954,"Ġcases":11955,"Ġcpasjuste":11956,"amount":11957,"Ġmsbl":11958,"Ġmqtt":11959,"endar":11960,"esis":11961,"rier":11962,"Ġiv":11963,"Ġimode":11964,"Ġideal":11965,"(){};<":11966,"ingObject":11967,"Ġte":11968,"Ġtre":11969,"Ġtweets":11970,"ality":11971,"allow":11972,"iffer":11973,"icular":11974,"ids":11975,"Ġvld":11976,"Ġfre":11977,"Ġfocused":11978,"ited":11979,"rac":11980,"Ġsf":11981,"Ġsq":11982,"Ġser":11983,"Ġsound":11984,"Ġscc":11985,"urtle":11986,"Ġput":11987,"Ġpose":11988,"Ġpts":11989,"Ġpitch":11990,"Ġpsz":11991,"Ġbm":11992,"Ġbad":11993,"Ġbrow":11994,"Ġabc":11995,"lomon":11996,"loaded":11997,"Ġ000":11998,"ett":11999,"etpp":12000,"strs":12001,"strnicmp":12002,"untry":12003,"Ġcoeff":12004,"Ġcocos":12005,"Ġoccur":12006,"Ġ(*)(":12007,"dog":12008,"Ġmapper":12009,"ĠSU":12010,"ĠSum":12011,"ĠSAN":12012,"ĠSpec":12013,"ĠSET":12014,"ĠSparse":12015,"ĠService":12016,"ĠSphere":12017,"ĠSUPPORT":12018,"olve":12019,"ĠCard":12020,"ĠCONT":12021,"ĠCEntity":12022,"ĠClipboard":12023,"INF":12024,"ĠEC":12025,"ckLink":12026,"__(\"":12027,"Ġconstants":12028,"iodic":12029,"ĠMVector":12030,"ĠMark":12031,"ĠMETH":12032,"ĠPg":12033,"ĠPort":12034,"ĠPAGE":12035,"ĠPalindrome":12036,"ĠPATH":12037,"ĠTVec":12038,"ĠTelemetry":12039,"ĠTENSEAL":12040,"impacto":12041,"Ġdh":12042,"Ġwid":12043,"Ġwog":12044,"Ġwari":12045,"ENG":12046,"ENDIAN":12047,"ulse":12048,"argin":12049,"ALLE":12050,"istogram":12051,"Instr":12052,"InEvent":12053,"Invalid":12054,"Including":12055,"Integration":12056,"Ġ&<":12057,"Ġ&=":12058,"constant":12059,"ĠGx":12060,"ĠGROUP":12061,"ĠNAME":12062,"REL":12063,"REQ":12064,"streamsize":12065,"ĠDist":12066,"irk":12067,"ARGE":12068,"asm":12069,"asio":12070,"ecs":12071,"ands":12072,"alltypes":12073,"ĠFNM":12074,"ĠFILTER":12075,"Ġ45":12076,"DEV":12077,"DECK":12078,"Ġhint":12079,"ĠhInstance":12080,"Ġhidden":12081,"IMA":12082,"ĠLine":12083,"ĠLength":12084,"ĠLower":12085,"ĠLinear":12086,"ĠQFrame":12087,"ĠQIcon":12088,"ĠRel":12089,"Ġemp":12090,"Ġxx":12091,"ctionary":12092,"RandomNumber":12093,"ĠBridge":12094,"ĠBSD":12095,"ĠISplitter":12096,"Ġtouch":12097,"lier":12098,"ogl":12099,"ĠUint":12100,"ĠUrl":12101,"ĠUCHAR":12102,"Ġartist":12103,"agnostics":12104,"Ġfilepath":12105,"perspective":12106,"structs":12107,"Ġ'+":12108,"thing":12109,"ernet":12110,"ULAR":12111,"angora":12112,"MET":12113,"MESH":12114,"METRY":12115,"ĠKe":12116,"SELECT":12117,"Ġyaw":12118,"ĠgetA":12119,"ĠgetDistance":12120,"ĠgetFull":12121,"ĠgetMetrics":12122,"reduction":12123,"esture":12124,"estamp":12125,"ĠHMODULE":12126,"ĠHardware":12127,"constructor":12128,"MOT":12129,"<<\"-":12130,"series":12131,"ROL":12132,"prom":12133,"prologue":12134,"processedSize":12135,"EXP":12136,"EXPECT":12137,"vival":12138,"price":12139,"prism":12140,"TOP":12141,"SHA":12142,"TypeCvtImpl":12143,"anspar":12144,"Ġprogress":12145,"Ġprofit":12146,"quant":12147,"indices":12148,"UNINIT":12149,"UNUSED":12150,"1262":12151,"1268":12152,"IDD":12153,"ADS":12154,"Ġregex":12155,"Ġregular":12156,"builder":12157,"Ġtransfer":12158,"regular":12159,"toString":12160,"Ġseen":12161,"fileName":12162,"Ġexists":12163,"WindowConn":12164,"ĠXPRESS":12165,"SSp":12166,"ibonacci":12167,"CHO":12168,"CHANGE":12169,"abstract":12170,"ĠExpr":12171,"UTOR":12172,"UTILITY":12173,"Deprecated":12174,"formal":12175,"ipc":12176,"Requi":12177,"Replay":12178,"CONN":12179,"compare":12180,"combine":12181,"ĠInanimateObject":12182,"DataProvider":12183,"ĠJump":12184,"ĠJUCE":12185,"Ġ60":12186,"Scr":12187,"Scan":12188,"ScanToken":12189,"REGULAR":12190,"ftStraFact":12191,"TextBrowser":12192,"codes":12193,"))/":12194,"ĠGetName":12195,"Chams":12196,"ĠGLboolean":12197,"Ġesp":12198,"PINMANAGER":12199,"PINREADER":12200,"Completion":12201,"NOISE":12202,"NOCHANGE":12203,"FileWriter":12204,"Ġlevk":12205,"GetCurrent":12206,"Refcount":12207,"Union":12208,"Unload":12209,"INTRU":12210,"Ġanimation":12211,"ĠArg":12212,"ĠArchive":12213,"Short":12214,"Resolver":12215,"ĠrowCount":12216,"BuiltinType":12217,"ĠRESOURCE":12218,"Ġ2014":12219,"assign":12220,"associ":12221,"ysclass":12222,"ASM":12223,"ASIN":12224,"ASIO":12225,"ĠPROJECT":12226,"Ġexpr":12227,"URFILTER":12228,"cvm":12229,"PathProvider":12230,"initWith":12231,"Ġsubset":12232,"Ġsubseq":12233,"blocks":12234,"Ġspecial":12235,"OTH":12236,"ccurr":12237,"Ġtrim":12238,"ĠtriMesh":12239,"showTeam":12240,"Ġorientation":12241,"solomon":12242,"æķĪ":12243,"Than":12244,"IMPORTS":12245,"1001":12246,"GameProcess":12247,"eek":12248,"Filters":12249,"BOOT":12250,"BOARD":12251,"ĠIDR":12252,"LINEAR":12253,"CppChar":12254,"wards":12255,"avy":12256,"popcount":12257,"IPHONE":12258,"Ġzlib":12259,"ĠinitWith":12260,"Ġ(\"\\":12261,"bindings":12262,"tridiagonalization":12263,"CheckBox":12264,"ĠMatQuad":12265,"åĬŁèĥ½":12266,"tracy":12267,"ĠSystemClock":12268,"ĠINVALID":12269,"BITMAP":12270,"Ġ):":12271,"ĠSTFT":12272,"CONFIGS":12273,"Ġ-->":12274,"lines":12275,"Ġmodify":12276,"inyin":12277,"ĠRows":12278,"temporary":12279,"DebugName":12280,"PacketHandler":12281,"powc":12282,"packing":12283,"hair":12284,"FILEWRITER":12285,"RegisterCodec":12286,"Trader":12287,"Transpose":12288,"ĠScanToken":12289,"TeamGladiator":12290,"FILEN":12291,"ĠChen":12292,"åħĥç´ł":12293,"EntityID":12294,"ĠéĢ":12295,"cie":12296,"1000000007":12297,"ĠReverse":12298,"GLOBALS":12299,"]+$":12300,"]+[":12301,"ĠBlocks":12302,"Reactor":12303,"NotLoaded":12304,"ĠEnable":12305,"PerM":12306,"hpet":12307,"åıĳ":12308,"lette":12309,"POSE":12310,"RESOLVER":12311,"readed":12312,"ĠinitialLoad":12313,"quire":12314,"Helpers":12315,"CRITICAL":12316,"CRYPT":12317,"MouseButton":12318,"COMPILE":12319,"SceneObject":12320,"Security":12321,"Ġ{}\",":12322,"ĠObjective":12323,"Comment":12324,"ĠlengthOf":12325,"Ġopens":12326,"Ġexecut":12327,"Ġexecute":12328,"kane":12329,"ĠSubsystem":12330,"ĠFUSticker":12331,"ĠloggerChain":12332,"Ġincre":12333,"Android":12334,"terminate":12335,"ĠResize":12336,"Ġåħ¨":12337,"10005":12338,"ãĥ¼ãĥ":12339,"740":12340,"Asse":12341,"AsioSerialPortClient":12342,"ĠEventType":12343,"è¯»":12344,"Ġrad":12345,"Resources":12346,"MOCKSENSOR":12347,"265":12348,"Monot":12349,"Role":12350,"StdString":12351,"lections":12352,"Ġsignals":12353,"Ġaccount":12354,"MTS":12355,"ĠPLSC":12356,"CHECKPOINT":12357,"Services":12358,"megcore":12359,"ArduinoJson":12360,"ZRuleBaseQuest":12361,"timestamp":12362,"ĠARM":12363,"SimpleWindowConn":12364,"æİ¢ç´¢":12365,"ĠPrimitive":12366,"PLSUSBStackView":12367,"FuncEnum":12368,"ĠresizeEvent":12369,"Dimension":12370,"Ġrespective":12371,"Ġrotation":12372,"ãĢĮ":12373,"ãĢį":12374,"ĠsearchBST":12375,"Ġgood":12376,"Ġdestroy":12377,"Features":12378,"Ġthreads":12379,"OPENMP":12380,"ĠConfiguration":12381,"Ġ-*-<":12382,"Ġãģ®åĢ¤ãĤĴ":12383,"Ġãģ®åĢįæķ°":12384,"Ġwords":12385,"AccessTypeID":12386,"DBFilter":12387,"bba":12388,"éĢļ":12389,"Executable":12390,"YZER":12391,"jacency":12392,"BLUE":12393,"Super":12394,"dxso":12395,"dxgi":12396,"793":12397,"FUItem":12398,"Prev":12399,"UPPER":12400,"åĨį":12401,"onnx":12402,"ĠLPCTSTR":12403,"GeneratorBuildingHolo":12404,"TIMEKEE":12405,"ĠThreadLocalValue":12406,")<<\"\\":12407,"Worker":12408,"åįĬ":12409,"ĠSplit":12410,"IMPLEMENTED":12411,"SETTING":12412,"ï¼Ī=":12413,"SysAllocator":12414,"caten":12415,"ĠCOND":12416,"Ġdllexport":12417,"ĠOptions":12418,"HelpScreen":12419,"yyFlexLexer":12420,"ĠPRISM":12421,"ĠPRIMA":12422,"ĠGeneric":12423,"ĠGenerate":12424,"IMAGELOADER":12425,"ĠIOCTL":12426,"Fiend":12427,"neon":12428,"Ġä»¥":12429,"Ġbiggest":12430,"Quaternionf":12431,"GLEWAPI":12432,"Combat":12433,"interpreter":12434,"pmr":12435,"]>='":12436,"gnu":12437,"å½ķ":12438,"Ġskip":12439,"ĠFASTNOISE":12440,"Ġdeclarations":12441,"LinkedListNode":12442,"RANGE":12443,"åĽŀ":12444,"æĮīéĶ®":12445,"inglyLinkedListNode":12446,"COPYABLE":12447,"lapsedTimer":12448,"Ġfrustum":12449,"EYERPLAYEREVENT":12450,"Binder":12451,"HexFiend":12452,"åĩºåĬĽãģķãĤĮãĤĭ":12453,"Ġmoney":12454,"Ġrecursive":12455,"Glyph":12456,"Reduction":12457,"åĵĪ":12458,"Ġcapacity":12459,"Dependencies":12460,"multiply":12461,"TVP":12462,"Ġmanually":12463,"ĠDirectX":12464,"GRAPHICSVIEW":12465,"SegmentTree":12466,"PANE":12467,"Ð°Ð":12468,"Ġverbose":12469,"ĠNullMenu":12470,"ĠSeetaFaceInfo":12471,"Movable":12472,"Words":12473,"transaction":12474,"Hwang":12475,"QListWidgetItem":12476,"Ġ\"*\";<":12477,"Ġnegative":12478,"reference":12479,"EyerAVFFmpeg":12480,"INTERRUPTMANAGER":12481,"BlurFilter":12482,"ĠAsioSerialPortClient":12483,"Ġlyrics":12484,"ĠDelete":12485,"opensslconf":12486,"DecodeQueue":12487,"è¿ĶãģĻ":12488,"Survival":12489,"SkyBox":12490,"nail":12491,"rustController":12492,"itudeController":12493,"Ġrepresentation":12494,"ĠELF":12495,"SPRITE":12496,"Bottom":12497,"Handlers":12498,"Polynomial":12499,"tetgen":12500,"¾ç¤º":12501,"Ġomnetpp":12502,"ĠStore":12503,"Reply":12504,"GEOMETRY":12505,"HydroFeature":12506,"Mean":12507,"aLibFeature":12508,"æ»¤éķľ":12509,"ceiveInput":12510,"TestDataPath":12511,"kaust":12512,"Ġnatural":12513,"Ġbetween":12514,"ĠStyle":12515,"Ġãģ¨åĩºåĬĽãģķãĤĮãĤĭ":12516,"19937":12517,"RigidBody":12518,"gregate":12519,"focus":12520,"Ġpartyid":12521,"CppReflectionType":12522,"DomainObject":12523,"Curve":12524,"CATCHMENT":12525,"ĠUCNAME":12526,"ErrorFactorAD":12527,"steady":12528,"Ġmsdf":12529,"legacy":12530,"ĠElemwise":12531,"CoolerBuildingHolo":12532,"STICKERSOURCE":12533,"ĠReduce":12534,"ĠheheHwang":12535,"BoilerBuildingHolo":12536,"HeaterBuildingHolo":12537,"tography":12538,"ĠGLEWAPIENTRY":12539,"TurbineBuildingHolo":12540,"LITERAL":12541,"MqttClient":12542,"trigonometric":12543,"onetimeauth":12544,"ĠMETHOD":12545,"ĠTelemetrySensor":12546,"Ġwogha":12547,"ALLEL":12548,"ĠgetFullName":12549,"Requirements":12550,"INTRUSIVE":12551,"showTeamPlayers":12552,"NotLoadedException":12553,"SimpleWindowConnector":12554,"TIMEKEEPER":12555,"yyFlexLexerOnce":12556,"EyerAVFFmpegHeader":12557,"!\"<":12558,"&(":12559,"&;<":12560,"(#":12561,"(\"<":12562,")\"<":12563,")...":12564,")((":12565,".\"<<":12566,"/%":12567,"033":12568,"110":12569,"61":12570,":%":12571,":-":12572,"=-":12573,"?$":12574,"AIT":12575,"AutolinkedNative":12576,"AHEAD":12577,"BRE":12578,"BOR":12579,"Balls":12580,"Before":12581,"Cef":12582,"CED":12583,"Cvar":12584,"Cafe":12585,"Clipboard":12586,"Dv":12587,"Dend":12588,"Discrete":12589,"EV":12590,"EseqExpression":12591,"FW":12592,"Four":12593,"Fork":12594,"Final":12595,"Frequency":12596,"Feel":12597,"GPL":12598,"Gang":12599,"GING":12600,"Grip":12601,"Gadget":12602,"Guest":12603,"Grade":12604,"Gauss":12605,"HM":12606,"Hat":12607,"HAL":12608,"HftStrategy":12609,"IDE":12610,"IBU":12611,"IArray":12612,"Jit":12613,"Java":12614,"KL":12615,"KIT":12616,"Kth":12617,"LAND":12618,"LARGE":12619,"Mock":12620,"Mirror":12621,"NL":12622,"NEG":12623,"Naver":12624,"Pal":12625,"QFile":12626,"QScrollArea":12627,"QDateTime":12628,"RM":12629,"RIX":12630,"RAnimation":12631,"Raw":12632,"Restore":12633,"RCTBridgeDelegate":12634,"SM":12635,"Slic":12636,"Some":12637,"Square":12638,"TG":12639,"Tut":12640,"Tile":12641,"TLE":12642,"Total":12643,"TLS":12644,"TENSOR":12645,"Tls":12646,"Thous":12647,"UObject":12648,"Upd":12649,"VOL":12650,"VSX":12651,"Wpragma":12652,"Wped":12653,"Wmacro":12654,"Wonder":12655,"Xml":12656,"YO":12657,"ZModule":12658,"ZBrain":12659,"ZTASK":12660,"ZBEHAVIOR":12661,"affine":12662,"bullet":12663,"cing":12664,"cary":12665,"cutil":12666,"cancel":12667,"cSvd":12668,"dk":12669,"div":12670,"dab":12671,"done":12672,"dump":12673,"donn":12674,"dCard":12675,"dStructure":12676,"dvars":12677,"fma":12678,"floor":12679,"fincludes":12680,"gy":12681,"hc":12682,"hl":12683,"hit":12684,"hdata":12685,"hcc":12686,"home":12687,"iang":12688,"job":12689,"knapsack":12690,"lsum":12691,"lca":12692,"mys":12693,"ould":12694,"pet":12695,"plus":12696,"pick":12697,"pixel":12698,"qiang":12699,"rgb":12700,"rincess":12701,"sv":12702,"sMenu":12703,"session":12704,"sdaCodeGraph":12705,"tun":12706,"tto":12707,"trigger":12708,"trees":12709,"uc":12710,"vokes":12711,"xshm":12712,"zer":12713,"zip":12714,"zeta":12715,"{};":12716,"}),":12717,"¨æ":12718,"¿ÑĢ":12719,"Ñģ":12720,"æĥ":12721,"ç³":12722,"éĺ":12723,"Ġâ":12724,"ĠčĊ":12725,"Ġ){<":12726,"Ġ);":12727,"ĠãĤ":12728,"Ġlayout":12729,"Ġ...<":12730,"Ġlocale":12731,"Ġefsw":12732,"įä½ľ":12733,"ĵįä½ľ":12734,"ķçļĦ":12735,"Ŀãģ":12736,"inom":12737,"inner":12738,"decomp":12739,"stoi":12740,"ena":12741,"encoder":12742,"reent":12743,"redefined":12744,"reach":12745,"recurs":12746,"repeat":12747,"inttypes":12748,"ori":12749,"Ġ\"__":12750,"Ġck":12751,"Ġcr":12752,"Ġcard":12753,"Ġcenter":12754,"Ġcause":12755,"Ġcrash":12756,"amard":12757,"Ġmn":12758,"Ġmpp":12759,"Ġmol":12760,"Ġmetrics":12761,"Ġ=========================================================================":12762,"esc":12763,"()\");":12764,"Ġntt":12765,"seesaw":12766,"coil":12767,"cocos":12768,"Ġtb":12769,"Ġti":12770,"Ġtiles":12771,"alt":12772,"alib":12773,"padd":12774,"icCatchment":12775,"iding":12776,"Ġ***":12777,"Ġvisual":12778,"Ġfin":12779,"Ġfocus":12780,"itype":12781,"Ġsi":12782,"Ġsurface":12783,"Ġsql":12784,"urbo":12785,"Ġpat":12786,"Ġpalindrome":12787,"Ġpanel":12788,"Ġphi":12789,"ĠpDesktop":12790,"ĠpBrain":12791,"Ġpoll":12792,"Ġrefer":12793,"Ġrepeat":12794,"Ġavoid":12795,"Ġabstract":12796,"ĠaFileName":12797,"laze":12798,"lopt":12799,"lodepng":12800,"roi":12801,">}}":12802,"Ġstdout":12803,"strategy":12804,"strcpy":12805,"igu":12806,"igmoid":12807,"ungi":12808,"machine":12809,"usb":12810,"exit":12811,"ĠAL":12812,"ĠArt":12813,"ĠALL":12814,"ĠADD":12815,"doit":12816,"**)":12817,"ĠSun":12818,"ĠSection":12819,"ĠSandboxLayer":12820,"ism":12821,"++],":12822,"Ġgc":12823,"Ġgli":12824,"Ġguid":12825,"Ġisoc":12826,"ĠisAnagram":12827,"ĠCObject":12828,"ĠCircle":12829,"ĠCCoder":12830,"edit":12831,"edges":12832,"edFill":12833,"ĠEcho":12834,"ĠELOQUENTTINYML":12835,"ĠElapsedTimer":12836,"ckit":12837,"child":12838,"iode":12839,"ĠME":12840,"ĠMa":12841,"ĠMol":12842,"ĠMath":12843,"ĠPM":12844,"ĠPut":12845,"ĠPow":12846,"ĠPos":12847,"ĠPIX":12848,"ĠTEXASSOLVER":12849,"imized":12850,"Ġdx":12851,"Ġdialog":12852,"Ġdone":12853,"ĠwheelEvent":12854,"Ġ{-":12855,"argins":12856,"ALYZER":12857,"istor":12858,"istent":12859,"InStream":12860,"InanimateObject":12861,"Ġlat":12862,"Ġlar":12863,"Ġlcm":12864,"Ġlantern":12865,"Coin":12866,"extract":12867,"LETE":12868,"ĠGP":12869,"ĠNLO":12870,"STX":12871,"STACK":12872,"RESET":12873,"RETRODREAM":12874,"bove":12875,"added":12876,"adamard":12877,"eglm":12878,"egtt":12879,"ĠDemo":12880,"ĠDestroy":12881,"ĠDRIVER":12882,"owner":12883,"Ġjog":12884,"ARC":12885,"preemp":12886,"aser":12887,"ĠFT":12888,"ĠFull":12889,"ĠFWP":12890,"ĠFibonacci":12891,"Ġ400":12892,"DESC":12893,"DEVICE":12894,"Store":12895,"Stuff":12896,"(\"&":12897,"(\"../":12898,"Ġhistory":12899,"ILL":12900,"ĠLANT":12901,"ĠLONG":12902,"Ġ332":12903,"ĠQMenu":12904,"ĠQAction":12905,"ĠQScrollArea":12906,"Ġstx":12907,"ĠRem":12908,"ĠRaw":12909,"ĠRCTBridgeDelegate":12910,"ĠRClassic":12911,"getTinylangVersion":12912,"apt":12913,"ĠBG":12914,"ĠBU":12915,"ĠBig":12916,"ĠBST":12917,"ĠBill":12918,"ĠBonusObject":12919,"ĠIW":12920,"ĠIDE":12921,"ĠIcon":12922,"ĠIES":12923,"Ġtoh":12924,"Ġtoss":12925,"lias":12926,"lices":12927,"Ġ___":12928,"ewels":12929,"ĠUFL":12930,"ĠUltra":12931,"ANIME":12932,"ANAGER":12933,"ulti":12934,"permute":12935,"Ġargbuf":12936,"ername":12937,"Exe":12938,"107":12939,"shutdown":12940,"Ġrc":12941,"Ġram":12942,"Ġrvector":12943,"Ġrdata":12944,"SEG":12945,"redit":12946,"lmtk":12947,"ĠHack":12948,"ĠHINSTANCE":12949,"Ġ/*!<":12950,"mmintrin":12951,"QUE":12952,"QUAL":12953,"conio":12954,"irty":12955,"irtree":12956,"MOVE":12957,"ityElement":12958,"Ġdeveloper":12959,"Ġdependencies":12960,"**********":12961,");//":12962,");}<":12963,"ĠOK":12964,"ĠOb":12965,"ĠOperator":12966,"ICLE":12967,"ICopy":12968,"eleport":12969,"TOOL":12970,"taStrategy":12971,"Ġbelow":12972,"database":12973,"ĠVirtual":12974,"ĠVokes":12975,"ĠVImageLoader":12976,"Listbox":12977,"libUn":12978,"GLIntensityFilter":12979,"anspond":12980,"TEval":12981,"esseng":12982,"Ġprod":12983,"quak":12984,"UNO":12985,"1280":12986,"scall":12987,"DIRECT":12988,"ĠmaxTo":12989,"Ġmaxcount":12990,"ĠmaxValue":12991,"ĠmaxSubArray":12992,"ather":12993,"Ġmatch":12994,"ãģ¾":12995,"ãģĳ":12996,"lements":12997,"ĠsetB":12998,"ĠsetRow":12999,"Ġsetbase":13000,"ĠsetGeometry":13001,"ĠsetBackground":13002,"toN":13003,"toss":13004,"token":13005,"Ġsec":13006,"Ġsee":13007,"Ġsemaphore":13008,"WindowManager":13009,"WindowSettings":13010,"ĠXML":13011,"Ġcompressed":13012,"Ġdatabase":13013,"CEINLINE":13014,"SizeGrip":13015,"ObjectHandle":13016,"ObjectNamespace":13017,"=====<":13018,"Boot":13019,"dialect":13020,"EventJoin":13021,"(),'\\":13022,"ĠsumUp":13023,"ĠsumOfN":13024,"abort":13025,"();++":13026,"UTION":13027,"UTIME":13028,"ĠĠĠĠĠĠĠĠĠĠĠĠĠĠĠĠĠĠĠĠĠ":13029,"ĠĠĠĠĠĠĠĠĠĠĠĠĠĠĠĠĠĠĠĠĠĠĠĠĠĠĠĠĠĠĠ":13030,"ĠĠĠĠĠĠĠĠĠĠĠĠĠĠĠĠĠĠĠĠĠĠĠĠĠ":13031,"sumOfN":13032,"Relayout":13033,"pushButton":13034,"DataSize":13035,"TERS":13036,"ĠnewNode":13037,"ĠJNI":13038,"ĠJOY":13039,"OLUTION":13040,"DLC":13041,"Regular":13042,"ToStatement":13043,"TextView":13044,"TextArea":13045,"Ġstrtok":13046,"Ġbuilder":13047,"Collapsible":13048,"anagram":13049,"ĠProgress":13050,"<=(":13051,"FunctionView":13052,"TestC":13053,"Ġ##":13054,"Ġcls":13055,"Ġclamp":13056,"ĠStatic":13057,"ĠStrip":13058,"ĠStandard":13059,"ĠStorage":13060,"ĠGLFRAME":13061,"ForLoop":13062,"MAG":13063,"ertical":13064,"Compute":13065,"ĠtestF":13066,"NOM":13067,"259":13068,"Ġleak":13069,"Ġanim":13070,"measure":13071,"ATIONAL":13072,"Ġqvec":13073,"KEnum":13074,"ButtonBox":13075,"Ġprimitive":13076,"Ġprimary":13077,"Buf":13078,"merge":13079,"Ġugly":13080,"PropertyInitialiser":13081,"LIBS":13082,"formats":13083,"Ġdoctest":13084,"smt":13085,"ĠcolumnCount":13086,"bsite":13087,"cvt":13088,"AddUpdate":13089,"ĠmyPow":13090,"SYN":13091,"SYNC":13092,"Ġprepare":13093,"ErrorNotImplemented":13094,"MyTypes":13095,"ĠDouble":13096,"133":13097,"FrameWidget":13098,"LogMessage":13099,"deredString":13100,"Ġshader":13101,"Ġcollapsible":13102,"]]=":13103,"Ġatt":13104,"Ġasn":13105,"Ġasio":13106,"Interior":13107,"FFT":13108,"PROPERTY":13109,"Ġåį":13110,"sobj":13111,"vmk":13112,"vmesh":13113,"graphic":13114,"ThrustController":13115,"MainActivity":13116,"Ġlibs":13117,"Ġvalf":13118,"ĉĉĉĠ":13119,"SensorName":13120,"Lines":13121,"Ġscan":13122,"Ġscript":13123,"aving":13124,"GETTERS":13125,"Ġreversed":13126,"ĠreverseNumber":13127,"outputs":13128,"Scott":13129,"EXPORTED":13130,"mlElement":13131,"trimesh":13132,"CCNEW":13133,"submit":13134,"1490":13135,"tras":13136,"threads":13137,"MINMAX":13138,"ĠWidgetLook":13139,"ĠINIT":13140,"usedForLoop":13141,"Fonts":13142,"åĪ°":13143,"åĪĿå§ĭ":13144,"bufferPos":13145,"ĠSTREAM":13146,"MessageBox":13147,"Quick":13148,"Ġlut":13149,"ĠLoader":13150,"ductor":13151,"Allow":13152,"ĠFileSystem":13153,"ĠUninitObject":13154,"nodelet":13155,"running":13156,"Ġparsing":13157,"ĠdeleteNode":13158,"ĠAddUpdate":13159,"temperature":13160,"Ġuses":13161,"ById":13162,"DecBlock":13163,"FIND":13164,"reply":13165,"çļĦåĢ¼":13166,"ĠlinkType":13167,"Ġpercent":13168,"189":13169,"vertices":13170,"ĠNodeType":13171,"Tracer":13172,"iscord":13173,"Translation":13174,"ĠScreen":13175,"Running":13176,"ĠChrone":13177,"åħŃ":13178,"ĠPropertyInitialiser":13179,"giungi":13180,"DEPTH":13181,"umpy":13182,"Modify":13183,"ĠRelayout":13184,"fastcall":13185,"556":13186,"Ġimport":13187,"Ġtopic":13188,"ĠEncoding":13189,"ĠRendering":13190,"ĠBOOLEAN":13191,"Perform":13192,"PerTeam":13193,"Permutation":13194,"ĠsquareRoot":13195,"ĠDeserial":13196,"Providers":13197,"rolled":13198,"ĠPlayerPtr":13199,"Ġinitialized":13200,"ISzAlloc":13201,"Locked":13202,"LockGuard":13203,"TriMesh":13204,"ĠDiagnostics":13205,"AddressInRegister":13206,"BasicType":13207,"Ġsyscall":13208,"ĠThese":13209,"glew":13210,"ĠPLSDialog":13211,"ĠPLSDpiHelper":13212,"Ġopt":13213,"CallbackInfo":13214,"checkError":13215,"calculate":13216,"copyable":13217,"Weight":13218,"çĽ´æİ¥":13219,"ĠResult":13220,"Ġworks":13221,"UserConfig":13222,"imgproc":13223,"colors":13224,"NUMBER":13225,"Playground":13226,"ĠDEVIC":13227,"LOGGING":13228,"]<<\"\\":13229,"atomico":13230,"ĠCHANNEL":13231,"ĠIPMask":13232,"Ġvmk":13233,"ĠszName":13234,"Ġ240":13235,"Guide":13236,"HashMap":13237,"260":13238,"multitype":13239,"ç»Ł":13240,"bdcSvd":13241,"Ġfactor":13242,"ĠPLAYER":13243,"ConditionalStatement":13244,">**<":13245,"NetInitializer":13246,"Ġblocks":13247,"ĠToInt":13248,"playlist":13249,"Ġuserid":13250,"frontend":13251,"CatchmentAg":13252,"sieve":13253,"Ġwindows":13254,"ĠTRA":13255,"PLSCommonScrollBar":13256,"NESS":13257,"STDC":13258,"STDMETHODIMP":13259,"VarSymbol":13260,"Ġadj":13261,"Ġadapter":13262,"Instantiations":13263,"ĠeigenValues":13264,"åº¦":13265,"ĠChecksumForward":13266,"ĠRFKEnum":13267,"CGAL":13268,"overwrite":13269,"Ġcalculate":13270,"ĠsearchMatrix":13271,"ĠEEPROM":13272,"ĠNOMINMAX":13273,"PropertyDefinitionBase":13274,"Detach":13275,"ĠBinarySearch":13276,"INTERNALS":13277,"ĠLOGD":13278,"INITI":13279,"åĪĹæķ°":13280,"PairCEGUI":13281,"ĠAutomatic":13282,"ĠFILESYS":13283,"éĢł":13284,"CXMISC":13285,"JobNode":13286,"tls":13287,"åĨĻ":13288,"TRAIN":13289,"SpinBoxçļĦåĢ¼":13290,"retto":13291,"ĠComponentSystem":13292,"riticCatchment":13293,"Ġsymbols":13294,"Ġtags":13295,"Ġbackprop":13296,"etersEncoder":13297,"Validator":13298,"Multip":13299,"VideoWidget":13300,"ä¸Ĭä¸¤ä¸ª":13301,"BACKREF":13302,"alking":13303,"384":13304,"NamespaceFragment":13305,"ĠTraits":13306,"ArrSize":13307,"Ġenvironment":13308,"CUDNN":13309,"connected":13310,"good":13311,"äºĮ":13312,"Ġutilities":13313,"Quaterniond":13314,"AgHud":13315,"XMLResourceManager":13316,"ĠClearList":13317,"ĠTipsSystem":13318,"Combs":13319,"Ġstatsd":13320,"ĠUTIL":13321,"ĠNotification":13322,"Marker":13323,"ĠTHREAD":13324,"ĠTitleButton":13325,"ĠFORM":13326,"ĠFORCEINLINE":13327,"Ġdeclaration":13328,"MACHINE":13329,"åĽ¾":13330,"Ġcreated":13331,"amedXMLResourceManager":13332,"structures":13333,"Finder":13334,"commit":13335,"ĠSOURCE":13336,"ĠSOCKET":13337,"BinopExpression":13338,"iverCombs":13339,"Ġrecursion":13340,"MetaEntry":13341,"operation":13342,"ffffffff":13343,"ĠZBehaviorState":13344,"ĠMaterialInstance":13345,"Ġluaopen":13346,"å¯¹è¯Ŀæ¡Ĩä¸Ĭä¸¤ä¸ª":13347,"Canvas":13348,"QPaintEvent":13349,"]<='":13350,"FLAGS":13351,"multiplication":13352,"Timestep":13353,"Ġsimulation":13354,"Ġsimilar":13355,"ĠLockGuard":13356,"ĠSaveMenu":13357,"ĠisPowerOfTwo":13358,"controls":13359,"Ġsmaller":13360,"AbstractEventJoin":13361,"å¼Ģ":13362,"Ġpeak":13363,"Ġaccum":13364,"ĠActorUniqueID":13365,"ĠSignature":13366,"ĠRecord":13367,"HeapObj":13368,"ĠMYSHAREDLIBSHARED":13369,"EulerWalkable":13370,"oraDv":13371,"ĠdwVersion":13372,"ĠOrigin":13373,"éĥ¨åĪĨ":13374,"'||*":13375,"Cycle":13376,"ĠDeleted":13377,"Ġcorrectly":13378,"Crypt":13379,"ĠScoreboardId":13380,"Ġ{{(":13381,"ĠHeapObj":13382,"Cartographic":13383,"DragObject":13384,"SelStrategy":13385,"ĠAsyncMqttClient":13386,"ĠCheatLoop":13387,"housenumber":13388,"SpecificationVector":13389,"æŀĦéĢł":13390,"èİ·åıĸå¯¹è¯Ŀæ¡Ĩè¾ĵåħ¥çļĦè¡Į":13391,"èİ·åıĸå¯¹è¯Ŀæ¡Ĩè¾ĵåħ¥çļĦåĪĹæķ°":13392,"Ġãģ§åī²ãĤĬåĪĩãĤĮãĤĭãĤĤãģ®ãģ®åĢĭæķ°":13393,"RemoteIO":13394,"canonical":13395,"flann":13396,"ĠManual":13397,"ĠExceptions":13398,"REFERENCED":13399,"Fundamental":13400,"Middle":13401,"tblgen":13402,"ĠmissingNumber":13403,"ĠBasicType":13404,"LOOKAHEAD":13405,"ĠCharacter":13406,"ĠHelloWorld":13407,"EfcDsrcApplication":13408,"Entropy":13409,"æ¯Ķ":13410,"æĺ¾ç¤º":13411,"etooth":13412,"PLSChannelLoginView":13413,"quoted":13414,"SerializationCluster":13415,"ĠFUAvatarSDK":13416,"ĠGeneratorID":13417,"BoundaryController":13418,"ĠCOMMONSAMPLE":13419,"CCECHO":13420,"NegateConditionalWrapper":13421,"XPtrTorch":13422,"Ġphone":13423,"ToMetersEncoder":13424,"ĠComplexity":13425,"oregroundColor":13426,"archetype":13427,"ĠATTR":13428,"ĠsetForegroundColor":13429,"facetType":13430,"è¿ŀæİ¥":13431,"RenderedString":13432,"SQUARE":13433,"broadcast":13434,"lionet":13435,"nullopt":13436,"DExtras":13437,"ĠUSERPROG":13438,"Ġdelimiter":13439,"missing":13440,"Ġç¾İ":13441,"ByteSlice":13442,"qwdialogheaders":13443,"ç¾¤ç»Ħ":13444,"å¤īæĽ´ãģĻãĤĭ":13445,"è½¬æį¢ä¸º":13446,"setCodecForLocale":13447,"PlotPoint":13448,"hyfd":13449,"jectory":13450,"zhangqiang":13451,"Ġtempl":13452,"InstrVarSymbol":13453,"ansparency":13454,"Scratch":13455,"ccurrences":13456,"Ġopensans":13457,"DecodeQueueBase":13458,"PolynomialList":13459,"BREAK":13460,"DendriticCatchment":13461,"HMANN":13462,"Wpragmas":13463,"Wpedantic":13464,"WonderTrader":13465,"caryon":13466,"donna":13467,"xshmfence":13468,"inomio":13469,"Ġ==============================================================================<":13470,"Ġisocales":13471,"ĠCObjectVector":13472,"ĠPowC":13473,"ĠNLOHMANN":13474,"egttools":13475,"preemptable":13476,"ĠLANTERN":13477,"ĠIESAMPLE":13478,"ĠUFLV":13479,"libUnusedForLoop":13480,"essenger":13481,"quakeglm":13482,"ĠmaxToRoot":13483,"ĠsetRowColumn":13484,"ĠsetBackgroundColor":13485,"ĠsumUptoN":13486,"ĠStripe":13487,"InteriorCatchment":13488,"14906":13489,"åĪĿå§ĭå¯¹è¯Ŀæ¡Ĩä¸Ĭä¸¤ä¸ª":13490,"ĠSTREAMINGCLASSIFIER":13491,"ISzAllocPtr":13492,"ĠDEVICES":13493,"atomicobject":13494,"CatchmentAggregate":13495,"CartographicRealization":13496,"èİ·åıĸå¯¹è¯Ŀæ¡Ĩè¾ĵåħ¥çļĦè¡Įæķ°":13497,"libUnusedForLoopVar":13498,"åĪĿå§ĭå¯¹è¯Ŀæ¡Ĩä¸Ĭä¸¤ä¸ªSpinBoxçļĦåĢ¼":13499,"%*/<":13500,"']=":13501,"']++;<":13502,")\";<":13503,")>;<":13504,",*":13505,",//":13506,"012":13507,"450":13508,"59":13509,"500009":13510,"628":13511,";\"<":13512,"=((":13513,">(\"":13514,">(),":13515,"AO":13516,"AAC":13517,"AES":13518,"BQ":13519,"BV":13520,"Bang":13521,"BIG":13522,"Bone":13523,"BEW":13524,"Border":13525,"BATCH":13526,"Branch":13527,"Bcj":13528,"Cent":13529,"CAR":13530,"Cnt":13531,"CALI":13532,"Curr":13533,"Clim":13534,"Center":13535,"Clear":13536,"Clip":13537,"CMI":13538,"Crash":13539,"CmptsView":13540,"Don":13541,"Dart":13542,"DSP":13543,"Done":13544,"Digit":13545,"Dummy":13546,"EE":13547,"EME":13548,"EET":13549,"Freq":13550,"Feedback":13551,"GD":13552,"GCC":13553,"Guid":13554,"GROUP":13555,"HL":13556,"Histogram":13557,"IVector":13558,"IAffine":13559,"Ke":13560,"Kism":13561,"Lim":13562,"LIT":13563,"Lazy":13564,"Men":13565,"MCommand":13566,"MDragObject":13567,"NAP":13568,"OV":13569,"Pid":13570,"Pick":13571,"Phys":13572,"Podium":13573,"Pipe":13574,"QVector":13575,"QMenu":13576,"QKey":13577,"QAction":13578,"QHandler":13579,"QClose":13580,"QTextEdit":13581,"Quality":13582,"QVBoxLayout":13583,"Qubit":13584,"RS":13585,"Rand":13586,"RNG":13587,"Spac":13588,"Self":13589,"SOLVER":13590,"SwapChain":13591,"SOLUTION":13592,"TArray":13593,"TREE":13594,"Trees":13595,"Toggle":13596,"UScene":13597,"VRect":13598,"VGA":13599,"WB":13600,"Wh":13601,"WCHAR":13602,"WIDTH":13603,"ZLIB":13604,"ZGameType":13605,"ZChannelRuleMgr":13606,"ZGameDraw":13607,"ZNetRepository":13608,"ZQuestMap":13609,"ZCMI":13610,"_;":13611,"_{":13612,"aj":13613,"aInterpre":13614,"bil":13615,"best":13616,"clo":13617,"clic":13618,"cli":13619,"ccf":13620,"cdecl":13621,"clable":13622,"cBlock":13623,"cases":13624,"cSensorScanner":13625,"dil":13626,"discord":13627,"euler":13628,"fin":13629,"fri":13630,"fil":13631,"fraction":13632,"flake":13633,"gles":13634,"gpu":13635,"gadget":13636,"hip":13637,"horizontal":13638,"ilu":13639,"ipp":13640,"iph":13641,"iTurbo":13642,"lla":13643,"lObj":13644,"mgr":13645,"mix":13646,"mvm":13647,"mfc":13648,"metric":13649,"micro":13650,"nf":13651,"nar":13652,"neg":13653,"nish":13654,"oop":13655,"oke":13656,"pWidget":13657,"pMatch":13658,"pattern":13659,"qglobal":13660,"qMRML":13661,"rvector":13662,"rsum":13663,"rbegin":13664,"ratio":13665,"sb":13666,"sat":13667,"sand":13668,"sData":13669,"sound":13670,"scoped":13671,"shell":13672,"suffix":13673,"tar":13674,"tower":13675,"uef":13676,"wt":13677,"wsi":13678,"xFFFF":13679,"year":13680,"yrics":13681,"yuki":13682,"zu":13683,"zy":13684,"zion":13685,"¡ãģ®çĬ¶æħĭ":13686,"¨ãĥ":13687,"¯ãĤ":13688,"»º":13689,"»æ³ķ":13690,"å±":13691,"åĳ":13692,"æı":13693,"æĵįä½ľ":13694,"çķ":13695,"é»":13696,"éł":13697,"éħįåĪĹ":13698,"ĉĠĠĠĠĠ":13699,"ĠON":13700,"Ġame":13701,"Ġray":13702,"Ġ),":13703,"Ġrig":13704,"Ġorg":13705,"Ġelf":13706,"Ġerrno":13707,"Ħı":13708,"ı¾":13709,"inint":13710,"instring":13711,"ĠĠĠĠĉĠĠĠĠĠĠĠ":13712,"detach":13713,"sting":13714,"stime":13715,"atial":13716,"erter":13717,"realloc":13718,"reserve":13719,"//...<":13720,"Ġ\"\"":13721,"Ġ\"=\"":13722,"Ġ\"\";":13723,"utate":13724,"uted":13725,"Ġcast":13726,"Ġcmpts":13727,"Ġcannot":13728,"Ġclusters":13729,"amage":13730,"amily":13731,"Ġmar":13732,"Ġmilliseconds":13733,"ĠmPulses":13734,"Ġmirror":13735,"endian":13736,"Ġim":13737,"Ġitr":13738,"Ġimg":13739,"()};<":13740,"Ġnh":13741,"Ġnth":13742,"Ġnative":13743,"semaphore":13744,"coordinate":13745,"Ġtile":13746,"ifo":13747,"icide":13748,"Ġ*;<":13749,"Ġvideo":13750,"Ġvariables":13751,"Ġfine":13752,"Ġfinished":13753,"rared":13754,"radi":13755,"rapped":13756,"rapid":13757,"Ġsamp":13758,"Ġsobj":13759,"Ġpick":13760,"Ġphys":13761,"ĠpListener":13762,"Ġpubl":13763,"ĠpStage":13764,"Ġphysics":13765,"Ġbatch":13766,"Ġbody":13767,"Ġrest":13768,"Ġage":13769,"Ġautolink":13770,"Ġaverage":13771,"hetypes":13772,"laws":13773,"loquent":13774,"ectral":13775,"router":13776,"atever":13777,"Ġ04":13778,"under":13779,"unreal":13780,"Ġcolour":13781,"Ġintern":13782,"entwo":13783,"entence":13784,"Ġ150":13785,"usive":13786,"usuu":13787,"exists":13788,"umble":13789,"Ġ(-":13790,"ĠAg":13791,"ĠAss":13792,"ĠARE":13793,"ĠApi":13794,"ĠAutolinkedNative":13795,"dos":13796,"domain":13797,"ERAL":13798,"ERIAL":13799,"Ġ//..":13800,"ĠSI":13801,"ĠSW":13802,"ĠSpace":13803,"ĠSIG":13804,"ĠSink":13805,"ĠSPC":13806,"ĠSome":13807,"ĠSwap":13808,"isupper":13809,"Ġgot":13810,"Ġgain":13811,"ĠisFirstInnings":13812,"ĠCY":13813,"ĠCl":13814,"ĠCy":13815,"ĠCent":13816,"ĠCum":13817,"ĠCIR":13818,"ĠCTask":13819,"ĠClean":13820,"ĠCWeapon":13821,"ĠonDraw":13822,"Ġthey":13823,"edium":13824,"ĠEN":13825,"tereo":13826,"ĠMid":13827,"ĠMeg":13828,"ĠMPL":13829,"ĠMIT":13830,"ĠMAC":13831,"ĠMULTI":13832,"ĠMSVC":13833,"..<":13834,"Ġ27":13835,"Ġ2000":13836,"ĠPD":13837,"ĠPlay":13838,"ĠPGE":13839,"ĠPVOID":13840,"ĠPOLY":13841,"ĠTE":13842,"ĠTV":13843,"ĠTs":13844,"ĠTool":13845,"ĠTotal":13846,"Ġdic":13847,"Ġdiv":13848,"Ġdmac":13849,"ENC":13850,"ENVIRONMENT":13851,"Ġ{{<":13852,"Ġins":13853,"Ġinject":13854,"ĠinOrder":13855,"Ġindices":13856,"Ġforce":13857,"ALG":13858,"ONCE":13859,":\";<":13860,"spr":13861,"spObject":13862,"Inline":13863,"InDuration":13864,"Indices":13865,"Ġlon":13866,"325":13867,"LEFT":13868,"ĠGEN":13869,"ĠGiven":13870,"ĠGENERATE":13871,"ĠNamespace":13872,"RECO":13873,"RETURN":13874,"REMOVE":13875,"Ġchildren":13876,"ĠDT":13877,"ĠDW":13878,"ĠDIS":13879,"irct":13880,"ARI":13881,"ARK":13882,"ATA":13883,"ATED":13884,"PLoop":13885,"preter":13886,"preview":13887,"prepare":13888,"asing":13889,"andScore":13890,"allenge":13891,"ĠFA":13892,"ĠFr":13893,"ĠFloat":13894,"ĠFtp":13895,"ĠFlow":13896,"ĠFunc":13897,"utore":13898,"Ġ48":13899,"Ġ49":13900,"ORB":13901,"setMaximum":13902,"Ġchars":13903,"DECODE":13904,"DEATH":13905,"Stg":13906,"(\"./":13907,"Ġhal":13908,"Ġhardware":13909,"IMGUI":13910,"ĠLow":13911,"ĠLight":13912,"ĠLOT":13913,"ĠQFont":13914,"ĠQThread":13915,"ĠQChar":13916,"ĠQPixmap":13917,"Ġstl":13918,"Ġstra":13919,"ĠRO":13920,"ĠRo":13921,"ĠRUMBLE":13922,"getter":13923,"getKey":13924,"getDistance":13925,"sonic":13926,"apio":13927,"PPC":13928,"ĠBORDER":13929,"ĠBoom":13930,"ĠIFrame":13931,"ĠtoString":13932,"Ġtolua":13933,"like":13934,"Ġarma":13935,"emon":13936,"APOL":13937,"perations":13938,"osh":13939,"Ġ'('":13940,"FIX":13941,"thickness":13942,"Ġrsum":13943,"Ġranges":13944,"Ġrpn":13945,"upsample":13946,"ĠWlan":13947,"Ġyet":13948,"ĠgetX":13949,"ĠgetY":13950,"ĠgetSize":13951,"ĠgetTinylangVersion":13952,"redScore":13953,"ĠHas":13954,"ĠHTTP":13955,"ĠHuang":13956,"Ġ>>=":13957,"MOB":13958,"Ġdeactivate":13959,"ntensor":13960,"ofer":13961,"ALIZE":13962,"Prov":13963,"ROUND":13964,"properties":13965,"collision":13966,"vie":13967,"StringType":13968,"StringMap":13969,"background":13970,"iveHund":13971,"artPointer":13972,"artaglia":13973,"ĠOff":13974,"IClass":13975,"eleton":13976,"elems":13977,"SHEET":13978,"tau":13979,"ĠVer":13980,"ĠVal":13981,"ĠVARI":13982,"CoreMinimal":13983,"stdcall":13984,"GLFW":13985,"fff":13986,"ffers":13987,"quaternion":13988,"Ġ500":13989,"COMB":13990,"UNRE":13991,"UNREFERENCED":13992,"scc":13993,"scan":13994,"scroll":13995,"DIFF":13996,"Ġ105":13997,"udp":13998,"BaseScope":13999,"fab":14000,"fail":14001,"ĠsetTime":14002,"Dynamics":14003,"Ġsem":14004,"ĠXuef":14005,"ivation":14006,"Ġstringstream":14007,"CHIP":14008,"abet":14009,"acters":14010,"ĠExt":14011,"Deep":14012,"Decompiled":14013,"tests":14014,"readu":14015,"Reason":14016,"noreturn":14017,"CONTEXT":14018,"YSY":14019,"tices":14020,"DataChecker":14021,"ĠnewN":14022,"msbl":14023,"OnRun":14024,"Scrip":14025,"Ġ|=":14026,"OLIC":14027,"Ġpalette":14028,"maximum":14029,"ressor":14030,"Ġstrcpy":14031,"Ġbuilt":14032,"ributore":14033,"Collections":14034,"][\"":14035,"ĠGetClient":14036,"ĠGetMouse":14037,"Children":14038,"Ġunion":14039,"ĠGLenum":14040,"baseStyle":14041,"enumerate":14042,"MASK":14043,"arkov":14044,"Computing":14045,"AVA":14046,"FileMeta":14047,"akusuu":14048,"tingTeam":14049,"GetModule":14050,"GetTask":14051,"GetLastError":14052,"MenuType":14053,"MenuStyle":14054,"Unregister":14055,"Ġmini":14056,"INTR":14057,"Ġanchor":14058,"aches":14059,"444":14060,"LINUX":14061,"TRAC":14062,"ShlObj":14063,"ĠcreateStrategy":14064,"ouch":14065,"Ġprimes":14066,"REGISTRY":14067,"REGISTRATION":14068,"newlib":14069,"ASSE":14070,"Ġcontainer":14071,"StateObject":14072,"mini":14073,"ĠRegisterAutolinkedNative":14074,"sman":14075,"swizz":14076,"NumPtr":14077,"AGMA":14078,"RTL":14079,"RTUAL":14080,"AddSource":14081,"OPERATOR":14082,"ĠmyVector":14083,"Ġpreload":14084,"apple":14085,"PathDelegate":14086,"PathSaver":14087,">/*%":14088,"ErrorType":14089,"ErrorMessage":14090,"interview":14091,"woofer":14092,"ĠZChannelRuleMgr":14093,"ĠZilu":14094,"ĠDomain":14095,"Packages":14096,"Logic":14097,"Ġtemporary":14098,"TimeKeeper":14099,"READY":14100,"ĠåĢ":14101,"ĠåĬ":14102,"ModulePackages":14103,"------------------------------------------------":14104,"Ġparticular":14105,"ACTIVE":14106,"GameMode":14107,"GameFramework":14108,"Ġlibc":14109,"SensorFactory":14110,"archive":14111,"ImageManager":14112,"ImageInfoDialog":14113,"THEME":14114,"ĠImFont":14115,"994":14116,"Ġappro":14117,"Ġapply":14118,"MEMBER":14119,"FUNCS":14120,"SolverCholesky":14121,"REFCOUNT":14122,"avg":14123,"ĠAnimated":14124,"NSArray":14125,"amerate":14126,"ONTEND":14127,"AppDelegate":14128,"ĠstartTime":14129,"ĠBaseScope":14130,"PCSTR":14131,"trim":14132,"Ġ(!(":14133,"gameInstance":14134,"subscriber":14135,"Seeta":14136,"CommandBase":14137,"ĠController":14138,"2402":14139,"+=(":14140,"FontLoader":14141,"IOCTL":14142,"ighter":14143,"SymbolVar":14144,"aled":14145,"ĠSTATE":14146,"VIRTUAL":14147,"Ġ---<":14148,"Opcode":14149,"]==')":14150,"insertSpac":14151,"Admin":14152,"Always":14153,"ĠcheckRequirements":14154,"Ġwhatever":14155,"ĠFLAG":14156,"ĠListbox":14157,"Subscriber":14158,"versing":14159,"runing":14160,"runner":14161,"ĠEyerSharedCount":14162,"ĠdeleteStrategy":14163,"DebugOverlay":14164,"Span":14165,"Spotify":14166,"ingDistance":14167,">{}<":14168,"ĠfindMin":14169,"ĠfindDuplicate":14170,"Decimal":14171,"Org":14172,"Countdown":14173,"ĠOnRun":14174,"packets":14175,"systems":14176,"OutDuration":14177,"MemoryManager":14178,"Ġpermutation":14179,"web":14180,"website":14181,"RegisterWith":14182,"Ġheights":14183,"TextureTarget":14184,"Trapframe":14185,"AttitudeController":14186,"030":14187,"QtPlugin":14188,"Constants":14189,"Constraint":14190,"ĠMODULES":14191,"Unitig":14192,"Groups":14193,"USAGE":14194,"glsl":14195,"EntityRegisterer":14196,"Ġposix":14197,"localplayer":14198,"100000":14199,"ĠRepres":14200,"PassManager":14201,"PassRegistry":14202,"ĠDynamicJsonDocument":14203,"Notify":14204,"ĠRenderWindow":14205,"Ġreading":14206,"Ġpaths":14207,"PRAGMA":14208,"when":14209,"velop":14210,"ãĤĴè¿ĶãģĻ":14211,"BlockLinear":14212,"ĠWorldObject":14213,"ĠenumStrategy":14214,"Ġenumerate":14215,"filesys":14216,"hedule":14217,"DEBUGGER":14218,"ĠCompute":14219,"Ġcontaining":14220,"Allocate":14221,"issues":14222,"Ġfilesystem":14223,"frames":14224,"descriptions":14225,"LoggerChain":14226,"Beacon":14227,"ĠQtNodes":14228,"FactoryRegistration":14229,"checker":14230,"3589":14231,"JsonConversion":14232,"copyleft":14233,"Painter":14234,"Ġamt":14235,"AndS":14236,"SliderWidget":14237,"Import":14238,"UserDefined":14239,"Mini":14240,"Minimum":14241,"Ġsinphi":14242,"ĠSequence":14243,"ĠDEF":14244,"ĠDEFIN":14245,"LOGGER":14246,"Parenth":14247,"Ġwarnings":14248,"nowflake":14249,"Ġcurve":14250,"ToolButton":14251,"ToolBar":14252,"ĠEventDispatcher":14253,"azard":14254,"*/)<":14255,"Posix":14256,"ĠTransform":14257,"ĠLibretto":14258,"ĠmoveZeroes":14259,"Ġidentifier":14260,"0500":14261,"haser":14262,"ĠWeb":14263,"Ġvisor":14264,"framework":14265,"rammar":14266,"DefaultEntityRegisterer":14267,"Ordering":14268,"ĠILUT":14269,"æľī":14270,"heights":14271,"Ġglobals":14272,"Movement":14273,"çĶ»æ³ķ":14274,"debugger":14275,"CatchmentArea":14276,"ServiceManager":14277,"IMPLE":14278,"GeometryBuffer":14279,"Macro":14280,"Macros":14281,"ZRuleQuest":14282,"ZRuleTraining":14283,"ZRuleSurvival":14284,"Ġcvflann":14285,"highgui":14286,"ShapeMesh":14287,"Tracks":14288,"Vars":14289,"ĠGraphModification":14290,"ĠChecksum":14291,"Ġhelp":14292,"actions":14293,"Ġrequire":14294,"ĠSPIClass":14295,"SourceBuilder":14296,"Ġcalc":14297,"Ġcallable":14298,"ä¸ªæķ°":14299,"RuntimeID":14300,"riteria":14301,"Ġgodot":14302,"MMatchGameTypeMgr":14303,"MMatchDBFilter":14304,"RADIOLIB":14305,"secut":14306,"ĠLOGGER":14307,"]!='":14308,"raiEvent":14309,"Archetypes":14310,"StaticPatcher":14311,"è¿Ľç¨ĭ":14312,"DBG":14313,"Executer":14314,"FindLineEdit":14315,"Placeholder":14316,"Ġviewer":14317,"Ġfunzion":14318,"extensions":14319,"ĠBuild":14320,"ediate":14321,"ĠUtils":14322,"PROCESSOR":14323,"654":14324,"Locator":14325,"ImPlotPoint":14326,"Ġaggiungi":14327,"DirectX":14328,"BUFFERED":14329,"MSA":14330,"passes":14331,"wxid":14332,"Ġcommands":14333,"ĠNVSDK":14334,"ĠRandomNumber":14335,"ĠInputStream":14336,"Internals":14337,"ĠHALF":14338,"OPTIONS":14339,"lingTeam":14340,"vgentwo":14341,"LIMITS":14342,"CRET":14343,"äºº":14344,"Ġdebugger":14345,"Ġdefinitions":14346,"lowerbed":14347,"Distinct":14348,"]<<\",":14349,"anchor":14350,"Ġchannels":14351,"ScopedGuard":14352,"ĠEyerAVRational":14353,"åĩĨ":14354,"ĠCalled":14355,"ivisors":14356,"æľĢå°ı":14357,"NETWORK":14358,"ĠTitleMenu":14359,"Skin":14360,"channels":14361,"ĠPCSensor":14362,"FileSystemWatcher":14363,"Extensions":14364,"Finish":14365,"Ġtracker":14366,"ĠPerson":14367,"HELP":14368,"Small":14369,"SmartPointer":14370,"ĠDevicePathDelegate":14371,"ĠpackageProviders":14372,"GAMETYPE":14373,"SdaCodeGraph":14374,"drs":14375,"ĠFsSimpleWindowConnector":14376,"Ġhwnd":14377,"Ġdens":14378,"ĠViewer":14379,"Ġvisited":14380,"ĠGraphicsElement":14381,"GUIContext":14382,"Kernels":14383,"KernelRegistry":14384,"Marlin":14385,"Ġfibo":14386,"ĠNTAPI":14387,"ĠNTSTATUS":14388,"ProxyStyle":14389,"HOOKS":14390,"éķ¿":14391,"ĠmajorityElement":14392,"ĠDxsoCode":14393,"DELAY":14394,"ĠFadeInDuration":14395,"ĠFadeOutDuration":14396,
[...]
